e r 26861
e n</w> 25913
i n 24054
e r</w> 21347
t h 18500
a n 18473
c h 17727
e n 16958
u n 12018
s t 11943
r e 11422
a r 10717
i t 10465
th e</w> 10203
i n</w> 10034
o r 9577
a t 9552
o n 9400
a l 8918
o n</w> 8784
d i 8126
c h</w> 7723
e s</w> 7628
e d</w> 7538
e l 7409
i s 6704
in g</w> 6691
r o 6685
l i 6334
a u 6257
d er</w> 6186
an d</w> 6087
e s 5947
a s</w> 5858
t o</w> 5847
i l 5663
o f</w> 5171
u r 5077
s i 5065
e i 4946
a n</w> 4824
e in 4704
a s 4600
a t</w> 4510
o l 4473
t i 4455
di e</w> 4381
o m 4311
b e 4282
s ch 4254
g e 4112
r i 4093
o u 4040
o r</w> 4031
d e 3979
t e</w> 3949
i s</w> 3864
d en</w> 3840
r a 3659
s a 3568
un d</w> 3501
a l</w> 3457
v er 3446
h e</w> 3360
s e 3295
l e 3251
a b 3211
i t</w> 3185
en t</w> 3078
a m 3074
at i 2857
t en</w> 2827
g en</w> 2722
u s 2699
i r 2508
i c 2476
t er 2453
a c 2434
n e 2411
i e</w> 2374
a g 2358
v e</w> 2341
en t 2317
w h 2274
i e 2255
l e</w> 2225
d e</w> 2217
i ch 2216
a r</w> 2200
l o 2196
un g</w> 2188
t e 2182
h a 2145
s p 2127
' s</w> 2099
n o 2086
d er 2073
h r 2017
i g 2002
th at</w> 1988
e t 1972
i d</w> 1965
u t 1944
w e 1892
f f 1880
f or</w> 1829
0 0 1810
l y</w> 1806
t er</w> 1786
s t</w> 1773
o p 1760
p ro 1708
T he</w> 1706
f ü 1697
e m 1687
a y</w> 1657
c on 1650
sa id</w> 1649
c e</w> 1648
S t 1642
w er 1636
w as</w> 1595
ch en</w> 1592
v on</w> 1567
s e</w> 1537
t s</w> 1490
c om 1480
it h</w> 1478
z u</w> 1477
u m</w> 1468
is t</w> 1458
s u 1446
i m 1418
a d 1408
e h 1406
c o 1402
g e</w> 1399
b er 1387
i m</w> 1376
f or 1371
m it</w> 1366
w ith</w> 1365
e c 1361
p o 1328
b er</w> 1308
ati on</w> 1307
a h 1300
ich t</w> 1298
d as</w> 1289
e m</w> 1273
A n 1271
2 00 1265
au f</w> 1260
a k 1255
u l 1249
it i 1248
ein e</w> 1245
er s</w> 1240
a ch 1238
e in</w> 1230
an d 1215
u t</w> 1213
a f 1208
de m</w> 1206
g en 1199
s h 1194
al s</w> 1185
e x 1164
il l</w> 1162
b e</w> 1161
fü r</w> 1160
si ch</w> 1159
in g 1152
a p 1146
I n 1142
u m 1134
ar e</w> 1134
i st 1131
h e 1126
p l 1124
c k 1123
d es</w> 1122
n icht</w> 1086
S ch 1086
a ch</w> 1076
D ie</w> 1075
er e</w> 1068
s o</w> 1066
p er 1065
at e</w> 1051
r u 1048
l d</w> 1046
ch e</w> 1041
el l 1036
e st 1033
b y</w> 1021
al l 1015
a m</w> 1014
V er 1009
o o 1004
ro m</w> 985
ati on 985
p re 977
o w 974
U n 971
ou t</w> 970
w or 967
v i 966
h is</w> 954
li ch</w> 947
u r</w> 945
h t</w> 941
f rom</w> 939
d ay</w> 936
ei t</w> 920
q u 918
m o 915
r an 914
m en</w> 906
it y</w> 906
g i 898
t h</w> 895
ha ve</w> 893
m e</w> 883
R e 882
c i 867
ä n 860
w ill</w> 859
ol l 855
ou ld</w> 855
al l</w> 845
i ch</w> 830
p or 829
d u 827
A u 823
g es 819
as s</w> 819
t ed</w> 817
th er</w> 812
h as</w> 806
s en</w> 805
t o 804
e y</w> 799
y e 786
m ent</w> 782
l a 780
il li 771
m an 770
h o 762
p ar 761
e d 755
e b 755
g t</w> 753
ti on</w> 751
C h 749
P ro 746
au ch</w> 741
l u 738
it s</w> 732
on e</w> 732
t z 725
a y 724
p e 723
h at</w> 720
au s</w> 716
un g 714
i er 712
as t</w> 712
i r</w> 707
v er</w> 704
d s</w> 702
in d</w> 701
or e</w> 700
t ra 697
no t</w> 697
h ab 691
t r 689
er n</w> 686
z u 678
au s 675
m e 674
m in 673
be i</w> 670
m a 665
s o 661
w ir 659
a hr 658
wh o</w> 658
ein er</w> 655
w ar 654
d ing</w> 649
A l 647
is chen</w> 647
ein en</w> 646
m an</w> 643
o ff 639
d en 638
D e 628
b o 627
g o 626
es t</w> 626
i el 622
200 7</w> 622
d ass</w> 616
re c 616
m er</w> 614
t w 611
o h 610
D er</w> 610
T h 608
s er 605
e p 604
r it 602
h er</w> 602
n ach</w> 601
on s</w> 601
ein em</w> 600
ü r 599
n en</w> 594
e t</w> 592
k e</w> 592
an n</w> 591
ä r 590
g er 589
si e</w> 587
in e</w> 585
d o 584
ag e</w> 583
un gen</w> 582
e l</w> 581
f t</w> 581
w ar</w> 581
sch af 581
u p</w> 576
s en 575
t a 573
v or</w> 573
g an 568
E r 567
t en 565
ha d</w> 565
ü n 564
un d 563
ent s</w> 562
wer e</w> 562
g er</w> 561
st en</w> 561
ut sch 561
ar k 555
th is</w> 553
I n</w> 552
a d</w> 550
B e 546
E n 544
c k</w> 542
N e 540
ei r</w> 534
b en</w> 533
ou r</w> 533
th ey</w> 529
ch t</w> 525
en d</w> 522
k l 517
A r 517
g ro 514
S p 514
th eir</w> 511
ung s 511
g el 508
es s</w> 507
re s 505
m er 504
m ore</w> 504
b ut</w> 502
com p 502
au f 501
w ie</w> 500
t ing</w> 499
no ch</w> 499
1 9 498
e it 495
n e</w> 495
be en</w> 495
u s</w> 494
el l</w> 491
re d</w> 490
ing s</w> 490
wer den</w> 487
g te</w> 485
h al 485
g ht</w> 484
h r</w> 484
D as</w> 484
d ent</w> 474
u b 474
an n 474
f i 473
o k 473
eh r</w> 473
s ind</w> 471
om e</w> 465
l and</w> 464
in ter 464
l ei 462
f in 460
in c 460
il l 456
k s</w> 453
at ed</w> 453
we it 452
ü ber</w> 451
f ir 450
k om 448
ar s</w> 448
w ould</w> 447
a v 445
di es 445
h en</w> 444
y o 444
s ol 441
wh ich</w> 440
s el 438
an s</w> 438
st r 436
h at 435
st ell 435
R o 433
d ur 433
p p 433
p ri 431
li e 430
wir d</w> 430
m on 428
r ä 425
e v 423
g h 423
ur e</w> 423
an t</w> 422
G e 421
al i 421
' t</w> 419
is che</w> 419
m it 418
t t 415
ö r 413
g r 412
al ly</w> 412
ar d</w> 409
ab er</w> 409
ab out</w> 409
ö n 407
d ed</w> 406
w en 406
is e</w> 406
P ar 405
v or 405
t s 404
w i 404
00 0</w> 404
us t</w> 403
hab en</w> 402
t ri 400
l in 400
d a 398
v o 398
m ehr</w> 397
re i 397
u e</w> 396
b t</w> 394
ac k</w> 394
f o 393
n er</w> 393
al so</w> 391
an y</w> 390
si on</w> 390
f e 389
w e</w> 389
o ther</w> 387
i hr 386
A b 386
c an</w> 384
N o 384
g h</w> 383
B er 383
E in 382
re s</w> 382
il e</w> 382
ol d</w> 381
ar y</w> 380
m is 378
0 0</w> 378
I t</w> 378
et z 378
ak e</w> 377
t ro 374
po s 373
ation s</w> 373
i on</w> 372
ic e</w> 372
b r 370
a in 369
am p 369
co un 369
l an 368
ow n</w> 368
s on</w> 366
g ra 364
V or 364
th an</w> 364
si dent</w> 364
ie l</w> 364
f er 363
n ur</w> 361
f ol 359
ge gen</w> 359
ye ar</w> 359
w ei 358
ex p 357
af ter</w> 356
illi on</w> 356
es ch 355
m en 353
D i 353
e u 352
P o 352
w w 350
s c 349
er t</w> 349
H e</w> 348
ch er</w> 347
m p 346
st e</w> 346
or s</w> 344
o b 343
A us 343
K on 343
du c 343
as e</w> 342
yo u</w> 341
ab le</w> 340
iti on</w> 337
r ü 336
ä h 336
w ur 335
sa gte</w> 335
t re 334
M it 334
z um</w> 334
i c</w> 333
an der 332
it e</w> 331
on g</w> 331
es s 330
am e</w> 330
t y</w> 329
g u 329
schaf t</w> 329
en ce</w> 327
t ur 326
o f 326
k ing</w> 326
op le</w> 324
J ahr 323
u d 322
i h 321
i d 319
h er 319
at es</w> 316
ne h 316
i g</w> 314
- -</w> 314
De utsch 314
an ce</w> 313
s he</w> 312
as s 312
M ar 311
Z u 310
te t</w> 310
Pro z 310
k en</w> 309
In ter 309
M on 308
d es 307
i es</w> 305
be t 305
ic i 304
ä l 303
ti me</w> 303
k ön 302
M o 301
in v 301
el y</w> 301
el t</w> 301
k t</w> 300
B ut</w> 300
l er</w> 299
M in 299
li chen</w> 299
c es</w> 298
ge b 298
pe ople</w> 298
hat te</w> 298
0 . 297
c ent</w> 296
ur o</w> 296
ge w 295
T o 294
se i</w> 294
tw o</w> 294
v ed</w> 293
ne w</w> 293
s k 292
e - 291
i k 291
ü ber 290
st a 290
w ay</w> 289
b el 289
y s</w> 289
for m 289
f e</w> 288
in s</w> 288
us s</w> 288
t u 287
b u 287
re e</w> 287
m ark 286
d r 285
p h 285
in to</w> 283
se in</w> 283
oo d</w> 283
ges ch 283
e ar 282
E uro</w> 282
o ver</w> 281
en s</w> 281
on en</w> 281
b ei 280
t on</w> 279
p ol 279
C o 279
l ast</w> 278
b ur 278
ter s</w> 278
be it 277
wh en</w> 277
n ing</w> 276
lo s 276
a st 274
th ere</w> 274
at t 274
o der</w> 273
ac e</w> 273
h el 272
es e</w> 272
fir st</w> 272
i a</w> 271
M e 271
er n 271
an z 271
at en</w> 271
t el 270
fü hr 269
Proz ent</w> 269
it z 268
ig ht</w> 268
ver n 266
lo w 266
A mer 265
al e</w> 265
min ist 265
Ne w</w> 265
w ie 264
c re 263
at er</w> 263
der n</w> 263
m s</w> 262
Q u 262
c ould</w> 261
l ä 261
F ran 261
com e</w> 261
P re 260
1 , 260
st ar 260
no w</w> 260
ub li 260
v es</w> 259
k ti 259
st ri 259
r is 258
ou s</w> 258
ah r</w> 258
b is</w> 257
ü s 257
per cent</w> 257
ü ck 256
li ch 256
por t</w> 256
i l</w> 255
N ach 255
S ie</w> 255
C on 255
v ing</w> 255
ro u 254
i z 253
f en</w> 252
k on 252
I ra 252
au se</w> 252
m illion</w> 251
st eh 251
ation al</w> 250
hab e</w> 250
d re 248
der s</w> 248
inc lu 248
r .</w> 247
2 , 247
L e 247
B o 247
m u 246
m il 246
o ch</w> 245
F or 245
d ar 244
ac k 244
c ur 243
g n 243
un ter</w> 243
c y</w> 242
C om 242
h ar 241
or t</w> 241
pre s 241
U S 238
ä ch 238
li che</w> 238
iti es</w> 238
z ur</w> 237
er en</w> 236
Un ter 236
ye ars</w> 236
M illi 235
we e 235
i f</w> 234
r e</w> 234
or d 234
ri ch 234
l en</w> 233
s y 233
ß en</w> 233
ac c 233
l as 232
d am 232
v el 232
t or</w> 231
a re 231
r en 230
f ri 230
h ig 230
un ter 230
3 , 229
E s</w> 229
an g 229
Au f 229
r y</w> 228
a ff 228
s on 228
w ir</w> 228
v is 228
de utsch 228
po li 228
u te</w> 227
ci al</w> 227
s ome</w> 226
ver y</w> 226
und es 226
a in</w> 225
wh at</w> 225
em ent</w> 225
oll en</w> 225
U . 224
y ing</w> 224
z ei 224
ol o 224
ti ons</w> 224
m at 223
f u 222
S P 222
c al</w> 220
p ubli 220
b l 220
k e 220
sch en</w> 220
m al</w> 219
T he 219
E x 219
s ur 218
mo st</w> 218
m y</w> 217
F in 217
z w 217
e g 216
i li 216
h im</w> 216
H o 216
1 0</w> 215
si ch 215
ay s</w> 215
Amer ic 215
e ch 214
w s</w> 214
1 . 214
th ing</w> 214
n o</w> 213
2 0 213
it ed</w> 213
em ber</w> 213
wur de</w> 213
b le</w> 212
v en</w> 212
as ed</w> 212
ne t</w> 212
a il 211
I N 211
ic k 211
wie der</w> 211
m ar 210
d o</w> 210
g re 210
B undes 210
at ing</w> 210
le g 210
go vern 210
ser v 210
m t</w> 209
or y</w> 209
is ch</w> 209
be g 209
j e 208
er ung</w> 208
po in 208
ier t</w> 208
w in 207
K o 207
en n 207
en s 207
en de</w> 207
li ke</w> 207
c le 206
S ep 206
u st 206
th em</w> 206
m ach 205
o se</w> 205
en d 205
z i 204
in a</w> 204
sch on</w> 204
f ra 203
k ann</w> 203
E u 203
sh o 203
h ei 202
ä hr 202
in ce</w> 202
ge t</w> 202
wh ere</w> 202
eb en</w> 202
l au 201
m üs 201
d ann</w> 201
es day</w> 200
ur t</w> 200
neh men</w> 200
i ver 199
c t</w> 199
th ou 199
dur ch</w> 199
wen n</w> 199
e f 198
i er</w> 198
a ir 198
k er</w> 198
5 0</w> 198
an k</w> 198
ro p 198
ge st 198
n u 197
ic al</w> 197
inv est 197
S .</w> 196
is h</w> 196
ein es</w> 196
as h 196
ri ght</w> 196
etz t</w> 196
c ause</w> 195
h and 194
W e</w> 194
ti g</w> 194
op er 194
con t 194
t ei 193
f all 193
n er 193
w el 193
N or 193
j ust</w> 193
st er</w> 193
pol it 193
G er 192
im mer</w> 192
M r.</w> 191
F ü 191
st at 190
on ly</w> 190
ig e</w> 190
ec t</w> 190
kom men</w> 190
i f 189
l t</w> 189
f ac 189
n ah 189
d own</w> 189
u p 189
et s</w> 189
wor k</w> 189
te m 188
g a 186
o c 186
b le 186
for e</w> 186
v ie 185
t ak 184
3 0</w> 184
G r 184
b ack</w> 184
F re 184
re ch 184
sa gt</w> 184
h ol 183
, 000</w> 183
an t 183
il y</w> 183
ti ve</w> 183
U. S.</w> 183
c ed</w> 182
1 2 182
st s</w> 182
Un d</w> 182
S te 181
o s</w> 181
le tz 181
pl ay 181
ar ter</w> 180
ne u 180
r at 179
h eit</w> 179
b es 179
j o 179
Y or 179
th rou 179
en er 179
te il 179
H er 178
ec ted</w> 178
t - 177
P ol 177
l er 177
h in 177
b re 177
J o 177
com m 177
An d</w> 177
n ed</w> 176
n te</w> 176
s eine</w> 176
S e 176
M en 176
de c 176
pro duc 176
w . 175
z e</w> 175
un den</w> 175
sp iel 175
tr y</w> 175
vo m</w> 175
ww w. 175
f re 174
g o</w> 174
M a 174
G esch 174
al le 174
. de</w> 173
k o 173
we i</w> 173
ihr e</w> 173
W ir</w> 171
l ar 170
st and</w> 170
be fore</w> 170
sh i 170
govern ment</w> 170
d on</w> 169
g lei 169
U hr</w> 169
b ar 169
b us 169
J ahr</w> 169
re l 169
of f</w> 169
S u 168
F ra 168
I s 168
it u 168
it ä 168
sa m 168
i an</w> 167
z en</w> 167
st o 167
se tz 167
19 9 167
stell t</w> 167
The y</w> 167
l at 166
m or 166
w n</w> 166
w al 166
en g 166
re por 166
ti m 166
me di 166
t ung</w> 165
l än 165
g y</w> 165
O N 165
le a 165
gi bt</w> 165
e ff 164
s at 164
ö l 164
un s</w> 164
ati ve</w> 164
sol l</w> 164
G es 163
k eit</w> 163
O r 163
al le</w> 163
is h 163
om e 163
ge ben</w> 163
oo k</w> 163
d el 162
be cause</w> 162
man y</w> 162
comp any</w> 162
ain st</w> 162
Jahr en</w> 162
f am 161
m ake</w> 161
a u</w> 161
k ed</w> 161
W e 161
ä u 161
th en</w> 161
un der 161
gen en</w> 161
r au 160
l ed</w> 160
n t</w> 160
m ö 160
ag ainst</w> 160
su ch</w> 160
throu gh</w> 160
l ine</w> 159
M an 159
b en 159
v en 159
si ve</w> 159
200 6</w> 159
Yor k</w> 159
h ome</w> 158
T e 158
T ra 158
B us 158
ch ar 158
wor den</w> 158
res s</w> 158
E r</w> 157
an g</w> 157
su p 157
off ici 157
t m 156
h tt 156
w er</w> 156
D a 156
er i 156
be ing</w> 156
d y</w> 155
st ra 155
st and 155
re g 155
re ich 155
di d 155
de t</w> 155
sp e 155
htt p</w> 155
b il 154
un der</w> 154
di s 154
ma de</w> 154
sta g</w> 154
2 0</w> 153
k ur 153
W or 153
ch an 153
at ur 153
ig n</w> 153
pro f 153
Min ist 153
Ira q</w> 153
n ational</w> 152
th ree</w> 152
sp ec 152
Deutsch land</w> 152
t old</w> 151
W h 151
in f 151
un k 151
S o 150
M c 150
W o 150
en n</w> 150
st ru 150
St a 150
Po li 150
zw ischen</w> 150
l es</w> 149
f ahr 149
B ar 149
B et 149
us s 149
par t 149
1 2</w> 148
D em 148
v ic 148
sa ys</w> 148
um ent</w> 148
d ings</w> 147
a z 147
s einer</w> 147
in k</w> 147
di g 147
di rec 147
ol le 147
ge h 147
em p 147
por t 147
ho w</w> 147
g ab 146
p er</w> 146
1 5</w> 146
5 , 146
z wei</w> 146
I ch</w> 146
er te</w> 146
ar o 146
it al</w> 146
wee k</w> 146
c ar 145
d ri 145
G el 145
k eine</w> 145
K in 145
ch il 145
st er 145
as on</w> 145
kl är 145
ev en</w> 145
bei m</w> 145
c all 144
U R 144
v e 144
I m</w> 144
en den</w> 144
ar t</w> 144
di d</w> 144
ou se</w> 144
c an 143
d a</w> 143
J u 143
st e 143
t al 142
m uss</w> 142
1 0 142
S h 142
ig er</w> 142
go ing</w> 142
Ar beit 142
w ür 141
b ar</w> 141
B il 141
is ch 141
P h 140
l am 140
m ak 140
p s</w> 140
z ur 140
on al</w> 140
vi el 140
P er 139
1 1</w> 139
b ro 139
4 , 139
F o 139
sch ein 139
wh ile</w> 139
d ung</w> 138
w ell</w> 138
p en 138
us ed</w> 138
ig h 138
i o 137
f te</w> 137
s s</w> 137
L u 137
H am 137
sa y</w> 137
we en</w> 137
Sep tem 137
t ake</w> 136
d at 136
in ess</w> 136
Re gi 136
oll te</w> 136
bel ie 136
inclu ding</w> 136
A f 135
E in</w> 135
ar ti 135
es en</w> 135
co m</w> 135
G ro 134
W ir 134
ö ß 134
st re 134
ur s 134
se con 134
Au ch</w> 134
dies e</w> 134
Milli onen</w> 134
Septem ber</w> 134
t al</w> 133
i gen</w> 133
A ut 133
en e</w> 133
te l</w> 133
wi th 133
d ro 132
S en 132
S on 132
F ri 132
lo o 132
et er</w> 132
ber s</w> 132
sh ould</w> 132
war en</w> 132
kön nen</w> 132
iver s 132
t es</w> 131
r on 131
a th 131
g s</w> 131
p rä 131
o ver 131
L IN 131
re gi 131
se t</w> 131
to ber</w> 131
No v 131
poli ce</w> 131
f er</w> 130
d - 130
h ere</w> 130
1 8 130
. .</w> 130
N ach</w> 130
U m 130
x t</w> 130
ä t 130
er k 130
ou s 130
am es</w> 130
im m 130
Un ited</w> 130
c tion</w> 129
a k</w> 129
g ed</w> 129
s ince</w> 129
w om 129
L i 129
th ose</w> 129
ge m 129
iti k</w> 129
hal ten</w> 129
inc re 129
w a 128
k ün 128
T his</w> 128
9 . 128
ch n 128
ar beit 128
al th</w> 128
li g 128
do c 128
J oh 127
K ar 127
ü ck</w> 127
se e</w> 127
ap p 127
oo l</w> 127
dre i</w> 127
müs sen</w> 127
ON LIN 127
ONLIN E</w> 127
c c 126
l it 126
m ay</w> 126
w är 126
1 7 126
. com</w> 126
v ol 126
T u 126
F ir 126
er r 126
er st</w> 126
an ts</w> 126
st ill</w> 126
or d</w> 126
si gn 126
ier en</w> 126
coun try</w> 126
bet ween</w> 126
Eu rop 126
Men schen</w> 126
f en 125
p a 125
M ark 125
B u 125
z e 125
in form 125
for mer</w> 125
fu l</w> 125
P ri 124
c ri 124
w ollen</w> 124
S er 124
C ar 124
M it</w> 124
Z eit 124
con c 124
pre sident</w> 124
Ch ina</w> 124
minist er</w> 124
s or 123
s ei 123
s eit</w> 123
ü tz 123
ä tz 123
ö ff 123
in du 123
al es</w> 123
ent ly</w> 123
con om 123
St re 123
man n</w> 123
ta g</w> 123
dur ing</w> 123
Nach rich 123
shi p</w> 123
r in 122
n s</w> 122
n ach 122
s ome 122
S o</w> 122
A s 122
en - 122
st än 122
oll ar</w> 122
mu ch</w> 122
R es 121
i hr</w> 121
g ame</w> 121
b or 121
b st</w> 121
Y o 121
ß e</w> 121
an no 121
an cial</w> 121
st ate</w> 121
sa me</w> 121
se hr</w> 121
hal b</w> 121
sy st 121
dam it</w> 121
i en</w> 120
f our</w> 120
g ut</w> 120
G o 120
b ri 120
L and 120
W el 120
Ü ber 120
an ge 120
di ff 120
au p 120
äh ri 120
mil it 120
US - 120
Fü r</w> 120
aro und</w> 120
c ity</w> 119
l and 119
f el 119
a g</w> 119
a b</w> 119
S un 119
B ro 119
th e 119
or gan 119
si de</w> 119
sch ei 119
sp on 119
pro gra 119
su b 119
c ap 118
m em 118
3 . 118
M u 118
y our</w> 118
be st 118
ou t 118
ing ton</w> 118
ap pe 118
do ch</w> 118
e f</w> 117
H ar 117
di en 117
ti g 117
op p 117
Bus h</w> 117
n um 116
O c 116
O p 116
z ah 116
st u 116
at s 116
ou th</w> 116
so ci 116
cont in 116
F u 115
ter n</w> 115
lo w</w> 115
gen er 115
ist en</w> 115
wor ld</w> 115
Ch ri 115
Jahr e</w> 115
dr en</w> 115
las sen</w> 115
vel op 115
publi c</w> 115
c ul 114
w oh 114
S a 114
B rit 114
K om 114
W er 114
sch n 114
ab il 114
us e</w> 114
ir d</w> 114
ne xt</w> 114
ag er</w> 114
mach t</w> 114
P rä 113
l in</w> 113
f il 113
n is</w> 113
d iti 113
S ie 113
v iel</w> 113
A P</w> 113
z eit</w> 113
E ine</w> 113
pro vi 113
weit er</w> 113
Fran k 113
steh t</w> 113
nu n</w> 113
e qu 112
f l 112
d ra 112
w a</w> 112
2 5</w> 112
k ill 112
ch te</w> 112
en k 112
al en</w> 112
ur n 112
ti al</w> 112
se ason</w> 112
ne t 112
vie w</w> 112
n or 111
1 6 111
T im 111
H e 111
W ed 111
th ink</w> 111
re ad 111
el ec 111
am er 111
su m 111
ap pro 111
par t</w> 111
ta in 111
ihr er</w> 111
UR L</w> 111
e conom 110
t ran 110
n esday</w> 110
m a</w> 110
g lich</w> 110
s ed</w> 110
o m</w> 110
4 0</w> 110
B ah 110
I r 110
ge f 110
ge ht</w> 110
ff en</w> 110
Th ere</w> 110
En de</w> 110
hat ten</w> 110
gr öß 110
bu il 110
Wed nesday</w> 110
t schaf 109
c ame</w> 109
d ru 109
g ood</w> 109
A s</w> 109
al y 109
is su 109
t g 108
h ö 108
1 5 108
. ..</w> 108
b is 108
b all</w> 108
z eh 108
ar - 108
or en</w> 108
di c 108
ti gen</w> 108
se cur 108
lo ok 108
for der 108
Au g 108
Pre sident</w> 108
a si 107
g ar</w> 107
p as 107
A kti 107
j etzt</w> 107
st ud 107
bus iness</w> 107
M ün 106
L o 106
ä f 106
ar ds</w> 106
sch ie 106
de st 106
ne y</w> 106
St ra 106
he it 106
dies em</w> 106
chil dren</w> 106
Nachrich ten</w> 106
i on 105
i de 105
c ent 105
s ha 105
p le 105
b esch 105
A d 105
A ber</w> 105
B ec 105
in gen</w> 105
ar ly</w> 105
wer de</w> 105
oh ne</w> 105
fo und</w> 105
cle ar</w> 105
f a 104
h ät 104
1 4 104
1 6</w> 104
z eu 104
st ed</w> 104
li c 104
wh e 104
we gen</w> 104
Sp iel 104
eit en</w> 104
e its</w> 103
f ul 103
w ant</w> 103
b lei 103
y - 103
v est 103
F or</w> 103
B r 103
W ash 103
th s</w> 103
an other</w> 103
ver al</w> 103
ex per 103
ist an</w> 103
pri v 103
ih n</w> 103
i p 102
m ent 102
1 8</w> 102
1 7</w> 102
C he 102
D ar 102
G ener 102
E l 102
re le 102
or ding</w> 102
se hen</w> 102
su l 102
ma chen</w> 102
En t 102
mis sion</w> 102
anno un 102
c amp 101
a de</w> 101
w rit 101
1 3</w> 101
M us 101
T hat</w> 101
I f</w> 101
in n 101
an c 101
an k 101
di es</w> 101
is ion</w> 101
ti l</w> 101
neu en</w> 101
secon d</w> 101
t a</w> 100
t le</w> 100
s einem</w> 100
U S</w> 100
M r</w> 100
er sten</w> 100
en en</w> 100
ti v 100
ver gan 100
ne ue</w> 100
ihr en</w> 100
Co un 100
steh en</w> 100
itä t</w> 100
chan ge</w> 100
call ed</w> 100
Nov ember</w> 100
R ück 99
f f</w> 99
d p 99
b ased</w> 99
I E 99
be k 99
ag o</w> 99
te am</w> 99
ell en</w> 99
exp ected</w> 99
ander en</w> 99
Com p 99
deutsch en</w> 99
fam ily</w> 99
gab en</w> 99
g es</w> 98
s - 98
B es 98
J an 98
' re</w> 98
er in</w> 98
re tur 98
li k 98
ge t 98
de m 98
lo se</w> 98
op y 98
pro ble 98
ation en</w> 98
to o</w> 98
bo th</w> 98
En g 98
dies er</w> 98
mark et</w> 98
bur g</w> 98
Americ an</w> 98
t schaft</w> 97
c l 97
s einen</w> 97
u res</w> 97
k no 97
z ie 97
re spon 97
el n</w> 97
ver b 97
ic k</w> 97
ich ts</w> 97
te chn 97
ut es</w> 97
200 8</w> 97
In di 97
to p</w> 97
tr ä 97
fer ence</w> 97
alle m</w> 97
inform ation</w> 97
Wash ington</w> 97
R ich 96
t lich</w> 96
f un 96
m i 96
er klär 96
be h 96
se ar 96
et wa</w> 96
ges t</w> 96
m ei 95
1 4</w> 95
2 6 95
W elt</w> 95
en ti 95
el le</w> 95
au m</w> 95
ver age</w> 95
ag es</w> 95
ie f</w> 95
for m</w> 95
sel bst</w> 95
wur den</w> 95
sei en</w> 95
t or 94
a red</w> 94
g ing</w> 94
s m 94
w at 94
b illion</w> 94
k now</w> 94
B l 94
in d 94
st ei 94
ro ss</w> 94
li m 94
ge l</w> 94
ou gh</w> 94
se c 94
am s</w> 94
us si 94
ir e</w> 94
wei l</w> 94
sho w</w> 94
glei ch</w> 94
Sun day</w> 94
dp a</w> 94
opy right</w> 94
r ise</w> 93
h in</w> 93
w o</w> 93
1 - 93
W ie</w> 93
ur s</w> 93
as h</w> 93
as ch 93
ti es</w> 93
ac t</w> 93
ent r 93
we ise</w> 93
ber eits</w> 93
he ute</w> 93
pl ace</w> 93
la gen</w> 93
off en 93
go t</w> 93
hel p</w> 93
Fin anz 93
thou gh</w> 93
P e 92
f t 92
h op 92
S y 92
D ru 92
D och</w> 92
B ank</w> 92
Z eit</w> 92
on - 92
sch ool</w> 92
de velop 92
lo b 92
St u 92
sh ow 92
rec ei 92
Th urs 92
gro up</w> 92
pos ition</w> 92
ih m</w> 92
Yo u</w> 92
Thurs day</w> 92
e p</w> 91
t t</w> 91
t ors</w> 91
n is 91
m ed</w> 91
h om 91
D is 91
D ollar</w> 91
M or 91
7 , 91
j ed 91
I m 91
W enn</w> 91
an y 91
at or</w> 91
au er</w> 91
ge hen</w> 91
et ing</w> 91
qu est 91
Be i</w> 91
offici als</w> 91
Chri st 91
secur ity</w> 91
l ess</w> 90
f all</w> 90
n ung</w> 90
s itz 90
C opyright</w> 90
G E 90
K l 90
ic s</w> 90
te st 90
pro c 90
em s</w> 90
In vest 90
ru n</w> 90
all er 90
la g</w> 90
Th om 90
sel f</w> 90
US A</w> 90
fall s</w> 90
Tu esday</w> 90
vergan genen</w> 90
c er 89
S atur 89
M ich 89
v ir 89
k tion</w> 89
z weit 89
in de 89
un ity</w> 89
as es</w> 89
ti ge</w> 89
ver k 89
con tro 89
Un ivers 89
fi ve</w> 89
lie ß 89
Unter nehmen</w> 89
n ight</w> 88
g ent 88
h än 88
h tm 88
s us 88
w ays</w> 88
S ol 88
K re 88
er ed</w> 88
un til</w> 88
as se 88
St ates</w> 88
ad t</w> 88
and s</w> 88
he alth</w> 88
kom mt</w> 88
dur ch 88
ik an 88
SP D</w> 88
htm l</w> 88
l ing</w> 87
f iel 87
1 1. 87
D av 87
y p 87
k ein</w> 87
H ei 87
on g 87
is p 87
au en</w> 87
co ur 87
mon ths</w> 87
br au 87
olo g 87
Ir an</w> 87
n ation 86
s ollen</w> 86
w is 86
2 4 86
D es 86
8 , 86
W ei 86
sch w 86
ge ment</w> 86
ver y 86
ut z 86
op s</w> 86
fü n 86
200 5</w> 86
mon th</w> 86
hig h 86
syst em</w> 86
r und</w> 85
s co 85
s ow 85
p ut</w> 85
v el</w> 85
k un 85
F l 85
er ten</w> 85
de ut 85
se veral</w> 85
sp ä 85
sp ok 85
con si 85
ru pp 85
eb en 85
gan z</w> 85
ander e</w> 85
Dem oc 85
geh ör 85
l ong</w> 84
m id 84
S am 84
F am 84
W est 84
th ese</w> 84
re f 84
om men</w> 84
pl ay</w> 84
mon ey</w> 84
Kon z 84
zi al 84
repor ted</w> 84
sat z</w> 84
t om 83
c or 83
f oo 83
f äl 83
n en 83
m ir</w> 83
h ist 83
U - 83
b an 83
L ei 83
0 - 83
in er</w> 83
th ers</w> 83
at ely</w> 83
ie der 83
comp le 83
Ber lin</w> 83
los s</w> 83
diff er 83
Satur day</w> 83
2 - 82
G i 82
b lo 82
0 , 82
k re 82
F lu 82
F ahr 82
' ve</w> 82
V ol 82
in ten 82
an s 82
di sc 82
es si 82
si den 82
ha pp 82
em ents</w> 82
im p 82
ah l</w> 82
vi er</w> 82
lan g</w> 82
kön nte</w> 82
ish ed</w> 82
viel e</w> 82
num ber</w> 82
read y</w> 82
whe ther</w> 82
c ase</w> 81
- T 81
f rü 81
m us 81
m ents</w> 81
d ays</w> 81
2 . 81
S he</w> 81
S co 81
M at 81
M il 81
M an</w> 81
in s 81
an ti 81
si c</w> 81
ein mal</w> 81
le ft</w> 81
am a</w> 81
su cc 81
ma j 81
gh an 81
Mon day</w> 81
part ment</w> 81
Fri day</w> 81
milit ary</w> 81
Aug ust</w> 81
i ons</w> 80
P al 80
f est 80
1 9</w> 80
A N 80
W al 80
ö s 80
ch en 80
ar den</w> 80
it t</w> 80
at h</w> 80
au th 80
sch l 80
ne ed</w> 80
ach t</w> 80
ye ar- 80
sup port</w> 80
camp a 80
r un 79
g ung</w> 79
1 00</w> 79
C or 79
D on 79
b eit</w> 79
7 . 79
O k 79
O ff 79
z o 79
J un 79
K ur 79
W ar 79
re port</w> 79
ur y</w> 79
ri e 79
se l</w> 79
ag re 79
et t 79
et was</w> 79
ex c 79
Al s</w> 79
ep t</w> 79
gro ßen</w> 79
fol low 79
son dern</w> 79
poin t</w> 79
wel t 79
Is ra 79
lit tle</w> 79
öff ent 79
As soci 79
Frank f 79
jed och</w> 79
spok es 79
R i 78
r a</w> 78
d ür 78
S ich 78
C D 78
b ra 78
z ed</w> 78
9 , 78
on es</w> 78
sch e</w> 78
le ad</w> 78
ati c</w> 78
gro w 78
ann t</w> 78
tei l</w> 78
Tim es</w> 78
t ru 77
h äl 77
3 - 77
b est</w> 77
L eb 77
A t</w> 77
B en 77
th re 77
th ird</w> 77
an a</w> 77
an i</w> 77
au t</w> 77
ic es</w> 77
sp re 77
der ung</w> 77
ber t</w> 77
ec u 77
ck en</w> 77
gan g</w> 77
Me di 77
cur r 77
hig h</w> 77
SP IE 77
poin ts</w> 77
stat ement</w> 77
sam men 77
aller dings</w> 77
year- old</w> 77
t ook</w> 76
f ast</w> 76
g ri 76
1 .</w> 76
3 6 76
D am 76
b ig</w> 76
L än 76
v ice</w> 76
B au 76
ch ed</w> 76
en ed</w> 76
ar ing</w> 76
be l</w> 76
ge gen 76
ad ing</w> 76
ec ts</w> 76
qu arter</w> 76
weit er 76
stell en</w> 76
Ge or 76
mit t 76
Par te 76
Qu arter</w> 76
lich keit</w> 76
Nor th</w> 76
SPIE GE 76
c olle 75
n ten</w> 75
a way</w> 75
h i 75
h ard</w> 75
M ann</w> 75
G eb 75
b all 75
v al 75
k t 75
O n</w> 75
H u 75
in st 75
si x</w> 75
si ble</w> 75
An gel 75
all es</w> 75
la w 75
kom men 75
ear ly</w> 75
lä s 75
mem bers</w> 75
Prä sident</w> 75
SPIEGE L</w> 75
n äch 74
a h</w> 74
w in</w> 74
2 5 74
D - 74
D ok 74
y er</w> 74
0 9. 74
F ern 74
B ay 74
W i 74
in nen</w> 74
en ing</w> 74
li er</w> 74
lo s</w> 74
ist s</w> 74
wor king</w> 74
comp an 74
gh ts</w> 74
fe w</w> 74
Di en 74
bet ter</w> 74
deutsch e</w> 74
polit ical</w> 74
Fu ß 74
i al</w> 73
r o</w> 73
c ust 73
l ater</w> 73
f li 73
n ers</w> 73
a el</w> 73
w an 73
1 0. 73
u al</w> 73
C ol 73
D ur 73
T or 73
j a</w> 73
W as</w> 73
ß er 73
re ma 73
at ten 73
li fe</w> 73
om in 73
de fen 73
ne ws</w> 73
Sch ul 73
par ti 73
me hr 73
Ne u 73
acc ording</w> 73
loo k</w> 73
Jan u 73
r ation</w> 72
n ichts</w> 72
a ir</w> 72
s es</w> 72
o b</w> 72
U r 72
G re 72
b ab 72
y n 72
8 0</w> 72
k a</w> 72
B ri 72
B ür 72
9 0</w> 72
ü h 72
ch ang 72
ch ief</w> 72
il s</w> 72
ge stellt</w> 72
ne ver</w> 72
ber g</w> 72
ck s</w> 72
bo t</w> 72
kti on 72
leg al</w> 72
nah men</w> 72
Joh n</w> 72
kill ed</w> 72
zeh n</w> 72
R om 71
e very 71
i or</w> 71
P ak 71
s w 71
s ing 71
p un 71
2 4</w> 71
N ational</w> 71
G ra 71
b ut 71
b oo 71
A m 71
T a 71
H and 71
z un 71
' m</w> 71
ch ten</w> 71
el e 71
li cher</w> 71
ag ue</w> 71
200 4</w> 71
gen d 71
Re publi 71
ta in</w> 71
En er 71
pos iti 71
doc ument</w> 71
priv ate</w> 71
asse ts</w> 71
Fam ili 71
i k</w> 70
c ti 70
- K 70
m us</w> 70
g ames</w> 70
w ent</w> 70
2 2</w> 70
L and</w> 70
O l 70
A m</w> 70
6 , 70
F T 70
re qu 70
di t</w> 70
de l</w> 70
de al</w> 70
ver sch 70
ag ain</w> 70
sp o 70
str at 70
da bei</w> 70
bei den</w> 70
Americ a</w> 70
invest ig 70
Wor ld</w> 70
Arbeit s 70
e very</w> 69
t an 69
w on</w> 69
w ater</w> 69
S outh</w> 69
b st 69
b ed</w> 69
A n</w> 69
A fri 69
T re 69
H a 69
z äh 69
E L 69
an der</w> 69
ver sion</w> 69
ac ross</w> 69
ich te</w> 69
sp or 69
po wer</w> 69
sh are</w> 69
pl an 69
pl an</w> 69
Sch l 69
den en</w> 69
lie gt</w> 69
gr ün 69
To tal</w> 69
olo gy</w> 69
Sich er 69
t ar 68
t ly</w> 68
P or 68
h it</w> 68
h ouse</w> 68
2 1</w> 68
C ent 68
L in 68
7 0</w> 68
4 . 68
j ähri 68
B ra 68
ü l 68
in n</w> 68
in come</w> 68
th ern</w> 68
un de</w> 68
it ag</w> 68
al - 68
ol le</w> 68
ne ed 68
lo t</w> 68
der al</w> 68
Ch ar 68
do es</w> 68
serv ice</w> 68
fahr en</w> 68
direc tor</w> 68
zur ück 68
Bah n</w> 68
Che f</w> 68
sow ie</w> 68
t z</w> 67
r ul 67
c a</w> 67
m un 67
d ow 67
w ich 67
2 8</w> 67
b in</w> 67
b and</w> 67
b ank</w> 67
O ne</w> 67
F C</w> 67
B y</w> 67
ö h 67
ß en 67
ch es</w> 67
en cy</w> 67
on y</w> 67
be wer 67
le y</w> 67
ac ks</w> 67
pro te 67
um s</w> 67
ell ing</w> 67
wor k 67
tra g</w> 67
rec ord</w> 67
av ail 67
tri es</w> 67
star t</w> 67
are a</w> 67
ähr end</w> 67
fall en</w> 67
tim es</w> 67
Minist er</w> 67
inf o</w> 67
Kin der</w> 67
zur ück</w> 67
Regi erung</w> 67
gem ein 67
look ing</w> 67
Mich ael</w> 67
R ussi 66
P l 66
l ung</w> 66
f ar</w> 66
h ier</w> 66
p ra 66
2 3</w> 66
u li 66
C lin 66
M is 66
L on 66
L eben</w> 66
k te</w> 66
O b 66
F e 66
F il 66
F rau 66
z war</w> 66
E d 66
ß t</w> 66
un s 66
st an 66
as ked</w> 66
ge geben</w> 66
ic kl 66
ne w 66
ci p 66
ier te</w> 66
off ic 66
hal f</w> 66
wi de</w> 66
Deutsch en</w> 66
ke hr 66
Sep t</w> 66
wom an</w> 66
stän di 66
Ok tober</w> 66
09. 2007</w> 66
e ver</w> 65
c are 65
m ight</w> 65
d au 65
a - 65
s ing</w> 65
s ollte</w> 65
M i 65
G u 65
b in 65
J e 65
th ings</w> 65
al ity</w> 65
is cher</w> 65
ro w 65
we ver</w> 65
ber ich 65
gen ommen</w> 65
ges am 65
Er schein 65
Sp itz 65
ungs dat 65
inter est</w> 65
da von</w> 65
Milli arden</w> 65
itu ation</w> 65
organ iz 65
woh l</w> 65
Dok ument</w> 65
ungsdat um</w> 65
c r 64
c la 64
c nt</w> 64
m el 64
a di 64
a gement</w> 64
h um 64
w eit</w> 64
p ur 64
p ass 64
. html</w> 64
S k 64
S ec 64
o - 64
H ouse</w> 64
W est</w> 64
W hen</w> 64
er war 64
er stellt</w> 64
th er 64
st on</w> 64
re st</w> 64
al ition</w> 64
sp ar 64
sp ra 64
op ul 64
con ference</w> 64
St rei 64
ck t</w> 64
Un ion</w> 64
la w</w> 64
so gar</w> 64
war d</w> 64
Er fol 64
19 8 64
pri ces</w> 64
da für</w> 64
bur ger</w> 64
führ t</w> 64
Ira q 64
wür de</w> 64
with out</w> 64
Oc tober</w> 64
announ ced</w> 64
fiel d</w> 64
Dav id</w> 64
fün f</w> 64
campa ign</w> 64
Erschein ungsdatum</w> 64
t est</w> 63
f ten</w> 63
f ut 63
s ite</w> 63
2 8 63
u tion</w> 63
b ie 63
v ent 63
k n 63
O f</w> 63
B ei 63
K r 63
W ith</w> 63
re m</w> 63
or ity</w> 63
al ten</w> 63
di ed</w> 63
es sen</w> 63
be come</w> 63
ad d 63
ad ded</w> 63
eh t</w> 63
par ty</w> 63
auf en</w> 63
fi ed</w> 63
gew esen</w> 63
führ er</w> 63
vis ion</w> 63
Eu ro 63
did n</w> 63
Poli ze 63
Af ghan 63
wär e</w> 63
lik ely</w> 63
avail able</w> 63
e ach</w> 62
i ous</w> 62
c rit 62
f ail 62
n ie</w> 62
s .</w> 62
1 3 62
S pre 62
L etz 62
k ey</w> 62
O n 62
T V</w> 62
T ur 62
B C</w> 62
B re 62
J ah 62
in j 62
re sear 62
it ing</w> 62
sa ying</w> 62
se e 62
te te</w> 62
pro j 62
pl ans</w> 62
Pro du 62
lu b</w> 62
aus ge 62
min utes</w> 62
den ce</w> 62
bo dy</w> 62
inter national</w> 62
str y</w> 62
wen iger</w> 62
Mit tw 62
Fin ancial</w> 62
mö g 62
emp lo 62
contin u 62
gener al</w> 62
Eng land</w> 62
cust om 62
t ag 61
t ure</w> 61
c le</w> 61
c ar</w> 61
m ich</w> 61
p ris 61
S pe 61
M ann 61
b an</w> 61
L a 61
4 5</w> 61
ä mp 61
Ä n 61
th em 61
at s</w> 61
al t</w> 61
al low 61
al ready</w> 61
is en</w> 61
li ck</w> 61
ver su 61
le ast</w> 61
ter n 61
lo cal</w> 61
wer k 61
co urt</w> 61
he ad</w> 61
Au f</w> 61
to day</w> 61
tr ying</w> 61
wir k 61
rec ent</w> 61
Deutsch e</w> 61
Inter net</w> 61
sup por 61
some thing</w> 61
abil ity</w> 61
hät ten</w> 61
compan ies</w> 61
r ate</w> 60
c ra 60
l s</w> 60
f ind</w> 60
d ge</w> 60
s ou 60
S ach 60
C ali 60
b al 60
b ig 60
H el 60
ch ter</w> 60
re ally</w> 60
re sul 60
es se</w> 60
as si 60
sch ließ 60
ra l</w> 60
sa ge</w> 60
am en</w> 60
am ong</w> 60
ag ed</w> 60
ha m</w> 60
co ver 60
gi ve</w> 60
den n</w> 60
da zu</w> 60
of ten</w> 60
des sen</w> 60
inv ol 60
sich er 60
Pol itik</w> 60
Wo che</w> 60
belie ve</w> 60
ous ly</w> 60
kun ft</w> 60
t ou 59
i ed</w> 59
P lat 59
c el 59
c ing</w> 59
l age</w> 59
n - 59
n ess</w> 59
d ou 59
g ress</w> 59
D o 59
D ec 59
G en 59
T o</w> 59
H is</w> 59
H aup 59
5 00</w> 59
B ör 59
W EL 59
V on</w> 59
ch ing</w> 59
en ded</w> 59
el s</w> 59
ti ert</w> 59
com ing</w> 59
im pro 59
ex ecu 59
pl ac 59
so ur 59
Al l</w> 59
fin ancial</w> 59
Ge win 59
Ko re 59
Fü hr 59
ant wor 59
Gel d</w> 59
sus p 59
deut lich</w> 59
Polize i</w> 59
t ä 58
t lichen</w> 58
d ort</w> 58
g res 58
p ed</w> 58
p ut 58
p opul 58
2 6</w> 58
D a</w> 58
A R 58
A S 58
T er 58
B el 58
en z</w> 58
st or 58
al ong</w> 58
di sa 58
is m</w> 58
be w 58
ac coun 58
con tra 58
ad s</w> 58
ap er</w> 58
ga b</w> 58
Fre itag</w> 58
indu stry</w> 58
Sa is 58
c are</w> 57
c all</w> 57
l l</w> 57
f ang</w> 57
n ei 57
m ul 57
h ut 57
w ollte</w> 57
2 00</w> 57
N E 57
N ation 57
M erk 57
in ing</w> 57
ch s</w> 57
en ough</w> 57
re al</w> 57
si eht</w> 57
sa m</w> 57
co st</w> 57
ah l 57
oll ten</w> 57
De partment</w> 57
coun tries</w> 57
ih rem</w> 57
hei ßt</w> 57
bes on 57
Fra u</w> 57
can did 57
exper i 57
Univers ity</w> 57
Clin ton</w> 57
WEL T</w> 57
R u 56
c ou 56
f tig</w> 56
f ron 56
d an 56
g l 56
g ten</w> 56
s ch</w> 56
S el 56
S eit 56
b om 56
6 0</w> 56
B est 56
B hut 56
E ar 56
er st 56
in ed</w> 56
st ie 56
on ce</w> 56
al b 56
li ght</w> 56
le gen</w> 56
le ading</w> 56
com mit 56
iti ker</w> 56
per io 56
vi ol 56
vi de 56
mo ve</w> 56
ci l</w> 56
Pro f 56
fir e</w> 56
mit tel 56
wen ig</w> 56
Ber lin 56
hel d</w> 56
produc ts</w> 56
indu stri 56
retur n</w> 56
Flu g 56
Frankf urt</w> 56
t ali 55
l d 55
g ar 55
g st</w> 55
g lob 55
w ach 55
p ast</w> 55
3 1</w> 55
S ha 55
o il</w> 55
C le 55
M et 55
G ol 55
b s</w> 55
y mp 55
L it 55
O N</w> 55
A le 55
z el 55
K un 55
er - 55
un t</w> 55
st - 55
re ign</w> 55
al th 55
is mus</w> 55
sch rei 55
de mo 55
ag t</w> 55
for t 55
An gaben</w> 55
ck e</w> 55
me eting</w> 55
Ne ws</w> 55
gel e 55
fo ur 55
gra ph 55
inclu de</w> 55
har ra 55
thou s 55
nu clear</w> 55
oper ations</w> 55
Gesch äf 55
ben ef 55
reg ul 55
Wir tschaf 55
Mus harra 55
nis se</w> 55
maj or</w> 55
R uss 54
P au 54
c lose</w> 54
l ate</w> 54
f ree</w> 54
n ings</w> 54
g li 54
s it 54
N ieder 54
C ha 54
M er 54
M as 54
b rit 54
T ran 54
F all</w> 54
B esch 54
in e 54
en ding</w> 54
di gt</w> 54
de b 54
ha ving</w> 54
der ed</w> 54
St o 54
wer s</w> 54
im mt</w> 54
for n 54
for ces</w> 54
ah len</w> 54
gen d</w> 54
gen ann 54
qu ar 54
mo v 54
ier ung</w> 54
schaf ten</w> 54
En tw 54
pos ed</w> 54
ech n 54
mar k</w> 54
serv ices</w> 54
ener gy</w> 54
lea der</w> 54
offici al</w> 54
Gro ß 54
amer ikan 54
issu e</w> 54
stud ents</w> 54
proble ms</w> 54
kno wn</w> 54
beh ind</w> 54
11. 2007</w> 54
curr ent</w> 54
Iraq i</w> 54
Än derung</w> 54
t .</w> 53
c at 53
f ig 53
d on 53
d aten</w> 53
s ure</w> 53
s ales</w> 53
2 9</w> 53
o thers</w> 53
u er 53
0 2</w> 53
k an 53
k en 53
T ri 53
j ahr</w> 53
B un 53
W is 53
at ors</w> 53
sch o 53
sch ri 53
sch lä 53
de te</w> 53
se x 53
le t 53
te ten</w> 53
eh en</w> 53
ing t</w> 53
In c</w> 53
all en</w> 53
Ne w 53
pp ed</w> 53
letz t</w> 53
setz en</w> 53
Son n 53
Brit ish</w> 53
Ent schei 53
zweit en</w> 53
Nation al 53
P res 52
f ace</w> 52
d oll 52
g s 52
p ati 52
S an</w> 52
o l</w> 52
u le</w> 52
D u 52
M y 52
k aum</w> 52
A T 52
A ir 52
F ol 52
J ap 52
J ähri 52
W oh 52
re pres 52
si on 52
ti on 52
sa gen</w> 52
lo st</w> 52
ut er</w> 52
ad v 52
An ge 52
pl at 52
ru p 52
ier ten</w> 52
pri ce</w> 52
eu te</w> 52
wee ks</w> 52
zei ch 52
if ic 52
play ers</w> 52
reich en</w> 52
wom en</w> 52
incre ase</w> 52
Comp any</w> 52
Dru ck 52
Thom as</w> 52
CD U</w> 52
grow th</w> 52
Parte i</w> 52
Fuß ball 52
Pak istan</w> 52
care er</w> 52
R ei 51
r ing</w> 51
f an 51
f le 51
m ag 51
a i 51
p ay 51
U N 51
4 8</w> 51
k eiten</w> 51
O ber 51
T ex 51
z eit 51
K il 51
an aly 51
un ds</w> 51
at ri 51
di re 51
di vi 51
is ed</w> 51
li ve</w> 51
il t</w> 51
ur ch</w> 51
ei l</w> 51
sch ul 51
ri ed</w> 51
sp iel</w> 51
im port 51
In st 51
per son 51
Re ch 51
ges etzt</w> 51
Pro ble 51
Be isp 51
fin den</w> 51
weit ere</w> 51
yo ung</w> 51
Ho ch 51
tak en</w> 51
ven ue</w> 51
Mc C 51
mak ing</w> 51
Pri v 51
fel d</w> 51
spä ter</w> 51
gehör t</w> 51
differ ent</w> 51
spokes man</w> 51
Letz te</w> 51
Mittw och</w> 51
Haup t 51
Merk el</w> 51
P a 50
c o</w> 50
c ol 50
f eh 50
f ach</w> 50
f est</w> 50
f ight</w> 50
m m 50
m als</w> 50
m ember</w> 50
3 5</w> 50
S om 50
C ity</w> 50
b ul 50
k einen</w> 50
T ro 50
H il 50
z wei 50
E M 50
ü ch 50
er ste</w> 50
di stri 50
ge macht</w> 50
ac tiv 50
ent w 50
St ate</w> 50
su g 50
po ten 50
ah e 50
pl ain 50
ho urs</w> 50
off ice</w> 50
rit ten</w> 50
Ar beit</w> 50
fo c 50
sk i</w> 50
cre dit</w> 50
kon z 50
mu sic</w> 50
mil es</w> 50
Ex per 50
Gr und 50
Wh ile</w> 50
Sta ats 50
Zeit ung</w> 50
Stre et</w> 50
progra m</w> 50
contin ue</w> 50
Mün chen</w> 50
blei ben</w> 50
Dien stag</w> 50
Afghan istan</w> 50
thous ands</w> 50
i o</w> 49
f ur 49
n ame</w> 49
m ut 49
g än 49
s ent</w> 49
C an 49
G D 49
b ess 49
v al</w> 49
v öl 49
0 s</w> 49
k ten</w> 49
W il 49
W illi 49
V or</w> 49
ei cht</w> 49
ti c</w> 49
ri ch</w> 49
de ci 49
sa l</w> 49
le it 49
us h 49
ter m</w> 49
wh y</w> 49
op en</w> 49
fü r 49
St ut 49
com es</w> 49
for man 49
200 2</w> 49
In form 49
pl ant</w> 49
Re g 49
Ch in 49
und ed</w> 49
Sp iel</w> 49
tro l 49
fol ge</w> 49
Di ese</w> 49
kön ne</w> 49
att ack</w> 49
ern s</w> 49
gre at</w> 49
teil te</w> 49
Wh ite</w> 49
dat a</w> 49
err or 49
heit s 49
Gener al</w> 49
vir on 49
Lon don</w> 49
fut ure</w> 49
Geschäf ts 49
Musharra f</w> 49
doll ars</w> 49
Druck version</w> 49
e vi 48
t ow 48
r or 48
r at</w> 48
f as 48
f ran 48
f igh 48
n a</w> 48
g as</w> 48
s ci 48
3 2</w> 48
u ten</w> 48
D en</w> 48
G oo 48
A si 48
ä d 48
ch o 48
en ter 48
re st 48
re li 48
or ities</w> 48
at ür 48
al ways</w> 48
ri cht</w> 48
se h 48
ab o 48
der zeit</w> 48
for ce</w> 48
An dre 48
pl ann 48
all er</w> 48
Au ßen 48
ye t</w> 48
me as 48
rec ently</w> 48
ill s</w> 48
str ong</w> 48
tro ops</w> 48
amp f</w> 48
ih nen</w> 48
ear lier</w> 48
äch st</w> 48
poli cy</w> 48
ke ep</w> 48
ler in</w> 48
lea ders</w> 48
Tra iner</w> 48
Poli ce</w> 48
Don ner 48
Geor ge</w> 48
wan ted</w> 48
10. 2007</w> 48
pun kt</w> 48
resul ts</w> 48
Entw ickl 48
Stut tg 48
t yp 47
P ap 47
c ut</w> 47
c los 47
- year-old</w> 47
n ation</w> 47
m ar</w> 47
d one</w> 47
a verage</w> 47
g ir 47
g ern</w> 47
p f 47
N ur</w> 47
D enn</w> 47
0 8 47
k am</w> 47
B al 47
B eh 47
I tali 47
ä ft</w> 47
er ing</w> 47
in es</w> 47
st ütz 47
ei genen</w> 47
ol s</w> 47
de f 47
ne ar</w> 47
ent en 47
wh ose</w> 47
te e</w> 47
sp ace</w> 47
ut z</w> 47
em er 47
Sch w 47
per son</w> 47
Ver ein 47
du e</w> 47
ta x</w> 47
comp et 47
sol d</w> 47
Mar t 47
des cri 47
tu n</w> 47
beg an</w> 47
tak ing</w> 47
medi a</w> 47
Ham burg</w> 47
with in</w> 47
Sie g</w> 47
econom y</w> 47
bek annt</w> 47
Leb ens 47
Frau en</w> 47
Bhut to</w> 47
Beisp iel</w> 47
ahe ad</w> 47
R en 46
t ory</w> 46
f ood</w> 46
d or 46
a i</w> 46
h on 46
p ho 46
2 7 46
S ome</w> 46
C S 46
D an 46
M än 46
0 1</w> 46
J ust 46
K öl 46
W er</w> 46
in t</w> 46
st är 46
ar m 46
on a</w> 46
ro om</w> 46
li g</w> 46
sch lag</w> 46
sp ital</w> 46
et y</w> 46
St adt</w> 46
ad minist 46
la un 46
man ager</w> 46
so f 46
Ar t</w> 46
gro ß 46
ts man 46
pos sible</w> 46
lan ge</w> 46
Po st</w> 46
Zu kunft</w> 46
ph one</w> 46
dar f</w> 46
dar auf</w> 46
nah me</w> 46
ko st 46
mor ning</w> 46
stand ing</w> 46
Gro up</w> 46
Mark t</w> 46
forder t</w> 46
erklär te</w> 46
sitz ende</w> 46
contro l</w> 46
wis sen</w> 46
Ol ymp 46
import ant</w> 46
e y 45
P unk 45
l ungen</w> 45
f lo 45
m m</w> 45
m es 45
m ust</w> 45
s li 45
w o 45
w as 45
p rin 45
3 4</w> 45
3 6</w> 45
N et 45
D .de</w> 45
M al</w> 45
y ers</w> 45
L ie 45
v oll 45
4 7</w> 45
k ul 45
A k 45
T ar 45
T echn 45
6 - 45
H ö 45
H ol 45
K an 45
K ul 45
K ap 45
in dic 45
ch all 45
en ds</w> 45
on ds</w> 45
au di 45
ei gen 45
sch aff 45
ver l 45
us ing</w> 45
ent ed</w> 45
ie t</w> 45
et te</w> 45
gen cy</w> 45
ell schaft</w> 45
ran ge</w> 45
Au str 45
ed ul 45
iel e</w> 45
Th em 45
fe deral</w> 45
Mit arbeit 45
Zu sammen 45
0. 000</w> 45
los sen</w> 45
lä u 45
Le ague</w> 45
hig her</w> 45
vis it</w> 45
SP D- 45
fra ge</w> 45
letz ten</w> 45
comm unity</w> 45
dec ision</w> 45
Or gan 45
Bil d 45
Af ter</w> 45
equ ity</w> 45
tran s 45
rele ased</w> 45
recei ved</w> 45
Vol k 45
cla im 45
custom ers</w> 45
atür lich</w> 45
Donner stag</w> 45
t it 44
P et 44
P ress</w> 44
- S 44
f lu 44
d ate</w> 44
g lau 44
3 8</w> 44
3 5 44
2 7</w> 44
S i 44
u red</w> 44
M al 44
M ei 44
M ag 44
G l 44
G em 44
L ar 44
v ar 44
4 5 44
A L 44
6 . 44
B an 44
E R 44
K ra 44
W ett 44
in tel 44
un ser 44
st ein</w> 44
re ich</w> 44
at er 44
si g 44
de ath</w> 44
se cre 44
le vel</w> 44
am ent</w> 44
ne te</w> 44
lo c 44
eh em 44
200 1</w> 44
In nen 44
ation s 44
Re k 44
ci vi 44
den ti 44
inter nation 44
stell ung</w> 44
Ab out</w> 44
tre ten</w> 44
invest ment</w> 44
Fra ge</w> 44
mö glich</w> 44
Fir st</w> 44
Wel t 44
stud y</w> 44
siden tial</w> 44
follow ing</w> 44
Associ ation</w> 44
strat eg 44
Cali forn 44
Berlin er</w> 44
glob al</w> 44
Wirtschaf ts 44
Austr ali 44
e as 43
t ary</w> 43
r en</w> 43
l en 43
f ell</w> 43
n ie 43
d i</w> 43
a il</w> 43
g ilt</w> 43
h u 43
h im 43
p ite</w> 43
1 3, 43
D ist 43
G rupp 43
b ook</w> 43
4 2</w> 43
k enn 43
A t 43
K ir 43
K op 43
W hat</w> 43
in o</w> 43
ch ec 43
ar t 43
on d</w> 43
on nen</w> 43
si d 43
ei ght</w> 43
ol e</w> 43
sa f 43
se en</w> 43
ent schei 43
te mp 43
pro du 43
fü h 43
An aly 43
per forman 43
qu ick 43
mo b 43
war ds</w> 43
ser ies</w> 43
Sp an 43
auf ge 43
fir m</w> 43
stell er</w> 43
Ge f 43
wi fe</w> 43
ob s</w> 43
Mit tel 43
Mon ate</w> 43
mark ets</w> 43
minist eri 43
mat eri 43
je der</w> 43
thou ght</w> 43
comm un 43
Wo chen</w> 43
stru c 43
regi on</w> 43
Bro wn</w> 43
organ is 43
cap ital</w> 43
diti onal</w> 43
provi de</w> 43
urn al 43
hät te</w> 43
cl ass</w> 43
Sol daten</w> 43
eben falls</w> 43
Jun e</w> 43
gegen über</w> 43
läs st</w> 43
execu tive</w> 43
perio d</w> 43
Russ land</w> 43
i red</w> 42
a den</w> 42
g ers</w> 42
p le</w> 42
3 9</w> 42
. m</w> 42
S ü 42
U l 42
M ut 42
b as 42
b ir 42
8 5</w> 42
4 4</w> 42
0 ,000</w> 42
x im 42
T error 42
j ud 42
j ust 42
B or 42
B as 42
Z u</w> 42
an st 42
en viron 42
st ation</w> 42
el se 42
il o 42
se ven</w> 42
le c 42
am ed</w> 42
ter ror 42
we ap 42
op port 42
200 3</w> 42
ex tre 42
ru ch</w> 42
ell eicht</w> 42
pre vi 42
man agement</w> 42
Ch amp 42
tr itt</w> 42
wir tschaf 42
Th ese</w> 42
schaf t 42
Er geb 42
fi c</w> 42
fin al</w> 42
Par lam 42
da gegen</w> 42
exp lo 42
ess es</w> 42
Inter national</w> 42
führ en</w> 42
kon nte</w> 42
zei gt</w> 42
sho t</w> 42
müs se</w> 42
Gr ün 42
rat s</w> 42
jo b</w> 42
teil t</w> 42
spiel er</w> 42
sat z 42
Te am</w> 42
Gel d 42
Ju ly</w> 42
Wir tschaft</w> 42
ful l</w> 42
zo gen</w> 42
Isra el 42
kommen den</w> 42
FT D.de</w> 42
Spre cher</w> 42
vide o</w> 42
t ungen</w> 41
t own</w> 41
i ere</w> 41
P an 41
c s</w> 41
d ly</w> 41
a de 41
s qu 41
s ituation</w> 41
p at 41
p ing</w> 41
S al 41
D ie 41
D r.</w> 41
M r 41
G eh 41
G ren 41
A ra 41
T r 41
B ran 41
z er</w> 41
z en 41
z iel 41
E U- 41
Z entr 41
in ning</w> 41
st eu 41
re cht</w> 41
di st 41
si cht</w> 41
ti gt</w> 41
om eter</w> 41
ic ally</w> 41
der en</w> 41
An fang</w> 41
200 0</w> 41
ach er</w> 41
ing er</w> 41
Al l 41
tw are</w> 41
är e</w> 41
dies en</w> 41
sel ves</w> 41
lie gen</w> 41
ev ent</w> 41
ev ision</w> 41
br ingen</w> 41
exp en 41
Kon kur 41
id a</w> 41
geb ra 41
Unter neh 41
up s</w> 41
Mu si 41
buil ding</w> 41
techn ology</w> 41
sm all</w> 41
develop ment</w> 41
show ed</w> 41
foo t 41
mus ste</w> 41
häl t</w> 41
Republi can</w> 41
resear ch</w> 41
Californ ia</w> 41
R olle</w> 40
i ds</w> 40
d in 40
g an</w> 40
w il 40
p ass</w> 40
N u 40
u es</w> 40
b asi 40
y ed</w> 40
7 5</w> 40
O R 40
A c 40
A pri 40
T it 40
F rei 40
H an 40
W ol 40
ä ß 40
an - 40
st adt</w> 40
re ti 40
it en</w> 40
ro se</w> 40
il le</w> 40
ti ck 40
sch wer 40
sch ütz 40
ge ts</w> 40
de p 40
de ta 40
ra di 40
le ger</w> 40
ic ro 40
ag ing</w> 40
su ff 40
eh er</w> 40
ah n 40
Sch n 40
ell er</w> 40
est er 40
est im 40
ci es</w> 40
sen ior</w> 40
gro ße</w> 40
dies es</w> 40
pri me</w> 40
tur n</w> 40
Bo ston</w> 40
Americ ans</w> 40
ga ve</w> 40
spiel en</w> 40
www. welt 40
lar ge</w> 40
Is lam 40
lat est</w> 40
mor tg 40
fam ili 40
gab e</w> 40
arti cle 40
hop e</w> 40
proc ess</w> 40
ong - 40
Gi uli 40
Pal est 40
Bay ern</w> 40
sing le</w> 40
work ers</w> 40
new sp 40
Seit e</w> 40
fur ther</w> 40
him self</w> 40
Apri l</w> 40
www.welt .de</w> 40
R au 39
e th 39
e duc 39
i - 39
P ut 39
c lo 39
f al 39
a w 39
h aup 39
s ollten</w> 39
w ährend</w> 39
p ay</w> 39
S tim 39
C ro 39
D re 39
D el 39
b ing</w> 39
b it</w> 39
b us</w> 39
v a</w> 39
H af 39
5 5 39
B ur 39
B ag 39
z t</w> 39
J er 39
' ll</w> 39
er fol 39
an z</w> 39
en ge</w> 39
st age</w> 39
re icht</w> 39
re sted</w> 39
di gen</w> 39
ro und</w> 39
si mp 39
sch le 39
ver s</w> 39
se t 39
us h</w> 39
ter min 39
ag ency</w> 39
sp richt</w> 39
der t</w> 39
gen den</w> 39
mo der 39
mo ther</w> 39
ran t</w> 39
gi ble</w> 39
Ch ic 39
zu folge</w> 39
ger ade</w> 39
ta x 39
ün st 39
mer cial</w> 39
fin anz 39
gr und</w> 39
Par t 39
lan g 39
Mon tag</w> 39
ear nings</w> 39
play ing</w> 39
rel ati 39
So zial 39
Europ a</w> 39
zah len</w> 39
schn ell</w> 39
econom ic</w> 39
gef ähr 39
Coun cil</w> 39
zie hen</w> 39
Indi a</w> 39
run ning</w> 39
parti cul 39
Janu ary</w> 39
Ob ama</w> 39
gesam t</w> 39
Sec ur 39
fail ed</w> 39
emplo ye 39
experi ence</w> 39
pho to 39
Giuli ani</w> 39
t in 38
P ubli 38
c oll 38
l ag 38
f rei 38
n a 38
d le</w> 38
d rü 38
h or 38
p h</w> 38
p ul 38
p ain 38
3 3</w> 38
3 00</w> 38
D ass</w> 38
M y</w> 38
M ö 38
M ad 38
G ar 38
4 9 38
k rit 38
T al 38
I T 38
Z iel</w> 38
in sur 38
en ten</w> 38
is ing</w> 38
ro l 38
ro w</w> 38
si ons</w> 38
be kommen</w> 38
ver ein 38
se chs</w> 38
le ben</w> 38
ab l 38
ne arly</w> 38
lo ans</w> 38
su pp 38
ad a</w> 38
co sts</w> 38
for d</w> 38
ach ie 38
af f</w> 38
sh or 38
pl om 38
ell s</w> 38
Ver k 38
wor ks</w> 38
vi c</w> 38
to - 38
Pro gra 38
pe an</w> 38
so li 38
go ti 38
Be g 38
fin det</w> 38
ill ed</w> 38
Par is</w> 38
Par tei 38
Di es 38
Zu dem</w> 38
dr in 38
att acks</w> 38
anz lerin</w> 38
Fran ce</w> 38
ack ed</w> 38
bl ack</w> 38
lau t</w> 38
stat ements</w> 38
produc tion</w> 38
sam men</w> 38
repor ts</w> 38
lea ve</w> 38
del i 38
äu ß 38
char ges</w> 38
Da bei</w> 38
Minist er 38
wür den</w> 38
isch es</w> 38
Oc t.</w> 38
Coun ty</w> 38
Bes u 38
hist ory</w> 38
Dam it</w> 38
näch sten</w> 38
zun ächst</w> 38
need ed</w> 38
dow n 38
Euro pean</w> 38
Inst it 38
evi dence</w> 38
saf ety</w> 38
quick ly</w> 38
gebra cht</w> 38
t on 37
t ur</w> 37
t ungs 37
i b 37
i denti 37
r as 37
c li 37
m b 37
d ah 37
h y 37
h ie 37
h ous 37
s al 37
s eines</w> 37
w ahr 37
w ood</w> 37
1 00 37
S E 37
u ally</w> 37
C E</w> 37
M ex 37
L ok 37
L os</w> 37
v eh 37
0 7</w> 37
k ra 37
k ind</w> 37
6 5</w> 37
F el 37
H en 37
j ün 37
K at 37
Z w 37
W M 37
W in 37
in ci 37
an wal 37
ch ef</w> 37
st ar</w> 37
st ates</w> 37
at ure</w> 37
al li 37
di sp 37
ro le</w> 37
au ft</w> 37
es n</w> 37
ti ger</w> 37
sch edul 37
te ams</w> 37
St and 37
200 9</w> 37
sh ort</w> 37
ck ed</w> 37
est er</w> 37
ges p 37
pe ace</w> 37
so ft</w> 37
go al</w> 37
tw o- 37
rit t</w> 37
av ing</w> 37
sol di 37
lin es</w> 37
fo reign</w> 37
fe el</w> 37
ander em</w> 37
Co urt</w> 37
zei gen</w> 37
ens es</w> 37
stat t</w> 37
setz t</w> 37
char ged</w> 37
bil ity</w> 37
spec i 37
vic es</w> 37
Ham burger</w> 37
imm ig 37
sign ed</w> 37
sha res</w> 37
Bec k</w> 37
ful ly</w> 37
blei bt</w> 37
ment al</w> 37
get ting</w> 37
Bl ack 37
Sam stag</w> 37
investig ation</w> 37
pra cti 37
Erfol g</w> 37
big gest</w> 37
Wis sen 37
Wett bewer 37
Palest in 37
R el 36
e z</w> 36
i an 36
r ates</w> 36
c au 36
c ases</w> 36
f ass 36
d ad</w> 36
p an 36
N o</w> 36
U m</w> 36
D ann</w> 36
M ob 36
b au</w> 36
k rä 36
T el 36
T ag</w> 36
j u 36
j un 36
B lick</w> 36
J ames</w> 36
E N 36
K unden</w> 36
' d</w> 36
V o 36
in iti 36
en er</w> 36
at temp 36
on line</w> 36
es sion</w> 36
il en</w> 36
il ity</w> 36
ei gent 36
be at</w> 36
sch en 36
ge ther</w> 36
de u 36
se qu 36
ne goti 36
sp ent</w> 36
sp rech 36
pro per 36
pro mis 36
St ein 36
iti g</w> 36
he alth 36
Sch war 36
Au s</w> 36
tra gen</w> 36
tra de</w> 36
zu g</w> 36
zu sammen</w> 36
Al ler 36
do ing</w> 36
do esn</w> 36
gro und</w> 36
gro ups</w> 36
ill ing</w> 36
tri but 36
br ing</w> 36
exp ect</w> 36
low er</w> 36
wie der 36
Gesch ichte</w> 36
glei ch 36
sto p</w> 36
Man ager</w> 36
vic ti 36
viel en</w> 36
Per son 36
sign ific 36
Res ear 36
zah l 36
abil ities</w> 36
fil m</w> 36
elec tion</w> 36
dest ens</w> 36
rele ase</w> 36
Democ r 36
hist or 36
Angel es</w> 36
Ener g 36
Cent er</w> 36
allow ed</w> 36
schließ lich</w> 36
stie g</w> 36
Ale x 36
gele gt</w> 36
deb ate</w> 36
Sonn tag</w> 36
Entschei dung</w> 36
pati ents</w> 36
Jähri ge</w> 36
entw ick 36
sug gest 36
Stuttg art</w> 36
administ ration</w> 36
Dist ri 36
Konkur ren 36
ester day</w> 36
Chic ago</w> 36
Minister prä 36
t ation</w> 35
c al 35
c ru 35
c aus 35
c lim 35
- F 35
- --</w> 35
n ut 35
m äß 35
d ition</w> 35
h ör 35
s s 35
w it 35
p ro</w> 35
3 9 35
2 9 35
. 000</w> 35
N . 35
S O 35
S or 35
o p</w> 35
o ur 35
o ft</w> 35
u ters</w> 35
C O 35
D en 35
M är 35
M s.</w> 35
b ill</w> 35
v in 35
v ely</w> 35
7 - 35
7 5 35
4 8 35
0 4</w> 35
O ther</w> 35
T age</w> 35
F ar 35
F ren 35
B is</w> 35
B lo 35
z er 35
z us 35
J ones</w> 35
E is 35
I l 35
I D 35
W all</w> 35
W ahl 35
an im 35
st ory</w> 35
re - 35
di g</w> 35
au ßer 35
ei st 35
ein fach</w> 35
sch t</w> 35
de bt</w> 35
ab end</w> 35
ac tion</w> 35
ne l</w> 35
sp ort</w> 35
no ti 35
hr en</w> 35
we ch 35
we st 35
con duc 35
St ad 35
ad ver 35
An ti 35
ing ly</w> 35
In du 35
he ad 35
gi ven</w> 35
par ents</w> 35
tr on 35
ma ß 35
so genann 35
Er st</w> 35
Er mitt 35
inter est 35
Ro bert</w> 35
Par k</w> 35
Par ty</w> 35
No w</w> 35
mis sed</w> 35
wei ß</w> 35
tre at 35
tu res</w> 35
Qu ar 35
mat ch</w> 35
win ning</w> 35
air s</w> 35
oper ation</w> 35
if f</w> 35
play ed</w> 35
bre ak 35
We b</w> 35
vic tory</w> 35
arti cle</w> 35
Brit ain</w> 35
sum mer</w> 35
Bec k 35
any thing</w> 35
Hei m 35
Democ rats</w> 35
Lei st 35
Bür ger 35
Famili e</w> 35
Russi a</w> 35
offic er</w> 35
mul ti 35
New s 35
Chin ese</w> 35
was n</w> 35
performan ce</w> 35
anst al 35
Democr atic</w> 35
R ed</w> 34
r aten</w> 34
r uss 34
P r 34
P eter</w> 34
c ted</w> 34
c ement</w> 34
l ö 34
l on 34
f - 34
f äh 34
d it 34
g g 34
g lie 34
h an 34
h us 34
h aus</w> 34
s le 34
p e</w> 34
1 3. 34
3 8 34
3 7</w> 34
S eit</w> 34
o w</w> 34
C ap 34
C up</w> 34
D or 34
b ung</w> 34
y s 34
y al</w> 34
L ou 34
L ast</w> 34
v an 34
k o</w> 34
A h 34
F rom</w> 34
z y</w> 34
z in 34
W at 34
W ach 34
in divi 34
en der</w> 34
re co 34
or der</w> 34
at tra 34
al most</w> 34
al ität</w> 34
is cal</w> 34
ro te</w> 34
ro ad</w> 34
si e 34
as sen</w> 34
be d 34
sch er</w> 34
ra ther</w> 34
le b 34
ab or 34
ic o</w> 34
hr e</w> 34
con ne 34
con serv 34
im medi 34
ach ed</w> 34
sh oo 34
ing - 34
he art</w> 34
ck er</w> 34
pre sidential</w> 34
mo ving</w> 34
gi ving</w> 34
ges ehen</w> 34
to gether</w> 34
me t</w> 34
bo ard</w> 34
rec or 34
Th ird</w> 34
kl ar</w> 34
fi k 34
str eng 34
Ro ck 34
ali gen</w> 34
Ber u 34
eu rop 34
ess or</w> 34
tur ned</w> 34
Zu sch 34
des halb</w> 34
att le</w> 34
sy ch 34
dam als</w> 34
Bundes lig 34
oper ating</w> 34
Ste uer 34
bre ak</w> 34
lar gest</w> 34
Regi er 34
kün ftig</w> 34
pa id</w> 34
bis her</w> 34
cent er</w> 34
quest ion</w> 34
cour se</w> 34
Isra el</w> 34
tan gible</w> 34
organiz ation</w> 34
pass ed</w> 34
proj ect</w> 34
four th</w> 34
GD L</w> 34
bess er</w> 34
newsp aper</w> 34
haup t</w> 34
indivi du 34
c ash</w> 33
m ur 33
m om 33
m et 33
h ein 33
h ung</w> 33
h old</w> 33
s ön 33
w ants</w> 33
N icht</w> 33
S m 33
M icro 33
y le</w> 33
7 4</w> 33
4 - 33
4 6</w> 33
T ür 33
T wo</w> 33
5 2</w> 33
E R</w> 33
K e 33
K ran 33
K olle 33
V ide 33
in ner 33
in zwischen</w> 33
en ces</w> 33
re duc 33
re venue</w> 33
ar rested</w> 33
or ts</w> 33
al te</w> 33
di um</w> 33
li gen 33
ei ther</w> 33
ei lig 33
ein ge 33
as ing</w> 33
sch uss</w> 33
ge kommen</w> 33
ge worden</w> 33
ver ur 33
ver tei 33
se y</w> 33
le t</w> 33
us es</w> 33
ac qu 33
ag ent 33
ig n 33
ut ed</w> 33
ff e</w> 33
pro chen</w> 33
pro sec 33
con diti 33
An der 33
ak ti 33
ak tu 33
iti on 33
af ter 33
sh ire</w> 33
ap p</w> 33
he av 33
all ed</w> 33
oo ds</w> 33
qu e</w> 33
ho wever</w> 33
tra ining</w> 33
zu vor</w> 33
ma in 33
off er</w> 33
gan gen</w> 33
comp ared</w> 33
ub l 33
inter view</w> 33
lie ßen</w> 33
Ge werk 33
vo te</w> 33
No t</w> 33
tro tz</w> 33
Po s 33
gu te</w> 33
kön nten</w> 33
hel ped</w> 33
star ted</w> 33
ris k</w> 33
acc ess</w> 33
are as</w> 33
fri end</w> 33
hei m 33
rel ated</w> 33
Su per 33
ish ing</w> 33
prof it</w> 33
can c 33
schein t</w> 33
incre ased</w> 33
Joh n 33
Europ e</w> 33
He alth</w> 33
issu es</w> 33
proble m</w> 33
agre ed</w> 33
defen se</w> 33
dau gh 33
Plat z</w> 33
Kore a</w> 33
disa p 33
Sais on</w> 33
beson ders</w> 33
Jap an</w> 33
Fußball - 33
poten tial</w> 33
reli gi 33
Beh ör 33
Israel i</w> 33
hie ß</w> 33
schedul ed</w> 33
hus band</w> 33
e i</w> 32
t ell</w> 32
t liche</w> 32
P la 32
c ents</w> 32
l ation</w> 32
f av 32
a be 32
h and</w> 32
h äu 32
h under 32
s sen</w> 32
2 .</w> 32
N um 32
S il 32
C ra 32
D eb 32
y si 32
y esterday</w> 32
4 9</w> 32
k tor</w> 32
A pp 32
T ali 32
T ele 32
T eil</w> 32
F B 32
F rü 32
H in 32
B a 32
z a</w> 32
z ep 32
K u 32
K ri 32
ch ner</w> 32
ch ance</w> 32
un ivers 32
re su 32
re ds</w> 32
re ta 32
or ig 32
at ur</w> 32
al d</w> 32
al low</w> 32
di se 32
au tom 32
ei ch</w> 32
se tt 32
le ar 32
am o 32
lo h 32
sp ro 32
sp ending</w> 32
St unden</w> 32
com mercial</w> 32
co ach</w> 32
Ver tei 32
ges agt</w> 32
zu sammen 32
min destens</w> 32
Al so</w> 32
ser ve</w> 32
ür z 32
schaf ts 32
19 6 32
stell te</w> 32
Ge gen 32
gr en 32
Ein satz</w> 32
Mon aten</w> 32
Min uten</w> 32
mark t</w> 32
gesch lossen</w> 32
pol itik</w> 32
los ses</w> 32
tel evision</w> 32
star k</w> 32
lich es</w> 32
Con gress</w> 32
inclu ded</w> 32
unter nehmen</w> 32
Ho wever</w> 32
Ko alition</w> 32
Pol itiker</w> 32
sto ck</w> 32
setz ung</w> 32
medi cal</w> 32
Ges prä 32
Sen ate</w> 32
pa ar</w> 32
Stre it</w> 32
progra ms</w> 32
out side</w> 32
appe ared</w> 32
bis lang</w> 32
schie den</w> 32
Sy st 32
agre ement</w> 32
häl t 32
chang es</w> 32
Ta gen</w> 32
Afri ca</w> 32
zäh lt</w> 32
Sicher heit</w> 32
Jah res</w> 32
contra ct</w> 32
Pau l</w> 32
Ange bot</w> 32
deci ded</w> 32
figh ting</w> 32
Entwickl ung</w> 32
descri bed</w> 32
Unterneh men 32
veh ic 32
Resear ch</w> 32
Indu stri 32
P atri 31
c ir 31
f ar 31
d ul 31
d omin 31
s vor 31
s ale</w> 31
s ätz 31
p it 31
p ic 31
p et 31
S port</w> 31
S har 31
S imp 31
D et 31
D op 31
G ri 31
G ed 31
b i 31
b it 31
L au 31
L age</w> 31
4 00</w> 31
k er 31
k ämp 31
A F 31
A cc 31
H y 31
5 . 31
B is 31
B ru 31
z ü 31
E U</w> 31
E ig 31
K a 31
K or 31
V iele</w> 31
er sch 31
ch ers</w> 31
ch amp 31
en a</w> 31
st ay</w> 31
st um 31
ar d 31
al leg 31
di schen</w> 31
si cher</w> 31
ti eren</w> 31
ri ghts</w> 31
ac tu 31
ent al</w> 31
sp r 31
et t</w> 31
ff t</w> 31
fü l 31
con su 31
ad es</w> 31
ber eit 31
for ced</w> 31
wor ds</w> 31
por ts</w> 31
ger ung</w> 31
gel d</w> 31
fi g</w> 31
sol che</w> 31
lie ß</w> 31
Inter net 31
führ ung</w> 31
ord in 31
mat ter</w> 31
ke ep 31
hand elt</w> 31
hin ter</w> 31
mak es</w> 31
Bu ch</w> 31
Pri me</w> 31
syst ems</w> 31
Land es 31
best imm 31
net work</w> 31
pas sen 31
Br and 31
brau cht</w> 31
Fl or 31
ins gesamt</w> 31
spre chen</w> 31
Janu ar</w> 31
bab ly</w> 31
jähri ge</w> 31
offic ers</w> 31
erwar tet</w> 31
cover ed</w> 31
invol ved</w> 31
Priv at 31
Mitarbeit er</w> 31
Organ is 31
previ ous</w> 31
foot ball</w> 31
erfol gre 31
Fren ch</w> 31
agent ur</w> 31
R am 30
e k 30
t able</w> 30
r ing 30
P R 30
c e 30
c ast</w> 30
c ally</w> 30
c row 30
f s</w> 30
f ung</w> 30
f elt</w> 30
n on 30
n on- 30
n omin 30
n immt</w> 30
m eine</w> 30
d lich</w> 30
h und 30
s elling</w> 30
p son</w> 30
3 0 30
3 .</w> 30
N .</w> 30
N et</w> 30
S ti 30
S port 30
o t 30
u fac 30
C ur 30
M ur 30
M ül 30
L eute</w> 30
0 5</w> 30
k el</w> 30
A D 30
F D 30
F A 30
F äl 30
5 5</w> 30
B ed 30
z um 30
K ab 30
K las 30
I A 30
Z ahlen</w> 30
V - 30
ö p 30
an ge</w> 30
ch e 30
st ing</w> 30
st ers</w> 30
re du 30
ar ies</w> 30
it z</w> 30
at en 30
di gte</w> 30
si t</w> 30
si eben</w> 30
as soci 30
ol l</w> 30
be we 30
sch wer</w> 30
sch ätz 30
de ad</w> 30
sa ch 30
ab ri 30
ab hän 30
us sion</w> 30
ter e</w> 30
ag s</w> 30
op position</w> 30
pro bably</w> 30
co - 30
for ward</w> 30
ul t</w> 30
and - 30
ex amp 30
um en</w> 30
än de</w> 30
to s</w> 30
tr au 30
zu letzt</w> 30
so cial</w> 30
iel t</w> 30
Th ree</w> 30
weit eren</w> 30
Di es</w> 30
sc re 30
ass er</w> 30
bet on 30
att or 30
Ho w</w> 30
enn t</w> 30
oc c 30
tak es</w> 30
comm on</w> 30
prof essi 30
Wo chen 30
stru ction</w> 30
ve z</w> 30
Ser vice</w> 30
land s</w> 30
opp ing</w> 30
tain ed</w> 30
dru g</w> 30
Akti en</w> 30
Stra ße</w> 30
heit en</w> 30
Ad res 30
Mus li 30
trä gt</w> 30
erklär t</w> 30
offen bar</w> 30
cer tain 30
inde x</w> 30
high - 30
comple te</w> 30
succ ess</w> 30
inst itu 30
Mann schaft</w> 30
wirk lich</w> 30
Dec ember</w> 30
schri ft</w> 30
Pres se 30
Kil ometer</w> 30
Exper ten</w> 30
Män ner</w> 30
weap ons</w> 30
opport unity</w> 30
Mö g 30
Palestin ian</w> 30
Aller dings</w> 30
examp le</w> 30
e e</w> 29
e gi 29
r ati 29
c u 29
n atürlich</w> 29
m ay 29
m ary</w> 29
d ollar</w> 29
g one</w> 29
g ue</w> 29
g ain 29
s l 29
w ing</w> 29
w es 29
p rü 29
N i 29
S at 29
S ou 29
S ark 29
b ad</w> 29
y a</w> 29
y an</w> 29
y ards</w> 29
8 7 29
v ement</w> 29
7 1</w> 29
0 9</w> 29
k i</w> 29
k amen</w> 29
A p 29
6 8 29
F er 29
F eh 29
F eb 29
5 3</w> 29
j obs</w> 29
B und</w> 29
B lu 29
z ös 29
I de 29
Z um</w> 29
er y</w> 29
er ne 29
ch in 29
en th 29
un e</w> 29
ar en</w> 29
it al 29
it ors</w> 29
is iert</w> 29
ro r</w> 29
ro b 29
li mit 29
si mil 29
ti onal</w> 29
ver antwor 29
le h 29
ne ben</w> 29
ag gres 29
wh ite</w> 29
ie ty</w> 29
no thing</w> 29
we b 29
pro mo 29
con d</w> 29
ah n</w> 29
An leger</w> 29
gen heit</w> 29
In c 29
ru le</w> 29
vi elleicht</w> 29
ges etz 29
ho spital</w> 29
Ch anc 29
me l</w> 29
De z 29
ser ved</w> 29
No .</w> 29
No ch</w> 29
Ein zel 29
mis sion 29
Mit gli 29
her r 29
Mar ch</w> 29
Inter est</w> 29
gew innen</w> 29
rou ght</w> 29
fri st 29
leg is 29
fra gt</w> 29
Se cond</w> 29
produc t</w> 29
rau m</w> 29
chil d</w> 29
tal ks</w> 29
mak er</w> 29
regi erung</w> 29
vol l</w> 29
Europ ä 29
some one</w> 29
stu di 29
ats äch 29
elec tri 29
forder te</w> 29
fa ther</w> 29
mei ster</w> 29
wat ch</w> 29
hom es</w> 29
inde pen 29
schl uss</w> 29
rie g</w> 29
Län dern</w> 29
val ue</w> 29
continu ed</w> 29
them selves</w> 29
industri e</w> 29
quar ter 29
zeich net</w> 29
Inform ationen</w> 29
Köl n</w> 29
sof tware</w> 29
Punk te</w> 29
Them a</w> 29
ministeri um</w> 29
jün g 29
Distri ct</w> 29
Ministerprä sident</w> 29
resu lt</w> 29
orig in 29
e hr 28
t v 28
t land</w> 28
r uns</w> 28
P ark 28
l auf 28
- M 28
- based</w> 28
h our</w> 28
s h</w> 28
w rote</w> 28
p ap 28
1 2, 28
3 7 28
2 4, 28
N ord 28
S V</w> 28
S im 28
S ub 28
C it 28
C lub</w> 28
M ore</w> 28
M eter</w> 28
G rü 28
L ö 28
L eit 28
k ung</w> 28
k new</w> 28
A tt 28
A verage</w> 28
H um 28
H ier</w> 28
H alb 28
j unk 28
z entr 28
J etzt</w> 28
E ri 28
E ast</w> 28
W - 28
W ährend</w> 28
Q a 28
ä m 28
ä us 28
an ischen</w> 28
an ische</w> 28
en e 28
re p 28
re ag 28
re ach</w> 28
or i 28
or ing</w> 28
at ter 28
al ige</w> 28
di plom 28
ein z 28
ge ber</w> 28
de ck 28
sa b 28
ver s 28
ati ves</w> 28
ent schieden</w> 28
com ment</w> 28
com man 28
ad o</w> 28
ad ding</w> 28
po se</w> 28
ach ten</w> 28
gen au</w> 28
ex ten 28
Sch ä 28
Sch au 28
pre is</w> 28
ow a</w> 28
vi a</w> 28
ran ts</w> 28
Re cht</w> 28
Au to</w> 28
la h</w> 28
ho ch</w> 28
Ch else 28
Pro je 28
tz e</w> 28
aus zu 28
ma in</w> 28
ser ious</w> 28
ger ech 28
res ol 28
lei cht</w> 28
lin ed</w> 28
rei fen</w> 28
Ber n 28
exp ec 28
exp enses</w> 28
bu y</w> 28
Amer ikan 28
Fran c 28
Fran k</w> 28
Pre is 28
stri ke</w> 28
dar an</w> 28
wee k 28
acc used</w> 28
zw öl 28
sich erung</w> 28
mar g 28
hei m</w> 28
hol ders</w> 28
letz te</w> 28
itä ten</w> 28
We g</w> 28
tm ei 28
ste ad</w> 28
10 , 28
Bil d</w> 28
bro ke</w> 28
Fri ed 28
loo d</w> 28
arbeit en</w> 28
conc erns</w> 28
bor der</w> 28
Op en</w> 28
Bah n 28
größ ten</w> 28
verb and</w> 28
fun ds</w> 28
Dru ck</w> 28
Christ ian</w> 28
Thom pson</w> 28
sco red</w> 28
Mil it 28
ös ung</w> 28
auth orities</w> 28
Associ ated</w> 28
dür fte</w> 28
Fern seh 28
mehr ere</w> 28
Rom ney</w> 28
zun eh 28
rul ing</w> 28
Mi ke</w> 28
hum an</w> 28
kn app</w> 28
fron t</w> 28
Flug zeu 28
ld n</w> 28
Cle vel 28
foc us</w> 28
sci enti 28
Mart in</w> 28
Ban ken</w> 28
educ ation</w> 28
employe es</w> 28
eigent lich</w> 28
zus ätz 28
adver t 28
Micro soft</w> 28
conditi ons</w> 28
Tali ban</w> 28
Dez ember</w> 28
R ad 27
R adi 27
i x</w> 27
r än 27
c ut 27
c ard</w> 27
c ities</w> 27
l ist</w> 27
l ong- 27
f el</w> 27
m as</w> 27
m as 27
a im 27
h au 27
h il 27
w le 27
. 2007</w> 27
C .</w> 27
U K</w> 27
D rit 27
b ud 27
L at 27
k unden</w> 27
O st 27
A tom 27
T - 27
T at 27
T ie 27
6 4</w> 27
F ach 27
H al 27
H au 27
5 4</w> 27
z ens</w> 27
J .</w> 27
K li 27
I s</w> 27
I C 27
I owa</w> 27
W M</w> 27
Ä r 27
er reicht</w> 27
th o 27
ch er 27
en b 27
st ance</w> 27
st imm 27
ar ri 27
ar beit</w> 27
on e- 27
al ing</w> 27
si s</w> 27
ein zu 27
ein ander 27
ein ige</w> 27
ein ander</w> 27
ti e</w> 27
be ein 27
be came</w> 27
ge k 27
de termin 27
ver z 27
ver hin 27
se ems</w> 27
ent lich</w> 27
ig ung</w> 27
ig keit</w> 27
et z</w> 27
ff er</w> 27
op ened</w> 27
con sum 27
con tribut 27
St .</w> 27
St rat 27
su per 27
iti ve</w> 27
Sch wei 27
est abl 27
all s</w> 27
Ver fü 27
Ver brau 27
ges prochen</w> 27
to tal</w> 27
tra ding</w> 27
me et</w> 27
tw en 27
ger y</w> 27
gro ß</w> 27
hal t</w> 27
mis s 27
tre ffen</w> 27
sta at 27
star ting</w> 27
dar unter</w> 27
pres sure</w> 27
acc ep 27
mach te</w> 27
ähr t</w> 27
Jo se 27
rel ation 27
199 9</w> 27
eff orts</w> 27
Ges etz 27
spe ak</w> 27
kur z</w> 27
inf lu 27
Bet eilig 27
dig ung</w> 27
dri ve</w> 27
Ju gend 27
tal k</w> 27
igh ts</w> 27
Sen .</w> 27
best ä 27
diti on 27
equ ip 27
größ te</w> 27
trä ge</w> 27
sus pen 27
imp act</w> 27
dür fen</w> 27
rema in</w> 27
every one</w> 27
every thing</w> 27
uns ere</w> 27
stan den</w> 27
ständi g</w> 27
mög lich 27
Sach e</w> 27
put y</w> 27
nei gh 27
candid ate</w> 27
Sel bst 27
viol ence</w> 27
benef it</w> 27
Besch äf 27
abo ve</w> 27
Tar if 27
audi ence</w> 27
Gem ein 27
Rek ord 27
civi li 27
strateg y</w> 27
materi al</w> 27
expen se</w> 27
mortg age</w> 27
particul arly</w> 27
Secur ity</w> 27
Mex ico</w> 27
soldi ers</w> 27
John son</w> 27
dise ase</w> 27
Adres se</w> 27
Clevel and</w> 27
equip ment</w> 27
R is 26
R ec 26
R ud 26
e us</w> 26
t n 26
t te</w> 26
t ten</w> 26
P f 26
c las 26
c lub</w> 26
m ung</w> 26
d om 26
g in 26
g le</w> 26
s in 26
s ell</w> 26
s weise</w> 26
w en</w> 26
w elt</w> 26
p oll 26
p ubl 26
N ic 26
N amen</w> 26
S par 26
S ud 26
C l 26
D V 26
D er 26
G ast 26
b illi 26
y ard</w> 26
L ab 26
A l</w> 26
A B 26
A ir</w> 26
T ä 26
6 9 26
F eu 26
H or 26
H oll 26
B i 26
B A</w> 26
B om 26
B ul 26
B rü 26
J ack 26
E mp 26
K en 26
K ind</w> 26
K ön 26
I I</w> 26
I ran 26
Z wei</w> 26
W eit 26
V i 26
er halten</w> 26
in side</w> 26
re it 26
re gel 26
re fer 26
li e</w> 26
li ving</w> 26
es p 26
es sen 26
ur en</w> 26
ein ig 26
ti gte</w> 26
sch ef</w> 26
ge ord 26
ge führt</w> 26
ver tre 26
se par 26
am m 26
ac y</w> 26
ac king</w> 26
ac tive</w> 26
ag ers</w> 26
ich t 26
ha f 26
ha ps</w> 26
no on</w> 26
ff ic</w> 26
pro v 26
con st 26
An gst</w> 26
ul i</w> 26
ach ing</w> 26
gen e</w> 26
Sch i 26
Sch al 26
wor ked</w> 26
man n 26
ho ch 26
so on</w> 26
off en</w> 26
ger t</w> 26
kl eine</w> 26
ill er</w> 26
Ro ck</w> 26
vo ters</w> 26
pos its</w> 26
Vor sitzende</w> 26
fer enz</w> 26
sc ale</w> 26
äh n 26
Mit te</w> 26
neh mer</w> 26
Mar k</w> 26
des ig 26
To d</w> 26
gesch lagen</w> 26
bei de</w> 26
For t 26
20 10</w> 26
Bundes k 26
beg inning</w> 26
polit ische</w> 26
play er</w> 26
bes ser 26
alle in</w> 26
Te il 26
spec ial</w> 26
Kin der 26
call s</w> 26
Aut os</w> 26
regi onal</w> 26
Res er 26
bor n</w> 26
Go vern 26
appro xim 26
buil t</w> 26
hö ch 26
respon se</w> 26
Rich ard</w> 26
ind est</w> 26
show s</w> 26
proc e 26
ban ks</w> 26
siden ten</w> 26
spokes woman</w> 26
rema ins</w> 26
parti cip 26
Ur teil</w> 26
Cent ral</w> 26
Russi an</w> 26
Kr itik</w> 26
demo k 26
Woh n 26
person al</w> 26
Som mer</w> 26
völ lig</w> 26
Willi ams</w> 26
tow ard</w> 26
plann ed</w> 26
pf lich 26
Hö he</w> 26
unser er</w> 26
sid ents</w> 26
Sü d 26
deta ils</w> 26
Bag h 26
Stad t 26
treat ment</w> 26
daugh ter</w> 26
hund reds</w> 26
Sark o 26
erne ut</w> 26
chin es 26
Verfü gung</w> 26
e den</w> 25
P lan 25
c op 25
c tions</w> 25
l - 25
l ack</w> 25
f y</w> 25
m me</w> 25
h ang</w> 25
s we 25
s mo 25
1 5, 25
3 4 25
. 09.2007</w> 25
N ah 25
S an 25
S au 25
S ur 25
o ts</w> 25
u tions</w> 25
C re 25
D ra 25
M el 25
M ay</w> 25
G al 25
G az 25
v an</w> 25
7 2</w> 25
k ü 25
k ept</w> 25
A ri 25
T H 25
T ab 25
T ony</w> 25
F est 25
H aus</w> 25
H aus 25
H amp 25
5 1</w> 25
j e</w> 25
j ect</w> 25
B S</w> 25
B on 25
B oo 25
J uli</w> 25
E m 25
K er 25
K oh 25
K ampf</w> 25
I hr</w> 25
Y an 25
V f 25
ü b 25
in si 25
th ir 25
an ing</w> 25
st ep 25
re ly</w> 25
ar i</w> 25
ar ch 25
di ent</w> 25
li ber 25
li eben</w> 25
li abilities</w> 25
il ed</w> 25
il legal</w> 25
si x 25
as k</w> 25
de ten</w> 25
de mon 25
ra ce</w> 25
se em 25
le aving</w> 25
ab zu 25
ab sol 25
am p</w> 25
ter ms</w> 25
ent sprech 25
wh ole</w> 25
ich ten</w> 25
wer k</w> 25
com plain 25
im pres 25
ad vis 25
ber eit</w> 25
po wer 25
ak er</w> 25
In de 25
he ard</w> 25
Sch ule</w> 25
ell en 25
all - 25
Un ter</w> 25
man ufac 25
ger e 25
mer k 25
mer hin</w> 25
ub le</w> 25
weit en</w> 25
pri mary</w> 25
ev in</w> 25
mit tel</w> 25
tt y</w> 25
wi esen</w> 25
tri ed</w> 25
tri al</w> 25
tri eb 25
rei ben</w> 25
sc ene</w> 25
des pite</w> 25
über haupt</w> 25
mark s</w> 25
gesch äft</w> 25
ast ern</w> 25
cre ate</w> 25
Ira k</w> 25
Le hr 25
vel s</w> 25
U. N.</w> 25
bl ing</w> 25
sur gery</w> 25
sich tlich</w> 25
Ko sten</w> 25
sho p</w> 25
invest ors</w> 25
Gr und</w> 25
www. n- 25
eff ec 25
klär ung</w> 25
ste p</w> 25
10 - 25
belie ved</w> 25
18 , 25
Fir ma</w> 25
diff ic 25
appe ar</w> 25
stu dent</w> 25
tain ment</w> 25
ide a</w> 25
Gener al 25
retur ned</w> 25
dem and</w> 25
mei sten</w> 25
stei gen</w> 25
Pe ople</w> 25
Sy ri 25
Stu die</w> 25
Dis k 25
Kl ein 25
Kre dit 25
consi dered</w> 25
Konz ern</w> 25
grow ing</w> 25
Medi en</w> 25
gri ff</w> 25
weiter hin</w> 25
jähri gen</w> 25
öh n 25
add ition</w> 25
suppor ters</w> 25
Sais on 25
NE T</w> 25
Gol d 25
Lit er 25
mov ie</w> 25
schlä ge</w> 25
My an 25
Rech ts 25
Proble m</w> 25
Grupp e</w> 25
Wol f 25
tax es</w> 25
hous ing</w> 25
signific ant</w> 25
Pr ince</w> 25
Frü h 25
PR News 25
Feb ru 25
tv .de</w> 25
Chelse a</w> 25
zwöl f</w> 25
www.n- tv.de</w> 25
R ice</w> 24
t isch</w> 24
t atsäch 24
i ans</w> 24
P as 24
c y 24
c ro 24
f ern</w> 24
f ans</w> 24
n ar 24
m .</w> 24
m es</w> 24
m ein 24
a .m</w> 24
g no 24
h inter 24
s er</w> 24
w on 24
S - 24
S ince</w> 24
o te</w> 24
C N 24
M ul 24
M ay 24
M oh 24
G A 24
b auen</w> 24
0 8</w> 24
O ur</w> 24
T on 24
T ho 24
T ON</w> 24
F r 24
F av 24
F ans</w> 24
F err 24
B BC</w> 24
V ir 24
ü ler</w> 24
ö tet</w> 24
Ö ff 24
en te</w> 24
en falls</w> 24
st ol 24
st ore</w> 24
st ood</w> 24
st aff</w> 24
it es</w> 24
it or</w> 24
al o 24
al ty</w> 24
el s 24
ro s</w> 24
li es</w> 24
li ves</w> 24
es - 24
ei m 24
ein igen</w> 24
sch war 24
sch ule</w> 24
ge be</w> 24
ri es</w> 24
ri eb 24
se um</w> 24
le bt</w> 24
der ungen</w> 24
con fi 24
con sul 24
su ch 24
ad urch</w> 24
co alition</w> 24
iti onen</w> 24
Sch ließ 24
ell ed</w> 24
Ver d 24
pre ci 24
qu ali 24
qu ite</w> 24
ges ellschaft</w> 24
par ts</w> 24
wir tschaft</w> 24
oh n</w> 24
ger icht</w> 24
sen se</w> 24
Ar ch 24
lei ch 24
str on 24
Ro yal</w> 24
ali zed</w> 24
tri e 24
fo rec 24
No t 24
fol gt</w> 24
men s</w> 24
gew al 24
To ur 24
Me hr 24
inclu des</w> 24
pres s</w> 24
ord on</w> 24
dam age</w> 24
sich ts 24
cont ent</w> 24
Ger many</w> 24
fac t</w> 24
nah m</w> 24
neu es</w> 24
Fra gen</w> 24
wal t</w> 24
Da zu</w> 24
Minist ry</w> 24
Mc Lar 24
Sta aten</w> 24
car ried</w> 24
Ph ili 24
wa gen</w> 24
provi ded</w> 24
nor th</w> 24
Mün chner</w> 24
Spiel er</w> 24
any one</w> 24
quest ion 24
consi der 24
succ ess 24
maj ority</w> 24
Off ice</w> 24
rie b</w> 24
follow ed</w> 24
öffent lich 24
Bür ger</w> 24
Ener gy</w> 24
Ed wards</w> 24
Spitz e</w> 24
spra ch</w> 24
see ing</w> 24
tou ch 24
cel eb 24
erst mals</w> 24
ld wide</w> 24
Kun st</w> 24
sit es</w> 24
Tran s 24
fan gen</w> 24
mag az 24
fran zös 24
gir l</w> 24
compet ition</w> 24
Volk s 24
tit le</w> 24
intel ligen 24
sig n</w> 24
famili es</w> 24
Put in</w> 24
victi ms</w> 24
Energ ie 24
immedi ately</w> 24
Sm ith</w> 24
canc er</w> 24
Simp son</w> 24
Acc ording</w> 24
Flor ida</w> 24
Bagh dad</w> 24
Myan mar</w> 24
i de</w> 23
r um 23
P I</w> 23
P ra 23
c iti 23
c amer 23
f ör 23
d ungs 23
d ated</w> 23
d ler</w> 23
g am 23
s enten 23
p ie 23
. A 23
S of 23
o ber 23
D ro 23
b at</w> 23
b ran 23
b ia</w> 23
b ack 23
7 7</w> 23
4 6 23
4 1</w> 23
k um</w> 23
A ch 23
T ag 23
F ac 23
H and</w> 23
H off 23
H ill 23
H äl 23
5 6</w> 23
B all</w> 23
B üh 23
z one</w> 23
E S</w> 23
9 9</w> 23
Z ahl</w> 23
W eb 23
V ie 23
V ier 23
V ater</w> 23
er hö 23
in - 23
in tro 23
an e</w> 23
ch ester</w> 23
un it</w> 23
st ag 23
st ly</w> 23
st ark 23
re bel 23
re plac 23
it e 23
or g</w> 23
di vision</w> 23
li c</w> 23
as ser 23
om s</w> 23
sch e 23
ou l 23
sa che</w> 23
ver d 23
ver sor 23
ver lassen</w> 23
ver schie 23
se kre 23
am t 23
lo an</w> 23
te gr 23
op ening</w> 23
con fir 23
St at 23
su it</w> 23
im in 23
ad ed</w> 23
ad op 23
ber u 23
for t</w> 23
An t 23
ak zep 23
ex pl 23
In come</w> 23
pl es</w> 23
Sch ritt</w> 23
per sön 23
qu ality</w> 23
gi g</w> 23
Ch il 23
tz dem</w> 23
ung er</w> 23
tra ffic</w> 23
Al though</w> 23
tw eit</w> 23
Th en</w> 23
ser ving</w> 23
mer t</w> 23
ann te</w> 23
av o 23
str ation</w> 23
gr ü 23
vo c 23
fe et</w> 23
Di rec 23
Mit glie 23
To chter</w> 23
Me dien 23
Con ference</w> 23
For m</w> 23
rich tig</w> 23
fu n</w> 23
end lich</w> 23
jo int</w> 23
teil ung</w> 23
Ma ß 23
bus in 23
eng ine 23
del iver 23
UR CE</w> 23
Sh i 23
Lu f 23
Aut ob 23
Son der 23
Nov .</w> 23
Li ber 23
kün digt</w> 23
pa ir</w> 23
Wel tmei 23
tig ten</w> 23
tig ung</w> 23
look ed</w> 23
lic ations</w> 23
test ing</w> 23
cer tain</w> 23
verk ehr</w> 23
wis sen 23
eben so</w> 23
happ y</w> 23
Sco tland</w> 23
Cor por 23
öffent lichen</w> 23
Frankf ur 23
näch ste</w> 23
atten tion</w> 23
chang ed</w> 23
Tre ffen</w> 23
Fe deral</w> 23
berich tet</w> 23
Sec re 23
sour ces</w> 23
popul ar</w> 23
candid ates</w> 23
amerikan ischen</w> 23
Bun de 23
Tex as</w> 23
McC ain</w> 23
Hil fe</w> 23
Goo gle</w> 23
tsman .com</w> 23
Mut ter</w> 23
verein bar 23
Instit ute</w> 23
Black water</w> 23
fass ungs 23
proper ty</w> 23
SO URCE</w> 23
mur der</w> 23
after noon</w> 23
häu fig</w> 23
Vertei dig 23
limit ed</w> 23
R et 22
R oll 22
e ch</w> 22
e .de</w> 22
t ac 22
t sp 22
P - 22
P ow 22
P län 22
P rin 22
l ers</w> 22
f ach 22
f air 22
n y</w> 22
n atur 22
m y 22
m al 22
d or</w> 22
d ungen</w> 22
s i</w> 22
w äh 22
w olle</w> 22
N utz 22
S eine</w> 22
S ing 22
S ech 22
S eiten</w> 22
o vic</w> 22
C I 22
C am 22
D .</w> 22
M ah 22
M any</w> 22
G ü 22
b lie 22
b ase</w> 22
b io 22
b rought</w> 22
L O 22
L eh 22
v ille</w> 22
7 8</w> 22
4 0 22
k in 22
k ar 22
k es</w> 22
O per 22
T y 22
T est 22
H ig 22
H inter 22
H essen</w> 22
5 8 22
j ec 22
j ah 22
B S 22
B ü 22
B ank 22
z te</w> 22
z ig</w> 22
E le 22
K n 22
K ör 22
K urs 22
K rise</w> 22
K evin</w> 22
Z er 22
Z war</w> 22
Z wei 22
W a 22
W ahr 22
W ahl</w> 22
er a</w> 22
in no 22
th - 22
th es 22
an ten</w> 22
an geb 22
ch t 22
un i 22
un ding</w> 22
re ck 22
re ad</w> 22
ar rest</w> 22
it ems</w> 22
at ures</w> 22
on z 22
on to</w> 22
al though</w> 22
di ger</w> 22
el te</w> 22
li gen</w> 22
li cht</w> 22
li ert</w> 22
il er</w> 22
ur ies</w> 22
as se</w> 22
ti cs</w> 22
be sten</w> 22
sch ung</w> 22
sch ied</w> 22
ge he</w> 22
ge plan 22
ri s</w> 22
ra ised</w> 22
ra eus</w> 22
sa men</w> 22
ver än 22
se x</w> 22
ac ting</w> 22
ac tions</w> 22
ag u 22
lo y 22
lo ve</w> 22
no twen 22
we der</w> 22
op tim 22
pro mp 22
em o 22
con f 22
ad el 22
for war 22
um p</w> 22
he b 22
est ate</w> 22
Ver hält 22
pre me</w> 22
mo un 22
än gt</w> 22
Au ßer 22
to ur 22
ho tel</w> 22
ed s</w> 22
min al</w> 22
so zi 22
so zial 22
off ered</w> 22
rec alled</w> 22
ger ne</w> 22
sen ce</w> 22
Be am 22
Sp ec 22
gel y</w> 22
gel n</w> 22
comp uter</w> 22
pp er</w> 22
Ber icht</w> 22
lan gu 22
gu n</w> 22
gu ard</w> 22
Inter view</w> 22
ici de</w> 22
Mo sk 22
Min dest 22
ph ysi 22
Qu ali 22
Pre is</w> 22
1, 0 22
kti onen</w> 22
ris ing</w> 22
ück e</w> 22
gn is</w> 22
zei gte</w> 22
olo gen</w> 22
bl ed</w> 22
ke i</w> 22
Ex - 22
IN G 22
govern or</w> 22
Nor thern</w> 22
rech te</w> 22
jo urnal 22
Pol it 22
Jo e</w> 22
Ma j 22
shi ps</w> 22
län gst</w> 22
mö chte</w> 22
ven tion</w> 22
char ge</w> 22
reg ist 22
bil d</w> 22
stru gg 22
Sta at 22
direc t</w> 22
ster reich 22
tal king</w> 22
Bil der</w> 22
Lu x 22
dro ht</w> 22
ze itig</w> 22
bri dge</w> 22
num bers</w> 22
kill ing</w> 22
dru ck</w> 22
Akti e</w> 22
Akti en 22
get ötet</w> 22
respon sible</w> 22
Invest oren</w> 22
zweit e</w> 22
olog ical</w> 22
West ern</w> 22
Sco tt 22
Wal ter</w> 22
thre at 22
Län der</w> 22
colle ge</w> 22
Dur ch 22
Arbeits lo 22
Sicher heits 22
need s</w> 22
rul es</w> 22
uns er</w> 22
Spitz en 22
pur ch 22
bie tet</w> 22
pris on</w> 22
versu cht</w> 22
Bör sen 22
sour ce</w> 22
accoun ts</w> 22
cou ple</w> 22
bom b</w> 22
schrei bt</w> 22
Nieder lage</w> 22
scho ols</w> 22
trol le</w> 22
meas ures</w> 22
emer gency</w> 22
CS U</w> 22
kost et</w> 22
mes sage</w> 22
chall eng 22
chall enge</w> 22
Pet raeus</w> 22
mob ili 22
environ mental</w> 22
Parlam ent 22
Bran che</w> 22
Nu n</w> 22
Beg inn</w> 22
Dies er</w> 22
deu tet</w> 22
Alex ander</w> 22
nut zen</w> 22
wech sel 22
europ ä 22
inner halb</w> 22
prosec ut 22
Behör den</w> 22
beton te</w> 22
Inc .</w> 22
legis lation</w> 22
Grü nen</w> 22
comman der</w> 22
marg in</w> 22
consum ers</w> 22
Sarko zy</w> 22
seem ed</w> 22
Schließ lich</w> 22
Häl fte</w> 22
R ol 21
e k</w> 21
t ter</w> 21
r ö 21
c f 21
c as 21
c ars</w> 21
c tive</w> 21
l ad 21
l ern</w> 21
l aufen</w> 21
f ei 21
f ic 21
f iscal</w> 21
n ine</w> 21
n amed</w> 21
m ü 21
m and</w> 21
m ut</w> 21
m är 21
d .</w> 21
d ner</w> 21
d ged</w> 21
a id</w> 21
a ther</w> 21
a dem 21
g - 21
g a</w> 21
g ain</w> 21
h am 21
h nach 21
s n 21
s ort</w> 21
p ush 21
1 50</w> 21
2 2, 21
. sco 21
. m.</w> 21
. org</w> 21
. cf 21
N ie 21
S ter 21
S icht</w> 21
S um 21
S ituation</w> 21
C H 21
C al 21
C ab 21
U N</w> 21
D ub 21
D aten</w> 21
M and 21
M ain 21
M id 21
G ordon</w> 21
b ly</w> 21
b lu 21
8 8</w> 21
L - 21
L ig 21
L aut</w> 21
L yn 21
4 3</w> 21
k ri 21
k eit 21
k rise</w> 21
T i 21
T ha 21
T enn 21
6 8</w> 21
6 9</w> 21
6 7</w> 21
6 2</w> 21
6 00</w> 21
5 9</w> 21
z iert</w> 21
z iger</w> 21
K ing</w> 21
K anzlerin</w> 21
K rieg</w> 21
9 4</w> 21
I S 21
I hre</w> 21
Y ou 21
Z . 21
Z ur</w> 21
W ales</w> 21
ä r</w> 21
Ö l 21
in sp 21
in tegr 21
th in 21
an er</w> 21
an ese</w> 21
an while</w> 21
ch air 21
un ion</w> 21
st en 21
st ab 21
st att 21
re den</w> 21
re ason</w> 21
or ies</w> 21
di ge</w> 21
el imin 21
is er</w> 21
is se 21
is sen</w> 21
li day</w> 21
au lt</w> 21
si di 21
si ze</w> 21
be isp 21
ge zogen</w> 21
de partment</w> 21
se em</w> 21
se its</w> 21
le - 21
le in</w> 21
ati ven</w> 21
ne g 21
ne u</w> 21
ne ten</w> 21
te ile</w> 21
sp end</w> 21
der e</w> 21
pro gress</w> 21
con struction</w> 21
St an 21
St ar 21
St ro 21
wer t</w> 21
com bin 21
im men</w> 21
co tsman 21
po or</w> 21
po ol</w> 21
ak ing</w> 21
gen u 21
gen de</w> 21
In don 21
um e</w> 21
he aring</w> 21
pl us</w> 21
per form 21
Ver b 21
pre v 21
pre tty</w> 21
mo ved</w> 21
Re is 21
Re uters</w> 21
Au th 21
ho he</w> 21
par k</w> 21
tra vel 21
min e</w> 21
min ute</w> 21
off s</w> 21
den e</w> 21
den ten</w> 21
De velop 21
bo x</w> 21
iel sweise</w> 21
är en</w> 21
und ation</w> 21
kl ag 21
kl einen</w> 21
res h</w> 21
fin ance</w> 21
Par tie</w> 21
vo ice</w> 21
rei ber</w> 21
br ingt</w> 21
lan gen</w> 21
gra du 21
ander s</w> 21
gu ards</w> 21
geb aut</w> 21
ik a</w> 21
los ing</w> 21
Pre ise</w> 21
Bo b</w> 21
For d</w> 21
dar über</w> 21
Unter stütz 21
vel op</w> 21
aff en</w> 21
hand eln</w> 21
cont act</w> 21
polit ici 21
Ger icht</w> 21
bes u 21
Jo urnal 21
Gesch äft</w> 21
Su preme</w> 21
repor ters</w> 21
eff ici 21
eff ect</w> 21
Ges ellschaft</w> 21
Or t</w> 21
char ac 21
Dem ok 21
Ph il 21
over all</w> 21
doc um 21
vol un 21
Bu ch 21
dien st</w> 21
Op fer</w> 21
Chri s</w> 21
woh ner</w> 21
schn it 21
Frank reich</w> 21
appro ach</w> 21
appro ved</w> 21
pas si 21
ion ship</w> 21
El tern</w> 21
writ er</w> 21
writ ten</w> 21
Rich ter</w> 21
fun ktion 21
Im mobili 21
Univers ität</w> 21
Des halb</w> 21
Wei l</w> 21
cor por 21
fäl le</w> 21
Gi ants</w> 21
curr ently</w> 21
spo ke</w> 21
wich tig</w> 21
On lin 21
impro ve</w> 21
Führ ung</w> 21
commit tee</w> 21
wach sen 21
Met ro 21
amerikan ische</w> 21
mut lich</w> 21
Goo d 21
plann ing</w> 21
Just ice</w> 21
ey es</w> 21
schaff en</w> 21
secre tary</w> 21
hu ge</w> 21
mob ile</w> 21
terror ist</w> 21
Geh eim 21
tick ets</w> 21
drü ck 21
WM - 21
inci dent</w> 21
practi ce</w> 21
jun ge</w> 21
health y</w> 21
reco gn 21
Tür kei</w> 21
redu ce</w> 21
simil ar</w> 21
gerech net</w> 21
Milit är 21
approxim ately</w> 21
Hamp shire</w> 21
Tho se</w> 21
success ful</w> 21
rebel s</w> 21
Frankfur ter</w> 21
thes cotsman 21
Scott ish</w> 21
.sco tsman.com</w> 21
.cf m</w> 21
chair man</w> 21
Indon es 21
thescotsman .scotsman.com</w> 21
R an 20
e di 20
e ar</w> 20
t ent</w> 20
t ations</w> 20
t elling</w> 20
i re 20
i ally</w> 20
r ong</w> 20
c ris 20
l te</w> 20
l ab 20
l am</w> 20
l ish</w> 20
f and</w> 20
f und</w> 20
f ru 20
f tige</w> 20
m in</w> 20
m ein</w> 20
m eter</w> 20
d nis</w> 20
d ritten</w> 20
a p</w> 20
h ood</w> 20
p t</w> 20
1 1, 20
1 4, 20
2 3, 20
2 7, 20
. 11.2007</w> 20
S ein</w> 20
S her 20
o t</w> 20
o ta</w> 20
C ri 20
C hr 20
C all</w> 20
C olle 20
U PI</w> 20
M ein 20
M io 20
b ruch</w> 20
8 8 20
L ösung</w> 20
0 3</w> 20
k - 20
k or 20
k el 20
k ers</w> 20
A ff 20
A mt</w> 20
A gent 20
F ed</w> 20
H än 20
H ome</w> 20
j en 20
j em 20
B ut 20
B ay</w> 20
B all 20
B io 20
B asi 20
K y 20
K no 20
K amp 20
K ünst 20
I h 20
W .</w> 20
V is 20
ä s 20
en nen</w> 20
en cour 20
re as 20
re ve 20
re sidents</w> 20
ar med</w> 20
or ado</w> 20
al ist</w> 20
al tern 20
el se</w> 20
li sten</w> 20
li ghts</w> 20
si ght</w> 20
ein s</w> 20
ein er 20
as p 20
as king</w> 20
ou ght</w> 20
de velop</w> 20
ra p 20
ver stän 20
ver trag</w> 20
le ague</w> 20
le vels</w> 20
us ers</w> 20
ir gend 20
ter t</w> 20
ent fer 20
ie gel</w> 20
te m</w> 20
te sts</w> 20
we hr 20
we ils</w> 20
pro min 20
con ver 20
St ru 20
su chen</w> 20
su ed 20
ad ditional</w> 20
gen au 20
ex am 20
ex pres 20
ex plain 20
ck ing</w> 20
Sch utz</w> 20
per haps</w> 20
Ver trag</w> 20
pre ise</w> 20
ow ners</w> 20
mo stly</w> 20
Re al</w> 20
par ties</w> 20
Pro vin 20
pe l</w> 20
tra vel</w> 20
tr a</w> 20
tr auen</w> 20
zu dem</w> 20
zu fri 20
ma g</w> 20
off ers</w> 20
De fen 20
bo y</w> 20
bo ten</w> 20
go als</w> 20
iel l</w> 20
do g</w> 20
do or</w> 20
Er n 20
Be it 20
Ar me 20
gel ten</w> 20
res sed</w> 20
sel y</w> 20
sel bst 20
lie fer 20
gh out</w> 20
tri fft</w> 20
Ber eich</w> 20
ess ing</w> 20
tur al</w> 20
Proz ess</w> 20
Mo st</w> 20
gew äh 20
To day</w> 20
bel ast 20
lä tze</w> 20
1, 000</w> 20
lich keiten</w> 20
Nach t</w> 20
fri ends</w> 20
unter stütz 20
aff ected</w> 20
deutsch e.de</w> 20
olo gi 20
fra gen</w> 20
Ger man</w> 20
fac tors</w> 20
vie ws</w> 20
Ste ve</w> 20
Men schen 20
spiel t</w> 20
Is land</w> 20
sam m 20
eng l 20
eff ort</w> 20
Ges amt 20
We ise</w> 20
äu fer</w> 20
reich e</w> 20
spe ech</w> 20
Bet rieb 20
part ner</w> 20
bro ad 20
stre et</w> 20
prä sen 20
wa it</w> 20
wa iting</w> 20
17 , 20
Fir men</w> 20
cri me</w> 20
Ser vices</w> 20
Car ol 20
dien st 20
tig keit</w> 20
Wer t 20
gef unden</w> 20
dru gs</w> 20
Aug .</w> 20
writ ers</w> 20
tiv ely</w> 20
zie ht</w> 20
wat ching</w> 20
Stu di 20
vir tu 20
olog ie</w> 20
mid - 20
differ ence</w> 20
ans a</w> 20
happ en</w> 20
happ ened</w> 20
auth or</w> 20
thre at</w> 20
Angel a</w> 20
Fuß ball</w> 20
Col orado</w> 20
Rom an</w> 20
positi on 20
Fil m</w> 20
kehr s 20
cr ash</w> 20
Strei k</w> 20
Strei ks</w> 20
add ress</w> 20
see king</w> 20
bal d</w> 20
bew us 20
Ear lier</w> 20
Kun st 20
schrei ben</w> 20
Mas sen 20
fig ures</w> 20
let ter</w> 20
Fol gen</w> 20
rup tion</w> 20
dire kt</w> 20
ehem aligen</w> 20
internation alen</w> 20
kenn t 20
Gef ahr</w> 20
extre m 20
schaft ler</w> 20
Parlam ent</w> 20
Die go</w> 20
Musi k 20
simp ly</w> 20
photo graph 20
drin king</w> 20
Person al 20
conduc ted</w> 20
Ermitt lungen</w> 20
russ ischen</w> 20
recor ds</w> 20
Bundeslig a</w> 20
Kran ken 20
Num mer</w> 20
Cra ig</w> 20
attor ney</w> 20
Chanc en</w> 20
origin al</w> 20
week end</w> 20
contribut ed</w> 20
Strat eg 20
Sud an</w> 20
diffic ult</w> 20
Wolf gang</w> 20
intro duc 20
confir med</w> 20
Verteidig ungs 20
Quali fik 20
beisp ielsweise</w> 20
Mio .</w> 20
sued deutsche.de</w> 20
e en</w> 19
e ten</w> 19
t au 19
t op 19
t ür 19
i ra 19
i ve</w> 19
r an</w> 19
r asch 19
P K 19
P ati 19
P ac 19
c lu 19
c ore</w> 19
c ell</w> 19
c ast 19
l auf</w> 19
- h 19
f ur</w> 19
f iel</w> 19
f ash 19
m illi 19
m ise</w> 19
g rupp 19
s a</w> 19
s ü 19
s outh</w> 19
s anc 19
w and 19
w est</w> 19
2 0. 19
N etz 19
S af 19
S ci 19
S ohn</w> 19
o ben</w> 19
u l</w> 19
C i 19
C E 19
C ou 19
D R</w> 19
D ay</w> 19
D em</w> 19
M ach 19
G am 19
G old</w> 19
G abri 19
b es</w> 19
b au 19
b la 19
y ond</w> 19
y wood</w> 19
8 - 19
8 00</w> 19
v o</w> 19
k ir 19
k tur 19
k ids</w> 19
H I 19
H er</w> 19
H om 19
H igh 19
H eute</w> 19
j ungen</w> 19
B M 19
B ir 19
B la 19
B ud 19
z ation</w> 19
z ul 19
E hr 19
E ven</w> 19
I T</w> 19
W en 19
W rit 19
W ech 19
W ind 19
V e 19
V iz 19
ü tt 19
ä t</w> 19
ö tz 19
er lau 19
er ziel 19
th i 19
en h 19
en or 19
re l</w> 19
re pe 19
re form</w> 19
ar ding</w> 19
or dered</w> 19
at te</w> 19
on ed</w> 19
al er</w> 19
al ed</w> 19
di sche</w> 19
el ing</w> 19
el ess</w> 19
ur ing</w> 19
ti cal</w> 19
ge fallen</w> 19
ge gangen</w> 19
ou l</w> 19
ab ly</w> 19
am b 19
am id</w> 19
us ually</w> 19
ac u 19
ac ci 19
ac tor</w> 19
ent ation</w> 19
ich tet</w> 19
te i</w> 19
ha ft</w> 19
ut h</w> 19
we g</w> 19
we hr</w> 19
we isen</w> 19
op pos 19
con vic 19
St ur 19
St äd 19
com par 19
su cht</w> 19
po st 19
and ing</w> 19
ex ist 19
Ver sicher 19
ho st</w> 19
tra in</w> 19
tra ditional</w> 19
me ist</w> 19
war ned</w> 19
iel d</w> 19
Th eir</w> 19
Er d 19
Ar my</w> 19
Sp ra 19
hal te</w> 19
ann ual</w> 19
fi red</w> 19
Ro ber 19
ev ents</w> 19
ev ening</w> 19
ör t</w> 19
lin ks</w> 19
mis sing</w> 19
Vor stand 19
sc ri 19
ob ach 19
ob wohl</w> 19
Kon junk 19
ander er</w> 19
Jahr zeh 19
her aus</w> 19
neh in</w> 19
Mar y 19
bet ei 19
Mo tor 19
gew öhn 19
ik o</w> 19
Pre m 19
Bo th</w> 19
Com mission</w> 19
Com mun 19
unter schie 19
Auf sichts 19
Ex change</w> 19
Bundes regierung</w> 19
beg in</w> 19
je den</w> 19
je weils</w> 19
Ko al 19
ner ship</w> 19
wel tweit</w> 19
fac ed</w> 19
tem por 19
rech net</w> 19
hol t</w> 19
hol en</w> 19
hol ding</w> 19
comm ents</w> 19
dec lined</w> 19
produc ed</w> 19
ko sten</w> 19
lar gely</w> 19
glei chen</w> 19
setz ungen</w> 19
199 5</w> 19
län der</w> 19
Man agement</w> 19
Da für</w> 19
bil dung</w> 19
kur z 19
Sta at</w> 19
ster schaft</w> 19
can not</w> 19
Fo ur 19
Aut o 19
dro p</w> 19
ath s</w> 19
bri ef 19
Op position</w> 19
Kom p 19
nor mal</w> 19
buil d</w> 19
issu ed</w> 19
bis her 19
Eng lish</w> 19
Rich tung</w> 19
quest ions</w> 19
Christ mas</w> 19
Wei hnach 19
consi st 19
disc uss</w> 19
frü her</w> 19
Sco tt</w> 19
law yers</w> 19
Wi der 19
Dur ing</w> 19
positi ve</w> 19
strat egi 19
Por tu 19
prote ct</w> 19
Fe der 19
berich tete</w> 19
Sk and 19
bie ter</w> 19
vent ure</w> 19
crit ici 19
sou ght</w> 19
dou ble</w> 19
Bör se</w> 19
Kore an</w> 19
benef its</w> 19
quar ters</w> 19
repres ents</w> 19
adv ant 19
dire ktor</w> 19
distri ct</w> 19
activ ities</w> 19
Reg isse 19
meas ure</w> 19
clos ed</w> 19
08 .2007</w> 19
Ren nen</w> 19
eigen e</w> 19
läu ft</w> 19
claim s</w> 19
eas y</w> 19
At lan 19
entschei den</w> 19
commun ic 19
jud ge</w> 19
Champ ions</w> 19
Ergeb nis</w> 19
schwer en</w> 19
coll ap 19
insur ance</w> 19
Lok führer</w> 19
anwal tschaft</w> 19
mäß ig</w> 19
CO M 19
sogenann ten</w> 19
conserv ative</w> 19
Zusch auer</w> 19
acqu is 19
disap poin 19
hunder t</w> 19
consu mer</w> 19
Mül ler</w> 19
FA Z. 19
zum indest</w> 19
web site</w> 19
indepen dent</w> 19
jüng sten</w> 19
Amerikan er</w> 19
Iran ian</w> 19
esp ec 19
manufac tur 19
Öff ent 19
intelligen ce</w> 19
blie b</w> 19
ING TON</w> 19
Unterstütz ung</w> 19
R ein 18
e an</w> 18
e te</w> 18
t d</w> 18
t aus 18
t our</w> 18
i val</w> 18
r ent</w> 18
P T 18
P un 18
P op 18
l ungs 18
- P 18
f ast 18
n es 18
m ing</w> 18
d t</w> 18
d u</w> 18
d ol 18
d rit 18
a res</w> 18
g ol 18
g ment</w> 18
g lichen</w> 18
h en 18
h urt</w> 18
s burg</w> 18
w ed</w> 18
w illi 18
w ün 18
w ollten</w> 18
p hen</w> 18
p ack 18
p rise</w> 18
p .m</w> 18
2 5, 18
N ik 18
S we 18
o v 18
u er</w> 18
C oll 18
D R 18
D ort</w> 18
D aten 18
M asch 18
b s 18
b ü 18
b at 18
b are</w> 18
b attle</w> 18
y m 18
8 0 18
L .</w> 18
v ey</w> 18
k y</w> 18
k m</w> 18
k aufen</w> 18
O b</w> 18
x ed</w> 18
T our</w> 18
6 7 18
H ou 18
H anno 18
H INGTON</w> 18
j ähr 18
B en</w> 18
B ill</w> 18
B ow 18
z - 18
z z 18
z es</w> 18
K ie 18
9 5</w> 18
I S</w> 18
W ar</w> 18
W ert</w> 18
W AS 18
V al 18
V ene 18
ä fte</w> 18
ß er</w> 18
er inn 18
er zählt</w> 18
in en</w> 18
in ge</w> 18
an ces</w> 18
an cy</w> 18
ch urch</w> 18
en ab 18
en zen</w> 18
un abhän 18
st um</w> 18
st off 18
st ens</w> 18
ar my</w> 18
or ie</w> 18
or ial</w> 18
on ing</w> 18
al a</w> 18
is o 18
is on</w> 18
is ierte</w> 18
li ed</w> 18
li ge</w> 18
li gt</w> 18
il ing</w> 18
si bility</w> 18
ei gh 18
as su 18
be yond</w> 18
ge - 18
ri d</w> 18
ri eben</w> 18
de fin 18
de posits</w> 18
sa w</w> 18
se as 18
le gt</w> 18
am t</w> 18
am i</w> 18
ne c 18
ent er</w> 18
et ings</w> 18
we g 18
we aring</w> 18
ff s</w> 18
pro p 18
St ill</w> 18
com men 18
ad y</w> 18
po t</w> 18
po st</w> 18
po the 18
and o</w> 18
af ghan 18
ex tra 18
ex change</w> 18
um st 18
he ads</w> 18
Sch ool</w> 18
Sch üler</w> 18
Ver gan 18
Ver gleich</w> 18
Ver anstal 18
wor t</w> 18
wor ldwide</w> 18
mo sp 18
Re d 18
Re ise</w> 18
to m</w> 18
ho t</w> 18
Ch ance</w> 18
Ch ief</w> 18
Pro duc 18
lu s</w> 18
me etings</w> 18
ma il</w> 18
wir e</w> 18
Al li 18
oh n 18
oh nehin</w> 18
ep tion</w> 18
ten de</w> 18
Be wer 18
lei st 18
fin ished</w> 18
av es</w> 18
sol le</w> 18
sel f- 18
Ro ad</w> 18
ev ent 18
mit tee</w> 18
wi d 18
rei bt</w> 18
Ab end</w> 18
br and</w> 18
coun ty</w> 18
Vor aus 18
fol gen</w> 18
wei s</w> 18
sc ore</w> 18
her en</w> 18
To m</w> 18
sta ats 18
tu red</w> 18
bur y</w> 18
minist erin</w> 18
star tet</w> 18
üs sel 18
rou gh 18
iz ed</w> 18
kon nten</w> 18
Com mittee</w> 18
unter schrift</w> 18
vis itors</w> 18
sur vi 18
20 - 18
ail s</w> 18
gre w</w> 18
je de</w> 18
ens ure</w> 18
müs sten</w> 18
iver sal</w> 18
air line</w> 18
hand s</w> 18
polit ics</w> 18
throu ghout</w> 18
Pol en</w> 18
fre qu 18
ko re 18
lar ger</w> 18
bar en</w> 18
rel ations</w> 18
itu tion</w> 18
sto res</w> 18
199 7</w> 18
mor gen</w> 18
mö gen</w> 18
Man chester</w> 18
Bus iness</w> 18
stra fe</w> 18
stra ight</w> 18
stand s</w> 18
prof iti 18
Poli z 18
Dem on 18
car ry</w> 18
Ju li 18
ste he</w> 18
dro pped</w> 18
cri minal</w> 18
some times</w> 18
Wer k</w> 18
fil ed</w> 18
provi ding</w> 18
equ i 18
urn al</w> 18
nor thern</w> 18
cent ral</w> 18
announ cement</w> 18
beh aup 18
enti re</w> 18
Pe king</w> 18
Stu denten</w> 18
verk auft</w> 18
contro l 18
Des pite</w> 18
gehör en</w> 18
mid t</w> 18
foo t</w> 18
anti - 18
schl ag 18
Off en 18
Jun i</w> 18
Medi cal</w> 18
Län der 18
Ur lau 18
Famili en 18
Afri can</w> 18
spor ts</w> 18
Tur key</w> 18
inj uries</w> 18
susp ect</w> 18
tä r</w> 18
regul ar</w> 18
Pau l 18
brit ischen</w> 18
mov ement</w> 18
konz ern</w> 18
laun ch</w> 18
Bild unterschrift</w> 18
claim ed</w> 18
Gl ück</w> 18
Analy sten</w> 18
Ergeb nisse</w> 18
Mr d.</w> 18
Ara b</w> 18
Zentr al 18
basi s</w> 18
aw are</w> 18
simp le</w> 18
Hen ry</w> 18
negoti ations</w> 18
Konkurren z</w> 18
caus ed</w> 18
Leist ung</w> 18
lon ger</w> 18
shoo ting</w> 18
mom ent</w> 18
aktu ellen</w> 18
Gewerk schaft</w> 18
professi onal</w> 18
Mitgli ed 18
Cit ig 18
Franc is 18
advert ising</w> 18
accep ted</w> 18
relation ship</w> 18
civili an</w> 18
Tä ter</w> 18
prov ince</w> 18
Yan ke 18
tatsäch lich</w> 18
GA AP</w> 18
Hill ary</w> 18
Vie tn 18
sekre tär</w> 18
Corpor ation</w> 18
Plän e</w> 18
natur al</w> 18
Leh mann</w> 18
Hig h</w> 18
Außer dem</w> 18
Develop ment</w> 18
sanc tions</w> 18
Koal ition 18
Four th</w> 18
FAZ. NET</w> 18
espec ially</w> 18
WAS HINGTON</w> 18
R on 17
R us 17
i res</w> 17
P rü 17
P sych 17
c ts</w> 17
c um 17
c ting</w> 17
c lin 17
- Chef</w> 17
f at 17
f ly</w> 17
f rau 17
f lik 17
n ö 17
n am 17
n ern</w> 17
n ieder 17
m ad 17
m end</w> 17
d s 17
g un 17
g as 17
g ig 17
g ner</w> 17
s om 17
s la 17
s inn 17
w all</w> 17
w ahl</w> 17
w rong</w> 17
p aper</w> 17
p ush</w> 17
p sych 17
. 10.2007</w> 17
. C.</w> 17
N ür 17
N eben</w> 17
N atur 17
S U 17
S in 17
S ab 17
S ant 17
o x 17
o dy</w> 17
C D</w> 17
C ub 17
M S 17
M om 17
M ehr</w> 17
G as</w> 17
G as 17
G et 17
G ood</w> 17
G lob 17
8 6</w> 17
L et</w> 17
L td</w> 17
v .</w> 17
v ill 17
v e- 17
7 00</w> 17
k al 17
k et 17
k ischen</w> 17
k ürz 17
O d 17
A N</w> 17
A no 17
T ren 17
6 0 17
6 6</w> 17
F at 17
F le 17
H it 17
H on 17
H ow 17
H ause</w> 17
5 0 17
5 8</w> 17
j um 17
z ene</w> 17
J ur 17
J ord 17
K ü 17
9 1</w> 17
Y et</w> 17
Z weit 17
W ort</w> 17
W asser</w> 17
W asser 17
V W</w> 17
ü gen</w> 17
ü bri 17
er c 17
er reichen</w> 17
in spec 17
in stead</w> 17
an zu 17
ch - 17
ch s 17
ch tet</w> 17
en ters</w> 17
st ur 17
st ant</w> 17
st yle</w> 17
re view</w> 17
ar m</w> 17
ar gu 17
it ation</w> 17
it ali 17
it self</w> 17
on er</w> 17
is ierung</w> 17
ro ut 17
ro up</w> 17
li s</w> 17
li z 17
li eb 17
li ved</w> 17
il es</w> 17
ei g 17
ein zel 17
ti ves</w> 17
be ha 17
be kommt</w> 17
sch ö 17
ge m</w> 17
ge wor 17
ri ere</w> 17
ri gh 17
de ep 17
de ep</w> 17
ra in</w> 17
ver anstal 17
ver mutlich</w> 17
le ment</w> 17
le ute</w> 17
ati st 17
ic ks</w> 17
ac ts</w> 17
ent ing</w> 17
te en 17
te fer 17
no ted</w> 17
00 ,000</w> 17
com mission</w> 17
su icide</w> 17
im ag 17
im ple 17
ad ul 17
ber n</w> 17
for men</w> 17
ak es</w> 17
and ed</w> 17
af ri 17
gen s</w> 17
gen ie 17
sh ar 17
ex tra</w> 17
ing s 17
ing ing</w> 17
ap e</w> 17
ap poin 17
In s 17
ist isch</w> 17
he ar 17
Ver tre 17
Ver antwor 17
ow ner</w> 17
wor th</w> 17
vi er 17
mo d 17
mo del</w> 17
por tra 17
Au gen</w> 17
ges ell 17
to urn 17
zu gleich</w> 17
min us</w> 17
so und</w> 17
wir kt</w> 17
war ten</w> 17
Al b 17
Al le</w> 17
off iz 17
den ken</w> 17
bo te</w> 17
tw ice</w> 17
ta ins</w> 17
gan ze</w> 17
ten d</w> 17
ten en</w> 17
gel ö 17
auf s</w> 17
auf zu 17
fi z 17
mit tag</w> 17
gr and 17
tri p</w> 17
Ab dul 17
Ab geord 17
Di re 17
wur f</w> 17
tre ated</w> 17
ess ed</w> 17
gu ar 17
gu ten</w> 17
Inter ne 17
Inter esse</w> 17
des ign</w> 17
sk ep 17
über zeu 17
form s</w> 17
gesch ichte</w> 17
Me anwhile</w> 17
ern ed</w> 17
itz er</w> 17
low - 17
steh enden</w> 17
2, 5 17
For mer</w> 17
ren e 17
aff t</w> 17
Ho spital</w> 17
gre ater</w> 17
win ner</w> 17
ef s</w> 17
ef on 17
air port</w> 17
gest ie 17
gest ern</w> 17
wel che</w> 17
polit ischen</w> 17
stat us</w> 17
fac ing</w> 17
nah me 17
hol e</w> 17
12 0</w> 17
Ste phen</w> 17
jo in</w> 17
ler - 17
Jo ach 17
Se kunden</w> 17
dec la 17
dec ades</w> 17
Ma i</w> 17
199 4</w> 17
199 8</w> 17
under stand</w> 17
Te am 17
Te ams</w> 17
Tra in 17
stand ard</w> 17
Poli zei 17
Bar cel 17
part ners</w> 17
az ir</w> 17
dig lich</w> 17
dig ital</w> 17
geh end</w> 17
mak ers</w> 17
Regi on</w> 17
stre ets</w> 17
over se 17
pa red</w> 17
Mark t 17
conc lu 17
Nachrich ten 17
nach dem</w> 17
opp on 17
zah l</w> 17
Kom ment 17
Tim e</w> 17
elec tions</w> 17
Mün tefer 17
cent ury</w> 17
fa ir</w> 17
zeu g</w> 17
Dar fur</w> 17
sear ch</w> 17
mei er</w> 17
stei ger</w> 17
hop es</w> 17
develop ing</w> 17
nis sen</w> 17
8, 9 17
Konz ept</w> 17
fäl lt</w> 17
Fahr er</w> 17
inten si 17
ans as</w> 17
Mat t</w> 17
bra chte</w> 17
thre e- 17
hi b 17
kt ur</w> 17
Dur ch</w> 17
atten ded</w> 17
bab y</w> 17
chang ing</w> 17
Mis s 17
Bei m</w> 17
crit ical</w> 17
Jah res 17
inj ured</w> 17
Spe kul 17
Führ ungs 17
popul ation</w> 17
NE W</w> 17
cou ldn</w> 17
mittel n</w> 17
demo cra 17
Mas sach 17
brit ann 17
Sto i 17
Groß britann 17
Bun dest 17
Tex t</w> 17
Proble me</w> 17
Tro tz</w> 17
activ ity</w> 17
Geschäfts führer</w> 17
fas st</w> 17
dor f</w> 17
laun ched</w> 17
Kan did 17
Zusammen hang</w> 17
Mei ster</w> 17
ehem alige</w> 17
civi l</w> 17
Kop f</w> 17
Tit el</w> 17
suff ered</w> 17
estim ated</w> 17
article 12 17
set ting</w> 17
relati vely</w> 17
Publi kum</w> 17
deli very</w> 17
identi fied</w> 17
Rel ig 17
Mob il 17
attemp t</w> 17
entwick elt</w> 17
cru de</w> 17
anim als</w> 17
außer dem</w> 17
lö sen</w> 17
conne ction</w> 17
Regier ungs 17
Kolle gen</w> 17
App le</w> 17
univers ity</w> 17
Gesprä ch</w> 17
vehic les</w> 17
pit ch</w> 17
AF P</w> 17
actu ally</w> 17
keep ing</w> 17
Ide e</w> 17
Radi o</w> 17
bud get</w> 17
neigh bor 17
dom est 17
Holl ywood</w> 17
separ ate</w> 17
Bundesk anzlerin</w> 17
thir d- 17
CN N</w> 17
Moh am 17
citi zens</w> 17
busin esses</w> 17
Luf th 17
forwar d- 17
Verhält nis</w> 17
Arbeitslo sen 17
Arme e</w> 17
Citig roup</w> 17
Francis co</w> 17
Yanke es</w> 17
Ano ther</w> 17
R ah 16
R um 16
R yan</w> 16
e z 16
e ing</w> 16
e ast</w> 16
t lin 16
t tom</w> 16
i Ph 16
P en 16
c ans</w> 16
l an</w> 16
l ess 16
f it</w> 16
f und 16
f onds</w> 16
f illed</w> 16
n one</w> 16
m ind</w> 16
m bo 16
d .de</w> 16
a o</w> 16
g al</w> 16
g reifen</w> 16
h o</w> 16
h an</w> 16
h its</w> 16
h ungen</w> 16
s an 16
s il 16
s op 16
s fra 16
w ähr 16
w illing</w> 16
p .</w> 16
N at 16
N ig 16
N av 16
N ations</w> 16
N atürlich</w> 16
S us 16
S how</w> 16
o d 16
u d</w> 16
u ter 16
u el</w> 16
C o</w> 16
D il 16
D ail 16
M s</w> 16
M ac 16
M err 16
G onz 16
b y 16
b un 16
b on</w> 16
b ür 16
b ann 16
b lood</w> 16
y n</w> 16
L a</w> 16
L an 16
L ag 16
L auf 16
7 6</w> 16
4 7 16
k ehr</w> 16
O S 16
O ver</w> 16
O hi 16
A L</w> 16
A re 16
A li 16
A ct</w> 16
T op 16
T ay 16
F L</w> 16
H itz 16
5 7</w> 16
j ing</w> 16
j ok 16
B ang 16
B AN 16
B ER</w> 16
z eiten</w> 16
z ona</w> 16
J ac 16
J ud 16
J eff 16
E v 16
q na</w> 16
K ein</w> 16
K urt</w> 16
K amer 16
I N</w> 16
Y OR 16
Z ei 16
Z eu 16
W all 16
ö sterreich 16
er weise</w> 16
in ation</w> 16
in tangible</w> 16
an ges 16
an ced</w> 16
en ced</w> 16
en jo 16
un be 16
st ran 16
st rei 16
re u 16
re sp 16
re spec 16
re place</w> 16
ar ance</w> 16
ar ms</w> 16
at or 16
di sk 16
el e</w> 16
el ine</w> 16
is s 16
ro ck 16
li mit</w> 16
li gh 16
il and</w> 16
om en</w> 16
be für 16
sch ar 16
sch lim 16
sch auen</w> 16
ou d</w> 16
de cre 16
de pres 16
de vices</w> 16
de puty</w> 16
ra y</w> 16
sa chen</w> 16
ver si 16
ver letz 16
ver län 16
ver pflich 16
le gte</w> 16
le ans</w> 16
us ual</w> 16
ac e 16
ne ar 16
ne ys</w> 16
ent de 16
wh om</w> 16
ie gel 16
lo g 16
te acher</w> 16
ha ven</w> 16
sp er 16
no wle 16
et - 16
ff e 16
ff enen</w> 16
pro test</w> 16
pro posed</w> 16
pro mise</w> 16
con dition</w> 16
St art</w> 16
im e</w> 16
ad just 16
ad voc 16
co ver</w> 16
for dern</w> 16
ec tion</w> 16
po sit</w> 16
An bieter</w> 16
ak ers</w> 16
ul l</w> 16
ach es</w> 16
gen ü 16
sh ut 16
sh opping</w> 16
ex erc 16
ap par 16
ap preci 16
ist ischen</w> 16
he ar</w> 16
Sch o 16
Ver hand 16
ow ned</w> 16
wor st</w> 16
wor ried</w> 16
vi ously</w> 16
ho sp 16
ho ben</w> 16
ho hen</w> 16
ho liday</w> 16
ed a</w> 16
ay ed</w> 16
tra ck</w> 16
tr at</w> 16
me ans</w> 16
min im 16
ma d</w> 16
wir ken</w> 16
war ning</w> 16
Al len</w> 16
den k 16
go es</w> 16
ger in</w> 16
Er st 16
ten der</w> 16
Be völ 16
fi f 16
inter n 16
inter essi 16
ill a</w> 16
ill en</w> 16
sol chen</w> 16
sol utions</w> 16
str en 16
lie f</w> 16
rä sident</w> 16
gh an</w> 16
mit ted</w> 16
gr und 16
wen ige</w> 16
tri eben</w> 16
coun cil</w> 16
fer n 16
ob lig 16
gu ez</w> 16
ih res</w> 16
Mo der 16
Mo sco 16
Min ute</w> 16
gew onnen</w> 16
über nehmen</w> 16
sta at</w> 16
ph ia</w> 16
ear ning</w> 16
ear ned</w> 16
hel ping</w> 16
führ te</w> 16
low ing</w> 16
cre ated</w> 16
Fran z</w> 16
ris ks</w> 16
iz ation</w> 16
Le w 16
mu si 16
For ce</w> 16
ack nowle 16
pres ent</w> 16
ord nung</w> 16
poli cies</w> 16
zei chen</w> 16
mat ters</w> 16
bl es</w> 16
Fin ale</w> 16
ick ed</w> 16
je dem</w> 16
fac es</w> 16
oc cur 16
Fre und 16
Fre unde</w> 16
rech nen</w> 16
hin gegen</w> 16
Jo urnal</w> 16
Se veral</w> 16
www. ft 16
fre i</w> 16
Fra ktion 16
Is lam</w> 16
sto ß</w> 16
199 6</w> 16
lea der 16
Ges etz</w> 16
Or leans</w> 16
We gen</w> 16
dis h</w> 16
stru ck</w> 16
direc tly</w> 16
dri ver</w> 16
dri ven</w> 16
ve au</w> 16
Fo reign</w> 16
secon d- 16
with dra 16
Um frage</w> 16
kün digte</w> 16
conc erned</w> 16
Land es</w> 16
the ast</w> 16
sub sidi 16
appe ars</w> 16
Har ry</w> 16
dien en</w> 16
opp el 16
zah lt</w> 16
net t</w> 16
größ ere</w> 16
dru ck 16
bis schen</w> 16
secur ities</w> 16
look s</w> 16
Stra f 16
sha re 16
writ ing</w> 16
anc ing</w> 16
bek ann 16
Mor gan</w> 16
durch aus</w> 16
West en</w> 16
ref used</w> 16
ref lec 16
fäl len</w> 16
disc uss 16
mus sten</w> 16
Mat eri 16
campa ig 16
Ben azir</w> 16
Geb äu 16
law yer</w> 16
Gre en 16
Pak ist 16
boo ks</w> 16
requ est</w> 16
requ ire</w> 16
requ ired</w> 16
tar get</w> 16
Char les</w> 16
prote sts</w> 16
ständi gen</w> 16
Je der</w> 16
pur su 16
erwar ten</w> 16
ther ap 16
Bre men</w> 16
inj ury</w> 16
proj ects</w> 16
versu chen</w> 16
cra ft</w> 16
sou thern</w> 16
Gen .</w> 16
Gewin n</w> 16
stor m</w> 16
accoun t</w> 16
alb um</w> 16
commit ted</w> 16
plat z</w> 16
analy st</w> 16
analy sts</w> 16
Can ada</w> 16
Asi an</w> 16
Andre w</w> 16
Pap iere</w> 16
Dan iel</w> 16
Köl ner</w> 16
groß er</w> 16
kost en 16
flo or</w> 16
Net z</w> 16
Kul tur</w> 16
verl oren</w> 16
internation ale</w> 16
Gef än 16
environ ment</w> 16
reti re 16
Islam ic</w> 16
set ts</w> 16
pul led</w> 16
Mad rid</w> 16
Progra mm</w> 16
Besu ch</w> 16
krä fte</w> 16
suggest ed</w> 16
clim ate</w> 16
Quar tal</w> 16
Heim at</w> 16
fav or 16
FB I</w> 16
Patri ots</w> 16
passen gers</w> 16
erfolgre ich 16
institu tions</w> 16
Mög lichkeit</w> 16
may or</w> 16
Proje kt</w> 16
expec tations</w> 16
scienti sts</w> 16
gin ia</w> 16
Ari zona</w> 16
Vf B</w> 16
Früh jahr</w> 16
Ferr ari</w> 16
Vir ginia</w> 16
trie b</w> 16
bran che</w> 16
avo id</w> 16
Mitglie der</w> 16
Maß nahmen</w> 16
Secre tary</w> 16
adel phia</w> 16
langu age</w> 16
Mosk au</w> 16
Mindest loh 16
Lux us 16
Lig a</w> 16
Lyn ch</w> 16
genu g</w> 16
Phil adelphia</w> 16
corpor ate</w> 16
Colle ge</w> 16
genau so</w> 16
gewäh lt</w> 16
Betrieb s 16
Carol ina</w> 16
Mary land</w> 16
advant age</w> 16
Öffent lichkeit</w> 16
Hanno ver</w> 16
Vergan genheit</w> 16
rough ly</w> 16
Joach im</w> 16
Barcel ona</w> 16
democra cy</w> 16
Massach u 16
forward- looking</w> 16
Ohi o</w> 16
YOR K</w> 16
Mosco w</w> 16
www.ft d.de</w> 16
R at 15
R em 15
R ights</w> 15
t to</w> 15
t ter 15
t age</w> 15
t ten 15
i um</w> 15
i ken</w> 15
P i 15
P P 15
P lus</w> 15
c ell 15
c ed 15
f ro 15
f red</w> 15
f ts 15
f ährt</w> 15
f resh</w> 15
n or</w> 15
n app 15
n ommen</w> 15
n esses</w> 15
m ed 15
m einen</w> 15
d adurch</w> 15
a der</w> 15
a war 15
g ie</w> 15
g um 15
h ur 15
h ne</w> 15
s ent 15
s and 15
s ession</w> 15
w äl 15
w ish</w> 15
p lo 15
p end 15
p unk 15
1 st</w> 15
2 3 15
2 2 15
2 50</w> 15
2 3. 15
N ow 15
S T 15
S and 15
S ir</w> 15
S itz 15
o o</w> 15
u cht</w> 15
C amp 15
U s</w> 15
D N 15
D E 15
D F</w> 15
D on</w> 15
M ü 15
M eh 15
M etz 15
M ik 15
M ain</w> 15
M acht</w> 15
G ir 15
b undes 15
b ian</w> 15
8 7</w> 15
v ast</w> 15
4 ,000</w> 15
k at 15
k as</w> 15
k as 15
k erung</w> 15
k ampf</w> 15
O der</w> 15
A - 15
T A</w> 15
T or</w> 15
T im</w> 15
T ok 15
T ick 15
T rau 15
T emp 15
6 3</w> 15
F un 15
F al 15
F ör 15
H ir 15
H ill</w> 15
5 - 15
j ects</w> 15
B illi 15
B lat 15
J ag 15
K ol 15
K im</w> 15
K ern 15
K lim 15
9 3</w> 15
I ts</w> 15
I ris 15
Z e 15
W ein 15
W ag 15
V ic 15
V oll 15
V om</w> 15
V W- 15
ö tt 15
Ä u 15
er ster</w> 15
er heb 15
in nt</w> 15
th in</w> 15
th ro 15
th ered</w> 15
an den</w> 15
an ke</w> 15
ch air</w> 15
en for 15
st ic</w> 15
re ig 15
re ached</w> 15
re commen 15
it ag 15
at e 15
on ey</w> 15
al co 15
al one</w> 15
al ties</w> 15
is s</w> 15
is n</w> 15
is ieren</w> 15
si g</w> 15
si li 15
ol der</w> 15
be dro 15
be aring</w> 15
be deutet</w> 15
sch ließen</w> 15
sch rieb</w> 15
ge d 15
ge grün 15
de te 15
de ad 15
de aths</w> 15
ra id</w> 15
sa ve</w> 15
ver öffentlich 15
se ts</w> 15
le i</w> 15
ab ge 15
ir k</w> 15
ic ken</w> 15
ac ted</w> 15
ne e</w> 15
ent y</w> 15
te - 15
te ste</w> 15
ha i</w> 15
sp rin 15
sp ruch</w> 15
ig an</w> 15
we ile</w> 15
we gs</w> 15
pro - 15
em e</w> 15
em an</w> 15
St ück</w> 15
St unde</w> 15
com fort 15
im age</w> 15
co verage</w> 15
ber üh 15
ec k</w> 15
An n 15
An sicht</w> 15
sh el 15
ex t</w> 15
ing er 15
ing ham</w> 15
ist ische</w> 15
ck y</w> 15
ck er 15
ck abe 15
Sch ie 15
per fe 15
Ver letz 15
pre mi 15
pre pared</w> 15
ow ed</w> 15
ran g</w> 15
Re de</w> 15
Re public</w> 15
to ys</w> 15
la ws</w> 15
par li 15
tra dition 15
tr uth</w> 15
me an</w> 15
Al t 15
Al i</w> 15
off ering</w> 15
bo ys</w> 15
bo dies</w> 15
sen ator</w> 15
ten tion</w> 15
Ro d 15
pp i</w> 15
mon d</w> 15
ev acu 15
wi es</w> 15
wi re- 15
tri bu 15
vo tes</w> 15
fo under</w> 15
fe ar</w> 15
mis s</w> 15
gra de</w> 15
wei ght</w> 15
Po st 15
Aus wär 15
Aus einander 15
gu il 15
of - 15
Mo d 15
sk ills</w> 15
mark t 15
mark eting</w> 15
ph y</w> 15
pol l</w> 15
Co ach</w> 15
att acked</w> 15
hel fen</w> 15
star ts</w> 15
Nach dem</w> 15
Nach bar 15
Con serv 15
Bo ard</w> 15
Milli on 15
sy n 15
deutsch er</w> 15
publi c 15
Ex ecu 15
IN C</w> 15
gre at 15
beg onnen</w> 15
fra g 15
neu n</w> 15
teil en</w> 15
ler weile</w> 15
bre it 15
alle y</w> 15
itä ts 15
setz te</w> 15
Ges und 15
ven ues</w> 15
kur s</w> 15
prof its</w> 15
So x</w> 15
dri ving</w> 15
Kin dern</w> 15
ve ter 15
isch en 15
isch em</w> 15
Af ghan</w> 15
stre am</w> 15
Aut om 15
chn ung</w> 15
doc tor</w> 15
doc tors</w> 15
vol ution</w> 15
Tu be</w> 15
sei zed</w> 15
Go tt</w> 15
milit ants</w> 15
Sun n 15
cul tural</w> 15
Kom mission</w> 15
Kom mun 15
fl uss</w> 15
read ing</w> 15
elec tron 15
buil dings</w> 15
hö here</w> 15
Stra ßen</w> 15
ful l- 15
exper ts</w> 15
Che f 15
inn ings</w> 15
IE S</w> 15
Comp uter</w> 15
cl ass 15
beh ör 15
develop ed</w> 15
recei ve</w> 15
Kl aus</w> 15
Invest ment</w> 15
Dav is</w> 15
high ly</w> 15
high est</w> 15
ref le 15
ref igh 15
comple x</w> 15
inten ded</w> 15
War um</w> 15
War ner</w> 15
exc lu 15
Ri ver</w> 15
CD U- 15
tru ck</w> 15
Leb ens</w> 15
Geor gi 15
Hu ckabe 15
Bri ef 15
Ta i 15
spo t</w> 15
Tre as 15
spor t 15
dow ns</w> 15
wich tig 15
gemein sam</w> 15
stan ces</w> 15
kehr t</w> 15
organiz ations</w> 15
Bei jing</w> 15
Produ ktion</w> 15
continu es</w> 15
suppor ting</w> 15
plac es</w> 15
gres si 15
beson dere</w> 15
dan ach</w> 15
Sel bst</w> 15
industri al</w> 15
fort un 15
brit ische</w> 15
sex u 15
adv ance</w> 15
schul en</w> 15
foc used</w> 15
mut maß 15
rest au 15
Außen minister</w> 15
gir ls</w> 15
Itali en</w> 15
CS U- 15
Olymp i 15
ey e</w> 15
Techn ik</w> 15
var ious</w> 15
Australi a</w> 15
chec k</w> 15
bas sa 15
ilo t</w> 15
Gren zen</w> 15
Musi k</w> 15
wil d</w> 15
schütz en</w> 15
radi o</w> 15
Publi c</w> 15
supp ly</w> 15
achie ve</w> 15
immig ration</w> 15
Wissen schaftler</w> 15
Wettbewer b</w> 15
hör en</w> 15
Mär z</w> 15
Il lu 15
Bürger meister</w> 15
han del</w> 15
hein - 15
verur teilt</w> 15
Ander son</w> 15
Pos ition</w> 15
religi ous</w> 15
Deb atte</w> 15
Tele kom 15
amo unt</w> 15
spr ung</w> 15
bestimm ten</w> 15
erfolgre ich</w> 15
Klas se</w> 15
occ up 15
Wochen ende</w> 15
Feh ler</w> 15
verantwor tlich</w> 15
Sim on</w> 15
Qa eda</w> 15
äus er</w> 15
einz ige</w> 15
Kli ma 15
verhin dern</w> 15
suspen ded</w> 15
publ ished</w> 15
Schal ke</w> 15
mann schaft</w> 15
demok rat 15
chines ische</w> 15
Inde x</w> 15
effec tive</w> 15
PRNews wire- 15
Febru ar</w> 15
cro s 15
Tag es 15
Büh ne</w> 15
versor gung</w> 15
Bunde stra 15
notwen dig</w> 15
purch ase</w> 15
Mid dle</w> 15
Tha iland</w> 15
Journal isten</w> 15
Onlin e- 15
cris is</w> 15
Agent ur</w> 15
entfer nt</w> 15
ologi es</w> 15
Strateg ie</w> 15
CE O</w> 15
Bla ir</w> 15
ötz lich</w> 15
betei ligt</w> 15
nec ess 15
Nür n 15
Fat ah</w> 15
decla red</w> 15
Müntefer ing</w> 15
domest ic</w> 15
Lew is</w> 15
discuss ed</w> 15
Massachu setts</w> 15
Huckabe e</w> 15
R est 14
R oh 14
e uro</w> 14
t an</w> 14
t um 14
t ough</w> 14
i ble</w> 14
r i</w> 14
P ho 14
P enn 14
c ue</w> 14
c amp</w> 14
l s 14
f ang 14
n d</w> 14
n ungen</w> 14
m - 14
m on</w> 14
m äch 14
m outh</w> 14
d d 14
d ents</w> 14
d lichen</w> 14
g ged</w> 14
g ül 14
h of</w> 14
h ou 14
h te</w> 14
h et 14
h ielt</w> 14
s onen</w> 14
w an</w> 14
p u 14
p ip 14
1 20 14
2 1. 14
N ä 14
N on- 14
S l 14
S A 14
S C</w> 14
S ar 14
S ollte</w> 14
o is</w> 14
u k</w> 14
C a 14
C at 14
C li 14
C an</w> 14
C arter</w> 14
C lar 14
C ath 14
U A 14
D oll 14
D res 14
D FB 14
D oppel 14
M es 14
M ed 14
M äd 14
G ä 14
G ul 14
G las 14
b on 14
b ungen</w> 14
b ark 14
b ank 14
y en</w> 14
L D 14
L es 14
L am 14
L ist 14
L ake</w> 14
v is</w> 14
v acc 14
7 9</w> 14
k ill</w> 14
k ap 14
k einer</w> 14
A G 14
A M</w> 14
A gen 14
A BC</w> 14
A gency</w> 14
6 1</w> 14
F A</w> 14
H i 14
H ere</w> 14
H all</w> 14
j ene</w> 14
j ury</w> 14
B ol 14
B ab 14
B ier 14
B oh 14
z yn 14
J ür 14
E g 14
E A</w> 14
E M</w> 14
E lec 14
K i 14
K ate</w> 14
K auf 14
K rä 14
9 0 14
9 6</w> 14
I an</w> 14
Z um 14
Z ins 14
W y 14
W et 14
W ill</w> 14
W aff 14
W ähr 14
W erte</w> 14
V ar 14
ü ter</w> 14
ü ge</w> 14
ö se</w> 14
Ü ber</w> 14
er ne</w> 14
in i</w> 14
th r 14
th y</w> 14
th a</w> 14
an gel 14
ch em 14
ch oo 14
ch ron 14
en cies</w> 14
un ge 14
un ced</w> 14
st am 14
st ations</w> 14
st lichen</w> 14
st opp 14
re d 14
re bo 14
re sources</w> 14
ar ily</w> 14
it als</w> 14
or ama</w> 14
at t</w> 14
at ten</w> 14
at ory</w> 14
on so</w> 14
di on</w> 14
el a</w> 14
el and</w> 14
el ected</w> 14
is se</w> 14
ro oms</w> 14
li ver</w> 14
au l 14
au ern</w> 14
il ers</w> 14
si onen</w> 14
si bly</w> 14
ein gesch 14
ti ally</w> 14
ti onen</w> 14
ti mat 14
be an 14
be grün 14
be zeichnet</w> 14
sch ä 14
sch we 14
sch enk 14
sch utz 14
sch utz</w> 14
ge tr 14
ge werk 14
ge plant</w> 14
ge startet</w> 14
de als</w> 14
de fe 14
de posit</w> 14
ra d</w> 14
ver besser 14
se it 14
se at</w> 14
se he</w> 14
se ite</w> 14
le diglich</w> 14
ab en</w> 14
ab ad</w> 14
ab gesch 14
ir man</w> 14
ic ism</w> 14
ag ent</w> 14
ag ues</w> 14
te dly</w> 14
sp ür 14
no te</w> 14
ig es</w> 14
we ar</w> 14
00 - 14
St and</w> 14
St ri 14
St ar</w> 14
St ür 14
wer ke</w> 14
eh er 14
co very</w> 14
po sted</w> 14
An hän 14
ach e</w> 14
In iti 14
pl ants</w> 14
Sch on</w> 14
Sch midt</w> 14
per man 14
est s</w> 14
all ing</w> 14
Ver lu 14
Ver lag</w> 14
pre dic 14
pre sence</w> 14
Un ion 14
vi erten</w> 14
gi gen</w> 14
Re chte</w> 14
Re form</w> 14
ci a</w> 14
än en</w> 14
än dern</w> 14
du le</w> 14
ho l</w> 14
me tho 14
me aning</w> 14
wir ft</w> 14
war t</w> 14
war um</w> 14
Al - 14
Al les</w> 14
den d</w> 14
den ied</w> 14
bo ttom</w> 14
ep h 14
ep iso 14
ger u 14
ger aten</w> 14
gan zen</w> 14
Er fahr 14
ten e</w> 14
En ter 14
kl agt</w> 14
gro w</w> 14
Sp iegel</w> 14
auf hin</w> 14
auf genommen</w> 14
fi refigh 14
lei hen</w> 14
fin ale</w> 14
kom ple 14
Ro dri 14
pp ing</w> 14
Ge gner</w> 14
ali a</w> 14
wen igen</w> 14
lin k</w> 14
da ily</w> 14
vo ted</w> 14
br ut 14
coun t</w> 14
coun ts</w> 14
Vor jah 14
Kon tak 14
rü ck 14
Min nes 14
sk y</w> 14
über nommen</w> 14
los sen 14
hel ps</w> 14
Me tern</w> 14
anz ler</w> 14
führ ten</w> 14
Pre mi 14
Nach frage</w> 14
kon kre 14
kon trol 14
ang ers</w> 14
The ater</w> 14
Ex tre 14
sur pris 14
gre en</w> 14
beg innt</w> 14
cle arly</w> 14
ash ed</w> 14
polit isch</w> 14
Ger ade</w> 14
vie t</w> 14
rech t 14
play offs</w> 14
jo ined</w> 14
Her r 14
Jo b</w> 14
dec line</w> 14
fre u 14
Su che</w> 14
sto ck 14
wal k</w> 14
medi c 14
län ger</w> 14
Da im 14
stra ße</w> 14
spe ed</w> 14
prof it 14
spec ul 14
So viet</w> 14
direc tion</w> 14
car r 14
Arbeit sp 14
Ph illi 14
Fo to</w> 14
schein lich</w> 14
Ham as</w> 14
belie ves</w> 14
secon ds</w> 14
Son y</w> 14
Um welt 14
sign s</w> 14
Zeit en</w> 14
Zeit punkt</w> 14
conc ern</w> 14
öff net</w> 14
stän de</w> 14
Land tag 14
ange kündigt</w> 14
fel low</w> 14
Bro w 14
mem ory</w> 14
Mu seum</w> 14
cul ture</w> 14
Prä sidenten</w> 14
fil ms</w> 14
provi des</w> 14
16 , 14
pas st</w> 14
Bec ker</w> 14
14 - 14
Spiel e</w> 14
enti rely</w> 14
Bl ack</w> 14
sec ure</w> 14
Pe ter 14
sitz t</w> 14
Kl age</w> 14
cer em 14
schw ier 14
utz t</w> 14
blo ck</w> 14
essi ons</w> 14
frü here</w> 14
spre ad</w> 14
spre cher</w> 14
Dam als</w> 14
weiter es</w> 14
fli kt</w> 14
fli ghts</w> 14
defen ding</w> 14
Gre en</w> 14
Republi cans</w> 14
Ol mert</w> 14
Afri ka</w> 14
plan e</w> 14
Por sche</w> 14
bie ten</w> 14
Bei de</w> 14
resear chers</w> 14
mög liche</w> 14
continu ing</w> 14
allow s</w> 14
impro ved</w> 14
Gewin n 14
Cha irman</w> 14
Sto ck 14
pati ent</w> 14
Jähri gen</w> 14
UN - 14
Staats anwaltschaft</w> 14
deci de</w> 14
Asi a</w> 14
enter tainment</w> 14
Bal ance</w> 14
stär k 14
groß es</w> 14
Zusammen arbeit</w> 14
glau ben</w> 14
Kra ft</w> 14
ater al</w> 14
secre t</w> 14
loc ated</w> 14
sid ent 14
produ ce</w> 14
struc ture</w> 14
else where</w> 14
expen sive</w> 14
schle cht</w> 14
na he</w> 14
IT Y</w> 14
dah er</w> 14
dah in</w> 14
speci fic</w> 14
Stein meier</w> 14
ID I 14
west ern</w> 14
Anti - 14
fäh igkeit</w> 14
13. 11.2007</w> 14
Ah mad 14
Wach stum 14
sie g</w> 14
bed ing 14
bed ingt</w> 14
Beru f 14
Regier ung 14
individu al</w> 14
heav y</w> 14
heav ily</w> 14
reta il</w> 14
Syst em</w> 14
vehic le</w> 14
svor sitzende</w> 14
alleg ed</w> 14
actu al</w> 14
Fäl le</w> 14
Musli m</w> 14
Presse agentur</w> 14
aggres sive</w> 14
mission er</w> 14
frist ig</w> 14
Europä ische</w> 14
resol ution</w> 14
zuneh mend</w> 14
zusätz liche</w> 14
aim ed</w> 14
determin ed</w> 14
Jose f</w> 14
influ ence</w> 14
Beschäf tigten</w> 14
Jack son</w> 14
desig ned</w> 14
Govern ment</w> 14
Gaz a</w> 14
step s</w> 14
Kredit krise</w> 14
Fav re</w> 14
consider ing</w> 14
magaz ine</w> 14
pie ce</w> 14
Hoff nung</w> 14
stark en</w> 14
sche dule</w> 14
Gü ter 14
Hinter grund</w> 14
Zwei fel</w> 14
Maj or</w> 14
push ed</w> 14
thin king</w> 14
Stro m 14
prev ent</w> 14
volun te 14
jem and</w> 14
Basi s</w> 14
Provin z</w> 14
Defen se</w> 14
Writ er</w> 14
COM M 14
Vene zu 14
Vietn am</w> 14
Sant a</w> 14
Jord an</w> 14
beha vi 14
tourn ament</w> 14
Abdul lah</w> 14
guar an 14
gestie gen</w> 14
Großbritann ien</w> 14
Bundest ag 14
Lufth ansa</w> 14
iPh one</w> 14
Merr ill</w> 14
exerc ise</w> 14
fif th</w> 14
leader ship</w> 14
Execu tive</w> 14
bassa dor</w> 14
Rodri guez</w> 14
R al 13
R and 13
R unde</w> 13
e es</w> 13
e ed</w> 13
e ase</w> 13
t i</w> 13
t in</w> 13
t ut</w> 13
t äu 13
i p</w> 13
i or 13
P har 13
c able</w> 13
l ung 13
- up</w> 13
f än 13
f arm 13
n igh 13
n ennt</w> 13
n annte</w> 13
m ah 13
m ass</w> 13
d ent 13
d ar</w> 13
d ance</w> 13
g old</w> 13
g ige</w> 13
g ünst 13
h i</w> 13
h es</w> 13
h em 13
h oo 13
s un 13
s at</w> 13
w ann</w> 13
w ins</w> 13
p al 13
3 0. 13
3 1. 13
2 8, 13
N ich 13
N ein</w> 13
N BC</w> 13
S A</w> 13
S T</w> 13
S lo 13
S he 13
S ain 13
o ch 13
C r 13
C el 13
C ash</w> 13
C BS</w> 13
D e</w> 13
D al 13
D ah 13
M ets</w> 13
M iller</w> 13
G il 13
b al</w> 13
b id</w> 13
b ay 13
b ought</w> 13
y es</w> 13
y ant</w> 13
8 3</w> 13
L A</w> 13
L as</w> 13
L ow 13
L ev 13
v in</w> 13
7 3</w> 13
4 .</w> 13
k a 13
k ran 13
k lu 13
k auf 13
k amp 13
k ish</w> 13
O ri 13
O sten</w> 13
O hne</w> 13
A M 13
A v 13
A C</w> 13
A sh 13
T at</w> 13
T om 13
T urn 13
T eher 13
F oo 13
F ün 13
F isch 13
F onds</w> 13
F iscal</w> 13
H ur 13
H ist 13
H ann 13
j ahr 13
j et</w> 13
j ail</w> 13
B and</w> 13
B ell</w> 13
z ten</w> 13
J a</w> 13
J on 13
J im</w> 13
J ust</w> 13
E t 13
E conom 13
E very 13
K S</w> 13
K el 13
K ac 13
K eine</w> 13
K enn 13
9 .</w> 13
9 7</w> 13
I B 13
I mp 13
Z i 13
V eg 13
ü gel</w> 13
er lit 13
in qu 13
th le 13
an ger</w> 13
en z 13
en det</w> 13
un certain 13
st one</w> 13
st ets</w> 13
st Call</w> 13
re y</w> 13
re in 13
re stri 13
re publi 13
re ality</w> 13
re put 13
re move</w> 13
re member</w> 13
ar ische</w> 13
it el</w> 13
at mosp 13
on ic</w> 13
is es</w> 13
li st 13
li qu 13
il ities</w> 13
si eb 13
ei ch 13
as ingly</w> 13
ol as</w> 13
ti s</w> 13
ti k 13
ti ef</w> 13
om a</w> 13
be t</w> 13
sch au 13
sch är 13
sch wei 13
ri ers</w> 13
ri ver</w> 13
ra ising</w> 13
sa v 13
sa gi 13
ver fü 13
ver lan 13
ver bot</w> 13
se m 13
ic a</w> 13
ter en</w> 13
ter ed</w> 13
ac es</w> 13
ag ne</w> 13
ent ary</w> 13
te u 13
sp l 13
sp ol 13
der - 13
hr an</w> 13
we ather</w> 13
pro test 13
St ud 13
St ellen</w> 13
St aff</w> 13
wer te</w> 13
com pe 13
su ed</w> 13
im merhin</w> 13
ad vice</w> 13
co ast</w> 13
ec tions</w> 13
po und</w> 13
An ne</w> 13
An teil</w> 13
An ton 13
An walt</w> 13
ak s</w> 13
iti k 13
iti ons</w> 13
sh e 13
sh ut</w> 13
ap s</w> 13
In sight</w> 13
um t</w> 13
Sch ri 13
Sch we 13
Sch um 13
Sch ick 13
Sch rö 13
per mission</w> 13
all gem 13
Ver tra 13
Ver fahren</w> 13
Ver band</w> 13
Un der</w> 13
Un gl 13
vi ert</w> 13
mo on</w> 13
mo dern</w> 13
ci li 13
to t 13
man che</w> 13
ho ffen</w> 13
ed ing</w> 13
ed ge</w> 13
eb ack</w> 13
ay ne</w> 13
tr it 13
me ant</w> 13
war nt</w> 13
Al an</w> 13
Al ter 13
Al onso</w> 13
den den</w> 13
den de</w> 13
De ut 13
ser i 13
do gs</w> 13
Er war 13
En ga 13
Ar e</w> 13
19 . 13
fin ding</w> 13
fir ms</w> 13
yo unger</w> 13
stell ungen</w> 13
mon g</w> 13
Ge gen</w> 13
gr and</w> 13
vor zu 13
vor aus 13
wi der 13
fo li 13
Ab schluss</w> 13
No tes</w> 13
Ber g 13
Ein kommen</w> 13
tro ub 13
tro ffen</w> 13
coun ter</w> 13
mp tion</w> 13
ob jec 13
Mit tel</w> 13
gu y</w> 13
ass ung</w> 13
Zu gleich</w> 13
Mon at</w> 13
inv ent 13
To des 13
ik er</w> 13
bel ow</w> 13
ph en 13
bur gh</w> 13
ast rop 13
Qu ad 13
Qu alität</w> 13
Qu een</w> 13
1, 4 13
1, 5 13
kon ferenz</w> 13
2, 7 13
2, 9 13
For scher</w> 13
ack le</w> 13
sy mbo 13
acc ept</w> 13
fri end 13
3, 7 13
ang hai</w> 13
aff ect</w> 13
aff airs</w> 13
son st</w> 13
fu el</w> 13
sur ro 13
Ho tel</w> 13
20 12</w> 13
mar t</w> 13
beg inn</w> 13
je des</w> 13
Ko so 13
mach ine</w> 13
sho ts</w> 13
air e</w> 13
cont est</w> 13
wel come</w> 13
up on</w> 13
vie wed</w> 13
Gr öß 13
ant ly</w> 13
neu er</w> 13
Her steller</w> 13
comm and</w> 13
fre ie</w> 13
fre und 13
Su u</w> 13
itu de</w> 13
199 0</w> 13
wal ks</w> 13
wal ked</w> 13
ON D 13
eff ects</w> 13
Ges icht</w> 13
Te hran</w> 13
stand ards</w> 13
reich te</w> 13
fahr t</w> 13
Bar ack</w> 13
geh ö 13
ster reich</w> 13
isch - 13
bro ken</w> 13
stre ak</w> 13
Sen ator</w> 13
Um satz</w> 13
Li ke</w> 13
incre ases</w> 13
incre asingly</w> 13
arbeit et</w> 13
Joh ann 13
Kar riere</w> 13
Fir stCall</w> 13
Ser ies</w> 13
Bro ad 13
best immt</w> 13
Op position 13
Brit ney</w> 13
appro pri 13
tran spor 13
größ er</w> 13
Stra ßen 13
cent re</w> 13
ple ase</w> 13
fa vor</w> 13
announ ce</w> 13
Comp uter 13
Bes on 13
Indi en</w> 13
26 0</w> 13
26 , 13
wat ch 13
offen sive</w> 13
hop ed</w> 13
Invest ment 13
inde x 13
durch schnit 13
brau chen</w> 13
consi der</w> 13
Sam m 13
Lei p 13
ans wer</w> 13
frü heren</w> 13
auth or 13
Don ald</w> 13
Off ic 13
öffent lich</w> 13
gri ffen</w> 13
colle ction</w> 13
colle agues</w> 13
Geb iet</w> 13
val u 13
Fern ando</w> 13
fli ght</w> 13
fli ct</w> 13
Col um 13
defen sive</w> 13
mehr eren</w> 13
sw it 13
Am ts 13
Hand els 13
Ha as</w> 13
Schl uss 13
Lin k 13
Bra z 13
Bra sili 13
prote ction</w> 13
Frau en 13
gesam te</w> 13
pass ing</w> 13
198 8</w> 13
fut ures</w> 13
mög lichen</w> 13
Spe ars</w> 13
La den</w> 13
cover ing</w> 13
Do w</w> 13
AR IES</w> 13
experi enced</w> 13
Flug ha 13
cat eg 13
ken nen</w> 13
Fol ge</w> 13
Jap anese</w> 13
Woh l 13
UN ITY</w> 13
person nel</w> 13
zwei fel 13
EM - 13
EM BER</w> 13
distri but 13
entw ickl 13
bess ere</w> 13
Willi am</w> 13
Pap ier</w> 13
Itali an</w> 13
Just iz 13
Punk ten</w> 13
Net work</w> 13
voll er</w> 13
glau be</w> 13
glau bt</w> 13
Mag az 13
Kra ft 13
Australi an</w> 13
Kop f 13
Analy sts</w> 13
commun ities</w> 13
wirtschaf tlichen</w> 13
Die ter</w> 13
Mr s.</w> 13
Gren ze</w> 13
Tr end</w> 13
estim ates</w> 13
article 1 13
fal sch</w> 13
Stim me</w> 13
Part ner 13
insur g 13
soli dated</w> 13
Besu cher</w> 13
SE PT 13
gesp ielt</w> 13
pan el</w> 13
initi ative</w> 13
cal cul 13
Il lin 13
wech sel</w> 13
sogenann te</w> 13
fäh ig</w> 13
Lou is 13
recor ded</w> 13
individu als</w> 13
Vide o</w> 13
aktu elle</w> 13
sett lement</w> 13
Unternehmen s 13
cir cum 13
sätz e</w> 13
champ ionship</w> 13
Mög lichkeiten</w> 13
rati e</w> 13
Lö w</w> 13
Qa ida</w> 13
deck ung</w> 13
Schä uble</w> 13
cut s</w> 13
Lat in</w> 13
Hau sh 13
establ ished</w> 13
poll s</w> 13
Gast geber</w> 13
Lab or</w> 13
Brü s 13
Ken ne 13
Vi elleicht</w> 13
icht sh 13
six th</w> 13
demon str 13
Disk ussion</w> 13
Pas sagi 13
forec ast</w> 13
celeb r 13
camer a</w> 13
.A .</w> 13
BS IDI 13
inno v 13
journal ist</w> 13
threat ened</w> 13
Dub ai</w> 13
You Tube</w> 13
Auth orities</w> 13
klag te</w> 13
politici ans</w> 13
docum ents</w> 13
Sher iff</w> 13
Ky i</w> 13
Künst ler</w> 13
verstän dlich</w> 13
zufri eden</w> 13
engl ischen</w> 13
präsen tiert</w> 13
bewus st</w> 13
PK K</w> 13
fash ion</w> 13
milli ons</w> 13
ktur en</w> 13
tempor ary</w> 13
Weihnach ts 13
strategi c</w> 13
critici zed</w> 13
Regisse ur</w> 13
acquis ition</w> 13
Hou ston</w> 13
jähr lich</w> 13
umst rit 13
SU BSIDI 13
adul ts</w> 13
Vertre ter</w> 13
gelö st</w> 13
overse as</w> 13
Spekul ationen</w> 13
Dail y</w> 13
Gonz ales</w> 13
BAN KS</w> 13
occur red</w> 13
Gefän gnis</w> 13
berüh m 13
refle ct</w> 13
gressi onal</w> 13
restau rant</w> 13
PRNewswire- FirstCall</w> 13
Nä he</w> 13
Jür gen</w> 13
Minnes ota</w> 13
COMM UNITY</w> 13
reput ation</w> 13
compe te</w> 13
SEPT EMBER</w> 13
SUBSIDI ARIES</w> 13
R .</w> 12
R as 12
R end 12
e asi 12
t es 12
t ment</w> 12
t ackle</w> 12
i i</w> 12
P S</w> 12
P ok 12
c ab 12
c old</w> 12
c les</w> 12
l es 12
l ust</w> 12
l eng 12
l ong 12
f em 12
f ts</w> 12
f ers</w> 12
f ine</w> 12
f ence</w> 12
f lä 12
f las 12
f ish</w> 12
f lam 12
f tigen</w> 12
n i 12
n in 12
n es</w> 12
n ell</w> 12
n ic</w> 12
n ütz 12
m atic</w> 12
d h 12
d liche</w> 12
a vi 12
a sion</w> 12
g ur 12
g ree</w> 12
g ingen</w> 12
g utes</w> 12
h n 12
h n</w> 12
h it 12
h as 12
h ten</w> 12
h ier 12
s ä 12
s au 12
s ons</w> 12
w ell 12
w ill 12
p i 12
p en</w> 12
p in 12
p ak 12
1 1.</w> 12
. - 12
N er 12
N as 12
N ok 12
N ick</w> 12
N FL</w> 12
S W 12
S up 12
S inn</w> 12
o graph 12
C C 12
D un 12
D ol 12
D ick</w> 12
M ol 12
M ig 12
M ön 12
M ast 12
M esse</w> 12
G M</w> 12
G ore</w> 12
G ün 12
G ip 12
b a</w> 12
b ach</w> 12
b are 12
b acked</w> 12
b acking</w> 12
y l</w> 12
8 .</w> 12
L il 12
v ity</w> 12
k il 12
k ungen</w> 12
k id 12
k ick</w> 12
k uli 12
O L 12
O P</w> 12
O ut 12
A G</w> 12
T ig 12
T ore</w> 12
6 3 12
F ut 12
F ron 12
H ay 12
H under 12
j ur 12
j ag 12
B .</w> 12
B ou 12
B em 12
B rau 12
z b 12
z ing</w> 12
z ieren</w> 12
z erst 12
J enn 12
E - 12
E ver 12
E ach</w> 12
K al 12
K au 12
K am 12
K lose</w> 12
9 2</w> 12
I M 12
I st</w> 12
Z y 12
W ür 12
W ell</w> 12
W äh 12
V iel 12
Ö sterreich</w> 12
er er</w> 12
er ia</w> 12
er innen</w> 12
ch tes</w> 12
en ken</w> 12
un ken</w> 12
st ro 12
st ec 12
st ars</w> 12
st ain 12
st ät 12
re ver 12
ar ran 12
it er</w> 12
it ar 12
it ely</w> 12
or ders</w> 12
or row</w> 12
on ers</w> 12
al u 12
di ert</w> 12
di ct</w> 12
el der</w> 12
is land</w> 12
ro it</w> 12
li ga 12
au ßen</w> 12
au ßer</w> 12
es cap 12
il e 12
il - 12
il ton</w> 12
ur t 12
ur er</w> 12
ein ger 12
ol a</w> 12
ti erte</w> 12
be au 12
be ge 12
be tra 12
be steht</w> 12
be gren 12
sch i 12
sch lu 12
sch were</w> 12
ge halten</w> 12
ge fordert</w> 12
ri de</w> 12
ra ise</w> 12
sa ges</w> 12
ver ab 12
ver letzt</w> 12
ver fassungs 12
ver trauen</w> 12
se a</w> 12
se ch 12
se ver 12
ati v</w> 12
us er</w> 12
ac tly</w> 12
ag an</w> 12
ent täu 12
lo ts</w> 12
te sten</w> 12
sp ir 12
sp ring</w> 12
no t 12
no - 12
hr t</w> 12
ut ility</w> 12
we d 12
we is 12
we ak</w> 12
op tion</w> 12
op tions</w> 12
con flict</w> 12
St ation</w> 12
St ell 12
St är 12
St elle</w> 12
su its</w> 12
su res</w> 12
su stain 12
im ages</w> 12
ber y</w> 12
ber ger</w> 12
po l</w> 12
An ders</w> 12
ak i</w> 12
and es</w> 12
sh own</w> 12
ck ey</w> 12
Sch le 12
Ver z 12
Ver kehrs 12
pre hen 12
ow ns</w> 12
vi l</w> 12
Re gen 12
Re fer 12
to ols</w> 12
la den</w> 12
ho p</w> 12
Ch em 12
Ch all 12
tra in 12
tra de 12
aus gest 12
den noch</w> 12
iel ten</w> 12
oh l</w> 12
do m</w> 12
sen d</w> 12
sen s 12
sen der</w> 12
ten s</w> 12
kl ein 12
Ar k 12
Ar ena</w> 12
Sp r 12
comp uters</w> 12
fi re 12
inter ess 12
fin ish</w> 12
weit e</w> 12
weit gehend</w> 12
sel ten</w> 12
stell ten</w> 12
Ro bin 12
pp e</w> 12
lie ber</w> 12
rä ger</w> 12
ev ol 12
Ge füh 12
ali ve</w> 12
mit ten</w> 12
tt i</w> 12
vor gestellt</w> 12
fe atures</w> 12
Ber at 12
Ein en</w> 12
Ein führung</w> 12
Ein fluss</w> 12
tro tzdem</w> 12
pos sibly</w> 12
br inging</w> 12
Vor gän 12
Vor bereit 12
fol low</w> 12
exp an 12
exp and</w> 12
exp ects</w> 12
Di ana</w> 12
sc oring</w> 12
Kon trolle</w> 12
Mit t</w> 12
tur ns</w> 12
id ent 12
her aus 12
her vor</w> 12
ass ault</w> 12
Proz ent 12
Inter ior</w> 12
ici al</w> 12
Mo del 12
geb ü 12
gew ach 12
über ras 12
form ed</w> 12
bu ch</w> 12
dr ängt</w> 12
Co .</w> 12
att form</w> 12
ern - 12
tel eph 12
Amer ika</w> 12
cre w</w> 12
Qu ote</w> 12
star ke</w> 12
kti ve</w> 12
ris on</w> 12
üs se</w> 12
ück en</w> 12
Nach fol 12
2, 3 12
Le e</w> 12
Bo ch 12
ack er</w> 12
Milli ar 12
fri ed 12
Auf gabe</w> 12
poli s</w> 12
U. S 12
sur ve 12
sur vey</w> 12
sich erte</w> 12
20 11</w> 12
beg ann</w> 12
beg leit 12
end a</w> 12
fra gte</w> 12
müs ste</w> 12
air craft</w> 12
hand ed</w> 12
wel le</w> 12
if y</w> 12
up - 12
tem per 12
Yor ker</w> 12
Her r</w> 12
hin aus</w> 12
Se attle</w> 12
dec lar 12
bar rel</w> 12
Fra ktion</w> 12
wal king</w> 12
repor ting</w> 12
län dern</w> 12
län dischen</w> 12
sat is 12
sat ell 12
Or d 12
reg arding</w> 12
reich end</w> 12
spe zial 12
dis missed</w> 12
Wor ten</w> 12
prof essor</w> 12
Minist eri 12
Wh y</w> 12
So ur 12
Bet ro 12
5, 7 12
car bon</w> 12
call ing</w> 12
ve to</w> 12
10 ,000</w> 12
Ph il</w> 12
Fo undation</w> 12
pen alty</w> 12
urs es</w> 12
Aut oren</w> 12
Son nen 12
18 - 12
incre asing</w> 12
arbeit er</w> 12
app en</w> 12
wär en</w> 12
vol le</w> 12
Mark et 12
Pri ze</w> 12
Car di 12
Stre it 12
bor ro 12
Go tt 12
Go v.</w> 12
progra mme</w> 12
appe al</w> 12
appe arance</w> 12
Fu ß</w> 12
gener ation</w> 12
Wer be 12
schn itt</w> 12
nor m 12
sum mit</w> 12
größ eren</w> 12
hö hung</w> 12
Lo ans</w> 12
Ad minist 12
Bec ause</w> 12
zeu ge</w> 12
writ e</w> 12
get an</w> 12
dem nach</w> 12
respon sibility</w> 12
Indi an</w> 12
Im merhin</w> 12
Christ op 12
test im 12
vir us</w> 12
contro versi 12
Des ign</w> 12
kun fts 12
Democ rat</w> 12
ban king</w> 12
disc ussion</w> 12
anti cip 12
weiter er</w> 12
mitt lerweile</w> 12
Hu ber</w> 12
inst it 12
Fern sehen</w> 12
yn am 12
boo st</w> 12
Famili en</w> 12
FT D</w> 12
spo t 12
zäh len</w> 12
Schl uss</w> 12
Sicher heit 12
wich tige</w> 12
row ing</w> 12
cr atic</w> 12
spar tei</w> 12
28 . 12
Spre ch 12
On ce</w> 12
Tur kish</w> 12
Jah re 12
Produ ktion 12
Cali f</w> 12
bal ance</w> 12
big ger</w> 12
assi stance</w> 12
assi stant</w> 12
invol vement</w> 12
dou bt</w> 12
Dec .</w> 12
susp ects</w> 12
put ting</w> 12
Ter ry</w> 12
stor ies</w> 12
gar anti 12
four - 12
Cha vez</w> 12
Mer ce 12
fig ure</w> 12
schlä gt</w> 12
sex ual</w> 12
let ters</w> 12
Sonn tag 12
National spieler</w> 12
National mannschaft</w> 12
Air lines</w> 12
pay ing</w> 12
zeit ung</w> 12
McC ann</w> 12
Haupt stadt</w> 12
distri bu 12
Inform ation</w> 12
cho sen</w> 12
enter ed</w> 12
typ ically</w> 12
wo unded</w> 12
prin t</w> 12
prin cip 12
loc ation</w> 12
Innen minister</w> 12
eas ily</w> 12
nie dri 12
kenn t</w> 12
Kir che</w> 12
ministeri ums</w> 12
Bas ra</w> 12
opport un 12
squ ad</w> 12
tick et</w> 12
dep lo 12
radi k 12
mortg ages</w> 12
Stim mung</w> 12
Jer sey</w> 12
relati v</w> 12
Partei chef</w> 12
identi fy</w> 12
cli ents</w> 12
100 ,000</w> 12
kra ft 12
Fel ix</w> 12
alli ance</w> 12
Wissen schaft</w> 12
Mob ile</w> 12
entwick eln</w> 12
caus ing</w> 12
our selves</w> 12
außer halb</w> 12
Beck stein</w> 12
Cap ital</w> 12
Lou is</w> 12
Wat ch</w> 12
streng th</w> 12
Kolle ge</w> 12
reduc tion</w> 12
vertei diger</w> 12
akti v</w> 12
lear n</w> 12
Industri e</w> 12
pic tures</w> 12
Det ails</w> 12
Det roit</w> 12
Dop ing- 12
Hy pothe 12
Bis her</w> 12
zü ge</w> 12
alleg ations</w> 12
Organis ation</w> 12
FD P</w> 12
Fäl len</w> 12
Kab ul</w> 12
bewe gt</w> 12
scre en</w> 12
Musli ms</w> 12
certain ly</w> 12
gain s</w> 12
prü fen</w> 12
Ni veau</w> 12
studi o</w> 12
electri c</w> 12
quarter back</w> 12
Hum an</w> 12
äm lich</w> 12
scienti fic</w> 12
Schwei z</w> 12
Jose ph</w> 12
Beteilig ung</w> 12
bestä tigt</w> 12
Der zeit</w> 12
höch sten</w> 12
power ful</w> 12
Gold man</w> 12
Mul ti 12
schwar ze</w> 12
Verd äch 12
McLar en- 12
touch down</w> 12
senten ced</w> 12
Direc tor</w> 12
engine ering</w> 12
Ele k 12
angeb lich</w> 12
uni que</w> 12
europä ischen</w> 12
prosecut ors</w> 12
Rol and</w> 12
mär kten</w> 12
drück lich</w> 12
Indones ia</w> 12
Chr ys 12
promin ent</w> 12
Beit ra 12
belast et</w> 12
Kranken haus</w> 12
introduc ed</w> 12
Gabri el</w> 12
acci dent</w> 12
convic tion</w> 12
Prem ier</w> 12
bisher igen</w> 12
communic ations</w> 12
Poliz isten</w> 12
How ard</w> 12
gewor fen</w> 12
Komment ar</w> 12
anges ichts</w> 12
near by</w> 12
intern al</w> 12
interessi ert</w> 12
Mindestloh n</w> 12
Klim asch 12
Iris h</w> 12
guil ty</w> 12
behör de</w> 12
Illu stration</w> 12
Bundestra iner</w> 12
het or 12
Mäd chen</w> 12
perman ent</w> 12
carr ying</w> 12
Kac zyn 12
Veg as</w> 12
gehö ri 12
index .cfm</w> 12
Braz il</w> 12
Illin ois</w> 12
Kenne dy</w> 12
easi er</w> 12
Nok ia</w> 12
Merce des</w> 12
R a 11
R ä 11
R on</w> 11
R ie 11
R ow 11
R und 11
R enten 11
e genheit</w> 11
t ons</w> 11
t ely</w> 11
t ells</w> 11
i z</w> 11
i ri 11
i fic</w> 11
r t</w> 11
P u 11
P el 11
P ent 11
P ep 11
- H 11
- bearing</w> 11
f ect</w> 11
f low</w> 11
f liegen</w> 11
n ungs 11
n ations</w> 11
n ames</w> 11
n ämlich</w> 11
m ir 11
m ig 11
m and 11
m ist 11
m einer</w> 11
m einem</w> 11
m ile</w> 11
m asch 11
d ates</w> 11
d ank</w> 11
a f</w> 11
a gen</w> 11
a .m.</w> 11
g ay</w> 11
g ran 11
g oods</w> 11
h ang 11
h ire</w> 11
s y</w> 11
s th 11
s si 11
s son</w> 11
s ley</w> 11
w u 11
w ig 11
w ise</w> 11
p ick</w> 11
p ath</w> 11
1 3- 11
3 0- 11
2 1, 11
2 9, 11
N R 11
N a 11
N ation</w> 11
N AS 11
S c 11
S ig 11
S id 11
S ign 11
o ted</w> 11
o red</w> 11
C . 11
C ir 11
C la 11
C amer 11
U p</w> 11
U E 11
D s</w> 11
D A 11
D an</w> 11
D ut 11
D all 11
D DR</w> 11
D inge</w> 11
M ir 11
M ali 11
M ail 11
M TV</w> 11
G A</w> 11
G or 11
G est 11
G ran 11
G ames</w> 11
G OP</w> 11
b ell</w> 11
b id 11
b y- 11
y o</w> 11
8 4</w> 11
8 9</w> 11
8 5 11
L im 11
L ater</w> 11
L ang 11
v able</w> 11
7 .</w> 11
0 2. 11
k ä 11
k am 11
k nee</w> 11
O x 11
O reg 11
A g 11
A ktion</w> 11
x on</w> 11
x ing</w> 11
T M</w> 11
T sch 11
T em 11
T rupp 11
T ER 11
T onnen</w> 11
6 .</w> 11
F I 11
F ast</w> 11
F our</w> 11
H .</w> 11
H us 11
H ut 11
j i</w> 11
j ected</w> 11
B - 11
B an</w> 11
B ad 11
J ung</w> 11
J im 11
J ung 11
E p 11
E D</w> 11
E T</w> 11
E he 11
E qu 11
K lei 11
K äufer</w> 11
9 - 11
9 5 11
I R 11
I re 11
Y ear</w> 11
W oo 11
W inter 11
V an</w> 11
V öl 11
V ON</w> 11
Ä l 11
in en 11
in et</w> 11
in ho</w> 11
th an 11
an o</w> 11
an on 11
an ne</w> 11
ch ain</w> 11
en em 11
en heit</w> 11
un ch</w> 11
un es</w> 11
un gewöhn 11
st el 11
st ür 11
st ör 11
st ress</w> 11
re si 11
re au</w> 11
re marks</w> 11
ar a</w> 11
ar tig</w> 11
ar gue</w> 11
it a</w> 11
at z 11
di an</w> 11
di vis 11
di mir</w> 11
el - 11
el ten</w> 11
ro chen</w> 11
li fe 11
au ff 11
es h</w> 11
es sel</w> 11
si des</w> 11
ei en</w> 11
ein st</w> 11
ein deu 11
ol f</w> 11
ti k</w> 11
ti more</w> 11
ti gh 11
be ste</w> 11
be tre 11
be wegen</w> 11
be obach 11
sch u 11
ge tragen</w> 11
ge fragt</w> 11
ri min 11
ri val</w> 11
ou ldn</w> 11
ver w 11
ver stehen</w> 11
ver ring 11
ver handeln</w> 11
se vent 11
se ats</w> 11
le g</w> 11
ab gel 11
ati cally</w> 11
ic op 11
ter te</w> 11
ac com 11
ag ents</w> 11
ag enda</w> 11
ie ten</w> 11
lo sen</w> 11
te ure</w> 11
te xt</w> 11
sp ann 11
sp anischen</w> 11
ut s</w> 11
ut achten</w> 11
we ist</w> 11
00 0- 11
pro ve</w> 11
con v 11
con dem 11
co de</w> 11
ber to</w> 11
ber icht</w> 11
An g 11
An nu 11
An dy</w> 11
sh ore</w> 11
ex ile</w> 11
ex actly</w> 11
pl ays</w> 11
ck et</w> 11
Sch wer 11
Ver ein</w> 11
Ver län 11
Ver trieb 11
Ver fassungs 11
Ver mögen</w> 11
pre par 11
ow s</w> 11
mo del 11
ran ked</w> 11
gi ves</w> 11
Re al 11
Re por 11
ci an</w> 11
oll ah</w> 11
la dimir</w> 11
ho st 11
ho ff</w> 11
ho ffe</w> 11
ho fft</w> 11
ed y</w> 11
ed om</w> 11
eb all</w> 11
eb ook</w> 11
Ch am 11
Pro v 11
Pro test 11
Pro gno 11
ay ing</w> 11
pe kt</w> 11
ung spro 11
ier ungs 11
tr y 11
tr ust</w> 11
zu ver 11
zu gs 11
aus forder 11
aus schuss</w> 11
De puty</w> 11
go ver 11
Th er 11
ser ie</w> 11
ser ves</w> 11
ep er</w> 11
ger en</w> 11
ger ich 11
ger ät</w> 11
do w</w> 11
do zen</w> 11
sen de</w> 11
Er satz 11
ten sions</w> 11
Be z 11
Be grün 11
Be griff</w> 11
Ne ue</w> 11
Ar gent 11
Ar zt</w> 11
gel ungen</w> 11
gel eg 11
gel assen</w> 11
fi l</w> 11
fi ve- 11
inter pre 11
lei sten</w> 11
fin dings</w> 11
fir st- 11
ev alu 11
Ge gent 11
Ge walt</w> 11
wen den</w> 11
vor stand</w> 11
vor erst</w> 11
lin ing</w> 11
da vor</w> 11
vo y</w> 11
fe eling</w> 11
Ein rich 11
Ein schätz 11
tro uble</w> 11
Vor stand</w> 11
Vor jahr</w> 11
wei gh 11
exp anding</w> 11
men ten</w> 11
ob viously</w> 11
Aus land</w> 11
Kon sequ 11
ess ern</w> 11
her self</w> 11
neh m 11
Deutsch lands</w> 11
Mar ia</w> 11
Zu letzt</w> 11
Inter nation 11
Inter essen</w> 11
des per 11
gew ann</w> 11
form ation</w> 11
tu rel 11
bu ying</w> 11
dr hein- 11
ph ones</w> 11
Me yer</w> 11
tel s</w> 11
low s</w> 11
minist ers</w> 11
1, 7 11
1, 9 11
Con tin 11
iz e</w> 11
kon serv 11
steh ende</w> 11
2, 0 11
Le verk 11
For sch 11
For mel</w> 11
dar in</w> 11
dar aufhin</w> 11
cur ren 11
Unter dessen</w> 11
rich tigen</w> 11
3, 9 11
3, 000</w> 11
Auf tak 11
Auf gaben</w> 11
vis ited</w> 11
sur prise</w> 11
IN G</w> 11
gre es</w> 11
leg s</w> 11
win ds</w> 11
Ko st 11
enn ung</w> 11
mach ten</w> 11
end ung</w> 11
end gül 11
fra gten</w> 11
lau gh 11
ef ul 11
invest or</w> 11
Ger hard</w> 11
Gr and</w> 11
hol ds</w> 11
Ste ph 11
Ste ven</w> 11
bes itz 11
Her z</w> 11
Her ausforder 11
hin zu</w> 11
bre chen</w> 11
bre ast</w> 11
Se e</w> 11
Men ge</w> 11
produc ers</w> 11
Ma il</w> 11
Gesch äfte</w> 11
rel ess</w> 11
sto cks</w> 11
mor al</w> 11
under stood</w> 11
ben e</w> 11
ben en</w> 11
offici ally</w> 11
eri en</w> 11
dis covered</w> 11
Wor te</w> 11
Wh o</w> 11
So cial</w> 11
dig keit</w> 11
car ds</w> 11
dri vers</w> 11
bro ther</w> 11
4, 8 11
Fo x</w> 11
Ham ilton</w> 11
Gro ßen</w> 11
stre t 11
dro hen</w> 11
ivers ary</w> 11
ath le 11
erk ennen</w> 11
Kar ls 11
app ed</w> 11
app lications</w> 11
Ser ie</w> 11
conc entr 11
sor gen</w> 11
sor gt</w> 11
Res our 11
Yo ung</w> 11
land mark</w> 11
progra mm 11
sub ject</w> 11
stu died</w> 11
Sa id</w> 11
Kom promis 11
Wer bung</w> 11
dra wn</w> 11
dru ckt</w> 11
dic ated</w> 11
Akti on 11
Lo g 11
sha red</w> 11
ple aded</w> 11
besch äf 11
14 .</w> 11
Br yant</w> 11
Gener ation</w> 11
Coun try</w> 11
Rück kehr</w> 11
verb essern</w> 11
Indi ans</w> 11
fun ding</w> 11
stei gt</w> 11
offen se</w> 11
recei ving</w> 11
hom er</w> 11
hom ers</w> 11
7, 6 11
jed enfalls</w> 11
test ens</w> 11
verk auf 11
hän gt</w> 11
nation wide</w> 11
24 6, 11
fün f 11
mid dle</w> 11
tom orrow</w> 11
nen nen</w> 11
comple ted</w> 11
Flu cht</w> 11
Vol ker</w> 11
Mil an</w> 11
fest ival</w> 11
auth ority</w> 11
zo g</w> 11
Kur z 11
exc iting</w> 11
öffent liche</w> 11
Ri o</w> 11
tru e</w> 11
tru ly</w> 11
tru cks</w> 11
Medi a</w> 11
law suit</w> 11
Bay er</w> 11
Tor re</w> 11
rema ined</w> 11
Schul d</w> 11
Gre at</w> 11
Bri an</w> 11
Bri ef</w> 11
Ener gi 11
requ ire 11
investig ating</w> 11
plan es</w> 11
tar ge 11
tar gets</w> 11
Lin ie</w> 11
Pl an</w> 11
Fil m 11
ständi ge</w> 11
berich ten</w> 11
berich teten</w> 11
adi an</w> 11
ther e 11
spra che</w> 11
28 .</w> 11
Kr itiker</w> 11
crit icism</w> 11
fail ing</w> 11
Mittw och 11
allow ing</w> 11
schließ end</w> 11
sicher heit</w> 11
Bör sen</w> 11
susp ici 11
tä glich</w> 11
Ter min</w> 11
Bel gi 11
Gol f</w> 11
Ale x</w> 11
sit z</w> 11
cat ch</w> 11
Entschei dungen</w> 11
zeich nete</w> 11
Priv ate</w> 11
feh l</w> 11
Tro tzdem</w> 11
sug gest</w> 11
Can adian</w> 11
fran ch 11
cho ice</w> 11
Andre as</w> 11
typ e</w> 11
clos ing</w> 11
Bal timore</w> 11
compet itive</w> 11
Dan ach</w> 11
stär ker</w> 11
Lie be</w> 11
Kul tur 11
Kap ital 11
verl or</w> 11
Bild ungs 11
nie mand</w> 11
art ist</w> 11
füh len</w> 11
Span ish</w> 11
Span ien</w> 11
organis ation</w> 11
bir th</w> 11
terror ism</w> 11
extre me</w> 11
previ ously</w> 11
explo sion</w> 11
Pan orama</w> 11
Zentr um</w> 11
dist inc 11
basi c</w> 11
Tit el 11
reti red</w> 11
clo sely</w> 11
Dre i</w> 11
Part ner</w> 11
Secur ities</w> 11
employe e</w> 11
shor tly</w> 11
Verk auf</w> 11
Verk auf 11
deli ver</w> 11
äuß ern</w> 11
cli ent</w> 11
wahr scheinlich</w> 11
anwal t</w> 11
alli es</w> 11
immig rants</w> 11
cau ght</w> 11
zahl reiche</w> 11
Energ ie</w> 11
Mär kte</w> 11
multi ple</w> 11
Gewerk schaften</w> 11
disap pe 11
far m</w> 11
domin ated</w> 11
pic ture</w> 11
Eig en 11
champ ion</w> 11
spr ün 11
consu mption</w> 11
non profit</w> 11
30 .</w> 11
professi on 11
Sat z</w> 11
Sou thern</w> 11
Blu e</w> 11
Eri c</w> 11
Schau spiel 11
zuneh men</w> 11
cut ting</w> 11
Drit tel</w> 11
gek auft</w> 11
Verbrau cher 11
Rud y</w> 11
Kön ig 11
Weit er 11
reit er</w> 11
const itu 11
Reser ve</w> 11
Syri a</w> 11
Liter atur 11
Liter atur</w> 11
mein t</w> 11
May or</w> 11
Mehr heit</w> 11
McLar en</w> 11
französ ische</w> 11
för dern</w> 11
Fac ebook</w> 11
akzep tiert</w> 11
expl ain</w> 11
my self</w> 11
Sech s</w> 11
geplan te</w> 11
geplan ten</w> 11
promp ted</w> 11
physi cal</w> 11
challeng es</w> 11
fic ation</w> 11
blu e</w> 11
kri eg 11
passi ert</w> 11
Immobili en 11
Good will</w> 11
reas ons</w> 11
altern ative</w> 11
extrem ely</w> 11
photograph s</w> 11
Verteidigungs minister</w> 11
Qualifik ation</w> 11
erlau bt</w> 11
compar able</w> 11
Konjunk tur</w> 11
pack age</w> 11
Bow l</w> 11
afghan ischen</w> 11
Produc ts</w> 11
event ually</w> 11
equi val 11
Koalition s 11
fat al</w> 11
Glob al</w> 11
offiz iell</w> 11
Abgeord nete</w> 11
Interne t- 11
Nachrichten agentur</w> 11
Stoi ber</w> 11
Kandid aten</w> 11
Moham med</w> 11
Rah men</w> 11
Zei chen</w> 11
österreich ischen</w> 11
resp ect</w> 11
entde ckt</w> 11
Verhand lungen</w> 11
Bevöl kerung</w> 11
share holders</w> 11
Materi al</w> 11
Gebäu de</w> 11
retire ment</w> 11
Blat t</w> 11
enfor cement</w> 11
alco hol</w> 11
comfort able</w> 11
Sunn i</w> 11
Nürn berg</w> 11
dd p</w> 11
Clar k</w> 11
DFB - 11
Gul f</w> 11
bark eit</w> 11
Elec tri 11
rebo unds</w> 11
timat ely</w> 11
Vorjah res 11
Dah er</w> 11
Teher an</w> 11
atmosp here</w> 11
Erwar tungen</w> 11
Enga gement</w> 11
teleph one</w> 11
Nachfol ger</w> 11
declar ation</w> 11
controversi al</w> 11
Sprech erin</w> 11
Chrys ler</w> 11
Ire land</w> 11
sevent h</w> 11
Verlän gerung</w> 11
Leverk us 11
Karls ru 11
R ic 10
R af 10
R oo 10
R ain 10
R hein 10
R ütt 10
e at</w> 10
e ating</w> 10
t ö 10
t ol 10
t ischen</w> 10
t ant</w> 10
t reibt</w> 10
i des</w> 10
r are</w> 10
r ative</w> 10
r ush 10
r hetor 10
P C</w> 10
P O</w> 10
P it 10
P at 10
P ic 10
P av 10
P uer 10
P lätze</w> 10
c en</w> 10
c us</w> 10
c e- 10
c iety</w> 10
l or</w> 10
l uss</w> 10
l abor 10
f an</w> 10
f are</w> 10
f tung</w> 10
f led</w> 10
f unk 10
n de</w> 10
n av 10
n ature</w> 10
m i</w> 10
m lich</w> 10
m ack</w> 10
d y 10
d um 10
d am</w> 10
d ite</w> 10
a ß</w> 10
a stron 10
g ä 10
g lo 10
g ungs 10
h är 10
h äre</w> 10
h ielten</w> 10
s mit 10
s essions</w> 10
w ahlen</w> 10
p au 10
p ir 10
p ac 10
p .m.</w> 10
3 000</w> 10
3 0, 10
2 7. 10
2 1.</w> 10
N ei 10
N ame</w> 10
S AP</w> 10
o es</w> 10
o the 10
o ssen</w> 10
C - 10
C A 10
C ru 10
C ho 10
D r 10
D at 10
D au 10
D rei 10
D enn 10
D oc 10
M .</w> 10
M au 10
M af 10
M illion</w> 10
M ess 10
M ens 10
M ust 10
G - 10
G arden</w> 10
G leich 10
b li 10
b as</w> 10
b ten</w> 10
b ien</w> 10
b ases</w> 10
b acks</w> 10
b ills</w> 10
b ahn</w> 10
b lieben</w> 10
8 . 10
8 1</w> 10
L L 10
L en 10
L af 10
L ob 10
L ast 10
L ind 10
v ac 10
v ements</w> 10
7 5, 10
4 3 10
k r 10
k in</w> 10
k an</w> 10
k la 10
k ische</w> 10
k ins</w> 10
k enk 10
O sc 10
O wen</w> 10
A y 10
A ung</w> 10
A dam 10
A venue</w> 10
x is</w> 10
T an 10
T ru 10
T aus 10
T rin 10
F is 10
F ur 10
F ür 10
F red</w> 10
F ree</w> 10
F ili 10
H S 10
H ein 10
H ec 10
5 2, 10
5 0- 10
j am 10
j ad</w> 10
B est</w> 10
B lan 10
B ig</w> 10
B ook</w> 10
B ron 10
B üch 10
J am 10
J ob 10
J ose</w> 10
J az 10
K auf</w> 10
K ün 10
K anz 10
K urs</w> 10
9 8</w> 10
I P</w> 10
I tal 10
Y ah 10
Y ang 10
Z E 10
Z un 10
Z im 10
Z eh 10
Z äh 10
W he 10
W ere</w> 10
W ieder 10
V alley</w> 10
ü st 10
er o 10
er ischen</w> 10
er enden</w> 10
er ei</w> 10
er wäh 10
in y</w> 10
in dem</w> 10
in ations</w> 10
in ion</w> 10
in ches</w> 10
th ri 10
th out</w> 10
th rowing</w> 10
an on</w> 10
an gen 10
an ken</w> 10
an ol</w> 10
ch em</w> 10
ch oc 10
en se</w> 10
en ess</w> 10
un ts</w> 10
un likely</w> 10
un klar</w> 10
un usual</w> 10
st in 10
st un 10
st unden</w> 10
st öß 10
st elle</w> 10
st immen</w> 10
st ressed</w> 10
re al 10
re ali 10
re ise</w> 10
re fu 10
re quest 10
re isen</w> 10
re moved</w> 10
it ure</w> 10
at ed 10
at oren</w> 10
al t 10
al ter</w> 10
al tet</w> 10
di e 10
di s</w> 10
di a 10
di et</w> 10
di eren</w> 10
el ements</w> 10
is ions</w> 10
ro l</w> 10
ro ok 10
li f 10
ur ged</w> 10
ur inho</w> 10
si a</w> 10
ei che</w> 10
ein ig</w> 10
ein halb</w> 10
ein gesetzt</w> 10
as sen 10
ol ate</w> 10
ol ine</w> 10
ti fik 10
be de 10
be ating</w> 10
be stand</w> 10
be coming</w> 10
be comes</w> 10
be darf</w> 10
be trieb 10
be grü 10
sch m 10
sch ön 10
sch lagen</w> 10
sch loss</w> 10
sch efs</w> 10
ge ziel 10
ri eren</w> 10
ou red</w> 10
de - 10
de tained</w> 10
de gree</w> 10
ra cing</w> 10
sa fe</w> 10
sa cri 10
ver wei 10
ver wal 10
ver sicher 10
ver sicherung</w> 10
ver dient</w> 10
se ven 10
se ction</w> 10
le f 10
le ts</w> 10
ab er 10
ab and 10
ab les</w> 10
ab geschlossen</w> 10
ir ing</w> 10
ter ror</w> 10
ag o 10
ag on</w> 10
ag ree</w> 10
ent um</w> 10
ent ative</w> 10
ent wurf</w> 10
wh ol 10
ie fs</w> 10
lo ad</w> 10
te sted</w> 10
no vel</w> 10
ig ten</w> 10
ig are 10
et h</w> 10
ut y</w> 10
we alth 10
00 .000</w> 10
pro of</w> 10
pro po 10
em en</w> 10
em is 10
con s 10
con tained</w> 10
St or 10
St atist 10
wer t 10
wer fen</w> 10
ber ech 10
ber eiten</w> 10
ber eich</w> 10
for th</w> 10
po wers</w> 10
An dr 10
An trag</w> 10
An na</w> 10
An griff</w> 10
ak tion</w> 10
and a</w> 10
sh ir 10
sh aring</w> 10
ex hib 10
ap art 10
In genie 10
um - 10
ist in</w> 10
pl ötzlich</w> 10
ck en 10
Sch il 10
Sch uss</w> 10
Sch lä 10
Sch atten</w> 10
per c 10
per su 10
per cent 10
Ver än 10
Ver halten</w> 10
oo - 10
pre - 10
pre vent 10
ow ski</w> 10
Un der 10
Un iversal</w> 10
vi es</w> 10
qu ote</w> 10
mo tion</w> 10
mo tor 10
ci pl 10
än e</w> 10
ges ucht</w> 10
to k 10
man age</w> 10
man aged</w> 10
man aging</w> 10
man agers</w> 10
par king</w> 10
Ch i 10
tra f</w> 10
tra ded</w> 10
aus ch</w> 10
aus gesch 10
aus gesprochen</w> 10
min or</w> 10
so fort</w> 10
so ciety</w> 10
war m</w> 10
Al tern 10
off set</w> 10
off ices</w> 10
den tial</w> 10
De te 10
bo y 10
go w</w> 10
rec ru 10
ger ungen</w> 10
ger issen</w> 10
Er klärung</w> 10
Be fore</w> 10
kl ar 10
kl ei 10
Sp ur</w> 10
Sp ann 10
Sp rin 10
Sp ring 10
res cue</w> 10
mer z 10
comp lic 10
auf grund</w> 10
19 .</w> 10
19 , 10
ann iversary</w> 10
fi x 10
inter c 10
fin de</w> 10
inc ed</w> 10
fir ma</w> 10
sol ution</w> 10
stell vertre 10
Ro b 10
Ro th</w> 10
Ro sen 10
pri or</w> 10
pri ze</w> 10
rä umen</w> 10
ali forn 10
mit teilte</w> 10
ör per 10
vor n</w> 10
lin e 10
lin ked</w> 10
da q</w> 10
fo re 10
fe ars</w> 10
fe wer</w> 10
No bel</w> 10
Ber eits</w> 10
tro p 10
coun ter 10
Vor schlag</w> 10
fer t</w> 10
sc en 10
mp ath 10
Aus gleich</w> 10
Aus sage</w> 10
Kon g</w> 10
Kon flik 10
tre e</w> 10
gu ide</w> 10
her um</w> 10
Mon tg 10
Mo urinho</w> 10
geb iet</w> 10
geb rochen</w> 10
über sch 10
mark ed</w> 10
dr ink</w> 10
gesch ätz 10
Co ur 10
Co tt 10
hel m</w> 10
Me dic 10
itz e</w> 10
itz ki</w> 10
cre te</w> 10
Qu al 10
Con tro 10
iz ing</w> 10
dre w</w> 10
mu seum</w> 10
For derungen</w> 10
gn ung</w> 10
har t</w> 10
rich ter</w> 10
sy l 10
son gs</w> 10
mat ching</w> 10
bl amed</w> 10
Ex pl 10
mar ke</w> 10
mar ried</w> 10
leg ung</w> 10
beg ins</w> 10
beg innen</w> 10
beg eist 10
ens ation</w> 10
cle an</w> 10
mach e</w> 10
fra u</w> 10
gest o 10
invest ments</w> 10
hand le</w> 10
oper ate</w> 10
oper ates</w> 10
Ger ichtsh 10
if est 10
fac ility</w> 10
Gr ass</w> 10
12 .</w> 10
letz tlich</w> 10
teil ten</w> 10
teil weise</w> 10
Her z 10
ler nen</w> 10
Se oul</w> 10
spiel e</w> 10
glei che</w> 10
bus es</w> 10
Su ch</w> 10
sam keit</w> 10
199 1</w> 10
eff e 10
del eg 10
fam ous</w> 10
We ge</w> 10
Tra dition</w> 10
Bus h 10
Da x</w> 10
reg ime</w> 10
bil d 10
dis rup 10
kur zen</w> 10
chan nel</w> 10
Bet ra 10
direc ted</w> 10
ster ben</w> 10
tal ent</w> 10
10 .</w> 10
Sh u 10
Ph ase</w> 10
Per sonen</w> 10
Fo rest</w> 10
Fo tos</w> 10
Lu ca</w> 10
arti sts</w> 10
Wir k 10
Wir kung</w> 10
dro ve</w> 10
Li ve</w> 10
Li qu 10
Li ons</w> 10
Li fe</w> 10
17 - 10
Fir e</w> 10
Europ as</w> 10
Car los</w> 10
Car din 10
sor ti 10
Stre cke</w> 10
As si 10
bri ef</w> 10
Über nahme</w> 10
diff er</w> 10
milit är 10
fel d 10
schei den</w> 10
progra mm</w> 10
sub st 10
sub prime</w> 10
Mu sic</w> 10
Mu kas 10
opp elt</w> 10
stu dies</w> 10
gener ally</w> 10
Sie g 10
Sie ger</w> 10
Sie mens</w> 10
provi der</w> 10
kill ings</w> 10
16 .</w> 10
tran sa 10
Akti v 10
14 . 10
ip ul 10
camp s</w> 10
Rück tritt</w> 10
kno wle 10
zie h 10
techn ologies</w> 10
fun cti 10
erklär en</w> 10
sm aller</w> 10
sec tor</w> 10
ussi ons</w> 10
hop ing</w> 10
recei ver</w> 10
Im mer</w> 10
Invest ig 10
Mich igan</w> 10
contro ls</w> 10
hän dler</w> 10
Kre m 10
Kre is 10
cour ts</w> 10
24 .</w> 10
schw äch 10
spä testens</w> 10
Fam ily</w> 10
Konz ern 10
ban ken</w> 10
blo cked</w> 10
chen er</w> 10
Kur z</w> 10
Ri es 10
dür ften</w> 10
Leb anon</w> 10
gegen wär 10
Geb urt 10
Wi es 10
Wi thout</w> 10
Col om 10
Tor onto</w> 10
atten d</w> 10
mehr fach</w> 10
positi ons</w> 10
jähri ger</w> 10
Char ak 10
zurück ge 10
rul ed</w> 10
gemein same</w> 10
Mi ami</w> 10
bin dung</w> 10
gesam ten</w> 10
cla im</w> 10
Erfol ge</w> 10
Iraq is</w> 10
Euro - 10
13 .</w> 10
On ly</w> 10
Bre mer</w> 10
them e</w> 10
suppor ted</w> 10
Sach s</w> 10
Gewin ne</w> 10
Führ ung 10
bew ahr 10
bew aff 10
dan ger</w> 10
commit ment</w> 10
Prof ile</w> 10
Prof essor</w> 10
Cle mens</w> 10
Lit tle</w> 10
sit ting</w> 10
ine jad</w> 10
Tri b 10
schlä gen</w> 10
Air port</w> 10
Air bus</w> 10
tion ed</w> 10
adv anced</w> 10
Rech t 10
konz ent 10
Wil d 10
tow ards</w> 10
Stuttg arter</w> 10
Män nern</w> 10
Olymp ischen</w> 10
indic ation</w> 10
indic ated</w> 10
Mal ay 10
Mei ster 10
unser en</w> 10
sig keit</w> 10
füh lt</w> 10
Terror isten</w> 10
jud gment</w> 10
just ice</w> 10
ilo sop 10
Champ ion 10
steu ern</w> 10
estim ate</w> 10
Islam abad</w> 10
Rau m 10
fal sche</w> 10
Dre w</w> 10
Del ta</w> 10
Haf t</w> 10
Haf en</w> 10
moder ate</w> 10
lang sam</w> 10
Sozial demok 10
particul ar</w> 10
pain t</w> 10
pain ful</w> 10
krit isierte</w> 10
supp lies</w> 10
100 .000</w> 10
Zw ang 10
Zw ischen 10
Stand ard</w> 10
soldi er</w> 10
fass ung</w> 10
jun ta</w> 10
initi ally</w> 10
attemp ted</w> 10
promis ed</w> 10
Stein br 10
victi m</w> 10
Konkurren ten</w> 10
cru cial</w> 10
clim bing</w> 10
Blo om 10
noti ce</w> 10
head ed</w> 10
Quar tal 10
Wach stum</w> 10
attra ct</w> 10
leb ens 10
immedi ate</w> 10
Beru fung</w> 10
Zusch auern</w> 10
reduc ed</w> 10
main tain</w> 10
heim ischen</w> 10
Kri min 10
Shar if</w> 10
Kor re 10
fül len</w> 10
fül lt</w> 10
Brand en 10
crow d</w> 10
nomin ation</w> 10
Kab in 10
may be</w> 10
prü ft</w> 10
leh nte</w> 10
promo te</w> 10
Mitgli ed</w> 10
herr scht</w> 10
Europä ischen</w> 10
electri city</w> 10
indepen dence</w> 10
long- term</w> 10
mas sive</w> 10
Tat sache</w> 10
stimm ung</w> 10
Schwei zer</w> 10
Verbrau cher</w> 10
staat liche</w> 10
Jugend lichen</w> 10
möglich erweise</w> 10
Ris iko</w> 10
regel mäßig</w> 10
refer ring</w> 10
ähn lich</w> 10
Reser ved</w> 10
Wohn ungs 10
Em ir 10
insi sted</w> 10
gere cht</w> 10
effec tively</w> 10
PRNews wire</w> 10
Febru ary</w> 10
won der</w> 10
stol z</w> 10
alo gue</w> 10
französ ischen</w> 10
.A . 10
Sof tware</w> 10
verschie dene</w> 10
persön lich</w> 10
deliver ed</w> 10
Sing ap 10
Cam bridge</w> 10
Oper ating</w> 10
agu e- 10
emo tional</w> 10
Spec ial</w> 10
regist ered</w> 10
strugg ling</w> 10
Parlament sw 10
keit s 10
Tenn es 10
neg ative</w> 10
combin ation</w> 10
gradu ate</w> 10
effici ency</w> 10
lab or</w> 10
Mein ung</w> 10
Ih nen</w> 10
expres sed</w> 10
explain ed</w> 10
rasch end</w> 10
Pac ific</w> 10
grupp e</w> 10
sü d 10
HI V</w> 10
BM W</w> 10
Wech sel</w> 10
repe ated 10
Städ ten</w> 10
Commun ic 10
consist ent</w> 10
collap se</w> 10
drit te</w> 10
wün schen</w> 10
erinn ert</w> 10
stoff e</w> 10
profiti eren</w> 10
Juli a</w> 10
Urlau b</w> 10
clin ical</w> 10
argu ed</w> 10
rout ine</w> 10
afri kan 10
Verantwor tung</w> 10
neighbor hood</w> 10
Arbeitslosen geld</w> 10
sfra ktion</w> 10
Dil uted</w> 10
Hitz feld</w> 10
Jud ge</w> 10
disk u 10
verpflich tet</w> 10
genü gend</w> 10
Erst mals</w> 10
acknowle dged</w> 10
Äu ßer 10
erheb lich</w> 10
thro wn</w> 10
dead ly</w> 10
perfe kt</w> 10
public ly</w> 10
Georgi a</w> 10
Treas ury</w> 10
UA E</w> 10
Agen da</w> 10
Eg yp 10
choo se</w> 10
Anhän ger</w> 10
geru fen</w> 10
Erfahr ung</w> 10
Enter tainment</w> 10
firefigh ters</w> 10
komple tt</w> 10
Ahmad inejad</w> 10
volunte ers</w> 10
Foo t 10
uncertain ties</w> 10
republi k</w> 10
Schick sal</w> 10
Schrö der</w> 10
Alter s 10
foli o</w> 10
Quad rat 10
Koso vo</w> 10
Leip zig</w> 10
Offic er</w> 10
Colum bia</w> 10
circum stances</w> 10
Brüs sel</w> 10
has n</w> 10
Nas daq</w> 10
wed ding</w> 10
prehen sive</w> 10
Chall enge</w> 10
Robin son</w> 10
borro wers</w> 10
Administ ration</w> 10
testim ony</w> 10
opportun ities</w> 10
sth af 10
Camer on</w> 10
Dall as</w> 10
Oreg on</w> 10
conv inced</w> 10
Annu al</w> 10
Begrün dung</w> 10
Denn is</w> 10
Ital y</w> 10
rook ie</w> 10
propo sal</w> 10
apart ment</w> 10
percent age</w> 10
Montg om 10
Mukas ey</w> 10
repeated ly</w> 10
R B 9
R E 9
R ou 9
R ab 9
R ap 9
R est</w> 9
R aum</w> 9
t tem 9
t oren</w> 9
i ding</w> 9
i us</w> 9
i ens</w> 9
i ana</w> 9
i fied</w> 9
r ally</w> 9
P D</w> 9
P ir 9
P ie 9
P ass 9
c up</w> 9
c tors</w> 9
l a</w> 9
l on</w> 9
l ou 9
l ass</w> 9
- Jährige</w> 9
f la 9
f ying</w> 9
f unden</w> 9
f lat 9
f alen</w> 9
f lag</w> 9
n ice</w> 9
m o</w> 9
m än 9
m ale</w> 9
m esse</w> 9
m assi 9
d ney</w> 9
d auer</w> 9
d uty</w> 9
a z</w> 9
a ders</w> 9
g ei 9
g ate</w> 9
h a</w> 9
h l</w> 9
h unt</w> 9
h üter</w> 9
s z 9
s u</w> 9
s or</w> 9
s ell 9
s low 9
s giving</w> 9
w ä 9
w al</w> 9
w us 9
w under 9
w alls</w> 9
w ouldn</w> 9
p p</w> 9
p ed 9
p ause</w> 9
p ain</w> 9
p ink</w> 9
1 000</w> 9
1 1- 9
3 50</w> 9
2 9. 9
N O 9
N Y 9
N ext</w> 9
S em 9
S ex 9
S por 9
S hei 9
S oc 9
S even</w> 9
S ales</w> 9
S zene</w> 9
o v</w> 9
o urs</w> 9
u si 9
u ern</w> 9
u tion 9
C S</w> 9
C er 9
C ore</w> 9
C av 9
C ross</w> 9
U ta 9
U kra 9
D S 9
D I 9
D ou 9
D ig 9
D omin 9
D adurch</w> 9
D üssel 9
D .C.</w> 9
D irk</w> 9
M ie 9
M em 9
M ary</w> 9
G ang</w> 9
b te</w> 9
b ay</w> 9
b ad 9
b elt</w> 9
b last</w> 9
b att 9
b loo 9
b lick</w> 9
8 2</w> 9
L B</w> 9
L or 9
L is 9
L iver 9
L ager</w> 9
L ES</w> 9
L ady</w> 9
v als</w> 9
v ital</w> 9
7 50</w> 9
7 ,000</w> 9
4 0- 9
0 6</w> 9
k rie 9
k assi 9
O r</w> 9
O ra 9
O ver 9
O ut</w> 9
O tt 9
O liver</w> 9
A A 9
A z 9
A ma 9
A wards</w> 9
A ID 9
A mong</w> 9
T O</w> 9
T S</w> 9
T V 9
T ow 9
T isch</w> 9
T iere</w> 9
T raum</w> 9
6 5 9
F i 9
F en 9
F it 9
F ein 9
F as 9
F und</w> 9
F rit 9
F lä 9
H op 9
H oo 9
H ong</w> 9
H isp 9
5 4 9
5 000</w> 9
B at 9
B ar</w> 9
B au</w> 9
B ord</w> 9
z on</w> 9
z ent</w> 9
z ig 9
z ut 9
z iti 9
J a 9
J e</w> 9
J esse</w> 9
E E 9
E mer 9
K .</w> 9
K le 9
K ing 9
K rit 9
K und 9
K och</w> 9
K aff 9
I stan 9
I II</w> 9
Y .</w> 9
Z o 9
Z in 9
Z one</w> 9
Z DF</w> 9
W es 9
W ich 9
W under</w> 9
W oods</w> 9
W ayne</w> 9
V ati 9
ü m 9
ü mer</w> 9
ü ben</w> 9
ä her</w> 9
ö sen</w> 9
Ä hn 9
er ter</w> 9
er ungs 9
er ous</w> 9
er ober 9
er seits</w> 9
in des</w> 9
in ne</w> 9
in ner</w> 9
in burgh</w> 9
th es</w> 9
th ur</w> 9
an fangen</w> 9
ch ri 9
ch mal</w> 9
ch mark</w> 9
en kt</w> 9
en tial</w> 9
en rol 9
en ix</w> 9
un its</w> 9
un able</w> 9
un bedingt</w> 9
st y 9
st abil 9
re t 9
re vol 9
re sign 9
re sidential</w> 9
re tten</w> 9
re venues</w> 9
re jected</w> 9
ar i 9
ar ch</w> 9
it ate</w> 9
it orial</w> 9
or - 9
or gt</w> 9
or ben</w> 9
at tribut 9
di a</w> 9
di ra 9
el f</w> 9
is si 9
is ation</w> 9
li min 9
li eren</w> 9
au str 9
il ding</w> 9
ur a</w> 9
ur sprün 9
si v</w> 9
si ster</w> 9
ti v</w> 9
om en 9
om an</w> 9
be vor</w> 9
be mü 9
sch te</w> 9
sch eit 9
sch ale</w> 9
ge dly</w> 9
ri e</w> 9
ri ding</w> 9
ou t- 9
de pen 9
de tention</w> 9
sa h</w> 9
ver mis 9
ver stär 9
ver hält 9
ver dienen</w> 9
le ads</w> 9
ab e</w> 9
ab ili 9
ab ama</w> 9
am az 9
ati k</w> 9
ic it</w> 9
ic kt</w> 9
ter ing</w> 9
ter rit 9
ac t 9
ne ut 9
ent - 9
ent ist</w> 9
ent gegen</w> 9
ich ts 9
lo ver</w> 9
lo ck</w> 9
lo bt</w> 9
lo cken</w> 9
te ch</w> 9
te es</w> 9
te ach 9
te ur</w> 9
ha fte</w> 9
sp an</w> 9
sp ark 9
sp rü 9
sp iegel 9
pro be</w> 9
pro vision</w> 9
pro gno 9
con cili 9
St ars</w> 9
St amm 9
wer ing</w> 9
wer tung</w> 9
com bat</w> 9
com missioner</w> 9
su mer</w> 9
su bur 9
su menten</w> 9
im mel</w> 9
ad en 9
ad ap 9
co inci 9
co ordin 9
ber aten</w> 9
ber lin</w> 9
po ver 9
ah nen</w> 9
An schlag</w> 9
iti gen</w> 9
and t</w> 9
gen der</w> 9
gen annt</w> 9
sh ops</w> 9
sh oul 9
In tel 9
In zwischen</w> 9
he ben</w> 9
he ading</w> 9
pl ast 9
pl enty</w> 9
Sch m 9
Sch ne 9
Sch ätz 9
Sch aden</w> 9
ru h 9
all on</w> 9
pre gn 9
pre isen</w> 9
qu oted</w> 9
gi ant</w> 9
Re port</w> 9
Re pres 9
Re gel</w> 9
por tion</w> 9
Au st 9
Au ff 9
ges ich 9
ges etz</w> 9
la bel</w> 9
par tei 9
ed - 9
Ch an 9
Ch urch</w> 9
lu x 9
lu bs</w> 9
pe t</w> 9
pe ace 9
ier ter</w> 9
aus fallen</w> 9
aus reichend</w> 9
min ded</w> 9
min ority</w> 9
so - 9
so lic 9
war ming</w> 9
Al lein</w> 9
Al abama</w> 9
off - 9
iel le</w> 9
rec t</w> 9
rec all</w> 9
Th rou 9
Th ank 9
ser geb 9
ser vers</w> 9
ep ing</w> 9
ger ed</w> 9
ger ous</w> 9
do g 9
do zens</w> 9
gan gs</w> 9
Er kennt 9
ten nis</w> 9
Be ge 9
Be ach</w> 9
Be für 9
Be währ 9
En d 9
kl ass 9
kl ingt</w> 9
Ar ti 9
gro unds</w> 9
Sp ace</w> 9
19 70</w> 9
lei ster</w> 9
lei chter</w> 9
fin ally</w> 9
str o</w> 9
Ro oney</w> 9
pp en</w> 9
lie genden</w> 9
lie fern</w> 9
mon ks</w> 9
gh tly</w> 9
Ge is 9
Ge ist</w> 9
vor bei</w> 9
vor sich 9
vor stellen</w> 9
wi der</w> 9
fo unded</w> 9
fo undation</w> 9
fe els</w> 9
Ab ra 9
Ab stand</w> 9
Ab bas</w> 9
Ein er</w> 9
Ein ige</w> 9
Ein igung</w> 9
mis mus</w> 9
br illi 9
br auch</w> 9
br ings</w> 9
lan ger</w> 9
Vor wür 9
Vor gehen</w> 9
Vor schläge</w> 9
fer red</w> 9
fol gten</w> 9
men tion</w> 9
Di am 9
Di plom 9
eu ros</w> 9
Po ten 9
sc ra 9
sc rat 9
Kon trol 9
Kon ferenz</w> 9
tre at</w> 9
Mit ch 9
gu id 9
tur n 9
tur ing</w> 9
of er</w> 9
Jahr hunder 9
Jahr hundert</w> 9
her steller</w> 9
Deutsch er</w> 9
Mar ke</w> 9
Mar ine</w> 9
Mar ath 9
Zu g 9
Mo tor</w> 9
Mo unt</w> 9
inv ited</w> 9
geb oren</w> 9
0. 02</w> 9
über raschend</w> 9
ph ase</w> 9
gesch lag 9
ear n</w> 9
bur n</w> 9
ern st</w> 9
anz en</w> 9
cre ating</w> 9
Con st 9
2, 5</w> 9
mil k</w> 9
For derung</w> 9
For schung</w> 9
ack ers</w> 9
har d 9
har der</w> 9
Unter such 9
Unter schied</w> 9
rich ten</w> 9
unter wegs</w> 9
Auf lagen</w> 9
Auf schw 9
zei chnung</w> 9
fu hr</w> 9
Ho ene 9
sich t 9
sich ere</w> 9
20 .</w> 9
mar ri 9
mar ily</w> 9
gre t</w> 9
Bundes liga 9
ens ing</w> 9
end or 9
zi gen</w> 9
zi pl 9
hei ßen</w> 9
lau tet</w> 9
gest än 9
fall ing</w> 9
ner - 9
ner v 9
Nor den</w> 9
Nor bert</w> 9
Ger ä 9
Ger man 9
up date</w> 9
ga thered</w> 9
Fre ist 9
rech ten</w> 9
rech ts</w> 9
rech ts 9
hol te</w> 9
Ste fan</w> 9
play off</w> 9
Her kunft</w> 9
t- term</w> 9
Pol itik 9
dec isions</w> 9
produc er</w> 9
spiel te</w> 9
alle gedly</w> 9
ko m</w> 9
bar a</w> 9
rel s</w> 9
itä n</w> 9
199 2</w> 9
lat z</w> 9
medi zin 9
ome tern</w> 9
Man fred</w> 9
sup posed</w> 9
Da gegen</w> 9
reg ard</w> 9
bil dungs 9
dis cipl 9
prof ile</w> 9
spec ies</w> 9
Wh it 9
inf lation</w> 9
unk no 9
Bar cla 9
Bar bara</w> 9
Bet ween</w> 9
Bet reu 9
emp ha 9
5, 6 9
5, 9 9
Ju den</w> 9
ste te</w> 9
Sh or 9
Arbeit en</w> 9
Arbeit sk 9
Bil der 9
Ph ysi 9
viel mehr</w> 9
Per sön 9
Per vez</w> 9
Fo to 9
Lu ci 9
Son ne</w> 9
regi on 9
regi ons</w> 9
18 .</w> 9
Um satz 9
wa ste</w> 9
app t</w> 9
17 . 9
Mark et</w> 9
Bu reau</w> 9
Bu ilding</w> 9
Car l</w> 9
sor gte</w> 9
stän den</w> 9
Res pekt</w> 9
bor row 9
ange boten</w> 9
the w</w> 9
the astern</w> 9
cap tain</w> 9
Har v 9
dien ste</w> 9
tig es</w> 9
stu ff</w> 9
Sie ben</w> 9
enk o</w> 9
appro ached</w> 9
tain ing</w> 9
tran sport</w> 9
15 . 9
pas sen</w> 9
Lo cal</w> 9
schie ßen</w> 9
dest ro 9
ide as</w> 9
sha pe</w> 9
ple a</w> 9
ple ased</w> 9
besch ul 9
fa il</w> 9
zeu g 9
whe el 9
Spiel en</w> 9
Br and</w> 9
exper t</w> 9
ment ed</w> 9
El tern 9
retur ning</w> 9
lik es</w> 9
respon d</w> 9
respon ded</w> 9
mi x</w> 9
offen sichtlich</w> 9
Finanz ierung</w> 9
Sy dney</w> 9
Mor gen</w> 9
any way</w> 9
sitz enden</w> 9
Invest itionen</w> 9
sow ohl</w> 9
West falen</w> 9
cor ruption</w> 9
Lei ch 9
comple tely</w> 9
2- year-old</w> 9
blo g</w> 9
kre u 9
Vol k</w> 9
happ ens</w> 9
frü h</w> 9
frü hen</w> 9
Mat thi 9
Mil itä 9
ins zen 9
fest genommen</w> 9
AN D</w> 9
run - 9
Cor p</w> 9
Cor p.</w> 9
Kur dish</w> 9
exc ited</w> 9
dür fe</w> 9
gri ech 9
36 0</w> 9
mitt elt</w> 9
hi red</w> 9
law makers</w> 9
läs sig</w> 9
cust ody</w> 9
rema ining</w> 9
Neu er</w> 9
Neu es</w> 9
sing er</w> 9
Hand el 9
ele k 9
requ ires</w> 9
versch är 9
Tre ffer</w> 9
al- Qaida</w> 9
Char lo 9
mun ik 9
öh nen</w> 9
öh ne</w> 9
gemein samen</w> 9
Lon don 9
Ed inburgh</w> 9
dau erte</w> 9
Spitz enk 9
ther wise</w> 9
spar en</w> 9
Erfol gs 9
198 9</w> 9
crit ics</w> 9
fail ure</w> 9
On line</w> 9
Produ kte</w> 9
custom er</w> 9
pris oners</w> 9
Spe zial 9
La w</w> 9
ämp fer</w> 9
versu chte</w> 9
sicher lich</w> 9
Plat z 9
Ter ror</w> 9
nei ther</w> 9
vide os</w> 9
Prof i</w> 9
Prof is</w> 9
Met ro</w> 9
Nieder lan 9
Sto ck</w> 9
genann te</w> 9
mov ements</w> 9
Bun des</w> 9
scho ol 9
scho ssen</w> 9
sex tre 9
Pres se</w> 9
Fol lowing</w> 9
plat form</w> 9
ai des</w> 9
pay ment</w> 9
Kil ometern</w> 9
feh l 9
feh lt</w> 9
poten tially</w> 9
leit er</w> 9
leit ung</w> 9
für s</w> 9
abo ard</w> 9
clos er</w> 9
emer ged</w> 9
Verein igten</w> 9
mes sages</w> 9
Lie bl 9
schaff t</w> 9
Them en</w> 9
Si x</w> 9
Lar ry</w> 9
Mittel feld 9
organis iert</w> 9
Mut ter 9
weap on</w> 9
wirtschaf ts 9
squ are</w> 9
Mr s</w> 9
steu er</w> 9
All gem 9
wil d 9
schütz er</w> 9
suff ici 9
Schn itt</w> 9
eth nic</w> 9
eth anol</w> 9
Haf t 9
coll abor 9
frei lich</w> 9
drü cken</w> 9
krit isiert</w> 9
drin gend</w> 9
äuß ert</w> 9
Lok führ 9
Tel efon 9
proper ly</w> 9
Schwar z 9
29 .</w> 9
N. Y.</w> 9
Sor ge</w> 9
anim al</w> 9
conduc t</w> 9
head quarters</w> 9
maß nahmen</w> 9
interest s</w> 9
interest ed</w> 9
interest -bearing</w> 9
break s</w> 9
Leist ungen</w> 9
multi - 9
russ ische</w> 9
van ia</w> 9
Rock ies</w> 9
Ander e</w> 9
Pos itionen</w> 9
Pla st 9
abe th</w> 9
autom at 9
sett le</w> 9
Gesprä che</w> 9
Syst ems</w> 9
Ged anken</w> 9
associ ated</w> 9
attor neys</w> 9
gain ed</w> 9
wes entlich</w> 9
rob ust</w> 9
Att or 9
zentr um</w> 9
reag ieren</w> 9
ori enti 9
atter ed</w> 9
Schau spieler</w> 9
Bern anke</w> 9
zusätz lich</w> 9
Tie fen 9
Är zte</w> 9
verz ichten</w> 9
staat lichen</w> 9
möglich st</w> 9
Tarif vertrag</w> 9
civili ans</w> 9
Ris ik 9
sin ken</w> 9
Nic olas</w> 9
DV Ds</w> 9
AB N</w> 9
Feu er 9
Feu er</w> 9
Hor st</w> 9
Bul l 9
Weit er</w> 9
particip ants</w> 9
San ktionen</w> 9
Cre dit</w> 9
kü m 9
Bon n</w> 9
entsprech end</w> 9
complain ts</w> 9
impres sive</w> 9
General sekretär</w> 9
Disk ussi 9
confi dence</w> 9
Phili p</w> 9
question ing</w> 9
senten cing</w> 9
Vier tel 9
replac ed</w> 9
verd äch 9
Ant wort</w> 9
Chil dren</w> 9
Shi ite</w> 9
Weltmei ster</w> 9
Weltmei sterschaft</w> 9
vereinbar t</w> 9
Ret ail</w> 9
Pow ell</w> 9
CI A</w> 9
Kör per 9
Kör per</w> 9
Zer tifik 9
Wahr heit</w> 9
verän dert</w> 9
moun ted</w> 9
Beam te</w> 9
cas ino</w> 9
Main z</w> 9
Stan ley</w> 9
perform ed</w> 9
travel ing</w> 9
charac ter</w> 9
Demok ratie</w> 9
funktion iert</w> 9
Hän dler</w> 9
jen igen</w> 9
rap id</w> 9
rap id 9
Ern st</w> 9
unterstütz t</w> 9
unterstütz en</w> 9
Wert pap 9
Pati enten</w> 9
Sci ence</w> 9
Wech sel 9
oppos ite</w> 9
post season</w> 9
Rober ts</w> 9
scri p 9
Aufsichts rat</w> 9
Skand al</w> 9
Atlan ta</w> 9
manufactur ers</w> 9
Rein hard</w> 9
Pun kt</w> 9
unabhän gig</w> 9
Voraus setzungen</w> 9
behaup ten</w> 9
Mitglied schaft</w> 9
Prü f 9
frau d</w> 9
gas oline</w> 9
vill age</w> 9
ket ball</w> 9
kürz lich</w> 9
itali en 9
imag ine</w> 9
shar p</w> 9
skep tisch</w> 9
Relig ion</w> 9
Nig eria</w> 9
bann ed</w> 9
Lauf e</w> 9
Tay lor</w> 9
hosp itals</w> 9
minim um</w> 9
campaig ns</w> 9
PP P</w> 9
sent ence</w> 9
Now itzki</w> 9
Camp bell</w> 9
Meh dor 9
Mik ro 9
Temp o</w> 9
recommen ded</w> 9
sprin gen</w> 9
Schie ds 9
tribu te</w> 9
Auswär ts 9
Nachbar n</w> 9
great est</w> 9
Autom ob 9
Tai wan</w> 9
Pho enix</w> 9
Penn syl 9
Ca stro</w> 9
Cath o 9
Glas gow</w> 9
List e</w> 9
gewerk schaft</w> 9
Arbeitsp lätze</w> 9
cerem ony</w> 9
Beruf s 9
Güter verkehr</w> 9
behavi or</w> 9
farm ers</w> 9
Turn ier</w> 9
sav ings</w> 9
verlan gt</w> 9
Anton io</w> 9
Deut sch</w> 9
astrop he</w> 9
friend ly</w> 9
Broad way</w> 9
appropri ate</w> 9
Flugha fen</w> 9
insurg ents</w> 9
long time</w> 9
fem ale</w> 9
nin th</w> 9
bare ly</w> 9
schlu g</w> 9
Ark ansas</w> 9
expan sion</w> 9
überras cht</w> 9
Boch um</w> 9
satell ite</w> 9
Market ing 9
Sonntag abend</w> 9
Klimasch utz</w> 9
Kaczyn ski</w> 9
Pent agon</w> 9
Dut ch</w> 9
Hus sein</w> 9
divis ions</w> 9
eindeu tig</w> 9
gover ning</w> 9
Einschätz ung</w> 9
Log ist 9
verkauf ten</w> 9
Schauspiel erin</w> 9
Electri c</w> 9
Karlsru he</w> 9
Rütt gers</w> 9
Mens ch</w> 9
Yah oo</w> 9
Expl or 9
Liqu id 9
Champion s- 9
Tennes see</w> 9
Foot ball</w> 9
Montgom ery</w> 9
Shei k 9
Uta h</w> 9
Ukra ine</w> 9
Liver pool</w> 9
AID S</w> 9
Hisp an 9
limin ary</w> 9
austr al 9
Thank sgiving</w> 9
Vorwür fe</w> 9
Hoene ß</w> 9
Barcla ys</w> 9
Pennsyl vania</w> 9
R T 8
R W 8
R ö 8
R und</w> 8
R ett 8
e he</w> 8
e cht</w> 8
e astern</w> 8
t ap 8
t ell 8
t ung 8
t ings</w> 8
t ner</w> 8
t ool</w> 8
t ops</w> 8
t ability</w> 8
i T 8
i der 8
i bility</w> 8
r t 8
r d</w> 8
r utsch 8
r ina</w> 8
P ur 8
P ul 8
c a 8
c tor</w> 8
c ited</w> 8
c ross</w> 8
l o</w> 8
l y- 8
l ösung</w> 8
- f 8
- Re 8
- 1- 8
- to- 8
- jährige</w> 8
- and- 8
f r 8
f ing</w> 8
f at</w> 8
f ier 8
f urn 8
n on</w> 8
n ich 8
n utz 8
m its</w> 8
m ess 8
m ms</w> 8
d d</w> 8
d ach 8
d its</w> 8
d res 8
d ited</w> 8
d ging</w> 8
d ynam 8
a ver 8
a im</w> 8
a bel</w> 8
g ie 8
g uns</w> 8
g eist 8
h aus 8
h ome 8
s hr 8
s ity</w> 8
s ank</w> 8
s .com</w> 8
w ra 8
w et 8
w are</w> 8
w ind</w> 8
w ick 8
p r 8
p lot</w> 8
p icked</w> 8
1 1 8
1 30</w> 8
2 2. 8
2 3- 8
. J.</w> 8
. D.</w> 8
N H 8
N am 8
N ahr 8
N az 8
N BA</w> 8
N iss 8
S po 8
S tern</w> 8
S add 8
S endung</w> 8
o li 8
o vern 8
o therwise</w> 8
C as 8
C ent</w> 8
C are</w> 8
C ow 8
C ard</w> 8
C ook</w> 8
C enters</w> 8
U p 8
D o</w> 8
D r</w> 8
D F 8
D im 8
D ach 8
D ach</w> 8
D ow 8
D unk 8
D enk 8
M P</w> 8
M en</w> 8
M ord 8
M emp 8
G o</w> 8
G ut</w> 8
G ates</w> 8
G reg 8
G ött 8
G utachten</w> 8
b or</w> 8
b ac 8
b ie</w> 8
b and 8
b um 8
b ow 8
b ish 8
b ag</w> 8
b aum</w> 8
b bed</w> 8
b ail</w> 8
y e</w> 8
y outh</w> 8
8 4 8
8 6 8
L y 8
L ä 8
L ak 8
L ight</w> 8
L ama</w> 8
L ohn 8
L OND 8
v il 8
v ig 8
v et 8
v ant</w> 8
v ens</w> 8
v ada</w> 8
7 3 8
k ö 8
k es 8
k op 8
k ow 8
k ann 8
k tor 8
O t 8
O - 8
O M 8
O F</w> 8
O il</w> 8
A .</w> 8
A S</w> 8
A F</w> 8
T D</w> 8
T ö 8
T ed</w> 8
T as 8
T us 8
T ier 8
T own</w> 8
T rop 8
T iger</w> 8
T yp 8
6 50</w> 8
F . 8
F an 8
F on 8
F ro 8
F au 8
F alle</w> 8
F .A. 8
H ü 8
H as</w> 8
H ed 8
H ad</w> 8
H unter</w> 8
H ous 8
H ong 8
j an</w> 8
j ör 8
j ets</w> 8
B W</w> 8
B ie 8
B ad</w> 8
B us</w> 8
B isch 8
z ö 8
J obs</w> 8
J ena</w> 8
E .</w> 8
E Z 8
E he</w> 8
E ff 8
E ssen</w> 8
K S 8
K ö 8
K it 8
K ro 8
K et 8
K id 8
K ris 8
K ansas</w> 8
K han</w> 8
I D</w> 8
I G</w> 8
I CE</w> 8
Y u 8
Y en</w> 8
Z we 8
W H 8
W it 8
W ie 8
W hat 8
W erk 8
W illen</w> 8
V an 8
V ill 8
V ick</w> 8
V atten 8
V ladimir</w> 8
á vez</w> 8
X box</w> 8
ü r</w> 8
ü bt</w> 8
ä ß</w> 8
ä ter</w> 8
ä ck 8
ö glich</w> 8
er o</w> 8
er ie</w> 8
er sta 8
er up 8
er öff 8
er forder 8
er zäh 8
er scheint</w> 8
er leich 8
in ate</w> 8
in sul 8
in klu 8
th ony</w> 8
an did 8
ch est 8
ch ens</w> 8
en able</w> 8
un n 8
un ders</w> 8
un expected</w> 8
un iversal</w> 8
st il 8
st ig 8
st op 8
st ün 8
st isch</w> 8
st off</w> 8
st äd 8
re in</w> 8
re is 8
re mo 8
re cken</w> 8
re tali 8
re serve</w> 8
re alized</w> 8
re lief</w> 8
ar o</w> 8
ar g 8
it o</w> 8
it i</w> 8
it ur</w> 8
at i</w> 8
at ischen</w> 8
at e- 8
on going</w> 8
al ists</w> 8
al arm 8
di al</w> 8
is - 8
ro k 8
ro ck</w> 8
li t</w> 8
li dar 8
au ber 8
au to 8
au ction</w> 8
il lu 8
il fe</w> 8
il leg 8
ur self</w> 8
ur ban</w> 8
si vely</w> 8
ei ved</w> 8
ein st 8
ein gel 8
ein steiger</w> 8
as set</w> 8
ti er</w> 8
ti ed</w> 8
ti ef 8
ti erten</w> 8
ti zation</w> 8
om et 8
be ts</w> 8
be tro 8
be halten</w> 8
be zahlen</w> 8
be trägt</w> 8
be endet</w> 8
be zeichnete</w> 8
be fehl</w> 8
sch ol 8
sch ten</w> 8
sch au</w> 8
ge p 8
ge klär 8
ge holt</w> 8
ge zahlt</w> 8
ri er</w> 8
ri ble</w> 8
ri can 8
ri ef</w> 8
ri ff</w> 8
de v 8
de z</w> 8
de but</w> 8
de grees</w> 8
de dicated</w> 8
ra ft</w> 8
sa r</w> 8
ver kün 8
ver fahren</w> 8
ver kehrs 8
ver wand 8
ver teu 8
se - 8
se es</w> 8
le un 8
le gend 8
ab road</w> 8
am ei 8
ati vity</w> 8
us al 8
ir i</w> 8
ic als</w> 8
ter - 8
ac adem 8
ne ts</w> 8
ag ri 8
ag no 8
ag ern</w> 8
ent it 8
ent steht</w> 8
ent stehen</w> 8
wh el 8
te en</w> 8
ha z 8
sp ac 8
sp ru 8
sp räsident</w> 8
no v 8
no tes</w> 8
der te</w> 8
ig ation</w> 8
et ary</w> 8
et tet</w> 8
et ta</w> 8
ut ely</w> 8
we ak 8
op posed</w> 8
pro ved</w> 8
pro vin 8
em it 8
em bra 8
con ven 8
con sci 8
con sequ 8
con tains</w> 8
con solidated</w> 8
St am 8
St one</w> 8
wer ben</w> 8
com pos 8
com prehensive</w> 8
su d 8
ad mitted</w> 8
co operation</w> 8
ber ater</w> 8
po st- 8
An zei 8
An thony</w> 8
ul timately</w> 8
ach t 8
ach i</w> 8
and al</w> 8
gen utzt</w> 8
In sur 8
In fl 8
In stead</w> 8
um s 8
um ul 8
pl äne</w> 8
Sch ei 8
Sch ell</w> 8
Sch utz 8
all zu</w> 8
Ver y</w> 8
Ver sion</w> 8
Ver such</w> 8
Ver trau 8
Ver pflich 8
Ver lust</w> 8
Ver bindung</w> 8
pre ad</w> 8
pre ced 8
pre liminary</w> 8
ow nership</w> 8
Un s 8
Un abhän 8
wor ry</w> 8
wor ker</w> 8
vi ous</w> 8
vi erte</w> 8
qu it</w> 8
qu ake</w> 8
qu iet</w> 8
mo di 8
mo squ 8
ran k 8
ran ten</w> 8
ran ce</w> 8
ran ks</w> 8
gi o</w> 8
gi c</w> 8
Re gel 8
Re form 8
Re geln</w> 8
Re volution</w> 8
än omen</w> 8
Au gen 8
to t</w> 8
la ge 8
la im 8
ho her</w> 8
par am 8
par alle 8
ed ed</w> 8
ed ure</w> 8
Ch ávez</w> 8
Pro te 8
Pro test</w> 8
Pro tok 8
tz e 8
ay a</w> 8
tr äch 8
aus gesetzt</w> 8
aus geschlossen</w> 8
aus einander 8
ma ß</w> 8
ma xim 8
so unds</w> 8
wir bt</w> 8
war f</w> 8
war nte</w> 8
Al ter</w> 8
De posits</w> 8
bo und</w> 8
oh nt</w> 8
Th or 8
ger ing</w> 8
ger ettet</w> 8
do se</w> 8
sen - 8
sen ken</w> 8
gan g 8
Er de</w> 8
Er ste</w> 8
Er höhung</w> 8
ten sion</w> 8
Be zie 8
Be obach 8
Be zugs 8
Ar thur</w> 8
Sp aß</w> 8
ungs -</w> 8
gel an 8
gel aufen</w> 8
res ort</w> 8
comp eting</w> 8
comp ensation</w> 8
auf tra 8
auf bauen</w> 8
hal be</w> 8
hal ben</w> 8
ann y</w> 8
fi res</w> 8
ok ing</w> 8
lei der</w> 8
lei den</w> 8
fin als</w> 8
ill o</w> 8
fir men</w> 8
dies mal</w> 8
yo ta</w> 8
sol ven 8
sol ange</w> 8
str um 8
Ro s 8
Ro y 8
Ro m</w> 8
Ro ger</w> 8
Ro stock</w> 8
pri marily</w> 8
mon at 8
ev a</w> 8
gh es</w> 8
Ge fan 8
mit einander</w> 8
vor aus</w> 8
vor bereit 8
ts man</w> 8
wi des 8
tri um 8
vo ting</w> 8
rei b 8
fe es</w> 8
Ab gel 8
Ab wehr 8
Ber ater</w> 8
Ein es</w> 8
Ein nahmen</w> 8
Ein satz 8
pos ing</w> 8
br ü 8
br ands</w> 8
gra p 8
gra ph</w> 8
Vor stellung</w> 8
fol k</w> 8
men sch 8
men de</w> 8
men tioned</w> 8
Di vision</w> 8
Po tter</w> 8
sc ape</w> 8
mp h</w> 8
ob jects</w> 8
Aus land 8
Aus gabe</w> 8
Aus wahl</w> 8
Aus nahme 8
Kon tin 8
Kon sumenten</w> 8
ander es</w> 8
gu es</w> 8
gu ys</w> 8
id o</w> 8
her vor 8
her ren</w> 8
ass ed</w> 8
Mar co</w> 8
Zu g</w> 8
Zu ge</w> 8
Zu kunfts 8
äl ter</w> 8
äl tere</w> 8
Mo de 8
Mo tto</w> 8
geb il 8
geb ung</w> 8
geb ür 8
gew ün 8
gew ähr 8
gew inn</w> 8
To p</w> 8
To yota</w> 8
sk ins</w> 8
e- mail</w> 8
über legen</w> 8
über nimmt</w> 8
form al</w> 8
bu ch 8
dr y</w> 8
gesch äf 8
gesch afft</w> 8
bur st</w> 8
bur ned</w> 8
ast er</w> 8
hel icop 8
low n</w> 8
minist ry</w> 8
cre ative</w> 8
1, 3 8
star ten</w> 8
kti v</w> 8
stri kes</w> 8
Nach mittag</w> 8
Con ne 8
Con sumer</w> 8
iz on</w> 8
kon stru 8
dre hte</w> 8
Le ague- 8
Bo tschaft</w> 8
Bo eing</w> 8
mil iti 8
For m 8
dar k</w> 8
dar aus</w> 8
Com eback</w> 8
har m 8
har m</w> 8
ren nen</w> 8
fri ed</w> 8
Auf nahmen</w> 8
Auf trag</w> 8
Auf tritt</w> 8
Auf trit 8
aff ord</w> 8
mat h</w> 8
mat isch</w> 8
mat ches</w> 8
bl ame</w> 8
bl essing</w> 8
The ater 8
sich ert</w> 8
ech en 8
ech ten</w> 8
Bundes republik</w> 8
leg it 8
govern ments</w> 8
win ter</w> 8
zi p 8
zi p</w> 8
lau b 8
iver se</w> 8
air ports</w> 8
rop s</w> 8
hand led</w> 8
hand els 8
oper ated</w> 8
wel cher</w> 8
Nor drhein- 8
Ger ichts 8
fac tory</w> 8
ga ther 8
vie wers</w> 8
Fre m 8
Fre und</w> 8
Fre itag 8
rech tze 8
hol der</w> 8
12 .2007</w> 8
letz ter</w> 8
jo ur 8
Her tha</w> 8
dec or 8
spiel ten</w> 8
fre y</w> 8
fre ut</w> 8
fre edom</w> 8
Ma c</w> 8
Ma x</w> 8
ko t</w> 8
shi ft</w> 8
199 0s</w> 8
lat ter</w> 8
mor d</w> 8
Or te</w> 8
ish es</w> 8
ish ment</w> 8
ben den</w> 8
Te ch</w> 8
Te ilen</w> 8
Tra de</w> 8
Tra dition 8
tm ents</w> 8
stra f 8
stra ined</w> 8
spe aking</w> 8
Wor kers</w> 8
atur ing</w> 8
Minist erin</w> 8
So zi 8
So lidar 8
Mc N 8
Sta dion</w> 8
Bet rieb</w> 8
Bet reiber</w> 8
dig it 8
direc tors</w> 8
5, 0 8
Kin o</w> 8
ster o 8
Ju an</w> 8
Ju lie</w> 8
Sh anghai</w> 8
Arbeit ge 8
Arbeit geber</w> 8
wür digen</w> 8
Per son</w> 8
pen alties</w> 8
Lu c 8
Lu ft</w> 8
dat ab 8
arti ge</w> 8
stre it</w> 8
18 . 8
Li b 8
wa chen</w> 8
kün digung</w> 8
kün ftige</w> 8
lig ent</w> 8
Kar din 8
Kar tell 8
Europ amei 8
inform iert</w> 8
cri mes</w> 8
ätz e</w> 8
Go d</w> 8
Über wach 8
Über rasch 8
milit ant</w> 8
US- Präsident</w> 8
the ater</w> 8
cap able</w> 8
cap tured</w> 8
mem ber 8
Mu ch</w> 8
Mu se 8
out look</w> 8
out standing</w> 8
Har t 8
cul ar</w> 8
Wer der</w> 8
schn ei 8
schn eller</w> 8
Prä sident 8
dra w</w> 8
dra ft</w> 8
net z</w> 8
He alth 8
appro val</w> 8
tran spar 8
Bah n- 8
hö her</w> 8
zeh n 8
Lo ve</w> 8
ide al</w> 8
Ad am</w> 8
fa chen</w> 8
fa ith</w> 8
Br un 8
Dar m 8
inn en 8
vergan gene</w> 8
Rück en</w> 8
Bes itzer</w> 8
kno ws</w> 8
zie mlich</w> 8
verb in 8
verb ind 8
techn ik</w> 8
Bl ake</w> 8
1- 2</w> 8
Finanz märkten</w> 8
Pe te</w> 8
show ing</w> 8
Christ ian 8
sitz en</w> 8
sitz ender</w> 8
proc edure</w> 8
hän gen</w> 8
Kre u 8
Kre is</w> 8
Des ig 8
Wei ßen</w> 8
schw ä 8
high way</w> 8
Fl ügel</w> 8
rupp e</w> 8
mid night</w> 8
cor ner</w> 8
foo ds</w> 8
0- 1</w> 8
comple tion</w> 8
differ ences</w> 8
2- 0</w> 8
blo c</w> 8
blo cks</w> 8
inten sive</w> 8
disc los 8
2. 0 8
Mat tel</w> 8
Kur den</w> 8
exc ell 8
exc ept</w> 8
follow s</w> 8
9, 8 8
3- 1</w> 8
Ben jam 8
thre w</w> 8
Medi kam 8
Parte itag</w> 8
ball s</w> 8
Hu ghes</w> 8
Bay ern- 8
Dien st 8
Dien stag 8
wan del</w> 8
Schul en</w> 8
Neu en</w> 8
Ur sachen</w> 8
every body</w> 8
sing les</w> 8
Gra d</w> 8
Am bassador</w> 8
Hand y</w> 8
positi v</w> 8
spo ts</w> 8
Schl ag 8
Schl üssel 8
Lin ke</w> 8
Lin ken</w> 8
zurück kehr 8
dow s</w> 8
Mis sion</w> 8
Mis sour 8
new ly</w> 8
dau er 8
pur pose</w> 8
pass es</w> 8
spra chen</w> 8
198 7</w> 8
198 0s</w> 8
vent ures</w> 8
Afghan ist 8
see k</w> 8
Hel mut</w> 8
tou ch</w> 8
impro vement</w> 8
execu tives</w> 8
Gewin ner</w> 8
tä glichen</w> 8
AR D</w> 8
accoun ting</w> 8
cou p</w> 8
dan gerous</w> 8
gl ück 8
Seit en 8
Best e</w> 8
Ear nings</w> 8
perio ds</w> 8
Gol den</w> 8
Lit er</w> 8
demo cratic</w> 8
regul ated</w> 8
gli ed</w> 8
Nieder lagen</w> 8
genann ten</w> 8
amerikan ischer</w> 8
schri ften</w> 8
sex y</w> 8
repres ent</w> 8
repres enting</w> 8
zeich nen</w> 8
Rei he</w> 8
fle x 8
mag n 8
pay ments</w> 8
analy sis</w> 8
Pa are</w> 8
mm -h 8
Som alia</w> 8
bul l 8
zwei mal</w> 8
gän z 8
Wil helm</w> 8
fas sen</w> 8
figh ter</w> 8
Asi en</w> 8
rest ore</w> 8
Andre a</w> 8
Itali ener</w> 8
def end 8
def icit</w> 8
Schw einsteiger</w> 8
Lebens mittel</w> 8
hon or</w> 8
hon est</w> 8
Olymp ics</w> 8
sli ghtly</w> 8
Hol dings</w> 8
Kan ada</w> 8
Kap itän</w> 8
audi o</w> 8
eigen er</w> 8
schaff te</w> 8
Mitarbeit ern</w> 8
SPD- Chef</w> 8
claim ing</w> 8
flu g</w> 8
loc ations</w> 8
Rek ord</w> 8
len ders</w> 8
Grupp en</w> 8
chec k 8
chec king</w> 8
chec ked</w> 8
Ul rich</w> 8
bir th 8
Champ ionship</w> 8
Grün dung</w> 8
Grün en- 8
ade my</w> 8
Gren z 8
Bran chen 8
steu er 8
Unterneh mer</w> 8
Frei heit</w> 8
schwer er</w> 8
article 13 8
Rau ch 8
Put ins</w> 8
Bur ma</w> 8
Jer usal 8
photo s</w> 8
pul l</w> 8
krit isch</w> 8
shor t 8
Partei en</w> 8
deli ber 8
äuß erte</w> 8
down town</w> 8
mb ly</w> 8
hous es</w> 8
SE C</w> 8
kra ft</w> 8
Fel d</w> 8
WM -T 8
disp l 8
immig rant</w> 8
practi ces</w> 8
Tel evision</w> 8
ju di 8
ju ana</w> 8
promis ing</w> 8
zahl reichen</w> 8
histor ic</w> 8
Alex and 8
Konkurren z 8
mäß igen</w> 8
wit ness</w> 8
wit nesses</w> 8
Den ver</w> 8
Den noch</w> 8
noti erte</w> 8
Cap e</w> 8
Dor tm 8
reco very</w> 8
Ke ith</w> 8
Kran k 8
reduc ing</w> 8
Tele kom</w> 8
Kri eg 8
univers ities</w> 8
reta iler</w> 8
reta ilers</w> 8
lear ning</w> 8
Patri ck</w> 8
Dop ing 8
kämp ft</w> 8
Bis lang</w> 8
zü glich</w> 8
Ka iser</w> 8
bestimm te</w> 8
crow ds</w> 8
Sti ftung</w> 8
Mur phy</w> 8
FD A</w> 8
Bed ing 8
Bed enken</w> 8
IA A</w> 8
IA EA</w> 8
öp ft</w> 8
gain ing</w> 8
Sat ell 8
enth usi 8
Park s</w> 8
Park er</w> 8
reag iert</w> 8
diplom atic</w> 8
Bern d</w> 8
Flugzeu ge</w> 8
arri ved</w> 8
beein druckt</w> 8
relation ships</w> 8
clas sic</w> 8
DV D</w> 8
einig t</w> 8
Teil nehmer</w> 8
proce eds</w> 8
cop e</w> 8
smo king</w> 8
Sau di</w> 8
Ker ry</w> 8
Koh l</w> 8
arch it 8
six - 8
absol utely</w> 8
advis ed</w> 8
Lehr er</w> 8
nar row 8
hinter her</w> 8
Fr ings</w> 8
Fav or 8
stol en</w> 8
Verd acht</w> 8
Arch ite 8
touch downs</w> 8
camer as</w> 8
pie ces</w> 8
Sof tw 8
Dro gen 8
replac ement</w> 8
adop ted</w> 8
Bunde stag</w> 8
Pow er</w> 8
Nutz er</w> 8
LO S</w> 8
kin der</w> 8
Ty son</w> 8
loy d</w> 8
optim istisch</w> 8
Beam ten</w> 8
europä ische</w> 8
prosecut or</w> 8
mär kte</w> 8
Nie mand</w> 8
Ster ne</w> 8
Öl preis</w> 8
statt finden</w> 8
combin ed</w> 8
besu chen</w> 8
charac ters</w> 8
wachsen den</w> 8
Ball ack</w> 8
irgend wann</w> 8
Stru kturen</w> 8
selbst verständlich</w> 8
dienst leister</w> 8
virtu al</w> 8
kennt nis</w> 8
tür kischen</w> 8
ira cy</w> 8
clu bs</w> 8
Saf ety</w> 8
Ve ter 8
enor m 8
Stur m</w> 8
Städ te</w> 8
Jahrzeh nten</w> 8
Wider stand</w> 8
Portu gal</w> 8
Atlan tic</w> 8
disappoin ted</w> 8
Nik ol 8
Swe den</w> 8
eigh th</w> 8
Veranstal ter</w> 8
Alli ance</w> 8
survi ve</w> 8
frequ ently</w> 8
control led</w> 8
einzel ne</w> 8
schö nen</w> 8
righ t- 8
imple ment</w> 8
Ins gesamt</w> 8
gesell schaften</w> 8
überzeu gen</w> 8
oppon ent</w> 8
oppon ents</w> 8
Miss issi 8
Nat o</w> 8
Kamer as</w> 8
stran ten</w> 8
decre ase</w> 8
verletz ung</w> 8
subsidi aries</w> 8
Sitz ung</w> 8
DN A</w> 8
Metz elder</w> 8
Ze al 8
Wag ner</w> 8
ged acht</w> 8
gegrün det</w> 8
veröffentlich te</w> 8
premi um</w> 8
parli ament</w> 8
Rod ham</w> 8
Auseinander setzungen</w> 8
Million en 8
veter an</w> 8
fortun ately</w> 8
mutmaß lichen</w> 8
Klima wandel</w> 8
demokrat ischen</w> 8
necess ary</w> 8
Gä ste</w> 8
Bier hoff</w> 8
Krä fte</w> 8
Waff en 8
defe ated</w> 8
Stür mer</w> 8
brut al</w> 8
Premi ere</w> 8
Anti- Doping- 8
beding ungen</w> 8
Venezu el 8
Ral f</w> 8
nigh t 8
IB M</w> 8
restri ctions</w> 8
Schri ft 8
Schwe den</w> 8
phen omen 8
symbo l</w> 8
watch dog</w> 8
entwickl ung</w> 8
Louis iana</w> 8
leng th</w> 8
well - 8
Gip fel</w> 8
Lil ly</w> 8
kid napp 8
jag d</w> 8
stro ke</w> 8
sever e</w> 8
Stär ke</w> 8
Gefüh l</w> 8
Vorgän ger</w> 8
Model le</w> 8
U.S .- 8
Betro ffenen</w> 8
Cardi ff</w> 8
Christop h</w> 8
instit ute</w> 8
Mail and</w> 8
Tsch ech 8
Argent ina</w> 8
Konsequ enzen</w> 8
curren cy</w> 8
eful ly</w> 8
Resour ces</w> 8
Kompromis s</w> 8
require ments</w> 8
Mittwoch abend</w> 8
constitu tional</w> 8
equival ent</w> 8
Leverkus en</w> 8
Pav aro 8
Nei d</w> 8
Osc ar</w> 8
Kanz ler 8
choc olate</w> 8
reali ze</w> 8
sacri f 8
stellvertre tende</w> 8
Contro l</w> 8
Gerichtsh of</w> 8
knowle dge</w> 8
Malay sia</w> 8
Bloom berg</w> 8
Emir ates</w> 8
Äußer ungen</w> 8
Soc iety</w> 8
Ama zon</w> 8
Frit z</w> 8
act ress</w> 8
teach ers</w> 8
concili ation</w> 8
so- called</w> 8
Mitch ell</w> 8
unkno wn</w> 8
Matthi as</w> 8
London er</w> 8
Tiefen see</w> 8
Catho lic</w> 8
Champions- League- 8
iT unes</w> 8
Sadd am</w> 8
overn ight</w> 8
Memp his</w> 8
LOND ON</w> 8
What ever</w> 8
inklu sive</w> 8
paralle l</w> 8
wides pread</w> 8
Nordrhein- Westfalen</w> 8
Benjam in</w> 8
Mississi ppi</w> 8
R h 7
R it 7
R ent 7
R ak 7
R ate</w> 7
R iver 7
R AF 7
R angers</w> 7
e e 7
e . 7
e ver 7
e gen</w> 7
e y- 7
t y 7
t un 7
t us</w> 7
t .html</w> 7
t oll</w> 7
t ape</w> 7
i es 7
i ers</w> 7
i ellen</w> 7
r er</w> 7
r ence</w> 7
P S 7
P A</w> 7
P y 7
P R</w> 7
P il 7
P le 7
P ad 7
P ier 7
P GA</w> 7
P ackers</w> 7
c in 7
c tu 7
c lar 7
c iting</w> 7
c ells</w> 7
c enters</w> 7
l y 7
l ah 7
l esen</w> 7
l ös 7
- Walter</w> 7
f ed</w> 7
f old</w> 7
f loo 7
f unded</w> 7
f tiger</w> 7
n ische</w> 7
n ord 7
n ative</w> 7
n üch 7
n äher</w> 7
m ac 7
m ate</w> 7
m ates</w> 7
m elt</w> 7
m ood</w> 7
m isten</w> 7
m icro 7
d rei 7
d ating</w> 7
d ress</w> 7
d ank 7
a ve</w> 7
a chen</w> 7
a po 7
a than</w> 7
a ward</w> 7
g ü 7
g or 7
g ly</w> 7
g by</w> 7
g ischen</w> 7
g ates</w> 7
g ging</w> 7
g ases</w> 7
g alt</w> 7
h ed</w> 7
h em</w> 7
h ing 7
h man</w> 7
h äuser</w> 7
s and</w> 7
s se 7
s lo 7
s lich</w> 7
s ors</w> 7
s ang</w> 7
s light</w> 7
s feld</w> 7
w and</w> 7
w ag 7
w oo 7
w ich</w> 7
w ski</w> 7
w ächst</w> 7
w ahn 7
w aves</w> 7
p - 7
p f</w> 7
p on 7
p ack</w> 7
p liz 7
p ilot</w> 7
2 40</w> 7
2 1- 7
2 2.</w> 7
2 3.</w> 7
N ad 7
N one</w> 7
N ationen</w> 7
N ichts</w> 7
N eben 7
S op 7
S ak 7
S per 7
S qu 7
S eg 7
S ens 7
S hin 7
S ome 7
S mi 7
S tern 7
S either</w> 7
o k</w> 7
o u</w> 7
o sexu 7
u se 7
u de</w> 7
C lo 7
C ul 7
C inc 7
C ast 7
C ust 7
C ON 7
U ef 7
D A</w> 7
D ä 7
D ank</w> 7
M R 7
M P 7
M B 7
M S</w> 7
M eine</w> 7
M ass</w> 7
M ill 7
M ars</w> 7
G B</w> 7
G ei 7
G ru 7
G ame</w> 7
G edul 7
G anz</w> 7
b o</w> 7
b ol 7
b ars</w> 7
b ör 7
b lan 7
b aut</w> 7
b ahn 7
b ags</w> 7
y ou 7
y cl 7
8 000</w> 7
L S 7
L icht</w> 7
L ong</w> 7
L ud 7
L ong- 7
L akers</w> 7
v ul 7
v ine</w> 7
v ollen</w> 7
7 0 7
7 0s</w> 7
0 9 7
k s 7
k li 7
k us</w> 7
k ong</w> 7
k tu 7
k ette</w> 7
k icked</w> 7
O P 7
O thers</w> 7
O mar</w> 7
A x 7
A K 7
A vi 7
A gr 7
A sk 7
A cker 7
T U 7
T au 7
T rä 7
T V- 7
T sche 7
F a 7
F O 7
F ak 7
F iel 7
F ine</w> 7
F lan 7
F ame</w> 7
F air</w> 7
F ischer</w> 7
F lood</w> 7
F ive</w> 7
H D</w> 7
H un 7
H är 7
H und 7
H eu 7
H alle</w> 7
H indu 7
j ü 7
j er 7
j ap 7
j etz 7
j ack 7
B E 7
B ill 7
B ack</w> 7
B ob 7
B lau 7
B ier</w> 7
B aum</w> 7
B onds</w> 7
B AL 7
B ib 7
z y 7
z in</w> 7
z ün 7
z ess</w> 7
z immer</w> 7
z ige</w> 7
z weiter</w> 7
z ai</w> 7
J i 7
J on</w> 7
J ay 7
J ack</w> 7
J ens</w> 7
J ets</w> 7
J ury</w> 7
E d</w> 7
E s 7
E ch 7
E st 7
E on</w> 7
E ag 7
E tw 7
E duc 7
E arly</w> 7
E cke</w> 7
E hu 7
E astern</w> 7
E hem 7
E ST</w> 7
K ä 7
K as 7
K ern</w> 7
K ub 7
K lin 7
K unde</w> 7
I .</w> 7
I ll</w> 7
' Ne 7
Z us 7
Z ah 7
Z iele</w> 7
Z üge</w> 7
W ould</w> 7
W ind</w> 7
W ann</w> 7
W ill 7
W ood</w> 7
W ang</w> 7
W ien</w> 7
V A</w> 7
V it 7
V ent 7
V ice</w> 7
ü t 7
ü hren</w> 7
ä ger</w> 7
ä us</w> 7
ä fen</w> 7
ä umt</w> 7
Ö kon 7
er es</w> 7
er ate</w> 7
er nen</w> 7
er ings</w> 7
er ated</w> 7
er hält</w> 7
er lebt</w> 7
er reichte</w> 7
er schossen</w> 7
in struc 7
in tent</w> 7
th et 7
th ly</w> 7
th ma</w> 7
th west</w> 7
th quake</w> 7
an x 7
an ch 7
an nen</w> 7
an ia</w> 7
an schlag</w> 7
an stehenden</w> 7
an ium</w> 7
an itar 7
ch i 7
ch i</w> 7
ch ose</w> 7
ch tung</w> 7
ch tungen</w> 7
en ver 7
en ly</w> 7
en su 7
en ey</w> 7
en ner</w> 7
en berg</w> 7
un k</w> 7
un ten</w> 7
un ted</w> 7
un ting</w> 7
un gew 7
st ein 7
st ad 7
st em</w> 7
st ated</w> 7
st ake</w> 7
st ig</w> 7
st ück 7
st ick 7
st if 7
st ück</w> 7
st range</w> 7
re fin 7
re sident</w> 7
re ffen</w> 7
re ference</w> 7
re play</w> 7
re bel</w> 7
re aching</w> 7
re gret</w> 7
it able</w> 7
it e- 7
it oring</w> 7
at z</w> 7
at ra</w> 7
on al 7
al ismus</w> 7
di ver 7
di am 7
di son</w> 7
di ction</w> 7
di ox 7
el son</w> 7
el ite</w> 7
el det</w> 7
is ra 7
is sen 7
is lam 7
ro ll</w> 7
ro ots</w> 7
li est</w> 7
li ste</w> 7
au to</w> 7
il a</w> 7
ur al</w> 7
si del 7
ein m 7
ein satz</w> 7
as thma</w> 7
ol it 7
ol ph</w> 7
ti ful</w> 7
be finden</w> 7
be zahlt</w> 7
sch er 7
sch em 7
sch einen</w> 7
sch uss 7
sch ien</w> 7
sch ritt</w> 7
sch icken</w> 7
ge wer 7
ge zw 7
ge zeigt</w> 7
ge eig 7
ge öffnet</w> 7
ge troffen</w> 7
ri es 7
ri ert</w> 7
ou ts</w> 7
de al 7
de alt</w> 7
de aling</w> 7
sa d</w> 7
sa mer</w> 7
sa ck</w> 7
sa ktion</w> 7
ver tr 7
ver geb 7
ver hei 7
ver ständi 7
ver dan 7
ver treten</w> 7
ver gleich 7
ver standen</w> 7
ver folgt</w> 7
ver liert</w> 7
ver langen</w> 7
se min 7
se her</w> 7
se gment</w> 7
le u 7
le ktu 7
ab use</w> 7
am ing</w> 7
am bul 7
am ental</w> 7
ic - 7
ic ion</w> 7
ac ity</w> 7
ac compan 7
ag er 7
ag encies</w> 7
ent es</w> 7
ie te</w> 7
lo sures</w> 7
te x 7
te ch 7
te or 7
te urer</w> 7
ha ften</w> 7
sp rä 7
sp err 7
sp iracy</w> 7
no ting</w> 7
der ten</w> 7
ig nor 7
ig keiten</w> 7
ut ors</w> 7
we t</w> 7
we ed</w> 7
00 .html</w> 7
op inion</w> 7
pro b 7
pro vo 7
pro vis 7
fü gt</w> 7
con fron 7
con vers 7
con gressional</w> 7
con crete</w> 7
St ol 7
wer en</w> 7
wer ed</w> 7
wer ten</w> 7
com ed</w> 7
com mit</w> 7
com mod 7
im ent</w> 7
im per 7
im pose</w> 7
ad ult</w> 7
co al</w> 7
ber at 7
ber gen</w> 7
for um</w> 7
for scher</w> 7
po unds</w> 7
An y</w> 7
An no 7
An stieg</w> 7
An streng 7
An kar 7
An spruch</w> 7
An lage 7
ak u 7
ak t</w> 7
ak ed</w> 7
ach tet</w> 7
af raid</w> 7
sh ei 7
sh if 7
ex - 7
ex posed</w> 7
ex ports</w> 7
In fra 7
In sel</w> 7
In halte</w> 7
In nov 7
um ge 7
he punkt</w> 7
he ftige</w> 7
pl ä 7
pl ate</w> 7
Sch ö 7
Sch nei 7
per form</w> 7
per fect</w> 7
ru s</w> 7
ru b 7
ru ft</w> 7
est en</w> 7
Ver w 7
Ver wal 7
Ver sor 7
Ver di</w> 7
Ver leger</w> 7
Ver gabe</w> 7
Ver gewal 7
Ver trauen</w> 7
Ver fassung</w> 7
pre is 7
Un i</w> 7
Un like</w> 7
Un fall</w> 7
Un ser</w> 7
Un sicherheit</w> 7
wor l 7
wor d</w> 7
wor n</w> 7
wor ten</w> 7
vi eren</w> 7
qu es</w> 7
qu et</w> 7
qu ick</w> 7
gi eren</w> 7
gi fts</w> 7
Re p.</w> 7
Re agan</w> 7
Re aktion</w> 7
ci ans</w> 7
ci ples</w> 7
än der</w> 7
än gen</w> 7
än dert</w> 7
ges sen</w> 7
to s 7
to il 7
to tal 7
la b</w> 7
ho ff 7
par lam 7
par tei</w> 7
ed ings</w> 7
ed ition</w> 7
ed itorial</w> 7
Ch er 7
Ch en</w> 7
Ch ase</w> 7
Pro per 7
Pro min 7
Pro sec 7
Pro vision</w> 7
ung l 7
ung sh 7
ier ende</w> 7
ier enden</w> 7
tra iner</w> 7
tra ined</w> 7
tra gic</w> 7
tr in 7
tr end</w> 7
zu zu 7
zu kommen</w> 7
zu gän 7
zu führen</w> 7
aus führ 7
aus gehen</w> 7
aus schließlich</w> 7
me an 7
me chan 7
ma inten 7
wir te</w> 7
war nen</w> 7
Al as 7
Al ban 7
Al berto</w> 7
off shore</w> 7
den kt</w> 7
De v 7
De pres 7
De pot</w> 7
De fence</w> 7
bo ur 7
bo tt 7
Th ir 7
Th ough</w> 7
ep p 7
rit te</w> 7
ger er</w> 7
ger iet</w> 7
ger ade 7
do gan</w> 7
sen al</w> 7
sen kung</w> 7
ta thle 7
gan gs 7
Er inn 7
Er leb 7
Er dogan</w> 7
ten - 7
ten ed</w> 7
ten ing</w> 7
En tt 7
En viron 7
Ne vada</w> 7
kl einer</w> 7
Ar n 7
gro und 7
Sp ain</w> 7
gel ern 7
mer ger</w> 7
auf gegeben</w> 7
19 80</w> 7
hal f 7
hal f- 7
inter nen</w> 7
inter views</w> 7
fin ishing</w> 7
kom pliz 7
dies el</w> 7
yo urself</w> 7
sol e</w> 7
sel t 7
sel s</w> 7
sel n</w> 7
sel ber</w> 7
sel ben</w> 7
Ro h</w> 7
Ro ten</w> 7
dur fte</w> 7
pp en 7
pri es</w> 7
mon thly</w> 7
ev angel 7
Ge gn 7
ör ung</w> 7
gr at 7
wen det</w> 7
Par t</w> 7
vor her</w> 7
vor gelegt</w> 7
vor geworfen</w> 7
wi dri 7
tri als</w> 7
tri bal</w> 7
lin ken</w> 7
da - 7
fe ature</w> 7
fe aturing</w> 7
Ab u</w> 7
No bel 7
Ein mal</w> 7
mis m</w> 7
mis er 7
mis cht</w> 7
mis sionen</w> 7
ain - 7
gra mm</w> 7
Vor haben</w> 7
Vor feld</w> 7
Vor sprung</w> 7
wei lige</w> 7
Di vi 7
Di kt 7
Po or</w> 7
Po dol 7
ob sc 7
Aus sagen</w> 7
Aus stellung</w> 7
Aus sicht</w> 7
Aus bildung</w> 7
Kon serv 7
Kon flikt</w> 7
rü st 7
tre es</w> 7
Mit t 7
gu est</w> 7
gu ess</w> 7
gu ese</w> 7
tur ning</w> 7
of s</w> 7
id den</w> 7
her o</w> 7
Deutsch land 7
ass y</w> 7
ass ist</w> 7
ass ass 7
Mar io</w> 7
Zu vor</w> 7
Zu gang</w> 7
Mon tag 7
des er 7
des ign 7
bet es</w> 7
bet reiber</w> 7
Mo de</w> 7
Mo den 7
Min der 7
Min us</w> 7
geb lieben</w> 7
To ten</w> 7
To de</w> 7
To tten 7
sk on 7
sta aten</w> 7
bu l</w> 7
bu yers</w> 7
dr illing</w> 7
ph arm 7
gesch eit 7
gesch äfte</w> 7
gesch rieben</w> 7
Co st 7
Co alition</w> 7
ast s</w> 7
ast ian</w> 7
Me is 7
ern sthaf 7
tel efon 7
führ erin</w> 7
cre ation</w> 7
1, 5</w> 7
kti ver</w> 7
stri ker</w> 7
üs sen</w> 7
üs sel</w> 7
Nach wu 7
Con c 7
kon junk 7
kon flikt</w> 7
dre am</w> 7
dre hen</w> 7
2, 6 7
2, 000</w> 7
Bo ur 7
Bo den</w> 7
Bo den 7
For um</w> 7
For mel 7
dar um</w> 7
gn is 7
gn ügen</w> 7
Com m 7
Com mercial</w> 7
har dt</w> 7
pres entation</w> 7
Unter hal 7
rich tet</w> 7
sy mb 7
acc ord</w> 7
dam aged</w> 7
dam aligen</w> 7
ren g 7
unter neh 7
unter scheiden</w> 7
3, 6 7
3, 28 7
ang aben</w> 7
Auf stieg</w> 7
Auf klärung</w> 7
aff e</w> 7
son sten</w> 7
deutsch land</w> 7
zei gten</w> 7
mat ure</w> 7
fu ß 7
ke ys</w> 7
Ex z 7
Ex pen 7
sur ge</w> 7
eg al</w> 7
eg ger</w> 7
sich ten</w> 7
sich ern</w> 7
1. 5</w> 7
20 ,000</w> 7
20 20</w> 7
20 13</w> 7
mar i 7
mar ch</w> 7
gre en 7
Bundes wehr</w> 7
poin ting</w> 7
win ners</w> 7
win dow</w> 7
Ko operation</w> 7
enn bar</w> 7
cle ared</w> 7
ust er</w> 7
zi v 7
Eu ph 7
sho ck</w> 7
ef f</w> 7
air lines</w> 7
gest orben</w> 7
invest ieren</w> 7
hand lung</w> 7
oper ational</w> 7
oper ator</w> 7
ner ed</w> 7
wel comed</w> 7
Nor we 7
polit isches</w> 7
fac ts</w> 7
fac tor</w> 7
fac ilities</w> 7
ble - 7
tak ers</w> 7
rech tlich</w> 7
hol z</w> 7
ant in</w> 7
12 - 7
12 . 7
Ste in</w> 7
Ste uer</w> 7
Ste uern</w> 7
Ste vens</w> 7
bes ie 7
bre m 7
bre a 7
Jo int</w> 7
Se an</w> 7
www. spiegel 7
fre ig 7
Gesch en 7
ko v 7
lar en</w> 7
bar rels</w> 7
Su n</w> 7
199 3</w> 7
del n</w> 7
äu fe</w> 7
Man hat 7
Man gel</w> 7
ben ö 7
ben chmark</w> 7
Te ile</w> 7
Tra vel</w> 7
eri en 7
stra h 7
stra fen</w> 7
spe k 7
spe akers</w> 7
bil der</w> 7
bil ateral</w> 7
dis covery</w> 7
Wor k</w> 7
chan ces</w> 7
chan cen</w> 7
Wh ere</w> 7
Mc Car 7
Sta dium</w> 7
Bar ry</w> 7
part nership</w> 7
dig ungen</w> 7
car ries</w> 7
klär en</w> 7
10 1</w> 7
Arbeit er</w> 7
Arbeit nehmer</w> 7
Ph ilosop 7
Ph änomen</w> 7
bro w 7
schein bar</w> 7
Lu ft 7
Lu kas</w> 7
Regi onen</w> 7
arti gen</w> 7
Aut of 7
Sen der</w> 7
Sen ior</w> 7
Fri ends</w> 7
Fri eden</w> 7
gem äß</w> 7
gem eldet</w> 7
wa ii</w> 7
kün st 7
arbeit s 7
Kar l</w> 7
Kar achi</w> 7
Kar zai</w> 7
app ing</w> 7
app li 7
Fir men 7
Bu ff 7
ze itigen</w> 7
Ser ge 7
conc ert</w> 7
ütz e</w> 7
some what</w> 7
Res ol 7
bri d 7
bri cht</w> 7
Land tag</w> 7
Wel tre 7
US- Dollar</w> 7
land ing</w> 7
organ ic</w> 7
sub stan 7
best - 7
Har ris</w> 7
tig ungs 7
num erous</w> 7
woh l 7
woh nen</w> 7
schn ell 7
Frank -Walter</w> 7
fl ü 7
fl ag 7
fl ying</w> 7
net te</w> 7
He zb 7
econom ies</w> 7
gef äl 7
gef ahr</w> 7
15 .</w> 7
15 18, 7
besch rän 7
14 5</w> 7
zeu gen</w> 7
lic ation</w> 7
priv aten</w> 7
Dar über</w> 7
El is 7
rele vant</w> 7
camp us</w> 7
inn ati</w> 7
ank a</w> 7
Coun try 7
Rück gang</w> 7
bek am</w> 7
retur ns</w> 7
verb andes</w> 7
Indi ana</w> 7
mi x 7
mi xed</w> 7
sear ching</w> 7
26 .</w> 7
wat er 7
wat ched</w> 7
stei gerung</w> 7
ussi a</w> 7
develop ments</w> 7
Stu dien 7
hom e- 7
hom eless</w> 7
Dis ney</w> 7
Mor gen 7
7, 7 7
Im mun 7
GE LES</w> 7
Invest or</w> 7
Thom son</w> 7
inde pend 7
Univers itäten</w> 7
fiel der</w> 7
fiel ds</w> 7
Hei mat 7
olog ist</w> 7
olog ists</w> 7
nation al 7
sco res</w> 7
Fl a</w> 7
Fl üch 7
spä t</w> 7
spä ten</w> 7
Konz erne</w> 7
cor rect</w> 7
foo t- 7
0, 6 7
0, 1518, 7
kre is</w> 7
Fahr zeug</w> 7
ans wers</w> 7
disc ussions</w> 7
siden cy</w> 7
happ ening</w> 7
Sco tsman</w> 7
Mat thew</w> 7
ins besondere</w> 7
succ eed</w> 7
Pal m</w> 7
fest gestellt</w> 7
fest gelegt</w> 7
AN GELES</w> 7
Wal d 7
Wal d</w> 7
run de</w> 7
Don nell</w> 7
7. 11</w> 7
Kur se</w> 7
War ren</w> 7
agre ements</w> 7
bra in</w> 7
Geor g</w> 7
Parte itag 7
colle cted</w> 7
Hu go</w> 7
law suits</w> 7
25 . 7
25 .</w> 7
25 ,000</w> 7
Dok um 7
09. 10.2007</w> 7
Dien ste</w> 7
fli cht</w> 7
Tor hüter</w> 7
Neu wahlen</w> 7
Bri dge</w> 7
Bür o</w> 7
Gra ham</w> 7
boo m</w> 7
Am ster 7
Am ro</w> 7
ele gan 7
Republi k</w> 7
Republi kan 7
positi ven</w> 7
investig ators</w> 7
Ha waii</w> 7
Schl üssel</w> 7
grün den</w> 7
Bra d</w> 7
Char lie</w> 7
wich tiger</w> 7
bewer tet</w> 7
gemein schaft</w> 7
Pl ace</w> 7
Fil me</w> 7
Fil ms</w> 7
care ful</w> 7
dau ern</w> 7
Je wish</w> 7
mel den</w> 7
Strei k 7
Strei fen</w> 7
28 - 7
Tur ner</w> 7
Produ kt</w> 7
ausge gangen</w> 7
Mann ing</w> 7
La w 7
versu chten</w> 7
tern al</w> 7
cra ck 7
resul ted</w> 7
schließ t</w> 7
dou bled</w> 7
dou ble- 7
Bör si 7
impro vements</w> 7
plac ed</w> 7
susp ected</w> 7
susp icion</w> 7
disa ster</w> 7
NE W 7
candid acy</w> 7
Ru he</w> 7
gl ass</w> 7
bom bs</w> 7
Best and 7
Bhut tos</w> 7
Ear th</w> 7
stie gen</w> 7
wach stum</w> 7
Sha res</w> 7
regul ations</w> 7
Nieder sach 7
Mer ger</w> 7
Tran sport</w> 7
Wis sen</w> 7
Du is 7
Du ell</w> 7
Air ways</w> 7
Woh nung</w> 7
repres ented</w> 7
tion ally</w> 7
fle w</w> 7
fle et</w> 7
Pa id</w> 7
col or</w> 7
mm ern</w> 7
Som mer 7
konz erns</w> 7
konz erne</w> 7
Wil son</w> 7
tow ns</w> 7
typ es</w> 7
Beh and 7
def end</w> 7
emer ging</w> 7
Verein igung</w> 7
sof ern</w> 7
Olymp ic</w> 7
sli pped</w> 7
kul turel 7
Ak tu 7
Ak adem 7
Hö hepunkt</w> 7
Kul t 7
Organ ization</w> 7
trans ition</w> 7
trans fer</w> 7
tit el</w> 7
var i 7
entschei det</w> 7
performan ces</w> 7
Span ier</w> 7
Mittel feld</w> 7
Mittel punkt</w> 7
materi ally</w> 7
organis ieren</w> 7
bas eball</w> 7
Bor is</w> 7
Bor ussia</w> 7
terror ists</w> 7
extre m</w> 7
zen egger</w> 7
EU- Kommission</w> 7
dist ance</w> 7
foot print</w> 7
Ac ross</w> 7
Frei heits 7
dep loy 7
famili ar</w> 7
Rau b 7
clo thes</w> 7
Stim men</w> 7
Dre h 7
Bag dad</w> 7
finanz iell</w> 7
relati ves</w> 7
gefähr det</w> 7
frei en</w> 7
frei willi 7
drü ckt</w> 7
hor se</w> 7
IT - 7
achie ved</w> 7
Verk ehr</w> 7
drin ks</w> 7
Instit ut</w> 7
hy th 7
Kat rina</w> 7
Win ter</w> 7
speci alist</w> 7
Palestin ians</w> 7
krä ften</w> 7
sequ ent</w> 7
health care</w> 7
Schwar zenegger</w> 7
wieder um</w> 7
gleich zeitig</w> 7
signific ance</w> 7
nut r 7
Sor gen</w> 7
Far m</w> 7
Eis ho 7
Wahl kamp 7
west lichen</w> 7
break ing</w> 7
Pr inc 7
glie der</w> 7
Dor is</w> 7
sie ger</w> 7
conne cted</w> 7
conserv atives</w> 7
shoo t</w> 7
Beru f</w> 7
Vide o 7
verur sa 7
akti onen</w> 7
main stream</w> 7
religi on</w> 7
Pla y 7
häu f 7
amo unts</w> 7
gren ze</w> 7
sätz en</w> 7
Dop ing</w> 7
Gri ff</w> 7
Gri echen 7
kämp fen</w> 7
Bru der</w> 7
ordin ary</w> 7
Ram ad 7
crow ded</w> 7
Cur r 7
Mur ray</w> 7
AD S</w> 7
öp fen</w> 7
associ ation</w> 7
associ ate</w> 7
schätz en</w> 7
occ asi 7
sl ump</w> 7
rob bery</w> 7
leh nt</w> 7
frist ige</w> 7
studi os</w> 7
lauf enden</w> 7
pap ers</w> 7
24, 0 7
Lö wen</w> 7
Halb jahr</w> 7
Halb finale</w> 7
zentr ale</w> 7
Eri c 7
rep lied</w> 7
exten sion</w> 7
exten sive</w> 7
Schä den</w> 7
week ly</w> 7
Fried ens 7
Flugzeu g</w> 7
advert is 7
aim s</w> 7
Tie fe</w> 7
Är zten</w> 7
arri ve</w> 7
beein druck 7
verz ö 7
verhin dert</w> 7
miss ile</w> 7
miss iles</w> 7
Beteilig ten</w> 7
bestä tigen</w> 7
suspen sion</w> 7
Gemein schaft</w> 7
poll ution</w> 7
Nic ole</w> 7
Kön nen</w> 7
Schi ff 7
Fort une</w> 7
proce ed</w> 7
proce edings</w> 7
Süd kore 7
chines ischen</w> 7
Plan eten</w> 7
swe et</w> 7
TH E</w> 7
Haus es</w> 7
entsprech enden</w> 7
complain ed</w> 7
impres sion</w> 7
Syri an</w> 7
cy cle</w> 7
mein te</w> 7
won ach</w> 7
Ton i</w> 7
alo g</w> 7
confi dent</w> 7
consul tant</w> 7
Arch i 7
stron ger</w> 7
Phili pp 7
Pra xis</w> 7
Büh nen 7
erhö ht</w> 7
verschie denen</w> 7
Stat t</w> 7
akzep tieren</w> 7
persön liche</w> 7
deliver s</w> 7
Prin z</w> 7
fair ly</w> 7
wäh len</w> 7
bio graph 7
Kurs - 7
Wa gen</w> 7
tour ists</w> 7
sozi ale</w> 7
threat ening</w> 7
challeng ed</w> 7
Cab inet</w> 7
kri min 7
insp ired</w> 7
stab il</w> 7
elimin ate</w> 7
Reis e 7
travel ers</w> 7
politici an</w> 7
effici ent</w> 7
Demok raten</w> 7
passi eren</w> 7
Metro pol 7
Good ell</w> 7
But ter</w> 7
Kamp f 7
encour aged</w> 7
reve aled</w> 7
einer seits</w> 7
broad cast</w> 7
virtu ally</w> 7
extrem ists</w> 7
cast ing</w> 7
grupp en</w> 7
Ci vil</w> 7
Viz ep 7
erziel t</w> 7
exist ing</w> 7
exist ence</w> 7
Versicher ungs 7
Erd be 7
Spra che</w> 7
Jahrzeh nte</w> 7
Komp on 7
bisher ige</w> 7
Portu guese</w> 7
disappoin ting</w> 7
Coll ins</w> 7
ym n 7
Val en 7
defin itely</w> 7
seas ons</w> 7
prop ag 7
survi ved</w> 7
Demon stranten</w> 7
behaup tet</w> 7
Paul i</w> 7
Ron al 7
Rus sen</w> 7
nö tig</w> 7
Mom ent</w> 7
kal kuli 7
Od ing 7
Zweit lig 7
übri gen</w> 7
deep ly</w> 7
teen ager</w> 7
Train ings 7
intensi v</w> 7
tlin ge</w> 7
Sus an</w> 7
Are a</w> 7
Bang lad 7
ator in</w> 7
depres sion</w> 7
ffe kt</w> 7
appar ent</w> 7
fern sehen</w> 7
oblig ation</w> 7
Freund in</w> 7
subsidi ary</w> 7
Pakist ani</w> 7
pursu e</w> 7
pursu ing</w> 7
erfolgreich en</w> 7
23. 09.2007</w> 7
Tok yo</w> 7
Tick ets</w> 7
För der 7
Verletz ung</w> 7
parli am 7
Auseinander setzung</w> 7
breit et</w> 7
Gesund heits 7
veter ans</w> 7
electron ic</w> 7
CDU- Politiker</w> 7
wichtig sten</w> 7
mutmaß liche</w> 7
Telekom munik 7
Rest au 7
fang s</w> 7
pip eline</w> 7
LD P</w> 7
Zum indest</w> 7
chem ical</w> 7
stopp ed</w> 7
spür bar</w> 7
Initi ative</w> 7
Verlu ste</w> 7
episo de</w> 7
episo des</w> 7
lossen e</w> 7
kontrol liert</w> 7
surpris ed</w> 7
medic ine</w> 7
Daim ler</w> 7
Peter son</w> 7
Stock holders</w> 7
stärk sten</w> 7
lung s</w> 7
Slo wen 7
Sain t</w> 7
Dal ai</w> 7
Ori gin 7
Jon athan</w> 7
Econom ic</w> 7
erlit ten</w> 7
verfü gen</w> 7
Schum er</w> 7
Vertra gs 7
Ungl ück</w> 7
seri ously</w> 7
surro unding</w> 7
Größ e</w> 7
Opposition s 7
valu ed</w> 7
Schluss mann</w> 7
Link spartei</w> 7
innov ative</w> 7
umstrit tenen</w> 7
Rend ite</w> 7
Gün ther</w> 7
Tig ers</w> 7
Hunder te</w> 7
zerst ört</w> 7
Kau der</w> 7
beau tiful</w> 7
sustain ed</w> 7
trade mark</w> 7
Vorbereit ung</w> 7
ident ity</w> 7
gewach sen</w> 7
Milliar den 7
Ord nung</w> 7
Sour ces</w> 7
anticip ate</w> 7
28. 08.2007</w> 7
garanti ert</w> 7
distribu tion</w> 7
princip al</w> 7
deplo yed</w> 7
Verdäch tigen</w> 7
McLaren- Mercedes</w> 7
gehöri gen</w> 7
hang ing</w> 7
UE FA 7
02. 10.2007</w> 7
Ox ford</w> 7
Trupp en</w> 7
Bad en- 7
Ehe frau</w> 7
anon ym 7
life - 7
prepar ing</w> 7
geleg ten</w> 7
konserv ative</w> 7
franch ise</w> 7
rush ing</w> 7
rhetor ic</w> 7
Gleich zeitig</w> 7
75, 260</w> 7
Adam s</w> 7
Yang on</w> 7
ZE IT</w> 7
Zim bab 7
angen eh 7
stöß t</w> 7
refu ge 7
die jenigen</w> 7
wealth y</w> 7
emis sions</w> 7
Stor m</w> 7
shir ts</w> 7
prevent ed</w> 7
complic ated</w> 7
trop ical</w> 7
begeist ert</w> 7
sorti um</w> 7
Geburt stag</w> 7
Trib une</w> 7
Zwang s 7
Kabin ett</w> 7
Singap ore</w> 7
King dom</w> 7
Istan bul</w> 7
attribut ed</w> 7
ursprün glich</w> 7
verstär kt</w> 7
pover ty</w> 7
plast ic</w> 7
ruh ig</w> 7
gesich ert</w> 7
Throu gh</w> 7
Erkennt nisse</w> 7
Bege gnung</w> 7
brilli ant</w> 7
Aufschw ung</w> 7
Gerä te</w> 7
Foto gra 7
borrow ings</w> 7
Leich tathle 7
griech ischen</w> 7
Charlo tte</w> 7
Spitzenk andid 7
suffici ent</w> 7
Plast ik 7
Mehdor n</w> 7
Explor er</w> 7
Sheik h</w> 7
bish ops</w> 7
EZ B</w> 7
Kris en 7
Vatten fall</w> 7
ersta un 7
rican e</w> 7
Insur ance</w> 7
Verpflich tung</w> 7
preced ented</w> 7
gather ing</w> 7
Frem d 7
rechtze itig</w> 7
Luc as</w> 7
Schlag ze 7
Missour i</w> 7
birth day</w> 7
archit ec 7
Softw are 7
enorm ous</w> 7
Venezuel an</w> 7
Tschech ien</w> 7
Cinc innati</w> 7
Long- term</w> 7
Ask ed</w> 7
Acker mann</w> 7
Etw a</w> 7
Ehu d</w> 7
anitar ian</w> 7
isra el 7
schem es</w> 7
Schnei der</w> 7
zugän glich</w> 7
mainten ance</w> 7
Erinn erung</w> 7
Entt äu 7
Podol ski</w> 7
Totten ham</w> 7
pharm ac 7
Expen se</w> 7
www.spiegel .de</w> 7
Hezb ollah</w> 7
Griechen land</w> 7
R - 6
R I 6
R ho 6
R ay 6
R av 6
R enn 6
R ang</w> 6
R ött 6
e -</w> 6
e zu</w> 6
e ye 6
e wi 6
e over</w> 6
e ager</w> 6
t ing 6
t ue</w> 6
t ney</w> 6
t ask</w> 6
t reiben</w> 6
i ent</w> 6
i ke</w> 6
i Po 6
r on</w> 6
r and 6
r ation 6
r ungen</w> 6
r ated</w> 6
r unden</w> 6
r hein 6
r ural</w> 6
P C 6
P a</w> 6
P H 6
P .</w> 6
P ich 6
P fer 6
P ear 6
P ause</w> 6
P ick 6
P ro</w> 6
P fle 6
P ilo 6
P ubl 6
P ilot</w> 6
c age</w> 6
c ence</w> 6
c ler 6
c ap</w> 6
l ten</w> 6
l ake</w> 6
l ene</w> 6
l friend</w> 6
l unch</w> 6
- G 6
- th 6
f it 6
f es</w> 6
f ter</w> 6
f ak 6
f ing 6
f its</w> 6
f ris 6
f liegt</w> 6
f acher</w> 6
f ought</w> 6
f oul</w> 6
n it 6
n ic 6
n ack 6
n ai 6
m te</w> 6
m ie</w> 6
m ere</w> 6
m ud 6
m ord 6
m üh 6
m ingham</w> 6
d ay 6
d est</w> 6
d ark 6
d ale</w> 6
d ying</w> 6
d unk 6
d hood</w> 6
d angers</w> 6
d oppelt</w> 6
a j 6
a w</w> 6
a side</w> 6
g y 6
g au 6
g ungen</w> 6
g ische</w> 6
g liche</w> 6
g ades</w> 6
g igkeit</w> 6
h y</w> 6
h all</w> 6
h idden</w> 6
s -</w> 6
s ar 6
s um</w> 6
s ong</w> 6
s now</w> 6
s itu 6
s low</w> 6
s auer</w> 6
s eller</w> 6
s äm 6
w ö 6
w inter 6
w ake</w> 6
w ander 6
w ahr</w> 6
w ick</w> 6
w asser</w> 6
p m</w> 6
p in</w> 6
p al</w> 6
p hr 6
p ly</w> 6
p age</w> 6
p ron 6
p .com</w> 6
p ilo 6
p airs</w> 6
1 -</w> 6
3 3, 6
3 9, 6
3 01</w> 6
3 0.000</w> 6
3 38</w> 6
3 rd</w> 6
2 10</w> 6
2 2- 6
2 nd</w> 6
. o 6
. uk</w> 6
. M.</w> 6
N a</w> 6
N ar 6
N au 6
N ur 6
N ap 6
N eb 6
N ancy</w> 6
N PD</w> 6
S t</w> 6
S z 6
S S</w> 6
S ati 6
S ad 6
S ow 6
S än 6
S ehr</w> 6
S ev 6
S low 6
S ili 6
S ays</w> 6
S til</w> 6
S alt</w> 6
S ri</w> 6
S mart</w> 6
o d</w> 6
o un 6
o ci 6
o tive</w> 6
o si</w> 6
o unced</w> 6
u n</w> 6
u al 6
u ch</w> 6
u sa 6
u ck</w> 6
u tive</w> 6
C T 6
C ut 6
C ase</w> 6
C las 6
C lau 6
C anc 6
U C 6
U pper</w> 6
D T 6
D u</w> 6
D P</w> 6
D ri 6
D id</w> 6
D um 6
D ays</w> 6
D auer</w> 6
D ele 6
D ritten</w> 6
D jok 6
D schi 6
M - 6
M O 6
M ä 6
M ak 6
M um 6
M ord</w> 6
M auer</w> 6
M AR 6
G P 6
G E</w> 6
G en</w> 6
G ab 6
G et</w> 6
G ary</w> 6
G ome 6
G mb 6
G ymn 6
b - 6
b a 6
b und</w> 6
b ru 6
b one</w> 6
b rä 6
b lin 6
b ond</w> 6
b ares</w> 6
y c 6
y ar 6
8 9 6
8 ,000</w> 6
8 44</w> 6
L em 6
L ach 6
L ex 6
L oh 6
L eu 6
L ord</w> 6
L eben 6
L AN 6
L ID 6
L anka</w> 6
v y</w> 6
v it 6
v on 6
v alen</w> 6
v owed</w> 6
v essel</w> 6
4 4 6
4 15</w> 6
4 00,000</w> 6
0 3. 6
k u 6
k it 6
k einem</w> 6
k und 6
k olle 6
k ord</w> 6
k auft</w> 6
k lear 6
k rieg</w> 6
k anzler</w> 6
O S</w> 6
O L</w> 6
O st</w> 6
O ak 6
O ld</w> 6
O pen 6
O range</w> 6
O tto</w> 6
A b</w> 6
A V 6
A th 6
A st 6
A dri 6
A gri 6
A thle 6
A OL</w> 6
x y</w> 6
T A 6
T en 6
T est</w> 6
T el</w> 6
T ages</w> 6
6 ,000</w> 6
F R 6
F .</w> 6
F ei 6
F ab 6
F lo 6
F ig 6
F ok 6
F if 6
F unk 6
F lam 6
F loo 6
F inger</w> 6
F ahn 6
F oods</w> 6
H 1</w> 6
H ub 6
H ans</w> 6
H ör 6
H ess 6
H ear 6
H ER 6
H aving</w> 6
H ansa</w> 6
H äuser</w> 6
5 ,000</w> 6
5 0s</w> 6
5 0.000</w> 6
j ac 6
j ub 6
B le 6
B ig 6
B eine</w> 6
B ell 6
B oll 6
B und 6
B ren 6
B UR 6
B ond</w> 6
B atter 6
B jör 6
z ung</w> 6
J r</w> 6
J an</w> 6
J et 6
J ungen</w> 6
J ün 6
J ason</w> 6
J eff</w> 6
E B 6
E ing 6
E va</w> 6
E liz 6
E reig 6
K f 6
K oll 6
K hal 6
K iel</w> 6
K ick 6
K ath 6
K üh 6
K nie 6
K eller</w> 6
K ib 6
K ürz 6
K aliforn 6
I - 6
I f 6
I A</w> 6
I L 6
I K 6
I V 6
I hren</w> 6
Y e 6
Y our</w> 6
Z it 6
Z ur 6
Z ul 6
Z iel 6
Z ahl 6
Z weiten</w> 6
Z auber 6
W o</w> 6
W ul 6
W ander 6
W eg 6
W ahlen</w> 6
W affen</w> 6
V D 6
V en 6
V il 6
V iel</w> 6
V ik 6
ü p 6
ü ff 6
Ö sterreich 6
Ä ra</w> 6
er al</w> 6
er ische</w> 6
er steller</w> 6
er hoben</w> 6
er hielten</w> 6
er füllen</w> 6
in au 6
in ely</w> 6
in fra 6
th al</w> 6
an te</w> 6
an de</w> 6
an lagen</w> 6
an genommen</w> 6
an geschlagen</w> 6
an schauen</w> 6
an schließend</w> 6
an gered</w> 6
ch or 6
ch airs</w> 6
ch efs</w> 6
en g</w> 6
en des</w> 6
en sion</w> 6
en rich 6
en sic</w> 6
un ve 6
un fall</w> 6
un identified</w> 6
un iverse</w> 6
un precedented</w> 6
st om 6
st ap 6
st rom</w> 6
st sein</w> 6
st ability</w> 6
st opping</w> 6
st ücke</w> 6
st ayed</w> 6
st aying</w> 6
re v 6
re la 6
re ine</w> 6
re gener 6
re ckt</w> 6
re stor 6
re signed</w> 6
re pair</w> 6
ar ts</w> 6
ar ia</w> 6
ar io</w> 6
ar gum 6
it is</w> 6
it em</w> 6
it y- 6
it sch</w> 6
or a</w> 6
or ten</w> 6
or abili 6
at om 6
at tet</w> 6
at re</w> 6
at ever</w> 6
at ured</w> 6
on i 6
on el</w> 6
on na</w> 6
on aire</w> 6
al e 6
al o</w> 6
al i</w> 6
al ter 6
al ts 6
al tung</w> 6
al isten</w> 6
di r 6
di c</w> 6
[...]
