. 8630
, 8299
der 4617
die 4329
" 3818
und 2894
in 2581
den 1851
: 1820
von 1491
zu 1356
mit 1319
das 1286
- 1181
sich 1159
auf 1153
ist 1134
nicht 1086
für 1076
Die 1073
im 1047
dem 1014
ein 976
des 926
es 824
eine 783
als 741
an 717
auch 717
( 683
) 681
/ 654
er 631
um 627
am 623
dass 612
Der 610
nach 583
sie 575
hat 567
aus 549
bei 545
wie 497
Das 483
werden 483
einem 480
noch 478
vor 476
sind 471
einer 459
wird 430
einen 425
war 419
aber 405
haben 392
mehr 381
über 370
nur 361
so 351
sagte 335
zum 334
? 319
hatte 298
man 296
sei 293
gegen 282
Euro 279
oder 273
Prozent 269
sein 268
Sie 255
bis 254
habe 250
_ 246
In 241
ich 239
2007 238
zur 237
wir 228
Es 226
wurde 213
wieder 211
kann 203
schon 202
dann 201
durch 199
wenn 198
unter 192
will 191
Und 182
sagt 178
immer 177
seine 176
vom 175
ihre 173
Wir 171
Jahr 169
Uhr 169
soll 163
Jahren 159
Er 157
gibt 156
Deutschland 152
eines 147
seiner 147
Ich 146
zwei 146
beim 145
keine 145
Im 144
alle 142
muss 142
Ein 135
was 135
Auch 134
Millionen 134
diese 134
können 132
waren 131
Nach 130
ONLINE 127
müssen 127
Menschen 126
drei 126
worden 125
Mit 124
ten 124
uns 124
seit 123
damit 121
ihr 121
sehr 121
Für 120
wollen 120
te 119
doch 116
gut 116
Eine 113
ins 113
nun 113
© 112
Jahre 111
ihrer 111
Ende 110
URL 110
hatten 110
viel 109
zwischen 108
ab 107
jetzt 107
Nachrichten 106
diesem 106
Aber 105
ohne 105
erst 104
ihn 103
' 102
weiter 102
geht 101
neuen 101
werde 101
ihren 100
neue 100
seinem 100
anderen 99
dieser 98
allem 97
ersten 97
seinen 97
etwa 96
machen 96
Welt 95
seien 95
selbst 95
wurden 95
bereits 93
dpa 93
heute 93
Doch 92
Zeit 92
deutschen 92
ihm 92
Bei 91
Wenn 91
Wie 91
da 91
weil 91
vergangenen 90
Unternehmen 89
http 89
en 88
steht 88
SPD 87
kein 87
[ 86
sollen 86
] 85
andere 85
ganz 85
rund 85
könnte 82
viele 82
USA 81
einmal 81
Berlin 80
Als 79
Dollar 79
So 79
etwas 79
jedoch 79
sondern 79
vier 79
Copyright 78
wegen 78
allerdings 77
1 76
em 75
mal 75
alles 74
deutsche 74
großen 74
September 72
also 72
nichts 72
s 72
SPIEGEL 71
kommen 71
lassen 71
Man 70
beiden 70
dabei 70
zehn 70
Mann 69
mir 68
sowie 68
Am 67
Kinder 67
ob 67
ung 67
zurück 67
Deutschen 66
Leben 66
Oktober 66
hier 66
zwar 66
2 65
= 65
Dokument 65
Milliarden 65
davon 65
sollte 65
Erscheinungsdatum 64
cnt 64
dafür 64
document 64
erstellt 64
fünf 64
info 64
sogar 64
stehen 64
Land 63
Präsident 63
gewesen 63
kommt 63
wäre 63
Bahn 62
Regierung 62
a 62
geben 62
weniger 62
Auf 61
hätten 61
mich 61
würde 61
Politik 60
US-@@ 60
dazu 60
denn 60
ern 60
liegt 60
+ 59
Geld 59
Polizei 59
Von 59
Woche 59
deutlich 59
fast 59
sehen 59
ter 59
15 58
Da 58
FC 58
Freitag 58
dort 58
Deutsche 57
WELT 57
heißt 57
ihrem 57
ischen 57
ja 57
macht 57
wollte 57
Was 56
denen 56
e 56
gehen 56
wenig 56
! 55
50 55
; 55
Angaben 55
Frau 55
wo 55
Frankfurt 54
November 54
Änderung 54
zweiten 53
CDU 52
Partei 52
kaum 52
ungen 52
Fall 51
Letzte 51
Mittwoch 51
New 51
gab 51
später 51
weitere 51
Dienstag 50
München 50
erste 50
keinen 50
weit 50
Diese 49
Druckversion 49
Vor 49
dies 49
könne 49
sieht 49
20 48
Arbeit 48
bleiben 48
i 48
ihnen 48
nie 48
0 47
2006 47
Beispiel 47
Den 47
Denn 47
Frauen 47
Merkel 47
Trainer 47
eigenen 47
gemacht 47
halten 47
kam 47
tun 47
August 46
Bank 46
Hamburg 46
Markt 46
Nur 46
Spiel 46
Wer 46
Zukunft 46
darauf 46
erklärte 46
t 46
... 45
China 45
Donnerstag 45
Mal 45
Zeitung 45
allen 45
gehört 45
ische 45
lich 45
wissen 45
2008 44
Berliner 44
Frage 44
Stadt 44
derzeit 44
fest 44
Monate 43
Russland 43
Soldaten 43
Wochen 43
bin 43
ebenfalls 43
gegenüber 43
gilt 43
hätte 43
jeder 43
1. 42
FTD.de 42
Wirtschaft 42
Zu 42
bekannt 42
dagegen 42
gegeben 42
isch 42
konnte 42
lange 42
müsse 42
wohl 42
30 41
Anfang 41
chen 41
diesen 41
kommenden 41
musste 41
Bayern 40
Rolle 40
de 40
dieses 40
gen 40
große 40
ste 40
www.welt.de 40
Europa 39
Montag 39
Seite 39
Team 39
eher 39
gerade 39
m 39
möglich 39
schnell 39
sollten 39
stand 39
während 39
zufolge 39
Dabei 38
Damit 38
Dass 38
Sieg 38
Union 38
Ziel 38
Zudem 38
ers 38
ging 38
lichen 38
nächsten 38
sagen 38
sechs 38
würden 38
zunächst 38
16 37
20@@ 37
Art 37
Erfolg 37
Hamburger 37
Samstag 37
anderem 37
bekommen 37
bleibt 37
dessen 37
seines 37
tes 37
18 36
Aus 36
Blick 36
Chef 36
Dann 36
Geschichte 36
Kunden 36
Sonntag 36
Sprecher 36
Tag 36
darf 36
laut 36
lässt 36
vielen 36
zusammen 36
Über@@ 36
% 35
17 35
3 35
Beck 35
Bis 35
Entscheidung 35
Erst 35
Familie 35
Tage 35
Um 35
aller 35
einfach 35
ende 35
k 35
letzten 35
oft 35
spielen 35
zeigt 35
GDL 34
Seit 34
Times 34
besser 34
bisher 34
damals 34
deren 34
deshalb 34
finden 34
ge 34
ken 34
künftig 34
zeigen 34
000 33
10 33
Internet 33
Michael 33
Nicht 33
Platz 33
Saison 33
Stuttgart 33
besonders 33
hieß 33
inzwischen 33
könnten 33
liche 33
mann 33
nehmen 33
sten 33
trotz 33
weiß 33
zuvor 33
& 32
100 32
12 32
4 32
Angebot 32
Bau@@ 32
Entwicklung 32
Jahres 32
Koalition 32
Minuten 32
Monaten 32
Sicherheit 32
Streit 32
Stunden 32
Tagen 32
Teil 32
bislang 32
g 32
geworden 32
ler 32
mindestens 32
paar 32
per 32
stark 32
statt 32
14 31
Buch 31
Financial 31
Januar 31
Lage 31
Mitarbeiter 31
Viele 31
York 31
durch@@ 31
gekommen 31
hinter 31
hält 31
insgesamt 31
nach@@ 31
sicher 31
solche 31
stellen 31
40 30
Aktien 30
Allerdings 30
Einsatz 30
Kilometer 30
Leute 30
Mannschaft 30
Männer 30
Rück@@ 30
Sport 30
Straße 30
Zahlen 30
acht 30
bringen 30
erklärt 30
erwartet 30
gar 30
gleich 30
gute 30
meine 30
offenbar 30
schwer 30
sieben 30
weiteren 30
wirklich 30
zuletzt 30
02 29
13 29
2005 29
Anleger 29
Arbeits@@ 29
Bundes@@ 29
Bush 29
Informationen 29
Köln 29
Ministerpräsident 29
Noch 29
Punkte 29
Thema 29
Zum 29
en-@@ 29
end 29
ens 29
ert 29
gestellt 29
hin@@ 29
ke 29
licher 29
los 29
natürlich 29
neben 29
pro 29
vielleicht 29
.html 28
200 28
2004 28
25 28
Banken 28
Dezember 28
Dies 28
Druck 28
Experten 28
Groß@@ 28
Hier 28
Jetzt 28
Meter 28
Recht 28
Weg 28
Während 28
alten 28
daran 28
dürfte 28
eigentlich 28
findet 28
forderte 28
genau 28
gewinnen 28
hin 28
kamen 28
knapp 28
l 28
leicht 28
mehrere 28
nen 28
spricht 28
teilte 28
z 28
-K@@ 27
8 27
Adresse 27
Bund 27
Ländern 27
Manager 27
Sache 27
darunter 27
dürfen 27
einige 27
enden 27
erreicht 27
groß 27
ieren 27
ierte 27
kurz 27
men 27
o 27
unsere 27
Angst 26
Auto 26
Autos 26
Höhe 26
Kind 26
Kritik 26
Mitte 26
Namen 26
Sommer 26
Thomas 26
Tod 26
Um@@ 26
Urteil 26
Verfügung 26
Zwei 26
allein 26
ange@@ 26
as 26
at 26
beide 26
erhalten 26
erneut 26
ischer 26
kleine 26
recht 26
unserer 26
völlig 26
19 25
21 25
22 25
An 25
Bild 25
Finanz@@ 25
Firma 25
Grund 25
Ihr 25
Irak 25
Juli 25
Kosten 25
Schule 25
Studie 25
Unter 25
Wirtschafts@@ 25
alte 25
bereit 25
gebracht 25
hoch 25
iert 25
lang 25
letzte 25
ließ 25
meisten 25
offen 25
scheint 25
t-@@ 25
ums 25
weiterhin 25
www.n-tv.de 25
zwölf 25
überhaupt 25
2009 24
2010 24
5 24
Bürger 24
Dazu 24
EU-@@ 24
Fragen 24
Gruppe 24
Haus 24
Kampf 24
Kunst 24
Münchner 24
News 24
Problem 24
Spieler 24
Spitze 24
Zeit@@ 24
arbeiten 24
einigen 24
entschieden 24
ere 24
erstmals 24
fahren 24
fen 24
gebe 24
ger 24
größten 24
igen 24
klar 24
machte 24
ne 24
neues 24
os 24
treffen 24
ts 24
2002 23
Fernseh@@ 23
Hand 23
Hilfe 23
Mutter 23
Schritt 23
Schul@@ 23
Sonder@@ 23
Treffen 23
Vater 23
Zahl 23
amerikanischen 23
aufge@@ 23
berichtet 23
d 23
ebenso 23
elt 23
eren 23
gern 23
gesehen 23
gest@@ 23
häufig 23
ie 23
je 23
nächste 23
richtig 23
schließlich 23
stellt 23
tung 23
unternehmen 23
verlassen 23
ziehen 23
zusammen@@ 23
6 22
60 22
Afghanistan 22
Ball 22
Beginn 22
Behörden 22
Bericht 22
Bilder 22
Dieser 22
Grünen 22
Hessen 22
Hälfte 22
Investoren 22
Krise 22
Länder 22
Nun 22
Politiker 22
Preis 22
Schließlich 22
Seine 22
Seiten 22
Spiel@@ 22
Sport@@ 22
Steuer@@ 22
Tochter 22
Zwar 22
ben 22
besten 22
betonte 22
endlich 22
erin 22
erten 22
fordert 22
führen 22
gehe 22
genommen 22
gerne 22
getötet 22
größte 22
ierten 22
innerhalb 22
isches 22
möchte 22
nutzen 22
of 22
s-@@ 22
setzt 22
st 22
tigen 22
unser 22
versucht 22
wolle 22
zeigte 22
zeit 22
zurück@@ 22
zweite 22
01 21
23 21
28 21
7 21
70 21
Bar@@ 21
Branche 21
CSU 21
Deshalb 21
Eltern 21
Fans 21
Frankfurter 21
Frankreich 21
Geld@@ 21
Gericht 21
Geschäft 21
Gesellschaft 21
I 21
Ihre 21
Interview 21
Kanzlerin 21
Konzern 21
Krieg 21
Laut 21
Neu@@ 21
Ober@@ 21
Opfer 21
Ort 21
Partie 21
Preise 21
Sicht 21
Situation 21
Türkei 21
Vorsitzende 21
Wahl 21
Weil 21
Zur 21
al 21
ale 21
bar 21
bringt 21
ch 21
darüber 21
eben 21
gt 21
hohe 21
junge 21
kleinen 21
le 21
liegen 21
nahm 21
neu 21
politische 21
schreibt 21
sprechen 21
versch@@ 21
wer 21
wichtig 21
zen 21
zer@@ 21
00 20
35 20
Aktie 20
Amt 20
Bereich 20
Chancen 20
Daten 20
Ermittlungen 20
Fahr@@ 20
Firmen 20
Folgen 20
Führung 20
Gefahr 20
League 20
Lösung 20
Medien 20
Mio. 20
Nacht 20
Niederlage 20
Nummer 20
Parlament 20
Post 20
Richter 20
Schutz 20
Sein 20
Staaten 20
Streik 20
Streiks 20
Vertrag 20
Weise 20
amerikanische 20
ation 20
be 20
beispielsweise 20
braucht 20
dern 20
dritten 20
ehemaligen 20
ft 20
führt 20
geführt 20
gesagt 20
her 20
internationalen 20
leben 20
lichkeit 20
längst 20
mein 20
ner 20
nimmt 20
russischen 20
schen 20
sen 20
setzen 20
sprach 20
stellte 20
sueddeutsche.de 20
us 20
zahlen 20
zudem 20
-T@@ 19
2000 19
24 19
80 19
Bundesregierung 19
Börse 19
Dafür 19
Dem 19
EU 19
Ent@@ 19
Ergebnis 19
Film 19
Fußball 19
Heute 19
Iran 19
Lokführer 19
London 19
Müller 19
Peter 19
Prozess 19
Rennen 19
Richtung 19
Sohn 19
Staat 19
Universität 19
Unterstützung 19
WM 19
Wolfgang 19
Zuschauer 19
alen 19
berichtete 19
bietet 19
blieb 19
droht 19
eigene 19
eln 19
entscheiden 19
früher 19
heraus 19
jeden 19
jeweils 19
jungen 19
jüngsten 19
kosten 19
liches 19
mag 19
meist 19
minister 19
obwohl 19
on 19
sogenannten 19
spielt 19
weltweit 19
zumindest 19
öffentlichen 19
12@@ 18
2003 18
45 18
Abend 18
Analysten 18
Außerdem 18
Bhutto 18
Bildunterschrift 18
Chance 18
Dort 18
England 18
Ergebnisse 18
FAZ.NET 18
Form 18
Gewerkschaft 18
Glück 18
Grund@@ 18
Haupt@@ 18
Jo@@ 18
Juni 18
Konkurrenz 18
Land@@ 18
Leistung 18
Mrd. 18
Ob 18
Peking 18
Pläne 18
Polen 18
Schüler 18
Studenten 18
Täter 18
Vergleich 18
Wahl@@ 18
Welt@@ 18
Werk 18
Wert 18
aktuellen 18
aten 18
besch@@ 18
britischen 18
el 18
er-@@ 18
erzählt 18
fiel 18
gefallen 18
gelten 18
geschäft 18
jede 18
konnten 18
kt 18
me 18
müssten 18
n 18
ohnehin 18
politik 18
schweren 18
se 18
solle 18
tatsächlich 18
wollten 18
0,@@ 17
04 17
36 17
Alle 17
Amerikaner 17
Angela 17
Armee 17
Augen 17
Beim 17
Bundeskanzlerin 17
Börsen@@ 17
Champions 17
Durch 17
Geschäftsführer 17
Gespräch 17
Hause 17
Idee 17
Interesse 17
Kinder@@ 17
Kollegen 17
Konzept 17
Kopf 17
Lebens@@ 17
Mai 17
Mehr 17
Meister 17
Musharraf 17
Neben 17
Privat@@ 17
Probleme 17
Publikum 17
SPD-@@ 17
Se@@ 17
Sekunden 17
Sozial@@ 17
Stadt@@ 17
Super@@ 17
Text 17
Titel 17
Trotz 17
Washington 17
Wasser 17
Wort 17
Zusammenhang 17
a-@@ 17
außerdem 17
bekommt 17
berg 17
che 17
direkt 17
ehemalige 17
elle 17
entwickelt 17
erreichen 17
fallen 17
fand 17
ganze 17
gefunden 17
guten 17
hoch@@ 17
jährige 17
läuft 17
nachdem 17
politischen 17
rechnet 17
reden 17
schaffen 17
verkauft 17
vermutlich 17
welche 17
ze 17
zugleich 17
11 16
18@@ 16
2001 16
300 16
38 16
400 16
Anbieter 16
Best@@ 16
Bremen 16
El@@ 16
Fahrer 16
Franz 16
Freunde 16
Frühjahr 16
Ger@@ 16
Gewinn 16
Heimat 16
Jeder 16
Joachim 16
Kein 16
Kultur 16
Kurt 16
Kölner 16
Landes 16
Lehmann 16
Martin 16
Massen@@ 16
Maßnahmen 16
Minute 16
Mitglieder 16
Moskau 16
Möglichkeit 16
Natürlich 16
Netz 16
Opposition 16
Ost@@ 16
Preis@@ 16
Projekt 16
Quartal 16
Reise 16
Ste@@ 16
Umfrage 16
Vergangenheit 16
VfB 16
Wegen 16
Westen 16
all 16
anderer 16
anders 16
aufs 16
bald 16
bisschen 16
brachte 16
du 16
durchaus 16
enk@@ 16
erte 16
erwarten 16
fest@@ 16
genauso 16
genug 16
gestern 16
gewonnen 16
großer 16
größere 16
hingegen 16
hohen 16
ige 16
ihres 16
internationale 16
jedem 16
kaufen 16
kostet 16
lagen 16
mussten 16
solchen 16
suchen 16
system 16
tern 16
trägt 16
verloren 16
voll 16
weder 16
wenige 16
www.ftd.de 16
zieht 16
Öffentlichkeit 16
übernehmen 16
29 15
48 15
Ansicht 15
Außenminister 15
B 15
Bank@@ 15
Besuch 15
Bundesliga 15
Bühne 15
Bürgermeister 15
Christian 15
D 15
Debatte 15
Februar 15
Fehler 15
Frank 15
Fußball-@@ 15
Geschäfts@@ 15
Grenzen 15
Hannover 15
Har@@ 15
Haus@@ 15
Hoch@@ 15
Italien 15
Japan 15
Journalisten 15
Jährige 15
Kindern 15
Klasse 15
Klaus 15
Klein@@ 15
Lebens 15
Macht 15
Man@@ 15
Medien@@ 15
Musik 15
Musik@@ 15
März 15
Müntefering 15
Nachdem 15
Nord@@ 15
Oder 15
Partei@@ 15
Plus 15
Position 15
Produktion 15
Programm 15
Rede 15
Region 15
Schalke 15
Selbst 15
Straßen 15
Stunde 15
Stück 15
Technik 15
The 15
Tor 15
VW 15
Vom 15
Warum 15
We@@ 15
Wettbewerb 15
Wissenschaftler 15
Wochenende 15
abzu@@ 15
bedeutet 15
beg@@ 15
begonnen 15
bestimmten 15
beteiligt 15
britische 15
chinesische 15
cht 15
dadurch 15
danach 15
deutscher 15
einzige 15
ender 15
entfernt 15
erfolgreich 15
erster 15
et 15
fe 15
fordern 15
gemeinsam 15
gesetzt 15
haus 15
höhere 15
ien 15
industrie 15
legen 15
meinen 15
neun 15
notwendig 15
schrieb 15
standen 15
ständig 15
tete 15
tige 15
trifft 15
verhindern 15
verurteilt 15
weg 15
weiter@@ 15
$ 14
-S@@ 14
07 14
13.11.2007 14
27 14
Afrika 14
Alles 14
Außen@@ 14
Beide 14
Beschäftigten 14
Chelsea 14
Damals 14
Europäische 14
Ferrari 14
Fest@@ 14
Finale 14
Foto 14
Fälle 14
Gegen@@ 14
Gegner 14
George 14
Gerade 14
Gott 14
Großbritannien 14
Hintergrund 14
Hoffnung 14
Klage 14
Kreditkrise 14
Landes@@ 14
Metern 14
Nachfrage 14
Presseagentur 14
Provinz 14
Präsidenten 14
Rechte 14
Roman 14
Sarkozy 14
Schmidt 14
Schon 14
Sollte 14
Spiele 14
Staats@@ 14
Staatsanwaltschaft 14
Stand 14
Start 14
Steinmeier 14
Strategie 14
Suche 14
Tor@@ 14
WM-@@ 14
Werte 14
Zeiten 14
Zeitpunkt 14
Zusammenarbeit 14
Zweifel 14
angekündigt 14
ans 14
article12@@ 14
ationen 14
aufgenommen 14
aufzu@@ 14
ausge@@ 14
beginnt 14
bezeichnet 14
cher 14
daher 14
dahin 14
einge@@ 14
end@@ 14
erung 14
fragen 14
frühere 14
ganzen 14
gegangen 14
gehören 14
geplant 14
gestartet 14
gezogen 14
glauben 14
großes 14
jemand 14
jene 14
jährigen 14
keiner 14
laufen 14
lediglich 14
länger 14
mer 14
nahe 14
oben 14
rechte 14
schlecht 14
schw@@ 14
schützen 14
starken 14
steigen 14
trat 14
verantwortlich 14
versuchen 14
warum 14
weiteres 14
wenigen 14
www.@@ 14
zunehmend 14
zusätzliche 14
Über 14
übernommen 14
2. 13
26@@ 13
32 13
37 13
39 13
9 13
AFP 13
Abschluss 13
All@@ 13
Anwalt 13
Barcelona 13
Basis 13
Becker 13
Bürger@@ 13
Club 13
Computer@@ 13
Diskussion 13
Einkommen 13
Ex-@@ 13
Fach@@ 13
Folge 13
Fonds 13
Forscher 13
Gastgeber 13
Gefängnis 13
Gegen 13
Gel@@ 13
Gesetz 13
Gesicht 13
Gold 13
Grenze 13
Her@@ 13
Indien 13
Ja 13
Job 13
Keine 13
Kraft 13
Künstler 13
Liga 13
Löw 13
Mittel 13
Monat 13
Möglichkeiten 13
National@@ 13
Nein 13
Nähe 13
Ohne 13
Osten 13
Pakistan 13
Papier 13
Papiere 13
Personal@@ 13
Porsche 13
Punkten 13
Qualität 13
Rechts@@ 13
Regisseur 13
Rekord@@ 13
Robert 13
Schäuble 13
Selbst@@ 13
Sicherheits@@ 13
Spekulationen 13
Spiegel 13
Stellen 13
Stimme 13
Tat 13
Teams 13
Trend 13
Umsatz 13
Verfahren 13
Vertreter 13
Vielleicht 13
W. 13
Wasser@@ 13
Wei@@ 13
Zugleich 13
aktuelle 13
alt 13
b 13
ber 13
bessere 13
bild 13
del 13
einzu@@ 13
englischen 13
erk@@ 13
falsch 13
folgt 13
fragt 13
früheren 13
fällt 13
gesamte 13
gesprochen 13
glaube 13
größer 13
handelt 13
heit 13
helfen 13
ierung 13
immerhin 13
is 13
ismus 13
jedes 13
kennen 13
kn@@ 13
lag 13
lebt 13
legt 13
lösen 13
manche 13
mehreren 13
nannte 13
nennt 13
neuer 13
private 13
rechnen 13
schreiben 13
sehe 13
setzte 13
sitzt 13
sogenannte 13
stets 13
tet 13
tiger 13
tut 13
voller 13
warten 13
wieder@@ 13
zählt 13
ändern 13
öffentlich 13
08 12
11. 12
1999 12
90 12
Ad@@ 12
Alexander 12
Amerika 12
Anteil 12
Aufgabe 12
Autoren 12
Beckstein 12
Besucher 12
Beteiligung 12
Bisher 12
Bundestrainer 12
Coach 12
Computer 12
Daten@@ 12
Derzeit 12
Einen 12
Einfluss 12
Einführung 12
Energie@@ 12
FDP 12
FTD 12
Fernsehen 12
Fuß 12
Fällen 12
Gas 12
Gebiet 12
Gesamt@@ 12
Hand@@ 12
Hauptstadt 12
Heim@@ 12
Herr 12
Huber 12
Illustration 12
Im@@ 12
Immerhin 12
Industrie 12
Innenminister 12
Ist 12
Josef 12
Jährigen 12
Karriere 12
Kirche 12
Klose 12
Kn@@ 12
Kollege 12
Kommentar 12
Kontrolle 12
Krankenhaus 12
Kunst@@ 12
Kurs@@ 12
Lufthansa 12
Ma@@ 12
Madrid 12
Main 12
Mindestlohn 12
Mädchen 12
Nationalspieler 12
Niveau 12
Not@@ 12
Paris 12
Parteichef 12
Paul 12
Polizisten 12
Putin 12
Ru@@ 12
SV 12
San 12
Schluss 12
Schweiz 12
Sinn 12
Spar@@ 12
Spitzen@@ 12
Stelle 12
Stimmung 12
Su@@ 12
Tore 12
Tra@@ 12
Tri@@ 12
VW-@@ 12
Verlag 12
Walter 12
Wer@@ 12
Werbe@@ 12
Wissenschaft 12
Worten 12
Yorker 12
angeblich 12
angesichts 12
auszu@@ 12
außer 12
außerhalb 12
bare 12
baren 12
begann 12
behörde 12
best@@ 12
besteht 12
bestimmt 12
bestätigt 12
bewegt 12
bisherigen 12
chef 12
demnach 12
dennoch 12
det 12
dete 12
eins 12
ene 12
enen 12
europäischen 12
f 12
folgen 12
frei 12
führte 12
gefordert 12
geraten 12
gespielt 12
gingen 12
größeren 12
gutes 12
h 12
heraus@@ 12
hervor 12
hinaus 12
höchsten 12
interessiert 12
jährlich 12
kennt 12
kündigte 12
land 12
legte 12
len 12
lieber 12
ministerium 12
mittlerweile 12
morgen 12
müsste 12
platz 12
prüfen 12
relativ 12
sche 12
schule 12
schwarze 12
schwere 12
selten 12
spiel 12
spiel@@ 12
stein 12
treten 12
tritt 12
trotzdem 12
u 12
verk@@ 12
vorgestellt 12
weise 12
weiterer 12
weitgehend 12
wichtige 12
wirft 12
wirkt 12
wirtschaftlichen 12
wären 12
Österreich 12
-F@@ 11
09 11
120@@ 11
14. 11
26 11
28. 11
3. 11
30. 11
500 11
52 11
55 11
AP 11
Abgeordnete 11
Anders 11
April 11
Arzt 11
Aufgaben 11
Ausland 11
Band 11
Bayer 11
Begriff 11
Bevölkerung 11
Blatt 11
Buch@@ 11
Car@@ 11
DFB-@@ 11
Daher 11
Danach 11
David 11
Deutschlands 11
Dinge 11
Drei 11
Drittel 11
Einzel@@ 11
Energie 11
Engagement 11
Entscheidungen 11
Erwartungen 11
Familien 11
Flucht 11
Formel 11
Führungs@@ 11
Gebäude 11
Gerhard 11
Gesch@@ 11
Geschäfte 11
Gewalt 11
Gr@@ 11
Gra@@ 11
Großen 11
Handels@@ 11
He@@ 11
Hersteller 11
Herz 11
Immobilien@@ 11
Interessen 11
Internet-@@ 11
Internet@@ 11
James 11
John 11
Jung 11
Jürgen 11
Kandidaten 11
Kevin 11
Ko@@ 11
Kom@@ 11
Konjunktur 11
Kopf@@ 11
Kritiker 11
Kur@@ 11
Käufer 11
Liebe 11
Linie 11
Literatur 11
Luxus@@ 11
Material 11
Mehrheit 11
Menge 11
Messe 11
Minister 11
Märkte 11
Nachfolger 11
Nachrichtenagentur 11
Natur@@ 11
Neue 11
Nürnberg 11
Organisation 11
Rahmen 11
Regierungs@@ 11
Rice 11
Runde 11
Rückkehr 11
Saison@@ 11
Satz 11
Schuld 11
Sechs 11
Spanien 11
Stoiber 11
Teheran 11
Termin 11
Terror@@ 11
Tonnen 11
Trotzdem 11
Unterdessen 11
V-@@ 11
VON 11
Verband 11
Verein 11
Verhandlungen 11
Verhältnis 11
Verkauf 11
Verlängerung 11
Vermögen 11
Verteidigungsminister 11
Vorjahr 11
Vorstand 11
Wal@@ 11
West@@ 11
Worte 11
Zeichen 11
Zentrum 11
Zuletzt 11
abge@@ 11
afghanischen 11
aktiv 11
akzeptiert 11
and 11
bank 11
bar@@ 11
bauen 11
bel 11
belastet 11
berichteten 11
beste 11
bewegen 11
chen@@ 11
chte 11
ck 11
dank 11
daraufhin 11
darin 11
davor 11
ddp 11
drohen 11
einst 11
ell 11
ens@@ 11
entdeckt 11
erlaubt 11
französische 11
fährt 11
fühlen 11
gefragt 11
gel 11
gelegt 11
geplante 11
geplanten 11
getan 11
gewann 11
gewählt 11
glaubt 11
gleichen 11
glich 11
gte 11
gung 11
hielt 11
hinzu 11
hoffe 11
hoffen 11
hofft 11
ik 11
isch-@@ 11
isch@@ 11
isiert 11
jedenfalls 11
konzern 11
kre@@ 11
kte 11
leisten 11
lern 11
meinem 11
meiner 11
meint 11
nennen 11
niemand 11
nämlich 11
offiziell 11
p 11
passiert 11
politisch 11
reichen 11
richtigen 11
schlägt 11
selbst@@ 11
sonst 11
sorgt 11
spanischen 11
stadt 11
starke 11
stärker 11
sucht 11
teten 11
the 11
tragen 11
täglich 11
verbessern 11
verhandeln 11
verletzt 11
verlor 11
verstehen 11
vierten 11
vorerst 11
weg@@ 11
wirtschaft 11
zahlreiche 11
äußern 11
öffentliche 11
österreichischen 11
10. 10
100.000 10
13. 10
16. 10
19. 10
21. 10
24. 10
28@@ 10
33 10
44 10
46 10
49 10
5,@@ 10
53 10
600 10
75 10
Agenda 10
Agentur 10
Aktion 10
Allen 10
Also 10
Angriff 10
Anhänger 10
Antrag 10
Arbeitslosengeld 10
Arena 10
Atom@@ 10
Ausgleich 10
Aussage 10
Auto@@ 10
Begründung 10
Bereits 10
Berufung 10
Bi@@ 10
Bild@@ 10
Brand@@ 10
Bremer 10
Brief 10
Brüssel 10
Dar@@ 10
Details 10
Dieter 10
Eis@@ 10
Erfahrung 10
Erklärung 10
Erstmals 10
Europas 10
Europäischen 10
Familien@@ 10
Forderungen 10
Fotos 10
Fraktion 10
Fußball@@ 10
Gabriel 10
Gast@@ 10
Gen@@ 10
Generation 10
Gewerkschaften 10
Gewinne 10
Hafen 10
Haft 10
Hin@@ 10
Hitzfeld 10
Ihnen 10
Immer 10
Index 10
Jahres@@ 10
Job@@ 10
Jugendlichen 10
Kar@@ 10
Kauf 10
Kern@@ 10
Kl@@ 10
Konkurrenten 10
Kr@@ 10
Kurs 10
Kurz 10
La 10
Luca 10
Lynch 10
Management 10
Meinung 10
Meister@@ 10
Mitglied 10
Männern 10
Olympischen 10
Or@@ 10
Panorama 10
Partner 10
Personen 10
Plätze 10
Real 10
Reform 10
Rei@@ 10
Risiko 10
Roland 10
Roll@@ 10
Rücktritt 10
Schatten 10
Schicksal 10
Schröder 10
Schuss 10
Schweizer 10
Sieger 10
Sprecherin 10
Strecke 10
Stuttgarter 10
Städten 10
Taliban 10
Tatsache 10
Terroristen 10
Unternehmens@@ 10
Urlaub 10
V 10
Verantwortung 10
Verbraucher 10
Verein@@ 10
Verhalten 10
Volk@@ 10
Volker 10
Wachstum 10
Wechsel 10
Wege 10
Werbung 10
Wirkung 10
Zuschauern 10
abgeschlossen 10
al-@@ 10
anzu@@ 10
ar 10
au 10
aufgrund 10
ausgesprochen 10
bau 10
beginnen 10
ben@@ 10
bestand 10
blieben 10
branche 10
brauchen 10
burg 10
chten 10
direktor 10
dritte 10
dürften 10
eingesetzt 10
ellen 10
enten 10
entwickeln 10
erheblich 10
erinnert 10
erkennen 10
erklären 10
fall 10
falls 10
falsche 10
französischen 10
freie 10
fte 10
ften 10
gaben 10
gang 10
gekauft 10
gemeinsame 10
genden 10
gesamten 10
geschlossen 10
gesellschaft 10
gestiegen 10
gleich@@ 10
halte 10
he 10
hei@@ 10
herum 10
holen 10
ig 10
iger 10
indem 10
international 10
isierung 10
isten 10
istische 10
ite 10
iten 10
ker 10
ker@@ 10
ko@@ 10
komplett 10
kritisierte 10
ktionen 10
kurzen 10
langsam 10
lau@@ 10
len@@ 10
lernen 10
letztlich 10
lose 10
mache 10
markt 10
mehrfach 10
mitteilte 10
mitten 10
möglicherweise 10
nieder@@ 10
offen@@ 10
ologie 10
or 10
ort 10
passt 10
perfekt 10
persönlich 10
plötzlich 10
profitieren 10
präsentiert 10
regelmäßig 10
reich 10
reicht 10
schaft 10
sicherte 10
sofort 10
spätestens 10
staat 10
staatliche 10
ster 10
sterben 10
stieg 10
stolz 10
stre@@ 10
sw@@ 10
teilweise 10
to 10
unklar 10
unseren 10
verdient 10
verpflichtet 10
verschiedene 10
vorn 10
werk 10
wert 10
wirken 10
wünschen 10
Übernahme 10
ähnlich 10
äre 10
12. 9
120 9
13@@ 9
16@@ 9
18. 9
20. 9
2011 9
29. 9
3000 9
34 9
42 9
47 9
65 9
7. 9
8. 9
9. 9
A 9
AG 9
Abstand 9
Airbus 9
Allein 9
Alonso 9
Andere 9
Andreas 9
Anschlag 9
Anti@@ 9
Antwort 9
Arbeiten 9
Arbeitsplätze 9
Auflagen 9
Aufsichtsrat 9
Ba@@ 9
Bahn@@ 9
Bau 9
Beamte 9
Ben@@ 9
Berufs@@ 9
Bildungs@@ 9
Bochum 9
Bonn 9
Bord 9
Bre@@ 9
Brief@@ 9
Bundes 9
Christ@@ 9
Dadurch 9
Dagegen 9
Demokratie 9
Deutsch 9
Deutscher 9
Dis@@ 9
E 9
Einer 9
Einige 9
Einigung 9
Einschätzung 9
Eltern@@ 9
Erfolge 9
Euro-@@ 9
Felix 9
Fer@@ 9
Feuer 9
Finanzierung 9
Flug@@ 9
Flughafen 9
Forderung 9
Forschung 9
Frauen@@ 9
Fre@@ 9
G 9
Gas@@ 9
Gedanken 9
Geist 9
General@@ 9
Gespräche 9
Golf 9
Google 9
Grass 9
Gre@@ 9
Gro@@ 9
Grün@@ 9
Güterverkehr 9
Ha@@ 9
Haas 9
Hau@@ 9
Hei@@ 9
Herkunft 9
Hil@@ 9
Hoeneß 9
Horst 9
Hy@@ 9
Händler 9
International 9
Investitionen 9
Inzwischen 9
Jahrhundert 9
Je 9
Ju@@ 9
Juden 9
Kapital@@ 9
Karlsruhe 9
Ker@@ 9
Kilometern 9
Klimaschutz 9
Kredit@@ 9
Ku@@ 9
Kultur@@ 9
Körper 9
La@@ 9
Lager 9
Laufe 9
Lehr@@ 9
Leipzig 9
Leistungen 9
Liste 9
Literatur@@ 9
Mainz 9
Manfred 9
Mark@@ 9
Marketing@@ 9
Mensch 9
Meyer 9
Microsoft 9
Mitgliedschaft 9
Mittel@@ 9
Morgen 9
Nachbarn 9
Nationalmannschaft 9
Neuer 9
Neues 9
Norden 9
Online-@@ 9
Pan@@ 9
Patienten 9
Per@@ 9
Pl@@ 9
Positionen 9
Premier 9
Presse 9
Produkte 9
Profi 9
Profis 9
Punkt 9
Rad@@ 9
Raum 9
Regel 9
Reinhard 9
Respekt 9
Rüttgers 9
Sanktionen 9
Schaden 9
Schauspieler 9
Schnitt 9
Schw@@ 9
Simon 9
Sonne 9
Sonnen@@ 9
Sonntagabend 9
Sorge 9
Spielen 9
Spur 9
Stefan 9
Straf@@ 9
Straßen@@ 9
Street 9
Szene 9
Süd@@ 9
Tarif@@ 9
Tarifvertrag 9
Teil@@ 9
Tempo 9
Theater 9
Themen 9
Tiere 9
Tisch 9
Tour 9
Tradition 9
Traum 9
Treffer 9
Turnier 9
UN-@@ 9
Unterschied 9
Ur@@ 9
Vereinigten 9
Video 9
Volk 9
Voll@@ 9
Voraussetzungen 9
Vorgehen 9
Vorschlag 9
Vorschläge 9
Vorwürfe 9
Wahrheit 9
War@@ 9
Wechsel@@ 9
Wein@@ 9
Weiter 9
Weltmeister 9
Weltmeisterschaft 9
West 9
Wunder 9
ZDF 9
Zug@@ 9
abgesch@@ 9
ales 9
anfangen 9
angeboten 9
ant 9
ations@@ 9
ativen 9
ausfallen 9
ausreichend 9
bach 9
behaupten 9
bek@@ 9
beraten 9
berlin 9
bevor 9
bewusst 9
bieten 9
cht@@ 9
cken 9
denken 9
digen 9
dringend 9
dürfe 9
eindeutig 9
elf 9
entgegen 9
entsprechend 9
ernst 9
fer 9
fern 9
festgenommen 9
fliegen 9
fragte 9
freilich 9
früh 9
frühen 9
ft@@ 9
funktioniert 9
fürs 9
geboren 9
geh@@ 9
gehalten 9
gek@@ 9
geld 9
gelungen 9
gemeinsamen 9
genannt 9
gleiche 9
greifen 9
gs 9
gten 9
heißen 9
hen 9
herrscht 9
hundert 9
iges 9
igung 9
indes 9
inger 9
ischem 9
klingt 9
kritisiert 9
kt@@ 9
kten 9
kürzlich 9
lage 9
langen 9
lautet 9
lehnte 9
leichter 9
ler@@ 9
losen 9
lt 9
mt 9
mögliche 9
möglichst 9
ner@@ 9
offensichtlich 9
oren 9
organisiert 9
plant 9
plat@@ 9
preise 9
reagieren 9
rechten 9
retten 9
russische 9
sah 9
same 9
schafts@@ 9
schutz@@ 9
sicherlich 9
skeptisch 9
sorgen 9
sorgte 9
sowohl 9
spar@@ 9
staatlichen 9
stehe 9
steigt 9
straße 9
teilt 9
tiert 9
tig 9
traf 9
treibt 9
tt 9
unabhängig 9
unbedingt 9
unterstützen 9
unterstützt 9
unterwegs 9
van 9
verdienen 9
vereinbart 9
verlangt 9
versuchte 9
verzichten 9
vielmehr 9
voll@@ 9
vorbei 9
vorstellen 9
warnt 9
weiten 9
wies 9
x 9
y-@@ 9
zeit@@ 9
zeiten 9
zog 9
zt 9
zufrieden 9
zusätzlich 9
Ärzte 9
är 9
überraschend 9
überrascht 9
-Chef 8
.000 8
.de 8
03 8
05 8
1000 8
10@@ 8
14@@ 8
15@@ 8
17@@ 8
1995 8
1996 8
1998 8
2,5 8
24@@ 8
4. 8
43 8
45@@ 8
54 8
56 8
6. 8
85 8
Alter 8
Alters@@ 8
Am@@ 8
Arbeitgeber 8
Asien 8
Aufnahmen 8
Auftrag 8
Auftritt 8
Auseinandersetzungen 8
Ausgabe 8
Auswahl 8
Bahn-@@ 8
Ballack 8
Bayern-@@ 8
Beamten 8
Bedenken 8
Benazir 8
Berater 8
Bernd 8
Besitzer 8
Beste 8
Betreiber 8
Betrieb 8
Betroffenen 8
Bierhoff 8
Bil@@ 8
Bislang 8
Bra@@ 8
Bro@@ 8
Bu@@ 8
Bundesrepublik 8
Bundestag 8
Bus 8
Börsen 8
Christoph 8
Dach 8
Daniel 8
Dennoch 8
Dirk 8
Do@@ 8
Doppel@@ 8
Drei@@ 8
EM 8
Ehe 8
Eines 8
Einnahmen 8
Erde 8
Erhöhung 8
Erste 8
Essen 8
Falle 8
Fast 8
Favre 8
Feld 8
Fern@@ 8
Finanzmärkten 8
Flugzeuge 8
Flügel 8
Freiheit 8
Freund 8
Frings 8
Fu@@ 8
Für@@ 8
Gang 8
Gar@@ 8
Gefühl 8
Gerichtshof 8
Gewinner 8
Gipfel 8
Grad 8
Gruppen 8
Gründung 8
Gut 8
Gutachten 8
Gäste 8
Halb@@ 8
Ham@@ 8
Han@@ 8
Handy 8
Harry 8
Helmut 8
Hertha 8
Herz@@ 8
Hu@@ 8
IAA 8
Innen@@ 8
Insgesamt 8
Israel 8
Italiener 8
Jahrzehnten 8
Jung@@ 8
Kameras 8
Kanada 8
Kap@@ 8
Kapitän 8
Kat@@ 8
Kino 8
Klimawandel 8
Koch 8
Kohl 8
Kommission 8
Kompromiss 8
Konsequenzen 8
Konsumenten 8
Kor@@ 8
Kra@@ 8
Kreis 8
Kräfte 8
Kurden 8
Kurz@@ 8
Kö@@ 8
Lau@@ 8
Lehrer 8
Leverkusen 8
Lie@@ 8
Linke 8
Linken 8
Liter 8
Lohn@@ 8
Londoner 8
Lu@@ 8
Luft 8
Mailand 8
Matthias 8
Metzelder 8
Militär@@ 8
Ministerin 8
Mis@@ 8
Mitarbeitern 8
Mittwochabend 8
Mode@@ 8
Modelle 8
Morgan 8
Motto 8
Nachmittag 8
Neid 8
Netz@@ 8
Neuen 8
Nicolas 8
Niederlagen 8
Niemand 8
Norbert 8
Nordrhein-Westfalen 8
Nowitzki 8
Nutzer 8
Ob@@ 8
Orte 8
Paare 8
Pal@@ 8
Park 8
Park@@ 8
Parteien 8
Person@@ 8
Pf@@ 8
Plan 8
Polizei@@ 8
Premiere 8
Pres@@ 8
Professor 8
Pu@@ 8
Putins 8
Qualifikation 8
Ralf 8
Reform@@ 8
Regeln 8
Reihe 8
Rekord 8
Rich@@ 8
Rom 8
Rostock 8
Roth 8
Rund 8
Rücken 8
S 8
SPD-Chef 8
Sach@@ 8
Sal@@ 8
Schell 8
Schulen 8
Schutz@@ 8
Schweden 8
Schweinsteiger 8
Sendung 8
Serie 8
Sieben 8
Siemens 8
Sitzung 8
Sk@@ 8
Skandal 8
So@@ 8
Spaß 8
Spears 8
Star@@ 8
Stein@@ 8
Sterne 8
Stiftung 8
Strukturen 8
Studi@@ 8
Städte 8
Stärke 8
Stürmer 8
Team@@ 8
Teilen 8
Teilnehmer 8
Telekom 8
Terror 8
Tiefensee 8
Tu@@ 8
US-Präsident 8
Ul@@ 8
Umwelt@@ 8
United 8
Unternehmer 8
Ursachen 8
Veranstalter 8
Verbindung 8
Verdacht 8
Verfassungs@@ 8
Verlust 8
Version 8
Versuch 8
Volks@@ 8
Vorgänger 8
Vorstellung 8
Wach@@ 8
Waffen@@ 8
Wales 8
Weihnachts@@ 8
Weiter@@ 8
Weißen 8
Werder 8
Widerstand 8
Wieder@@ 8
Willen 8
Win@@ 8
Zentral@@ 8
Zug 8
Zuge 8
ach 8
allzu 8
alter 8
anderes 8
ank@@ 8
ant@@ 8
anten 8
are 8
article13@@ 8
ator 8
aufbauen 8
ausgeschlossen 8
ausgesetzt 8
barkeit 8
beendet 8
bes@@ 8
besondere 8
besuchen 8
beträgt 8
bezahlen 8
bezeichnete 8
daraus 8
del@@ 8
deten 8
dienst 8
dient 8
diesmal 8
dig 8
echten 8
ehe 8
eigener 8
einig 8
einzelne 8
enb@@ 8
ent 8
entstehen 8
entsteht 8
erscheint 8
ette 8
europäische 8
fahr@@ 8
finde 8
fre@@ 8
fälle 8
fördern 8
fühlt 8
führer 8
führten 8
führung 8
gebiet 8
gefähr@@ 8
gegen@@ 8
gegründet 8
geholt 8
gelassen 8
genannte 8
gend 8
genügend 8
gerettet 8
ges 8
geschafft 8
geschichte 8
getragen 8
gezahlt 8
gige 8
grün@@ 8
halb 8
halbe 8
halben 8
handel 8
heiten 8
hinterher 8
hoher 8
höher 8
hören 8
informiert 8
inklusive 8
irgendwann 8
it 8
ität 8
itäts@@ 8
jähriger 8
ka 8
kritisch 8
leiden 8
leider 8
letzter 8
links 8
län@@ 8
m-@@ 8
machten 8
maßnahmen 8
miteinander 8
ms 8
mutmaßlichen 8
möglichen 8
nah@@ 8
nde 8
notierte 8
nt 8
nung 8
onen 8
optimistisch 8
plus 8
positiv 8
programm 8
rat 8
re 8
rechts 8
reise 8
sage 8
sam 8
schafft 8
schaffte 8
schlag 8
schloss 8
schneller 8
schönen 8
seite 8
selbstverständlich 8
senken 8
sinken 8
sitzen 8
sm@@ 8
solange 8
spielte 8
sprecher 8
starten 8
stattfinden 8
stellvertretende 8
stra@@ 8
tel 8
tliche 8
tot 8
tungs@@ 8
tä@@ 8
türkischen 8
ungs- 8
ur 8
ve 8
verb@@ 8
verband 8
vergangene 8
veröffentlichte 8
voraus 8
wachsenden 8
wahrscheinlich 8
warf 8
warnte 8
welcher 8
wesentlich 8
wider@@ 8
wirbt 8
y 8
zahlreichen 8
zi@@ 8
ziemlich 8
zig 8
zug 8
zwei@@ 8
zweimal 8
zweit@@ 8
Äußerungen 8
Öl@@ 8
ße 8
ältere 8
äußerte 8
überlegen 8
übernimmt 8
überzeugen 8
02.10.2007 7
09.10.2007 7
1,5 7
10.@@ 7
1990 7
2013 7
22. 7
23. 7
23.09.2007 7
25. 7
26. 7
28.08.2007 7
29@@ 7
36@@ 7
5000 7
6,@@ 7
62 7
7,@@ 7
8000 7
87@@ 7
9,@@ 7
93 7
ARD 7
Ackermann 7
Alt@@ 7
Angeles 7
Anne 7
Anspruch 7
Anstieg 7
Arbeiter 7
Arbeitnehmer 7
Aufklärung 7
Aufschwung 7
Aufstieg 7
Ausbildung 7
Auseinandersetzung 7
Aussagen 7
Aussicht 7
Ausstellung 7
BMW 7
Bagdad 7
Begegnung 7
Berg@@ 7
Beruf 7
Bet@@ 7
Beteiligten 7
Betriebs@@ 7
Bhuttos 7
Bier 7
Bio@@ 7
Boden 7
Boden@@ 7
Bor@@ 7
Borussia 7
Bri@@ 7
Britney 7
Bruder 7
Bundeswehr 7
Butter 7
Bühnen@@ 7
Büro 7
CDU-Politiker 7
CSU-@@ 7
Cent 7
DDR 7
Dank 7
Darüber 7
Dem@@ 7
Demokraten 7
Demonstranten 7
Dienste 7
Dr. 7
Dreh@@ 7
Duell 7
EU-Kommission 7
EZB 7
Ecke 7
Ehefrau 7
Einmal 7
Eon 7
Erinnerung 7
Erkenntnisse 7
Ernst 7
Etwa 7
Euro@@ 7
Fahrzeug 7
Fein@@ 7
Fernando 7
Film@@ 7
Filme 7
Fl@@ 7
Flugzeug 7
Ford 7
Frank-Walter 7
Frei@@ 7
Fremd@@ 7
Freundin 7
Frieden 7
Fritz 7
Ganz 7
Geb@@ 7
Geburtstag 7
Gemeinschaft 7
Georg 7
Geräte 7
Gest@@ 7
Get@@ 7
Gleichzeitig 7
Go@@ 7
Gold@@ 7
Griechenland 7
Griff 7
Größe 7
Gu@@ 7
Günther 7
Halbfinale 7
Halbjahr 7
Handel@@ 7
Hauses 7
Heimat@@ 7
Hunderte 7
Höhepunkt 7
IT-@@ 7
Indi@@ 7
Inhalte 7
Insel 7
Institut 7
Investor 7
Jahrzehnte 7
Jens 7
Jones 7
Julia 7
K. 7
Kabinett 7
Kam@@ 7
Kamp@@ 7
Kan@@ 7
Kate 7
Kauder 7
Kern 7
Koalitions@@ 7
Konzern@@ 7
Konzerne 7
Kooperation 7
Kre@@ 7
Krisen@@ 7
Kunde 7
Kurse 7
Können 7
L 7
Landtag 7
Lang@@ 7
Lebensmittel 7
Li@@ 7
Licht 7
Lin@@ 7
Linkspartei 7
Los 7
Löwen 7
Mal@@ 7
Mangel 7
Marco 7
Marke 7
McLaren-Mercedes 7
Mehdorn 7
Meine 7
Metro 7
Mi@@ 7
Mie@@ 7
Milliarden@@ 7
Minus 7
Miss@@ 7
Mittelfeld 7
Mittelpunkt 7
Mol@@ 7
Moment 7
Mutter@@ 7
Name 7
Nationen 7
Neben@@ 7
Neuwahlen 7
Nichts 7
Nokia 7
O 7
Oper@@ 7
Ordnung 7
Pap@@ 7
Pauli 7
Person 7
Phänomen 7
Planeten 7
Plastik@@ 7
Podolski 7
Prinz 7
Produkt 7
Protest 7
Reaktion 7
Regionen 7
Reis@@ 7
Religion 7
Republik 7
Rest 7
Revolution 7
Ri@@ 7
Roten 7
Ruhe 7
Rund@@ 7
Russen 7
Rückgang 7
Sa@@ 7
Sar@@ 7
Schauspielerin 7
Schl@@ 7
Schlussmann 7
Schlüssel 7
Schn@@ 7
Schäden 7
Sech@@ 7
Seither 7
Sen@@ 7
Sender 7
Software 7
Sorgen 7
Spanier 7
Spor@@ 7
Sprache 7
St. 7
Stadion 7
Stamm@@ 7
Statt 7
Steuern 7
Stimmen 7
Streifen 7
Streik@@ 7
Studien@@ 7
Sturm 7
Sub@@ 7
TV-@@ 7
Tages@@ 7
Teile 7
Ter@@ 7
Theater@@ 7
Tiefe 7
Tier@@ 7
Tode 7
Ton@@ 7
Toni 7
Torhüter 7
Toten 7
Tr@@ 7
Truppen 7
Tschechien 7
US-Dollar 7
Ulrich 7
Unfall 7
Universitäten 7
Unser 7
Unsicherheit 7
Vattenfall 7
Verdi 7
Verdächtigen 7
Vereinigung 7
Verfassung 7
Vergabe 7
Verk@@ 7
Verkehr 7
Verluste 7
Verpflichtung 7
Versicherungs@@ 7
Vertrauen 7
Vertrieb@@ 7
Vorbereitung 7
Vorfeld 7
Vorhaben 7
Vorjahres@@ 7
Vorsprung 7
Wachstum@@ 7
Wagen 7
Wall@@ 7
Wann 7
Wel@@ 7
Wert@@ 7
Wien 7
Wind 7
Winter 7
Wissen 7
Wohl@@ 7
Wohn@@ 7
Wohnung 7
World 7
ZEIT 7
Zer@@ 7
Ziele 7
Zone 7
Zugang 7
Zumindest 7
Zuvor 7
Züge 7
age 7
akzeptieren 7
alität 7
amerikanischer 7
anstehenden 7
arbeitet 7
aren 7
ative 7
aufgegeben 7
ausschließlich 7
außen 7
banken 7
bat 7
bau@@ 7
befinden 7
begeistert 7
behauptet 7
bekam 7
bergen 7
berichten 7
beru@@ 7
bestimmte 7
bestätigen 7
bewertet 7
bisherige 7
chinesischen 7
cke 7
cker 7
d-@@ 7
damaligen 7
darum 7
daten 7
dauern 7
dauerte 7
diejenigen 7
dienen 7
dige 7
dlich 7
drei@@ 7
dro@@ 7
druck 7
ds 7
dung 7
durfte 7
eller 7
elte 7
ente 7
entscheidet 7
entsprechenden 7
erfolgreichen 7
erhält 7
erhöht 7
erlebt 7
erlitten 7
erreichte 7
ersch@@ 7
erschossen 7
erter 7
erzielt 7
extrem 7
fach@@ 7
fehlt 7
fen@@ 7
fern@@ 7
festgelegt 7
festgestellt 7
finanziell 7
form 7
fort 7
fähig 7
fünf@@ 7
galt 7
garantiert 7
geblieben 7
gef@@ 7
gefahr 7
gefährdet 7
geln 7
genannten 7
gerechnet 7
gerecht 7
geriet 7
gerät 7
gesp@@ 7
gestorben 7
gezeigt 7
geöffnet 7
gl@@ 7
gleichzeitig 7
griechischen 7
grund@@ 7
gruppen 7
gründen 7
hafte 7
halt 7
heftige 7
heim 7
herr@@ 7
hinter@@ 7
hof 7
händler 7
hängen 7
ile 7
ing 7
innen 7
insbesondere 7
intensiv 7
investieren 7
kal@@ 7
kehrt 7
kleiner 7
konservative 7
kosten@@ 7
ktion 7
kämpfen 7
kündigt 7
land@@ 7
lang@@ 7
langer 7
lauf@@ 7
leute 7
lief 7
liefern 7
ließen 7
lobt 7
mehr@@ 7
meinte 7
mel@@ 7
mutmaßliche 7
nis@@ 7
nord@@ 7
näher 7
organisieren 7
orienti@@ 7
passieren 7
pel 7
persönliche 7
politisches 7
positiven 7
ppe 7
preis 7
privaten 7
quote 7
r 7
raten 7
raum 7
reagiert 7
rechtzeitig 7
reiche 7
reifen 7
rein 7
reisen 7
rief 7
ruft 7
ruhig 7
rück@@ 7
schef 7
scheinbar 7
scheinen 7
schicken 7
schien 7
schlagen 7
schließen 7
schwerer 7
selber 7
sender 7
sichere 7
sieg 7
sitz 7
soziale 7
sparen 7
spieler 7
spielten 7
spät 7
späten 7
spürbar 7
stabil 7
stabil@@ 7
stand@@ 7
stellten 7
steuern 7
stiegen 7
stil@@ 7
sto@@ 7
strei@@ 7
stärksten 7
sü@@ 7
süd@@ 7
t.html 7
teil 7
teure 7
teurer 7
tief 7
umstrittenen 7
unbe@@ 7
unten 7
unterscheiden 7
ursprünglich 7
ven 7
verfolgt 7
verfügen 7
verhindert 7
verlangen 7
verliert 7
verschiedenen 7
verstärkt 7
versuchten 7
vertreten 7
vorgelegt 7
vorgeworfen 7
vorher 7
warnen 7
wechsel 7
welt 7
wichtiger 7
wichtigsten 7
wiederum 7
wirtschafts@@ 7
wonach 7
www.spiegel.de 7
wächst 7
wählen 7
ys 7
zahl 7
zeichen 7
zentrum 7
zer 7
zerstört 7
zugänglich 7
zuzu@@ 7
zweiter 7
zählen 7
Ärzten 7
ßen 7
äu@@ 7
übrigen 7
-M@@ 6
-P@@ 6
-jährige 6
00.html 6
06 6
1,2 6
11.@@ 6
126@@ 6
13,@@ 6
15. 6
150 6
17,@@ 6
1994 6
20-@@ 6
20.09.2007 6
21.11.2007 6
23.11.2007 6
250 6
25@@ 6
27. 6
29.08.2007 6
3,3 6
3-@@ 6
30.000 6
30@@ 6
31 6
4,2 6
50.000 6
51 6
69@@ 6
700 6
78 6
86@@ 6
Ab 6
Abitur 6
Absage 6
Abschied 6
Affäre 6
Air 6
Aktuell 6
Album 6
All 6
Allgemeinen 6
Allianz 6
Amerikanern 6
Amerikas 6
Amtszeit 6
Ankündigung 6
Anschläge 6
Anteile 6
Anti-Doping-@@ 6
Anträge 6
Antworten 6
Anwohner 6
Arbeit@@ 6
Arm 6
Arme 6
Armut 6
Artikel 6
Aufmerksamkeit 6
Ausnahme 6
Ausnahmen 6
Australien 6
Auswertung 6
Auswärtsspiel 6
Aut@@ 6
Autobauer 6
Autoindustrie 6
Automobil@@ 6
B-@@ 6
BSC 6
Bal@@ 6
Ban@@ 6
Bar 6
Baum 6
Beck@@ 6
Befürchtungen 6
Beine 6
Bekenntnis 6
Bel@@ 6
Berichten 6
Bes@@ 6
Besch@@ 6
Beschäftigte 6
Besonders 6
Bewohner 6
Bilderserie 6
Bildmaterial 6
Bildung 6
Bl@@ 6
Bob 6
Boris 6
Botschaft 6
Brand 6
Briten 6
Brü@@ 6
Buchmesse 6
Bundesländern 6
Bundesverband 6
Bus@@ 6
Börsianer 6
Büros 6
CDU-@@ 6
Center 6
Champions-League-@@ 6
Chaos 6
Charakter 6
Chinesen 6
Comeback 6
Darmstadt 6
Dauer 6
Dax 6
Dennis 6
Diesel 6
Diplomaten 6
Distanz 6
Doping 6
Doping@@ 6
Dritten 6
Du 6
Du@@ 6
EM@@ 6
Eig@@ 6
Einheit 6
Einrichtungen 6
Einwohner 6
End@@ 6
Entdeckung 6
Erd@@ 6
Ermittler 6
Euphorie 6
FDP-@@ 6
Fahrzeuge 6
Fal@@ 6
Fan@@ 6
Far@@ 6
Fe@@ 6
Finanzbranche 6
Finger 6
Fischer 6
Fleisch 6
Fol@@ 6
Formel-1-@@ 6
Fraktionsvorsitzende 6
Franck 6
Franzosen 6
Freude 6
Freundschaft 6
Förderung 6
Gebühren 6
Gedanke 6
Geduld 6
Gefahren 6
Gegensatz 6
Gegenteil 6
Geheim@@ 6
Geheimnis 6
Gelegenheit 6
Ges@@ 6
Gesamtjahr 6
Gesundheit 6
GmbH 6
Gore 6
Grenz@@ 6
Grünen-@@ 6
Göttingen 6
Haf@@ 6
Hal@@ 6
Halle 6
Handel 6
Hansa 6
Heimspiel 6
Herbst 6
Herman 6
Herzen 6
Hinweis 6
Hochschule 6
Hochschulen 6
Hochtief 6
Hol@@ 6
Holz@@ 6
Hotel 6
Hum@@ 6
Hän@@ 6
Härte 6
Häuser 6
Hör@@ 6
Hü@@ 6
Ihm 6
Ihren 6
Ingenieure 6
Initiative 6
Islam@@ 6
Island 6
Istanbul 6
Jahresende 6
Jahrhunderts 6
Jan 6
Je@@ 6
Johannes 6
Jugend@@ 6
Jugendliche 6
Jungen 6
Juristen 6
Jury 6
Justiz@@ 6
K 6
Kaczynski 6
Kader 6
Kaiser 6
Kal@@ 6
Kampagne 6
Kapital 6
Kauf@@ 6
Ke@@ 6
Kiel 6
Kin@@ 6
Kirch 6
Konferenz 6
Konflikt 6
Konjunktur@@ 6
Kontakte 6
Konto 6
Kontroll@@ 6
Konzerns 6
Kop@@ 6
Korruption 6
Kosten@@ 6
Kredite 6
Kreuz@@ 6
Kul@@ 6
König 6
König@@ 6
Laden 6
Lama 6
Landesregierung 6
Landgericht 6
Leiche 6
Leiter 6
Leyen 6
Lieblings@@ 6
Lions 6
Liquidität 6
Lukas 6
Länderspiel 6
Mach@@ 6
Mad@@ 6
Mag@@ 6
Magazin 6
Maria 6
Mario 6
Markt@@ 6
Markus 6
Maschine 6
Maschinen@@ 6
Mauer 6
Meist 6
Menschen@@ 6
Merrill 6
Mil@@ 6
Milbradt 6
Militär 6
Million 6
Mindest@@ 6
Ministerium 6
Ministerpräsidenten 6
Mitgliedern 6
Mode 6
Modell 6
Mor@@ 6
Mord 6
Motiv 6
Motor@@ 6
Mourinho 6
Mönche 6
Mühe 6
Münchener 6
NPD 6
Na 6
Nato 6
Naumann 6
Niederlande 6
Nor@@ 6
Norwegen 6
Nutzung 6
Oliver 6
Onlin@@ 6
Opposition@@ 6
Ost 6
Ottmar 6
Otto 6
PKK 6
Parlamentswahl 6
Parteitag 6
Partnerschaft 6
Pause 6
Personal 6
Pocher 6
Polit@@ 6
Politikern 6
Post@@ 6
Pra@@ 6
Praxis 6
Problem@@ 6
Produktion@@ 6
Prognosen 6
Protest@@ 6
Prozent@@ 6
Prüf@@ 6
RWE 6
Rainer 6
Rande 6
Rang 6
Raum@@ 6
Reformen 6
Regen@@ 6
Regie 6
Reich@@ 6
Reihen 6
Rendite 6
Revision 6
Rote 6
S-@@ 6
S. 6
SC 6
Sachen 6
Sachsen 6
Sam@@ 6
Sammlung 6
San@@ 6
Schalker 6
Schau@@ 6
Schiedsrichter 6
Schiff 6
Schlagzeilen 6
Schneider 6
Schwimmen 6
Sehr 6
Seiten@@ 6
Senat 6
Service 6
Sh@@ 6
Show 6
Sicherheit@@ 6
Sie@@ 6
Sieg@@ 6
Slomka 6
Sony 6
Spannung 6
Spieltag 6
Sprach@@ 6
Sta@@ 6
Stahl@@ 6
Star 6
Stars 6
Steinbrück 6
Stern 6
Sti@@ 6
Stil 6
Stre@@ 6
Streit@@ 6
Strom@@ 6
Summen 6
Syrien 6
System 6
Sü@@ 6
Süden 6
T-@@ 6
Tabellen@@ 6
Tages 6
Tat@@ 6
Tausende 6
Tel@@ 6
Texte 6
Titel@@ 6
Torwart 6
Touristen 6
Trau@@ 6
Tro@@ 6
Tränen 6
Tschechen 6
UN@@ 6
Ukraine 6
Umfang 6
Umwelt 6
Unglück 6
Uni 6
Unsere 6
Unternehmen@@ 6
Unternehmens 6
Verantwortlichen 6
Verbot 6
Verbrauch 6
Verlauf 6
Verletzung 6
Verletzungen 6
Versicherung 6
Verständnis 6
Veränderungen 6
VfL 6
Vide@@ 6
Viel 6
Vier@@ 6
Vizepräsident 6
Voraussetzung 6
Vorstandschef 6
Vorstoß 6
Waffen 6
Wahlen 6
Wahlkampf@@ 6
Wald 6
Wall 6
Weihnachten 6
Werke 6
Westeuropa 6
Wetter 6
Wind@@ 6
Winter@@ 6
Wirklichkeit 6
Wo 6
Wohnungs@@ 6
Währ@@ 6
Yen 6
Z 6
Zehn@@ 6
Zentralbank 6
Zw@@ 6
Zweiten 6
Zwischen@@ 6
Zypries 6
abgelehnt 6
absol@@ 6
afrikanischen 6
aler 6
alismus 6
allenfalls 6
amt 6
angebliche 6
angenommen 6
angeschlagen 6
anische 6
anschauen 6
anschließend 6
anti@@ 6
arbeit@@ 6
art 6
arti@@ 6
asiatischen 6
aufgefordert 6
ausdrücklich 6
ausführlich 6
ausgegangen 6
ausgerechnet 6
ausgesch@@ 6
ausgezeichnet 6
ausverkauften 6
bahn 6
bedarf 6
befindet 6
befürchten 6
begleitet 6
behandelt 6
beobachtet 6
bereich 6
bereiten 6
bericht 6
berühmten 6
beschlossen 6
beschuldigt 6
beschäftigt 6
besetzt 6
bestehe 6
bestehen 6
bestätigte 6
betont 6
betrachtet 6
betroffenen 6
big 6
billiger 6
brauche 6
breit 6
bricht 6
buch@@ 6
bundes@@ 6
bundesweit 6
ce 6
chs 6
ckt 6
damalige 6
dar 6
demnächst 6
demokratischen 6
denkt 6
deutliche 6
dich 6
dien@@ 6
dienst@@ 6
dienste 6
doppelt 6
dran 6
drehen 6
drehte 6
eien 6
eingesch@@ 6
einzelnen 6
emp@@ 6
empfangen 6
endgültig 6
ener 6
entgegen@@ 6
entweder 6
enver@@ 6
enz 6
erforderlich 6
erfüllen 6
erhielten 6
erhoben 6
erklärten 6
erobern 6
erzielte 6
famili@@ 6
fel@@ 6
feld 6
finanziert 6
firma 6
firmen 6
fl@@ 6
fliegt 6
forscher 6
fortan 6
freien 6
freiheit 6
freuen 6
fried@@ 6
fähigkeit 6
gebaut 6
gedacht 6
gegenseitig 6
geheim 6
geklärt 6
gekostet 6
gelang 6
gelaufen 6
gemein@@ 6
gemeint 6
gemeldet 6
genutzt 6
geprüft 6
geradezu 6
gerin 6
geringer 6
geschlagen 6
geschrieben 6
gesetzlich 6
gesucht 6
getroffen 6
gezwungen 6
geäußert 6
gliche 6
grenze 6
größ@@ 6
haft 6
haften 6
hand@@ 6
heimischen 6
hersteller 6
hervor@@ 6
historischen 6
hob 6
holte 6
html 6
hängt 6
häufiger 6
ide@@ 6
ierter 6
igkeit 6
ina 6
ingen 6
ingt 6
interessant 6
irakischen 6
ise 6
istischen 6
jahr 6
k-@@ 6
kan@@ 6
keinem 6
klagte 6
km 6
ko 6
kommende 6
kra@@ 6
kritisieren 6
kur@@ 6
kurzem 6
kurzfristig 6
laden 6
laufende 6
laufenden 6
lerin 6
ligen 6
linken 6
locken 6
ls 6
länder 6
mach@@ 6
mann@@ 6
marke 6
mel 6
mi@@ 6
mittel@@ 6
mm@@ 6
möglichkeiten 6
nahezu 6
nationalen 6
nen@@ 6
netz 6
ns 6
o-@@ 6
online 6
operiert 6
persönlichen 6
politischer 6
produziert 6
prä@@ 6
psych@@ 6
punkt 6
rat@@ 6
reine 6
ren 6
rote 6
runde 6
samen 6
sch 6
schaft@@ 6
schaften 6
schauen 6
schlechte 6
schlechten 6
schließt 6
schlug 6
scht 6
schte 6
schuldig 6
schutz 6
schwachen 6
schwei@@ 6
schä@@ 6
schön 6
see 6
situation 6
sozialen 6
sport@@ 6
sprache 6
sprachen 6
sprung 6
stag 6
stammt 6
stehende 6
steigende 6
stein@@ 6
stelle 6
stände 6
stücke 6
stünden 6
tausend 6
technik 6
teile 6
tert 6
teste 6
th 6
tief@@ 6
tieren 6
tigt 6
tigung 6
tm@@ 6
treiben 6
trug 6
tungen 6
türkische 6
umgekehrt 6
unge@@ 6
ungewöhnlich 6
ungsab@@ 6
ure 6
ven@@ 6
verbot 6
verboten 6
verbringen 6
verbände 6
vereinbarten 6
verfolgen 6
verhandelt 6
verkaufen 6
verl@@ 6
verletzten 6
verlängert 6
vers@@ 6
verschafft 6
verteidigen 6
vertrag 6
vertrauen 6
vertreter 6
veröffentlichten 6
vieler 6
volle 6
vollen 6
voraus@@ 6
wagen 6
wahl 6
wahr 6
wal@@ 6
weisen 6
weist 6
werks 6
west@@ 6
westlichen 6
wichtigen 6
wisse 6
ys@@ 6
zeigten 6
zentrale 6
zogen 6
zone 6
zte 6
zukommen 6
zung 6
Ölpreis 6
Übernahme@@ 6
ähnlichen 6
ären 6
-Re@@ 5
0,7 5
0-@@ 5
0.000 5
1,1 5
1,4@@ 5
1,6 5
1-@@ 5
10.000 5
11,@@ 5
11.10.2007 5
123@@ 5
124@@ 5
13.@@ 5
14.10.2007 5
16.11.2007 5
17.09.2007 5
18.09.2007 5
2012 5
23,@@ 5
29,@@ 5
31. 5
38@@ 5
40@@ 5
41 5
48@@ 5
5. 5
58 5
59 5
64 5
66 5
68@@ 5
71 5
74 5
8,@@ 5
800 5
91 5
98,@@ 5
A-@@ 5
ALG 5
Aachen 5
Abteilung 5
Abwehr@@ 5
Agrar@@ 5
Airlines 5
Akademie 5
Aktien@@ 5
Aktienmarkt 5
Aktionen 5
Al 5
Alte 5
Alten 5
Altkanzler 5
American 5
Amts@@ 5
Analyse 5
Andrea 5
Andrew 5
Angelegenheit 5
Angreifer 5
Anleihen 5
Anschließend 5
Ansehen 5
Ant@@ 5
Anzeigen@@ 5
Apple 5
Arbeitskampf 5
Armen 5
At@@ 5
Aufgrund 5
Aufsehen 5
Aufsteiger 5
Ausgaben 5
Auslands@@ 5
Ausmaß 5
Ausstand 5
Ausstoß 5
Autobahn 5
Außenpolitik 5
Av@@ 5
BBC 5
Bade@@ 5
Baden-Württemberg 5
Ball@@ 5
Band@@ 5
Barrel 5
Bas@@ 5
Bauern 5
Bedingungen 5
Behörde 5
Behörden@@ 5
Bei@@ 5
Beitrag 5
Beitrags@@ 5
Belgien 5
Ben 5
Benzin@@ 5
Beobachter 5
Bereitschaft 5
Berlin-@@ 5
Bern@@ 5
Bernotat 5
Beschluss 5
Bestand 5
Betreuungsgeld 5
Betriebsrat 5
Bett 5
Bettini 5
Bewegung 5
Bewertung 5
Beziehung 5
Bezirk 5
Bezugsdauer 5
Bier@@ 5
Bilanz 5
Birma 5
Blackwater 5
Blau@@ 5
Bol@@ 5
Bombe 5
Boo@@ 5
Boss 5
Brasilianer 5
Brasilien 5
British 5
Brown 5
Bru@@ 5
Bundesliga-@@ 5
Bur@@ 5
Bushs 5
Böh@@ 5
Börsengang 5
Büchern 5
Bütikofer 5
CD 5
Chef@@ 5
Chris 5
Christiane 5
Clemens 5
Clubs 5
Co. 5
Cottbus 5
Coup 5
DEL 5
Dalai 5
Darstellung 5
Dauer@@ 5
Daum 5
Demnach 5
Design 5
Dick 5
Die@@ 5
Diego 5
Dienstagabend 5
Dieses 5
Dimension 5
Dingen 5
Direktor 5
Diskussionen 5
Dre@@ 5
Dresden 5
Dresdner 5
Dritter 5
Dro@@ 5
Drogen@@ 5
Düsseldorf 5
EM-Qualifikationsspiel 5
Ehemann 5
Ehre 5
Eigentümer 5
Eindruck 5
Eintracht 5
Eisen@@ 5
Elisabeth 5
Emissionen 5
Emp@@ 5
Entschuldigung 5
Entwicklungs@@ 5
Erdogan 5
Erfüllung 5
Erlöse 5
Erreichen 5
Ersten 5
Eva 5
Exil 5
Existenz 5
Explosion 5
Extremisten 5
F 5
F.A.Z. 5
Fachleute 5
Fahrt 5
Favorit 5
Fazit 5
Feld@@ 5
Filmen 5
Films 5
Finanzen 5
Finanzinvestoren 5
Firmen@@ 5
Flugzeug@@ 5
Fo@@ 5
Fokus 5
Fort@@ 5
Fortsetzung 5
Fra@@ 5
Francisco 5
Freiburger 5
Freiheits@@ 5
Freistoß 5
Frieden@@ 5
Fun@@ 5
Fußball-Bundesliga 5
Fußballs 5
Förder@@ 5
Gal@@ 5
Ged@@ 5
Geheimdienst 5
Gelände 5
Gem@@ 5
Gemein@@ 5
Generalsekretär 5
Gerechtigkeit 5
Geschenke 5
Geschichten 5
Geschmack 5
Geschäftsjahr 5
Gesetze 5
Gesetzes 5
Glas 5
Glas@@ 5
Glasgow 5
Glos 5
Gottes 5
Group 5
Großteil 5
Grundlage 5
Grundversorgung 5
Größenordnung 5
Gründe 5
Guido 5
Gutes 5
Gül 5
Günter 5
HSV 5
HSV-@@ 5
Haben 5
Handeln 5
Handy-@@ 5
Hans 5
Hartmut 5
Hel@@ 5
Herausforderung 5
Herren 5
Himmel 5
Hinweise 5
Hollywood 5
Hongkong 5
Hotel@@ 5
Hun@@ 5
Hut 5
Hände 5
Händen 5
Hö@@ 5
IG 5
II 5
Ideen 5
Identität 5
Industri@@ 5
Informations@@ 5
Instituts 5
Inszenierung 5
Internationalen 5
Is@@ 5
Islam 5
Islamabad 5
J. 5
Jagd 5
Joe 5
Junge 5
Justiz 5
Jörg 5
Jün@@ 5
KS@@ 5
KSC 5
Kabul 5
Kampf@@ 5
Kanzler@@ 5
Karin 5
Karte 5
Kartellamt 5
Katastrophe 5
Keeper 5
Keller 5
Kenn@@ 5
Kießling 5
Kim 5
Klar 5
Klima@@ 5
Komp@@ 5
Konservativen 5
Konsum@@ 5
Kontakt 5
Konzentration 5
Korrektur 5
Kraft@@ 5
Kreis@@ 5
Kunden@@ 5
Künftig 5
Künst@@ 5
L-@@ 5
Lafontaine 5
Lam@@ 5
Lan@@ 5
Lastwagen 5
Lauf@@ 5
Lebensmittel@@ 5
Lebensmitteln 5
Lei@@ 5
Leit@@ 5
Leitartikel 5
Lern@@ 5
Lesen 5
Lessing 5
Liefer@@ 5
Link@@ 5
Lob 5
Loch 5
Lokführergewerkschaft 5
Luft@@ 5
Läden 5
Lü@@ 5
Mainzer 5
Manchester 5
Mann@@ 5
Mannschaften 5
Marathon 5
Marktteilnehmer 5
Mars 5
Masse 5
Maße 5
Mc@@ 5
Meer 5
Meinungs@@ 5
Meisner 5
Meisters 5
Menschenrechte 5
Mer@@ 5
Messe@@ 5
Mexiko 5
Migranten 5
Milliarde 5
Millionen-@@ 5
Millionen@@ 5
Minder@@ 5
Mirko 5
Mittelfeldspieler 5
Modernis@@ 5
Motor 5
Mus@@ 5
Musi@@ 5
Muss 5
Märkten 5
Mö@@ 5
NRW-@@ 5
Nad@@ 5
Nah@@ 5
Nahverkehr 5
Nieder@@ 5
Nordirak 5
Notenbank 5
Nu@@ 5
Nutz@@ 5
Obersten 5
Oper 5
Oppositionsführer 5
Organisatoren 5
Paar 5
Parlamentarische 5
Parteitags@@ 5
Pas@@ 5
Pflicht@@ 5
Philipp 5
Pilot 5
Piloten 5
Piräus 5
Plattform 5
Platz@@ 5
Plötzlich 5
Pol@@ 5
Polizist 5
Porträt 5
Presse@@ 5
Pressekonferenz 5
Prof@@ 5
Psych@@ 5
Psychologen 5
Quadratmeter 5
RTL 5
Ras@@ 5
Raub@@ 5
Rech@@ 5
Rechnung 5
Recht@@ 5
Rechts 5
Red@@ 5
Regelung 5
Regen 5
Regierungschefin 5
Reise@@ 5
Rekordmeister 5
Rensing 5
Rente 5
Republikaner 5
Rest@@ 5
Ret@@ 5
Rhein-Main-@@ 5
Risiken 5
Risiko@@ 5
Rivalen 5
Rock 5
Rock@@ 5
Rohstoffe 5
Rudolf 5
Ruf 5
Röttgen 5
Rückstand 5
Rückzug 5
SAP 5
SZ 5
Sand@@ 5
Santa 5
Schal@@ 5
Schanghai 5
Schein@@ 5
Schil@@ 5
Schlüssel@@ 5
Scho@@ 5
Schreiben 5
Schulden 5
Schumacher 5
Schwarze 5
Schwarzenegger 5
Schwer@@ 5
Schön@@ 5
Scott 5
See 5
Seitdem 5
Sem@@ 5
Senator 5
Ser@@ 5
Serbien 5
Sex 5
Sexual@@ 5
Si@@ 5
Signal 5
Sil@@ 5
Silvia 5
Sind 5
Slowakei 5
Sol@@ 5
Sommer@@ 5
Sor@@ 5
Sozi@@ 5
Sozialdemokraten 5
Sozialismus 5
Sparte 5
Spitzenreiter 5
Staats- 5
Stad@@ 5
Stadtwerke 5
Stand@@ 5
Start@@ 5
Stein 5
Stellung 5
Ster@@ 5
Stern@@ 5
Steuer 5
Steven 5
Stevens 5
Stich@@ 5
Stoibers 5
Stra@@ 5
Strom 5
Studien 5
Studio 5
Studium 5
Sturm@@ 5
System@@ 5
Südafrika 5
TV 5
Tabellen-@@ 5
Tal@@ 5
Tatsächlich 5
Teamchef 5
Technologie 5
Telefon 5
Telefon@@ 5
Telekom-@@ 5
Terrain 5
Test@@ 5
Tests 5
Ti@@ 5
Tier 5
Tim 5
Timo 5
Titelverteidiger 5
Todes@@ 5
Torsten 5
Tottenham 5
Tour@@ 5
Toyota 5
Trainer@@ 5
Transnet 5
Trikot 5
Turbulenzen 5
Turm 5
Tür@@ 5
Türken 5
U-@@ 5
Ullrich 5
Umgebung 5
Umsatz@@ 5
Umständen 5
Unfall@@ 5
Unis 5
Veranstaltung 5
Verb@@ 5
Vereinbarung 5
Vereins 5
Vereinten 5
Vergewaltigung 5
Verkauf@@ 5
Verkehrsminister 5
Verleger 5
Versicherer 5
Vertragsverlängerung 5
Verträge 5
Video@@ 5
Viertel 5
Vit@@ 5
Vo@@ 5
Vogt 5
Vol@@ 5
Vorbild 5
Vorfall 5
Vorgaben 5
Vorlage 5
Vorschriften 5
Vorsitzender 5
Vorteil 5
Vorwurf 5
W 5
Wag@@ 5
Wagner 5
Warnungen 5
Weihnachtsgeschäft 5
Welle 5
Weltrekord 5
Wen 5
Werk@@ 5
Wertpapiere 5
Wichtig 5
Wieder 5
Wiener 5
Wies@@ 5
Wo@@ 5
Wochen@@ 5
Wol@@ 5
Wur@@ 5
Wähler 5
Zauber@@ 5
Ze@@ 5
Zeitschrift 5
Zeitungen 5
Zellen 5
Zerschlagung 5
Zins@@ 5
Zinsen 5
Zivilisten 5
Zwangs@@ 5
Zähler 5
abel 5
abgegeben 5
abgel@@ 5
aktien 5
alarm@@ 5
alleine 5
allgemein 5
ang 5
angaben 5
angebot 5
anne 5
ante 5
anteil 5
ap 5
arbeits@@ 5
ate 5
attackiert 5
atur 5
aufeinander 5
auff@@ 5
aufgebaut 5
aufgestellt 5
ausgaben 5
ausgebaut 5
ausgehen 5
ausgestellt 5
ausländische 5
ausländischen 5
ausschuss 5
aussieht 5
australischen 5
auto@@ 5
ba 5
ball 5
ban@@ 5
bedeuten 5
beenden 5
befragten 5
begrenzen 5
behandeln 5
beider 5
beides 5
bemüht 5
bereit@@ 5
bers 5
berücksichtigt 5
beschreibt 5
besitzt 5
besonderen 5
besseren 5
bestens 5
besucht 5
beteiligten 5
betreiben 5
bew@@ 5
bewaffneten 5
bewerten 5
bewährt 5
bezahlt 5
bil@@ 5
bilden 5
bleibe 5
bloß 5
bra@@ 5
brach 5
brachten 5
brand@@ 5
bten 5
buch 5
bund 5
bungen 5
c 5
chter 5
chtung 5
dauerhaft 5
decken 5
deln 5
dene 5
der-@@ 5
desto 5
di 5
dienstleister 5
digitalen 5
direkte 5
diskutiert 5
dominiert 5
draußen 5
dreh@@ 5
drohten 5
drängt 5
drückte 5
dungs@@ 5
durchzusetzen 5
echte 5
ei 5
eigenes 5
eineinhalb 5
eingreifen 5
einiges 5
einlegen 5
einsatz 5
einsetzen 5
eis@@ 5
el-@@ 5
emen 5
endes 5
ener@@ 5
eng@@ 5
englische 5
enh@@ 5
enn@@ 5
enormen 5
enter 5
entlang 5
entlassen 5
entlich 5
entsprechende 5
entspricht 5
entstanden 5
entwicklung 5
entwurf 5
erei 5
erenden 5
erfasst 5
erfolgreichste 5
erhöhen 5
erinnern 5
erkennbar 5
erlitt 5
ermittelt 5
ermöglichen 5
ernsthaft 5
erwarte 5
eröffnen 5
eröffnet 5
esen 5
esische 5
ete 5
etlichen 5
ett 5
ewigen 5
experten 5
f-@@ 5
fachen 5
fahrt 5
feiert 5
fertig 5
fester 5
fielen 5
fil@@ 5
flu@@ 5
folgenden 5
fort@@ 5
fs 5
fuhr 5
funktion@@ 5
funktionieren 5
fünften 5
gan 5
gar@@ 5
gebunden 5
gefahren 5
gefasst 5
gefährlich 5
gegenwärtig 5
gehabt 5
gehörte 5
gehörten 5
gelegen 5
gelegenen 5
gelingen 5
gem@@ 5
gemeinsames 5
genauer 5
gep@@ 5
gerech@@ 5
gering 5
gerte 5
geschäfte 5
geschätzten 5
gesellschaften 5
gesenkt 5
gesetz 5
gesichert 5
gesorgt 5
gestanden 5
gestärkt 5
getrennt 5
getreten 5
gewaltigen 5
geworfen 5
gewünscht 5
geändert 5
gig 5
glücklich 5
gol@@ 5
groß@@ 5
gs@@ 5
guter 5
gäbe 5
handeln 5
hart 5
harten 5
hier@@ 5
hilft 5
hinten 5
hohem 5
holt 5
höheren 5
i-@@ 5
ia 5
ic 5
ier 5
iere 5
ierende 5
iers 5
ierungs@@ 5
il 5
ilen 5
iler 5
industri@@ 5
infrage 5
ing-@@ 5
ings 5
ini 5
inn@@ 5
inne 5
investiert 5
isation 5
isieren 5
israelischen 5
italienischen 5
itz 5
itäten 5
jagd 5
jenem 5
jener 5
jetzigen 5
jüngere 5
kalt 5
kassierte 5
kat@@ 5
kauf@@ 5
keinerlei 5
kel@@ 5
ken@@ 5
kette 5
kinder 5
klares 5
klasse 5
klassische 5
klingen 5
klären 5
komme 5
kontrolle 5
kontrolliert 5
konzerns 5
korrigieren 5
kr@@ 5
kreisen 5
kreu@@ 5
kriegen 5
krise 5
kräftigen 5
ks 5
kul@@ 5
kulturellen 5
kurze 5
kurzer 5
kus 5
kämpft 5
kümmern 5
künftige 5
künftigen 5
künst@@ 5
lacht 5
landes@@ 5
landete 5
langfristig 5
lauter 5
lebens@@ 5
lehnt 5
leit@@ 5
leiter 5
ler-@@ 5
lers 5
lesen 5
liberalen 5
lieben 5
lig@@ 5
lige 5
lis 5
live 5
lobte 5
lohnt 5
lte 5
lung 5
mahnte 5
management 5
manchem 5
manches 5
manchmal 5
markt@@ 5
mas@@ 5
maß@@ 5
melden 5
mes 5
mes@@ 5
ministeriums 5
minus 5
missbraucht 5
mittel 5
moder@@ 5
moderne 5
modernen 5
mächtig 5
märkte 5
möglicher 5
n-@@ 5
nachts 5
nahme 5
nahmen 5
nam@@ 5
namens 5
nd 5
nehme 5
nett 5
niederländischen 5
nisse 5
nissen 5
nötig 5
oberen 5
offenen 5
ologen 5
ologische 5
ologischen 5
ons 5
organisationen 5
organisierten 5
partei 5
pauschale 5
pf 5
pf@@ 5
plan@@ 5
prakti@@ 5
preisen 5
prin@@ 5
privater 5
produktion 5
punkte 5
punkten 5
rate 5
raus 5
reagierten 5
rech@@ 5
rechnete 5
red@@ 5
regiert 5
reiben 5
reichte 5
religiöse 5
rennen 5
res 5
roten 5
rtr 5
s- 5
sab@@ 5
sal@@ 5
sam@@ 5
sammeln 5
satz 5
schau 5
scher 5
scher@@ 5
schießen 5
schiff 5
schlimmer 5
schluss 5
schläge 5
schm@@ 5
schten 5
schu@@ 5
schulen 5
schütz@@ 5
schützer 5
schützt 5
sechziger 5
seh@@ 5
sei@@ 5
sel 5
si 5
sichern 5
siebten 5
siebziger 5
sieger 5
siehe 5
sinn@@ 5
software 5
solcher 5
solches 5
somit 5
sowieso 5
sozial 5
spiele 5
spiels 5
spo@@ 5
sportlichen 5
spräsident 5
spunkt 5
spüren 5
ss@@ 5
staats@@ 5
stands 5
starb 5
starkes 5
start 5
stei@@ 5
steigenden 5
stellung 5
stoff 5
straf@@ 5
streit 5
stu@@ 5
städtischen 5
stärken 5
stür@@ 5
svor@@ 5
systems 5
sä@@ 5
sätze 5
t- 5
ta 5
tag 5
tau@@ 5
tausende 5
te-@@ 5
teil@@ 5
teils 5
teilten 5
tende 5
tern@@ 5
tiges 5
tion 5
tor 5
train@@ 5
trennen 5
träumen 5
tsp@@ 5
tte 5
täglichen 5
tätig 5
tö@@ 5
unbeeindruckt 5
unbekannt 5
unde 5
unden 5
ungefähr 5
ungspro@@ 5
unterschiedliche 5
unterschiedlichen 5
unver@@ 5
up@@ 5
ver 5
veranstaltung 5
verbunden 5
verein@@ 5
vergeben 5
vergessen 5
verhalten 5
verkehr 5
verkündet 5
verlegen 5
verlieren 5
verlässt 5
vermitteln 5
verringern 5
verschaffen 5
verschärft 5
versicherung 5
versorgung 5
verspricht 5
verstanden 5
verteidigt 5
verteidigte 5
verteilt 5
vertraut 5
vertretern 5
verursacht 5
verurteilte 5
verw@@ 5
verweigert 5
verändern 5
verändert 5
veränderten 5
via 5
viel@@ 5
vier@@ 5
vierte 5
vollständig 5
voran 5
voran@@ 5
voraussichtlich 5
vorbereitet 5
vorlegen 5
vorne 5
vorsichtig 5
vorsitzende 5
w 5
wachsender 5
wahnsinnig 5
wahr@@ 5
wahren 5
wann 5
warm 5
wartet 5
wechseln 5
wehr 5
weite 5
weißen 5
welchen 5
weltgrößte 5
weltweite 5
weltweiten 5
wenigstens 5
werben 5
werfen 5
werke 5
werten 5
weshalb 5
wiederholen 5
wilden 5
win@@ 5
wirk@@ 5
wirtschaftlich 5
wirtschaftliche 5
womöglich 5
wort 5
ze@@ 5
zehnte 5
zen@@ 5
zentralen 5
ziert 5
zitiert 5
zuerst 5
zugenommen 5
zunehmen 5
zurückkehren 5
zuständig 5
zuständige 5
zuversichtlich 5
zweifel@@ 5
zwingen 5
zün@@ 5
Ära 5
Äußerung 5
Übernahmen 5
Überschuss 5
ähnliche 5
älter 5
östlichen 5
üb@@ 5
überall 5
übergeben 5
überlassen 5
übernahmen 5
überzeugt 5
üblich 5
üblichen 5
übrig 5
übrigens 5
-WM 4
02.09.2007 4
05.09.2007 4
10.2007 4
13.09.2007 4
14-@@ 4
14.09.2007 4
14.11.2007 4
14.@@ 4
15.000 4
15.11.2007 4
15.@@ 4
17.@@ 4
1966 4
1970 4
1977 4
1987 4
1991 4
1993 4
1997 4
2,3 4
20.@@ 4
22-@@ 4
22.@@ 4
27@@ 4
3,7 4
34. 4
3500 4
37@@ 4
4,5 4
460 4
47@@ 4
50@@ 4
53. 4
57 4
6.html 4
6000 4
63 4
68 4
7,5 4
750 4
75@@ 4
77 4
80@@ 4
84 4
855@@ 4
85@@ 4
86 4
88 4
90@@ 4
AC 4
AKP 4
AS@@ 4
Abbau 4
Abdullah 4
Abgang 4
Abgeltungssteuer 4
Abgeordneten 4
Ablehnung 4
Abschuss 4
Absicherung 4
Abstimmung 4
Absturz 4
Ach@@ 4
Achim 4
Afghanen 4
Ahmadinedschad 4
Ak@@ 4
Akten 4
Aktienkurs 4
Aktion@@ 4
Aktionäre 4
Aktivisten 4
Aktivitäten 4
Ale@@ 4
Ali 4
Allein@@ 4
Alpen@@ 4
Alternative 4
Andrej 4
Anfrage 4
Angebote 4
Angehörigen 4
Angel@@ 4
Angesichts 4
Anja 4
Anlagen 4
Anlass 4
Ann@@ 4
Anschlägen 4
Anstrengung 4
Antonio 4
Anzeichen 4
Arbeitgeberverband 4
Arbeitsmarkt 4
Arbeitsminister 4
Arbeitsplatz 4
Asi@@ 4
Atmosphäre 4
Attacke 4
Aufbau 4
Auflage 4
Auflösung 4
Aufnahme 4
Auftakt 4
Auftritte 4
Aufwand 4
Augenblick 4
Augsburg 4
Auktion 4
Ausbildungs@@ 4
Ausdruck 4
Ausgang 4
Ausschuss 4
Ausstattung 4
Aust 4
Austausch 4
Ausweis 4
Ausweitung 4
Auswärtigen 4
Autob@@ 4
Autobahn@@ 4
Autofahrer 4
Autohersteller 4
Autom@@ 4
Autor 4
Ay@@ 4
B. 4
BA 4
Bag@@ 4
Bahnstreik 4
Bali 4
Bangkok 4
Bastian 4
Bauermann 4
Bauern@@ 4
Baum@@ 4
Beamten@@ 4
Bedarf 4
Befragten 4
Beg@@ 4
Begeisterung 4
Beh@@ 4
Behandlung 4
Bekann@@ 4
Belegschaft 4
Belohnung 4
Bemerkung 4
Beratungen 4
Berichte 4
Berlin@@ 4
Beschwerde 4
Besitz 4
Besser@@ 4
Bestandteil 4
Besucher@@ 4
Beteiligungsgesellschaft 4
Betrag 4
Beweise 4
Bewer@@ 4
Bewertungs@@ 4
Bezeichnung 4
Bildern 4
Bit@@ 4
Block@@ 4
Boeing 4
Bohlen 4
Bon@@ 4
Boston 4
Branchen 4
Branchen@@ 4
Branden@@ 4
Brandenburg 4
Brem@@ 4
Briefwechsel 4
Brot 4
Bruch@@ 4
Brut@@ 4
Brücke 4
Bund@@ 4
Bundesagentur 4
Bundesbank 4
Bundeskanzler 4
Bundestag@@ 4
Bundesverfassungsgericht 4
Bundeswehr@@ 4
Bürgern 4
Cambridge 4
Cardiff 4
Carl 4
Carlos 4
Catterfeld 4
Char@@ 4
Charlotte 4
Che@@ 4
Chefs 4
Chem@@ 4
Chávez 4
City 4
Co 4
Cou@@ 4
Cre@@ 4
Cup 4
DB 4
DB@@ 4
DE@@ 4
DFL 4
Dach@@ 4
Dachverband 4
Daimler 4
Dam@@ 4
Darfur 4
Darlehen 4
Darstellungen 4
Dau@@ 4
De 4
Delegierten 4
Demonstration 4
Denk@@ 4
Denken 4
Depot 4
Dessen 4
Deswegen 4
Deutschland@@ 4
Diana 4
Dida 4
Dienst@@ 4
Diktator 4
Dire@@ 4
Dol@@ 4
Doping-@@ 4
Dorf@@ 4
Doris 4
Dortm@@ 4
Dortmund 4
Dossier 4
Dr@@ 4
Dramat@@ 4
Durch@@ 4
Dänemark 4
Düsseldorfer 4
E-@@ 4
E-Mail 4
EL 4
EM-@@ 4
EU-Staaten 4
Edel@@ 4
Edmund 4
Ehe@@ 4
Einrichtung 4
Einsteigen 4
Einsätze 4
Einzug 4
Eis 4
Elektro@@ 4
Em@@ 4
Emotionen 4
EnBW 4
Energi@@ 4
Englands 4
Enttäuschung 4
Erb@@ 4
Erdbeben 4
Erfahrungen 4
Erfolgsgeschichte 4
Erinnerungen 4
Ermittlungs@@ 4
Ermordung 4
Ernte 4
Ersatz@@ 4
Erster 4
Erwachsen@@ 4
Eröffnung 4
Europ@@ 4
Ex-Mann 4
Expor@@ 4
Exzellen@@ 4
Facebook 4
Faden 4
Fahrern 4
Farben 4
Fed 4
Fehl@@ 4
Fell@@ 4
Fenster 4
Festnahme 4
Feu@@ 4
Feuilleton 4
Fil@@ 4
Finanzierungs@@ 4
Finanzmarkt 4
Finanzministeriums 4
Fisch@@ 4
Fischers 4
Fit@@ 4
Flo@@ 4
Florian 4
Florida 4
Flug 4
Flughafen@@ 4
Flughäfen 4
Fläche 4
Fon@@ 4
Forschungs@@ 4
Fortschritt 4
Forum 4
Fotografen 4
Foulelfmeter 4
Franken 4
Frauenfußball 4
Fried@@ 4
Friedrich 4
Frist 4
Front 4
Frust 4
Früher 4
Fund@@ 4
Funk@@ 4
Fußballer 4
Füchse 4
Führer 4
Führung@@ 4
Führungskräfte 4
Fünfte 4
GDBA 4
Gabriele 4
Gam@@ 4
Gast 4
Gaz@@ 4
Gazprom 4
Gebot 4
Geburt 4
Gedanken@@ 4
Gefühle 4
Gegenzug 4
Gegenüber 4
Geht 4
Geisel@@ 4
Gelder 4
Geldstrafe 4
Gene 4
Gener@@ 4
General 4
Geplant 4
Gerichts@@ 4
German@@ 4
Geschlechter 4
Geschwindigkeit 4
Geschäftsführerin 4
Geschäftsführung 4
Gesetzen 4
Gesetzentwurf 4
Gewal@@ 4
Gewinn@@ 4
Gi@@ 4
Giuliani 4
Gl@@ 4
Glauben 4
Gleich 4
Gol@@ 4
Gomez 4
Gor@@ 4
Grab@@ 4
Gramm 4
Gren@@ 4
Grundgesetz 4
Grupp@@ 4
Grü@@ 4
Gründen 4
Gründer 4
Gute 4
HHLA 4
Haar 4
Habermas 4
Hafen@@ 4
Haftbefehl 4
Hamilton 4
Haup@@ 4
Haushalte 4
Heil 4
Hektar 4
Helfer 4
Helmes 4
Hen@@ 4
Henry 4
Herausforderungen 4
Herbert 4
Hermann 4
Herr@@ 4
Herrschaft 4
Hindukusch 4
Hinter@@ 4
Hirn@@ 4
Hit@@ 4
Hitler 4
Hob@@ 4
Hochschul@@ 4
Hochzeit 4
Hoffnungen 4
Hoh@@ 4
Holding 4
Hon@@ 4
Hor@@ 4
Hubertus 4
Hund 4
Hurri@@ 4
Hypotheken@@ 4
IC@@ 4
IT 4
Ide@@ 4
Ihrer 4
Infrastruktur 4
Inhalt 4
Inland@@ 4
Innenministerium 4
Inneren 4
Insel@@ 4
Institute 4
Institutionen 4
Inter 4
Internationale 4
Interviews 4
Investmentbank 4
Irgend@@ 4
Jag@@ 4
Jahrzehnts 4
Jansen 4
Jazz@@ 4
Jel@@ 4
Jen@@ 4
Journal 4
Journalistin 4
Juan 4
Jurist 4
Kalkül 4
Kamer@@ 4
Kanadier 4
Kardinal 4
Karen 4
Karo@@ 4
Karten 4
Kath@@ 4
Kaum 4
Keiner 4
Kessler 4
Kie@@ 4
Kiefer 4
Kiew 4
Kilogramm 4
Kinos 4
Kirchen@@ 4
Kit@@ 4
Kle@@ 4
Kleidung 4
Kleinen 4
Kli@@ 4
Kno@@ 4
Koalition@@ 4
Koalitionsausschuss 4
Kohl@@ 4
Komponenten 4
Konflik@@ 4
Konkre@@ 4
Konsum 4
Konzer@@ 4
Kosovo 4
Kraftwerk 4
Krankheiten 4
Kreise 4
Kriterien 4
Kron@@ 4
Krone 4
Krä@@ 4
Kub@@ 4
Kundschaft 4
Kurs-Gewinn-Verhältnis 4
Kämpfer 4
Körper@@ 4
Kürz@@ 4
Lab@@ 4
Labor 4
Lach@@ 4
Lady 4
Landesbank 4
Landsleute 4
Last 4
Lazio 4
Leben@@ 4
Leichtathletik 4
Leider 4
Len@@ 4
Leu@@ 4
Liebes@@ 4
Lissabon 4
Litauen 4
Lo@@ 4
Lobby 4
Logistik 4
Logistik@@ 4
Lucas 4
Lust 4
Länder@@ 4
Länderspiel@@ 4
Lö@@ 4
MSV 4
MTV 4
Main@@ 4
Marketing 4
Marktes 4
Maschinen 4
Mat@@ 4
Max 4
Maß 4
McCann 4
Medienberichten 4
Medikamente 4
Mehr@@ 4
Mel@@ 4
Men@@ 4
Mercedes 4
Mercedes-@@ 4
Merkels 4
Mertesacker 4
Mes@@ 4
Messer 4
Metall 4
Meteorologen 4
Metro@@ 4
Metropolen 4
Mikrofone 4
Milch 4
Milch@@ 4
Milie@@ 4
Militärjunta 4
Mindestens 4
Mir 4
Mission 4
Misstrauen 4
Mittag 4
Mitteilung 4
Mittelfeld@@ 4
Mitteln 4
Mitternacht 4
Mobil@@ 4
Modell@@ 4
Mord@@ 4
Mordes 4
Moschee 4
Mr. 4
Mul@@ 4
Mund 4
Musharrafs 4
Mut 4
My@@ 4
Münster 4
NDR 4
Nachbar@@ 4
Nachholbedarf 4
Nachrichten@@ 4
Nation 4
Nationalsozialismus 4
Nervosität 4
Neu 4
Neub@@ 4
Neuseeland 4
Nie@@ 4
Niedersachsen 4
Nordkorea 4
Nordpol 4
Northern 4
Not 4
Noti@@ 4
Notstand 4
Notwendigkeit 4
Nr. 4
Nuklear@@ 4
Nürnberger 4
Oberfläche 4
Obwohl 4
Offen 4
Offensive 4
Ol@@ 4
Onkel 4
Online 4
Op@@ 4
Open 4
Optimismus 4
Organisationen 4
Ostdeutschland 4
Osteuropa 4
Owen 4
P-@@ 4
PPP 4
PS 4
Pa@@ 4
Pakistans 4
Panik 4
Pariser 4
Parks 4
Parlamentswahlen 4
Party 4
Passagiere 4
Pat@@ 4
Pen@@ 4
Persön@@ 4
Pervez 4
Pfe@@ 4
Pfeiffer 4
Pfer@@ 4
Pfle@@ 4
Pflicht 4
Pfund 4
Ph@@ 4
Phase 4
Philosophie 4
Physi@@ 4
Plak@@ 4
Plattformen 4
Platzeck 4
Playstation 4
Plänen 4
Pofalla 4
Pol 4
Politische 4
Polizeisprecher 4
Pop@@ 4
Potential 4
Preisträger 4
Premierminister 4
Prinzip 4
Private 4
Pro 4
Prognose 4
Programm@@ 4
Programms 4
Proteste 4
Protokoll 4
Provokation 4
Prozentsatz 4
Prüfer 4
Prüfung 4
Puerta 4
Quadratmetern 4
Qualitäts@@ 4
Queen 4
Quer@@ 4
R 4
Rab@@ 4
Rad 4
Radi@@ 4
Radio 4
Radsport 4
Ramsauer 4
Rat 4
Rau@@ 4
Rauchverbot 4
Rausch 4
Real@@ 4
Rechner 4
Red 4
Refer@@ 4
Regierungschefs 4
Regional@@ 4
Reh@@ 4
Reich 4
Rein@@ 4
Reisen 4
Reisende 4
Rekordmarke 4
Religions@@ 4
Ren@@ 4
Renn@@ 4
Renten@@ 4
Repertoire 4
Research 4
Rettungs@@ 4
Reuters 4
Rhein@@ 4
Ribéry 4
Richards 4
Richtig 4
Richtlinien 4
Riesen@@ 4
Roberto 4
Rolling 4
Ron 4
Ros@@ 4
Rosen@@ 4
Rost 4
Rostocker 4
Ruanda 4
Ruhestand 4
Rum@@ 4
Runden 4
Rückendeckung 4
S-Bahn 4
Sabine 4
Sachs 4
SachsenLB 4
Saf@@ 4
Sagen 4
Saisonsieg 4
Sat@@ 4
Satelliten 4
Satire 4
Saturn 4
Sau@@ 4
Schaaf 4
Schavan 4
Schiene 4
Schlaf@@ 4
Schlag 4
Schlange 4
Schloss 4
Schlä@@ 4
Schm@@ 4
Schmerz@@ 4
Schock 4
Schreibtisch 4
Schub@@ 4
Schuster 4
Schwerpunkt 4
Schwester 4
Schwierigkeiten 4
Schwäche 4
Schätzungen 4
Seele 4
Sel@@ 4
Selbstmord 4
Selbstvertrauen 4
Sergio 4
Serien@@ 4
Sevilla 4
Show@@ 4
Sicherung 4
Siege 4
Siegfried 4
Silber@@ 4
Sin@@ 4
Sinne 4
Sitz 4
Skand@@ 4
Skepsis 4
Ski 4
Slowenien 4
Software-@@ 4
Solange 4
Solar@@ 4
Solidarität 4
Soll 4
Sondern 4
Sonnabend 4
Sou@@ 4
Spann@@ 4
Spekul@@ 4
Spenden 4
Spezial@@ 4
Spiegel@@ 4
Spielzeug 4
Spitz@@ 4
Sportdirektor 4
Spuren 4
Staatsanwalt 4
Staatsfonds 4
Stab@@ 4
Standard@@ 4
Stanley 4
Station 4
Statist@@ 4
Steine 4
Stellungnahme 4
Stephan 4
Stimm@@ 4
Stock 4
Strafe 4
Strafen 4
Straß@@ 4
Strecken 4
Strei@@ 4
Streitkräfte 4
Stu@@ 4
Stütz@@ 4
Such@@ 4
Summe 4
Sur@@ 4
Szenen 4
Söder 4
Söhne 4
T 4
T-Mobile 4
Tab@@ 4
Tabelle 4
Tag@@ 4
Taiwan 4
Talent 4
Taliban@@ 4
Tar@@ 4
Tas@@ 4
Taus@@ 4
Teen@@ 4
Tem@@ 4
Terrorismus 4
Terrorverdächtige 4
Test 4
Testament 4
Thailand 4
Themen@@ 4
Theorie 4
Thierse 4
Thüringen 4
Tickets 4
Tiger 4
Tisch@@ 4
Todesstrafe 4
Torchancen 4
Tote 4
Tourismus 4
Traditionen 4
Tragödie 4
Tran@@ 4
Trans@@ 4
Transaktion 4
Transrapid 4
Trends 4
Trennung 4
Träger@@ 4
Tur@@ 4
Tä@@ 4
Tätigkeit 4
UBS 4
US-Außenministerin 4
US-Medien 4
Umgang 4
Unentschieden 4
Universal 4
Ursache 4
Uwe 4
VD@@ 4
Variante 4
Veranstaltungen 4
Verbandes 4
Verbots@@ 4
Verbraucher@@ 4
Verdächtige 4
Vereins@@ 4
Verfahrens 4
Vergnügen 4
Verkaufs@@ 4
Verkehr@@ 4
Verlierer 4
Verlusten 4
Vermarktung 4
Vermutlich 4
Vernehmen 4
Versorgungs@@ 4
Versteigerung 4
Verteidigung 4
Verteidigungs@@ 4
Vertrau@@ 4
Veröffentlichung 4
Videos 4
Vielmehr 4
Vier 4
Viertel@@ 4
Vis@@ 4
Vogel@@ 4
Volkspartei 4
Volkswagen 4
Volkswirte 4
Volkswirtschaft 4
Volumen 4
Vorgän@@ 4
Vorjahreszeitraum 4
Vorsicht 4
Vorstandsvorsitzende 4
Vorstellungen 4
WM-T@@ 4
WM-Titel 4
Wachstumsraten 4
Waff@@ 4
Wahlkampf 4
Wahr@@ 4
Wahrscheinlichkeit 4
Weg@@ 4
Wein 4
Weitere 4
Weiße 4
Welche 4
Wenger 4
Weniger 4
Westerwelle 4
Wettbewer@@ 4
Wettbewerber 4
Wettbewerbs@@ 4
Wetter@@ 4
Wettkampf 4
Wich@@ 4
Wiesbaden 4
Wil@@ 4
Will@@ 4
Williams 4
Wirbelsturm 4
Wirtschaft@@ 4
Wirtschaftsforschung 4
Wirtschaftswachstum 4
Wit@@ 4
Wohnungen 4
Wohnungsbau 4
Wor@@ 4
Wunder@@ 4
Wunsch 4
Wünsche 4
X 4
Zahlung 4
Zahlungen 4
Zeitraum 4
Zeitungs@@ 4
Zelt 4
Zentrale 4
Zentrums 4
Zeuge 4
Zeugen 4
Zielen 4
Zinssenkungen 4
Zivil@@ 4
Zoll 4
Zonen 4
Zukunfts@@ 4
Zumal 4
Zunahme 4
Zurück@@ 4
Zusammen@@ 4
Zustimmung 4
Zwei@@ 4
Zweite 4
Zweiter 4
Zwischen 4
Zy@@ 4
abend 4
abgerissen 4
abgesagt 4
absetzen 4
ad 4
ade 4
ader 4
afghanische 4
ager@@ 4
ahl 4
ahnen 4
ak 4
aktive 4
aktivitäten 4
aller@@ 4
allgemeine 4
amtes 4
amts 4
ana 4
anbieten 4
andererseits 4
anderthalb 4
aner 4
anfangs 4
angeb@@ 4
angehoben 4
angehören 4
angekündigten 4
angel@@ 4
angelegt 4
angenehm 4
angeschlagene 4
angesprochen 4
angewandt 4
angewiesen 4
anischen 4
ann 4
annt 4
ansonsten 4
anstieg 4
antreten 4
app@@ 4
arbeit 4
arbeiter 4
arkt 4
article1@@ 4
asse 4
atik 4
ativer 4
aufgaben 4
aufhören 4
ausgebrochen 4
ausgelöst 4
ausgeschöpft 4
ausgest@@ 4
ausgestattet 4
ausgew@@ 4
ausreichen 4
aussehen 4
australische 4
auszusetzen 4
aut 4
automatisch 4
außer@@ 4
bab@@ 4
ball@@ 4
baus 4
baut 4
bayerischen 4
beantragen 4
beantragt 4
beeindruck@@ 4
beeinflusst 4
beeinträchtigt 4
befragt 4
befreit 4
befürchtet 4
begehrt 4
beginn 4
begren@@ 4
begründet 4
begründete 4
begrüßen 4
behalten 4
bekannte 4
beklagt 4
beklagte 4
belegt 4
belohnt 4
bemühen 4
bene 4
benötigte 4
beratung 4
berger 4
bern 4
berufen 4
beruhigt 4
berühm@@ 4
beschrieben 4
beschädigt 4
besitz@@ 4
beson@@ 4
bestritten 4
beteiligen 4
betrachten 4
betre@@ 4
betreten 4
betrifft 4
betroffen 4
bevorzu@@ 4
bevölkerung 4
bewe@@ 4
bewegung 4
beweisen 4
binnen 4
birgt 4
bitte 4
blau@@ 4
blicken 4
bot 4
brechen 4
breite 4
breiten 4
brä@@ 4
bst@@ 4
bte 4
burgs 4
bus@@ 4
by 4
bü@@ 4
chen-@@ 4
christlichen 4
circa 4
ck-@@ 4
cken@@ 4
dachte 4
dachten 4
dank@@ 4
dazu@@ 4
demokratische 4
denk@@ 4
denke 4
derer 4
derzeitigen 4
deutlicher 4
dienstes 4
dig@@ 4
digung 4
dische 4
diskussion 4
dominierten 4
dor@@ 4
dorthin 4
dramat@@ 4
dramatisch 4
dreht 4
drin 4
drängen 4
dul@@ 4
dum@@ 4
dunkle 4
durchgesetzt 4
durchschnitt 4
durchschnittlichen 4
effizi@@ 4
egal 4
ehemals 4
ehrlich 4
einerseits 4
einfacher 4
eingeladen 4
eingereicht 4
eingeräumt 4
eingestellt 4
einheit 4
einschließlich 4
einstellen 4
einzigen 4
ek@@ 4
els 4
elten 4
en- 4
ence 4
endet 4
eng 4
engruppe 4
engsten 4
enken 4
entdecken 4
entführt 4
entführten 4
enth@@ 4
enthält 4
enti@@ 4
entieren 4
entscheidenden 4
entschied 4
entsetzt 4
enttäuscht 4
entwickelten 4
entwickler 4
eres 4
erfolg@@ 4
erfreut 4
erfunden 4
ergibt 4
erhöhte 4
erinnen 4
erinnerte 4
erkannt 4
erleichtern 4
erleichtert 4
ernd 4
erscheinen 4
erschienen 4
erst@@ 4
erstaunlich 4
erstes 4
erungs@@ 4
erwar@@ 4
erwarteten 4
erworben 4
erzielen 4
erzählte 4
essen 4
ets 4
euch 4
experte 4
explo@@ 4
fahrt@@ 4
fal@@ 4
fanden 4
fassen 4
fasst 4
fasziniert 4
feierte 4
feste 4
festen 4
feu@@ 4
ff 4
figur 4
finanzielle 4
finanziellen 4
fle@@ 4
flug 4
folgte 4
forderten 4
formulieren 4
forschungs@@ 4
fortgesetzt 4
fra@@ 4
frage 4
freigesprochen 4
froh 4
frühe 4
ftige 4
fung 4
fällen 4
förder@@ 4
fügte 4
fül@@ 4
fürchten 4
fürchtet 4
gebeten 4
gebraucht 4
gebürtige 4
ged@@ 4
gedrückt 4
geeinigt 4
gefolgt 4
gefällt 4
gefüllt 4
gehandelt 4
gehende 4
geholfen 4
gei@@ 4
geist@@ 4
gelangen 4
geleistet 4
gelöst 4
gemeinschaft 4
genauen 4
gende 4
gender 4
genügt 4
gereist 4
gericht 4
gerichtet 4
geringen 4
gert 4
gerufen 4
gerung 4
geschaffen 4
geschehen 4
gescheitert 4
gesetz@@ 4
gesperrt 4
gestoßen 4
gesunken 4
gewarnt 4
gewechselt 4
gewerkschaft 4
gewicht 4
gewinn 4
gewähren 4
gezielt 4
gie@@ 4
giert 4
gigant@@ 4
glichen 4
glob@@ 4
globale 4
graben 4
gre@@ 4
großem 4
grundsätzlich 4
gruppe 4
gründete 4
grünen 4
gut@@ 4
gän@@ 4
ham 4
hamburg 4
handels@@ 4
hauptsächlich 4
heftig 4
heimlich 4
heit@@ 4
heits@@ 4
heran@@ 4
herausge@@ 4
herum@@ 4
herunter@@ 4
hierzulande 4
hinein 4
historische 4
hl 4
hn 4
hol@@ 4
hor@@ 4
hän@@ 4
hört 4
iPhone 4
ick@@ 4
iefert 4
ierenden 4
ierer 4
if@@ 4
ik-@@ 4
ika 4
iken 4
illegal 4
illen 4
indische 4
informationen 4
informieren 4
ino 4
inszeniert 4
intensive 4
interess@@ 4
internationaler 4
interne 4
internen 4
investierten 4
ip@@ 4
isier@@ 4
isierte 4
islam@@ 4
issen 4
istin 4
istisch 4
ition 4
itionen 4
jahr@@ 4
japanischen 4
jederzeit 4
jenen 4
jur@@ 4
jüngste 4
kampf 4
kan 4
kandidieren 4
kap@@ 4
kar@@ 4
karten 4
kehr@@ 4
keiten 4
kel 4
kirche 4
klare 4
klaren 4
klein 4
kleinere 4
kli@@ 4
koepfe 4
kombin@@ 4
kommentierte 4
kommun@@ 4
komplizierte 4
konferenz 4
konflikt 4
konkreten 4
konserv@@ 4
konzentrieren 4
koreanischen 4
kost@@ 4
kostete 4
kow 4
kraft 4
kreuz 4
kräfte 4
kräftig 4
ktiv@@ 4
ktive 4
ktiven 4
ku@@ 4
kultur 4
kunde 4
kunden 4
kurs 4
käme 4
kämen 4
kämp@@ 4
kämpfe 4
kümmerten 4
kürzester 4
küste 4
landschaft 4
langem 4
langsamer 4
lasse 4
lauf 4
lebenslang 4
legten 4
leichten 4
leist@@ 4
leistungen 4
leistungs@@ 4
leitung 4
ley 4
lichkeit@@ 4
lichste 4
licht 4
liebsten 4
liefert 4
lieferte 4
liege 4
liegenden 4
liert 4
linge 4
linie 4
liste 4
lner 4
loh@@ 4
lungen 4
lässig 4
läu@@ 4
lö@@ 4
lücke 4
ma 4
mach 4
macher 4
mag@@ 4
malt 4
manager 4
markts 4
maschine 4
massiv 4
massive 4
maßgeb@@ 4
medizinischen 4
meines 4
meistens 4
meldete 4
mende 4
militärischen 4
ministerin 4
mischen 4
mischt 4
miss@@ 4
mitarbeiter 4
mittels 4
mittlere 4
mitunter 4
mme 4
mmen 4
mobil@@ 4
monatlich 4
morgens 4
musi@@ 4
mut 4
mäch@@ 4
märkten 4
mäßig 4
mäßigen 4
mögen 4
mü@@ 4
na 4
nachdrücklich 4
nah 4
nder 4
nern 4
ners 4
net 4
nete 4
neten 4
neter 4
neu@@ 4
neuerdings 4
neuesten 4
neunziger 4
neutr@@ 4
niemals 4
nis 4
niveau 4
nte 4
nten 4
nötigen 4
obendrein 4
obersten 4
offene 4
ole 4
oll 4
on-@@ 4
optim@@ 4
ordnung 4
organisation 4
ori@@ 4
ot@@ 4
ow 4
parallel 4
parlamentarische 4
partner 4
pause 4
perfekte 4
permanent 4
plädiert 4
pläne 4
polnischen 4
positives 4
ppo 4
praktisch 4
problemlos 4
produ@@ 4
produzieren 4
prompt 4
quasi 4
r. 4
rad 4
ras@@ 4
rasch 4
ratlos 4
rau@@ 4
rechtlich 4
rechtlichen 4
rechts@@ 4
redet 4
reduzieren 4
reduziert 4
reform 4
regeln 4
regierung 4
regionale 4
rein@@ 4
restlichen 4
richtige 4
richtiger 4
rieren 4
riesige 4
rte 4
ruhen 4
runden 4
räum@@ 4
räume 4
rückgängig 4
rückt 4
saniert 4
saß 4
saßen 4
schaden 4
scharf 4
schau@@ 4
schaut 4
scheiterte 4
schenk@@ 4
scheu@@ 4
schl@@ 4
schlachten 4
schlech@@ 4
schlicht 4
schlimm 4
schn@@ 4
schnei@@ 4
schnelle 4
schoss 4
schub 4
schwach 4
schwarzen 4
schwe@@ 4
schweigt 4
schwer@@ 4
schwierige 4
schwächeren 4
schwärmte 4
schärf@@ 4
schöner 4
schüler 4
sen-@@ 4
ser 4
serfolg 4
serie 4
ses 4
setzten 4
sexuellen 4
sicher@@ 4
sicherung 4
sicht 4
sichtbar 4
sin@@ 4
sinnvoll 4
sion 4
smit@@ 4
sodass 4
sofortige 4
solch 4
son 4
sor@@ 4
sorgfältig 4
spanische 4
spe@@ 4
spezialisierte 4
spolitik 4
springen 4
spro@@ 4
st-@@ 4
stab 4
stad@@ 4
stars 4
startet 4
startete 4
steckt 4
ster@@ 4
stest 4
stieß 4
stimmen 4
stimmten 4
stirbt 4
stoff@@ 4
stoffe 4
stoßen 4
strafen 4
strategischen 4
strecke 4
streiken 4
stren@@ 4
streng 4
strikt 4
stuhl 4
stum@@ 4
stärke 4
stätten 4
stört 4
stößt 4
stützen 4
sub@@ 4
tage 4
tagesschau.de 4
tak@@ 4
tan@@ 4
tarif@@ 4
technisch 4
technischen 4
teilen 4
tener 4
teren 4
ters 4
testen 4
teuer 4
the@@ 4
tierte 4
tierten 4
tigkeit 4
tik@@ 4
tin 4
tner 4
traditionell 4
trainiert 4
trau@@ 4
trieb 4
träger 4
umgehen 4
umgerechnet 4
umstrittene 4
unabhängigen 4
unauf@@ 4
under@@ 4
ungsexper@@ 4
ungsh@@ 4
unmöglich 4
unserem 4
unseres 4
unterbrochen 4
unternehmer 4
unterricht 4
unterschiedlich 4
unterschrieben 4
untersucht 4
unverändert 4
unzufrieden 4
uss@@ 4
ust@@ 4
ute 4
verabschiedet 4
veranstaltungen 4
verbessert 4
verbesserten 4
verbote 4
verbreitet 4
verderben 4
verdien@@ 4
verein 4
vereinbaren 4
verfahren 4
verfasst 4
verfassungswidrig 4
verfolgten 4
vergeblich 4
verheiratet 4
verkehrs 4
verkörpert 4
vermeiden 4
vermeintlich 4
vermutet 4
vernichtet 4
vernommen 4
verringerte 4
verschoben 4
versicher@@ 4
versichert 4
versprechen 4
verstorbenen 4
verständigt 4
verteilen 4
vertritt 4
verwaltet 4
verweisen 4
verwenden 4
verwendet 4
verz@@ 4
verzeichnen 4
verzichtet 4
veröffentlichen 4
veröffentlicht 4
vieren 4
vorbei@@ 4
vorgenommen 4
vorgeschlagen 4
vorigen 4
vorläu@@ 4
vormittag 4
vorsorglich 4
vorzu@@ 4
wachsen 4
wagt 4
wahre 4
wechsel@@ 4
weitaus 4
weiße 4
welchem 4
welle 4
welt@@ 4
wen 4
werk@@ 4
wert@@ 4
wertvolle 4
wes@@ 4
wichtigste 4
wiegt 4
willi@@ 4
wirtschaf@@ 4
woh@@ 4
wohnen 4
wohnt 4
wunder@@ 4
wussten 4
wür@@ 4
z-@@ 4
zahl@@ 4
zehn@@ 4
zehnten 4
zeitung 4
zentren 4
zes 4
zierte 4
zige 4
ziger 4
zivilen 4
zonen 4
zten 4
zul@@ 4
zulegen 4
zumal 4
zurückhaltend 4
zurückzuführen 4
zustande 4
zuständigen 4
zusätzlichen 4
zweistel@@ 4
zü@@ 4
Ähnlich 4
Ältere 4
Älteren 4
Änderungen 4
Ärger 4
Öko@@ 4
Ökonomen 4
Öl 4
Österreicher 4
Überlegungen 4
Übersetzung 4
Überstunden 4
Überwachung 4
ß 4
ßer@@ 4
ästhetische 4
äußerst 4
äußerten 4
é 4
öffnete 4
öfter 4
ören 4
üben 4
überleben 4
überschritten 4
überstehen 4
übertragen 4
übertrieben 4
überwunden 4
ül@@ 4
* 3
-Bild 3
-G@@ 3
-Manager 3
-Sieg 3
-Sprecher 3
-Star 3
.09.2007 3
.com 3
0,1518,5@@ 3
0,8 3
0.html 3
01.10.2007 3
06.11.2007 3
08.10.2007 3
08@@ 3
1,3 3
1,85 3
10,@@ 3
100-@@ 3
11.09.2007 3
11.2007 3
1100 3
12.09.2007 3
1225@@ 3
122@@ 3
1236@@ 3
13.00 3
130 3
14,@@ 3
16,@@ 3
16.10.2007 3
17,5 3
17. 3
170 3
18,@@ 3
18.@@ 3
1899 3
1944 3
1945 3
1947 3
1963 3
1976 3
1980 3
1984 3
1988 3
2,1 3
2,2 3
2.@@ 3
20.000 3
2020 3
21,@@ 3
23-@@ 3
24,@@ 3
24.10.2007 3
24.11.2007 3
25,@@ 3
258 3
290 3
3,1 3
30-@@ 3
30.08.2007 3
31.08.2007 3
31.10.2007 3
31.@@ 3
32. 3
35@@ 3
36. 3
360 3
39@@ 3
3C 3
4,6 3
4,@@ 3
40. 3
40.000 3
4000 3
46. 3
46@@ 3
5,5 3
50-@@ 3
50-Jährige 3
52. 3
60@@ 3
63.html 3
67 3
67. 3
69 3
7.html 3
70.000 3
7000 3
70@@ 3
72 3
75. 3
750.000 3
76 3
787 3
8,8 3
80.000 3
81. 3
82 3
82. 3
84@@ 3
87. 3
900.000 3
90er 3
90er-Jahre 3
95 3
A380 3
ADAC 3
AG@@ 3
AP-@@ 3
AS 3
Abbruch 3
Abend@@ 3
Abent@@ 3
Absatz 3
Abschluss@@ 3
Abschrei@@ 3
Abschreibungen 3
Abwehrspieler 3
Abzug 3
Achtel@@ 3
Achtung 3
Adolf 3
Afghanistan-@@ 3
Afghanistans 3
Ag@@ 3
Ah@@ 3
Ahnung 3
Airbus-@@ 3
Aires 3
Akquis@@ 3
Akten@@ 3
Akteur 3
Aktienkursen 3
Aktienmärkte 3
Akzeptanz 3
Al-@@ 3
Alb@@ 3
Albaner 3
Alberto 3
Alkohol 3
Aller@@ 3
Alli@@ 3
Amazon 3
Analy@@ 3
Anbau 3
And@@ 3
Ander@@ 3
Andr@@ 3
Andre 3
Anerkennung 3
Anfang@@ 3
Anfangs 3
Ange@@ 3
Angeklagte 3
Angeklagten 3
Angestellte 3
Angriffe 3
Ankara 3
Anklage 3
Anlage 3
Anlage@@ 3
Anlegern 3
Annette 3
Ansatz 3
Ansonsten 3
Anstrengungen 3
Anten@@ 3
Anti-@@ 3
Anti-Terror@@ 3
Anton@@ 3
Anwesenheit 3
Anwälte 3
Anwältin 3
Anzeigen 3
Ap@@ 3
Apfel 3
Apfel@@ 3
Apothe@@ 3
Apple-@@ 3
Arab@@ 3
Arbeitsbedingungen 3
Arbeitsgruppe 3
Arbeitslosen 3
Arbeitslosengel@@ 3
Architekten 3
Argumentation 3
Ariane 3
Armuts@@ 3
Arthur 3
Arzneimittel@@ 3
As@@ 3
Asche 3
Assistenten 3
Association 3
Atem 3
Athle@@ 3
Att@@ 3
Aufbruch 3
Auffassung 3
Aufpreis 3
Aufsichts@@ 3
Aufsichtsräte 3
Aufstellung 3
Auftak@@ 3
Auftrieb 3
Ausbau 3
Ausblick 3
Ausfall 3
Ausfälle 3
Ausgerechnet 3
Ausland@@ 3
Auslaufen 3
Ausländern 3
Ausnahmefällen 3
Ausnahmezustand 3
Ausscheiden 3
Ausschluss 3
Aussteller 3
Australier 3
Auswirkungen 3
Auswärts@@ 3
Autonomie 3
Außenseit@@ 3
Awards 3
BASF 3
Baby@@ 3
Bad 3
Bahngewerkschaften 3
Bahnhof 3
Bai@@ 3
Bald 3
Ban 3
Banken@@ 3
Barbara 3
Barclays 3
Basel 3
Basket@@ 3
Basketball 3
Basra 3
Bat@@ 3
Batterie@@ 3
Bauer 3
Bauherren 3
Bay@@ 3
Bayerischen 3
Bayerns 3
Beauftragte 3
Beckham 3
Beckmann 3
Bed@@ 3
Bedeutung 3
Bedürfnisse 3
Begleitung 3
Begrüß@@ 3
Beifall 3
Beihilfe 3
Beihilfen 3
Bein 3
Beinah@@ 3
Belastung 3
Benutz@@ 3
Beobach@@ 3
Beratung 3
Berechnung 3
Berechnungen 3
Bereiche 3
Bergen 3
Bergleute 3
Berlins 3
Bertone 3
Beruf@@ 3
Besatzung 3
Beschleunig@@ 3
Beschäftigung 3
Besetzung 3
Best 3
Bestand@@ 3
Bestellung 3
Besten 3
Besuche 3
Beteiligungen 3
Betriebssystem 3
Bevor 3
Bevölkerungs@@ 3
Bewerbern 3
Bewähr@@ 3
Bewährung 3
Beziehungen 3
Bezir@@ 3
Bezug 3
Bezugs@@ 3
Bibliothek 3
Bie@@ 3
Bielefeld 3
Bilbao 3
Bild-Zeitung 3
Bilder@@ 3
Bindung 3
Biograph@@ 3
Bir@@ 3
Bischof 3
Björ@@ 3
Björn 3
Blatter 3
Blicke 3
Blo@@ 3
Blog 3
Bloomberg 3
Blu@@ 3
Blut 3
Blätter 3
Boateng 3
Bolton 3
Bomben 3
Bomben@@ 3
Bonner 3
Boom 3
Borowski 3
Botschaf@@ 3
Botschaftern 3
Bou@@ 3
Box@@ 3
Br@@ 3
Bran@@ 3
Bren@@ 3
Bridge 3
Brüder 3
Brüsseler 3
Buback 3
Buenos 3
Bul@@ 3
Bundesgericht 3
Bundesk@@ 3
Bundesligist 3
Bundesländer 3
Busch@@ 3
Bush-Regierung 3
Business 3
Bä@@ 3
Bällen 3
Bücher 3
Bürgerplattform 3
Büro@@ 3
C 3
C. 3
CO2-@@ 3
CS@@ 3
CSU-Landesgruppe 3
Cal@@ 3
Can@@ 3
Cap@@ 3
Cape 3
Capital 3
Care 3
Cargo 3
Carstensen 3
Cat@@ 3
Cha@@ 3
Charles 3
Cheftrainer 3
Chelsea-@@ 3
Chile 3
Chin@@ 3
Chip@@ 3
Christen 3
Cirque 3
Citigroup 3
Cle@@ 3
Co-@@ 3
Cologne 3
Commerzbank 3
Comp@@ 3
Condor 3
Cook 3
Coors 3
Cordes 3
Cott@@ 3
Couch 3
Cu@@ 3
Cécilia 3
DA@@ 3
DFB 3
DFB@@ 3
DG@@ 3
DR@@ 3
DSV 3
DVD-@@ 3
Da@@ 3
Daimler-@@ 3
Damon 3
Darauf 3
Darsteller 3
Darum 3
Darunter 3
Davon 3
Deal 3
Deb@@ 3
Debakel 3
Debüt 3
Defiz@@ 3
Deflation 3
Dejagah 3
Del@@ 3
Demokrat@@ 3
Demonstrationen 3
Derby 3
Des@@ 3
Designer 3
Dest@@ 3
Development 3
Diale@@ 3
Dialog 3
Dienstag@@ 3
Dies@@ 3
Dikt@@ 3
Direkt@@ 3
Direktorin 3
Discovery 3
Diskussions@@ 3
Disziplin 3
Dividenden 3
Dom 3
Dom@@ 3
Don@@ 3
Donald 3
Donnerstag@@ 3
Dorn@@ 3
Drahtzieher 3
Dres@@ 3
Dritt@@ 3
Dritte 3
Drogen- 3
Drohungen 3
Druck@@ 3
Drucks 3
Dschi@@ 3
Dschihad 3
Duisburg 3
Duisburger 3
Durchbruch 3
Durchgang 3
Durchschnitt 3
Dämpfer 3
Dänen 3
EADS 3
EB@@ 3
EM-Qualifikation 3
ETA 3
Ebay 3
Ebene 3
Ebenso 3
Eberhard 3
Ech@@ 3
Eck@@ 3
Ed@@ 3
Effekt 3
Ehr@@ 3
Ehren@@ 3
Eier 3
Eigen@@ 3
Eigenheim@@ 3
Eigenschaften 3
Eigentum 3
Einbußen 3
Eineinhalb 3
Eing@@ 3
Eingeständnis 3
Einkommens@@ 3
Einladung 3
Einsatzes 3
Einspruch 3
Einst@@ 3
Einstellung 3
Einstieg 3
Einsätzen 3
Einwander@@ 3
Einzelhandel 3
Einzelne 3
Einzelnen 3
Einzige 3
Eisbären 3
Eishockey 3
Eishockey-Liga 3
Ekelfle@@ 3
Ele@@ 3
Elend 3
Elf 3
Elf@@ 3
Elit@@ 3
Elvis 3
Emission 3
Emission@@ 3
Emotion 3
Empfang 3
Empfänger 3
Energien 3
Energiepreise 3
Energieunternehmen 3
Engel@@ 3
Engholm 3
Entführer 3
Entspannung 3
Enttäu@@ 3
Entw@@ 3
Entwickl@@ 3
Entwicklung@@ 3
Entwurf 3
Ep@@ 3
Erbe 3
Ereignis 3
Erfolg@@ 3
Erfolgs@@ 3
Ergebnis@@ 3
Erhebung 3
Ericsson-@@ 3
Erlebnis 3
Ern@@ 3
Erneut 3
Ernsthaftigkeit 3
Ero@@ 3
Erweiterung 3
Es@@ 3
Ess@@ 3
Etappe 3
Eti@@ 3
Etwas 3
Eu@@ 3
Europa@@ 3
Europameisterschaft 3
Europäer 3
Evelyn 3
Exemplare 3
Experim@@ 3
Experte 3
Extre@@ 3
FAZ 3
FC@@ 3
FSV 3
Face 3
Fach 3
Fachwelt 3
Fahn@@ 3
Fahndung 3
Fahrrad 3
Fahrzeug@@ 3
Fair 3
Fan 3
Farin 3
Fau@@ 3
Favoriten 3
Federline 3
Feier 3
Fel@@ 3
Ferdinand 3
Ferien@@ 3
Fern- 3
Fernverkehr 3
Festhalten 3
Figur 3
Filiale 3
Filialen 3
Fillon 3
Finanzdienstleister 3
Finger@@ 3
Fischfang 3
Flammen 3
Flanke 3
Fle@@ 3
Flucht@@ 3
Fluss 3
Flächen 3
Flüchtlinge 3
Force 3
Form@@ 3
Forschern 3
Foul 3
Foyer 3
Fr@@ 3
Fracht@@ 3
Fraktion@@ 3
Französisch 3
Frauen-@@ 3
Freenet 3
Freezers 3
Freiburg 3
Freitag@@ 3
Freitagmorgen 3
Fres@@ 3
Friedens@@ 3
Fron@@ 3
Fronten 3
Frü@@ 3
Frühstück 3
Frühstücks@@ 3
Fuchs 3
Ful@@ 3
Fund 3
Funktion@@ 3
Funktionäre 3
Fusion 3
Fußball-Nationalmannschaft 3
Führ@@ 3
Fünf 3
Füßen 3
GDL-Chef 3
GM 3
Gab@@ 3
Galeristen 3
Gammelfleisch 3
Gebieten 3
Gebrauch 3
Geburtstags@@ 3
Gebäuden 3
Gedenk@@ 3
Gefangen@@ 3
Gefangenen 3
Gefähr@@ 3
Gegend 3
Gegentor 3
Gegnern 3
Geh@@ 3
Gehalt 3
Gehälter 3
Gei@@ 3
Gekas 3
Geld- 3
Geldgeber 3
Geldmarkt 3
Gelegenheiten 3
Gemälde 3
Genau 3
Genauso 3
Generalstaatsanwalt 3
Generäle 3
Genuss 3
Gerald 3
Gerichte 3
Germany 3
Gerolsteiner 3
Gerry 3
Gescheh@@ 3
Geschmack@@ 3
Gesellschaften 3
Gesetzestext 3
Gesetzgeber 3
Gesprächen 3
Gesundheits@@ 3
Geträn@@ 3
Gew@@ 3
Gewe@@ 3
Gewich@@ 3
Gewicht 3
Gewin@@ 3
Gewinnschätzungen 3
Gewinnwarnung 3
Gif@@ 3
Gisela 3
Gleich@@ 3
Global 3
Glosse 3
Glück@@ 3
Goethe 3
Goldman 3
Got@@ 3
Gott@@ 3
Gran@@ 3
Grand 3
Grei@@ 3
Großbritanniens 3
Grube 3
Grunde 3
Grundschule 3
Gruppen@@ 3
Gruppenphase 3
Grüne 3
Guy 3
Gästen 3
Gör@@ 3
Gü@@ 3
Güls 3
Güterzüge 3
H 3
H. 3
Haft@@ 3
Hahn 3
Hahn@@ 3
Haltung 3
Hammer 3
Handlungs@@ 3
Handvoll 3
Handys 3
Hannah 3
Hannelore 3
Hanns-@@ 3
Hans-@@ 3
Hans-Wilhelm 3
Hansen 3
Hartmann 3
Hartz 3
Hat 3
Hauptdarsteller 3
Hauptsache 3
Hausarrest 3
Haushalts@@ 3
Haut 3
Health 3
Heb@@ 3
Heck@@ 3
Hedge-Fonds 3
Hehl 3
Heiligendamm 3
Heim 3
Heiner 3
Heinrich 3
Henn@@ 3
Herde 3
Hero@@ 3
Herrn 3
Herthas 3
Hessischen 3
Heu@@ 3
Hilbert 3
Hilde@@ 3
Hildebrand 3
Hilton 3
Hinter 3
Hir@@ 3
Historiker 3
Hitchcock 3
Hitlers 3
Hitzlsperger 3
Hoffenheim 3
Holger 3
Holl@@ 3
Holocaust-@@ 3
Hom@@ 3
Hoop 3
Horn 3
Hosen 3
Hotspur 3
Howard 3
Hub@@ 3
Hugh 3
Hugo 3
Hyp@@ 3
Hypothekenkrise 3
Häfen 3
Häus@@ 3
Höhen 3
Hügel 3
I-@@ 3
IAEO 3
ICE 3
IE@@ 3
ISS 3
Ian 3
Ihrem 3
Il@@ 3
Image 3
Immobili@@ 3
Immobilienk@@ 3
Immun@@ 3
Imper@@ 3
Impul@@ 3
Indes 3
Indonesien 3
Infineon-@@ 3
Inflation 3
Inflationsrate 3
Inform@@ 3
Information 3
Ingenieur@@ 3
Innenministeriums 3
Innenstaatssekretär 3
Innenverteidiger 3
Inse@@ 3
Insofern 3
Insolvenz 3
Insolvenz@@ 3
Inst@@ 3
Interessen@@ 3
Interessenten 3
Intern@@ 3
Interpretationen 3
Investment@@ 3
Investments 3
Ir@@ 3
Iraker 3
Irans 3
Irland 3
Israeli 3
Israelis 3
Israels 3
Italiens 3
JP 3
Jacobs 3
Jahres-@@ 3
Jahresumsatz 3
Jahrhunder@@ 3
Jahrtausendwende 3
Jan@@ 3
Janukowitsch 3
Jazz 3
Jean-Claude 3
Jeden 3
Jedes 3
Jena 3
Jobs 3
Johann@@ 3
José 3
Jubel 3
Jugendlicher 3
Juncker 3
Jungs 3
Jupiter 3
Justizminister 3
Juventus 3
KP 3
Kabel@@ 3
Kaffe@@ 3
Kaffee 3
Kaiserslautern 3
Kalifornien 3
Kanadas 3
Kandidat 3
Kann 3
Kanzleramt 3
Karamanlis 3
Kardinal@@ 3
Karl 3
Karl@@ 3
Kartell@@ 3
Kasach@@ 3
Kasse 3
Kategorie 3
Katja 3
Katrina 3
Kaufempfehlung 3
Kaution 3
Khmer 3
Kino@@ 3
Kir@@ 3
Kirch@@ 3
Kirchen 3
Kitz@@ 3
Klas@@ 3
Klassen@@ 3
Klassiker 3
Klein 3
Kleine 3
Klima 3
Klimaschutz@@ 3
Klin@@ 3
Klinik 3
Klub 3
Kläger 3
Klär@@ 3
Knie 3
Knie@@ 3
Knieverletzung 3
Knopfdruck 3
Knut 3
Koalitionspartner 3
Kohle@@ 3
Kohlendioxid 3
Kol@@ 3
Kollaps 3
Kommentare 3
Kommt 3
Kommunal@@ 3
Kommunikation@@ 3
Kommunismus 3
Konflikte 3
Konflikts 3
Kongres@@ 3
Konkurrent 3
Konkurrenz@@ 3
Konkurrenzkampf 3
Konrad 3
Konsequenz 3
Konsolidierungskurs 3
Konsortium 3
Kontak@@ 3
Konter 3
Kontingent 3
Konzernchef 3
Konzernen 3
Kost@@ 3
Kracher 3
Kranken@@ 3
Krankenhäuser 3
Krause 3
Krieg@@ 3
Krieges 3
Krimi 3
Krimin@@ 3
Kriminalbeamten 3
Kriminalität 3
Kriterium 3
Kro@@ 3
Kru@@ 3
Krümmel 3
Kubikmeter 3
Kulisse 3
Kultus@@ 3
Kund@@ 3
Kunstmarkt 3
Kunstwerk 3
Kup@@ 3
Kuranyi 3
Kursgewinne 3
Kurzem 3
Kä@@ 3
Kälte 3
Köhler 3
Königin 3
Köpfe 3
Körperverletzung 3
Körting 3
Kü@@ 3
Küche 3
Kün@@ 3
Kürze 3
Küsten@@ 3
LBBW 3
Lager@@ 3
Landschaften 3
Landtag@@ 3
Landtagsfraktion 3
Lange 3
Las@@ 3
Latte 3
Laufen 3
Lav@@ 3
Lebensst@@ 3
Lediglich 3
Lee 3
Legende 3
Leh@@ 3
Lehrer@@ 3
Lehrern 3
Leidenschaft 3
Leipziger 3
Leistungs@@ 3
Leitung 3
Lektüre 3
Lenz 3
Leo 3
Lettland 3
Lewis 3
Liber@@ 3
Lieber 3
Lim@@ 3
Linden 3
Links 3
Liquid@@ 3
Lit@@ 3
Litern 3
Lithium-Ionen-@@ 3
Live-@@ 3
Liverpool 3
Lock@@ 3
Loh@@ 3
Lohn 3
Lok@@ 3
Lokal@@ 3
Lokführern 3
Ludwig 3
Lum@@ 3
Lux 3
Luxem@@ 3
Luxusmarken 3
Lä@@ 3
Länderspiele 3
Länge 3
Läufer 3
Löhne 3
Lösungen 3
MDax 3
MS@@ 3
Macht@@ 3
Maf@@ 3
Mafia 3
Magde@@ 3
Mahdavikia 3
Mahler 3
Malaysia 3
Male 3
Malediven 3
Mallorca 3
Malta 3
Manchmal 3
Mandanten 3
Mandat 3
Manipulation 3
Mannheims 3
Mannschafts@@ 3
Mantel 3
Manuel 3
Marcel@@ 3
Marcus 3
Mark 3
Marken@@ 3
Marktanteile 3
Marokko 3
Marsch 3
Martina 3
Mathematik 3
Matt 3
Mau@@ 3
May@@ 3
Maz@@ 3
Maßnahme 3
McC@@ 3
McLaren 3
McLaren-@@ 3
Med@@ 3
Medi@@ 3
Medical 3
Medizin 3
Meer@@ 3
Mehrzahl 3
Mei@@ 3
Mein 3
Mein@@ 3
Meisterschaft 3
Meldungen 3
Menschenleben 3
Menschenrechts@@ 3
Menschenwürde 3
Menschheit 3
Met@@ 3
Metall@@ 3
Methode 3
Metropole 3
Metz@@ 3
Metzger 3
Mich@@ 3
Microsoft-@@ 3
Mike 3
Militärs 3
Milliard@@ 3
Millimeter 3
Millionenhöhe 3
Mischung 3
Misere 3
Mitgliedsstaaten 3
Mitgliedstaaten 3
Mitspieler 3
Mittelme@@ 3
Mittlerweile 3
Mittwoch@@ 3
Mobilfunk@@ 3
Mobilität 3
Mobiltel@@ 3
Mod@@ 3
Moderne 3
Mohammed 3
Momentan 3
Monats 3
Mond 3
Monopol 3
Montag@@ 3
Moral 3
Morde 3
Morgenstunden 3
Moritz 3
Mosa@@ 3
Moskauer 3
Moskaus 3
Motiv@@ 3
Motoren 3
Multi@@ 3
Mum@@ 3
Mur@@ 3
Musa 3
Museen 3
Museums 3
Museums@@ 3
Music 3
Musikindustrie 3
Must@@ 3
Muster 3
Muster@@ 3
Mä@@ 3
Mädels 3
Mön@@ 3
Mönchen 3
Mü@@ 3
Mün@@ 3
N 3
N. 3
NBA 3
Nachfolge 3
Nachricht 3
Nachwuchs@@ 3
Nahost-Konferenz 3
Nahrungs@@ 3
National 3
Nav@@ 3
Navigations@@ 3
Nazi-@@ 3
Neal 3
Neokonserv@@ 3
Ner@@ 3
Nerven 3
Netzwerk@@ 3
Ni@@ 3
Nicht-@@ 3
Nicht@@ 3
Nicol@@ 3
Nie 3
Niederlanden 3
Niederländer 3
Niedersachsens 3
Nietzsche 3
Nigeria 3
Nikol@@ 3
Nissan 3
Nobelpreis 3
Norwe@@ 3
Nutzen 3
Ny@@ 3
Näch@@ 3
OE@@ 3
OM@@ 3
Oberbürgermeister 3
Oberhaupt 3
Obermann 3
Obje@@ 3
Obst 3
Odinga 3
Offenbar 3
Offenheit 3
Offenlegung 3
Oktoberfest 3
Olaf 3
Ole 3
Oligarchen 3
Olmert 3
Olympi@@ 3
Olympia 3
Omar 3
On 3
Online-Durchsuchung 3
Online-Durchsuchungen 3
Opec-@@ 3
Option 3
Orange 3
Orch@@ 3
Ordnungs@@ 3
Organisations@@ 3
Orleans 3
Orten 3
Orts@@ 3
Ortszeit 3
Oscar 3
Oskar 3
Ostsee 3
PC 3
Paderborn 3
Pak@@ 3
Pakistanische 3
Pander 3
Pannen@@ 3
Panzer 3
Papier@@ 3
Papst 3
Paradies 3
Parkett 3
Parlamentarier 3
Part@@ 3
Parti@@ 3
Partner@@ 3
Pass 3
Passauer 3
Patient 3
Patienten@@ 3
Patrick 3
Pau@@ 3
Pe@@ 3
Peer 3
Pend@@ 3
Per 3
Personalie 3
Perspektive 3
Persönlichkeit 3
Petersburg 3
Petra 3
Petzschner 3
Pfiffe 3
Pflanzen 3
Phar@@ 3
Pharma@@ 3
Pierre 3
Pil@@ 3
Pin 3
Pip@@ 3
Pippi 3
Piëch 3
Pla@@ 3
Plat@@ 3
Player 3
Ple@@ 3
Podium 3
Politkowskaja 3
Polizeipräsident 3
Poly@@ 3
Por@@ 3
Portfolio 3
Post-@@ 3
Postbank 3
Potenzial 3
Pots 3
Potter 3
Potter-@@ 3
Power@@ 3
Prager 3
Preisauf@@ 3
Presse-Agentur 3
Prin@@ 3
Prince 3
Prinzessin 3
Privatsphäre 3
Problemen 3
Produkten 3
Professoren 3
Profi@@ 3
Profil 3
Programme 3
Projekt@@ 3
Projekte 3
Prominenz 3
Protesten 3
Prämie 3
Präsenz 3
Präsidentschaftskandid@@ 3
Präsidentschaftswahlen 3
Prüfstand 3
Pul@@ 3
Pun@@ 3
Punk@@ 3
Qaida 3
Quad@@ 3
Qualifik@@ 3
Qualitäten 3
Quandts 3
Quartals@@ 3
Quartalszahlen 3
Quelle 3
Quote 3
R. 3
RAF-@@ 3
Rade@@ 3
Radfahren 3
Radio@@ 3
Radsport-@@ 3
Raf@@ 3
Rafael 3
Rahmenbedingungen 3
Raila 3
Ralph 3
Ram@@ 3
Rampenlicht 3
Rand 3
Ranking 3
Rap@@ 3
Raphael 3
Rasen@@ 3
Rath@@ 3
Rauch 3
Raz@@ 3
Rebellen 3
Rechten 3
Rechtsextremismus 3
Reduzierung 3
Referendum 3
Reg@@ 3
Regel@@ 3
Regierung@@ 3
Regimes 3
Regisseurs 3
Register 3
Reiseb@@ 3
Reiz 3
Rekordhoch 3
Rentenversicherung 3
Repräsent@@ 3
Res@@ 3
Reser@@ 3
Restau@@ 3
Restaurants 3
Rev@@ 3
Rezession 3
Rh@@ 3
Rhythmus 3
Richard 3
Rie@@ 3
Rio 3
Rob@@ 3
Robin 3
Robo@@ 3
Rock-@@ 3
Roh 3
Rohstoff@@ 3
Rohöl@@ 3
Rolf 3
Rolfes 3
Rollen@@ 3
Ronaldinho 3
Rot 3
Route 3
Royal 3
Ruhr@@ 3
Rummenigge 3
Russ@@ 3
Russe 3
Russlands 3
Ryanair 3
Rä@@ 3
Räder 3
Räikkönen 3
Rätsel 3
Rö@@ 3
Römer 3
Rück 3
Rückkehrer 3
Rückschlag 3
SA@@ 3
SPD-Fraktion@@ 3
SPD-Politiker 3
SPD-Vorsitzende 3
Saal 3
Saddam 3
Saisonbeginn 3
Saisontor 3
Salz 3
Salz@@ 3
Samm@@ 3
Sammler 3
Sarkozys 3
Sat 3
Saudi-Arabien 3
Schad@@ 3
Schar@@ 3
Schau 3
Schauen 3
Scheffer 3
Scheidung 3
Schein 3
Schie@@ 3
Schienen 3
Schiff@@ 3
Schiiten 3
Schirm@@ 3
Schle@@ 3
Schleyer 3
Schlu@@ 3
Schluss@@ 3
Schlusslicht 3
Schlüsselrolle 3
Schmid 3
Schmid@@ 3
Schmu@@ 3
Schmuck@@ 3
Schokolade 3
Scholz 3
Schreck@@ 3
Schreckensherrschaft 3
Schri@@ 3
Schrift@@ 3
Schriftstellerin 3
Schritte 3
Schritten 3
Schuldner 3
Schwach@@ 3
Schwarz@@ 3
Schwarzkopf 3
Schwei@@ 3
Schwellenländer 3
Schwere 3
Schä@@ 3
Schäfer 3
Schätzung 3
Schöne 3
Schülern 3
Schütz@@ 3
Sci@@ 3
Sean 3
Sehnsucht 3
Seit@@ 3
Sektor 3
Selten 3
Sender@@ 3
Senior@@ 3
Sens@@ 3
Seoul 3
Septem@@ 3
Serbiens 3
Sergej 3
Shanghai 3
Sicher 3
Sidney 3
Sieb@@ 3
Sieben@@ 3
Sigmar 3
Sign@@ 3
Silvest@@ 3
Sim@@ 3
Singapur 3
Sink@@ 3
Sinn@@ 3
Situationen 3
Sitze 3
Sl@@ 3
Smart 3
Smith 3
Sockel 3
Sof@@ 3
Sofort 3
Software@@ 3
Soleil 3
Solidar@@ 3
Somit 3
Songs 3
Sonntagszeitung 3
Sorgerecht 3
Sorten 3
Sow@@ 3
Sox 3
Sozialdemokrat 3
Sozialistischen 3
Soziologen 3
Spa 3
Span@@ 3
Spaniens 3
Sparten 3
Speis@@ 3
Spender 3
Sperre 3
Spezialisten 3
Spielern 3
Spielzeit 3
Spitzenspiel 3
Sprachen 3
Spreng@@ 3
Sprin@@ 3
Spring@@ 3
Springer-@@ 3
Sprint 3
Sprinter@@ 3
Spruch 3
Sprünge 3
Später 3
Staates 3
Staatskanzlei 3
Staatsoberhaupt 3
Staatspräsident 3
Staatssekretär 3
Stabil@@ 3
Stal@@ 3
Stam@@ 3
Stan 3
Standard 3
Standort 3
Starke 3
Stattdessen 3
Stechen 3
Steffen 3
Stei@@ 3
Stell@@ 3
Stellen@@ 3
Steve 3
Stiftungs@@ 3
Stil@@ 3
Still@@ 3
Stirn 3
Sto@@ 3
Stoffe 3
Stol@@ 3
Stolz 3
Stones 3
Straftaten 3
Strategie@@ 3
Strecken@@ 3
Streichung 3
Stri@@ 3
Strich 3
Stroh 3
Stru@@ 3
Struck 3
Student 3
Stunden@@ 3
Stur@@ 3
Stör@@ 3
Stücke 3
Stürme 3
Suckale 3
Sy@@ 3
Systeme 3
Systems 3
Sächsische 3
Sänger 3
Sängerin 3
Söl@@ 3
Südkorea 3
Südpol 3
T. 3
Tagebuch 3
Tagesordnung 3
Tageszeitung 3
Taktik 3
Tal 3
Talfahrt 3
Tanz 3
Tanz@@ 3
Tarifkonflikt 3
Tastatur 3
Tatort 3
Tatsachen 3
Tau@@ 3
Tayyip 3
Teammanager 3
Technik@@ 3
Techniker 3
Teilnahme 3
Tel 3
Telekommunikations@@ 3
Tennis 3
Tennis@@ 3
Terrasse 3
Terror-@@ 3
Terroranschlägen 3
Terry 3
Teu@@ 3
Thea 3
Ther@@ 3
Thompson 3
Thor@@ 3
Tibet 3
Tibeter 3
Tief@@ 3
Tiefen 3
Tiefpunkt 3
Tig@@ 3
Titeln 3
Tokio 3
Tol@@ 3
Tom 3
Tom@@ 3
Tonfall 3
Tony 3
Top@@ 3
Toppmöller 3
Toronto 3
Torwart@@ 3
Total 3
Tradition@@ 3
Traditionalisten 3
Train@@ 3
Training 3
Trainings@@ 3
Transparenz 3
Trauer@@ 3
Tre@@ 3
Trinkwasser 3
Trium@@ 3
Trondheim 3
Trost 3
Träger 3
Träume 3
Tsch@@ 3
Turin 3
Turn@@ 3
Tusk 3
Ty@@ 3
Typ@@ 3
Töchter 3
Tü@@ 3
U 3
UEFA 3
US 3
US-Börsen 3
Uefa-@@ 3
Ulm 3
Ultra@@ 3
Umbau 3
Umstand 3
Unabhängigkeit 3
Unbehagen 3
Ungarn 3
Unglück@@ 3
Unglücke 3
Union@@ 3
Unions-@@ 3
Unionsfraktion 3
University 3
Unmut 3
Unru@@ 3
Unterhaltungs@@ 3
Unterhändler 3
Unterlagen 3
Unternehmensberater 3
Unternehmensk@@ 3
Unterschiede 3
Untersuchung 3
Up@@ 3
Urban 3
Urlauber 3
Urlaubs@@ 3
Ute 3
V. 3
VW-Gesetz 3
Vaart 3
Valencia 3
Vater@@ 3
Veh 3
Verarbeitung 3
Verband@@ 3
Verbindungen 3
Verbleib 3
Verbraucherschützer 3
Verd@@ 3
Verfassungsschutz 3
Verfolgung 3
Verhandlung@@ 3
Verhältnisse 3
Verkehrs@@ 3
Verletzten 3
Vermögens@@ 3
Vers@@ 3
Versandhandel 3
Verschwörung 3
Verschärfung 3
Versicherungen 3
Versprechen 3
Verteidiger 3
Verteidigungsministerium 3
Vertrages 3
Vertretern 3
Verunsicherung 3
Verve 3
Verwal@@ 3
Verwandter 3
Verz@@ 3
Verzehr 3
Veränderung 3
Vf@@ 3
Vi@@ 3
Viel@@ 3
Vielzahl 3
Viertelfinals 3
Vietnams 3
Visier 3
Vize-@@ 3
Vizekanzler 3
Volkswagen-@@ 3
Vollgas 3
Vollmilch 3
Voraus@@ 3
Vorbei 3
Vorbereitungs@@ 3
Vorlieben 3
Vormarsch 3
Vorreiter 3
Vorsitzenden 3
Vorstand@@ 3
Vortag 3
Vorteile 3
Vorurteile 3
Vorzug 3
Vulkan@@ 3
Völ@@ 3
Völker@@ 3
Völler 3
WM-Dritte 3
WM@@ 3
Waage 3
Wahler@@ 3
Wahrscheinlich 3
Wald@@ 3
Wanderers 3
Wansleben 3
Warnung 3
Warren 3
Warschau 3
Was@@ 3
Wat@@ 3
Wayne 3
Web 3
Web@@ 3
Webwelt 3
Wehr@@ 3
Weiden@@ 3
Weisbrod 3
Weiterbildung 3
Welcher 3
Welt-@@ 3
Weltcup-@@ 3
Weltkrieg 3
Weltkrieg@@ 3
Weltkriegs 3
Weltraum@@ 3
Weltweit 3
Wen@@ 3
Wendung 3
Wenig 3
Werber 3
Werbespot 3
Werken 3
Werner 3
Weste 3
Wett@@ 3
Wi@@ 3
Wider 3
Widerstände 3
Wild@@ 3
Wilhelm 3
Wilke 3
Will 3
Wir@@ 3
Wird 3
Wirtschaftsminister 3
Witz 3
Wladimir 3
Wochenend@@ 3
Wochenenden 3
Woher 3
Wohl 3
Wohnzimmer 3
Woll@@ 3
Womöglich 3
Wulff 3
Wunsch@@ 3
Wyser-Pratte 3
Würde 3
X-@@ 3
Xbox 3
Yahoo 3
YouTube 3
Yvonne 3
Zabel 3
Zei@@ 3
Zell@@ 3
Zie@@ 3
Zin@@ 3
Zinssenkung 3
Zit@@ 3
Zo@@ 3
Zoo 3
Zoo-@@ 3
Zufall 3
Zugangs@@ 3
Zukäufe 3
Zumwinkel 3
Zunächst 3
Zus@@ 3
Zusage 3
Zusammenbruch 3
Zusammenschluss 3
Zuschau@@ 3
Zuschlag 3
Zustand 3
Zwang@@ 3
Zwanziger 3
Zweck 3
Zweit@@ 3
Zweitligisten 3
Zählern 3
Zürich 3
abermals 3
abgebaut 3
abgelöst 3
abger@@ 3
abgeschaltet 3
abgeschlagen 3
abgesehen 3
abgesetzt 3
abgesprungen 3
abgezogen 3
abhän@@ 3
ablen 3
absolut 3
acher 3
achse 3
acht@@ 3
achten 3
acken 3
aden@@ 3
ae 3
afft 3
afrikanische 3
ag 3
ager 3
agerin 3
agern 3
ages 3
aggressiv 3
agierte 3
ago@@ 3
ah 3
aktionen 3
ala 3
alarmiert 3
alb@@ 3
alias 3
allgemeinen 3
alltäglichen 3
alt@@ 3
alter@@ 3
ambition@@ 3
amm@@ 3
amtlichen 3
analyst 3
anbietet 3
anderswo 3
ands 3
angebote 3
angebracht 3
angedeutet 3
angefangen 3
angeführt 3
angegeben 3
angehört 3
angekommen 3
angekündigte 3
angerufen 3
angesehen 3
angesp@@ 3
angest@@ 3
angestellt 3
anlagen 3
anlässlich 3
annehmen 3
annte 3
anpassen 3
anstalt 3
anter 3
antwor@@ 3
anzut@@ 3
ao 3
appellierte 3
appen 3
ar-@@ 3
ard 3
arme 3
article127@@ 3
artige 3
artigen 3
asch@@ 3
aschine 3
atiker 3
atin 3
ationell 3
atoren 3
ats 3
attra@@ 3
atz 3
auer 3
auern 3
auers 3
aufgehoben 3
aufger@@ 3
aufgerufen 3
aufgetreten 3
aufgewachsen 3
aufkommen 3
aufkommen@@ 3
aufmerksam 3
auftau@@ 3
auftauchen 3
auftreten 3
auftritt 3
aufträge 3
aufzugeben 3
auseinander@@ 3
auseinandersetzen 3
ausfällt 3
ausführen 3
ausgefallen 3
ausgeht 3
ausgesucht 3
ausgewiesen 3
ausgewählt 3
ausschließen 3
ausstehenden 3
ausweiten 3
auswirken 3
auszudrücken 3
ay 3
az@@ 3
b-@@ 3
baden-württembergische 3
bahn@@ 3
bal@@ 3
band 3
bank-@@ 3
barer 3
bares 3
basiert 3
bay@@ 3
bayerische 3
beanspruchen 3
beantworten 3
beauftragten 3
beck 3
bedeute 3
bedient 3
beding@@ 3
bedingt 3
bedro@@ 3
bedrohten 3
beeindruckend 3
beeindruckt 3
befand 3
befördern 3
begannen 3
begeist@@ 3
begleit@@ 3
begleiteten 3
begrenzt 3
begründeten 3
begrüßte 3
beh@@ 3
behar@@ 3
beherr@@ 3
behielt 3
beigetragen 3
bekannt@@ 3
bekennt 3
bekräftigte 3
bekämpfung 3
belastung 3
belastungen 3
belegen 3
belei@@ 3
beleu@@ 3
belie@@ 3
beliebten 3
belohnen 3
bemerkenswert 3
bemüh@@ 3
benden 3
benen 3
benö@@ 3
beobachten 3
ber-@@ 3
berater 3
bergs 3
berühmtesten 3
bescheiden 3
beschert 3
bescherte 3
beschlagnahmten 3
beschlossene 3
beschreiben 3
beschränkt 3
beschäftigen 3
besetz@@ 3
besetzte 3
besiegten 3
besorgt 3
besseres 3
bestellen 3
bestimm@@ 3
bestimmen 3
bestreiken 3
bestreiten 3
betonen 3
betrag 3
betreffende 3
betrieb 3
betrieb@@ 3
betriebe 3
betrieben 3
betriebenen 3
beträch@@ 3
beträge 3
bets 3
bett 3
bevorstehenden 3
bewaffnet 3
bewahren 3
bewegungen 3
bewäl@@ 3
bezahlte 3
bezahlten 3
bezw@@ 3
bi 3
bie@@ 3
bilanz 3
bilder 3
bildet 3
bildung 3
billig 3
billigen 3
binden 3
bit@@ 3
bittere 3
bittet 3
blatt 3
blauen 3
bliebe 3
blin@@ 3
blut@@ 3
boot 3
bor@@ 3
borg 3
boten 3
brau@@ 3
breit@@ 3
bremse 3
brum@@ 3
brö@@ 3
brü@@ 3
bs 3
bt 3
buddhist@@ 3
bungs@@ 3
burg-@@ 3
burger 3
by@@ 3
bö@@ 3
böse 3
bösen 3
büro 3
ca 3
char@@ 3
chefs 3
chens 3
cher@@ 3
china 3
chron@@ 3
chs@@ 3
chtes 3
ckel 3
ckel@@ 3
cker@@ 3
clubs 3
co 3
dach@@ 3
dahinter 3
dan@@ 3
dankbar 3
darstellen 3
dat@@ 3
dau@@ 3
dauer 3
de- 3
defensiv 3
degerät 3
dein 3
deklar@@ 3
dekor@@ 3
demon@@ 3
demonstr@@ 3
demonstrierten 3
dend 3
denden 3
derartige 3
dere 3
derin 3
ders 3
derselben 3
derte 3
derung 3
designer 3
deswegen 3
deutlichen 3
deutschland 3
dh@@ 3
dicht 3
dierte 3
diesbezüglich 3
diesjährigen 3
diger 3
digkeit 3
digte 3
diplomatische 3
dir 3
dire@@ 3
direkten 3
diskutieren 3
distanz@@ 3
dlichen 3
dlicher 3
dner 3
dorf 3
dp@@ 3
drang 3
drastisch 3
drauf 3
drit@@ 3
dritter 3
drückt 3
ds@@ 3
dungen 3
dunklen 3
durchgeführt 3
durchschnittlich 3
durchsetzen 3
echt 3
eeper 3
ef@@ 3
egi@@ 3
ego@@ 3
ehren@@ 3
ehrgeizigen 3
eigen@@ 3
eigenem 3
eigenständigen 3
eigentlichen 3
einander 3
einfluss@@ 3
eingegangen 3
einheimischen 3
einig@@ 3
einiger 3
einmaligen 3
einräumen 3
einsam 3
einschlä@@ 3
einsetzt 3
einspringen 3
einsteigen 3
einstigen 3
einstweilige 3
einzelner 3
einzigartig 3
einziger 3
einziges 3
einzustellen 3
eit 3
elektr@@ 3
elektronischen 3
ellem 3
emotionale 3
empf@@ 3
empfehlenswerte 3
ena 3
enbauer 3
enberg 3
endete 3
endgültige 3
enfalls 3
enge 3
engen 3
enger 3
enheit 3
enne 3
enor@@ 3
enorm 3
enswert 3
ental@@ 3
entdeckten 3
entes 3
enthalten 3
entkommen 3
entlasten 3
entscheidend 3
entscheidende 3
entscheidung 3
entspannt 3
entstand 3
enttäuschend 3
enttäuschenden 3
entwickelte 3
entzogen 3
er-Jahren 3
erd@@ 3
erfahren 3
erfolgreiche 3
erfordert 3
ergab 3
ergeben 3
ergän@@ 3
erheben 3
erhebliche 3
erhielt 3
erhöhten 3
erien 3
erischen 3
erkennt 3
erkun@@ 3
erlauben 3
erleben 3
erlebte 3
erledigt 3
ermögliche 3
ernen 3
erneuten 3
erreichbar 3
erscheinende 3
erschließen 3
ersetzt 3
erstmal 3
erteilt 3
erwerben 3
erwiesen 3
erwischt 3
erwähnt 3
erwähnte 3
es-@@ 3
eskaliert 3
ests 3
eten 3
eth@@ 3
ett@@ 3
euph@@ 3
eur@@ 3
evolution@@ 3
exist@@ 3
ez@@ 3
fache 3
fahn@@ 3
faktisch 3
fall@@ 3
fan@@ 3
fang 3
fangen 3
far@@ 3
fehl@@ 3
fehler 3
feier 3
fein@@ 3
fel 3
ferin 3
fernsehen 3
fes 3
festgelegten 3
fig 3
figes 3
fight 3
film 3
films 3
finales 3
finanz@@ 3
finanzen 3
finanzieren 3
fing 3
fix@@ 3
flau@@ 3
flog 3
folge 3
folgten 3
fonds 3
formen 3
französ@@ 3
frau 3
freiwilli@@ 3
freiwillig 3
freu@@ 3
freundlich 3
freundlichen 3
freut 3
frisch 3
fru@@ 3
früh@@ 3
früherer 3
frühestens 3
fäl@@ 3
för@@ 3
fügt 3
führend 3
führenden 3
füllt 3
fün@@ 3
fünfte 3
ga 3
ga@@ 3
ganz@@ 3
garanti@@ 3
garten 3
ge-@@ 3
gebildet 3
gebnisse 3
gebung 3
gebü@@ 3
gebühr 3
gebürtigen 3
geeignet 3
geflogen 3
gefährden 3
gefährliche 3
gefährlichen 3
gefährlicher 3
gegenwärtige 3
gegründete 3
geheime 3
gehängt 3
gehöre 3
geist 3
gekrönt 3
gele@@ 3
gelegentlich 3
gelernt 3
gelt 3
gelte 3
gem 3
gend@@ 3
gene 3
genen 3
generell 3
genie@@ 3
gens 3
gent@@ 3
geprägt 3
gepumpt 3
gere@@ 3
geredet 3
gereicht 3
gereien 3
gerich@@ 3
gerichtlich 3
gerissen 3
gescheiterten 3
geschickt 3
geschieht 3
geschildert 3
geschlossenen 3
geschmack 3
geschockt 3
geschossen 3
geschätzt 3
geschützt 3
gesell@@ 3
gesellschaftlichen 3
gesetzliche 3
gespannt 3
gesprä@@ 3
gesteigert 3
gestellte 3
gestellten 3
gestohlen 3
gestoppt 3
gestrichen 3
gestört 3
gesunde 3
gesundheits@@ 3
get@@ 3
geteilt 3
gewahrt 3
gewannen 3
gewidmet 3
gewiss 3
gewisse 3
gewissen 3
gewor@@ 3
gewährt 3
gewöhnlich 3
gewürdigt 3
gezielte 3
gigen 3
gleichnamigen 3
glänzen 3
gnis 3
goldenen 3
gramm 3
grau 3
greift 3
gremium 3
grenzt 3
großzü@@ 3
grund 3
größen 3
grü@@ 3
grün 3
grüne 3
gänzlich 3
gül@@ 3
günst@@ 3
günstig 3
günstig@@ 3
hab 3
halb@@ 3
halle 3
halter 3
handele 3
handelte 3
handlung 3
harsche 3
harter 3
hartnäckig 3
hast 3
hau@@ 3
hausen 3
heb@@ 3
heim@@ 3
heiraten 3
hen@@ 3
herren 3
herstellen 3
herzustellen 3
heu@@ 3
heutigen 3
heutzutage 3
hielten 3
hinein@@ 3
hingelegt 3
hinnehmen 3
hinterlassen 3
hinweg 3
hinzu@@ 3
hochwertige 3
hoffnungs@@ 3
hohes 3
hre 3
hrt 3
ht 3
härtere 3
häss@@ 3
häuser 3
hö@@ 3
höchst 3
höchste 3
höh@@ 3
hörte 3
hörten 3
hül@@ 3
ica 3
ichen 3
icht@@ 3
ics 3
ideal 3
ideen@@ 3
iel 3
iels 3
iern 3
ierungen 3
if 3
igkeiten 3
iker 3
illu@@ 3
impon@@ 3
impor@@ 3
inar@@ 3
ind 3
indessen 3
indirekt 3
individuell 3
ine 3
inen 3
inform@@ 3
inhaltlich 3
inner@@ 3
inneren 3
ins@@ 3
institu@@ 3
institut 3
institute 3
intak@@ 3
intellektu@@ 3
intelligenten 3
interviewen 3
ionen 3
iranische 3
irgend@@ 3
irgendwie 3
irr@@ 3
is-@@ 3
isen 3
isten@@ 3
itags 3
ital@@ 3
italienische 3
ite@@ 3
iter 3
ituation 3
itzen 3
iöse 3
jagen 3
japanische 3
jemanden 3
jet 3
jeweiligen 3
job 3
ju@@ 3
jub@@ 3
jugendlichen 3
jüdischen 3
jüngst 3
kab@@ 3
kalifornischen 3
kalkuli@@ 3
kalkuliert 3
kalten 3
kammer 3
kanadische 3
kannte 3
kapitäns 3
kas@@ 3
kasten 3
katastrop@@ 3
katzen 3
kauft 3
kehr 3
keines 3
keits@@ 3
ketten 3
ki@@ 3
kin@@ 3
kir@@ 3
kische 3
klagt 3
klargemacht 3
klassen 3
klassischen 3
kle@@ 3
klebt 3
klei@@ 3
klein@@ 3
kleines 3
kletterte 3
klicken 3
klinik 3
kok@@ 3
kolle@@ 3
kompet@@ 3
kompliz@@ 3
konflik@@ 3
konjunktur@@ 3
konjunkturelle 3
konkret 3
konkrete 3
konzentrierte 3
konzerne 3
kop@@ 3
kor 3
korrekt 3
kostenlos 3
kostenlose 3
kran@@ 3
krank 3
kreis 3
kritiker 3
kräften 3
ktion@@ 3
ktiv 3
kts 3
kultur@@ 3
kung 3
kunst 3
kup@@ 3
kurdischen 3
kurse 3
kurz@@ 3
kümmert 3
kürz@@ 3
l-@@ 3
l. 3
la 3
lag@@ 3
lahm 3
langes 3
langfristige 3
langweilig 3
lat@@ 3
laufe 3
leb@@ 3
lebende 3
lebenden 3
leere 3
legal 3
legendären 3
legung 3
leich@@ 3
leichte 3
leidet 3
let 3
leuchten 3
lichere 3
licherweise 3
lichkeiten 3
lichsten 3
lichung 3
liebe 3
liebt 3
liest 3
ließe 3
lig 3
liga 3
lik@@ 3
lim@@ 3
ling 3
linien 3
loser 3
loy@@ 3
lten 3
lub 3
lungs@@ 3
ly 3
läch@@ 3
lächelt 3
längere 3
längeren 3
lässige 3
läufer 3
lös@@ 3
löst 3
lösung 3
machbar 3
macht@@ 3
mah@@ 3
mal@@ 3
manchen 3
mangel@@ 3
manipuliert 3
manns 3
mar@@ 3
marken 3
marken@@ 3
mas 3
matisch 3
mb@@ 3
medi@@ 3
medizinische 3
mehrheitlich 3
mehrmals 3
meisterin 3
meldet 3
menschlichen 3
ment@@ 3
merk@@ 3
mern 3
mert 3
messe 3
messer 3
milde 3
milit@@ 3
militärische 3
milli@@ 3
mitgeteilt 3
mitglied 3
mitglieder 3
mitsamt 3
mitt@@ 3
mitteln 3
mitzu@@ 3
mmer 3
modell 3
modells 3
moderate 3
mon 3
mor@@ 3
moral@@ 3
motiviert 3
mung 3
männ@@ 3
müde 3
nachgewiesen 3
nachhaltig 3
nachträglich 3
nackten 3
naiv 3
neben@@ 3
negativ 3
nein 3
ner-@@ 3
niedri@@ 3
niedrigen 3
niemandem 3
nochmals 3
nominiert 3
normal 3
normalen 3
not 3
not@@ 3
notiert 3
notwendige 3
nungen 3
nunmehr 3
nutz@@ 3
nutzte 3
nächtliche 3
nütz@@ 3
ober@@ 3
obje@@ 3
offener 3
offensive 3
offizielle 3
offiziellen 3
ogen 3
olen 3
olische 3
oper@@ 3
opf 3
opro@@ 3
opti@@ 3
ordentliche 3
orf 3
orten 3
ost@@ 3
our 3
pakistanischen 3
palästinensischen 3
panorama 3
partei@@ 3
passend 3
passende 3
passi@@ 3
plan 3
planen 3
platten 3
plattform 3
ple@@ 3
plä@@ 3
plätze 3
plötz@@ 3
polizei 3
populär 3
port 3
porträtiert 3
positionieren 3
positive 3
post@@ 3
ppen 3
ppen@@ 3
predigt 3
preis@@ 3
prickel@@ 3
prima 3
proble@@ 3
problem 3
profi 3
profil 3
profis 3
profit@@ 3
profitiert 3
prognostiz@@ 3
programme 3
projekt 3
promin@@ 3
promovierte 3
propagiert 3
protestiert 3
präsentieren 3
prü@@ 3
prüft 3
quer 3
radikalen 3
raft 3
rah@@ 3
ranche 3
rang 3
rats@@ 3
ratsam 3
re-@@ 3
reagierte 3
real@@ 3
realen 3
recher@@ 3
rechnung 3
rechtfertigen 3
rechtlern 3
reckt 3
redete 3
reffen 3
reg@@ 3
regel@@ 3
regelmäßigen 3
regi@@ 3
region 3
regionalen 3
regist@@ 3
regul@@ 3
reicher 3
reichste 3
reichsten 3
reihen 3
reinen 3
reis@@ 3
reißen 3
relati@@ 3
religiösen 3
repräsentiert 3
rer 3
ressort 3
rest@@ 3
rett@@ 3
reu@@ 3
ri 3
richten 3
richter 3
rieben 3
riebenen 3
riefen 3
ries@@ 3
ring@@ 3
risiken 3
risk@@ 3
ritt 3
robust 3
robuster 3
rolle 3
ros 3
roter 3
rufen 3
ruhiger 3
rungen 3
ruppen 3
rutschte 3
rutschten 3
ry-@@ 3
rät 3
räumen 3
räumt 3
rö@@ 3
rühmt 3
s. 3
sa 3
sach@@ 3
sagten 3
sahen 3
sal 3
sammelte 3
sank 3
sar@@ 3
sau@@ 3
schafften 3
schaftliche 3
schal@@ 3
schale 3
schar@@ 3
scharfen 3
schaute 3
schei@@ 3
schein@@ 3
schenken 3
schicht 3
schie@@ 3
schild 3
schlag@@ 3
schlagartig 3
schlimmsten 3
schlossen 3
schmalen 3
schmer@@ 3
schmu@@ 3
schneiden 3
schnitt 3
scho@@ 3
schreck@@ 3
schrei@@ 3
schrift@@ 3
schul@@ 3
schuld 3
schutzes 3
schwache 3
schwanger 3
schwarz-@@ 3
schwelt 3
schweres 3
schwierig 3
schwierigen 3
schwieriger 3
schwin@@ 3
schwul 3
schön@@ 3
schür@@ 3
sechste 3
seinerseits 3
seitdem 3
seither 3
selben 3
seltsam 3
seltsamen 3
senden 3
sergeb@@ 3
serklärung 3
serviert 3
sho@@ 3
shor@@ 3
show 3
sibir@@ 3
sicherstellen 3
sichtlich 3
sidentin 3
sieben@@ 3
sieg@@ 3
sierte 3
sig 3
sigen 3
singt 3
sinkenden 3
sion@@ 3
sionen 3
sions@@ 3
sit@@ 3
sitzenden 3
sitzung 3
siv 3
siver 3
ski 3
skontrolle 3
skurs 3
sofern 3
sogenannter 3
soviel 3
sowjetischen 3
sozial@@ 3
sparte 3
sparteien 3
spektakul@@ 3
spersonen 3
speziellen 3
spieler@@ 3
split@@ 3
sport 3
sport.ARD.de 3
sportler 3
sportlich 3
spreche 3
spreise 3
sprä@@ 3
spräsidenten 3
späteren 3
ssen 3
staat@@ 3
staatlich 3
staatsanwaltschaftlichen 3
stammen 3
starker 3
station 3
stationiert 3
statist@@ 3
stattdessen 3
ste@@ 3
steigerung 3
sten@@ 3
stern 3
stes 3
steuert 3
still@@ 3
stimm@@ 3
stimmt 3
stimmte 3
stisch 3
stol@@ 3
stoppen 3
strafrechtlich 3
straining 3
strateg@@ 3
strategische 3
streichen 3
streitet 3
strenge 3
strengen 3
striert 3
strukturen 3
sts 3
studierte 3
studios 3
ständigen 3
stätte 3
stöhnen 3
stör@@ 3
stück@@ 3
stürzte 3
suche 3
suchte 3
suchten 3
sum@@ 3
suspendiert 3
svorsitzender 3
sweise 3
systeme 3
szene 3
sämtliche 3
sämtlichen 3
südkoreanische 3
tagen 3
tags 3
tal 3
tan 3
tar@@ 3
tat 3
tatsächlichen 3
techn@@ 3
technische 3
teilnehmen 3
telefon@@ 3
tem 3
tender 3
tene 3
tens 3
tere 3
terer 3
terung 3
teuerste 3
teuersten 3
teuren 3
th-@@ 3
thaber 3
thema 3
themen 3
theoretisch 3
therapie 3
thilfe 3
tigste 3
tigte 3
tigten 3
tigungs@@ 3
tin@@ 3
ting 3
tion@@ 3
tions@@ 3
tische 3
tischen 3
titel 3
tlich 3
tlichen 3
tn@@ 3
to-@@ 3
toll@@ 3
ton 3
tons 3
tor@@ 3
toren 3
total 3
toten 3
tour@@ 3
traditionellen 3
trafen 3
trenn@@ 3
trieben 3
trinken 3
tropischen 3
trä@@ 3
tten 3
tter@@ 3
tue 3
tung@@ 3
turm 3
typisch 3
typische 3
tödliche 3
tümer 3
ue@@ 3
uer 3
umfang@@ 3
umfassende 3
umgeben 3
umgehend 3
umgestellt 3
umgewandelt 3
umstritten 3
umzu@@ 3
unabhängige 3
unbarmher@@ 3
unbefriedigend 3
une 3
unfall 3
ungewiss 3
ungewöhn@@ 3
unglück@@ 3
ungsp@@ 3
unliebsame 3
unschuldige 3
unterdessen 3
unterhalb 3
unterhalten 3
unterirdischen 3
unterliegen 3
unterrichtet 3
unterzogen 3
unzureichend 3
uren 3
urn@@ 3
v 3
vagen 3
vater 3
venezol@@ 3
verab@@ 3
verabschieden 3
veranstal@@ 3
verantwortlichen 3
verbands 3
verbinden 3
verbindet 3
verbindlich 3
verbu@@ 3
verdanken 3
verdankt 3
verdoppelt 3
verdutzt 3
vereins 3
verfallen 3
verfassungs@@ 3
verfügt 3
vergab 3
vergebenen 3
vergleichbar 3
vergleichen 3
verhaftet 3
verhandlungen 3
verheerenden 3
verhinderte 3
verhältnissen 3
verhängt 3
verkauften 3
verlagert 3
verleihen 3
verletzen 3
verletzungen 3
verließ 3
verlust 3
verlängern 3
vermarkten 3
vermehr@@ 3
vermieden 3
vermischtes 3
vermisst 3
vermögen 3
vernehmen 3
vernünftig 3
verpasst 3
verpasste 3
versagt 3
verschmutz@@ 3
verschwinden 3
verschwunden 3
verstec@@ 3
versteht 3
verständigen 3
verständnis 3
versuche 3
verteidiger 3
verteilung 3
verteuerte 3
verursachen 3
verwahr@@ 3
verweist 3
verwöhnten 3
verzeichnet 3
verän@@ 3
viertel 3
vir@@ 3
virtuelle 3
vok@@ 3
vol@@ 3
volks@@ 3
vorange@@ 3
vorbereiten 3
vorgehen 3
vorgelegten 3
vorkommen 3
vorliegt 3
vornherein 3
vorsieht 3
vorstand 3
vorwerfen 3
vorzeitig 3
vorzeitige 3
vorzeitigen 3
vorzulegen 3
vorüber 3
wachsende 3
wachstum 3
wahl@@ 3
wald 3
warb 3
warmen 3
wasser 3
we 3
webwelt 3
wechselte 3
wecken 3
weckt 3
wehren 3
weibliche 3
weichen 3
weis@@ 3
weitermachen 3
weites 3
wel@@ 3
werdenden 3
werken 3
werte 3
wertung 3
wesen 3
wichtiges 3
wider 3
wiederholt 3
willigen 3
willkommen 3
winter@@ 3
winterlichen 3
wirklichen 3
wirksamen 3
wirt 3
wissen@@ 3
wissenschaften 3
wissenschaftler 3
wissenschaftlicher 3
witz@@ 3
wobei 3
wohl@@ 3
wort@@ 3
wuchs 3
wände 3
wünscht 3
würdigen 3
xen 3
zahlungs@@ 3
zeitgenössischen 3
zeitweise 3
zelt 3
zelten 3
zeu@@ 3
zeug 3
zeuge 3
zeugen 3
ziehe 3
ziel 3
zig@@ 3
zimmer 3
zip@@ 3
zis@@ 3
zufried@@ 3
zuführen 3
zugehöri@@ 3
zugelegt 3
zugesagt 3
zugestimmt 3
zugute 3
zukünftige 3
zulassen 3
zumeist 3
zun@@ 3
zungs@@ 3
zurecht 3
zurzeit 3
zurückgegangen 3
zurückgewiesen 3
zurückhalten 3
zurückkehrte 3
zurückzahlen 3
zurückziehen 3
zusammengezogen 3
zuver@@ 3
zuverlässig 3
zweier 3
zweifellos 3
zwer@@ 3
zy@@ 3
zz@@ 3
zä@@ 3
zählten 3
zö@@ 3
zögerlich 3
Ägypten 3
Ähn@@ 3
Äl@@ 3
Är@@ 3
Ärzte@@ 3
Öff@@ 3
Öffent@@ 3
Öl- 3
Überrasch@@ 3
Überraschung 3
Überschwemmungen 3
Übungen 3
ßung 3
ä 3
äck 3
ähn@@ 3
älteste 3
ämp@@ 3
ände 3
ärer 3
ärgern 3
ärzte 3
ärztliche 3
ätze 3
äufe 3
äußert 3
öff@@ 3
öffentlicher 3
öffnen 3
öhn@@ 3
ökologisch 3
öl 3
öl@@ 3
ösen 3
öser 3
österreichische 3
überdies 3
überfordert 3
überführt 3
überholte 3
überwiegend 3
überwäl@@ 3
übt 3
üche 3
üh@@ 3
üm@@ 3
üpp@@ 3
ürzt 3
üsse 3
üter 3
-Arbeit 2
-Block 2
-C@@ 2
-Experten 2
-Fahr@@ 2
-Funktion@@ 2
-Funktionär 2
-Führer 2
-Gel@@ 2
-H@@ 2
-Hasser 2
-Hersteller 2
-Herstellers 2
-Hoch 2
-Häftlinge 2
-I@@ 2
-Jährige 2
-Kauf 2
-Kollektion 2
-Konzern 2
-Kra@@ 2
-Kunden 2
-Mach@@ 2
-Mission 2
-Peter 2
-Scre@@ 2
-Serie 2
-Show 2
-Software 2
-Sparte 2
-Sportdirektor 2
-Sterne@@ 2
-Szene 2
-TV-@@ 2
-Ter@@ 2
-Test 2
-Titel 2
-Tri@@ 2
-Ver@@ 2
-Verhältnis 2
-Verlag 2
-Wel@@ 2
-Zeitung 2
-Zitat 2
-h@@ 2
-jähriger 2
0,1518,502@@ 2
0,1518,50@@ 2
0,32 2
0,5 2
0,9 2
0-Sieg 2
000-@@ 2
000-Einwohner-Stadt 2
03.09.2007 2
03.10.2007 2
06.09.2007 2
06@@ 2
07.09.2007 2
07.@@ 2
1,26 2
1,35@@ 2
1,36@@ 2
1,41 2
1,8 2
1,9 2
1-Sieg 2
1.000 2
10-@@ 2
10.09.2007 2
101 2
106 2
11.11.2007 2
115,@@ 2
117 2
12,@@ 2
12.10.2007 2
12.@@ 2
1205@@ 2
1210@@ 2
1224@@ 2
12265@@ 2
1230@@ 2
1246@@ 2
130.000 2
140 2
142 2
145 2
146 2
148 2
15,2 2
15,5 2
15,@@ 2
15-@@ 2
150.000 2
155 2
16.09.2007 2
16.@@ 2
166 2
17-@@ 2
17-jährigen 2
17.30 2
1700 2
177 2
18,5 2
18.11.2007 2
180 2
1830 2
1832 2
19,@@ 2
19.@@ 2
19.html 2
1910 2
192 2
1946 2
194@@ 2
1950 2
1956 2
1957 2
1965 2
1973 2
1974 2
1980@@ 2
1985 2
1989 2
1992 2
2,6 2
2,8 2
2,9 2
2-@@ 2
2-Niederlage 2
2.0 2
20,@@ 2
2014 2
2015 2
21.09.2007 2
21.@@ 2
228@@ 2
22@@ 2
235 2
240 2
240.000 2
2400 2
25-Jährige 2
250.000 2
256 2
26,4 2
26.09.2007 2
26.12.2007 2
260 2
268@@ 2
27,@@ 2
27.12.2007 2
2709@@ 2
271 2
275 2
28-@@ 2
28.12.2007 2
3,5 2
3,8 2
3,9 2
30.09.2007 2
30.12.2007 2
30.@@ 2
300.000 2
301 2
329 2
33-Jährige 2
33. 2
350.000 2
36-jährige 2
38-@@ 2
39. 2
4,9 2
4.@@ 2
41-@@ 2
42. 2
43,@@ 2
43. 2
450@@ 2
46.000 2
463 2
48-Jährige 2
49,@@ 2
49. 2
49@@ 2
5,1 2
5,4 2
5,8 2
5-@@ 2
5.html 2
52-Jährige 2
53-@@ 2
54. 2
55-Jährige 2
55@@ 2
58@@ 2
6,9 2
6.000 2
62-Jährigen 2
63@@ 2
65. 2
66,@@ 2
66. 2
69. 2
7,1 2
70-@@ 2
700.000 2
70er 2
720 2
73. 2
73@@ 2
78. 2
785 2
79. 2
8,4 2
801 2
80er 2
81 2
810 2
85.html 2
88@@ 2
89@@ 2
9.@@ 2
90-@@ 2
90. 2
95@@ 2
97 2
A4 2
AA@@ 2
AB@@ 2
ABN 2
ABN-@@ 2
AKW-@@ 2
AM@@ 2
AN@@ 2
AR@@ 2
ARD-@@ 2
ASS 2
ATP-@@ 2
Aach@@ 2
Abbas 2
Abdul 2
Abe@@ 2
Abenteurer 2
Aber@@ 2
Abfuhr 2
Abgabe 2
Abgas@@ 2
Abgel@@ 2
Abgeltungsteuer 2
Abgeord@@ 2
Abgesehen 2
Abhol@@ 2
Abhängigkeit 2
Abhören 2
Abit@@ 2
Abkehr 2
Abkommen 2
Ablenk@@ 2
Abläufe 2
Ablösesummen 2
Abramowitsch 2
Abrechnung 2
Abrüstung 2
Absatz@@ 2
Abschalten 2
Abschl@@ 2
Abschwung 2
Abschwächung 2
Absprache 2
Abstie@@ 2
Abstieg 2
Abstimm@@ 2
Abstimmungs@@ 2
Abstra@@ 2
Abtrennung 2
Abwägung 2
Abwärtstrend 2
Abzüge 2
Ac@@ 2
Achse 2
Acht 2
Achtzylin@@ 2
Adidas 2
Adop@@ 2
Adorf 2
Adressen 2
Aff@@ 2
Affe 2
Affen 2
Afghanistan-Einsatz 2
Afrikas 2
Agen@@ 2
Agenten 2
Agentur@@ 2
Agüero 2
Ahmad 2
Aid@@ 2
Aids 2
Aigner 2
Air-@@ 2
Airbags 2
Airbus-Mutter@@ 2
Airport 2
Airways 2
Akadem@@ 2
Akku 2
Akro@@ 2
Akt 2
Akteure 2
Aktienbörse 2
Aktienbörsen 2
Aktienfonds 2
Aktionär 2
Aktiv 2
Aktiv@@ 2
Akzent 2
Alan 2
Alarm 2
Alarm@@ 2
Albert 2
Albrecht 2
Albtraum 2
Albträume 2
Alcan 2
Aldi 2
Aless@@ 2
Alex 2
Alexandra 2
Alfred 2
Algen 2
Ali@@ 2
Alice 2
Alkohol@@ 2
Allgemein@@ 2
Allgemeine 2
Allgemeinverbind@@ 2
Allofs 2
Alltag 2
Almunia 2
Alois 2
Altern@@ 2
Altersversorgung 2
Altersvorsorge 2
Altona 2
Aluminium@@ 2
Amanatidis 2
Amat@@ 2
Amb@@ 2
Ambiente 2
Amel@@ 2
America 2
Amo@@ 2
Amro 2
Amtskollege 2
Amy 2
Analysen 2
Anbietern 2
Anden 2
Andenken 2
Andererseits 2
Andernfalls 2
Anfänge 2
Anführ@@ 2
Ang 2
Angebots 2
Angeführt 2
Angelegenheiten 2
Angerer 2
Angriffen 2
Angst@@ 2
Anhaltspunkte 2
Anhebung 2
Anhän@@ 2
Anhänger@@ 2
Anhörung 2
Anita 2
Anklage@@ 2
Ankläger 2
Ankunft 2
Anlag@@ 2
Anlagenbauer 2
Anlagestrategie 2
Anlageuniversum 2
Anlauf 2
Anlässen 2
Anmeldung 2
Anna 2
Annahme 2
Annalen 2
Annäherung 2
Anpass@@ 2
Anpassungspro@@ 2
Ansage 2
Anschlag@@ 2
Anschlags@@ 2
Anschuldigungen 2
Ansichten 2
Ansprüche 2
Ansprüchen 2
Anstalten 2
Ansätze 2
Antalya 2
Anteil@@ 2
Anti-Doping-Agentur 2
Antiqu@@ 2
Antrieb 2
Antwerpen 2
Anwaltsp@@ 2
Anwen@@ 2
Anwendung 2
Anwesenden 2
Anzeige 2
Anziehungskraft 2
Apokalypse 2
Appell 2
Applaus 2
Apple-Fan 2
Apples 2
Ara@@ 2
Arbeitge@@ 2
Arbeitgeber@@ 2
Arbeitsagent@@ 2
Arbeitsk@@ 2
Arbeitskamp@@ 2
Arbeitslose 2
Arbeitslosen@@ 2
Arbeitslosengeldes 2
Arbeitslosigkeit 2
Arbeitsmarktpolitik 2
Arbeitspro@@ 2
Arc 2
Arc@@ 2
Architek@@ 2
Architekt 2
Architektur 2
Archiv 2
Archivbild 2
Archäologen 2
Arcor 2
Arezzo 2
Argent@@ 2
Argum@@ 2
Argument 2
Ari@@ 2
Armee-@@ 2
Armen@@ 2
Armin 2
Armstrong 2
Arnold 2
Arp-@@ 2
Arsenal 2
Artikels 2
As 2
Asamoah 2
Aschaffenburg 2
Ashkan 2
Asiens 2
Aspe@@ 2
Aspekte 2
Assi@@ 2
Assozi@@ 2
Astana 2
Asy@@ 2
At 2
Atelier 2
Atem@@ 2
Atemwege 2
Athlet 2
Atlas 2
Atomenergie 2
Atomkraft 2
Atomkraftwerke 2
Atomprogramm 2
Atomstrom 2
Atomwaffen 2
Attentat 2
Attentäter 2
Audi 2
Audi@@ 2
Aue 2
Aufbau@@ 2
Aufbruchstimmung 2
Aufenth@@ 2
Auff@@ 2
Auffälligkeiten 2
Aufführung 2
Aufhebens 2
Aufholjagd 2
Aufklär@@ 2
Aufschwung@@ 2
Aufseher 2
Aufsichtsrats 2
Aufsichtsratschef 2
Aufstand 2
Aufstockung 2
Auftakt@@ 2
Auftaktspiel 2
Auftrit@@ 2
Auftritts 2
Aufwärts@@ 2
Aufzeichnung 2
Auge 2
Augenbraue 2
Augenzeugen 2
Auktionspl@@ 2
Aung 2
Ausbildungsplatz 2
Ausdauer@@ 2
Ausfall@@ 2
Ausflug 2
Ausflugs@@ 2
Ausgabeauf@@ 2
Ausgang@@ 2
Ausgangs@@ 2
Ausgestoßenen 2
Ausgleichstor 2
Ausgrabungen 2
Auskünfte 2
Auslegung 2
Auslieferung 2
Auslän@@ 2
Ausländer 2
Ausnahmes@@ 2
Ausnahmezustands 2
Ausrüster 2
Aussage@@ 2
Ausschreibung 2
Ausschreitungen 2
Ausschusses 2
Ausschütt@@ 2
Aussehen 2
Ausstellungs@@ 2
Aussto@@ 2
Ausstrahlung 2
Aust@@ 2
Australian-Open-Halbfinalist 2
Australiens 2
Austrian 2
Auswahl@@ 2
Auswär@@ 2
Auszeichnung 2
Auszubil@@ 2
Autobahn-@@ 2
Autobahnen 2
Autoc@@ 2
Autofahr@@ 2
Autoh@@ 2
Automatik 2
Automobil-@@ 2
Autors 2
Außenamtssprecher 2
Außenbord@@ 2
Außenministerium 2
Außer 2
Außer@@ 2
Außerhalb 2
Avenue 2
Axa 2
Axel 2
BB@@ 2
BDI 2
BDR 2
BGH 2
BKA 2
BMW-@@ 2
BMW-Sauber 2
BV@@ 2
BaFin 2
Bad@@ 2
Baden-Baden 2
Baer 2
Baf@@ 2
Bahnchef 2
Bahnkunden 2
Bahnvorstand 2
Baker 2
Bakterien 2
Balance 2
Ballon@@ 2
Balzac 2
Bam@@ 2
Bank-Chef 2
Banker 2
Barak 2
Barbarez 2
Bargeld 2
Bark@@ 2
Barmstedt 2
Barschel 2
Barschels 2
Bartels 2
Baseball@@ 2
Basis@@ 2
Bastürk 2
Batas@@ 2
Batterien 2
Baubeginn 2
Bauboom 2
Bauch 2
Baugrund 2
Baukonzerns 2
Baumaschinenhersteller 2
Baumbach 2
Baumeister 2
Bausteine 2
Baustelle 2
Baustellen 2
Baustopp 2
Bauunternehmen 2
BayernLB 2
Bd 2
Beate 2
Beb@@ 2
Becken 2
Beckenbauer 2
Becks 2
Bedingung 2
Bedrängnis 2
Beete 2
Beeth@@ 2
Befreiungs@@ 2
Befu@@ 2
Befund 2
Befürwor@@ 2
Bege@@ 2
Behandlungs@@ 2
Behr@@ 2
Beilegung 2
Bein@@ 2
Beis@@ 2
Beisp@@ 2
Beispiele 2
Beitrags 2
Beitritts@@ 2
Beiträge 2
Beiträgen 2
Bekannt 2
Bekannten 2
Bekenner@@ 2
Bekämp@@ 2
Belastungen 2
Beleg 2
Belei@@ 2
Beleidigung 2
Belenenses 2
Beleu@@ 2
Belgiens 2
Bembel 2
Bemühen 2
Bemühungen 2
Benedi@@ 2
Benjamin 2
Benker 2
Bensel 2
Benz-@@ 2
Benzin 2
Benziner 2
Beppe 2
Beratungs@@ 2
Beratungsfirmen 2
Berbatow 2
Berg 2
Bergdorf 2
Berge 2
Berger 2
Bernanke 2
Berner 2
Berrer 2
Bert 2
Bertelsmann 2
Berufserfahrung 2
Beruhigung 2
Berühr@@ 2
Beschaffung 2
Bescherung 2
Beschlüsse 2
Beschreibung 2
Beschäf@@ 2
Beschäftigungen 2
Beseitigung 2
Besitz@@ 2
Besonderes 2
Besonderheit 2
Besonderheiten 2
Besprochen 2
Bestattungen 2
Bestech@@ 2
Bestehen 2
Bestseller@@ 2
Bestätigung 2
Besuchern 2
Beton 2
Betrachter 2
Betrachtung 2
Betre@@ 2
Betrei@@ 2
Betreu@@ 2
Betreuung 2
Betrieb@@ 2
Betriebe 2
Betrieben 2
Betriebsergebnis 2
Betroffen 2
Betroffene 2
Beträge 2
Betrüger 2
Bett@@ 2
Bettina 2
Beu@@ 2
Beurteilung 2
Beust 2
Beute 2
Bevölkerungszahl 2
Beweis 2
Bewerbung 2
Bewilligungs@@ 2
Bewusstsein 2
Bewährungsstrafe 2
Bezirk@@ 2
Bhut@@ 2
Bib@@ 2
Bibliotheken 2
Biedenk@@ 2
Bieterkreis 2
Big 2
Biker 2
Bilanzen 2
Bildungssystem 2
Bill@@ 2
Billig-@@ 2
Billig@@ 2
Billionen 2
Billy 2
Bin 2
Binnen 2
Binnen@@ 2
Biodiesel 2
Biografie 2
Biokraft@@ 2
Biom@@ 2
Biotech 2
Biotechn@@ 2
Birgit 2
Birnbaum 2
Bischofs 2
Bischofskonferenz 2
Biss 2
Bistum 2
Blake 2
Blas@@ 2
Blauen 2
Blazek 2
Blech@@ 2
Blei 2
Bleibt 2
Blessuren 2
Blin@@ 2
Blindheit 2
Blogger 2
Blu-ray-@@ 2
Blue 2
Bluetec 2
Blum@@ 2
Blumen 2
Blumenstrauß 2
Blödsinn 2
Blü@@ 2
Bobby 2
Bochumer 2
Bocken@@ 2
Bod@@ 2
Bodden@@ 2
Boh@@ 2
Bohl@@ 2
Bohr@@ 2
Bohsem 2
Bolivien 2
Boll@@ 2
Bolten 2
Bom@@ 2
Bombenanschlag 2
Bond 2
Boock 2
Book@@ 2
Booms 2
Boot 2
Bord@@ 2
Bordell@@ 2
Boulevard-@@ 2
Bourne 2
Bow@@ 2
Box 2
Boxer 2
Boykott 2
Branchendienst 2
Branchenverband 2
Brandenburger 2
Branding 2
Brasilianers 2
Bratislava 2
Brau@@ 2
Brauch 2
Brauer 2
Brauerei 2
Braun 2
Braunkohlekraft@@ 2
Braut 2
Breit@@ 2
Breite 2
Briefzusteller 2
Brigitte 2
Brilliance 2
Brisanz 2
Brit@@ 2
Bron@@ 2
Browser 2
Brum@@ 2
Brunsbüttel 2
Brust 2
Brust@@ 2
Brutalität 2
Brä@@ 2
Buches 2
Budd@@ 2
Buer@@ 2
Bull@@ 2
Bum 2
Bundesamt 2
Bundesan@@ 2
Bundesanleihen 2
Bundesanwaltschaft 2
Bundesaußenminister 2
Bundesbildungsministerin 2
Bundesbürger 2
Bundesfinanz@@ 2
Bundesgerichtshof 2
Bundesinnenminister 2
Bundesjustiz@@ 2
Bundeskartell@@ 2
Bundeslig@@ 2
Bundesliga-T@@ 2
Bundesliga@@ 2
Bundesligak@@ 2
Bundesligasp@@ 2
Bundesligaspiel 2
Bundesligisten 2
Bundespräsidenten 2
Bundesrat 2
Bundestages 2
Bundestagsabgeordnete 2
Bundestagsabgeordneten 2
Bundestagsfraktion 2
Bundestagsvizepräsident 2
Bundestrainerin 2
Bundesumwelt@@ 2
Bundesverbandes 2
Bundesverkehrsminister 2
Bundesverkehrsministerium 2
Bundeswirtschafts@@ 2
Bunkerment@@ 2
Bunte 2
Burma 2
Bussen 2
Buster 2
Butler 2
Buße 2
Bußgelder 2
Bäume 2
Bö@@ 2
Böll 2
Bücher@@ 2
Bünd@@ 2
Bündnis 2
Bürg@@ 2
Bürgerinitiative 2
Bürgerkrieg 2
Bürokrati@@ 2
Bürokratie 2
C-@@ 2
C-Klasse 2
C.@@ 2
CBS 2
CD-@@ 2
CD@@ 2
CDU-Generalsekretär 2
CEO 2
CIA 2
CO2 2
CSU-Chef 2
CSU-Vorsitz 2
Cab@@ 2
Cabrio 2
Cabriol@@ 2
Caf@@ 2
Cameron 2
Camp@@ 2
Campus 2
Canon 2
Carlo 2
Carpendale 2
Carsten 2
Cas@@ 2
Cast@@ 2
Castro 2
Catherine 2
Cc 2
Cel@@ 2
Central 2
Cer@@ 2
Ces@@ 2
Chab@@ 2
Chabad 2
Cham@@ 2
Champag@@ 2
Champions-League-Spiel 2
Chancengleichheit 2
Charaktere 2
Charakterist@@ 2
Charlie 2
Charlotten@@ 2
Chase 2
Chefcoach 2
Chefsache 2
Chemikalien 2
Chemnitz 2
Chemnitzer 2
Cheney 2
Chief 2
Chili 2
Chinas 2
Chips 2
Chizen 2
Choupo-Moting 2
Christentum 2
Christine 2
Christliche 2
Christopher 2
Christus 2
Ci@@ 2
Cit@@ 2
Cl@@ 2
Cla@@ 2
Claire 2
Clans 2
Clar@@ 2
Class 2
Cleveland 2
Clooneys 2
Clu@@ 2
CoRo@@ 2
Code 2
Col@@ 2
Colorado 2
Com 2
Comdirect 2
Comedy 2
Communications 2
Computern 2
Condition@@ 2
Condoleezza 2
Conergy 2
Conference 2
Contador 2
Container@@ 2
Contergan@@ 2
Continental 2
Cool 2
Cor@@ 2
Corinna 2
Cornelia 2
Corvette 2
Coun@@ 2
Country@@ 2
County 2
Coup@@ 2
Cour@@ 2
Cra@@ 2
Craig 2
Crash@@ 2
Crouch 2
Cruise 2
Crème 2
Curko 2
DC-@@ 2
DDR-@@ 2
DER 2
DF@@ 2
DGB 2
DI@@ 2
DIW 2
DJ@@ 2
DNA-Spuren 2
DOSB 2
DS@@ 2
DSF 2
DSL-@@ 2
DT@@ 2
DTU 2
DTU-@@ 2
DVB- 2
DVD 2
DVDs 2
DVU 2
Dac@@ 2
Dahinter 2
Daily 2
Dal@@ 2
Damien 2
Dan@@ 2
Danke 2
Danone 2
Daraufhin 2
Daraus 2
Darcheville 2
Darf 2
Darin 2
Darm@@ 2
Dat@@ 2
Datenbank 2
Datenschutz 2
Datenverarbeitungs@@ 2
Dav@@ 2
Dawi@@ 2
Dawn 2
Dec@@ 2
Deck@@ 2
Decke 2
Deckung 2
Defensive 2
Definition 2
Deiche 2
Dekor@@ 2
Delegi@@ 2
Delhi 2
Dell 2
Dell@@ 2
Dementi 2
Demeter 2
Demmer 2
Demokrati@@ 2
Demontage 2
Den@@ 2
Denkbar 2
Denkmal 2
Deo 2
Depots 2
Depression 2
Der@@ 2
Deren 2
Deriv@@ 2
Derweil 2
Design@@ 2
Det@@ 2
Detailli@@ 2
Detroit 2
Deuse 2
Deut@@ 2
Deutsch-@@ 2
Deutsches 2
Deutschkennt@@ 2
Deutschlandfunk 2
Deutung 2
Devise 2
Di 2
Diabetes-@@ 2
Diagnose 2
Diamanten 2
Dich 2
Dich@@ 2
Dick@@ 2
Dicke 2
Dienstleisters 2
Dienstleistungen 2
Diesel@@ 2
Diesen 2
Dietzsch 2
Differ@@ 2
Digital@@ 2
Dignitas 2
Dilemma 2
Din@@ 2
Dino 2
Diplom@@ 2
Direktbank-@@ 2
Discounter 2
Diskre@@ 2
Diskrimin@@ 2
Display 2
Distri@@ 2
Disziplinen 2
Ditt@@ 2
Dividende 2
Diäten 2
Dohnanyi 2
Dok@@ 2
Dokumentar@@ 2
Dokumentation 2
Dokumente 2
Dollar-Marke 2
Dollar-Noten 2
Dollar@@ 2
Dominik 2
Donad@@ 2
Dop@@ 2
Dopings 2
Dopingverdacht 2
Doppel-@@ 2
Doppelhaushalt 2
Doppelsieg 2
Dor@@ 2
Dorf 2
Dorn 2
Dorothee 2
Dow 2
Down 2
Dra@@ 2
Drachen@@ 2
Dram@@ 2
Drama 2
Drei-@@ 2
Dri@@ 2
Drit@@ 2
Drobny 2
Drogen 2
Drohung 2
Dschungel 2
Dubai 2
Duft 2
Duma 2
Dumm@@ 2
Dunk@@ 2
Dunkel 2
Dunkel@@ 2
Duo 2
Dur@@ 2
Durban 2
Durchschnitts@@ 2
Durststrecke 2
Dusch@@ 2
Dutt 2
Dutz@@ 2
Dynamik 2
Dänemarks 2
Dön@@ 2
Dü@@ 2
Dün@@ 2
Dünger@@ 2
Dürr 2
E-M@@ 2
E-Mail-@@ 2
E.on 2
E3 2
E4@@ 2
E90 2
EN@@ 2
EU-Ländern 2
EU-Währungskommissar 2
Ebbel@@ 2
Eben 2
Eberl 2
Echo 2
Econom@@ 2
Ecuador 2
Edwards 2
Eff@@ 2
Egal 2
Eggert 2
Ehem@@ 2
Eher 2
Ehrengast 2
Ehrenmord 2
Ehrhart 2
Ehrlich 2
Ehrmann 2
Eifel 2
Eigelb 2
Eigenkapital 2
Eigenregie 2
Einfach 2
Einführ@@ 2
Eingriffe 2
Einkauf 2
Einkaufsli@@ 2
Einkaufszentrum 2
Einkommensteuer 2
Einlass@@ 2
Einmal@@ 2
Einnahmeausfälle 2
Einsatzkräfte 2
Einsatzkräften 2
Einschaltquote 2
Einschränkungen 2
Einschätzungen 2
Einspar@@ 2
Einsparungen 2
Einstie@@ 2
Einstiegspreis 2
Einstufung 2
Einsturz 2
Einvernehmen 2
Einverständnis 2
Einwanderer 2
Einweihung 2
Einzelfall 2
Einzelhandels@@ 2
Einzelhandelsindex 2
Einzelheiten 2
Eisenbahn 2
Eisenbahn@@ 2
Eisschnell@@ 2
Ek@@ 2
Ekstase 2
El 2
El-Kaida-@@ 2
Elek@@ 2
Elektron@@ 2
Elektronik@@ 2
Elementen 2
Elfmeter@@ 2
Elisabe@@ 2
Emden 2
Emer@@ 2
Emil 2
Emiraten 2
Empfehlung 2
Empfängern 2
Empörung 2
Endkunden 2
Endr@@ 2
Energiesparen 2
Energiesparlampen 2
Energieversorger 2
Energieversorgung 2
Energiewirtschaft 2
Eng@@ 2
Engländer 2
Ensemble 2
Ensslin 2
Enter@@ 2
Entfernung 2
Entführung 2
Enthül@@ 2
Entlang 2
Entschei@@ 2
Entscheidend 2
Entscheidungs@@ 2
Entsprechend 2
Entsteh@@ 2
Entwicklungen 2
Entwicklungshilfe 2
Epilepsie 2
Epoche 2
Erben 2
Erdbeben@@ 2
Erden 2
Erderwärmung 2
Erdgas 2
Erdgas@@ 2
Erdölmetropole 2
Ereignisse 2
Erfolgen 2
Erfolgre@@ 2
Erfolgsaussichten 2
Ergebnissen 2
Ergo 2
Erhalt 2
Erholung 2
Eri@@ 2
Eric 2
Erich 2
Erkenntnissen 2
Erklärer 2
Erklärungen 2
Erlan@@ 2
Erleb@@ 2
Erlebnisse 2
Erleichterung 2
Ermittlung@@ 2
Ermittlungsverfahren 2
Ermordeten 2
Ermu@@ 2
Ernennung 2
Erreg@@ 2
Ersatzfahrplan 2
Ersatzfahrpläne 2
Ersatzmann 2
Erspar@@ 2
Erst@@ 2
Erstligisten 2
Erstversicher@@ 2
Ertl 2
Erwartung 2
Erwerb 2
Erwerbs@@ 2
Erwin 2
Erwärmung 2
Erzbistum 2
Erzeu@@ 2
Erzgebirge 2
Erziehung 2
Erzählen 2
Erzählung 2
Eröff@@ 2
Esc@@ 2
Eskorte 2
Estland 2
Et@@ 2
Etage 2
Etat@@ 2
Europameister 2
Europar@@ 2
Europe 2
Europäern 2
Eurosport 2
Ev@@ 2
Evakuierungen 2
Evangelischen 2
Ever@@ 2
Everton 2
Ewig@@ 2
Ex-Frau 2
Exe@@ 2
Exil-@@ 2
Experiment 2
Experten@@ 2
Expertenansicht 2
Extreme 2
Exzessen 2
F. 2
F.A.Z.@@ 2
FBI 2
FBI-@@ 2
FH 2
FIA 2
FIA@@ 2
FIFA 2
FINANZ@@ 2
FSB 2
FTD-@@ 2
FTD-Online 2
Fabian 2
Fabio 2
Fabri@@ 2
Fabrik@@ 2
Fach- 2
Fachhoch@@ 2
Fachsprache 2
Fahrens 2
Fahrgäste 2
Fahrrad@@ 2
Fahrräder 2
Fahrtbericht 2
Fahrten 2
Fahrwerk 2
Fakten 2
Faktor 2
Faktoren 2
Falsch@@ 2
Famili@@ 2
Familienangehörigen 2
Familienministerin 2
Familienministerium 2
Familienpolitik 2
Family 2
Fant@@ 2
Farb@@ 2
Fasch@@ 2
Faser@@ 2
Fashion 2
Fass 2
Fassade 2
Fast@@ 2
Faszination 2
Faust 2
Fav@@ 2
Fax 2
Feder@@ 2
Feh@@ 2
Fehlen 2
Fehler@@ 2
Fehlern 2
Fehlversuchen 2
Feier@@ 2
Feinde 2
Felber 2
Felder 2
Felmy 2
Femin@@ 2
Fen@@ 2
Fernschuss 2
Fernsehmoderatorin 2
Fernsehsender 2
Ferrari-@@ 2
Ferrer 2
Fertighaus@@ 2
Fertigung 2
Fertigungs@@ 2
Festival 2
Festlegung 2
Feuerwehr 2
Feuerwehr@@ 2
Feuerwerk 2
Feuerwerksk@@ 2
Fia 2
Fiat 2
Fifa-Exek@@ 2
Fig@@ 2
Filesharer 2
Fili@@ 2
Filial@@ 2
Film- 2
Filmemacher 2
Filmfestival 2
Filter 2
Final@@ 2
Finalisten 2
Finance 2
Finanzbeziehungen 2
Finanzhilfen 2
Finanzkrise 2
Finanzmarkt@@ 2
Finanzminister 2
Finanzmittel 2
Finanzpolitik 2
Finanztitel 2
Finanzvorstand 2
Finanzwerte 2
Finden 2
Fine 2
Finesse 2
Fingern 2
Fingern@@ 2
Finkes 2
Firefox 2
Firmengründer 2
First 2
Fisch 2
Fischer@@ 2
Fitti@@ 2
Fla@@ 2
Flam@@ 2
Flandern 2
Fleisch@@ 2
Fleischab@@ 2
Flens@@ 2
Flensburger 2
Flex@@ 2
Fließband 2
Flor@@ 2
Flu@@ 2
Flugblätter 2
Fluggesellschaft 2
Flughafens 2
Flugzeugen 2
Flugzeuges 2
Flugzeughersteller 2
Flugzeugs 2
Fluten 2
Flä@@ 2
Flüch@@ 2
Flüchtlingen 2
Flügel@@ 2
Flüssigkeiten 2
Focus 2
Folglich 2
Football 2
Forbes 2
Fords 2
Foren 2
Fork 2
Format 2
Formation 2
Formen 2
Forsch@@ 2
Forscher@@ 2
Fortbildungs@@ 2
Fortschritte 2
Forza 2
Fossett 2
Foster 2
Foto@@ 2
Fotograf 2
Fragt 2
Fraktionschef 2
Fraktionsvor@@ 2
France 2
France-KLM 2
Frances@@ 2
Francks 2
Frank@@ 2
Franka 2
Frankfur@@ 2
Frankreichs 2
Französ@@ 2
Fraport 2
Frattini 2
Frauenk@@ 2
Freddie 2
Freenet-@@ 2
Freier 2
Freig@@ 2
Freiheiten 2
Freiheitsstrafe 2
Freilassung 2
Freisp@@ 2
Freistaat 2
Freitagabend 2
Freizeit 2
Freizeit@@ 2
Freizü@@ 2
Fresenius 2
Freundschafts@@ 2
Fri@@ 2
Friedensnobelpreis 2
Friedensnobelpreisträgerin 2
Friedman 2
Friedrich@@ 2
Friend 2
Friends 2
Fris@@ 2
Frische 2
Friseurgewerbe 2
Fro@@ 2
Fromme 2
Frühaufsteher 2
Fuentes 2
Fuji 2
Funkel 2
Fur@@ 2
Furore 2
Fuss@@ 2
Fut@@ 2
Fuß@@ 2
Fußball-Bund 2
Fußball-Europameisterschaft 2
Fußball-Union 2
Fußball-Verband 2
Fußball-Zweitlig@@ 2
Fä@@ 2
Fäh@@ 2
Fälscher@@ 2
Fälschungen 2
För@@ 2
Fördermittel 2
Führungen 2
Führungse@@ 2
Führungsoffiziere 2
Führungsspitze 2
Führungstreffer 2
Fülle 2
Fün@@ 2
Fünftel 2
Fünften 2
Fürther 2
Füße 2
G-8-@@ 2
G-@@ 2
GDL-Vorsitzende 2
GDL@@ 2
GEW-@@ 2
GM-@@ 2
GP2-@@ 2
GPS-@@ 2
Ga@@ 2
Galaxy 2
Galerie 2
Galgen 2
Galileo 2
Games 2
Gangart 2
Ganz@@ 2
Ganze 2
Garde 2
Garden 2
Garderobe 2
Garten 2
Garten@@ 2
Gas-Pipeline 2
Gase 2
Gassen 2
Gastarbeiter 2
Gates 2
Gay 2
Gaza 2
Gd@@ 2
Gebet@@ 2
Gebiete 2
Gebilde 2
Gebirge 2
Gebirgs@@ 2
Gebäu@@ 2
Gedränge 2
Gef@@ 2
Gefangener 2
Gefolge 2
Gefährlichkeit 2
Gefäl@@ 2
Gefängnis@@ 2
Gegenden 2
Gegenspieler 2
Gegentreffer 2
Gegenwart 2
Gegnerinnen 2
Gegners 2
Gehalts@@ 2
Gehaltserhöhung 2
Gehei@@ 2
Geheimdienst@@ 2
Geheimnisse 2
Gehen 2
Gehir@@ 2
Gehirn 2
Gehry 2
Geiselhaft 2
Geiseln 2
Geist@@ 2
Geister@@ 2
Geistliche 2
Geiz@@ 2
Geklagt 2
Gelassenheit 2
Gelbe 2
Geldmarktfonds 2
Geldpolitik 2
Geldsorgen 2
Geldstrafen 2
Gelegentlich 2
Gelsenkirchen 2
Gelsenkirchener 2
Gemeinde 2
Gemeinder@@ 2
Gemeinsamkeiten 2
Gemeinschaft@@ 2
Gemeinschafts@@ 2
Gemeinschaftsunternehmen 2
Gemeinschaftswährung 2
Gemäldes 2
Gemüse 2
Gemüse@@ 2
Gen-@@ 2
General-Motor@@ 2
Generalanwalts 2
Generals 2
Generalstaatsanwaltschaft 2
Generation@@ 2
Generationen 2
Genossen 2
Genossen@@ 2
Genre 2
Genre@@ 2
Gens 2
Genugtuung 2
Georg-Büchner-Gymnasium 2
Georges 2
Georgi@@ 2
Georgiens 2
Gepäck@@ 2
Gericht@@ 2
Gerichtsbeschluss 2
Gerichtshofs 2
Gerichtsverfahren 2
German 2
Gerrard 2
Gerät 2
Geräten 2
Gerü@@ 2
Gerüchte 2
Gerüchteküche 2
Gerüchten 2
Gesam@@ 2
Gesamtbetriebs@@ 2
Gesang 2
Geschehen 2
Geschenk 2
Geschwin@@ 2
Geschwor@@ 2
Geschäft@@ 2
Geschäfts 2
Geschäftsentwicklung 2
Geschäftsfelder 2
Gesell@@ 2
Gesetzentwur@@ 2
Gesichter 2
Gesprächs@@ 2
Gespür 2
Gestalten 2
Gestaltung 2
Gesundheit@@ 2
Gesundheitsministerin 2
Gesundheitswirtschaft 2
Getaf@@ 2
Getrei@@ 2
Gewer@@ 2
Gewerk@@ 2
Gewerkschafts@@ 2
Gewinner@@ 2
Gewinnmitnahmen 2
Gewinns 2
Gewährung 2
GfK 2
Ghana 2
Ghaz@@ 2
Ghosn 2
Gibt 2
Gie@@ 2
Giegerich 2
Gig@@ 2
Gilberto 2
Gill@@ 2
Gipfels 2
Girls 2
Gitarre 2
Glad@@ 2
Glam@@ 2
Glamour-@@ 2
Glaubwür@@ 2
Gle@@ 2
Gleise 2
Glietsch 2
Globalisierung 2
Globus 2
Glock 2
Gläser 2
Glücks@@ 2
Gn@@ 2
Goeth@@ 2
Goldmine 2
Golf@@ 2
Gon@@ 2
Gonzales 2
Good 2
Goodell 2
Gordon 2
Gottes@@ 2
Gottschalk 2
Gouverneur 2
Graffiti@@ 2
Grafi@@ 2
Grafik 2
Gramm@@ 2
Grant 2
Gras 2
Green@@ 2
Greenpeace 2
Greg 2
Gregor 2
Gregory 2
Grenzwerte 2
Griechen 2
Grimm 2
Grippe 2
Grippewellen 2
Groteske 2
Großbanken 2
Großkonzern 2
Gruben@@ 2
Grun@@ 2
Grundeinkommen@@ 2
Grundgesetzes 2
Grundlagenforschung 2
Grundsatz 2
Grundstück 2
Grundstücken 2
Grundsätzlich 2
Grübeln 2
Grünen-Bundestagsfraktion 2
Gum@@ 2
Gustavo 2
Gy@@ 2
Gymnasiasten 2
Gäste-@@ 2
Gött@@ 2
Güter@@ 2
HA@@ 2
HD-@@ 2
HD@@ 2
Haare 2
Haaren 2
Hack@@ 2
Hacker 2
Had@@ 2
Haftstrafe 2
Hag@@ 2
Hagen 2
Haken 2
Halbinsel 2
Halbzeit 2
Halbzeitpause 2
Hall 2
Hall@@ 2
Halle@@ 2
Hallen 2
Hals 2
Ham 2
Hamann 2
Hamburg-Mannheimer 2
Hamptons 2
Hancock 2
Handels 2
Handelsblatt 2
Handelsk@@ 2
Handewitt 2
Handlungen 2
Handwerk@@ 2
Handwerker 2
Haniel 2
Hann@@ 2
Hannover@@ 2
Harald 2
Hard@@ 2
Harmony 2
Harms 2
Hartung 2
Hartz-I@@ 2
Harvard 2
Hass 2
Hassprediger 2
Hau 2
Hauch 2
Hauen 2
Haufen 2
Haupt- 2
Hauptbahnhof 2
Hauptgeschäftsführer 2
Hauptquartier 2
Hauptrolle 2
Hauptschulen 2
Hauptstad@@ 2
Hauptversammlung 2
Hauptw@@ 2
Haush@@ 2
Hausherren 2
Haushälterin 2
Heart 2
Hebel 2
Hec@@ 2
Hecke 2
Hedder@@ 2
Heesen 2
Heft 2
Heidfeld 2
Heidrich 2
Heiko 2
Heiligab@@ 2
Heiligen@@ 2
Heimpleite 2
Heinz 2
Heitzer 2
Heizöl 2
Heißes 2
Heldent@@ 2
Heldin 2
Heldt 2
Helen 2
Helene 2
Helfern 2
Helikopter 2
Helling 2
Hem@@ 2
Henke 2
Heran@@ 2
Herausforder@@ 2
Herausgeber 2
Herbstgutachten 2
Herren@@ 2
Hersh 2
Herstellung 2
Herz-Kreislauf@@ 2
Herzmittel 2
Hessens 2
Hessische 2
Heuchelei 2
Heulen 2
Hexen 2
Hey 2
Hi@@ 2
Hier@@ 2
Hierarchie 2
High 2
High-Tech@@ 2
Highlight 2
Hightech-@@ 2
Hilfsorganisationen 2
Hillary 2
Himmel@@ 2
Hinder@@ 2
Hindernis 2
Hing@@ 2
Hingis 2
Hinspiel 2
Hintergrund@@ 2
Hinterhalt 2
Hiobs@@ 2
Hirst 2
His@@ 2
Histor@@ 2
Hitze 2
Ho-@@ 2
Hochdruck@@ 2
Hochgeschwindigkeits@@ 2
Hochhausgiganten 2
Hochwasser@@ 2
Hof@@ 2
Hoffmann 2
Hofreiter 2
Hollywood-Schauspielerin 2
Holländer 2
Holtzbrinck 2
Homburger 2
Home 2
Homep@@ 2
Homosexu@@ 2
Hongkong-Dollar 2
Honor@@ 2
Hop@@ 2
Hose 2
Hot 2
Hu 2
Hubert 2
Hul@@ 2
Human 2
Hund@@ 2
Hundert 2
Hunderttausende 2
Hunger 2
Hut@@ 2
Hyatt 2
Hybri@@ 2
Hypothe@@ 2
Hä@@ 2
Hätte 2
Häu@@ 2
Häufig 2
Häusern 2
Höchststrafe 2
Höhenflug 2
Höl@@ 2
Hüften 2
Hühner@@ 2
Hür@@ 2
Hürden 2
I. 2
IFA 2
IG-Metall-@@ 2
II. 2
III 2
IK@@ 2
IKB 2
IT@@ 2
IV 2
IWF 2
IX 2
Ibiza 2
Ibrahimovic 2
Ideal 2
Ideen@@ 2
IfW 2
Ifa 2
Ifo 2
Illu@@ 2
Imageverlust 2
Immobilien 2
Immobilientochter 2
Immunabwehr 2
Ina 2
Inamoto 2
Indem 2
Inder 2
India 2
Indiz 2
Industrie- 2
Industrie@@ 2
Industriegesellschaft 2
Infektion 2
Inferno 2
Infineon 2
Inflations@@ 2
Infos 2
Infrastruktur@@ 2
Infratest 2
Ingeborg 2
Ingrid 2
Inhaber 2
Inhalten 2
Initiativen 2
Innenraum@@ 2
Innensenator 2
Innenstadt 2
Innenstäd@@ 2
Innenverteidigung 2
Innerhalb 2
Innov@@ 2
Innovation 2
Insassen 2
Inseln 2
Insider 2
Insidern 2
Inspe@@ 2
Inspektion 2
Instrument 2
Instrumente 2
Integration 2
Intellektu@@ 2
Intelligenz 2
Inten@@ 2
Intendanten 2
Interfer@@ 2
Interim@@ 2
Internation@@ 2
Interne@@ 2
Internet- 2
Internetdienst 2
Internetfernsehen 2
Internetkonzern 2
Internetnutz@@ 2
Internetportal 2
Internetre@@ 2
Internets 2
Internetschnüffler 2
Internetseite 2
Internetseiten 2
Internetwerbung 2
Interviewer 2
Intrigen 2
Invasion 2
Invest@@ 2
Investitions@@ 2
Investmentfonds 2
Investmentgesellschaft 2
Inz@@ 2
Ioannis 2
Irak-@@ 2
Iraks 2
Iran@@ 2
Irene 2
Ironie 2
Irre 2
Irrt@@ 2
Isaf 2
Isaf-Mandat 2
Isch@@ 2
Islamismus 2
Islamisten 2
Islamisten@@ 2
Isolation 2
Israel-@@ 2
Istanbul-@@ 2
It 2
Itali@@ 2
Iwanow 2
J 2
Ja@@ 2
Jac@@ 2
Jack@@ 2
Jacke 2
Jackett 2
Jackson 2
Jacob 2
Jaguar 2
Jahresab@@ 2
Jahresbeginn 2
Jahresvergleich 2
Jahrtausenden 2
Jakob 2
James-Bond-@@ 2
Japaner 2
Japanische 2
Jara 2
Jaroslav 2
Jauch 2
Jeanne 2
Jed@@ 2
Jede 2
Jeff 2
Jeffs 2
Jermaine 2
Jerry 2
Jerusal@@ 2
Jerusalem 2
Jesse 2
Jesus 2
Jiabao 2
Jim@@ 2
Jin@@ 2
Joaquin 2
Johansson 2
Joint 2
Jolie 2
Jonathan 2
Joop 2
Joost 2
Jordan 2
Jose 2
Jubiläum 2
Jugend 2
Jugendstrafrecht 2
Juli@@ 2
Julius 2
Jun@@ 2
Junichi 2
Jur@@ 2
Juristin 2
Juschtschenko 2
Justin 2
Justizministerin 2
Justizministerium 2
Jähriger 2
K.o.-Runde 2
KSC-@@ 2
KZ@@ 2
Ka@@ 2
Kab@@ 2
Kabare@@ 2
Kabel 2
Kabinetts@@ 2
Kaczynskis 2
Kad@@ 2
Kaf@@ 2
Kaffeek@@ 2
Kahn 2
Kais@@ 2
Kak@@ 2
Kala 2
Kaliforniens 2
Kalk@@ 2
Kambodsch@@ 2
Kameraden 2
Kamerap@@ 2
Kampfpreis 2
Kanal 2
Kandidatur 2
Kandor-@@ 2
Kanzlei 2
Kapazität 2
Kapazitäten 2
Kapitalmarkt 2
Kapitel 2
Karachi 2
Karibik@@ 2
Karik@@ 2
Karl-@@ 2
Karl-Heinz 2
Karlsruher 2
Karmann 2
Karrier@@ 2
Kartells 2
Kartoffeln 2
Kas@@ 2
Kasch@@ 2
Kaschmir@@ 2
Kassel 2
Kassen@@ 2
Kast@@ 2
Katalysator 2
Katastrophen@@ 2
Katastrophengebiet 2
Katze 2
Kau@@ 2
Kaufmann 2
Kaufmann@@ 2
Kaviar 2
Kel@@ 2
Kelly 2
Kemp@@ 2
Kenia 2
Kenntnis 2
Kenntnisse 2
Kennzeichen 2
Kernbereich 2
Kerner 2
Kerngeschäft 2
Kers@@ 2
Kette 2
Ketten 2
Kettensäge 2
Kev@@ 2
KfW 2
Kfz-Steuer 2
Khedira 2
Kibaki 2
Kick@@ 2
Kickers 2
Kieler 2
Kilo 2
Kim@@ 2
Kinderarmut 2
Kinderbetreuung 2
Kinderschänder 2
Kinderspielzeug 2
Kindes 2
Kindes@@ 2
Kindheit 2
Kindstötung 2
Kirchner 2
Kirsch@@ 2
Kittel@@ 2
Kiv@@ 2
Klapp@@ 2
Klappt 2
Klar@@ 2
Klasnic 2
Klassenzimmern 2
Klassi@@ 2
Klaus-Dieter 2
Klaus@@ 2
Klebe@@ 2
Kleider 2
Kleider@@ 2
Kleidungs@@ 2
Kleinbus 2
Kleinere 2
Kleines 2
Kleinmachnow 2
Kleinstadt 2
Kleinwagen 2
Klet@@ 2
Klettern 2
Klick 2
Klima-@@ 2
Klimag@@ 2
Klimak@@ 2
Klimakiller 2
Klu@@ 2
Klubs 2
Kluge 2
Knapp 2
Kne@@ 2
Kneipen 2
Knochen 2
Koblenz 2
Koff@@ 2
Koh@@ 2
Kohlendioxid-@@ 2
Kollabor@@ 2
Kolle@@ 2
Kollegin 2
Kollektion 2
Kolonialherren 2
Koloss 2
Kolum@@ 2
Kolumbien 2
Komb@@ 2
Kombination 2
Kometen 2
Komiker 2
Komitee 2
Komitees 2
Komm@@ 2
Kommentaren 2
Kommissar 2
Kommissionen 2
Kommune 2
Kommunikation 2
Kompak@@ 2
Kompany 2
Kompetenz 2
Kompetenz@@ 2
Kompliment 2
Komponisten 2
Kompromisse 2
Konferenzen 2
Konfrontation 2
Kongress 2
Kongresses 2
Konjunk@@ 2
Konkur@@ 2
Konkurrenzprodu@@ 2
Konserv@@ 2
Konstabler 2
Konstante 2
Konstantin 2
Konstrukteurs@@ 2
Konstrukteurspunkte 2
Kontin@@ 2
Kontinent 2
Kontinenten 2
Kontinents 2
Kontrollen 2
Konvention@@ 2
Konversions@@ 2
Konvertiten 2
Konvoi 2
Konz@@ 2
Konzepte 2
Konzern-@@ 2
Kooperationen 2
Kooperations@@ 2
Kopenhagen 2
Kopfball@@ 2
Kopie 2
Koproduktion 2
Korrektur@@ 2
Korrekturen 2
Kosmos 2
Kosovos 2
Kostas 2
Kostüm@@ 2
Kostüme 2
Kottbusser 2
Kouchner 2
Kraftfahr@@ 2
Kraftfahrzeug@@ 2
Kragen 2
Krank@@ 2
Kranke 2
Krankenhaus@@ 2
Krankenkassen 2
Krankheit 2
Krasnojarsk 2
Kreaturen 2
Krebs 2
Krebs@@ 2
Kred@@ 2
Kredit 2
Kreditzusagen 2
Krei@@ 2
Kreisverband 2
Krem@@ 2
Kreml 2
Kreuz 2
Krie@@ 2
Kriegs@@ 2
Kringel 2
Krippen@@ 2
Kristin 2
Krit@@ 2
Kritikern 2
Krämer 2
Kuh 2
Kuhn 2
Kult@@ 2
Kulturen 2
Kultusministerin 2
Kun@@ 2
Kundin 2
Kuneva 2
Kuns@@ 2
Kunsthoch@@ 2
Kunstwerke 2
Kuratorin 2
Kurden@@ 2
Kurdengebieten 2
Kurfürsten@@ 2
Kurs-Gewinnverhältnissen 2
Kursen 2
Kuschel@@ 2
Kuver@@ 2
Kyi 2
Kyoto-Protokoll 2
Kyr@@ 2
Käppi 2
Käse 2
Königsweg 2
Könnte 2
Köpfen 2
Körpern 2
Küchen 2
Küchenkabinett 2
Küh@@ 2
Kühen 2
Kühl@@ 2
Kühlhaus 2
Künast 2
Künstlers 2
Kürzung 2
Küste 2
LB 2
LDP 2
LH@@ 2
Labors 2
Laden@@ 2
Lag@@ 2
Lagern 2
Laguna 2
Lahore 2
Lak@@ 2
Lake 2
Landebahn 2
Landesarbeitsgericht 2
Landkreis 2
Landrätin 2
Landschaft 2
Landsleuten 2
Landtags-@@ 2
Landtagsabgeordnete 2
Landtagswahl 2
Landtagswahlen 2
Landung 2
Langem 2
Langen 2
Langen@@ 2
Langzeit@@ 2
Lar@@ 2
Lars 2
Las 2
Lasten 2
Lastwag@@ 2
Lat@@ 2
Laufzeit 2
Laun@@ 2
Laune 2
Lauschangriff 2
Lautsprech@@ 2
Lautsprecher 2
Law 2
Leasing 2
Leb@@ 2
Lebensab@@ 2
Lebensgefährten 2
Lebenslauf 2
Lebenslügen 2
Lebensversicherung 2
Leber@@ 2
Lebewesen 2
Leere 2
Legenden 2
Lehre 2
Lehrerin 2
Leich@@ 2
Leicht@@ 2
Leichtathletik-WM 2
Leichter 2
Leid 2
Lein@@ 2
Leist@@ 2
Leistungsfähigkeit 2
Leitungen 2
Leitungs@@ 2
Leitzins 2
Leitzinssenkung 2
Lem@@ 2
Lenk@@ 2
Lenker 2
Lerchen@@ 2
Lese@@ 2
Lesepublikum 2
Leser 2
Lesung 2
Letzter 2
Letztere 2
Letzterer 2
Letzteres 2
Letztlich 2
Leuchtdioden 2
Leverkusener 2
Lexikon 2
Ley@@ 2
Liberale 2
Liberalisierung 2
Licht@@ 2
Lieb@@ 2
Liebling 2
Lieblingsk@@ 2
Lifestyle 2
Lig@@ 2
Ligaspiel 2
Ling@@ 2
Linien 2
Linker 2
Lis@@ 2
Listing 2
Liter@@ 2
Literaturhaus 2
Liveticker 2
Livingstone 2
Lkw 2
Lo 2
Lobbyarbeit 2
Lobeshy@@ 2
Lodge 2
Log@@ 2
Logik 2
Loire 2
Lokalpolitiker 2
Loose 2
Lopez 2
Lorenz 2
Loriot 2
Lot@@ 2
Louis 2
Loyalität 2
Luci@@ 2
Lucio 2
Lud@@ 2
Ludwig@@ 2
Luf@@ 2
Luftfahrt 2
Lufthansa@@ 2
Luftwaffe 2
Luftwider@@ 2
Luis 2
Luisenstraße 2
Lunge 2
Lust@@ 2
Luxusgut 2
Län@@ 2
Längst 2
Lärm 2
Lärm@@ 2
Löcher 2
Löhnen 2
Löscher 2
Lücke 2
MAN 2
MCV 2
ME@@ 2
MP@@ 2
Mac 2
Mac@@ 2
Macher 2
Machtvakuum 2
Machtwort 2
Made 2
Madeleine 2
Mafiosi 2
Mag 2
Magath 2
Magazinen 2
Magazins 2
Maggie 2
Magn@@ 2
Magnet@@ 2
Mahmud 2
Mais 2
Maj@@ 2
Major 2
Makler 2
Malari@@ 2
Malek 2
Maler 2
Maliki 2
Malteser 2
Managern 2
Manche 2
Mandel@@ 2
Mangel@@ 2
Manifest 2
Manipul@@ 2
Mannheim 2
Marburger 2
Marc 2
Margret 2
Marianne 2
Marie-@@ 2
Marino 2
Marion 2
Market@@ 2
Markets 2
Marktanteil 2
Marktbeobach@@ 2
Marktberichte 2
Marktpreisen 2
Marley 2
Marty 2
Mary 2
Maschen 2
Maschin@@ 2
Mass@@ 2
Massachusetts 2
Massenkarambolage 2
Massenmedien 2
Masters 2
Masters-@@ 2
Match 2
Materialien 2
Matsch@@ 2
Mattel 2
Matthäus 2
Matthäus@@ 2
Maul@@ 2
Maxim 2
Maxim@@ 2
Maximal@@ 2
Maß@@ 2
Maßen 2
Maßnahmen@@ 2
McDonald 2
McLaren-Mercedes-@@ 2
Mec@@ 2
Medaille 2
Mediation 2
Medienkonzerne 2
Medienrechte 2
Medikamenten 2
Medikamenten@@ 2
Medizin@@ 2
Mediziner 2
Medizinische 2
Medwedew 2
Meeresspiegel 2
Megapixel 2
Megawatt 2
Meh@@ 2
Mehdor@@ 2
Mehrarbeit 2
Mehrere 2
Mehrheits@@ 2
Meier 2
Meinungen 2
Meira 2
Meisners 2
Meldung 2
Melka 2
Mensch@@ 2
Menschenk@@ 2
Mental@@ 2
Menü 2
Menü@@ 2
Merk@@ 2
Merrill-Lynch-@@ 2
Mess@@ 2
Metallic@@ 2
Metallindustrie 2
Metapher 2
Meter-@@ 2
Mexikaner 2
Miami 2
Michel 2
Miene 2
Mietern 2
Migrationshintergrund 2
Mik@@ 2
Mikro@@ 2
Mikroautos 2
Milan 2
Milde 2
Militäran@@ 2
Militärbasis 2
Militärdikt@@ 2
Militärschlag 2
Mill@@ 2
Miller 2
Millerntor-@@ 2
Million@@ 2
Milram-@@ 2
Milton 2
Min 2
Minderheit 2
Mindestlohnes 2
Mindestlohns 2
Mineiro 2
Mineral@@ 2
Mini-@@ 2
Minister@@ 2
Ministeri@@ 2
Ministeriumssprecher 2
Minuten-Takt 2
Minutes 2
Mir@@ 2
Miroslav 2
Misch@@ 2
Misshand@@ 2
Missionen 2
Missverstän@@ 2
Mitarbeit@@ 2
Mitarbeiter@@ 2
Mitarbeiters 2
Mitbestimmung 2
Mitbewerbern 2
Mitgliedsbeiträgen 2
Mitmenschen 2
Mitt@@ 2
Mittag@@ 2
Mittagessen 2
Mittagsfrau 2
Mitte-@@ 2
Mitte@@ 2
Mitteleuropas 2
Mittelmaß 2
Mittler 2
Mixed 2
Moabit 2
Mobiltelefon@@ 2
Model@@ 2
Modellen 2
Models 2
Moden@@ 2
Modenese 2
Moder@@ 2
Moderator 2
Moderatoren 2
Mohamed 2
Momente 2
Mon 2
Monats@@ 2
Mondeo 2
Money 2
Monitor 2
Monks 2
Montagabend 2
Montagmorgen 2
Monte 2
Monte@@ 2
Monza 2
Morddrohungen 2
Mordfall 2
Morgens 2
Mose@@ 2
Mosel@@ 2
Mosle@@ 2
Mosley 2
Motegi 2
Motive 2
Motorola 2
Motorrad 2
Motorrad-@@ 2
Motorrad@@ 2
Moz@@ 2
Mu@@ 2
Mullah 2
Multifunktion@@ 2
Multimedi@@ 2
Mun@@ 2
Muscharraf 2
Muscheln 2
Museum 2
Musharraf-@@ 2
Musikfernsehen 2
Muskel@@ 2
Muslim 2
Muslime 2
Muslimen 2
Myth@@ 2
Mythos 2
Mädchens 2
Män@@ 2
Mängel 2
Männ@@ 2
Mär@@ 2
Märchen@@ 2
Möbel@@ 2
Möller-Hergt 2
Mühen 2
Müll 2
Müller-K@@ 2
Müller-Ott 2
Müller-Wohlfahrt 2
Münchens 2
Münteferings 2
Mütter 2
Müttern 2
NDR-@@ 2
NE@@ 2
NG@@ 2
NLD 2
NPD-@@ 2
NR@@ 2
NRF 2
NS-@@ 2
NS@@ 2
Na@@ 2
Nachbarlandes 2
Nachkriegszeit 2
Nachrichtenagenturen 2
Nacht@@ 2
Nachteil 2
Nachts 2
Nachwuch@@ 2
Nachwuchs 2
Nada 2
Nadelstiche 2
Nah- 2
Nahen 2
Nahles 2
Nahrungsergänzungsmittel 2
Nahrungsmitteln 2
Nahverkehrs@@ 2
Nak@@ 2
Namens@@ 2
Nancy 2
Nantes 2
Nap@@ 2
Narren 2
Nas@@ 2
Nasdaq 2
Nase 2
Nation@@ 2
Nationalsozialisten 2
Nationalteam 2
Nationalteams 2
Nationaltorhüter 2
Nationaltrainer 2
Nato-@@ 2
Nato-Treffen 2
Natur 2
Naturpark 2
Naturwissenschaften 2
Nawaz 2
Naz@@ 2
Nazaire 2
Neapel 2
Neckermann 2
Neg@@ 2
Neigungen 2
Nem@@ 2
Neon@@ 2
Net@@ 2
Nettogewinn 2
Netzbetreiber 2
Netzwelt 2
Netzwerk 2
Netzwirtschaft 2
Neu-@@ 2
Neubewertung 2
Neuemis@@ 2
Neuerungen 2
Neum@@ 2
Neun@@ 2
Neureuther 2
Neutr@@ 2
Neuzugang 2
Nich@@ 2
Nick 2
Niedriglohn@@ 2
Nieren 2
Nigeri@@ 2
Nik@@ 2
Nikkei-Index 2
Nikolov 2
Nils 2
Nintendos 2
Nippon 2
Nobelpreisträger 2
Noordwijk 2
Norden@@ 2
Nordhessen 2
Nordirland 2
Nordosten 2
Nordsee@@ 2
Normal@@ 2
Normalität 2
Norman 2
North 2
Noten 2
Notfall@@ 2
Notfallpläne 2
Notierung 2
Notruf 2
Notstand@@ 2
Notunter@@ 2
Novakovic 2
Now@@ 2
Null 2
Null@@ 2
Nullnummer 2
Num@@ 2
Nuri 2
Nutzern 2
Nächste 2
Nür@@ 2
O-@@ 2
OR@@ 2
ORF 2
OSP 2
OSZE 2
Obama 2
Oberschenkel 2
Oberschicht 2
Oberstdorf 2
Oberste 2
Oberverwaltungsgericht 2
Objekten 2
Observer 2
Obst@@ 2
Ochs 2
Od@@ 2
Odyssey 2
Oett@@ 2
Of 2
Off@@ 2
Offenb@@ 2
Offensichtlich 2
Offensiv@@ 2
Officer 2
Offizier 2
Offiziere 2
Oh 2
Oh@@ 2
Ok@@ 2
Oka 2
Olic 2
Oliven@@ 2
Olympia-@@ 2
Olympia-Teilnahme 2
Olympiahalle 2
Olympiakos 2
Olympiasieger 2
Olympiastadion 2
Omen 2
Opec 2
Opel 2
Opern@@ 2
Opfers 2
Oppositionsführerin 2
Ora@@ 2
Oracle 2
Oran@@ 2
Orchestra 2
Ord@@ 2
Orden 2
Order 2
Ordner 2
Organ@@ 2
Organisationskomitees 2
Organismen 2
Ori@@ 2
Original 2
Original@@ 2
Orlando 2
Oré@@ 2
Osaka 2
Osnabrü@@ 2
Ost-@@ 2
Ostblocks 2
Osterloh 2
Ostrowski 2
Otto-@@ 2
Out 2
Out@@ 2
Ox@@ 2
Oze@@ 2
P 2
P.@@ 2
PCs 2
PKK-@@ 2
PKK-Kämpfer 2
PR@@ 2
PS3 2
PS@@ 2
Paar@@ 2
Paares 2
Pagode 2
Palette 2
Paläst@@ 2
Palästinenser 2
Pantelic 2
Panz@@ 2
Paolo 2
Papandreou 2
Paper 2
Para@@ 2
Paragu@@ 2
Parker 2
Parlamentsgebäu@@ 2
Part 2
Parte@@ 2
Parteil@@ 2
Parteispitze 2
Parteitag@@ 2
Parteitagen 2
Parteitags 2
Partenkir@@ 2
Partnerin 2
Partnern 2
Partnerschaften 2
Partys 2
Pass@@ 2
Passagier 2
Passagier@@ 2
Passagieren 2
Passagierflugzeu@@ 2
Pate 2
Path@@ 2
Pati@@ 2
Patrizia 2
Patrou@@ 2
Pavarotti 2
Pavarottis 2
Pay@@ 2
Pazifik 2
Pech@@ 2
Peg@@ 2
Pendler 2
Pepe 2
Performance 2
Periode 2
Personalberater 2
Personalvorstand 2
Personen@@ 2
Persönlich 2
Pete 2
Petraeus 2
Pfad 2
Pfar@@ 2
Pferd 2
Pflege@@ 2
Pfosten 2
Phil@@ 2
Philip 2
Philosoph 2
Phlegma 2
Physik 2
Pi@@ 2
Pic@@ 2
Pich@@ 2
Pilawa 2
Piltz 2
Pinback 2
Pionier@@ 2
Pist@@ 2
Pix@@ 2
Pkw 2
Plan@@ 2
Planer 2
Planung 2
Planungssicherheit 2
Plast@@ 2
Platten@@ 2
Platzen 2
Plu@@ 2
Plätzen 2
Poes@@ 2
Pohl@@ 2
Pokal 2
Pokal@@ 2
Pokalsieger 2
Pokalspiel 2
Polark@@ 2
Pole 2
Polens 2
Politikerin 2
Politikerinnen 2
Polizeiangaben 2
Polizeipräsidium 2
Polo@@ 2
Pom@@ 2
Pop-S@@ 2
Popgeschichte 2
Popkomm 2
Popsängerin 2
Popul@@ 2
Porno-@@ 2
Porsche-Papiere 2
Porter 2
Portion 2
Porto 2
Portugiesisch 2
Pos@@ 2
Positives 2
Postdienste 2
Posten 2
Potsdam 2
Power 2
Prag 2
Preisabsprachen 2
Preiserhöhungen 2
Preisgeld 2
Preissteigerungen 2
Premium-@@ 2
Presseerklärung 2
Pri@@ 2
Priester 2
Primera 2
Prinzip@@ 2
Priorität 2
Prise 2
Priv@@ 2
Privatan@@ 2
Privatdo@@ 2
Private-Equity-@@ 2
Privates 2
Privathaushalten 2
Privatkosmos 2
Privatleben 2
Produ@@ 2
Produk@@ 2
Produkt@@ 2
Produktionsausfällen 2
Produktionsfirma 2
Produktionsvolumen 2
Produktivität 2
Produktpalette 2
Produktpir@@ 2
Produzent 2
Professorin 2
Profit 2
Progra@@ 2
Proje@@ 2
Projektleiter 2
Projekts 2
Prolog 2
Prominenten 2
Promotion 2
Propagand@@ 2
Propheten 2
Prot@@ 2
Protagonisten 2
Provinz@@ 2
Provinzen 2
Prozentpunkt 2
Prozes@@ 2
Prozess@@ 2
Prozesse 2
Prä@@ 2
Präparate 2
Präsident@@ 2
Präsidentenwahl 2
Präsidium 2
Präzision 2
Pröll 2
Psycho@@ 2
Psychologe 2
Psychologin 2
Publi@@ 2
Publik@@ 2
Publikationen 2
Puerto 2
Pullover 2
Punk 2
Pur@@ 2
Putin-@@ 2
Putsch 2
Py@@ 2
Pyrami@@ 2
Päd@@ 2
Pär@@ 2
Qual 2
Quali@@ 2
Quar@@ 2
Quartal@@ 2
Quartalsergebnis 2
Quarter@@ 2
Quartier 2
Quellen 2
Quoten@@ 2
RAF-Terroristen 2
RE@@ 2
RKI 2
RSS-@@ 2
RW@@ 2
Rad-@@ 2
Raff@@ 2
Rak@@ 2
Raketen@@ 2
Raketenab@@ 2
Rammstein 2
Rangers 2
Rangnick 2
Rangun 2
Rapino 2
Rass@@ 2
Rassismus 2
Rat@@ 2
Ratatouille 2
Raten 2
Rating-Agenturen 2
Rats@@ 2
Raubüberfall 2
Rauch@@ 2
Rauchen 2
Rauchver@@ 2
Raumfähre 2
Raums 2
Raumschiffe 2
Rausch@@ 2
Reaktionen 2
Reaktors 2
Realität 2
Realschulen 2
Realwirtschaft 2
Recep 2
Recherchen 2
Rechnungen 2
Rechtsanwalt 2
Rechtsaus@@ 2
Rechtsausschuss 2
Rechtsextremisten 2
Rechtsmittel 2
Rechtsradikale 2
Rechtsstaat 2
Recklinghausen 2
Redakteur 2
Redner 2
Reederei 2
Referenzkurs 2
Reformp@@ 2
Reformpaket 2
Regelungen 2
Regenbogen@@ 2
Regenfällen 2
Regensburger 2
Regierungen 2
Regierungs- 2
Regierungsbildung 2
Regierungschef 2
Regierungsfähigkeit 2
Regime 2
Regionalver@@ 2
Regisseure 2
Regu@@ 2
Reichs@@ 2
Reicht 2
Reifen 2
Reifen@@ 2
Reinhardt 2
Reinig@@ 2
Reiseveranstalter 2
Reiter 2
Rek@@ 2
Rekorde 2
Rekordpreis 2
Relation 2
Relativ 2
Relegations@@ 2
Relig@@ 2
Rem@@ 2
Remis 2
Remus 2
Renate 2
Renault-@@ 2
Rend@@ 2
Renditen 2
Renndirektor 2
Rent@@ 2
Renten 2
Rentenkassen 2
Rentenreform 2
Rentenversicherer 2
Rentner 2
Repräsentanten 2
Repubblica 2
Republikan@@ 2
Resol@@ 2
Ress@@ 2
Resultate 2
Retro@@ 2
Rett@@ 2
Rettungskräften 2
Revol@@ 2
Rezepte 2
Rhein-@@ 2
Rhein-Neck@@ 2
Rhetorik 2
Rhiel 2
Rhythmen 2
Ribery 2
Ric@@ 2
Ricarda 2
Rich 2
Rid@@ 2
Riedle 2
Riege 2
Ries@@ 2
Riese 2
Riesen 2
Riesenmagnetwider@@ 2
Riesens@@ 2
Riffs 2
Rin@@ 2
Ring 2
Ring@@ 2
Ringstorff 2
Risik@@ 2
Risikop@@ 2
Rituale 2
Road 2
Roboter 2
Rockies 2
Roels 2
Roger 2
Rogge 2
Roh@@ 2
Rom@@ 2
Romulus 2
Roo@@ 2
Rooney 2
Roos 2
Rose@@ 2
Ross 2
Roter 2
Rowling 2
Roy@@ 2
Rud@@ 2
Ruder@@ 2
Rugby-WM 2
Ruhr 2
Ruine 2
Rumänien 2
Rundfunk 2
Rundfunk@@ 2
Rus@@ 2
Russische 2
Rutsch@@ 2
Ryan 2
Rädern 2
Ränkesp@@ 2
Römer@@ 2
Rü@@ 2
Rückgrat 2
Rückruf 2
Rückschritt 2
Rücksetzer 2
Rücksicht 2
Rückspiel 2
Rüstungs@@ 2
S-Bahnen 2
SCH@@ 2
SE@@ 2
SPD-Bundes@@ 2
SPD-Fraktion 2
SPD-Generalsekretär 2
SPD-Parteitag 2
SPD-Parteivorstand 2
SS-@@ 2
Saarbrücken 2
Sab@@ 2
Sachsen-Anhalts 2
Sachverständigenrates 2
Sad@@ 2
Sah@@ 2
Saisonende 2
Saisonspielen 2
Sak@@ 2
Salas 2
Samen 2
Sami 2
Sammel@@ 2
Samstags@@ 2
Samuel 2
Sander 2
Sandra 2
Sandri 2
Santos 2
Sarkasmus 2
Sascha 2
Satellit@@ 2
Sauerland 2
Schach 2
Schadenersatzforderungen 2
Schadensersatz 2
Schaff@@ 2
Schaffung 2
Schande 2
Scharren 2
Schatten@@ 2
Schatzmeister 2
Schaulaufen 2
Schauspiel@@ 2
Scheer 2
Scheibchen 2
Scheiben 2
Scheiterns 2
Schicksals 2
Schiedsrichter@@ 2
Schienennah@@ 2
Schienennetz 2
Schießer@@ 2
Schiffe 2
Schifffahrtsamt 2
Schildkröten 2
Schiller 2
Schimpan@@ 2
Schir@@ 2
Schlacht 2
Schlachtfeld 2
Schlaffers 2
Schlafsack 2
Schlechte 2
Schleicher 2
Schleu@@ 2
Schleyer-@@ 2
Schli@@ 2
Schlich@@ 2
Schließung 2
Schlit@@ 2
Schlos@@ 2
Schlus@@ 2
Schlussphase 2
Schläge 2
Schläger 2
Schlägerei 2
Schmel@@ 2
Schmier@@ 2
Schnappsch@@ 2
Schnaps 2
Schnauze 2
Schneedecke 2
Schneef@@ 2
Schneeketten 2
Schnell 2
Schneller 2
Schnit@@ 2
Schnusenberg 2
Schnäppchen 2
Schnäppchen@@ 2
Schnüffel@@ 2
Schokol@@ 2
Schottland 2
Schre@@ 2
Schreib@@ 2
Schreiber 2
Schriftsteller 2
Schriftz@@ 2
Schro@@ 2
Schroeder 2
Schröders 2
Schu@@ 2
Schuh 2
Schuh@@ 2
SchulSPIEGEL 2
Schuld@@ 2
Schulden@@ 2
Schuldtitel 2
Schulgeld 2
Schulkinder 2
Schulleiter 2
Schulsystem 2
Schulter 2
Schusswaffe 2
Schwaben 2
Schwal@@ 2
Schwar@@ 2
Schwarz-Weiß-@@ 2
Schwarzbuch 2
Schwarzen 2
Schwarzes 2
Schwarzwald@@ 2
Schweigen 2
Schwelle 2
Schwellenländern 2
Schwerin 2
Schwimmbä@@ 2
Schwin@@ 2
Schwung 2
Schwurgericht 2
Schär@@ 2
Schätz@@ 2
Schäubles 2
Schö@@ 2
Schönen 2
Schümann 2
Scientist 2
Scuderia 2
Seattle 2
Seb@@ 2
Sebastian 2
Sechsganggetriebe 2
Sechzigern 2
Seegebiete 2
Seeh@@ 2
Seehofer 2
Seg@@ 2
Segment 2
Seitenwechsel 2
Sekt@@ 2
Sekund@@ 2
Selbs@@ 2
Selbstbewusstsein 2
Selbstmordanschlag 2
Selbstverständlich 2
Semin@@ 2
Senats@@ 2
Senders 2
Senioren 2
Senkung 2
Sensations-@@ 2
Sense 2
Sensi@@ 2
Sent@@ 2
Separatisten 2
Series 2
Servern 2
Servic@@ 2
Service@@ 2
Sessel 2
Seu@@ 2
Seymour 2
Shampoo 2
Shar@@ 2
Share@@ 2
Sheikh 2
Shepher@@ 2
Shirts 2
Shiva 2
Sho@@ 2
Shops 2
Showdown 2
Shows 2
Shu@@ 2
Shuttle-@@ 2
Sich 2
Sicherheits- 2
Sicherheitsfirma 2
Sicherheitskreisen 2
Sicherheitskräfte 2
Sicherheitskräften 2
Sicherheitsvorkehrungen 2
Sicherungs@@ 2
Sicht@@ 2
Sidr 2
Siebte 2
Siegen 2
Siehe 2
Siemens-@@ 2
Siemens-Sprecher 2
Sig@@ 2
Silberpfeile 2
Sili@@ 2
Simpson 2
Simunic 2
Singapore 2
Singles 2
Sinke@@ 2
Sir 2
Sir@@ 2
Siro 2
Sitz@@ 2
Sitzen 2
Sizili@@ 2
Skala 2
Skandal@@ 2
Skandinavien 2
Skelet@@ 2
Skep@@ 2
Ski-@@ 2
Ski@@ 2
Skulpturen 2
Sky@@ 2
Sle@@ 2
Slo@@ 2
Slowenen 2
Slums 2
Smart-@@ 2
Sobald 2
Socken 2
Sogar 2
Sohnes 2
Solche 2
Soldat 2
Somalia 2
Sommerpause 2
Son 2
Son@@ 2
Song 2
Sonnensystem 2
Sonst 2
Sorin 2
Sortiment 2
Sotirios 2
Sowohl 2
Sozialarbeiter 2
Sozialdemokratie 2
Sozialisten 2
Spaltung 2
Spaniern 2
Sparbuch 2
Spe@@ 2
Speicher@@ 2
Speichermedien 2
Speicherung 2
Speisen 2
Spen@@ 2
Sper@@ 2
Sperr@@ 2
Spezialitäten@@ 2
Spielaufbau 2
Spielerinnen 2
Spielplan 2
Spielraum 2
Spiels 2
Spieltagen 2
Spielweise 2
Spielzeug@@ 2
Spion@@ 2
Spionage-@@ 2
Spir@@ 2
Spitzenk@@ 2
Spitzenkandidat 2
Spitzenkandidaten 2
Spitzenkandidatur 2
Spitzenpolitiker 2
Spitzentreffen 2
Spo@@ 2
Spon@@ 2
Sponsor 2
Sportarten 2
Sportler 2
Spr@@ 2
Sprechen 2
Sprengstoff 2
Springer 2
Sprinter 2
Sprit 2
Sprung 2
Sprüche 2
Spuren@@ 2
Spyker 2
Spä@@ 2
Spätaussiedlern 2
Staat@@ 2
Staaten@@ 2
Staatengemeinschaft 2
Staatliche 2
Staatsanwälte 2
Staatschef 2
Staatschefs 2
Staatskrise 2
Staatso@@ 2
Staatssekre@@ 2
Staatssekretärs 2
Stadien 2
Stadion@@ 2
Stadler 2
Stadtbild 2
Stadtteil@@ 2
Staff@@ 2
Stagnation 2
Stamford 2
Stammb@@ 2
Stammwähler 2
Stan@@ 2
Standard-@@ 2
Standardrepertoire 2
Standards 2
Standor@@ 2
Standorten 2
Stanislaw 2
Starbucks 2
Stasi 2
Stasi-@@ 2
Stat@@ 2
Station@@ 2
Stationen 2
Statist 2
Statistik 2
Statistik@@ 2
Status 2
Status@@ 2
Stau@@ 2
Steg 2
Stegner 2
Steiermark 2
Steinberg 2
Steinen 2
Steiner 2
Stellenwert 2
Stephen 2
Sternchen 2
Sternen 2
Sterns 2
Steueranzeige 2
Steuerdaten 2
Steuereinnahmen 2
Steuerfreibetrag 2
Steuergelder 2
Steuersatz 2
Stift 2
Stile 2
Stille 2
Stimmen@@ 2
Stoff@@ 2
Stopp 2
Stoxx 2
Str@@ 2
Strafbefehl 2
Strafstoß 2
Straftäter 2
Strafverfolgung 2
Strategen 2
Straßenbahn 2
Straßenrennen 2
Streik-@@ 2
Streikrecht 2
Streithähne 2
Streits 2
Stroh@@ 2
Stromkabel 2
Stromkonzerne 2
Strompreise 2
Stromzähler 2
Struktur 2
Studenten-@@ 2
Studenten@@ 2
Studentin 2
Stundenkilometer 2
Sturz 2
Stuttgarts 2
Ständig 2
Stär@@ 2
Stärkung 2
Stücken 2
Stür@@ 2
Stütze 2
Substanzen 2
Subventionen 2
Suchmaschinenbetreiber 2
Sudan 2
Suhrkamp 2
Suizidraten 2
Sumatra 2
Sun@@ 2
Sunniten 2
Supermacht 2
Superstar 2
Susanne 2
Suu 2
Sven@@ 2
Swe@@ 2
Sydney 2
Symbol 2
Symp@@ 2
Sympathie@@ 2
Sympathien 2
Symptome 2
Syn@@ 2
Sz@@ 2
Szen@@ 2
Säbel@@ 2
Sätze 2
Säu@@ 2
Sé@@ 2
Sön@@ 2
Süddeutschen 2
Südkoreaner 2
Südkoreas 2
Süß@@ 2
Süßwasser@@ 2
T-Mobile-@@ 2
T-Shirt 2
TER 2
TH@@ 2
TL 2
TR@@ 2
TU 2
TU@@ 2
TUI 2
TUIfly 2
TV- 2
TV-K@@ 2
TV@@ 2
Tabak@@ 2
Tagebücher 2
Tagessieg 2
Tagesspiegel 2
Taifun 2
Talente 2
Talents 2
Talk@@ 2
Talksendung 2
Tank@@ 2
Tap@@ 2
Tarcisio 2
Tarifparteien 2
Tarifstreit 2
Tarifverträge 2
Taschen@@ 2
Taschenbuch 2
Tatjana 2
Taucher 2
Te@@ 2
Techn@@ 2
Technologi@@ 2
Technologie@@ 2
Ted 2
Teher@@ 2
Teilnehmern 2
Teilprivatisierung 2
Tele-@@ 2
Telefonat 2
Telefonnummer 2
Telekom-Chef 2
Telekommunik@@ 2
Telekommunikationsunternehmen 2
Teller 2
Tempel 2
Tempolimits 2
Ten@@ 2
Tennis-@@ 2
Tennisprofis 2
Tenor 2
Tepp@@ 2
Termine 2
Territ@@ 2
Terrorabwehr 2
Terroranschlag 2
Test-@@ 2
Teufel 2
Tex@@ 2
Theater-@@ 2
Them@@ 2
Theo 2
Theofanis 2
Therap@@ 2
These 2
Thomson 2
Thriller 2
Thurk 2
Ticket 2
Ticket@@ 2
Tie@@ 2
Tiflis 2
Timoschenko 2
Tinto 2
Tipp 2
Tj@@ 2
Tobias 2
Tochter@@ 2
Tochtergesellschaft 2
Todes 2
Todesfällen 2
Todesopfer 2
Toil@@ 2
Toilette 2
Tokaj@@ 2
Tokioter 2
Toll@@ 2
Tommy 2
Tonga 2
Tonträger 2
Top 2
Top-@@ 2
Topf 2
Toreschießen 2
Torjäger 2
Tornad@@ 2
Torschütz@@ 2
Toshiba 2
Toskana 2
Tot@@ 2
Totalausfall 2
Toten@@ 2
Totschlags 2
Touch@@ 2
Tour-de-@@ 2
Tourismusindustrie 2
Tournee 2
Tracht 2
Trades 2
Traditions@@ 2
Tragen 2
Trainings- 2
Trainingsformen 2
Trainingslager 2
Traktion@@ 2
Transaktion@@ 2
Transfer@@ 2
Transnet-Chef 2
Transport 2
Transrapid-@@ 2
Trassen@@ 2
Trauer 2
Traum@@ 2
Trauung 2
Treff@@ 2
Treffern 2
Treibhausgases 2
Tren@@ 2
Trend@@ 2
Trendwende 2
Trenn@@ 2
Tres@@ 2
Tresen 2
Triathlon 2
Tribüne 2
Trick@@ 2
Trin@@ 2
Trip 2
Trochowski 2
Trock@@ 2
Trojan 2
Trop@@ 2
Tropen@@ 2
Tru@@ 2
Trupp@@ 2
Truppenab@@ 2
Tränengas 2
Trü@@ 2
Tsunam@@ 2
Tugend 2
Tukur 2
Tum@@ 2
Typ 2
Typen 2
Tyson 2
Tän@@ 2
Tänzer 2
Tödliche 2
Tötung 2
Tüchern 2
Tür 2
Türen 2
U-Bahn 2
U21-@@ 2
UCI 2
UEFA-C@@ 2
UEFA-Cup 2
UEFA-Pok@@ 2
UN 2
UN-Sicherheitsrat 2
US- 2
US-Amerikan@@ 2
US-Amerikaner 2
US-Bank 2
US-Botschaft 2
US-Bundesstaat 2
US-Chefvolkswirt 2
US-Hypothekenkrise 2
US-Investmentbank 2
US-Kongress 2
US-Konzern 2
US-Küste 2
US-Regierung 2
US-Streitkräfte 2
US-Währung 2
US-Ölpreis 2
USA-@@ 2
Uefa 2
Uefa-Cup-@@ 2
Ufer 2
Uhse 2
Uhus 2
Uli 2
Umfragen 2
Umfragewerte 2
Umland 2
Umrüstung 2
Umsatzprognose 2
Umsatzrendite 2
Umsetzung 2
Umstellung 2
Umwel@@ 2
Umweltminister 2
Umweltschutz 2
Umweltschutz@@ 2
Umweltzone 2
Umwälzungen 2
Unabhän@@ 2
Unabhängigkeitserklärung 2
Undercover-@@ 2
Unfassbar 2
Ungemach 2
Unger 2
Uni-@@ 2
Uni@@ 2
UniSPIEGEL 2
Unionsfraktionschef 2
Unionspolitiker 2
Uniteds 2
Univers@@ 2
Universum 2
Unkenntnis 2
Unmittel@@ 2
Uno 2
Uno-@@ 2
Uno@@ 2
Uns 2
Unsicherheiten 2
Unsinn 2
Unstimmigkeiten 2
Unterbewertung 2
Unterhaltung 2
Unterlassung 2
Unterlassungs@@ 2
Unternehmensanleihen 2
Unternehmensteuerreform 2
Unterscheidungs@@ 2
Unterschenkel 2
Unterstütz@@ 2
Untersuchungen 2
Untersuchungs@@ 2
Untersuchungshaft 2
Unterwegs 2
Uran@@ 2
Urananreicherung 2
Urlau@@ 2
Utop@@ 2
V-K@@ 2
V-Präsident 2
VDMA 2
VZ 2
Val@@ 2
Van 2
Van@@ 2
Varianten 2
Vatikan 2
Ve@@ 2
Veltroni 2
Vene@@ 2
Venezuela 2
Vent@@ 2
Venture 2
Venus 2
Ver.di 2
Verankerung 2
Verbesserung 2
Verbind@@ 2
Verbrauch@@ 2
Verbraucherpreise 2
Verbraucherschutz@@ 2
Verbrauchervertrauen 2
Verbrechen 2
Verbreit@@ 2
Verbände 2
Verbün@@ 2
Verdienst 2
Vereine 2
Vereinsgeschichte 2
Verfilmung 2
Verfolgten 2
Vergewal@@ 2
Vergleich@@ 2
Verglichen 2
Vergütungs@@ 2
Verha@@ 2
Verhaftung 2
Verhandlungs@@ 2
Verhält@@ 2
Verhängung 2
Verkaufszahlen 2
Verkehrsministerium 2
Verkehrsunfall 2
Verkäufer 2
Verlag@@ 2
Verlage 2
Verlagerung 2
Verlass 2
Verleihung 2
Verletz@@ 2
Verletzte 2
Verlustzone 2
Vermark@@ 2
Vermehr@@ 2
Vermeidung 2
Vermischtes 2
Vermitt@@ 2
Vermittlung 2
Vermittlungs@@ 2
Vermögen@@ 2
Vernehmung 2
Vernich@@ 2
Vernunft 2
Verordnung 2
Verpackungen 2
Versicher@@ 2
Versicherern 2
Versionen 2
Versorger 2
Verspätung 2
Verspätungen 2
Verst@@ 2
Verstor@@ 2
Verstoß 2
Versuche 2
Versuchung 2
Verteidigers 2
Verteidigungsministers 2
Verteilung 2
Vertrags 2
Vertrags@@ 2
Vertrauenskrise 2
Vertrauter 2
Vertreibung 2
Vertrieb 2
Vertriebenen 2
Vertriebs@@ 2
Verträgen 2
Verurteilten 2
Verw@@ 2
Verwaltung@@ 2
Verwaltungs@@ 2
Verweis 2
Verwes@@ 2
Verwicklung 2
Verwir@@ 2
Verwun@@ 2
Verzicht 2
Verzinsung 2
Verzö@@ 2
Veröffentlich@@ 2
Veteranen 2
Veto 2
Victoria 2
Videokamer@@ 2
Videospiele 2
Vieles 2
Viertelfinale 2
Viertels 2
Vietnam 2
Vignette 2
Viktor 2
Vil@@ 2
Villa 2
Vincent 2
Vincenzo 2
Vinyl 2
Viren 2
Visa 2
Vision 2
Visitenkarten 2
Vittek 2
Viz@@ 2
Vize 2
Vodafone 2
Voith 2
Volkert 2
Volkes 2
Volkszählung 2
Volvo 2
Vor-@@ 2
Vorab@@ 2
Vorarbeit 2
Vorbereitungen 2
Vorder@@ 2
Vorentscheidung 2
Vorfälle 2
Vorgesetzten 2
Vorher 2
Vorjahres 2
Vorkaufsrecht 2
Vorlauf 2
Vormonat 2
Vornamen 2
Vorratsdatenspeicherung 2
Vorstandschefs 2
Vorstandsmitglieder 2
Vorstrafenregister 2
Vorurteil 2
Vorzugsaktien 2
Votum 2
Vögel 2
Völkermord 2
W-@@ 2
WM-Finale 2
WM-Sieg 2
Wa@@ 2
Wachstums 2
Wachstumsprognosen 2
Wad@@ 2
Waffen-@@ 2
Wagner@@ 2
Wahlheimat 2
Wahljahr 2
Wahlkommission 2
Wahnsinn 2
Wahrnehmung 2
Wai@@ 2
Waldbr@@ 2
Waldschlösschenbrücke 2
Walk 2
Walken 2
Walking 2
Wallmann 2
Wallraff 2
Wand 2
Wand@@ 2
Wappner 2
Wardak 2
Ware 2
Waren 2
Warhol@@ 2
Warner 2
Warte 2
Wasch@@ 2
Wasser- 2
Wasserkraft@@ 2
Watch 2
Watchers 2
Wattenmeer 2
Watz 2
Watz@@ 2
Webangebote 2
Webseiten 2
Weder 2
Weges 2
Wehr 2
Wehrpflicht 2
Weibchen 2
Weight 2
Weimar 2
Weimarer 2
Weis@@ 2
Weit@@ 2
Weiß@@ 2
Weißbarth 2
Wellen 2
Wellengang 2
Weltc@@ 2
Weltklasse@@ 2
Weltkonzern 2
Weltmarktführer 2
Weltmeisterin 2
Weltmeisters 2
Weltmeisterschaften 2
Weltranglist@@ 2
Weltraum 2
Weltre@@ 2
Weltverband 2
Weltverbandes 2
Weltweite 2
Wende 2
Wenige 2
Wenzel 2
Werbet@@ 2
Werden 2
Werder-@@ 2
Werft 2
Werks 2
Werkstatt 2
Werten 2
Wertingen 2
Wertpap@@ 2
Wertpapieren 2
Wertschätzung 2
Wes@@ 2
Wesentlichen 2
Weshalb 2
Wessels 2
Wet@@ 2
Wettbewerb@@ 2
Wettbewerbs 2
Wettbewerbsfähigkeit 2
Wettbewerbsh@@ 2
Wettbewerbsvorteil 2
Wetten 2
Wh@@ 2
Wide 2
Widersacher 2
Widerspruch 2
Widerstand@@ 2
Wiede@@ 2
Wiederaufbau 2
Wiese 2
Willi 2
William 2
Windenergie 2
Windkraftanlagen 2
Windows 2
Windräder 2
Winehouse 2
Winkel 2
Winterkorn 2
Winterreifen 2
Wirbel 2
Wirbel@@ 2
Wirk@@ 2
Wirklich 2
Wirte 2
Wirtschaftsbücher 2
Wirtschaftsmagazin 2
Wirtschaftspolitiker 2
Wirtschaftsprü@@ 2
Wirtschaftsprüf@@ 2
Wirtschaftsweise 2
Wirtschaftswissenschaftler 2
Wissens@@ 2
Wissenschaft@@ 2
Wissenschaftlerin 2
Wissenschaftsminister 2
Witze 2
Wochenbeginn 2
Wochenzeitung 2
Wodka 2
Wohlfühl@@ 2
Wohnzimmer@@ 2
Wolf 2
Wolff 2
Wolfsburg 2
Wolfsburger 2
Wolken 2
Wolverhampton 2
Wort@@ 2
Wortlaut 2
Wortwahl 2
Wowereit 2
Wozu 2
Wracks 2
Wrzesniok-Rossbach 2
Wucht 2
Wulf 2
Wäh@@ 2
Wählerbefragung 2
Wählerstimmen 2
Währung 2
Währungs@@ 2
Wälder 2
Wärme 2
Wörter@@ 2
Wür@@ 2
Würdent@@ 2
Wüste 2
Xing 2
Xinhua 2
Yildiray 2
Yokoh@@ 2
Yossi 2
Youth 2
Youtube 2
Ypsilanti 2
Yuan 2
ZDF-Morgenmagazin 2
ZEW 2
ZR 2
Za@@ 2
Zah@@ 2
Zahl@@ 2
Zamo@@ 2
Zapatero 2
Zeh@@ 2
Zehen 2
Zehn-@@ 2
Zeichn@@ 2
Zeiss 2
Zeitarbeit 2
Zeitungsbericht 2
Zentimeter 2
Zentr@@ 2
Zentralabitur 2
Zentralasien 2
Zentren 2
Zerstörung 2
Zertifikat 2
Zertifikate 2
Zertifikaten 2
Zeu@@ 2
Zeugnis 2
Zeugnisse 2
Zeugnisverweigerungsrecht 2
Zi@@ 2
Ziegen 2
Ziel@@ 2
Ziell@@ 2
Zier@@ 2
Zigarette 2
Zigaretten@@ 2
Zim@@ 2
Zimmer 2
Zinn@@ 2
Zins 2
Zinssätzen 2
Zion 2
Zir@@ 2
Zitate 2
Zoll@@ 2
Zoo@@ 2
Zor@@ 2
Zorn 2
Zucker 2
Zuckerberg 2
Zuerst 2
Zufried@@ 2
Zugeständnis 2
Zugeständnisse 2
Zugänge 2
Zukunft@@ 2
Zukunftsaussichten 2
Zukunftskonzept 2
Zul@@ 2
Zulassungs@@ 2
Zulieferer 2
Zulässigkeit 2
Zunge 2
Zusammen 2
Zusammenhalt 2
Zusammensetzung 2
Zuschläge 2
Zusp@@ 2
Zuspitzung 2
Zustände 2
Zuständig@@ 2
Zutun 2
Zuversicht 2
Zuwachs 2
Zwang 2
Zwangsversteigerungen 2
Zwe@@ 2
Zweckgesellschaften 2
Zwei-@@ 2
Zweifel@@ 2
Zweitlig@@ 2
Zweitliga-@@ 2
Zwerg@@ 2
Zwill@@ 2
Zwischenfall 2
Zwischenfälle 2
Zykl@@ 2
Zäh@@ 2
Zö@@ 2
Zürcher 2
a-T@@ 2
aan 2
abbrechen 2
abe 2
abel@@ 2
abends 2
abenteuerlichen 2
abgeben 2
abgebracht 2
abgeführt 2
abgehen 2
abgek@@ 2
abgelegt 2
abgen@@ 2
abgenommen 2
abgeschreckt 2
abgestimmt 2
abgewiesen 2
abgezweigt 2
abklären 2
ablehnt 2
ablesen 2
abletten 2
ablösefrei 2
abnehmen 2
abschließ@@ 2
abschluss 2
abschätzen 2
absehbar 2
absehbare 2
absetzung 2
absoluten 2
absoluter 2
absurde 2
abwarten 2
abziehen 2
abzuschaffen 2
abzuschrecken 2
abzusehen 2
abzustimmen 2
abzuwenden 2
ache 2
achte 2
achter 2
achtziger 2
achung 2
acks 2
ackte 2
ade@@ 2
aden 2
adi@@ 2
adt 2
affäre 2
afghanischer 2
afia 2
agens 2
agentur 2
aggressiven 2
agierenden 2
ags 2
agt 2
ahndet 2
ahnt 2
ahnte 2
ai 2
ain 2
akadem@@ 2
akis 2
aks 2
akter 2
aktion@@ 2
aktiven 2
aktivieren 2
aktuell 2
akuten 2
akzep@@ 2
al-Qaida 2
albern 2
alige 2
alisierten 2
alleinerzieh@@ 2
allemal 2
allend 2
alli@@ 2
allmählich 2
alog 2
alternde 2
altes 2
altet 2
altete 2
altungs@@ 2
ambulanten 2
amerikan@@ 2
ami 2
ammern 2
ampe 2
amti@@ 2
analy@@ 2
analysieren 2
analysiert 2
anbieter 2
anbot 2
anc@@ 2
ancen 2
andau@@ 2
andauernde 2
anden 2
andernfalls 2
andra 2
andrang 2
aneinandergeraten 2
anerkannt 2
anfing 2
anfällig 2
anfängt 2
angeben 2
angefallen 2
angegriffen 2
angehen 2
angeklagt 2
angemessen 2
angemessen@@ 2
angeordneten 2
angepe@@ 2
angere 2
angesetzt 2
angesie@@ 2
angespannten 2
angespro@@ 2
angestre@@ 2
angetrieben 2
angriff 2
anhaltende 2
ani 2
ankli@@ 2
ankommt 2
ankungen 2
ankurbeln 2
anlag@@ 2
anlage 2
anlegen 2
annul@@ 2
annäh@@ 2
ano 2
anonymen 2
anscheinend 2
anschl@@ 2
anschließen 2
anschließende 2
anschlüssen 2
anspruch 2
anspruchs@@ 2
ansprüche 2
anstelle 2
anstrengen 2
anstrengenden 2
ansäs@@ 2
antin 2
antisemit@@ 2
antrag 2
antwortete 2
anz 2
anzeige 2
anzen 2
anzie@@ 2
anziehen 2
anzlers 2
anzt 2
anzubringen 2
anzuneh@@ 2
anzuschauen 2
aparti@@ 2
apol@@ 2
appar@@ 2
apul@@ 2
arabische 2
arbeite 2
arbeitete 2
arbeiteten 2
ard@@ 2
ardt 2
argentinische 2
argentinischen 2
argumentieren 2
aria 2
arin 2
arina 2
arische 2
ark 2
armen 2
arren 2
ars 2
article112@@ 2
article115@@ 2
article1175@@ 2
article118@@ 2
article149@@ 2
artig 2
artigkeit 2
asch 2
aschen@@ 2
ase 2
asen 2
aspekt 2
ass 2
assen 2
assoziiert 2
assung 2
asten 2
atastrophe 2
ate@@ 2
aten@@ 2
ater 2
ater@@ 2
ateur 2
ath@@ 2
ations-@@ 2
ationsfähigkeit 2
atischen 2
atismus 2
ativ 2
ativ@@ 2
ativsten 2
ato 2
ato@@ 2
atorin 2
atorischen 2
ats@@ 2
atten 2
atter 2
attraktiv 2
attraktiver 2
aturen 2
atz@@ 2
auber@@ 2
aufbereitung 2
aufen 2
aufenen 2
aufgebot 2
aufgebracht 2
aufgefallen 2
aufgehalten 2
aufgerüstet 2
aufgestockt 2
aufgetaucht 2
aufgew@@ 2
aufkochen 2
auflösen 2
aufnehmen 2
aufopferungsvoll 2
aufre@@ 2
aufrechterhalten 2
aufstellung 2
auft 2
aufwendigen 2
aufzunehmen 2
ausbauen 2
ausbildung 2
ausbreitet 2
ausdrücken 2
auseinander 2
auseinandersetzung 2
auserwäh@@ 2
ausgabe 2
ausgeführt 2
ausgegeben 2
ausgeglichenen 2
ausgehandelt 2
ausgel@@ 2
ausgelegt 2
ausgeliehen 2
ausgemacht 2
ausgesagt 2
ausgestanden 2
ausgestorben 2
ausgetragen 2
ausgewachsenen 2
ausgewechselt 2
ausgeweitet 2
ausgewirkt 2
ausgewäh@@ 2
ausgeübt 2
ausgiebig 2
auskommen 2
auskuriert 2
auslösen 2
ausmacht 2
ausrechnen 2
aussch@@ 2
ausschusses 2
ausstellung 2
ausstrah@@ 2
auswär@@ 2
auszugeben 2
auszugleichen 2
auszus@@ 2
auszuschließen 2
ausüben 2
automaten 2
automatische 2
autor 2
autos 2
außenpolitische 2
außerordentlich 2
azitäten 2
babylon@@ 2
bacher 2
bad@@ 2
bahnen 2
bahnhof 2
baldige 2
baltischen 2
bangt 2
banker 2
bankrott 2
bart 2
basi@@ 2
bast@@ 2
bauer 2
bauern 2
bauers 2
baute 2
bayern 2
be- 2
beacht@@ 2
beachten 2
beachtete 2
beamten 2
beantragte 2
beantwortet 2
becher 2
bed@@ 2
bedankt 2
bedauerte 2
bedenken 2
bedeut@@ 2
bedeutendsten 2
bedien@@ 2
bedingte 2
bedrohen 2
bedroht 2
bedrohung 2
beeinflussen 2
befassen 2
befasst 2
befinde 2
befindlichen 2
beflissen@@ 2
beflügeln 2
befragte 2
befre@@ 2
befrie@@ 2
befriedigt 2
befunden 2
befür@@ 2
befürwor@@ 2
befürworteten 2
bege@@ 2
begegnen 2
begehr@@ 2
begehren 2
begibt 2
begnadete 2
begnadigte 2
begreift 2
begründen 2
begrüßt 2
behandlung 2
beharrt 2
behaup@@ 2
beherrschten 2
behin@@ 2
behindert 2
beibehalten 2
beinahe 2
beiseite 2
beiseite@@ 2
beitragen 2
beiwohnen 2
beizulegen 2
bejub@@ 2
bekann@@ 2
bekannten 2
bekannter 2
bekanntes 2
bekannteste 2
beklagen 2
bekräf@@ 2
belang@@ 2
belast@@ 2
beleidigt 2
belgische 2
belieb@@ 2
beliebt 2
beliebter 2
beliefert 2
beln 2
bemerkbar 2
bemängelte 2
benachbar@@ 2
bender 2
bens 2
benutz@@ 2
benutzen 2
benutzt 2
beobachte 2
berappen 2
beratungs@@ 2
berech@@ 2
berechtigt 2
berechtigtes 2
berei@@ 2
bereiche 2
bereitet 2
bert 2
beruft 2
beruhen 2
beruht 2
berüchtigten 2
berühmt 2
besag@@ 2
bescheinigte 2
beschleunigen 2
beschleunigt 2
beschloss 2
beschluss 2
beschrän@@ 2
beschuldigte 2
beschwert 2
beschwört 2
beschä@@ 2
beschäf@@ 2
beseit@@ 2
besichtigen 2
besie@@ 2
besitz 2
besitzen 2
besitzer 2
besor@@ 2
besorgen 2
besprechen 2
bessern 2
bestanden 2
bestehende 2
bestehenden 2
bestellt 2
besteuert 2
bestimmter 2
bestraft 2
bestreikt 2
bestreitet 2
bestätigten 2
besuch 2
besuche 2
besuchten 2
bet 2
betr@@ 2
betrat 2
betreibern 2
betreibt 2
betreut 2
betro@@ 2
betrugs 2
betrunken 2
beu@@ 2
beunruhig@@ 2
beurteilen 2
beutel 2
bewaff@@ 2
bewahr@@ 2
bewahrt 2
bewahrten 2
bewegten 2
bewerben 2
bewerteten 2
bewies 2
bewirkt 2
bewohner 2
bewusstsein 2
bewähr@@ 2
bez@@ 2
bezeichneten 2
beziehen 2
bezieht 2
beziehungsweise 2
bezweifeln 2
bezweifelt 2
bezüglich 2
bi@@ 2
bib@@ 2
bie 2
biete 2
big@@ 2
bige 2
bigen 2
bilanz@@ 2
bild@@ 2
bildete 2
bildnerin 2
bildschirm 2
billi@@ 2
billigte 2
bin@@ 2
bindung 2
bins 2
bio@@ 2
biograph@@ 2
birman@@ 2
bis@@ 2
bisweilen 2
bitten 2
blas@@ 2
blase 2
blaue 2
blei@@ 2
blen@@ 2
bli@@ 2
blick 2
blockiert 2
blon@@ 2
bloße 2
bläst 2
blü@@ 2
blüht 2
bo 2
boden 2
bogen 2
boll@@ 2
bombe 2
bomben 2
bon@@ 2
book 2
boomenden 2
bos 2
bote 2
botschaft 2
boykot@@ 2
brauchs 2
braunen 2
breitbeinig 2
bremsen 2
bremst 2
brenn@@ 2
brennende 2
brennt 2
bri@@ 2
brid@@ 2
brief 2
brille 2
brin@@ 2
bringe 2
brit@@ 2
britischem 2
bro@@ 2
brot 2
bruch 2
brutal 2
brutalen 2
bräuchte 2
brüch@@ 2
brüchen 2
bstoffe 2
bstoffs 2
buchen 2
buchstäblich 2
bun@@ 2
bundes 2
bundesdeutschen 2
bung 2
bunte 2
bunten 2
bunter 2
bury 2
busch@@ 2
by-@@ 2
bör@@ 2
börsennotierten 2
bücher 2
bür@@ 2
bürger@@ 2
büros 2
ca. 2
camps 2
can 2
can@@ 2
car@@ 2
cc@@ 2
ce-@@ 2
ce@@ 2
center 2
ch-@@ 2
chan@@ 2
chancen 2
chancenlos 2
charmant 2
che-@@ 2
chelt 2
chem@@ 2
chend 2
chenden 2
chener 2
chern 2
chers 2
ches 2
chines@@ 2
chinesischer 2
chips 2
chlich 2
chnis 2
christliche 2
chtbarkeit 2
chten@@ 2
cis 2
cks 2
cle@@ 2
clever 2
cm 2
computer@@ 2
ct 2
da-@@ 2
dabeizu@@ 2
dah@@ 2
dal 2
damer@@ 2
damm 2
dargestellt 2
dasselbe 2
dato 2
dauert 2
davon@@ 2
dazugehört 2
debat@@ 2
debatte 2
decke 2
deckten 2
deckungs@@ 2
def@@ 2
defensive 2
definiert 2
definitiv 2
defizit 2
della 2
dem@@ 2
demen@@ 2
demontieren 2
dende 2
dener 2
denkbar 2
denkwürdigen 2
dens@@ 2
derart 2
derartiger 2
dert 2
derten 2
derungen 2
detailli@@ 2
deutet 2
deutsch 2
deutschem 2
deutschland@@ 2
deutschsprach@@ 2
deutschsprachigen 2
dezeiten 2
dezent 2
diagnostiziert 2
dialogischen 2
dichtes 2
dicke 2
die@@ 2
dieren 2
diert 2
dierten 2
dierung 2
diesel@@ 2
diesjährige 2
diff@@ 2
differenz@@ 2
digerin 2
diges 2
digitale 2
digkeit@@ 2
digungen 2
dikt@@ 2
ding@@ 2
dini 2
diplomat@@ 2
dira@@ 2
dis 2
dis@@ 2
disch 2
dischen 2
discher 2
diskrimin@@ 2
diszipl@@ 2
diverser 2
dividende 2
dividiert 2
dliche 2
dlichkeit 2
do 2
doc@@ 2
dokum@@ 2
dominieren 2
doppelten 2
dostasi@@ 2
dpa@@ 2
dra@@ 2
drast@@ 2
drastische 2
dreimal 2
dreist@@ 2
dreitaus@@ 2
drin@@ 2
dringen 2
drittgrößten 2
drohe 2
drohenden 2
drunter 2
drängten 2
drücken 2
dson 2
dt 2
duktion 2
dunk@@ 2
durchgeb@@ 2
durchs 2
durchschnittliche 2
durchsuchten 2
durften 2
dy 2
dämp@@ 2
dänische 2
dü@@ 2
dün@@ 2
dünner 2
düst@@ 2
e- 2
e.@@ 2
e.de 2
echn@@ 2
echtem 2
eckt 2
ede@@ 2
een 2
eff@@ 2
effe@@ 2
effekte 2
effektiv 2
effektiven 2
effektiver 2
ehelichte 2
ehr@@ 2
ehre 2
ehrenamtliches 2
ehrgei@@ 2
eig@@ 2
eigen 2
eigenständige 2
eigentliche 2
eigentliches 2
eil 2
eim 2
einbruch 2
eindeu@@ 2
eindringlich 2
eindrucks@@ 2
einfache 2
einfachen 2
einfließen 2
einflüssen 2
eingebaut 2
eingebaute 2
eingef@@ 2
eingeführt 2
eingehalten 2
eingekauft 2
eingel@@ 2
eingeleitet 2
eingemischt 2
eingeplant 2
einger@@ 2
eingerichtet 2
einges@@ 2
eingeschlagen 2
eingeschlossen 2
eingeschossen 2
eingeschrieben 2
eingeschrän@@ 2
eingestellten 2
eingestuft 2
eingetroffen 2
eingezogen 2
einhalb 2
einheimische 2
einheiten 2
einhel@@ 2
einher 2
einigten 2
einkaufen 2
einladen 2
einlassen 2
einm@@ 2
einmali@@ 2
einnahmen 2
einnehmen 2
einsatz@@ 2
einsatzfähig 2
einstel@@ 2
einstellte 2
einstimmig 2
eintägigen 2
einund@@ 2
einvernehmliche 2
einverstanden 2
einziehen 2
einzudämmen 2
einzuführen 2
einzugehen 2
einzusetzen 2
einzuwenden 2
eiten 2
eitete 2
ek 2
el-Baradei 2
eleganten 2
eleganter 2
elektronische 2
elimin@@ 2
elin-@@ 2
elles 2
ells 2
elnde 2
elnden 2
eltem 2
elung 2
eländer 2
emaschine 2
emit@@ 2
emotional 2
empfehlen 2
empfiehlt 2
empfin@@ 2
empfindet 2
empört 2
en-Reise 2
en. 2
en.html 2
enan@@ 2
enbereich 2
endgül@@ 2
endlos 2
endor@@ 2
endorf 2
enen@@ 2
enern 2
engagieren 2
engagiert 2
engerech@@ 2
engl@@ 2
engängen 2
enkammer 2
enkt 2
enkämpfe 2
enliste 2
ennbar 2
ennen 2
enner 2
ensbildung 2
enschaften 2
enstell@@ 2
entar@@ 2
entartet 2
enten@@ 2
enteren 2
entfachte 2
entfern@@ 2
entfernen 2
entfrem@@ 2
enthal 2
enthal@@ 2
entisch 2
entladen 2
entlarvt 2
entlassung 2
entlässt 2
entnervt 2
entpuppte 2
entschie@@ 2
entschlossen 2
entschuldigen 2
entschädigen 2
entschärfen 2
entsprech@@ 2
entsprechender 2
entstandenen 2
enttäu@@ 2
entum 2
entwirft 2
entworfene 2
entziehen 2
enweise 2
enzen 2
erarbeiten 2
erbar 2
erdenklichen 2
erecht 2
ereien 2
erend 2
erende 2
erer 2
erfassten 2
erfol@@ 2
erfolg 2
erforder@@ 2
erfreu@@ 2
erfris@@ 2
erfuhr 2
erfährt 2
erfüllt 2
ergaben 2
ergeb@@ 2
ergehen 2
ergänz@@ 2
erheb@@ 2
erhoff@@ 2
erhoffen 2
erhängt 2
eriesen 2
erinnere 2
erische 2
erkampf 2
erkenn@@ 2
erkran@@ 2
erkrankt 2
erlag 2
erlaubnis 2
erlaubten 2
erleidet 2
erläuterte 2
ermah@@ 2
ermaßen 2
ermittel@@ 2
ermitteln 2
ermordet 2
ermordeten 2
ermu@@ 2
ermöglicht 2
ermöglichten 2
ernannt 2
ernde 2
ernden 2
erne@@ 2
erneu@@ 2
erns 2
ernste 2
ernster 2
ernsthaf@@ 2
eroberte 2
erraum 2
errechnet 2
errichten 2
erscheinenden 2
erschi@@ 2
erschien 2
erschlug 2
erschwert 2
erschüt@@ 2
ersetzen 2
erspart 2
erstattet 2
erstatteten 2
erstaunliche 2
erstei@@ 2
erstklassigen 2
ert. 2
erteilte 2
erweise 2
erweit@@ 2
erweitern 2
erwirtschaften 2
erwirtschaftet 2
erwischen 2
erwäge 2
erwägt 2
erwäh@@ 2
erwär@@ 2
ery 2
erzeugen 2
erzeugt 2
erzielten 2
erzäh@@ 2
erzähl 2
erzählen 2
eröffnung 2
esch 2
eschule 2
ese 2
espar@@ 2
eswig-@@ 2
et-@@ 2
etabliert 2
etat 2
etat@@ 2
ethnische 2
etliche 2
ettbewerb 2
etwaige 2
etz 2
europaweit 2
europaweiten 2
europäischem 2
ever@@ 2
exakt 2
exot@@ 2
exter@@ 2
extra 2
extravag@@ 2
fabri@@ 2
fach 2
facher 2
fachleute 2
fachlichen 2
facht 2
faden 2
fahrenen 2
fahrlässig 2
fahrten 2
fahrts@@ 2
fahrzeuge 2
faire 2
fairer 2
faktor 2
falschen 2
fantastisch 2
farbe 2
farben 2
fas@@ 2
faschistische 2
fassenden 2
favorisiert 2
feh@@ 2
fehl 2
fehlen 2
fehler@@ 2
fehlte 2
feierlich 2
feiern 2
feierten 2
feine 2
felder 2
fenster 2
fernen 2
ferner 2
fernseher 2
fers 2
fertig@@ 2
festes 2
festgefahrenen 2
festgehalten 2
festgenommenen 2
festival 2
feuer 2
feuern 2
ffe@@ 2
ffene 2
ffer 2
ffer@@ 2
ffs 2
fig@@ 2
fige 2
figen 2
figuren 2
fik@@ 2
fin 2
final-@@ 2
finale 2
finanzpolitische 2
finnische 2
fit 2
fiziert 2
fizierung 2
flaschen 2
flexiblen 2
flich 2
flieger 2
fließen 2
fließt 2
flo@@ 2
flogen 2
flotte 2
fluten 2
flä@@ 2
fläche 2
flächen 2
flächendeckenden 2
flüch@@ 2
flüchtete 2
flüchteten 2
flüge 2
folglich 2
for 2
ford 2
formal 2
format 2
formation 2
formuliert 2
fortsetzen 2
fortzu@@ 2
fr@@ 2
frag@@ 2
fragten 2
fran@@ 2
frankfur@@ 2
frau@@ 2
frauen 2
fraß 2
frech 2
freier 2
freigegeben 2
freigeschaltet 2
freil@@ 2
freim@@ 2
frem@@ 2
fremde 2
freude 2
freue 2
freund 2
freunde 2
freundliche 2
fried 2
friedliche 2
frische 2
frist 2
frist@@ 2
fristig 2
fristige 2
fristigen 2
fro@@ 2
frohen 2
frostigen 2
fränkischen 2
frü@@ 2
frühzeitig 2
fs@@ 2
fter 2
ftungen 2
fuhren 2
fun@@ 2
fungen 2
funk@@ 2
funktion 2
fur@@ 2
fächern 2
fädeln 2
fähiger 2
fällig 2
fälligen 2
fällte 2
fän@@ 2
fängt 2
föder@@ 2
fördert 2
füh@@ 2
fühle 2
fühlte 2
führe 2
führende 2
füllen 2
fünfstel@@ 2
fünfzig 2
fürchte 2
g-@@ 2
gal 2
galerie 2
gangen 2
gangenen 2
gangs 2
ganzer 2
garantieren 2
garten@@ 2
gas 2
gast 2
geachtet 2
geantwortet 2
gearbeitet 2
gebern 2
geborenen 2
geborgen 2
geboxt 2
gebucht 2
gebungen 2
gedeckt 2
gedruckte 2
gedrungen 2
gedrängt 2
geehrt 2
geeignete 2
geern@@ 2
gefalteten 2
gefangen 2
gefangen@@ 2
gefeiert 2
gefeu@@ 2
gefoltert 2
gefoult 2
gefror@@ 2
gefundenen 2
gefäl@@ 2
gefüge 2
gefühlt 2
gegangenen 2
gegebene 2
gegebenenfalls 2
gegenüber@@ 2
geglaubt 2
gegründeten 2
geheimen 2
gehetzt 2
gehörende 2
gehöri@@ 2
gehüllt 2
geistig 2
geistigen 2
gekennzeichnet 2
geklappt 2
geklaut 2
geklei@@ 2
geklär@@ 2
gekommen@@ 2
gekommene 2
gekämpft 2
gekündigt 2
geladen 2
gelan@@ 2
gelangte 2
gelaunt 2
geld-@@ 2
geld@@ 2
gelder 2
gelegene 2
gelenk@@ 2
gelernte 2
gelesen 2
geliefert 2
gelingt 2
gelist@@ 2
gelockt 2
gelotst 2
gelände 2
gelöscht 2
geman@@ 2
gemein 2
gemeinde 2
gemeinnützige 2
gemessen 2
gemäß 2
genannter 2
genau@@ 2
genaue 2
gendem 2
genehm@@ 2
generelle 2
genes 2
genießt 2
genü@@ 2
geord@@ 2
gepriesen 2
geprä@@ 2
geraubt 2
gerei@@ 2
gereinigt 2
gereizt 2
geren 2
gerichte 2
gerichtlichen 2
gerichts 2
gerieten 2
gering@@ 2
geringe 2
geringer@@ 2
geringeren 2
german@@ 2
gern-@@ 2
gers 2
geruh@@ 2
gerä@@ 2
gerüstet 2
gesammelt 2
geschas@@ 2
geschenkt 2
geschick@@ 2
geschoss 2
geschritten 2
geschrump@@ 2
geschweige 2
geschwindigkeiten 2
geschäf@@ 2
geschäftsführer 2
geschätzte 2
gesellschaftspolit@@ 2
gesetze 2
gesetzes 2
gespaltene 2
gespeicherten 2
gespräch 2
gestalten 2
gesteuerte 2
gestiegene 2
gestreikt 2
gestri@@ 2
gestritten 2
gesund@@ 2
gesundes 2
getar@@ 2
getr@@ 2
getrenn@@ 2
getrieben 2
getro@@ 2
getrock@@ 2
getrunken 2
gewachsen 2
gewachsenen 2
gewal@@ 2
gewalt@@ 2
gewaltig 2
gewaltsam 2
gewalttä@@ 2
gewalttätigen 2
gewandelt 2
gewaschen 2
gewe@@ 2
gewerbes 2
gewertet 2
gewohn@@ 2
gewordene 2
gewäh@@ 2
gewähr@@ 2
gewährleistet 2
gewöhn@@ 2
gewöhnlichen 2
gewöhnt 2
gewünschte 2
gezerrt 2
gezielten 2
ggel 2
ggel@@ 2
gger 2
ghton 2
gier 2
gieren 2
giftig 2
giger 2
gisch 2
gkeit 2
glanz@@ 2
glasklare 2
glat@@ 2
glau@@ 2
glaubte 2
gleicher 2
gleichwer@@ 2
glicher 2
glichkeit 2
glied 2
glieder 2
gliedert 2
glän@@ 2
gläub@@ 2
glücklicher 2
gnis@@ 2
gnung 2
gnungen 2
go 2
grad 2
graf@@ 2
grafischen 2
gramm@@ 2
gramms 2
grandios 2
gratis 2
grau@@ 2
grausam 2
gravierende 2
gren@@ 2
griech@@ 2
griff 2
griffen 2
groben 2
großartig 2
großartige 2
grundierter 2
grundle@@ 2
grupp@@ 2
gräber 2
größe 2
größerer 2
größter 2
gründet 2
gste 2
gungen 2
gutem 2
gänge 2
gängen 2
gäste 2
gön@@ 2
gönnen 2
gü@@ 2
günstiger 2
haf@@ 2
hafter 2
haftigkeit 2
hag@@ 2
haken 2
hakt 2
halber 2
halbes 2
halbher@@ 2
hale 2
half 2
halfen 2
halt@@ 2
haltbar 2
halte@@ 2
haltung 2
han 2
handels 2
handle 2
harken 2
harmlos 2
harmon@@ 2
harte 2
has@@ 2
haus@@ 2
heben 2
hebt 2
heftigen 2
hegt 2
hehren 2
heil@@ 2
heilig@@ 2
heilige 2
heiligen 2
heitet 2
heitsver@@ 2
heizo@@ 2
heiß 2
heiße 2
helle 2
herankommen 2
herausgegriffen 2
heraush@@ 2
herbei@@ 2
herber 2
herbst@@ 2
herkömmlicher 2
herrschaft 2
herstellers 2
hervorgeht 2
herz@@ 2
hessische 2
hessischen 2
hetzen 2
hi@@ 2
hierzu 2
hieven 2
hilfe 2
hilflos 2
hilfre@@ 2
hinaus@@ 2
hinausgehen 2
hing@@ 2
hingerichtet 2
hingewiesen 2
hintereinander 2
hinterhältigen 2
hinterließ 2
hinweg@@ 2
hinüber@@ 2
hitz@@ 2
hlichen 2
hoben 2
hochrangige 2
hochrangiger 2
hoff 2
hoff@@ 2
hold 2
holprig 2
holprigen 2
holten 2
holz 2
homosexuelle 2
honor@@ 2
horn 2
hr 2
humor@@ 2
hunderte 2
hunderttaus@@ 2
hung@@ 2
händlerin 2
här@@ 2
härter 2
häu@@ 2
höch@@ 2
höchstem 2
höchstens 2
höchster 2
höflich 2
höhe 2
höherer 2
höre 2
hörer 2
hüb@@ 2
ia-@@ 2
ian@@ 2
ianischen 2
ibo 2
ichtigung 2
ickelt 2
icket 2
icks 2
ickte 2
id 2
ida 2
iden 2
identitätsstif@@ 2
ids 2
ie-@@ 2
ieg 2
iegelt 2
ielen 2
ieler 2
iell 2
ielten 2
ien@@ 2
ierbar 2
ierend 2
ierungspro@@ 2
ign@@ 2
ignor@@ 2
ignorieren 2
igt 2
ihrerseits 2
ikanischen 2
ike 2
ilfe 2
ill 2
illa 2
ille 2
illegale 2
ills 2
ilo 2
ils 2
immense 2
immt 2
immung 2
immungen 2
imperium 2
importieren 2
in-@@ 2
inakzeptabel 2
index 2
indi@@ 2
individu@@ 2
inf@@ 2
informierter 2
inge 2
ingen-@@ 2
inha 2
inhaber 2
inhaf@@ 2
inien 2
inken 2
inmitten 2
insel 2
inspiriert 2
installieren 2
inszenieren 2
inszenierte 2
intellektuellen 2
intelligent 2
intensi@@ 2
intensiver 2
interessan@@ 2
interessen 2
interessi@@ 2
interessieren 2
intern 2
interpretieren 2
interpretiert 2
interstell@@ 2
inti@@ 2
investitionen 2
investor 2
inwieweit 2
io 2
ion 2
ir 2
iranischen 2
irdischen 2
irgendeine 2
irgendeinem 2
irgendwo 2
irischen 2
ischs 2
ischskandal 2
ischste 2
iser 2
ises 2
isierten 2
isierungs@@ 2
islav 2
israel@@ 2
issen@@ 2
istinnen 2
italbasis 2
itieren 2
itik@@ 2
ito 2
its 2
itt 2
ity 2
ität@@ 2
ium 2
iums 2
izentr@@ 2
j 2
jahre 2
jahre@@ 2
jahrelang 2
jahrelangen 2
jahren 2
jahres 2
jahrzehn@@ 2
je@@ 2
jekt 2
jemals 2
jenes 2
jenseits 2
jer 2
jetz@@ 2
jeweilige 2
jewski 2
ji 2
ji@@ 2
jo@@ 2
jol 2
jugend@@ 2
justiz 2
jähes 2
jährliche 2
jährlichen 2
jör@@ 2
jü@@ 2
jüdische 2
jüngeren 2
jüngerer 2
kabel 2
kalte 2
kamer@@ 2
kamp@@ 2
kampagne 2
kanadischen 2
kandi@@ 2
kandid@@ 2
kannst 2
kans 2
kante 2
kanten 2
kapital 2
kapital@@ 2
karte 2
kas 2
kasach@@ 2
kasse 2
kassiert 2
katalanische 2
katholische 2
ke-@@ 2
kehren 2
keineswegs 2
keit@@ 2
kel-@@ 2
kem@@ 2
kenk@@ 2
kennengelernt 2
kes 2
ki 2
kindern 2
kindliche 2
king 2
kings 2
kitschig 2
kla@@ 2
klack 2
klag@@ 2
klage 2
klagen 2
klappt 2
klar@@ 2
klarer 2
klassi@@ 2
kleineren 2
kleinsten 2
kler 2
klet@@ 2
klin@@ 2
klingelt 2
klu@@ 2
klumpen 2
klä@@ 2
knackt 2
knackte 2
knall@@ 2
knappen 2
knöpft 2
knüp@@ 2
koffer 2
koh@@ 2
kollabiert 2
komisch 2
kommandos 2
kommen@@ 2
kommentieren 2
kommentiert 2
kommer@@ 2
kommerzielle 2
kommiss@@ 2
kommissar 2
kommunik@@ 2
kompakt 2
kompensieren 2
kompetenz 2
komple@@ 2
komplette 2
konfliktreichsten 2
konkre@@ 2
konkretes 2
konkurrenzfähig 2
konkurrieren 2
konsequent 2
konsolidieren 2
konstru@@ 2
konstruktive 2
konten 2
kontert 2
kontra@@ 2
kontrollieren 2
konz@@ 2
konzentriert 2
konzep@@ 2
konzert 2
kosm@@ 2
kostbaren 2
koste 2
kostenneutr@@ 2
kosteten 2
kranke 2
kredite 2
kriegt 2
kriminalität 2
kriminelle 2
kriminellen 2
kritik 2
kritische 2
kräftiger 2
krü@@ 2
ksand@@ 2
kter 2
ktes 2
ktieren 2
ktives 2
ktor 2
ktor@@ 2
kubanische 2
kulatur 2
kuli@@ 2
kun@@ 2
kund@@ 2
kungen 2
kunst@@ 2
kurzfristige 2
kurzzeitig 2
kämpfer 2
kämpferisch 2
kästen 2
käufer 2
kö@@ 2
köl@@ 2
köp@@ 2
körper 2
körperlich 2
körperliche 2
küh@@ 2
kühl 2
kümmerte 2
kün@@ 2
kündigen 2
künstliche 2
künstlichen 2
kür@@ 2
küs@@ 2
labor 2
laboriert 2
lagern 2
lagert 2
lan 2
langjährige 2
langjährigen 2
lanz@@ 2
lar@@ 2
lasten 2
lastwagen 2
laus@@ 2
lebe 2
lebend 2
lebendige 2
lebte 2
leer 2
leg@@ 2
legale 2
legendär 2
leger 2
legit@@ 2
leh@@ 2
lehnten 2
leid 2
leiten 2
leiterin 2
leitet 2
leitete 2
lend 2
lendes 2
lenk@@ 2
lenken 2
lerische 2
lern@@ 2
lernte 2
les 2
lese 2
letz@@ 2
letztes 2
letztmals 2
leu@@ 2
leuchtet 2
leuten 2
lhe 2
li 2
li-@@ 2
liber@@ 2
lichkeits@@ 2
lick 2
lie 2
lieb 2
lieb@@ 2
liefen 2
lieferung 2
lieren 2
ligem 2
liger 2
line 2
liner 2
linke 2
links-@@ 2
linksextre@@ 2
liquide 2
lit@@ 2
litauischen 2
litz 2
ll 2
lmann 2
lo 2
loch 2
lock@@ 2
lockeren 2
logisch 2
lohn 2
lok@@ 2
lokalen 2
lon@@ 2
lose@@ 2
losesten 2
lossene 2
lossenen 2
loszuwerden 2
lustig 2
lux@@ 2
läche 2
lägen 2
ländischer 2
längerer 2
lässi@@ 2
lässigkeit 2
lästig 2
läuferin 2
löhne 2
löste 2
lügen 2
magazin 2
mals 2
man-@@ 2
managerin 2
managern 2
manch 2
mand@@ 2
mangel 2
mann-@@ 2
mannschaft 2
mantel 2
mar 2
markiert 2
markt-@@ 2
marschiert 2
martialische 2
masse 2
massiven 2
materi@@ 2
materielle 2
mau@@ 2
mauert 2
maximal 2
maßgeblich 2
mechan@@ 2
medaille 2
medien@@ 2
mehreinnahmen 2
mehrerer 2
meier 2
meilenweit 2
meist@@ 2
meldeten 2
melt 2
menden 2
mengen 2
mensch@@ 2
menschen 2
menschlich 2
ment 2
meren 2
merke 2
merken 2
merklich 2
merkt 2
merkwür@@ 2
merkwürdigen 2
mermann 2
mess@@ 2
met@@ 2
metallen 2
metscher 2
meyer 2
mi 2
mie 2
mik@@ 2
milch 2
militärisch 2
min 2
mindern 2
minen@@ 2
minim@@ 2
ministerkonferenz 2
mische 2
mischer 2
miserabler 2
mismus 2
misshand@@ 2
mission 2
mission@@ 2
mitarbeit@@ 2
mitbestimmen 2
mitge@@ 2
mitmachen 2
mitnehmen 2
mittag 2
mitteilen 2
mitteilt 2
mittelalter@@ 2
mittelfristigen 2
mittelgroßen 2
mittelmäßig 2
mittelständi@@ 2
mittleren 2
mitzutragen 2
mlich 2
mmer@@ 2
mne 2
mo 2
mochte 2
moderat 2
moderaten 2
moderiert 2
modern 2
monatel@@ 2
monaten 2
monatlichen 2
mond 2
montiert 2
motiv 2
motivierten 2
mpf@@ 2
mpfen 2
mte 2
mten 2
multi@@ 2
multination@@ 2
mus@@ 2
musiker 2
muslimische 2
muslimischen 2
musst 2
mut@@ 2
mutter 2
myth@@ 2
mächte 2
mächtigen 2
männer 2
mäßige 2
mäßigem 2
mö@@ 2
möchten 2
mühelos 2
mühsam 2
mül@@ 2
mün@@ 2
müs@@ 2
n.@@ 2
nachbörslich 2
nachempfunden 2
nachhaltigen 2
nachkommen 2
nachlassen 2
nachlesen 2
nachmittag 2
nachträ@@ 2
nachweisen 2
nachzuholen 2
nachzuzeichnen 2
nackt 2
nackte 2
nagel 2
nahen 2
nahtlos 2
namhafte 2
nannten 2
nar@@ 2
nation 2
nationalsozialistischen 2
natur@@ 2
natür@@ 2
neb@@ 2
nebst 2
negativen 2
nehmern 2
nei@@ 2
neigt 2
nerin 2
nervenaufreibenden 2
nervös 2
nes@@ 2
ness 2
netz@@ 2
netzwerk 2
neuartigen 2
neuem 2
neugegründeten 2
neulich 2
new 2
nich@@ 2
nicht-@@ 2
nicht@@ 2
nichtig 2
nieder 2
niedergeschlagen 2
niedrige 2
niedrigem 2
niedriger 2
niemanden 2
ning 2
nisses 2
nitten 2
nive@@ 2
nix 2
nomin@@ 2
non 2
nor@@ 2
nordrhein-westfälische 2
normal@@ 2
normale 2
normaler 2
norweg@@ 2
notierten 2
notor@@ 2
notwen@@ 2
notwendigen 2
nuklearen 2
nungs@@ 2
nutze 2
näch@@ 2
nächster 2
näher@@ 2
nö@@ 2
nördlich 2
nüchtern 2
nüchternen 2
nüchterner 2
nüp@@ 2
nützen 2
nützlich 2
nützt 2
oberste 2
obligatorisch 2
obschon 2
och 2
od 2
od@@ 2
offenkundig 2
offenlegen 2
ofs 2
ographie 2
ohlenen 2
ohn@@ 2
ohns 2
ola 2
old 2
olekü@@ 2
oli 2
ollen 2
ollt 2
ologisch 2
ologisches 2
olympische 2
olympischen 2
ometer 2
one 2
ong 2
onien 2
onin 2
onio 2
ont 2
onäre 2
operieren 2
oport 2
opplung 2
oppositionellen 2
optimale 2
optisch 2
ordin@@ 2
ordnen 2
ore 2
oren@@ 2
orene 2
orenen 2
organis@@ 2
ors 2
os@@ 2
ose 2
ote 2
othek 2
ou 2
out 2
ova 2
paare 2
pak@@ 2
pakist@@ 2
pakt 2
pal@@ 2
pan@@ 2
park 2
parken 2
parks 2
parlamenten 2
parte@@ 2
parteiinternen 2
parteipolitisch 2
parteitag 2
parti@@ 2
pas@@ 2
passen 2
passenden 2
passte 2
path@@ 2
patriot@@ 2
patzte 2
pausieren 2
pazen 2
pe 2
pegel 2
peilt 2
pein@@ 2
peinlichen 2
pen@@ 2
pend@@ 2
peratur 2
pern 2
perspe@@ 2
pert 2
pessimistisch 2
pfei@@ 2
pfer@@ 2
pfle@@ 2
ph 2
phase 2
phil@@ 2
picture-alliance 2
planmäßig 2
plast@@ 2
platzieren 2
plänen 2
politiker 2
polnische 2
popul@@ 2
populären 2
portugiesischen 2
potentiellen 2
potenzielle 2
potenziellen 2
pp 2
pper@@ 2
pps 2
pra@@ 2
prallte 2
prechen 2
predigen 2
preisgegeben 2
preisindex 2
privat 2
privilegi@@ 2
prob@@ 2
probe 2
proben 2
probieren 2
produkte 2
produkten 2
produktiver 2
produzent 2
professionell 2
professionelle 2
profi@@ 2
profitierte 2
profitierten 2
progra@@ 2
program@@ 2
prominent@@ 2
prominenten 2
propag@@ 2
prophezeit 2
prote@@ 2
protest@@ 2
protok@@ 2
provin@@ 2
provisorischen 2
provoziert 2
prozess 2
prägen 2
prägt 2
präpar@@ 2
präsen@@ 2
präsent 2
präsentierte 2
präz@@ 2
präzise 2
ps 2
pse 2
psychologe 2
publikum 2
punkt@@ 2
pur@@ 2
päp@@ 2
pöbelt 2
qualifiz@@ 2
qualifizieren 2
qualitativ 2
quartal 2
ra 2
radi@@ 2
radik@@ 2
radikal-islamischen 2
ragende 2
ragenden 2
rahmen 2
rain@@ 2
rake@@ 2
ral 2
rale 2
rank@@ 2
ras 2
rasanten 2
rascher 2
rast@@ 2
rates 2
rati@@ 2
rats 2
ratsmit@@ 2
ratsvorsitzende 2
raut 2
reag@@ 2
realistisch 2
rechne 2
rechtfertigte 2
rechtler 2
rechtliche 2
rechtsextre@@ 2
rechtsradikale 2
reckten 2
rede 2
ree 2
refle@@ 2
rege 2
regelrecht 2
regelt 2
regenerativen 2
regenerieren 2
regionaler 2
registriert 2
regt 2
reiber 2
reichende 2
reichs 2
reif 2
reis 2
reisende 2
reist 2
rekonstru@@ 2
relevan@@ 2
religi@@ 2
rend 2
renomm@@ 2
rep@@ 2
report 2
republik 2
republikanische 2
res-@@ 2
reser@@ 2
resigniert 2
respekt@@ 2
rettet 2
rettete 2
reuth 2
rheinischen 2
rheinland-pfälzische 2
richtet 2
richtung 2
richtungen 2
richtungs@@ 2
riecht 2
rieg 2
rien 2
riert 2
rierten 2
riff 2
rische 2
risen 2
risiko 2
riskiert 2
riss 2
ritis 2
ro 2
rollen 2
roman 2
roman@@ 2
ron@@ 2
rone 2
rosk@@ 2
rot 2
ruhenden 2
ruht 2
rum 2
rumoren 2
rumänische 2
run 2
rung 2
runter@@ 2
ruppe 2
rus 2
russischer 2
ry 2
rän@@ 2
räte 2
rätsel@@ 2
räumte 2
rücken 2
rückläufig 2
rügte 2
rühr@@ 2
s-Aktie 2
sabst@@ 2
sache 2
sachliche 2
sackte 2
saison 2
sakt 2
sakten 2
samer 2
samkeit 2
samm@@ 2
sammelt 2
sammlung 2
san@@ 2
sang 2
sanieren 2
sanken 2
sat@@ 2
satirisch 2
satt 2
satte 2
satzes 2
sau 2
sauber 2
sauber@@ 2
saudi@@ 2
sauer 2
sauf@@ 2
sburg 2
schach@@ 2
schafter 2
schaftlich 2
schaftlicher 2
schalten 2
schancen 2
scharfe 2
schefs 2
scheibe 2
scheidende 2
scheitern 2
scheiterten 2
schel@@ 2
schen@@ 2
schend 2
schende 2
schenkt 2
schichten 2
schickt 2
schickte 2
schied 2
schief 2
schienen 2
schier 2
schießt 2
schil@@ 2
schimp@@ 2
schir@@ 2
schle@@ 2
schlechter 2
schlechtere 2
schlechtes 2
schleifte 2
schlimmstenfalls 2
schlit@@ 2
schlossenheit 2
schlugen 2
schlägen 2
schlüs@@ 2
schmei@@ 2
schmelzende 2
schmerz@@ 2
schmerzen 2
schmiede 2
schmuck 2
schmun@@ 2
schnappt 2
schnellen 2
schnellste 2
schnellsten 2
schnit@@ 2
schock@@ 2
schonen 2
schossen 2
schottischen 2
schr@@ 2
schrank 2
schraube 2
schrecklich 2
schreit@@ 2
schrift 2
schriftlich 2
schrumpfen 2
schulung 2
schuss 2
schuss@@ 2
schwacher 2
schwar@@ 2
schwarz 2
schweb@@ 2
schwebt 2
schwedische 2
schwedischen 2
schweiß 2
schwel@@ 2
schwelle 2
schwerste 2
schwersten 2
schwindet 2
schwä@@ 2
schwächen 2
schwächer 2
schwächere 2
schwächt 2
schäbig@@ 2
schärferen 2
schätzen 2
schätzt 2
schätzungen 2
schö@@ 2
schönsten 2
schöpfen 2
schöpfte 2
schüren 2
schütteln 2
schützenden 2
se-@@ 2
sech@@ 2
sechs@@ 2
sechsjährigen 2
sechsten 2
seeb@@ 2
seel@@ 2
segens@@ 2
sehens 2
seher 2
seit@@ 2
seitens 2
seitlich 2
sek 2
sektor 2
selb@@ 2
seleute 2
seln 2
semp@@ 2
senat 2
send 2
sende 2
sende@@ 2
sendung 2
sens@@ 2
sensation@@ 2
sensib@@ 2
sensibel 2
serb@@ 2
serbische 2
serien@@ 2
serv@@ 2
serwartung 2
ses@@ 2
set 2
setze 2
setzung 2
sexuell 2
sge@@ 2
sgeheim@@ 2
shandel 2
shei@@ 2
sheit 2
shil@@ 2
shop 2
sicheren 2
sicherer 2
sichert 2
sichtbares 2
sie@@ 2
siebenjährigen 2
siebte 2
siedlung 2
siege 2
siert 2
sigkeit 2
sign@@ 2
signalisieren 2
signalisiert 2
singen 2
sinkt 2
sinnvolle 2
sitz@@ 2
siv@@ 2
siven 2
skand@@ 2
skel@@ 2
skep@@ 2
skonzern 2
skosten 2
sl@@ 2
sman@@ 2
smandat 2
smann 2
sme@@ 2
sn@@ 2
sobald 2
sofor@@ 2
solidarisch 2
solide 2
solltest 2
sonde 2
sonder@@ 2
sonn@@ 2
sonstige 2
sorgten 2
sou@@ 2
sozialdemokratische 2
sozialdemokratischen 2
sozialer 2
sozialistische 2
sozialistischen 2
spalten 2
spann@@ 2
spannende 2
spannenden 2
spause 2
speisen 2
speist 2
spektakulären 2
spektive 2
spekulativ 2
spekuli@@ 2
sperr@@ 2
sperren 2
sperrte 2
spezialisiert 2
spezialisierten 2
speziell 2
spflege 2
spiegel@@ 2
spielend 2
spielern 2
spitz@@ 2
spitze 2
splan 2
splatz 2
spläne 2
spon@@ 2
spot@@ 2
sprach@@ 2
sprakti@@ 2
sprang 2
sprechung 2
spreis 2
sprit@@ 2
spritze 2
sproble@@ 2
sproblemen 2
sprozess 2
sprung-@@ 2
sprüche 2
sprün@@ 2
spä@@ 2
ss 2
staatssekretär 2
stab@@ 2
stag@@ 2
stagn@@ 2
stammten 2
stan@@ 2
standards 2
standes 2
standhaft 2
standhalten 2
standort 2
stap@@ 2
starben 2
starif 2
starifvertrag 2
starts 2
stat@@ 2
statt@@ 2
stattgefunden 2
status 2
stau@@ 2
staunt 2
steam 2
stecken 2
stehenden 2
steige 2
steigern 2
steigerungen 2
steile 2
steine 2
stel 2
stellern 2
stellvertre@@ 2
stens 2
ster-@@ 2
sterblichkeit 2
stermin 2
sters 2
steten 2
steu@@ 2
steuer@@ 2
steuerlich 2
steuerte 2
stie@@ 2
stiftung 2
stig 2
stille 2
stin 2
stin@@ 2
stischen 2
stitel 2
stlich 2
stlichen 2
stlicher 2
stolze 2
stoppt 2
stor 2
stor@@ 2
stran@@ 2
strategen 2
strau@@ 2
streben 2
strebt 2
streifen 2
strenges 2
streuen 2
strierte 2
strierten 2
stritt 2
strittige 2
stru@@ 2
struktur 2
strum@@ 2
struppen 2
strö@@ 2
studenten 2
studi@@ 2
studieren 2
studiert 2
studium 2
stufe 2
stuften 2
stunde 2
stunden 2
stundenlang 2
stän@@ 2
ständen 2
ständiges 2
stär@@ 2
stärkere 2
stärkeren 2
stärkste 2
stören 2
störend 2
störungen 2
stück 2
stün@@ 2
stürmt 2
stürzt 2
stütz@@ 2
such@@ 2
sudan@@ 2
sunnit@@ 2
super 2
super@@ 2
svolumen 2
svorsitzende 2
svorstand 2
symb@@ 2
symbolisieren 2
sympathische 2
synchron@@ 2
synthet@@ 2
syrische 2
sys 2
sz 2
sz@@ 2
szl@@ 2
sächsischen 2
säkul@@ 2
sätzen 2
sätzliche 2
säulen 2
südlichen 2
t. 2
ta-@@ 2
tag@@ 2
tagentur 2
tages 2
tags@@ 2
tagsüber 2
tagung 2
taktik 2
tal@@ 2
talenti@@ 2
tanzen 2
tasie 2
tast@@ 2
tatsächliche 2
taus@@ 2
tauschen 2
taz 2
tech@@ 2
technologie 2
teilung 2
telefoniert 2
tem@@ 2
tempor@@ 2
ten.de 2
tend 2
tenden 2
tenen 2
tent@@ 2
terbe 2
terin 2
terroristischen 2
terten 2
test 2
test-@@ 2
test@@ 2
teter 2
tetes 2
teur 2
tex@@ 2
tg@@ 2
thand@@ 2
theiten 2
ther@@ 2
therapeutische 2
ti 2
tie@@ 2
tiere 2
tierung 2
tig@@ 2
tigkeiten 2
tigungen 2
tik 2
tiker 2
til 2
tim@@ 2
tionellen 2
tionen 2
tisch 2
tiv@@ 2
tlicher 2
tliches 2
tlings@@ 2
tochter 2
toler@@ 2
toll 2
tot.html 2
totalen 2
tote 2
traditionelle 2
trag@@ 2
tragene 2
trainer 2
tran@@ 2
transpor@@ 2
transportieren 2
traum 2
traum@@ 2
trauri@@ 2
traurige 2
treffer 2
tregi@@ 2
treu 2
trich 2
trinkt 2
trockener 2
trugen 2
trüben 2
tsa@@ 2
tsch@@ 2
tschaft 2
tsper@@ 2
tstadt 2
tten@@ 2
tter 2
tti 2
tum@@ 2
tur 2
ture@@ 2
twel@@ 2
ty@@ 2
typischen 2
typisches 2
tz 2
tze 2
tägigen 2
tärin 2
tödlich 2
tötet 2
tüftel@@ 2
tür@@ 2
türk@@ 2
ubschrauber 2
uch 2
ue 2
ug 2
ul 2
um-@@ 2
umben@@ 2
umfassender 2
umfasst 2
umgesetzt 2
umgucken 2
ummer 2
umso 2
umsonst 2
umt 2
umwelt@@ 2
umweltfreund@@ 2
unab@@ 2
unabhängiges 2
unauffällig 2
unbehelligt 2
unbeirrt 2
unbekannten 2
unbeliebt 2
unbewusst 2
uneingeschränkt 2
uneins 2
unendliche 2
unentbehrlich 2
unerfahren 2
unerwar@@ 2
ungeachtet 2
ungebrochen 2
ungefährdeten 2
ungehe@@ 2
ungeheure 2
ungeklär@@ 2
ungenügend 2
ungerecht 2
ungew@@ 2
ungewohnt 2
ungewöhnlichen 2
ungl@@ 2
unglaubliches 2
ungs-@@ 2
ungsaktion 2
ungsbedürftig 2
ungseffekt 2
ungseffekten 2
ungser@@ 2
ungsfähig 2
ungslos 2
ungsmanöver 2
ungstochter 2
ungsvor@@ 2
union 2
unionsregi@@ 2
universität 2
unk@@ 2
unkenen 2
unkenheit 2
unkontrolliert 2
unkte 2
unlautere 2
unlängst 2
unmittelbar 2
unmittelbarer 2
unmoralisch 2
unproble@@ 2
uns@@ 2
unschein@@ 2
unsterblich 2
unteren 2
untergraben 2
unterlegen 2
untermin@@ 2
unternehmens 2
unternehmer@@ 2
unternehmerischer 2
unterschei@@ 2
unterschiede 2
unterschiedlicher 2
unterschriebene 2
unterschätzen 2
unterstellte 2
unterstütz@@ 2
untersuchen 2
untersuchungen 2
unterzeichnet 2
unumstritten 2
unverständlich 2
unwahrscheinlich 2
unwirksam 2
unzulässig 2
unzureich@@ 2
unzählige 2
unzähligen 2
unüberwind@@ 2
up-@@ 2
ups 2
uralten 2
urg@@ 2
uri@@ 2
uristen 2
urnier 2
ursprünglichen 2
urteilen 2
urteilte 2
use 2
user 2
uskript 2
uten 2
utscht 2
utz 2
uzz@@ 2
va 2
val@@ 2
variabler 2
ve@@ 2
vehement 2
vent@@ 2
verabschiedete 2
verankert 2
veranstalten 2
verantworten 2
verantwortliche 2
verantwortungs@@ 2
verantwortungsbewusst 2
verbandes 2
verbesser@@ 2
verbesserte 2
verbessertes 2
verbieten 2
verbin@@ 2
verbindungen 2
verbl@@ 2
verbo@@ 2
verbor@@ 2
verbotenen 2
verbrachte 2
verbran@@ 2
verbrauch 2
verbrauchen 2
verbraucht 2
verbrennen 2
verbuchten 2
verbänden 2
verd@@ 2
verdacht 2
verdam@@ 2
verdeutlicht 2
verdienter 2
verdoppeln 2
verdrängt 2
verdächtigen 2
verdächtigt 2
vere 2
verehr@@ 2
verehrt 2
verehrten 2
vereinbar 2
vereinbarte 2
vereine 2
vereinigungs@@ 2
vereint 2
verfahrens 2
verfehlt 2
verfügbar 2
vergangen 2
vergehen 2
vergleich@@ 2
vergleichsweise 2
verglichen 2
verhafteten 2
verhand@@ 2
verheiratete 2
verhelfen 2
verhältnisse 2
verhär@@ 2
verkauf 2
verkauf@@ 2
verkehr@@ 2
verkehrt 2
verklagt 2
verklei@@ 2
verkündete 2
verlangte 2
verlangten 2
verlauf 2
verleger 2
verletzungsbedingt 2
verliebten 2
verlobt 2
verlu@@ 2
verlän@@ 2
verlässliche 2
verläuft 2
vermark@@ 2
vermei@@ 2
vermelden 2
vermin@@ 2
vermissten 2
vermittelt 2
vermittlung 2
vermö@@ 2
vermögens 2
vernach@@ 2
vernün@@ 2
verpackt 2
verpflichten 2
verpflichteten 2
verpflichtung 2
verraten 2
verring@@ 2
versammelt 2
verschie@@ 2
verschiebt 2
verschiedener 2
verschle@@ 2
verschleppt 2
verschließen 2
verschmelzen 2
verschrecken 2
verschul@@ 2
verschwand 2
verschwei@@ 2
verschwin@@ 2
verschär@@ 2
verschärfte 2
versehentlich 2
versendet 2
versicherte 2
versorgen 2
versorgt 2
versorgten 2
versprach 2
verspreche 2
versprochen 2
verstecken 2
verstehe 2
versteuern 2
verstoße 2
verstärken 2
verstöße 2
verstößt 2
versu@@ 2
versuch 2
vertag@@ 2
vertei@@ 2
verteuern 2
verteuert 2
vertr@@ 2
vertrau@@ 2
vertrauliche 2
vertrete 2
vertretenen 2
vertrieben 2
verträ@@ 2
verunsichert 2
verursachte 2
verurteilten 2
verwal@@ 2
verwaltungs@@ 2
verwand@@ 2
verwandelte 2
verwandelten 2
verwandt 2
verweigern 2
verwert@@ 2
verwies 2
verwiesen 2
verwurzelt 2
verzei@@ 2
verzeihen 2
verzichte 2
verzweifelt 2
verzögern 2
verzögerungen 2
vest@@ 2
vie@@ 2
vielerorts 2
viert 2
vierzehn 2
vierzig 2
vin 2
vio 2
virus 2
vo 2
vollautomatisch 2
vollem 2
volles 2
vollgestop@@ 2
vollkommen 2
vollständigen 2
vollziehen 2
vollzugs@@ 2
voneinander 2
vorausgesetzt 2
vorbereit@@ 2
voreinander 2
vorge@@ 2
vorgegeben 2
vorgesch@@ 2
vorgesehen 2
vorgesehene 2
vorgesehenen 2
vorgezogene 2
vorhaben 2
vorher@@ 2
vorhergesagt 2
vorherr@@ 2
vorherzusagen 2
vorige 2
vorlegte 2
vorliegen 2
vorliegende 2
vorliegenden 2
vorschriften 2
vorsich@@ 2
vorsichtigeren 2
vorsitzenden 2
vorweisen 2
vorwiegend 2
vorzustellen 2
völ@@ 2
w-@@ 2
wach 2
wach@@ 2
wack@@ 2
waffe 2
wag@@ 2
wagte 2
wah@@ 2
wahn@@ 2
wahrnehmen 2
wahrschein@@ 2
wall@@ 2
wan@@ 2
wand@@ 2
wandelte 2
ware 2
warme 2
warne 2
warnten 2
wart 2
warte 2
warts 2
wasser@@ 2
wball@@ 2
wegs 2
weh 2
weh@@ 2
wehrte 2
weib@@ 2
weich 2
weicht 2
weigert 2
weihnach@@ 2
weiht 2
weilige 2
weiligen 2
weilt 2
wein 2
weinen 2
weisende 2
weitem 2
weiterentwickeln 2
weiterführen 2
weiterregieren 2
weiß@@ 2
weißer 2
welches 2
weltmeisterschaft 2
wendet 2
wenngleich 2
werfer 2
werkstätten 2
wesentlichen 2
westdeutschen 2
westlich 2
wettbewerbs@@ 2
wetter 2
wettert 2
wetterte 2
wichen 2
widersetzt 2
widmet 2
widrig 2
wiederbel@@ 2
wiedererst@@ 2
wiedergewählt 2
wiederhergestellt 2
wies@@ 2
wildes 2
wili 2
will@@ 2
willen 2
willkürlich 2
winkt 2
wirkliche 2
wirksam 2
wirkung 2
wirkungslos 2
wirte 2
wissenschaft 2
wissenschaftlich 2
wissenschaftlichen 2
wittern 2
witz 2
wochen@@ 2
wog 2
wohldurch@@ 2
wohlwoll@@ 2
womit 2
woren 2
wovon 2
wozu 2
wunderbar 2
wunderbaren 2
wundern 2
wunsch 2
wurf 2
wusste 2
wäch@@ 2
wählte 2
währ@@ 2
wär@@ 2
wöchentlich 2
wü@@ 2
wünsche 2
würdige 2
würdigt 2
würdigte 2
xt 2
yn@@ 2
yp 2
yp@@ 2
yst@@ 2
z- 2
zahlreicher 2
zahlungen 2
zahn@@ 2
zapp@@ 2
zaubern 2
zb@@ 2
zehnminütiges 2
zeichnen 2
zeichnete 2
zeichnungen 2
zeige 2
zeile 2
zeitgemäß 2
zeleb@@ 2
zellen 2
zelte 2
zend 2
zentrales 2
zerische 2
zerstör@@ 2
zerstück@@ 2
zess 2
zesse 2
zettel 2
zeug@@ 2
zia 2
ziel@@ 2
zielte 2
zien 2
zier@@ 2
zieren 2
zierende 2
zierten 2
zigen 2
zin@@ 2
zins 2
zipi@@ 2
zips 2
zir@@ 2
ziti@@ 2
zitierte 2
zium@@ 2
ziviler 2
zubringen 2
zufällig 2
zug@@ 2
zugeben 2
zugedacht 2
zugefügt 2
zugegangen 2
zugegeben 2
zugelassen 2
zugreifen 2
zugunsten 2
zuhause 2
zukunfts@@ 2
zuliefer@@ 2
zuläs@@ 2
zum@@ 2
zunehmende 2
zunutze 2
zurückgedrängt 2
zurückgegriffen 2
zurückgetreten 2
zurückhal@@ 2
zurückliegenden 2
zurückschrecken 2
zurückzu@@ 2
zus@@ 2
zusammengeschlagen 2
zusammengeschlossen 2
zusammenstellen 2
zusch@@ 2
zuschlag 2
zuschlug 2
zut@@ 2
zwang 2
zwang@@ 2
zweck@@ 2
zweimaligen 2
zweites 2
zweitgrößten 2
zweitägigen 2
zweiwöch@@ 2
zwingend 2
zwischenzeitlich 2
zwölfjährige 2
zäh@@ 2
zählte 2
züge 2
Ähnliches 2
Ängste 2
Ästhetik 2
Äußer@@ 2
Öffnungszeiten 2
Ök@@ 2
Ökonomie 2
Ölpreise 2
Österreich@@ 2
Überarbeitung 2
Übergabe 2
Überhaupt 2
Überholverbot 2
Überland@@ 2
Überleben 2
Übernach@@ 2
Übernah@@ 2
Überprüfung 2
Überras@@ 2
Überraschungen 2
Übertra@@ 2
Übertragungs@@ 2
Überwachungsstaat 2
Überzeugung 2
Übrigen 2
Übung 2
ßende 2
ßes 2
ßig 2
ßler 2
ßt 2
äck@@ 2
ährt 2
äht 2
äle 2
älle 2
älteren 2
ältesten 2
ämpfe 2
ämpfen 2
ämter 2
ändert 2
ändischen 2
ängstlicher 2
ärgert 2
ärzten 2
äs@@ 2
ätz@@ 2
ätzt 2
äufen 2
äume 2
äuse 2
äusern 2
äußeren 2
äßig 2
ène 2
é-@@ 2
ée-Palast 2
öchter 2
öffentlich-rechtlichen 2
öffnet 2
öh@@ 2
öhnen 2
ökonomischen 2
öp@@ 2
öpf@@ 2
öre 2
örfern 2
öse 2
österreichischem 2
östlich 2
ößen 2
überein 2
überführten 2
überlegt 2
überproportional 2
überraschte 2
überreicht 2
übersch@@ 2
überschreitung 2
übersehen 2
übersteigen 2
übertrag@@ 2
überträgt 2
überwachung 2
überzeu@@ 2
überzeugend 2
übte 2
übungen 2
ück 2
ücken 2
ückt 2
ückte 2
ühende 2
ünstigen 2
üp@@ 2
üppig 2
ürt 2
ürz@@ 2
ürzung 2
üsch@@ 2
üssen 2
ütig 2
ütz@@ 2
ütze 2
-0,@@ 1
-3000 1
-AF@@ 1
-AG 1
-AS@@ 1
-Afghanistan 1
-Agenturen 1
-Aktion 1
-An@@ 1
-Anteil 1
-Apotheken 1
-Appe@@ 1
-Auflistung 1
-Aufstock@@ 1
-Auto@@ 1
-Autor 1
-Bahnho@@ 1
-Basis 1
-Berechnungen 1
-Bes@@ 1
-Best@@ 1
-Bestsell@@ 1
-Besuch 1
-Besucher 1
-Betriebs@@ 1
-Boh@@ 1
-Book@@ 1
-Bor@@ 1
-Bourne@@ 1
-Branche 1
-Braut 1
-Bundesligist 1
-CD 1
-Center 1
-Champion 1
-Comeback 1
-Crash 1
-Daimler-@@ 1
-Dat@@ 1
-Daten 1
-De@@ 1
-Debüt 1
-Deutschland@@ 1
-Dieter 1
-Diskurs 1
-E@@ 1
-Effekt 1
-Ehrenerklärung 1
-Ein@@ 1
-Einzelhandel 1
-Engagements 1
-Ent@@ 1
-Entscheidung 1
-Erfolge 1
-Erkrankungen 1
-Fahrer 1
-Funktion 1
-Fußball 1
-Führung 1
-Gedenkstätte 1
-Gem@@ 1
-Gemeinde 1
-Gewerkschaften 1
-Gründer 1
-Haus 1
-Her@@ 1
-Hotel 1
-Indexfonds 1
-Indikator 1
-Instituts 1
-Jo@@ 1
-Jones-@@ 1
-Josef 1
-Jum@@ 1
-Jün@@ 1
-Jürgen 1
-Kampagne 1
-Kap@@ 1
-Karriere 1
-Karte 1
-Kirche 1
-Kom@@ 1
-Kombin@@ 1
-Konflikt 1
-Lager@@ 1
-Lebensmittel 1
-Leistungs@@ 1
-Leitung 1
-Lo@@ 1
-Lukas 1
-Länder@@ 1
-Ma@@ 1
-Man@@ 1
-Med@@ 1
-Medien 1
-Möbel@@ 1
-Nationalstadion 1
-No@@ 1
-Nomin@@ 1
-Nutzern 1
-Online 1
-Organisationen 1
-Out 1
-Park 1
-Party 1
-Pilot 1
-Pokal 1
-Produzenten 1
-Programm 1
-Programms 1
-Protokolle 1
-Prozess 1
-Präsident 1
-Radi@@ 1
-Rating 1
-Rec@@ 1
-Rekruten 1
-Rendite 1
-Richtlin@@ 1
-Ro@@ 1
-Rom@@ 1
-SPD 1
-Schn@@ 1
-Schock 1
-See 1
-Seel@@ 1
-Shirt 1
-Shu@@ 1
-Skandal 1
-Skandals 1
-Songs 1
-Spezial 1
-Spiel 1
-Spiel@@ 1
-Spra@@ 1
-Stadion 1
-Strafe 1
-Strategie 1
-Stür@@ 1
-Systems 1
-TV 1
-Tal@@ 1
-Theater 1
-Thom@@ 1
-Trainer 1
-Treffer 1
-Tur@@ 1
-Ull@@ 1
-Unglück 1
-Uni 1
-Unterhaltung 1
-Verleger 1
-Verletzung 1
-Verteidiger 1
-Verw@@ 1
-Video 1
-Virus 1
-Vor@@ 1
-Vorschlag 1
-Vorstandsmitglied 1
-Wahl 1
-Walk@@ 1
-Waren 1
-Werbung 1
-Win@@ 1
-Woche 1
-Wohl@@ 1
-Zertifikat 1
-Zertifikaten 1
-Zuschüsse 1
-bye 1
-dpa 1
-kontrollierten 1
-lan@@ 1
-of-seven 1
-platten 1
-schwar@@ 1
-weiße 1
-weißen 1
-wirtschaft 1
-Ära 1
.0 1
.10.2007 1
.11.2007 1
.12 1
.Das 1
.Geschlossen 1
.o. 1
.or@@ 1
.tv 1
0.13 1
00.@@ 1
0000 1
000@@ 1
001-@@ 1
0039-@@ 1
007 1
01.@@ 1
018@@ 1
02,@@ 1
028 1
03.@@ 1
0323 1
04,@@ 1
04.@@ 1
040@@ 1
06,@@ 1
07,@@ 1
07@@ 1
09.2007 1
09.@@ 1
09@@ 1
0X@@ 1
1,0 1
1,00.html 1
1,100@@ 1
1,195 1
1,30 1
1,38 1
1,38@@ 1
1,39 1
1,4 1
1,42 1
1,43 1
1,45 1
1,53 1
1,60 1
1,65 1
1,7 1
1,74 1
1,75 1
1,90 1
1.3 1
1.30 1
1.@@ 1
1.html 1
100@@ 1
102 1
103 1
106-@@ 1
108 1
109 1
11-@@ 1
110@@ 1
111 1
112 1
112. 1
1139 1
116 1
116,@@ 1
118 1
1199@@ 1
11@@ 1
1200 1
1200@@ 1
121@@ 1
122 1
1226@@ 1
124 1
125@@ 1
126 1
13-@@ 1
131 1
134 1
136 1
136@@ 1
137 1
138 1
139 1
13th 1
143 1
152 1
157 1
157@@ 1
158@@ 1
159 1
160 1
165 1
168 1
170@@ 1
175 1
19-Jährige 1
19.09.2007 1
19.11.2007 1
190 1
190-@@ 1
190.000 1
1906 1
1914 1
192,2 1
1920 1
1932 1
1936 1
1939 1
1941 1
1942 1
1949 1
195 1
1951 1
1952 1
1954 1
1955 1
1959 1
196 1
1960 1
1962 1
1967 1
196@@ 1
1971 1
1972 1
1975 1
1978 1
1981 1
1986 1
198@@ 1
199@@ 1
1b 1
1bundes@@ 1
1er 1
2,0 1
2,15 1
2,18-@@ 1
2,3-@@ 1
2,4 1
2,47 1
2,50 1
2,55 1
2,7 1
2,71 1
2-3 1
200-fache 1
200.000 1
2007. 1
2007er 1
2017 1
202 1
2030 1
205 1
2050 1
208 1
20s 1
21-@@ 1
210 1
211 1
212 1
218.@@ 1
218@@ 1
22,@@ 1
220 1
2200 1
225 1
229 1
229@@ 1
23.@@ 1
230 1
2300 1
236 1
236@@ 1
238 1
23@@ 1
24-@@ 1
247 1
248 1
25-@@ 1
2500 1
26,@@ 1
261 1
263 1
267 1
269 1
27-@@ 1
27.@@ 1
270 1
273 1
28,@@ 1
28- 1
29.@@ 1
299 1
2K 1
2iQ 1
2wcom 1
3,17 1
3,2 1
3,50 1
3,6 1
3,68 1
30.html 1
3100 1
315@@ 1
319,@@ 1
31jährig 1
320@@ 1
323,@@ 1
325 1
33,@@ 1
33.@@ 1
330 1
330.html 1
3399 1
34,@@ 1
34-@@ 1
34.@@ 1
340 1
343 1
348 1
34@@ 1
35-@@ 1
350 1
358 1
359 1
36,@@ 1
361 1
362 1
363 1
365 1
366 1
37,@@ 1
37-@@ 1
37-Jährige 1
370 1
372 1
377 1
38,9@@ 1
39,@@ 1
390 1
399 1
4,4@@ 1
4,8@@ 1
4-@@ 1
4.html 1
40.html 1
400-@@ 1
400.000 1
4000-Einwohner-@@ 1
405 1
41,53 1
41. 1
41.html 1
4158@@ 1
42.@@ 1
420 1
424 1
425 1
430 1
4300 1
439 1
43@@ 1
44. 1
44.@@ 1
441 1
4438,@@ 1
44@@ 1
45,@@ 1
4500 1
459 1
46,@@ 1
46-@@ 1
467 1
468@@ 1
47-Jährige 1
471 1
474 1
48,@@ 1
483 1
49.html 1
490 1
491 1
493 1
4c 1
5,4@@ 1
5,9@@ 1
5.000 1
5.@@ 1
500.000 1
50000 1
507 1
509 1
51.@@ 1
5100 1
520.000 1
525 1
527 1
532 1
539 1
545 1
56-@@ 1
56. 1
57,@@ 1
57-Jährige 1
57. 1
57.@@ 1
576 1
59. 1
597@@ 1
599 1
6,6 1
60.000 1
600.000 1
60000 1
604 1
606 1
61 1
61-@@ 1
61. 1
62,5 1
62-@@ 1
62. 1
62500 1
63,@@ 1
63. 1
630 1
633 1
64-@@ 1
64. 1
64.html 1
644@@ 1
649.html 1
65,@@ 1
650 1
659 1
65@@ 1
66.000 1
665@@ 1
66@@ 1
67-Jährige 1
675 1
67@@ 1
690 1
7-@@ 1
700.@@ 1
707 1
71-@@ 1
71. 1
710@@ 1
712 1
7134 1
715@@ 1
72.@@ 1
724 1
7275 1
729 1
73 1
732 1
7350 1
737 1
74-@@ 1
74. 1
745@@ 1
747 1
747-@@ 1
7500 1
76,6 1
76-@@ 1
7664 1
768 1
77,@@ 1
770 1
771 1
774 1
775,@@ 1
779 1
783 1
7844 1
787-@@ 1
79 1
797@@ 1
8-@@ 1
8.000 1
81-@@ 1
8200 1
8243 1
82500 1
8258 1
827 1
828 1
828@@ 1
83 1
83,7 1
83-@@ 1
83. 1
845@@ 1
847@@ 1
850 1
857 1
863@@ 1
867@@ 1
87 1
87-@@ 1
87-Jährige 1
875 1
89 1
89. 1
89.@@ 1
900 1
9000 1
911 1
92,@@ 1
9261 1
9264 1
927 1
938 1
938@@ 1
948@@ 1
949 1
950 1
964 1
969@@ 1
96@@ 1
971 1
974 1
98 1
98-@@ 1
98. 1
984,@@ 1
984@@ 1
99 1
990 1
996@@ 1
99@@ 1
@ 1
A- 1
A-Test 1
A. 1
A0@@ 1
A11 1
A330 1
A34@@ 1
A350 1
A35@@ 1
A4-@@ 1
A6 1
A8 1
A81 1
ABC 1
AD@@ 1
ADA 1
AE@@ 1
AIG 1
AK@@ 1
AL@@ 1
AM 1
ANA 1
AOL 1
APEC 1
ASE 1
AT@@ 1
ATF 1
AWD 1
Abacha 1
Abbey 1
Abbü@@ 1
Abdallah 1
Abdel@@ 1
Abdurrahman 1
Abe 1
Abele 1
Abends 1
Abfahrern 1
Abfindungen 1
Abfindungs@@ 1
Abfälle 1
Abgase 1
Abgerechnet 1
Abgesang 1
Abgren@@ 1
Abgrund 1
Abgrün@@ 1
Abhilfe 1
Abhör@@ 1
Abklats@@ 1
Abkürz@@ 1
Ablass 1
Ablauf 1
Ablegern 1
Ablichten 1
Abmachung 1
Abmahnungen 1
Abnehmen 1
Abnehmer 1
Abonne@@ 1
Abora 1
Abpfi@@ 1
Abramovich 1
Abris@@ 1
Abroll@@ 1
Abrüst@@ 1
Abschaff@@ 1
Abschie@@ 1
Abschneiden 1
Abschreck@@ 1
Abschus@@ 1
Abschuss@@ 1
Abseits 1
Absenkung 1
Absicht 1
Absolut 1
Absolven@@ 1
Abspaltung 1
Absperr@@ 1
Abspiel@@ 1
Abste@@ 1
Abstei@@ 1
Absteiger 1
Absteigern 1
Abstellräumen 1
Abständen 1
Absur@@ 1
Abt 1
Abteil 1
Abtrieb 1
Abu-G@@ 1
Abul 1
Abwehr 1
Abwei@@ 1
Abweisung 1
Abwicklung 1
Abwärts@@ 1
Abzins@@ 1
Abzo@@ 1
Abzug@@ 1
Abzugs 1
Acer@@ 1
Ach 1
Achill@@ 1
Achilles 1
Achtz@@ 1
Acker 1
Action 1
Activity 1
Adel 1
Adel@@ 1
Adi@@ 1
Adid@@ 1
Adres@@ 1
Adrian 1
Advanced 1
Adventures 1
Advoc@@ 1
Aegis 1
Aer 1
Aero@@ 1
Af@@ 1
Afghan@@ 1
Aficion@@ 1
Afri@@ 1
Age 1
Agra@@ 1
Agro@@ 1
Ah 1
Ahmed 1
Ahmed@@ 1
Ahren@@ 1
Ailton 1
Aim@@ 1
Aj@@ 1
Akk@@ 1
Akte 1
Akti@@ 1
[...]
