, 1180
the 1015
. 906
and 525
of 519
to 473
" 448
a 447
in 425
The 202
's 198
that 186
for 178
on 164
is 159
said 150
was 139
with 128
he 107
as 104
at 102
by 94
from 90
be 89
have 89
has 88
an 87
his 84
: 82
it 82
) 79
are 79
( 76
not 73
who 67
will 67
had 63
been 56
their 55
I 54
were 53
- 52
about 52
or 52
this 51
they 50
more 49
which 47
't 46
It 44
one 44
but 43
out 42
In 40
would 40
after 38
its 37
she 37
than 37
two 35
-- 32
percent 32
we 32
$ 31
New 31
A 30
But 30
could 30
first 30
time 30
her 29
when 29
year 29
' 28
up 28
can 27
him 27
years 27
you 27
also 26
over 26
/ 25
all 25
last 25
million 25
no 25
And 24
before 24
people 24
; 23
? 23
into 23
other 23
so 23
We 22
three 22
what 22
He 21
some 21
if 19
most 19
new 19
do 18
our 18
then 18
there 18
way 18
American 17
Mr. 17
York 17
against 17
company 17
government 17
just 17
since 17
told 17
week 17
1 16
back 16
being 16
four 16
like 16
only 16
take 16
them 16
those 16
where 16
S@@ 15
That 15
called 15
did 15
home 15
make 15
men 15
says 15
second 15
should 15
such 15
while 15
15 14
They 14
U.S. 14
between 14
many 14
now 14
police 14
your 14
2007 13
found 13
how 13
i 13
president 13
right 13
security 13
still 13
team 13
think 13
through 13
took 13
& 12
25 12
any 12
best 12
even 12
former 12
health 12
help 12
lot 12
made 12
man 12
may 12
money 12
next 12
own 12
part 12
s 12
school 12
state 12
too 12
world 12
Minister 11
N@@ 11
President 11
Saturday 11
She 11
Tuesday 11
don 11
down 11
during 11
family 11
going 11
known 11
loss 11
military 11
often 11
play 11
set 11
yards 11
D@@ 10
Iran 10
Iraq 10
Mr 10
Sunday 10
T@@ 10
There 10
United 10
because 10
both 10
care 10
customers 10
day 10
expected 10
far 10
game 10
high 10
lead 10
long 10
month 10
night 10
number 10
off 10
re@@ 10
six 10
son 10
support 10
un@@ 10
use 10
well 10
-@@ 9
16 9
20 9
5 9
China 9
Company 9
David 9
Monday 9
P@@ 9
Thursday 9
US 9
Wednesday 9
am 9
another 9
does 9
early 9
good 9
group 9
including 9
information 9
ing 9
leading 9
might 9
much 9
music 9
officials 9
plan 9
private 9
record 9
same 9
season 9
students 9
until 9
war 9
weeks 9
women 9
won 9
! 8
.com 8
10 8
2 8
30 8
Bush 8
Chicago 8
Department 8
On 8
This 8
W@@ 8
When 8
able 8
across 8
around 8
asked 8
ate 8
away 8
business 8
came 8
case 8
children 8
come 8
companies 8
control 8
countries 8
court 8
d@@ 8
didn 8
different 8
each 8
education 8
er 8
fire 8
games 8
gas 8
get 8
held 8
increase 8
know 8
law 8
making 8
me 8
months 8
natural 8
never 8
pass 8
place 8
possible 8
public 8
put 8
recently 8
reported 8
reports 8
see 8
seen 8
sent 8
short 8
show 8
ted 8
us 8
11 7
2006 7
3@@ 7
4 7
50 7
6 7
8 7
AP 7
After 7
America 7
As 7
At 7
Bank 7
By 7
Chairman 7
G@@ 7
House 7
Mike 7
November 7
Our 7
R@@ 7
To 7
U@@ 7
Washington 7
according 7
building 7
city 7
co@@ 7
conference 7
cost 7
country 7
days 7
de 7
deal 7
due 7
efforts 7
end 7
executive 7
federal 7
five 7
further 7
general 7
half 7
heard 7
higher 7
hit 7
i@@ 7
id 7
keep 7
late 7
left 7
life 7
look 7
looking 7
ly 7
media 7
meeting 7
miles 7
my 7
nuclear 7
once 7
operations 7
per 7
political 7
really 7
received 7
saying 7
several 7
significant 7
stage 7
statements 7
these 7
thing 7
trade 7
used 7
visit 7
w@@ 7
went 7
work 7
y@@ 7
yet 7
£ 7
're 6
12 6
17 6
24 6
40 6
4@@ 6
5@@ 6
@ 6
A@@ 6
B@@ 6
British 6
C@@ 6
Corporation 6
Dr. 6
First 6
For 6
Friday 6
General 6
Health 6
India 6
M@@ 6
March 6
Matt 6
Michigan 6
Oct. 6
Of 6
One 6
September 6
So 6
South 6
States 6
T 6
Time 6
West 6
White 6
With 6
age 6
ahead 6
allowed 6
already 6
announced 6
area 6
ated 6
ball 6
based 6
beginning 6
behind 6
believe 6
better 6
big 6
billion 6
black 6
bo@@ 6
bring 6
c@@ 6
campaign 6
chief 6
clear 6
coming 6
defense 6
died 6
dollars 6
ed 6
ers 6
es 6
every 6
experience 6
field 6
financial 6
give 6
go 6
got 6
growth 6
guard 6
head 6
history 6
hits 6
http 6
in@@ 6
industry 6
k@@ 6
killed 6
land 6
later 6
less 6
ley 6
members 6
mother 6
named 6
national 6
need 6
news 6
o 6
o@@ 6
office 6
oil 6
over@@ 6
p@@ 6
past 6
point 6
power 6
prices 6
program 6
released 6
run 6
showed 6
statement 6
teams 6
third 6
track 6
troops 6
utility 6
very 6
wasn 6
whether 6
've 5
... 5
14 5
18 5
19 5
2.@@ 5
2004 5
2005 5
28 5
3 5
500 5
90 5
Americans 5
August 5
Court 5
Energy 5
France 5
Group 5
H@@ 5
His 5
I@@ 5
If 5
Jersey 5
Jones 5
Jordan 5
K@@ 5
Lo@@ 5
My 5
National 5
News 5
North 5
Romney 5
Royal 5
Sept 5
Street 5
These 5
a@@ 5
adding 5
again 5
agreement 5
along 5
always 5
am@@ 5
approximately 5
ar 5
arrested 5
audience 5
become 5
benefit 5
break 5
candidate 5
car 5
carry 5
certain 5
ch 5
change 5
charges 5
class 5
comes 5
considered 5
continue 5
contract 5
conviction 5
costs 5
credit 5
current 5
decided 5
des 5
earlier 5
east 5
economy 5
eight 5
em@@ 5
energy 5
f@@ 5
faced 5
father 5
fell 5
firm 5
food 5
forces 5
fresh 5
future 5
gave 5
gold 5
great 5
hard 5
ian 5
ies 5
im@@ 5
include 5
issue 5
job 5
kept 5
l@@ 5
leaders 5
leave 5
leaving 5
little 5
local 5
major 5
market 5
minus 5
minutes 5
morning 5
newspaper 5
offered 5
old 5
online 5
open 5
opposition 5
parts 5
passed 5
peace 5
period 5
phone 5
plans 5
points 5
produced 5
project 5
property 5
real 5
recalled 5
recent 5
red 5
reduce 5
report 5
role 5
sc@@ 5
service 5
serving 5
ship 5
started 5
strong 5
supply 5
system 5
t 5
t@@ 5
television 5
term 5
th@@ 5
things 5
ting 5
together 5
top 5
toward 5
trip 5
ts 5
under 5
v 5
vote 5
wanted 5
ways 5
why 5
win 5
winning 5
within 5
without 5
.@@ 4
13 4
21 4
22 4
23 4
31 4
45 4
5-@@ 4
61 4
7@@ 4
8@@ 4
9@@ 4
About 4
Arizona 4
Arkansas 4
Associated 4
Bell 4
Board 4
Both 4
California 4
Ch@@ 4
Charles 4
Chris 4
Christmas 4
College 4
Con@@ 4
Conference 4
Council 4
Darfur 4
Democrats 4
Di@@ 4
England 4
F@@ 4
Go@@ 4
Her 4
High 4
Houston 4
However 4
Iraqi 4
Is 4
Japan 4
John 4
June 4
Justice 4
La@@ 4
Microsoft 4
Ministry 4
Musharraf 4
No 4
Not 4
O 4
O@@ 4
October 4
P 4
Police 4
Press 4
Republican 4
Resources 4
Reuters 4
Robinson 4
Some 4
State 4
Supreme 4
Their 4
Two 4
U.N. 4
Warner 4
What 4
While 4
Y@@ 4
You 4
_ 4
above 4
ac@@ 4
accepted 4
administration 4
ago 4
air 4
al 4
and-@@ 4
ans 4
anything 4
attention 4
bin 4
broke 4
built 4
buy 4
buying 4
call 4
carried 4
cat@@ 4
cents 4
ch@@ 4
changes 4
charged 4
common 4
community 4
complete 4
con@@ 4
couldn 4
crash 4
create 4
de@@ 4
dead 4
debate 4
decision 4
den@@ 4
described 4
di@@ 4
director 4
dollar 4
e@@ 4
ec@@ 4
election 4
es@@ 4
est 4
estimated 4
et 4
feet 4
felt 4
floors 4
focused 4
following 4
foot 4
formed 4
fully 4
given 4
giving 4
having 4
hear 4
here 4
himself 4
homes 4
hours 4
however 4
husband 4
ia 4
ich@@ 4
ie 4
immigrants 4
important 4
included 4
index 4
intend 4
internal 4
international 4
interview 4
issues 4
iz@@ 4
kick 4
kill 4
kind 4
knew 4
lack 4
large 4
larger 4
least 4
legs 4
level 4
likely 4
lost 4
machine 4
medical 4
mis@@ 4
name 4
ner 4
ner@@ 4
nine 4
offices 4
opened 4
opportunity 4
order 4
others 4
owned 4
paid 4
passing 4
patients 4
performance 4
person 4
plants 4
played 4
pledged 4
prevent 4
prime 4
probably 4
problems 4
procedure 4
product 4
production 4
products 4
proposed 4
provide 4
quality 4
quickly 4
raised 4
ran 4
rates 4
reading 4
release 4
represents 4
residents 4
result 4
return 4
rich 4
road 4
rose 4
rule 4
s@@ 4
sales 4
say 4
se@@ 4
sell 4
selling 4
shot 4
side 4
size 4
special 4
st@@ 4
staff 4
start 4
stay 4
step 4
stop 4
story 4
strategy 4
streak 4
studio 4
study 4
success 4
supporters 4
table 4
taken 4
takes 4
talk 4
talks 4
terms 4
th 4
themselves 4
times 4
to@@ 4
tomorrow 4
town 4
toys 4
twice 4
u 4
ud 4
unexpected 4
units 4
v@@ 4
victory 4
want 4
war@@ 4
water 4
words 4
worked 4
workers 4
working 4
worst 4
wounded 4
write 4
www.@@ 4
'@@ 3
'm 3
+ 3
-B@@ 3
.org 3
0.@@ 3
150 3
17-@@ 3
18@@ 3
1983 3
1997 3
200 3
28@@ 3
2@@ 3
3-@@ 3
36 3
44 3
60 3
7 3
75 3
80 3
9 3
= 3
AL 3
Afghan 3
Agriculture 3
Also 3
Arab 3
Art 3
Association 3
Az@@ 3
Baghdad 3
Bay 3
Beijing 3
Bo@@ 3
Boston 3
Broadway 3
CBS 3
Campbell 3
Carolina 3
Center 3
Chambers 3
Championship 3
Chinese 3
Citigroup 3
City 3
Commerce 3
Committee 3
Congress 3
Credit 3
Da@@ 3
Day 3
De@@ 3
December 3
Dow 3
Dubai 3
During 3
E 3
E@@ 3
Each 3
European 3
Exchange 3
FC 3
Fire 3
Foreign 3
Form 3
Fox 3
Free 3
Games 3
Gas 3
George 3
Georgia 3
Germany 3
Gl@@ 3
Har@@ 3
Home 3
How 3
Huckabee 3
Human 3
IN@@ 3
Indonesia 3
Industry 3
International 3
Internet 3
Iranian 3
Israeli 3
January 3
Jim 3
Journal 3
Korea 3
Korean 3
L@@ 3
LOS 3
Lee 3
London 3
MP@@ 3
Mail 3
Massachusetts 3
May 3
Mexico 3
Min@@ 3
Minnesota 3
Mitt 3
Mo@@ 3
Moscow 3
Ms. 3
NFL 3
No. 3
Obama 3
Oc@@ 3
Ohio 3
Orleans 3
Patrick 3
Patriots 3
Peninsula 3
People 3
Petraeus 3
Po@@ 3
Prime 3
Princ@@ 3
Prince 3
Prosecutors 3
Provi@@ 3
Public 3
R 3
Radio 3
Report 3
Ro@@ 3
Rosa 3
Rus@@ 3
S 3
ST@@ 3
Said 3
San 3
Sau@@ 3
Seattle 3
Sen. 3
Senate 3
Series 3
Services 3
Sin@@ 3
Smith 3
Solutions 3
Southern 3
St. 3
Standard 3
Stephen 3
Su@@ 3
Such 3
Sudan 3
Sun 3
Sun@@ 3
Tamil 3
Te@@ 3
Texas 3
Times 3
Today 3
Tony 3
UPI 3
University 3
Upper 3
Virginia 3
Was 3
Watch 3
Wisconsin 3
World 3
Writer 3
Y 3
Z@@ 3
accused 3
addition 3
advantage 3
advocate 3
affairs 3
affected 3
afternoon 3
ag@@ 3
agency 3
ah 3
aimed 3
ak 3
ak@@ 3
alcohol 3
almost 3
among 3
an@@ 3
ance 3
ani 3
announcement 3
annual 3
appeared 3
approach 3
approached 3
approved 3
ar@@ 3
armed 3
article 3
asking 3
ass 3
assistance 3
ating 3
ation 3
ations 3
attacked 3
available 3
aver@@ 3
average 3
b@@ 3
banks 3
base 3
beans 3
became 3
bed 3
begin 3
biggest 3
bill 3
birthday 3
bit 3
ble 3
blood 3
body 3
bomb 3
brain 3
breath 3
broken 3
build 3
buildings 3
calls 3
candidacy 3
candidates 3
career 3
cases 3
cent 3
central 3
certainly 3
challenge 3
chance 3
charge 3
ched 3
child 3
cities 3
citizens 3
civilian 3
ck 3
claims 3
cli@@ 3
climate 3
close 3
club 3
collateral 3
commented 3
computer 3
concerns 3
conditions 3
confirmed 3
conflicts 3
connection 3
content 3
continues 3
contributed 3
corruption 3
coverage 3
cr@@ 3
creative 3
crime 3
crisis 3
crude 3
cut 3
daily 3
damage 3
dating 3
decades 3
deliver 3
der 3
der@@ 3
detail 3
ding 3
direction 3
discuss 3
disease 3
do@@ 3
doesn 3
dog 3
domestic 3
dy 3
e 3
e-@@ 3
effort 3
elected 3
elections 3
electric 3
en@@ 3
ended 3
ensure 3
ent 3
environmental 3
era 3
ered 3
esh 3
established 3
eventually 3
ever 3
example 3
executives 3
expect 3
exploded 3
extended 3
extension 3
extremely 3
face 3
failed 3
families 3
few 3
fight 3
fighting 3
film 3
football 3
force 3
founder 3
free 3
friend 3
friends 3
full 3
gathered 3
ger 3
goal 3
gone 3
governor 3
grants 3
gro@@ 3
ground 3
h@@ 3
hal@@ 3
heavily 3
hole 3
hope 3
hopes 3
host 3
hour 3
human 3
hundreds 3
hurt 3
id@@ 3
idea 3
illegal 3
im 3
immediate 3
improve 3
income 3
ings 3
instead 3
interest 3
introduced 3
investigation 3
investment 3
ion 3
ism 3
ist 3
itself 3
j@@ 3
joined 3
juvenile 3
k-@@ 3
ken 3
killings 3
km 3
knee 3
l 3
lawsuits 3
le 3
le@@ 3
led 3
let 3
letter 3
light 3
limit 3
line 3
live 3
living 3
located 3
long-@@ 3
m 3
m@@ 3
maintain 3
majority 3
maker 3
man@@ 3
manager 3
mark 3
match 3
material 3
matter 3
meet 3
met 3
mid-@@ 3
middle 3
missed 3
mo@@ 3
monarch 3
mood 3
mortgage 3
move 3
murder 3
ne@@ 3
needed 3
northern 3
nothing 3
offense 3
offers 3
op@@ 3
operating 3
option 3
organization 3
ours 3
ously 3
outside 3
owner 3
p 3
particularly 3
party 3
pay 3
pictures 3
planned 3
players 3
policy 3
politics 3
poor 3
popular 3
population 3
portion 3
posed 3
position 3
powers 3
pre@@ 3
presence 3
presidential 3
previous 3
previously 3
prize 3
pro-@@ 3
problem 3
programs 3
progress 3
projects 3
protection 3
provides 3
published 3
putting 3
qna 3
question 3
questions 3
r@@ 3
rate 3
ratings 3
reach 3
recover 3
refused 3
region 3
regional 3
regular 3
regulated 3
reject 3
reporters 3
request 3
rest 3
resulted 3
rise 3
risks 3
room 3
round 3
routine 3
runs 3
safety 3
sale 3
scene 3
se 3
section 3
seeing 3
seek 3
seemed 3
series 3
serve 3
services 3
seven 3
sh@@ 3
shared 3
ships 3
shooting 3
shop 3
signs 3
similar 3
single 3
sites 3
situation 3
sixth 3
sl@@ 3
small 3
sold 3
solutions 3
something 3
speculation 3
spend 3
standing 3
starting 3
steps 3
stories 3
straight 3
strategic 3
strength 3
struck 3
style 3
successful 3
suddenly 3
suspended 3
ta@@ 3
taking 3
tar@@ 3
tax 3
te 3
tensions 3
ter@@ 3
ters 3
testing 3
theater 3
thescotsman.scotsman.com 3
ties 3
tions 3
today 3
ton 3
touchdown 3
touchdowns 3
towards 3
traditional 3
training 3
travel 3
treatment 3
tropical 3
trouble 3
trying 3
turns 3
types 3
u@@ 3
um 3
und@@ 3
ut@@ 3
van 3
vice 3
viol@@ 3
wal 3
wants 3
watch 3
weapons 3
weekend 3
west 3
whole 3
whose 3
wife 3
worldwide 3
writing 3
x@@ 3
y 3
youth 3
ys 3
ys@@ 3
z@@ 3
'd 2
'll 2
-F@@ 2
-based 2
-year-old 2
0 2
02 2
09@@ 2
0@@ 2
1,000 2
1,500 2
1- 2
1-3 2
1-@@ 2
1.5 2
10,000 2
12,000 2
15@@ 2
16-@@ 2
17@@ 2
192 2
1989 2
1990s 2
1@@ 2
2,500 2
2-@@ 2
20-@@ 2
2001 2
2002 2
2003 2
2008 2
206 2
20@@ 2
212-@@ 2
25@@ 2
26 2
27 2
31.@@ 2
33 2
37 2
40,000 2
42 2
47 2
49@@ 2
5,000 2
5.@@ 2
52 2
54 2
55@@ 2
56 2
6-@@ 2
62 2
65 2
650 2
68@@ 2
6@@ 2
7,000 2
73 2
74 2
84 2
84@@ 2
85 2
86 2
88 2
96 2
99 2
AD@@ 2
AL@@ 2
AM 2
ANGELES 2
AS 2
ATLANTA 2
Ab@@ 2
According 2
Ad@@ 2
Additional 2
Africa 2
Agency 2
Airport 2
Al-@@ 2
Al@@ 2
Ale@@ 2
Alex 2
All 2
Along 2
Already 2
Although 2
Amazon 2
Angeles 2
Anna 2
Anne 2
April 2
Are 2
Armed 2
Army 2
Arthur 2
Atlanta 2
Atlantic 2
Aug. 2
Australian 2
Avenue 2
BA 2
Ba@@ 2
Bad 2
Baltimore 2
Bar@@ 2
Because 2
Ben 2
Beno@@ 2
Black 2
Blackwater 2
Blanch@@ 2
Bour@@ 2
Bowl 2
Braves 2
Bre@@ 2
Bri@@ 2
Brian 2
Britain 2
Brown 2
Bryant 2
Buck@@ 2
Burton 2
C.@@ 2
CI@@ 2
Cal@@ 2
Car@@ 2
Card 2
Care 2
Carl 2
Carrie 2
Challenge 2
Chan 2
Charlie 2
Chavez 2
Chief 2
Clinical 2
Clinton 2
Close 2
Co 2
Commission 2
County 2
Cr@@ 2
Craig 2
Cro@@ 2
Cul@@ 2
Currently 2
D 2
DA@@ 2
Dallas 2
Dan@@ 2
Dave 2
Davis 2
Days 2
Defence 2
Design 2
Despite 2
Diego 2
Do@@ 2
Dolly 2
Dr@@ 2
Du@@ 2
Duffy 2
Dur@@ 2
EM@@ 2
EU 2
Earlier 2
Edinburgh 2
Egypt 2
Egyptian 2
En@@ 2
Even 2
Everything 2
Explorer 2
Far@@ 2
February 2
Federal 2
Fla 2
Foundation 2
Four 2
Francis 2
Frank 2
French 2
From 2
Fukuda 2
G.M. 2
GA 2
GE@@ 2
Gal@@ 2
Gam@@ 2
Game 2
Gen@@ 2
Giants 2
Gil@@ 2
Giuliani 2
Go 2
Goldman 2
Gonzales 2
Good 2
Gordon 2
Gov. 2
Gra@@ 2
Green 2
Gulf 2
Hall 2
Hamas 2
Harry 2
Help 2
Heroes 2
Ho@@ 2
Homes 2
Honda 2
Honor 2
Hurricane 2
Hussein 2
IN 2
ION@@ 2
IR@@ 2
IT 2
Ian 2
Inc 2
Inc. 2
Indian 2
Indonesian 2
Industries 2
Inspector 2
Interior 2
Iowa 2
Irish 2
Israel 2
Its 2
Japanese 2
Jena 2
Jewish 2
Joe 2
Julie 2
July 2
Just 2
Kah@@ 2
Kel@@ 2
Khan 2
Ki@@ 2
King 2
Kir@@ 2
Kor@@ 2
Kremlin 2
L 2
L. 2
LO@@ 2
Land@@ 2
Last 2
Latin 2
Leone 2
Let 2
Libya 2
Light 2
Local 2
Los 2
Louisiana 2
Ltd 2
Luci@@ 2
ME@@ 2
Ma@@ 2
Mac 2
Man 2
Many 2
Mar@@ 2
Margaret 2
Mark 2
Martin 2
McCann 2
McLaren 2
Medical 2
Mi@@ 2
Michael 2
Mor@@ 2
Mortgage 2
Most 2
Mur@@ 2
Museum 2
Muslim 2
Muslims 2
NBC 2
Nasdaq 2
Nebraska 2
Network 2
Nichols 2
Nor@@ 2
Notes 2
Now 2
Number 2
OR@@ 2
Ocean 2
Office 2
Oil 2
Olson 2
Olympics 2
Once 2
Or@@ 2
Organization 2
Other 2
Out@@ 2
Ow@@ 2
Oz 2
Page 2
Palm 2
Paris 2
Park 2
Partners 2
Paul 2
Pe@@ 2
Pennsylvania 2
Per@@ 2
Peter 2
Philip 2
Philippines 2
Pie@@ 2
Plane 2
Plans 2
Plat@@ 2
Platinum 2
Pol@@ 2
Poor 2
Pop@@ 2
Post 2
Project 2
Publ@@ 2
Pulitzer 2
Q 2
Randolph 2
Real 2
Rec@@ 2
Red 2
Rel@@ 2
Reli@@ 2
Rep. 2
Reports 2
Research 2
Resist@@ 2
Ritter@@ 2
Ronnie 2
Russell 2
Russia 2
SA@@ 2
SEC 2
SOURCE 2
Sachs 2
Salem 2
Schumer 2
Scottish 2
Securities 2
Service 2
Sh@@ 2
Sha@@ 2
Sierra 2
Simpson 2
Since 2
Sir 2
Sk@@ 2
Sm@@ 2
Sol@@ 2
Southeastern 2
Spanish 2
Spi@@ 2
St@@ 2
Station 2
Still 2
Storm 2
Subsi@@ 2
Sur@@ 2
Swiss 2
TIME 2
TM 2
TO@@ 2
TV 2
Take 2
Technology 2
Tehran 2
Th@@ 2
Thatcher 2
Third 2
Thomas 2
Tigers 2
Tim 2
Ton@@ 2
Tri@@ 2
Tropical 2
Tum@@ 2
Tyson 2
U 2
USA 2
Ultimately 2
Us 2
Utilities 2
V@@ 2
VE@@ 2
Var@@ 2
Vick 2
Vladimir 2
Wales 2
Wall 2
We@@ 2
Where 2
Who 2
Wi@@ 2
Will 2
Williams 2
Wood@@ 2
Work 2
X 2
Yankees 2
[ 2
] 2
ab 2
ab@@ 2
ability 2
absence 2
absolutely 2
acceptable 2
accident 2
ace 2
achieved 2
acquisition 2
acquisitions 2
action 2
actions 2
active 2
activities 2
activity 2
actor 2
address 2
ado 2
adult 2
advertising 2
advice 2
af@@ 2
affect 2
affordable 2
agan 2
agent 2
agree 2
agreed 2
ahe@@ 2
ain@@ 2
airport 2
album 2
albums 2
alike 2
ality 2
alive 2
all-@@ 2
all@@ 2
alle 2
allies 2
alone 2
amed 2
anning 2
anniversary 2
answer 2
ant 2
anticipate 2
anymore 2
anyone 2
appeals 2
appear 2
appears 2
appreciate 2
architecture 2
ard@@ 2
areas 2
aren 2
arriving 2
art@@ 2
as@@ 2
ashed 2
assets 2
assistant 2
associated 2
association 2
ast 2
ast@@ 2
ath 2
ative 2
atmosphere 2
ator 2
attacking 2
attempted 2
authorities 2
av@@ 2
awareness 2
b 2
ball@@ 2
banned 2
bar 2
bar@@ 2
be@@ 2
bears 2
beat 2
beating 2
began 2
begins 2
belief 2
believed 2
below 2
bet 2
beyond 2
bid 2
birds 2
birth 2
block 2
blocked 2
blocking 2
blogs 2
blue 2
board 2
bodies 2
bol@@ 2
boost 2
bought 2
boy 2
brands 2
bre@@ 2
breaking 2
breast 2
brother 2
brought 2
bullets 2
bur@@ 2
burn 2
busch 2
buses 2
buyer 2
by-@@ 2
c.com 2
cable 2
camp 2
cannot 2
capital 2
carries 2
cars 2
carved 2
cash 2
category 2
cause 2
ceasefire 2
celebrate 2
center 2
ces 2
championship 2
characters 2
checked 2
cher 2
chicken 2
childhood 2
ching 2
choices 2
chosen 2
circumstances 2
cit@@ 2
civil 2
cket 2
clearly 2
client 2
clients 2
coached 2
coast 2
collection 2
college 2
color 2
combined 2
commands 2
commend 2
comment 2
commercial 2
commission 2
comparable 2
compared 2
completed 2
complicated 2
comply 2
composite 2
comprehensive 2
concentrate 2
conservative 2
consider 2
consultant 2
consumer 2
consumers 2
consumption 2
contenders 2
council 2
count 2
counterpart 2
course 2
courtroom 2
created 2
credibility 2
crimes 2
criticized 2
criticizing 2
cross-@@ 2
crucial 2
cur@@ 2
cuts 2
d 2
dark 2
data 2
database 2
date 2
death 2
debt 2
debut 2
decline 2
decorated 2
dedicated 2
defensive 2
demand 2
demonstrations 2
dent 2
department 2
depression 2
derman 2
des@@ 2
describe 2
details 2
detained 2
develop 2
dial 2
dies 2
differences 2
directed 2
disorders 2
distributed 2
dock 2
doctor 2
doing 2
done 2
double 2
down@@ 2
draw 2
drew 2
drop 2
dropped 2
drug 2
du@@ 2
e.com 2
earned 2
easing 2
effect 2
effects 2
efficiency 2
eg@@ 2
eight-@@ 2
either 2
el 2
el@@ 2
eliminate 2
ell@@ 2
elled 2
ellers 2
elsewhere 2
emergency 2
ence 2
ending 2
ene 2
engineering 2
enough 2
ens 2
enter 2
entrance 2
ep 2
episode 2
equipment 2
equity 2
er-@@ 2
erupted 2
ese 2
establishment 2
estimate 2
ett 2
evening 2
event 2
events 2
everything 2
evidence 2
exact 2
exactly 2
excellent 2
exchange 2
exclusive 2
exercise 2
exhibition 2
expert 2
experts 2
expiration 2
explain 2
extent 2
external 2
ey 2
eye 2
eyes 2
faces 2
facilities 2
fact 2
factory 2
fall 2
fashion 2
fatal 2
feeling 2
female 2
fer 2
fer@@ 2
fewer 2
fi@@ 2
figures 2
filed 2
files 2
filled 2
fin@@ 2
find 2
fine 2
fined 2
finger 2
fired 2
firefighter 2
firefighters 2
fires 2
firms 2
fiscal 2
fishing 2
flow 2
follow 2
footprint 2
forced 2
formally 2
forth 2
forward@@ 2
founders 2
fourth 2
fraud 2
fuelled 2
fun 2
funds 2
furniture 2
g 2
g@@ 2
gain 2
gaining 2
gap 2
garnered 2
generally 2
ger@@ 2
gets 2
getting 2
ging 2
girls 2
global 2
glow 2
governments 2
grant 2
greatest 2
grew 2
groups 2
grows 2
guards 2
guilty 2
ha@@ 2
hands 2
happening 2
har@@ 2
heat 2
heating 2
hed 2
helped 2
her@@ 2
high-risk 2
historic 2
home-@@ 2
homer 2
honor 2
hoping 2
horizon 2
hotel 2
household 2
households 2
housing 2
human-@@ 2
ic 2
identified 2
ier 2
ig@@ 2
il 2
iles 2
illegally 2
image 2
immediately 2
immigrant 2
immigration 2
impact 2
impressed 2
improved 2
inch 2
incident 2
includes 2
increased 2
ind 2
independence 2
index.cfm 2
indicated 2
ine 2
ines 2
inflation 2
inning 2
innings 2
ins 2
inspected 2
inspired 2
insurance 2
intellec@@ 2
intelligence 2
interests 2
interviews 2
inventories 2
investigating 2
involved 2
ir 2
ir@@ 2
ised 2
ishes 2
isn 2
issued 2
it@@ 2
ity 2
jet 2
ji 2
join 2
joint 2
joy 2
judge 2
jumps 2
k 2
ke@@ 2
keen 2
key 2
ki 2
king 2
ko 2
kov@@ 2
ks 2
ky 2
labor 2
lam@@ 2
lands 2
landscap@@ 2
largest 2
launch 2
lawyers 2
leg 2
legal 2
legislation 2
length 2
les@@ 2
levels 2
li@@ 2
lifestyle 2
lighting 2
limited 2
ling 2
lived 2
ll 2
lo@@ 2
loans 2
loo@@ 2
looks 2
losses 2
love 2
low 2
lowest 2
loyal 2
ls 2
lunch 2
mag@@ 2
magazine 2
magazines 2
maintaining 2
makeover 2
management 2
manifest@@ 2
march 2
marijuana 2
marked 2
matters 2
mean 2
meant 2
medi@@ 2
mel@@ 2
member 2
menu 2
metal 2
mid@@ 2
militants 2
millions 2
minister 2
ministers 2
minute 2
mission 2
mit@@ 2
moment 2
monitoring 2
monthly 2
mortgages 2
mostly 2
movie 2
moving 2
mul@@ 2
museum 2
must 2
narrowly 2
nation 2
near 2
nearly 2
negative 2
net 2
nickname 2
nor 2
north 2
notice 2
numbers 2
occasions 2
od@@ 2
offer 2
official 2
offshore 2
ola 2
ology 2
oma 2
on-@@ 2
on@@ 2
oning 2
opening 2
operated 2
ops 2
or@@ 2
orded 2
original 2
ority 2
ors 2
os 2
otherwise 2
ou@@ 2
oud 2
out@@ 2
outcome 2
oux 2
overall 2
overcome 2
overseas 2
ownership 2
p.m. 2
pain 2
paintings 2
pair 2
panel 2
parents 2
participation 2
passengers 2
passes 2
per@@ 2
periods 2
ph@@ 2
photos 2
physical 2
pin@@ 2
planning 2
plant 2
player 2
plenty 2
plo@@ 2
poll 2
polls 2
pop@@ 2
populated 2
portraits 2
postseason 2
pound 2
powered 2
powerful 2
prayer 2
predicted 2
preliminary 2
presentation 2
presents 2
press 2
pressure 2
pretty 2
prevalence 2
prevention 2
price 2
primary 2
pro 2
process 2
professional 2
profitability 2
projections 2
prolonged 2
prominent 2
protest 2
proved 2
provision 2
pull 2
qu@@ 2
quarterbacks 2
que 2
queen 2
racing 2
rally 2
range 2
ranked 2
rapid 2
rapidly 2
rather 2
re 2
read 2
realized 2
reason 2
rec@@ 2
receiver 2
receiving 2
recep@@ 2
recorded 2
records 2
reduced 2
reference 2
regularly 2
related 2
relations 2
relatively 2
releases 2
religion 2
remaining 2
remarks 2
remember 2
ren@@ 2
renewed 2
requirements 2
requires 2
res 2
research 2
resolution 2
resources 2
responded 2
response 2
responsible 2
restrictions 2
results 2
retail 2
retirees 2
retirement 2
ring 2
rings 2
rising 2
river 2
ro@@ 2
row 2
ru@@ 2
rubber 2
rug 2
ruled 2
rum 2
running 2
russ@@ 2
sage 2
sanctions 2
sandwich 2
save 2
saw 2
schedule 2
schemes 2
scholars 2
schools 2
science 2
sco@@ 2
score 2
sea 2
search 2
seat 2
second-@@ 2
secretary 2
secure 2
seeds 2
seeking 2
seems 2
self-@@ 2
sen@@ 2
sense 2
sentencing 2
separate 2
served 2
serves 2
seventh 2
sexy 2
sharply 2
shelters 2
shopping 2
shops 2
shortly 2
showdown 2
shows 2
sign 2
signed 2
simple 2
simply 2
sions 2
sit 2
site 2
six-@@ 2
sleeping 2
slept 2
sli@@ 2
society 2
software 2
sol@@ 2
soldiers 2
someone 2
sometimes 2
somewhat 2
song 2
soon 2
sor@@ 2
source 2
speak 2
specialist 2
spending 2
splitting 2
spoke 2
spokesman 2
spokeswoman 2
square 2
stalls 2
standard 2
stands 2
star 2
starts 2
states 2
station 2
stations 2
steady 2
stein 2
ster 2
stering 2
stocks 2
stone 2
store 2
storm 2
strike 2
student 2
substance 2
suburban 2
successor 2
suggestions 2
summit 2
super@@ 2
supplies 2
supporting 2
surge 2
surprise 2
surprised 2
survived 2
sweet 2
syn@@ 2
systems 2
tackle 2
talented 2
taxi 2
technology 2
teenager 2
telling 2
tend 2
tension 2
termin@@ 2
test 2
the@@ 2
though 2
thousands 2
three-day 2
thrive 2
throughout 2
throwing 2
ti 2
tic 2
ticket 2
tiny 2
to-@@ 2
totally 2
tr@@ 2
trading 2
trail 2
train 2
trains 2
trend 2
tribe 2
tried 2
tro@@ 2
truly 2
try 2
tunes 2
turned 2
tw@@ 2
twins 2
two-@@ 2
ty 2
ud@@ 2
ul@@ 2
ulary 2
ull 2
unable 2
uncertainties 2
uncertainty 2
understood 2
union 2
upscale 2
ur@@ 2
ured 2
usual 2
utilities 2
vac@@ 2
vaccine 2
ve@@ 2
vehicles 2
ven@@ 2
verbal 2
verdict 2
ves 2
veteran 2
veto 2
vi 2
vice-president 2
victim 2
video 2
videos 2
village 2
ving 2
visible 2
visitors 2
voice 2
voters 2
votes 2
w 2
watching 2
waters 2
waving 2
wedding 2
weight 2
whe@@ 2
white 2
wide 2
wild 2
willing 2
win@@ 2
wireless 2
wood 2
word 2
works 2
worried 2
writer 2
writes 2
wrote 2
x 2
y-@@ 2
yar 2
yesterday 2
yo@@ 2
young 2
younger 2
zag@@ 2
% 1
'Neal 1
'Neill 1
* 1
,000 1
-P@@ 1
-S@@ 1
-So@@ 1
-T@@ 1
-free 1
-off 1
.. 1
.cfm 1
.co.uk 1
.com. 1
0,000 1
0-0 1
0-2 1
0-@@ 1
00 1
000-@@ 1
08@@ 1
1,3@@ 1
1,4@@ 1
1,5@@ 1
1,6@@ 1
1,@@ 1
1-0 1
1-year-old 1
1.6 1
1.@@ 1
10-@@ 1
10-K 1
10-Q 1
10.@@ 1
100 1
100,000 1
106 1
109 1
10@@ 1
11-@@ 1
11@@ 1
120 1
13-@@ 1
13@@ 1
14,000 1
14-@@ 1
142 1
145 1
155 1
16,000 1
160 1
166 1
16@@ 1
16th 1
173 1
175 1
18,000 1
18-@@ 1
180 1
18th 1
19,@@ 1
19-@@ 1
19-year-old 1
1917 1
1925 1
1948 1
1952 1
1958 1
1960s 1
1968 1
1976 1
1980s 1
1981 1
1984 1
1986 1
1992 1
1999 1
2,000 1
2,7@@ 1
2-3 1
2.4 1
20,000 1
20.@@ 1
2000 1
2012 1
2030 1
21-@@ 1
21.@@ 1
22,000 1
22-@@ 1
225 1
248 1
25,000 1
25-@@ 1
250,000 1
251 1
252 1
253 1
26,@@ 1
27.@@ 1
270 1
27@@ 1
29@@ 1
2nd 1
3-2 1
30,000 1
30-@@ 1
300 1
32-@@ 1
33-@@ 1
35 1
350 1
36-@@ 1
36.@@ 1
366 1
370 1
37@@ 1
38 1
4,000 1
4,500 1
4-1 1
4-3 1
4.6 1
4.@@ 1
42@@ 1
43@@ 1
44@@ 1
46 1
48 1
48-@@ 1
48@@ 1
49 1
5000 1
50@@ 1
51 1
52-@@ 1
56@@ 1
57 1
59 1
6,000 1
6-2 1
6-foot-@@ 1
6.2 1
600,000 1
60s 1
60th 1
63@@ 1
64 1
66 1
67 1
67@@ 1
68 1
7-@@ 1
7.0 1
7.@@ 1
70 1
70@@ 1
71 1
750 1
76@@ 1
77 1
78 1
78@@ 1
7th 1
8,000 1
8-@@ 1
800 1
800,000 1
80@@ 1
81 1
83 1
83@@ 1
88@@ 1
89 1
9-@@ 1
9.2 1
9.3 1
90@@ 1
91 1
911 1
92 1
93@@ 1
95 1
999 1
< 1
A. 1
A.@@ 1
AA 1
AB@@ 1
ABC 1
AC 1
AF@@ 1
AID 1
AIDS 1
AN@@ 1
AND 1
ANT@@ 1
AOL 1
AR@@ 1
AS@@ 1
AT 1
ATION 1
AZUZ 1
Aaron 1
Abbas 1
Abd@@ 1
Abdul@@ 1
Achilles 1
Act 1
Activ@@ 1
Actually 1
Adams 1
Administration 1
African 1
Ahmadinejad 1
Airline 1
Ak@@ 1
Al 1
Al-S@@ 1
Ala 1
Alabama 1
Alan 1
Alaska 1
Albert 1
Ali 1
Ali@@ 1
Aling@@ 1
Alison 1
All-@@ 1
All@@ 1
Alliance 1
Alonso 1
Am@@ 1
Americas 1
Amman 1
Among 1
Amy 1
An 1
An@@ 1
Analysts 1
Anderson 1
Andre@@ 1
Andreas 1
Andrei 1
Andrews 1
Andy 1
Ane@@ 1
Annual 1
Another 1
Anti@@ 1
Any 1
Apple 1
Approximately 1
Ar@@ 1
Arab@@ 1
Arc@@ 1
Archives 1
Are@@ 1
Area 1
Argentina 1
Arrest 1
Arri@@ 1
Arsenal 1
Ashton 1
Asian 1
Ask 1
Asked 1
Assistance 1
Associates 1
Athens 1
Atomic 1
Au@@ 1
Aug@@ 1
Aung 1
Austin 1
Authorities 1
Average 1
Away 1
Ay@@ 1
B. 1
BAR@@ 1
BB@@ 1
BBC 1
BCS 1
BE@@ 1
BER@@ 1
BI@@ 1
BK@@ 1
BO@@ 1
BURGH 1
BY@@ 1
Bab@@ 1
Back@@ 1
Bad@@ 1
Bagh@@ 1
Baker 1
Bali 1
Ban 1
Ban@@ 1
Bankers 1
Barack 1
Barbara 1
Barbie 1
Barcelona 1
Barry 1
Based 1
Basketball 1
Bast@@ 1
Battalion 1
Bay@@ 1
Be 1
Be@@ 1
Bears 1
Beat 1
Beau@@ 1
Beck 1
Being 1
Bel@@ 1
Belgium 1
Belichick 1
Ben@@ 1
Bengals 1
Bennett 1
Bere@@ 1
Bernanke 1
Bet@@ 1
Between 1
Beverly 1
Bhar@@ 1
Bhutto 1
Bi@@ 1
Bible 1
Bie@@ 1
Bier@@ 1
Bill 1
Bill@@ 1
Billi@@ 1
Bio-@@ 1
Birmingham 1
Bl@@ 1
Black@@ 1
Bli@@ 1
Blon@@ 1
Bluet@@ 1
Bol@@ 1
Bolivia 1
Bom@@ 1
Bomb@@ 1
Bon@@ 1
Bond 1
Bonds 1
Bonn@@ 1
Boo@@ 1
Bost@@ 1
Boyd 1
Bradley 1
Brady 1
Brain 1
Brandon 1
Break 1
Brei@@ 1
Brenda 1
Brett 1
Bridge 1
Britney 1
Brooke 1
Brothers 1
Brown@@ 1
Bruins 1
Bruno 1
Brussels 1
Bryan 1
Bu@@ 1
Bud 1
Bud@@ 1
Budget 1
Buffalo 1
Bul@@ 1
Bund@@ 1
Bureau 1
Burma 1
Bus@@ 1
Bush-@@ 1
Businesses 1
C. 1
CA 1
CCTV 1
CD 1
CD-@@ 1
CEO 1
CH@@ 1
CHICAGO 1
CI 1
CIS 1
CNBC 1
CO@@ 1
CONTACT 1
CS 1
CS@@ 1
CT@@ 1
Cab@@ 1
Cairo 1
Californ@@ 1
Call 1
Camp 1
Canada 1
Canadian 1
Candidates 1
Cap@@ 1
Capital 1
Captain 1
Career 1
Caribbean 1
Carnival 1
Cas@@ 1
Cat 1
Category 1
Cent 1
Centr@@ 1
Certain 1
Cha@@ 1
Chamber 1
Charge 1
Charges 1
Chelsea 1
Chemo@@ 1
Cheney 1
Chester 1
Chil@@ 1
Children 1
Cho 1
Chávez 1
Ci@@ 1
Cit@@ 1
Cities 1
Cl@@ 1
Class 1
Clayton 1
Cleveland 1
Cli@@ 1
Clooney 1
Club 1
Clyde 1
Coach 1
Cohen 1
Coke 1
Col@@ 1
Coll@@ 1
Collins 1
Colorado 1
Colts 1
Columbia 1
Com@@ 1
Combined 1
Comcast 1
Comeback 1
Commander 1
Commun@@ 1
Compan@@ 1
Conc@@ 1
Congressional 1
Conn 1
Conn@@ 1
Conservation 1
Conservatives 1
Contacts 1
Contin@@ 1
Cool 1
Cooper 1
Cor@@ 1
Corporate 1
Corps 1
Corriere 1
Costa 1
Cot@@ 1
Cou@@ 1
Countries 1
Cour@@ 1
Cowboys 1
Cre@@ 1
Cros@@ 1
Crowe 1
Crown 1
Cuban 1
Cubans 1
Cubs 1
Cup 1
Curry 1
Cut 1
Cut@@ 1
D-N.Y. 1
D. 1
D.@@ 1
DAY 1
DI@@ 1
Daily 1
Dakota 1
Daley 1
Daly 1
Dame 1
Daniel 1
Darren 1
Dat@@ 1
Davenport 1
Day@@ 1
Dayton 1
De 1
Dead 1
Debate 1
Dec. 1
Dec@@ 1
Deep@@ 1
Defense 1
Dein 1
Delaware 1
Delegation 1
Dell 1
Demand 1
Democratic 1
Demonstr@@ 1
Den@@ 1
Denis 1
Dennis 1
Denver 1
Depot 1
Deputy 1
Der@@ 1
Des 1
Des@@ 1
Details 1
Detective 1
Detroit 1
Dev@@ 1
Development 1
Dha@@ 1
Diane 1
Diaz 1
Dick 1
Did 1
Didier 1
Dign@@ 1
Dil@@ 1
Dinner 1
Dis@@ 1
Disp@@ 1
Divis@@ 1
Division 1
Djokovic 1
Domin@@ 1
Down 1
Down@@ 1
Doyle 1
Dream 1
Drew 1
Driver 1
Drogba 1
Drug 1
Drugs 1
Drum@@ 1
Duke 1
Dylan 1
E. 1
E.@@ 1
ED@@ 1
EDT 1
EL@@ 1
EP@@ 1
ERE 1
Eagles 1
Earnings 1
Earth@@ 1
East 1
Echo 1
Economic 1
Edgar 1
Edwards 1
Einstein 1
Eisen@@ 1
El 1
El@@ 1
Eli@@ 1
Elizabeth 1
Ellen 1
Elliott 1
Ellison 1
Elton 1
Emirates 1
Emp@@ 1
Employees 1
Ene@@ 1
Engineers 1
English 1
Enthusi@@ 1
Environmental 1
Epo@@ 1
Eric 1
Erik 1
Erin 1
Ernest 1
Esp@@ 1
Essex 1
Eto 1
Euro 1
Europe 1
Eva 1
Evening 1
Every 1
Ex@@ 1
Except 1
Executive 1
Exper@@ 1
Experts 1
Expo 1
F 1
F.@@ 1
FA 1
FBI 1
FCC 1
FDA 1
FEMA 1
FG 1
FIA 1
FIFA 1
FIN@@ 1
FOR@@ 1
FOXNews.com 1
FR@@ 1
FS 1
Fab@@ 1
Fac@@ 1
Facility 1
Facing 1
Fair@@ 1
Fame 1
Family 1
Fans 1
Far 1
Farmers 1
Fast 1
Fatah 1
Favre 1
Fed 1
Ferguson 1
Fernando 1
Ferrari 1
Fewer 1
Films 1
Fin@@ 1
Final 1
Finally 1
Financial 1
Fine 1
Fink 1
Firm 1
First-@@ 1
Fis@@ 1
Fisher 1
Fitzgerald 1
Fl@@ 1
Flan@@ 1
Florida 1
Fo@@ 1
Following 1
Football 1
For@@ 1
Ford 1
Former 1
Fort 1
Franc@@ 1
Fre@@ 1
Fred@@ 1
Freddie 1
Fres@@ 1
Fresh 1
Friends 1
Fru@@ 1
Fuentes 1
Further 1
Furthermore 1
Fut@@ 1
G 1
GD@@ 1
GE 1
GM 1
GOP 1
Ga 1
Ga@@ 1
Gallagher 1
Gan@@ 1
Gang 1
Gangster 1
Gar@@ 1
Garcia 1
Garden 1
Gast@@ 1
Gate 1
Gau@@ 1
Ge@@ 1
Gen 1
Gen. 1
Gent@@ 1
Geoff 1
Geoffrey 1
German 1
Germans 1
Gerrard 1
Get 1
Get@@ 1
Getting 1
Gibbs 1
Girardi 1
Gis@@ 1
Glam@@ 1
Gmt 1
Gold 1
Gould 1
Government 1
Gr@@ 1
Grammy 1
Great 1
Greenberg 1
Greene 1
Greenwich 1
Greg 1
Grin@@ 1
Gro@@ 1
Guang@@ 1
Guar@@ 1
Guard 1
Guards 1
Gul 1
Guy 1
H 1
HAN@@ 1
HD 1
HI@@ 1
HR 1
HS@@ 1
Ha@@ 1
Had 1
Haiti 1
Haj@@ 1
Half 1
Halloween 1
Ham@@ 1
Hamilton 1
Hampshire 1
Han 1
Hands 1
Hank 1
Harman 1
Harrison 1
Has 1
Hau@@ 1
Haug 1
Haynes 1
Health@@ 1
Healthcare 1
Heat 1
Heather 1
Heaven 1
Heavy 1
Heineken 1
Heller 1
Hello 1
Helsinki 1
Herald 1
Here 1
Heritage 1
Hern@@ 1
Herr@@ 1
Hershey 1
Hi@@ 1
Hicks 1
Hillary 1
Hills 1
Hindu 1
Hindu@@ 1
Hispanics 1
History 1
Hits 1
Ho 1
Hockey 1
Hollywood 1
Homer 1
Hope 1
Hospital 1
Housing 1
How@@ 1
Howard 1
Hu@@ 1
Hubble 1
Huff@@ 1
Hyatt 1
I-@@ 1
I. 1
I.@@ 1
IAEA 1
IC@@ 1
III 1
IT@@ 1
ITV 1
Id@@ 1
Ill 1
Illinois 1
Im@@ 1
Immigration 1
In@@ 1
Inclu@@ 1
Including 1
Indianapolis 1
Indy 1
Inge 1
Innov@@ 1
Innovation 1
Institute 1
Interest 1
Into 1
Invasion 1
Investigators 1
Investors 1
Iraqis 1
Ish@@ 1
Islamabad 1
Islamic 1
Island 1
Itali@@ 1
Italian 1
Ivy 1
J 1
J. 1
Jack 1
Jackie 1
Jackson 1
Jacques 1
Jagger 1
Jaguar 1
James 1
Jane 1
Jap@@ 1
Jau@@ 1
Jazz 1
Jeff 1
Jenkins 1
Jennifer 1
Jerry 1
Jessica 1
Jets 1
Jews 1
Jimmy 1
Jog@@ 1
Johnson 1
Jon 1
Jonathan 1
Jose 1
Joseph 1
Ju@@ 1
Jub@@ 1
Judge 1
Julio 1
Jun@@ 1
Kabul 1
Kal@@ 1
Kam@@ 1
Kansas 1
Karachi 1
Karen 1
Karim 1
Karzai 1
Kas@@ 1
Kashmir 1
Kate 1
Kathleen 1
Kaufman 1
Keating 1
Keith 1
Kemp@@ 1
Ken@@ 1
Kend@@ 1
Kenny 1
Kentucky 1
Key 1
Khal@@ 1
Khmer 1
Kid 1
Kidn@@ 1
Kie@@ 1
Kill 1
Kim 1
Kingdom 1
Kings@@ 1
Kirk@@ 1
Kis@@ 1
Kno@@ 1
Known 1
Ko@@ 1
Kobe 1
Kr@@ 1
Kraus@@ 1
Kul@@ 1
Kum@@ 1
Kyi 1
L.@@ 1
LE@@ 1
LPGA 1
LS 1
Lad@@ 1
Laden 1
Lady 1
Lah@@ 1
Lake 1
Lakers 1
Lam@@ 1
Lan@@ 1
Land 1
Lar@@ 1
Large 1
Las 1
Late 1
Latino 1
Law 1
Lay@@ 1
Le@@ 1
Leader 1
League 1
Lebanon 1
Led 1
Left 1
Leg@@ 1
Lehmann 1
Len@@ 1
Lennon 1
Leslie 1
Lev@@ 1
Levi 1
Levin 1
Lewis 1
Li@@ 1
Liberation 1
Lil@@ 1
Lin@@ 1
Lions 1
Live@@ 1
Liverpool 1
Liz 1
Llan@@ 1
Lockheed 1
Logistics 1
London-based 1
Longoria 1
Lou@@ 1
Louis@@ 1
Louise 1
Louisville 1
Low 1
Lucas 1
Lucky 1
M 1
MAR@@ 1
MB@@ 1
ME 1
MIAMI 1
MS 1
MSNBC.com 1
Mac@@ 1
Mach@@ 1
Mad@@ 1
Mafia 1
Magazine 1
Mah@@ 1
Mahdi 1
Main 1
Majority 1
Make 1
Mal@@ 1
Malaysia 1
Malibu 1
Malone 1
Management 1
Manager 1
Manhattan 1
Manning 1
Manufacturers 1
Mao@@ 1
Marath@@ 1
Marbury 1
March@@ 1
Marcus 1
Maria 1
Marin@@ 1
Marines 1
Marino 1
Mark@@ 1
Marks 1
Mars 1
Mart@@ 1
Martha 1
Marty 1
Mary 1
Maryland 1
Mass 1
Mattel 1
Matthews 1
Maxwell 1
Mayor 1
Mc@@ 1
McC@@ 1
McCanns 1
McCarthy 1
McCartney 1
McFadden 1
McK@@ 1
McKin@@ 1
McNabb 1
McP@@ 1
Me@@ 1
Media 1
Medicaid 1
Medicare 1
Mel@@ 1
Members 1
Memorial 1
Men 1
Mer@@ 1
Mercantile 1
Mercedes 1
Mercury 1
Mes@@ 1
Messen@@ 1
Met 1
Micro@@ 1
Military 1
Mill 1
Mill@@ 1
Miller 1
Mills 1
Minutes 1
Mississippi 1
Missouri 1
Mitchell 1
Mittal 1
Mobile 1
Mode 1
Modern 1
Mon@@ 1
Monica 1
Moore 1
Moral 1
Morales 1
More 1
Moreno 1
Morgan 1
Moroccan 1
Moss 1
Motor 1
Motors 1
Mou@@ 1
Mountain@@ 1
Mountains 1
Mourinho 1
Move 1
Mrs. 1
Mu@@ 1
Mukasey 1
Multi-@@ 1
Mund@@ 1
Murdoch 1
Murphy 1
Myanmar 1
N 1
N.@@ 1
N.C. 1
N.Y. 1
NAT@@ 1
NCAA 1
NE 1
NE@@ 1
NEW 1
NFC 1
NHL 1
NHS 1
NL 1
NP@@ 1
NYC 1
Nag@@ 1
Nairobi 1
Namib@@ 1
Namibia 1
Nap@@ 1
Nation 1
Nations 1
Natural 1
Nay@@ 1
Ne@@ 1
Nearly 1
Neg@@ 1
Net 1
Networks 1
Nev@@ 1
Nevada 1
New@@ 1
Newark 1
News@@ 1
Nicaragua 1
Night 1
Nikkei 1
Nil@@ 1
Nils 1
Nintendo 1
Nob@@ 1
Nobody 1
Nomin@@ 1
Norbert 1
Northeast 1
Notre 1
Ny@@ 1
O-@@ 1
OK 1
OK@@ 1
ON@@ 1
OP@@ 1
OS 1
Obst@@ 1
Occup@@ 1
Officer 1
Oh 1
Ok@@ 1
Oklahoma 1
Olivia 1
Olmert 1
Om@@ 1
Omar 1
On@@ 1
One-@@ 1
Only 1
Or 1
Oracle 1
Oran@@ 1
Orange 1
Order 1
Oregon 1
Organiz@@ 1
Os@@ 1
Others 1
Outside 1
Oval 1
Over 1
Overseas 1
Oxford 1
P. 1
PBS 1
PC 1
PM 1
PN@@ 1
PR 1
Pa 1
Pa@@ 1
Pac@@ 1
Packers 1
Padres 1
Pal 1
Pal@@ 1
Palestinian 1
Palma 1
Paradise 1
Parish 1
Parker 1
Part 1
Passen@@ 1
Past 1
Pau@@ 1
Paulo 1
Pavarotti 1
Pc 1
Peace 1
Pearson 1
Pedro 1
Pentagon 1
Pepsi 1
Perfect 1
Performance 1
Persian 1
Perth 1
Peru 1
Pervez 1
Pete 1
Peters 1
Petersburg 1
Peterson 1
Petra 1
Peyton 1
Ph.D. 1
Pharma 1
Phil@@ 1
Philadelphia 1
Phillips 1
Pho@@ 1
Phoenix 1
Pic@@ 1
Pictures 1
Pierre 1
Piper 1
Pittsburgh 1
Pla@@ 1
Place 1
Plan 1
Plan@@ 1
Poin@@ 1
Pok@@ 1
Poland 1
Polit@@ 1
Pon@@ 1
Pool 1
Portsmouth 1
Portuguese 1
Post@@ 1
Powell 1
Power 1
Pra@@ 1
Prague 1
Pran@@ 1
Pre@@ 1
Prem@@ 1
Premiership 1
Pri@@ 1
Price 1
Prior 1
Priv@@ 1
Private 1
Prize 1
Pro 1
Pro@@ 1
Produc@@ 1
Products 1
Prosecution 1
Protection 1
Province 1
Puerto 1
Pun@@ 1
Pur@@ 1
Putin 1
Pérez 1
Q@@ 1
Qaeda 1
Qaida-@@ 1
Quarter 1
Quarterly 1
Queen 1
R-@@ 1
R. 1
RAF 1
RE@@ 1
RI@@ 1
RIM 1
RO@@ 1
RSP@@ 1
RT@@ 1
RV 1
Race 1
Rach@@ 1
Raf@@ 1
Ramadan 1
Ramallah 1
Randy 1
Rat@@ 1
Rather 1
Rav@@ 1
Ray 1
Re@@ 1
Real@@ 1
Redmond 1
Redskins 1
Reed 1
Refer@@ 1
Reg@@ 1
Regiment 1
Ren@@ 1
Reno 1
Representatives 1
Republicans 1
Reserve 1
Ret@@ 1
Retail 1
Rev. 1
Review 1
Rh@@ 1
Rhode 1
Ri@@ 1
Ric@@ 1
Rican 1
Richie 1
Rig@@ 1
Rights 1
Risk 1
Road 1
Road@@ 1
Rob@@ 1
Robert 1
Robertson 1
Rockies 1
Rodham 1
Rodriguez 1
Roh 1
Roh@@ 1
Roland 1
Roll 1
Romo 1
Ron 1
Rose 1
Roth 1
Roth@@ 1
Rou@@ 1
Rouge 1
Roy 1
Rud@@ 1
Run@@ 1
Rup@@ 1
Rush 1
S.@@ 1
SC@@ 1
SCH@@ 1
SE@@ 1
SG 1
SH@@ 1
SI@@ 1
SM 1
SNP 1
SO@@ 1
SUN@@ 1
Saddam 1
Saf@@ 1
Safe 1
Safety 1
Sainsbury 1
Sal 1
Sale 1
Saleh 1
Sales 1
Sally 1
Salman 1
Salmond 1
Sam 1
Samoa 1
Samsung 1
Samu@@ 1
Samuel 1
San@@ 1
Sanchez 1
Sanders 1
Sanford 1
Sang@@ 1
Santa 1
Sao 1
Sarkozy 1
Satellite 1
Saudi 1
Savage 1
Scar@@ 1
School 1
Schools 1
Schwarzenegger 1
Sci@@ 1
Science 1
Scores 1
Scotland 1
Sea 1
Secret 1
Secretary 1
Security 1
Selec@@ 1
Self-@@ 1
Sen@@ 1
Senators 1
Sender@@ 1
Senegal 1
Senior 1
Ser@@ 1
Several 1
Shah 1
Shal@@ 1
Shares 1
Sharif 1
Sharks 1
Sharma 1
Sharp 1
Shaw 1
Shawn 1
She@@ 1
Shel@@ 1
Shenzhen 1
Sheriff 1
Sho@@ 1
Shore 1
Should 1
Show 1
Sid@@ 1
Siegel 1
Siemens 1
Sig@@ 1
Signs 1
Sil@@ 1
Simmons 1
Simpsons 1
Sing@@ 1
Singapore 1
Singer 1
Singh 1
Sirius 1
Sitting 1
Six 1
Ski@@ 1
Smithsonian 1
Snow 1
Solic@@ 1
Sollecito 1
Solo 1
Solution 1
Somalia 1
Sometimes 1
Son@@ 1
Song 1
Song@@ 1
Soul@@ 1
Soviet 1
Sox 1
Sp@@ 1
Space 1
Spain 1
Spears 1
Spec@@ 1
Speed 1
Spencer 1
Sport 1
Sporting 1
Sports 1
Spur@@ 1
Square 1
St 1
Stamford 1
Stanford 1
Stanley 1
Star-@@ 1
Start 1
Stephan 1
Steve 1
Steven 1
Stock 1
Stock@@ 1
Stockholm 1
Stone 1
Straw 1
Strip 1
Sturm 1
Style 1
Sub@@ 1
Subs 1
Suharto 1
Suisse 1
Summit 1
Sup@@ 1
Super-@@ 1
Superintendent 1
Superior 1
Supporters 1
Suu 1
Suz@@ 1
Swis@@ 1
Sy@@ 1
Sydney 1
Syl@@ 1
Symb@@ 1
Syria 1
Systems 1
T-shirts 1
TI@@ 1
TNT 1
TO 1
TR@@ 1
TS 1
Tab@@ 1
Tak@@ 1
Tal@@ 1
Taleban 1
Taliban 1
Tau@@ 1
Taylor 1
Tbilisi 1
Team 1
Teb@@ 1
Tech 1
Ted 1
Tel 1
Tele@@ 1
Telecom 1
Telegraph 1
Telescope 1
Tennessee 1
Tenor 1
Terr@@ 1
Test 1
Test@@ 1
Testament 1
Thailand 1
Thank 1
Thanksgiving 1
Theodore 1
Those 1
Through 1
Throughout 1
Tibet 1
Tim@@ 1
Todd 1
Together 1
Tom 1
Tor@@ 1
Toronto 1
Torre 1
Tory 1
Tou@@ 1
Touch 1
Toulouse 1
Tr@@ 1
Track 1
Train 1
Tran@@ 1
Trans@@ 1
Transfer 1
Travel 1
Travel@@ 1
Trends 1
Trent 1
True 1
Tu@@ 1
Tul@@ 1
Turner 1
Twelve 1
Twin 1
U.S.@@ 1
UAW 1
UCLA 1
UN-@@ 1
UNE@@ 1
US@@ 1
Ul@@ 1
Un 1
Un@@ 1
Under 1
Under@@ 1
Union 1
Used 1
Utah 1
VA 1
VI 1
VI@@ 1
Va 1
Vale 1
Van 1
Vegas 1
Venezuela 1
Verizon 1
Vice 1
Victims 1
Vidal 1
Vietnam 1
Visitors 1
Vista 1
Vita 1
Volunteers 1
Voters 1
Voting 1
WASHINGTON 1
WH@@ 1
WHO 1
WM@@ 1
Wade 1
Wal@@ 1
Walsh 1
Walters 1
Wang 1
Wanted 1
War@@ 1
Warsaw 1
Wash@@ 1
Washington-based 1
Watching 1
Water 1
Water@@ 1
Watts 1
Ways 1
Weir 1
Weiss 1
Well 1
Western 1
Whatever 1
Wheeler 1
Which 1
Wi-Fi 1
Wie 1
Wig@@ 1
Wii 1
Wil@@ 1
William 1
Win 1
Windows 1
Windsor 1
Winfrey 1
Without 1
Wolfe 1
Woods 1
Woodward 1
Wool@@ 1
Wor@@ 1
Work@@ 1
Workers 1
Worldwide 1
Worth 1
Wy@@ 1
Wyoming 1
YORK 1
Yacht 1
Yahoo 1
Yan@@ 1
Yang 1
Ye@@ 1
Year 1
Years 1
Yemen 1
Yes 1
Yorkshire 1
Young 1
Zem@@ 1
Zim@@ 1
a. 1
a.@@ 1
a.m. 1
aa 1
able-@@ 1
abo@@ 1
aboard 1
abor@@ 1
abortion 1
abroad 1
abstin@@ 1
abuse 1
academy 1
accent 1
accept 1
access 1
accessories 1
acclaimed 1
accommodate 1
accompanied 1
accomplishments 1
account 1
accountability 1
accounts 1
accumulated 1
accusation 1
ache 1
achieve 1
achievement 1
achieving 1
acing 1
acity 1
ack@@ 1
acker 1
acknowledged 1
acquire 1
acquired 1
act 1
act@@ 1
acted 1
activists 1
actors 1
actress 1
acts 1
actual 1
actually 1
acy 1
ad 1
ad@@ 1
adap@@ 1
adapted 1
add 1
added 1
additional 1
addressed 1
adds 1
adequate 1
adequately 1
adjacent 1
adjust@@ 1
administrative 1
admire 1
admission 1
adol@@ 1
adopt 1
adopted 1
ads 1
advance 1
advanced 1
advertisements 1
advise 1
advisory 1
advocates 1
aerial 1
aerospace 1
aesthetic 1
af 1
aff@@ 1
affiliate 1
afford 1
aftermath 1
age@@ 1
ageing 1
agents 1
aggravated 1
aggressive 1
aggressively 1
ago@@ 1
agreements 1
ags 1
ah@@ 1
ai 1
ai@@ 1
aid 1
aide 1
aides 1
aim@@ 1
aims 1
air-@@ 1
aircraft 1
aire 1
airing 1
airlines 1
airplanes 1
airports 1
airstrikes 1
airwaves 1
aissance 1
aj@@ 1
aka 1
aked 1
aking 1
al-@@ 1
al@@ 1
alcohol@@ 1
alert 1
ales 1
aligned 1
aling 1
alism 1
alist 1
alists 1
alization 1
alleged 1
alleging 1
aller 1
allet 1
alliance 1
allocation 1
allowing 1
allows 1
ally 1
alogue 1
als 1
altered 1
alternative 1
although 1
ama 1
aman 1
amassed 1
amba 1
ambig@@ 1
ambition 1
ambles 1
ambul@@ 1
ameter 1
ami 1
amid 1
aming 1
amount 1
amounts 1
amput@@ 1
an-@@ 1
ana 1
anc@@ 1
ances 1
anchor 1
ane 1
anecdo@@ 1
anes@@ 1
ang@@ 1
anga 1
angle 1
anim@@ 1
animals 1
animated 1
ann@@ 1
annually 1
ano 1
anol 1
answered 1
answering 1
answers 1
ant-@@ 1
antas@@ 1
antes 1
anti 1
anti-@@ 1
antibio@@ 1
antibiotics 1
anxiety 1
anyway 1
app 1
app@@ 1
apparent 1
appearance 1
appearances 1
apped 1
apping 1
applauded 1
applications 1
apply 1
appointing 1
appro@@ 1
approval 1
approving 1
ara 1
are@@ 1
arely 1
argue 1
arguments 1
ari 1
ari@@ 1
aring 1
arm 1
arms 1
army 1
arranging 1
arrest 1
arrival 1
arrive 1
arrived 1
ars 1
art 1
artist 1
artistic 1
arts 1
ased 1
ash 1
ash@@ 1
aside 1
ask 1
asm 1
assault 1
assessed 1
asset 1
assist 1
associations 1
assume 1
assumption 1
assumptions 1
assurance 1
assurances 1
ast-@@ 1
asted 1
astonishing 1
astronauts 1
asts 1
at@@ 1
ate@@ 1
ately 1
ater 1
aters 1
athed 1
ather 1
athlete 1
ati 1
ation@@ 1
ational 1
atism 1
ativity 1
atmosp@@ 1
atomic 1
atri@@ 1
ats 1
att 1
att@@ 1
attack 1
attackers 1
attempt 1
attempting 1
attend 1
attended 1
attering 1
attitude 1
attitudes 1
attle 1
attorneys 1
attract 1
attractive 1
attributed 1
ature 1
au 1
auctions 1
aud 1
audiences 1
audio 1
audited 1
aup@@ 1
authority 1
authorization 1
authors 1
auto 1
automakers 1
automatically 1
automation 1
automob@@ 1
avo@@ 1
aw@@ 1
award 1
awarded 1
awkward 1
ay 1
ay@@ 1
aya 1
az 1
babies 1
backed 1
background 1
backs 1
backstage 1
bacteria 1
bad 1
bag 1
bal@@ 1
balance 1
ban 1
bands 1
bank@@ 1
banking 1
banners 1
bare 1
barely 1
bargaining 1
barred 1
barrel 1
barrels 1
barriers 1
barrister 1
bas@@ 1
baseball 1
baseman 1
basement 1
bases 1
basically 1
basketball 1
bat 1
batsmen 1
battle 1
bbled 1
beautiful 1
beauty 1
beck@@ 1
becomes 1
becoming 1
beef 1
begun 1
beh@@ 1
behalf 1
bein 1
beings 1
believes 1
believing 1
benchmark 1
benefits 1
ber-@@ 1
berg 1
bers 1
bery 1
best-@@ 1
bha@@ 1
bigger 1
billions 1
bio@@ 1
biograph@@ 1
birdie 1
birdies 1
bish 1
bit@@ 1
bitter 1
bizarre 1
bla@@ 1
blamed 1
blan@@ 1
blast 1
blazes 1
ble@@ 1
blew 1
blo@@ 1
blocks 1
blog 1
blogger 1
boats 1
bodyguards 1
boge@@ 1
boiled 1
bomber 1
bombings 1
bond 1
bonds 1
bone 1
bonus 1
book 1
book@@ 1
bor@@ 1
border 1
bored 1
boro 1
borrowers 1
bott@@ 1
bottles 1
bounce 1
boundary 1
bowled 1
bowler 1
bowlers 1
boyfriend 1
bra@@ 1
bracel@@ 1
brain@@ 1
brand 1
brawl 1
breathing 1
bri@@ 1
brigades 1
bright 1
brightest 1
bringing 1
brings 1
bro@@ 1
broadcasting 1
broch@@ 1
broker 1
brothers 1
bruising 1
brut@@ 1
bs 1
bubbles 1
bugs 1
bul@@ 1
burden 1
burnt 1
bursting 1
but@@ 1
butter 1
butter@@ 1
buyers 1
buyout 1
buzz@@ 1
c 1
ca 1
cabin 1
cabinet 1
cage 1
cal 1
calculation 1
callers 1
calling 1
camer@@ 1
cameras 1
camp@@ 1
camps 1
campus 1
campuses 1
can@@ 1
canceled 1
cancer 1
cann@@ 1
capabilities 1
capacity 1
captured 1
car@@ 1
carbon 1
card 1
cards 1
careful 1
carn@@ 1
carriers 1
carrying 1
cash@@ 1
casino 1
cast 1
castle 1
catcher 1
catches 1
categor@@ 1
cattle 1
caught 1
caused 1
cautious 1
cco 1
ce 1
ce@@ 1
ceiling 1
celebrated 1
celebrity 1
cellphone 1
cens@@ 1
centered 1
centers 1
centre 1
century 1
cer 1
ceremony 1
chain 1
chains 1
chair 1
chairman 1
challenged 1
challenger 1
challenges 1
champagne 1
changed 1
channel 1
chant 1
char@@ 1
charred 1
chast@@ 1
check@@ 1
checking 1
checkpoints 1
checks 1
chen 1
chers 1
ches 1
chi 1
chi@@ 1
chil@@ 1
chilling 1
chip 1
choice 1
choose 1
chose 1
cian 1
cians 1
cigarette 1
circulated 1
citing 1
civilians 1
ck-@@ 1
ck@@ 1
cks 1
cky 1
cl@@ 1
claim 1
claimed 1
clarity 1
clashes 1
classic 1
classroom 1
classrooms 1
cleaning 1
clicking 1
clim@@ 1
climbed 1
clinical 1
clinics 1
closed 1
closely 1
closer 1
closest 1
cloth 1
clothes 1
clou@@ 1
cloud 1
clouds 1
co 1
co-star 1
coach 1
coaching 1
coal 1
coal-fired 1
coalition 1
code 1
coffee 1
cognitive 1
coincided 1
col@@ 1
cold 1
collapse 1
colleagues 1
collective 1
colonial 1
com@@ 1
combination 1
combine 1
comeback 1
comfor@@ 1
comfortable 1
commander 1
comments 1
commissioner 1
committed 1
communication 1
communities 1
companion 1
compete 1
competing 1
competition 1
competitive 1
competitors 1
complain 1
complained 1
complaining 1
completing 1
completion 1
complex 1
complications 1
component 1
composed 1
composer 1
computers 1
conc@@ 1
conce@@ 1
conceded 1
conceived 1
concentrating 1
concepts 1
concern 1
concili@@ 1
concluded 1
conclusion 1
concrete 1
condemned 1
condition 1
conditioning 1
conduct 1
conducted 1
conducting 1
confer@@ 1
conferences 1
confidence 1
confident 1
confidential 1
confirmation 1
confrontation 1
connect 1
consecutive 1
consensus 1
conserv@@ 1
considerable 1
consist 1
consisting 1
consolation 1
consolidate 1
conspiracy 1
constant 1
constitution 1
constraints 1
construct 1
consultation 1
contacts 1
contain 1
contained 1
contaminated 1
contender 1
contents 1
continuing 1
contracting 1
contribute 1
controls 1
controversi@@ 1
controversial 1
controversy 1
convoy 1
cooperation 1
coordinated 1
coordinator 1
cop 1
cop@@ 1
copyright 1
cor 1
cor@@ 1
core 1
corn 1
coroner 1
corp@@ 1
correct 1
corridors 1
costly 1
cotton 1
counseling 1
counted 1
counter 1
counter@@ 1
country@@ 1
counts 1
couple 1
cour@@ 1
courtesy 1
courts 1
cover 1
covering 1
crackdown 1
cracked 1
cracking 1
craft 1
cream 1
creating 1
creatures 1
crete 1
cried 1
criminal 1
criminals 1
criti@@ 1
criticism 1
criticize 1
crowd 1
crowded 1
crowding 1
crowds 1
crown 1
cru@@ 1
crushed 1
ction 1
cubic 1
cuisine 1
cultural 1
culture 1
curb 1
currency 1
currently 1
custody 1
customer 1
customized 1
cy 1
cyc@@ 1
cyclone 1
dale 1
damaged 1
damages 1
danger 1
dangerous 1
dap@@ 1
dat@@ 1
dates 1
daughter 1
dd 1
ddard 1
ddled 1
deals 1
dealt 1
decide 1
decreasing 1
ded 1
deep 1
deeply 1
deer 1
def@@ 1
defam@@ 1
defend 1
defenseman 1
deficit 1
define 1
definition 1
degree 1
delaying 1
deli@@ 1
deliber@@ 1
delinqu@@ 1
delivered 1
delivery 1
della 1
demonstrate 1
demonstrators 1
denied 1
dense 1
dent@@ 1
dentist 1
deny 1
departure 1
dependent 1
depicted 1
depicting 1
deployment 1
deposits 1
depressed 1
depri@@ 1
depth 1
der-@@ 1
derived 1
descent 1
desert 1
desh 1
designed 1
desired 1
desperately 1
despite 1
dest 1
destination 1
destruction 1
destructive 1
detailed 1
detective 1
detention 1
deteriorated 1
determination 1
determine 1
dev@@ 1
devastated 1
devastation 1
developed 1
developer 1
developers 1
developing 1
development 1
developments 1
devil 1
dez 1
dg@@ 1
dge 1
dge@@ 1
dh 1
dia 1
diabetes 1
dialysis 1
diamonds 1
diaries 1
diary 1
dice 1
dictator 1
die 1
difficult 1
difficulties 1
digest@@ 1
digits 1
dioxide 1
dip 1
diplomats 1
dire 1
direc@@ 1
direct 1
directions 1
directly 1
dirty 1
disap@@ 1
disappear 1
disappointed 1
disappointing 1
disbelief 1
disciplined 1
discovered 1
discovery 1
discrimination 1
discussion 1
discussions 1
dismissed 1
disp@@ 1
display 1
disrup@@ 1
distance 1
distinction 1
distinctive 1
distingu@@ 1
distributor 1
disturbing 1
dit 1
dits 1
diverse 1
diversi@@ 1
diversity 1
dividing 1
division 1
divisions 1
divorce 1
dness 1
doc@@ 1
document 1
documents 1
dog@@ 1
dogs 1
dol 1
dolls 1
don@@ 1
dong 1
doping 1
dou 1
dou@@ 1
double-digit 1
doubled 1
doubles 1
doubt 1
downgrade 1
dozen 1
dozens 1
dra@@ 1
drag 1
drama 1
dramatic 1
drawn 1
dress 1
dresses 1
dri@@ 1
drilling 1
drink 1
drinking 1
drive 1
driver 1
drivers 1
drives 1
driving 1
dro@@ 1
drops 1
drove 1
dru@@ 1
drugs 1
drum 1
drunk 1
ds 1
ds@@ 1
dubbed 1
duly 1
dumped 1
dunk 1
dur@@ 1
dynamic 1
e-mail 1
eBay 1
ean 1
early-@@ 1
ears 1
earth@@ 1
eased 1
easily 1
eastern 1
easy 1
eats 1
ebe 1
ech 1
eck 1
eco-@@ 1
eco@@ 1
economic 1
economics 1
ections 1
ed-@@ 1
edit@@ 1
editorial 1
eer 1
eff@@ 1
effective 1
efficiencies 1
efficiently 1
eful 1
egal@@ 1
eighth 1
ein@@ 1
ek 1
elaborate 1
ele 1
electricity 1
electronics 1
eled 1
eligible 1
eliminating 1
eling 1
elite 1
ellan 1
ellen 1
elli 1
ells 1
els 1
else 1
ely 1
embarrassed 1
emissions 1
emit@@ 1
emo@@ 1
emotionally 1
emper@@ 1
emph@@ 1
emphasis 1
empire 1
employed 1
employee 1
employees 1
employs 1
en 1
ena 1
enable 1
enabling 1
ence-@@ 1
encomp@@ 1
encounter 1
encouraging 1
ends 1
enforcement 1
eng@@ 1
engaged 1
enhance 1
enhancing 1
enjoy 1
enk@@ 1
enko 1
enly 1
enormous 1
enormously 1
enrollment 1
ensing 1
ent-@@ 1
ent@@ 1
entering 1
enterprises 1
entertainer 1
entertainment 1
enthusi@@ 1
enthusiasm 1
entist 1
enty 1
environment 1
ep@@ 1
eps 1
equality 1
equally 1
equipped 1
equivalent 1
er@@ 1
ergy 1
ern@@ 1
ero@@ 1
err@@ 1
errors 1
erte 1
es' 1
es.com 1
escaped 1
escent 1
esch 1
especially 1
ess 1
esse 1
essed 1
essentially 1
essly 1
establish 1
esters 1
eted 1
ethanol 1
ethical 1
ethnic 1
etic 1
etri@@ 1
ets 1
etta 1
ette 1
eur 1
euro 1
evacuation 1
evaluated 1
evapor@@ 1
event@@ 1
everyday 1
everyone 1
evi@@ 1
exceeding 1
exceeds 1
excited 1
excitement 1
executed 1
execution 1
exempt 1
exercised 1
exhausted 1
exhibitions 1
exile 1
exist 1
expand 1
expanded 1
expanding 1
expansive 1
expectations 1
expects 1
expense 1
expenses 1
experimental 1
explains 1
explanation 1
explo@@ 1
exploit 1
explor@@ 1
exploring 1
exporter 1
exposure 1
expressed 1
expression 1
ext 1
extensive 1
extreme 1
extremists 1
ey-@@ 1
fabulous 1
face-@@ 1
face-to-face 1
facial 1
facing 1
factor 1
factors 1
facts 1
failing 1
failure 1
fair 1
fairly 1
fallout 1
falls 1
fam@@ 1
famed 1
fans 1
fanta@@ 1
fantastic 1
far@@ 1
fare 1
farms 1
fast 1
faster 1
fatally 1
favorite 1
favour 1
fe@@ 1
fear 1
fear@@ 1
fearful 1
fears 1
features 1
feedback 1
feeding 1
feel 1
fees 1
fel@@ 1
fellow 1
fence 1
fences 1
ffed 1
fford 1
fic@@ 1
fication 1
fied 1
fielder 1
fields 1
fifth 1
fighter 1
figure 1
figuring 1
fik@@ 1
fil@@ 1
filings 1
filmed 1
filmmakers 1
final 1
finalized 1
finally 1
finance 1
financed 1
financially 1
finding 1
fingers 1
finish 1
finished 1
finishes 1
firearm 1
first-degree 1
fish 1
fist 1
fit 1
fitness 1
fits 1
fix@@ 1
fixtures 1
flag 1
flag@@ 1
flagship 1
flamboy@@ 1
flash 1
flat 1
flat-@@ 1
flat@@ 1
fleet 1
flexibility 1
flexible 1
fli@@ 1
flight 1
flo@@ 1
floods 1
flu 1
fly 1
flying 1
fo@@ 1
focus 1
fol@@ 1
folk 1
foods 1
fool 1
foot-@@ 1
for-@@ 1
forbidden 1
fore@@ 1
forefront 1
foreign 1
forensic 1
forests 1
form 1
format 1
fortune 1
fortunes 1
forward 1
forward-looking 1
fou@@ 1
fought 1
foundation 1
founded 1
fraction 1
fragments 1
franchise 1
fre@@ 1
freedom 1
fresh@@ 1
fri@@ 1
fries 1
front 1
front-runner 1
ft@@ 1
ful 1
full-@@ 1
full-scale 1
full-year 1
function 1
functional 1
fundamental 1
fur 1
fur@@ 1
fury 1
futures 1
fy 1
fying 1
ga 1
gained 1
gam@@ 1
gang@@ 1
gar 1
garde 1
gars 1
gas@@ 1
gases 1
gasoline 1
gate 1
gates 1
gather 1
ge 1
ged 1
gen 1
gen@@ 1
gene 1
generation 1
genre 1
genuine 1
ger-@@ 1
gett 1
gh 1
gh@@ 1
ghten@@ 1
giants 1
gift 1
gifted 1
gifts 1
gio 1
gives 1
gl@@ 1
glamorous 1
gle@@ 1
gled 1
glove 1
gn@@ 1
go@@ 1
gorgeous 1
governing 1
governors 1
grab 1
grab@@ 1
grade 1
graduating 1
gram 1
grand 1
grandchildren 1
grandparents 1
grandson 1
granted 1
graph@@ 1
grassroots 1
gravit@@ 1
gray 1
greater 1
greenhouse 1
gren 1
grim 1
grocery 1
gross 1
grounder 1
group@@ 1
grow 1
growing 1
guarding 1
gues 1
guidelines 1
guiding 1
guild 1
guitar 1
gul@@ 1
gunman 1
guns 1
gur@@ 1
gut@@ 1
guy 1
h 1
ha 1
hab@@ 1
habits 1
hacking 1
hair 1
halfway 1
halls 1
halt 1
ham 1
hand 1
hand-@@ 1
handing 1
handle 1
hands-on 1
hanging 1
happen 1
happens 1
happy 1
hard-@@ 1
hard-line 1
hard@@ 1
hardware 1
harm 1
harmful 1
harmon@@ 1
hart 1
hasn 1
hate 1
hau@@ 1
haven 1
head@@ 1
heading 1
headquarters 1
heads 1
healing 1
healthcare 1
hearing 1
heart-@@ 1
heart@@ 1
heav@@ 1
heavy 1
hedge 1
hef@@ 1
heim 1
helicopter 1
helicopters 1
helps 1
hence 1
her-@@ 1
herein 1
heric 1
hero 1
heroic 1
herself 1
hi 1
hi@@ 1
hiding 1
high-profile 1
high@@ 1
highest 1
highlight 1
highlights 1
highly 1
hike 1
hil@@ 1
hing@@ 1
hip-hop 1
hired 1
historians 1
historical 1
historically 1
hitter 1
hn 1
hold 1
holding 1
holes 1
holy 1
homeland 1
homicide 1
hon@@ 1
honored 1
hood 1
hook 1
hoped 1
horrific 1
horse 1
hospital 1
hosted 1
hot 1
hou 1
hou@@ 1
housed 1
ht@@ 1
huge 1
humans 1
hun@@ 1
hundred 1
hung 1
hurting 1
hydro@@ 1
hygiene 1
iPhone 1
ial 1
ian@@ 1
iang 1
iano 1
ib@@ 1
ible 1
ic-@@ 1
ica 1
ical 1
ically 1
ici 1
icide 1
ick 1
ick@@ 1
icks 1
ics 1
ida 1
identify 1
ides 1
idi@@ 1
ids 1
ied 1
ielding 1
ific@@ 1
ign@@ 1
ij@@ 1
ik 1
il@@ 1
ile 1
iler 1
ili@@ 1
iling 1
ility 1
ill 1
ill@@ 1
ille 1
illi@@ 1
illing 1
illness 1
illu@@ 1
ima 1
images 1
imagined 1
implemented 1
importance 1
impres@@ 1
impressive 1
improvement 1
improvements 1
impul@@ 1
in-@@ 1
in-chief 1
inc@@ 1
incentive 1
incentives 1
increases 1
increasing 1
increasingly 1
incremental 1
incur@@ 1
indefinitely 1
independent 1
inder 1
indicator 1
indirectly 1
ine@@ 1
infection 1
infl@@ 1
inflationary 1
influence 1
infringement 1
inghamshire 1
ingly 1
ington@@ 1
initial 1
initially 1
initiatives 1
injection 1
injunction 1
injured 1
injuries 1
injuring 1
injury 1
ink 1
inners 1
innocence 1
innovation 1
inside 1
insisted 1
inson 1
inspection 1
inspector 1
inspectors 1
inspiration 1
installation 1
instance 1
instinct 1
institute 1
institutions 1
instrument@@ 1
insulin 1
insulting 1
int 1
intact 1
integrate 1
intellectual 1
intended 1
intensive 1
intentional 1
inter@@ 1
interested 1
interface 1
intervention 1
intest@@ 1
intriguing 1
introduces 1
introduction 1
invested 1
investigations 1
investing 1
investments 1
invited 1
inviting 1
involve 1
involvement 1
involving 1
io 1
iora 1
ious 1
iro 1
irresponsible 1
ise 1
iser 1
ish 1
isher 1
ishers 1
iso@@ 1
istic 1
ists 1
itation 1
items 1
itor 1
itting 1
iv@@ 1
ive 1
ize 1
izing 1
jan 1
jay 1
je@@ 1
jee 1
jewe@@ 1
jewelry 1
jo 1
jo@@ 1
jobs 1
journal@@ 1
journalism 1
journalist 1
journey 1
ju@@ 1
judgement 1
judgment 1
jumped 1
junta 1
jury 1
justice 1
ka 1
ka@@ 1
kar@@ 1
kay@@ 1
ked 1
keeper 1
keeping 1
ken@@ 1
ker 1
kes 1
keys 1
kid 1
killing 1
kin@@ 1
kins 1
kits 1
kling 1
knowing 1
knowledge 1
knows 1
kus 1
la 1
la@@ 1
lab@@ 1
laboratory 1
lager 1
lake 1
lan 1
landing 1
landscape 1
language 1
lap@@ 1
laptops 1
large-@@ 1
largely 1
lash 1
lasted 1
lasting 1
lasts 1
lat@@ 1
late-@@ 1
latest 1
latter 1
launched 1
launching 1
lavis@@ 1
law@@ 1
lawyer 1
layers 1
leader 1
leadership 1
league 1
leap 1
learned 1
leasing 1
leaves 1
lemen 1
lenders 1
ler 1
lesbian 1
lesson 1
lethal 1
lets 1
letters 1
liability 1
liar 1
liber@@ 1
liberals 1
liberty 1
lic@@ 1
license 1
lifetime 1
lift 1
ligament 1
ligence 1
light-@@ 1
liked 1
likes 1
limits 1
lin 1
liners 1
lines 1
link 1
linked 1
linking 1
links 1
lis 1
list 1
list@@ 1
listen 1
listing 1
lists 1
lit 1
lit@@ 1
litre 1
livestock 1
loaded 1
lobby 1
lobbying 1
locations 1
lock 1
locked 1
log 1
lon 1
long-standing 1
long-term 1
long@@ 1
longer 1
longtime 1
loo 1
looked 1
lop@@ 1
lords 1
lose 1
low-cost 1
lower 1
loy@@ 1
lu@@ 1
lucky 1
lur@@ 1
ly-@@ 1
lyrics 1
machines 1
mad@@ 1
mail 1
main 1
mainly 1
mainstream 1
maintains 1
makes 1
managed 1
managers 1
mandatory 1
maneu@@ 1
mansion 1
manufactures 1
manufacturing 1
margin 1
marketing 1
marriage 1
marry 1
masks 1
massi@@ 1
massive 1
matching 1
mate 1
materials 1
mates 1
math 1
mathemati@@ 1
mature 1
mbled 1
meal 1
meaning 1
measure 1
measures 1
meat 1
med 1
medalist 1
medals 1
meetings 1
membership 1
memo 1
memorial 1
memory 1
men@@ 1
ment 1
mental 1
mented 1
mentioned 1
ments 1
mer@@ 1
mercy 1
mere 1
merely 1
merger 1
mergers 1
mes@@ 1
messages 1
meters 1
method 1
methods 1
mid 1
midday 1
middle-class 1
midnight 1
midway 1
mied 1
mig@@ 1
migration 1
militant 1
militias 1
mim@@ 1
mind 1
mind-@@ 1
mines 1
mini 1
minimum 1
minority 1
misery 1
missing 1
missions 1
mobile 1
mobility 1
model 1
moderate 1
modern 1
modified 1
modify 1
mond 1
monds 1
money-@@ 1
mong 1
mont 1
moon 1
morale 1
mosque 1
most-@@ 1
mothers 1
motivated 1
motive 1
motor@@ 1
mountains 1
mounted 1
mounting 1
movement 1
movements 1
moves 1
mp@@ 1
mption 1
ms 1
mud@@ 1
mug@@ 1
municipal 1
murdered 1
murders 1
mush@@ 1
musical 1
mut@@ 1
myself 1
n 1
n-@@ 1
n@@ 1
na@@ 1
names 1
nan@@ 1
nar 1
narcotics 1
nas@@ 1
nation@@ 1
nationwide 1
native 1
naturally 1
nature 1
naval 1
near@@ 1
nearby 1
necessarily 1
necessary 1
ned 1
ned-@@ 1
need@@ 1
needle 1
neg@@ 1
negotiations 1
negotiators 1
neighborhood 1
neither 1
nel 1
ners 1
nervous 1
nes 1
net@@ 1
nets 1
nett 1
network 1
networks 1
new@@ 1
newly 1
news@@ 1
neys 1
ni@@ 1
nice 1
nights 1
ninth 1
nit@@ 1
no-@@ 1
nominated 1
nominating 1
nominee 1
nominees 1
noon 1
normally 1
northeastern 1
northwest 1
note 1
noted 1
notes 1
novel 1
novelist 1
nurses 1
nut 1
nutrition 1
o-@@ 1
ob@@ 1
obesity 1
objective 1
objects 1
obligation 1
obligations 1
obsc@@ 1
obscure 1
observed 1
obsessed 1
obvious 1
occup@@ 1
occupied 1
occurred 1
ocean 1
och 1
odd 1
odds 1
of@@ 1
off@@ 1
offenders 1
officer 1
officers 1
officially 1
offs 1
offseason 1
oh 1
oh@@ 1
ohl 1
oil-@@ 1
oil-rich 1
ol@@ 1
older 1
olle@@ 1
ollen 1
ological 1
ologist 1
ologists 1
ologne 1
oman 1
omed 1
omer 1
ometer 1
onaire 1
onally 1
one-@@ 1
one-day 1
oney 1
ong 1
ong-@@ 1
onga 1
ongoing 1
ongue 1
oni 1
ono 1
onry 1
onte 1
onto 1
ony 1
oo@@ 1
ood 1
oot 1
opener 1
opens 1
opera 1
operation 1
opers 1
opinion 1
opinions 1
oples 1
opponents 1
oppose 1
opposed 1
opposes 1
opposite 1
oppy 1
optim@@ 1
optimism 1
or-@@ 1
ordered 1
orders 1
ordin@@ 1
ordon 1
organ 1
organisers 1
organizations 1
organs 1
ori@@ 1
origin 1
os@@ 1
ot@@ 1
oul@@ 1
oun@@ 1
oured 1
ourselves 1
oust 1
out-of-@@ 1
outer 1
outfits 1
output 1
outre@@ 1
outs 1
outsiders 1
outstanding 1
overlooked 1
overnight 1
override 1
oversee 1
overwhelming 1
ow 1
ow@@ 1
owners 1
ows 1
ox@@ 1
p-@@ 1
pace 1
painful 1
painted 1
palace 1
pan 1
panic 1
paparazzi 1
par-@@ 1
par@@ 1
parade 1
paraly@@ 1
paralyzed 1
park 1
parking 1
parliamentary 1
parti@@ 1
partic@@ 1
participate 1
parties 1
partly 1
pas 1
pass@@ 1
passionate 1
patches 1
patrons 1
paying 1
payment 1
payments 1
pe@@ 1
peaceful 1
peacekeeping 1
peaks 1
ped@@ 1
pension 1
pensions 1
pepper 1
perception 1
perform 1
performances 1
performed 1
perhaps 1
permit 1
perpet@@ 1
personally 1
personnel 1
perspective 1
persuade 1
pet 1
petition 1
petroleum 1
pets 1
pharmaceuticals 1
phenomenal 1
philosophy 1
photograph 1
photographer 1
photographers 1
photographs 1
physi@@ 1
physician 1
physicians 1
pianist 1
picture 1
piece 1
pilot 1
pinch 1
pipe 1
pir@@ 1
pistol 1
pitch 1
pitching 1
pl@@ 1
plac@@ 1
placebo 1
plaintiffs 1
planes 1
platform 1
platforms 1
platinum 1
playing 1
playoff 1
playoffs 1
plays 1
playwright 1
pleaded 1
pled 1
plight 1
plugged 1
plunged 1
plus 1
po@@ 1
pointing 1
poker 1
polar 1
politician 1
pool 1
popping 1
popularity 1
port@@ 1
portions 1
portray 1
possess 1
possession 1
possibly 1
post 1
post@@ 1
posted 1
posting 1
pot 1
potential 1
potentially 1
pped 1
pper 1
ppers 1
practice 1
practiced 1
practicing 1
pray 1
prediction 1
prefers 1
premature 1
premium 1
prescription 1
present 1
presented 1
pressed 1
prestigious 1
prevailing 1
prey 1
pri@@ 1
primarily 1
principal 1
priority 1
prisons 1
privacy 1
privilege 1
pro-democracy 1
proactive 1
probe 1
proceed 1
proceeds 1
produce 1
producer 1
producers 1
profession 1
profile 1
profit 1
profits 1
programme 1
progressed 1
projected 1
projection 1
prominence 1
promise 1
promises 1
promoting 1
prompting 1
prop@@ 1
properly 1
proposal 1
proposals 1
prosecuted 1
prosecuting 1
prosecutors 1
prosp@@ 1
prospect 1
prosperous 1
prostitution 1
protect 1
protecting 1
protections 1
protests 1
proudly 1
prove 1
proves 1
provided 1
provider 1
providers 1
province 1
provincial 1
provisions 1
provo@@ 1
provoked 1
proxy 1
ps 1
psych@@ 1
pu@@ 1
publications 1
pulled 1
pun@@ 1
pundits 1
punish 1
punished 1
punishment 1
pur@@ 1
pursued 1
pursuing 1
pursuit 1
pushed 1
putt 1
puzz@@ 1
q 1
q@@ 1
quake 1
qualify 1
qualifying 1
quant@@ 1
quantities 1
quarter 1
quarter-@@ 1
quarterback 1
quarters 1
que@@ 1
quest 1
questionable 1
questioned 1
questioning 1
queue 1
quick 1
quick@@ 1
quit 1
quite 1
quoted 1
r 1
ra 1
race 1
raided 1
rainy 1
raise 1
raises 1
raising 1
ram@@ 1
rant 1
rare 1
rating 1
re-@@ 1
rea 1
read@@ 1
readers 1
readiness 1
real@@ 1
reality 1
reasonable 1
rebel 1
rebu@@ 1
rebuilding 1
recalling 1
receive 1
receives 1
reception 1
recession 1
reck@@ 1
recognise 1
recognition 1
recognize 1
recognized 1
recommended 1
recording 1
recovery 1
recur@@ 1
recurring 1
red@@ 1
reducing 1
reductions 1
ree 1
rees 1
referendum 1
referring 1
refinery 1
reflects 1
reform 1
refugee 1
refur@@ 1
regarded 1
regarding 1
regime 1
regions 1
registered 1
regret 1
regulators 1
rehabilit@@ 1
reign 1
reigning 1
rejection 1
rel@@ 1
relatives 1
rele@@ 1
relevant 1
reliability 1
reliable 1
relief 1
religious 1
relocated 1
relying 1
remain 1
remained 1
remains 1
reminded 1
removed 1
removing 1
rendition 1
rene@@ 1
renewal 1
renovation 1
rent 1
reopen 1
reopened 1
repair 1
repeatedly 1
replace 1
replacement 1
replied 1
reply 1
reporting 1
represented 1
representing 1
republi@@ 1
republic 1
repurchase 1
rescue 1
researchers 1
reserved 1
resign 1
resist@@ 1
respect 1
respectively 1
respects 1
respond 1
responding 1
rest@@ 1
restaurants 1
rested 1
restore 1
restoring 1
resurrec@@ 1
retailer 1
retailers 1
retali@@ 1
retaliation 1
retiree 1
retiring 1
returns 1
reveal 1
revealed 1
revealing 1
revelations 1
revenue 1
reviewed 1
revived 1
revolt 1
reward 1
rex@@ 1
rh@@ 1
ri@@ 1
rice 1
ride 1
riders 1
rier 1
ries 1
rights 1
rigs 1
ring@@ 1
riots 1
ripped 1
risk 1
risk-@@ 1
risky 1
rist 1
ritten 1
rival 1
rivalry 1
roads 1
robot 1
robots 1
rockets 1
rocky 1
rogen 1
roles 1
roll@@ 1
rolls 1
ron@@ 1
roo@@ 1
rooms 1
rou@@ 1
rought 1
round@@ 1
rounded 1
rounder 1
rows 1
royal 1
rub 1
rub@@ 1
ruck@@ 1
ruler 1
rumours 1
runners 1
rushing 1
ry 1
s-@@ 1
s. 1
s.com 1
sa@@ 1
sacrifices 1
sad 1
safest 1
sag@@ 1
sailed 1
sal@@ 1
salon 1
salt 1
salvage 1
sample 1
sand 1
satisfactory 1
saved 1
saving 1
savings 1
scaled 1
scandal 1
scarves 1
scheduled 1
scher 1
school@@ 1
scientist 1
scope 1
scopic 1
scored 1
scores 1
scratch 1
scream 1
screen 1
sculptures 1
sealed 1
sear@@ 1
searched 1
searching 1
season-@@ 1
seasons 1
second-half 1
second-largest 1
second-quarter 1
second-round 1
secret 1
sectarian 1
sections 1
sector 1
seeks 1
seem 1
seized 1
seizures 1
select 1
selection 1
self 1
selfish 1
seller 1
semester 1
semifinals 1
sen 1
send 1
senior 1
sentence 1
sentences 1
sequ@@ 1
serious 1
seriously 1
servant 1
server 1
session 1
sessions 1
sets 1
settle 1
settled 1
seven-@@ 1
severe 1
sey 1
sham@@ 1
shape 1
shaped 1
share 1
shareholder 1
shareholders 1
shares 1
sharing 1
sharp 1
shattered 1
shifting 1
shipped 1
shocked 1
shoes 1
shook 1
shoot 1
shootings 1
shop@@ 1
shor@@ 1
short@@ 1
shortages 1
shots 1
shoulder 1
shout 1
shouting 1
show@@ 1
showing 1
shut 1
shuttle 1
si 1
si@@ 1
sick 1
sided 1
sideline 1
sidelines 1
sident-@@ 1
sides 1
sie 1
significance 1
signing 1
silence 1
similarly 1
sing 1
singer 1
sis 1
sister 1
sisters 1
sitting 1
six@@ 1
sk@@ 1
skaya 1
skies 1
skills 1
skins 1
sky 1
slam 1
slaying 1
sle@@ 1
sleeves 1
slice 1
slides 1
slightly 1
slipped 1
slogan 1
slot 1
smashed 1
smil@@ 1
smile 1
smiling 1
smoke 1
smoking 1
snap 1
snapped 1
sneak 1
snor@@ 1
snow 1
so@@ 1
sober 1
sober@@ 1
soccer 1
social 1
socialist 1
socially 1
sof@@ 1
soldier 1
solely 1
solicited 1
solicitor 1
solidi@@ 1
solo 1
solution 1
solving 1
somehow 1
song@@ 1
songs 1
sooner 1
sophisticated 1
sort 1
sorts 1
sou@@ 1
sought 1
sound 1
sounding 1
sounds 1
soundtrack 1
southern 1
southwestern 1
sp@@ 1
spar@@ 1
speaker 1
speaking 1
spec@@ 1
specialized 1
specific 1
specifically 1
specified 1
spectators 1
spectives 1
speculative 1
speech 1
speed 1
speeding 1
speedy 1
spent 1
spi@@ 1
spinning 1
spirit 1
sponsorship 1
sport 1
spotted 1
spra@@ 1
sprained 1
spree 1
sprung 1
ss@@ 1
stab 1
stab@@ 1
stabilize 1
staffers 1
stair@@ 1
stake 1
stamp 1
stand@@ 1
standards 1
standings 1
star@@ 1
stark@@ 1
starred 1
stars 1
starters 1
stat 1
stating 1
stationed 1
statistics 1
status 1
stayed 1
stays 1
steadily 1
steam 1
sted 1
steering 1
stemming 1
steroids 1
stimul@@ 1
stir 1
stock 1
stockpiles 1
stomach 1
stop@@ 1
stores 1
storms 1
stow 1
str@@ 1
stra@@ 1
strategists 1
stration 1
stre@@ 1
stream 1
streets 1
strengthened 1
stress 1
stressed 1
stretched 1
stri@@ 1
stric@@ 1
strictly 1
strikeouts 1
striker 1
strikes 1
strive 1
stroke 1
structure 1
struggled 1
struggling 1
studied 1
studios 1
stun 1
sty@@ 1
styles 1
su@@ 1
sub-prime 1
sub@@ 1
subject 1
submit 1
subsidiaries 1
subsidy 1
suburbs 1
successes 1
successfully 1
sued 1
suffered 1
suggest 1
suggested 1
suggesting 1
suggestion 1
suggests 1
sul@@ 1
sun@@ 1
sunlight 1
supermarkets 1
supports 1
sure 1
surface 1
surgeon 1
surgery 1
surprising 1
surreal 1
surround 1
surveyed 1
survive 1
suspect 1
suspicion 1
suspicions 1
sustain@@ 1
swe@@ 1
swim 1
swing 1
sy@@ 1
syndic@@ 1
tability 1
tables 1
tag 1
takers 1
tal@@ 1
talent 1
talked 1
talking 1
tally 1
tan@@ 1
tape 1
taped 1
target 1
targeted 1
targets 1
tasks 1
tastes 1
tation 1
taught 1
taxes 1
taxpayers 1
te@@ 1
teach@@ 1
teacher 1
teachers 1
tear 1
tech 1
technologies 1
tee 1
teeth 1
tel@@ 1
televisions 1
tell 1
temporary 1
ten 1
ten@@ 1
tends 1
tense 1
ter 1
terminals 1
terribly 1
terrific 1
terrified 1
terrorist 1
testament 1
tested 1
tests 1
th-@@ 1
th-century 1
theastern 1
theatrical 1
thed 1
thef@@ 1
theft 1
therapy 1
there@@ 1
therefore 1
thers 1
thes@@ 1
thick 1
thinking 1
thol@@ 1
thread 1
threat 1
threaten 1
threatened 1
threatening 1
threatens 1
threshold 1
threw 1
thrilled 1
thriller 1
thron@@ 1
throw 1
thrown 1
ths 1
ti@@ 1
tic@@ 1
tickets 1
tier 1
tiger 1
tim@@ 1
timing 1
tin 1
tional 1
tired 1
tis 1
tit@@ 1
title 1
tiv@@ 1
tline 1
toe 1
tomy 1
tones 1
too-@@ 1
topping 1
topple 1
tor 1
torate 1
torn 1
tors 1
tossed 1
tou@@ 1
touch 1
touch@@ 1
touched 1
tourists 1
tournament 1
towel 1
towns 1
tra 1
tra@@ 1
trac@@ 1
tracks 1
tract 1
tractors 1
tracts 1
traded 1
tradition 1
traffic 1
tragic 1
trailed 1
trained 1
trans@@ 1
transfer 1
transfers 1
transform@@ 1
transformation 1
transit 1
transmission 1
transparency 1
trap 1
traveling 1
tre@@ 1
treasure 1
treated 1
trecht 1
trees 1
tremend@@ 1
trends 1
tri@@ 1
trial 1
trials 1
tribute 1
trick@@ 1
trips 1
triumph 1
triumph@@ 1
troop 1
trophy 1
troub@@ 1
troubled 1
tru@@ 1
trucks 1
trunk 1
trust 1
ts-@@ 1
tt@@ 1
tter 1
tu@@ 1
tually 1
tuition 1
tumbling 1
tuned 1
tur@@ 1
turkey 1
turn 1
turning 1
two-run 1
two-year 1
ty@@ 1
typical 1
typically 1
tz 1
ual 1
ue 1
ues 1
ug 1
ulate 1
ulations 1
ullah 1
ultimately 1
ultra@@ 1
um@@ 1
uma 1
umbled 1
umi 1
ump@@ 1
unbeaten 1
unclear 1
unded 1
underestimated 1
underground 1
undermine 1
underscore 1
underscores 1
understand 1
understanding 1
underwater 1
unding 1
undoub@@ 1
unfair 1
unfortunately 1
ung@@ 1
uni@@ 1
uniquely 1
unit 1
universal 1
universities 1
unks 1
uns 1
unsc@@ 1
unt 1
unted 1
up-@@ 1
upheld 1
upon 1
upstate 1
ura 1
urban 1
ure 1
ure@@ 1
urge 1
urged 1
urging 1
uring 1
urns 1
urt 1
us-@@ 1
us@@ 1
useful 1
ush 1
ush@@ 1
usher 1
usually 1
ute 1
vable 1
vacant 1
vaccinated 1
valuation 1
value 1
variable 1
varied 1
vegetables 1
vehicle 1
vendor 1
vent@@ 1
venture 1
ver 1
verse 1
version 1
versions 1
versity 1
very@@ 1
vessel 1
vestock 1
vi@@ 1
vicious 1
victories 1
vie@@ 1
view 1
viewers 1
violations 1
violent 1
vision 1
visual 1
vit@@ 1
vivid 1
vo@@ 1
voc@@ 1
volume 1
voluntary 1
voting 1
vowed 1
vre 1
vs. 1
vulnerable 1
wa 1
wa@@ 1
wait 1
waiting 1
walk 1
walked 1
walkers 1
walks 1
walls 1
war-@@ 1
ward 1
wardrobe 1
warm 1
warming 1
warn 1
warned 1
warning 1
warnings 1
warns 1
wars 1
waste 1
wasting 1
water@@ 1
wave 1
wealth 1
weap@@ 1
wear 1
wearing 1
weather 1
website 1
websites 1
wed 1
weeklong 1
weekly 1
welcome 1
welcomed 1
welfare 1
weren 1
wers 1
west-@@ 1
western 1
whatever 1
wheel 1
whereabouts 1
whites 1
wholly 1
whom 1
wi@@ 1
wick 1
wicket 1
windfall 1
windows 1
winds 1
wine 1
wing 1
wings 1
wins 1
winter 1
wires 1
wisdom 1
wish 1
wished 1
wishes 1
withdrawal 1
witz 1
wives 1
wle@@ 1
woman 1
wood@@ 1
wor@@ 1
wore 1
work-@@ 1
work@@ 1
worker 1
working-class 1
workshop 1
worth 1
wreckage 1
wrest@@ 1
writers 1
ws 1
xes 1
xim@@ 1
xis 1
xton 1
y-based 1
ye 1
ye@@ 1
year@@ 1
yer 1
ym 1
yman 1
yn 1
yn@@ 1
yoga 1
you@@ 1
yuan 1
z 1
ze 1
ze-@@ 1
zen 1
zer@@ 1
zers 1
zia 1
zo@@ 1
zone 1
zza 1
án@@ 1
ès 1
