, 11503
the 10186
. 9178
to 5340
of 5101
and 4902
a 4732
" 4389
in 4172
's 2098
that 1987
for 1827
The 1690
said 1649
on 1622
is 1519
was 1378
with 1365
as 1048
it 1048
at 1031
he 1030
by 964
be 946
from 939
) 920
( 916
have 891
his 818
are 815
I 814
$ 804
has 804
an 769
: 705
- 704
not 674
who 657
will 657
had 556
this 552
were 547
or 529
they 529
their 511
been 495
but 492
more 485
would 447
its 443
which 440
't 419
about 409
' 399
out 390
her 384
It 376
we 369
after 356
than 353
one 352
He 348
year 341
you 339
up 337
/ 328
also 319
she 312
In 309
can 302
But 300
people 298
two 293
all 290
other 282
-- 279
into 277
when 277
there 274
first 272
A 270
over 270
% 268
last 266
new 262
could 261
time 260
percent 257
million 251
years 236
? 224
so 220
if 219
some 219
what 218
New 214
him 214
no 206
them 206
; 197
We 194
like 192
just 190
only 190
do 188
Mr. 187
U.S. 183
most 181
our 179
And 176
2007 171
before 170
government 170
where 169
They 167
because 162
make 161
against 160
company 159
home 158
being 156
get 156
back 155
then 154
Iraq 153
made 152
now 152
three 152
through 151
any 150
down 150
told 150
such 149
says 147
my 145
did 144
week 144
1 140
way 140
day 139
many 138
off 137
including 136
even 133
should 132
take 132
going 131
police 131
work 131
well 130
10 129
man 129
since 129
those 129
York 128
how 128
say 128
This 127
between 126
country 126
may 126
still 125
United 122
president 122
former 121
much 121
during 120
four 120
under 118
while 118
your 118
go 117
around 115
state 115
world 115
2 114
don 114
me 114
next 113
very 113
2006 112
think 111
There 110
Wednesday 110
game 110
30 108
good 108
As 107
business 106
city 105
President 104
part 104
set 104
For 103
another 103
want 103
own 102
If 101
children 101
end 101
second 101
That 100
found 100
Mr 99
family 99
're 98
both 98
see 98
too 97
& 96
information 96
public 96
season 96
market 95
same 95
team 95
billion 94
top 94
Sunday 93
help 93
know 93
Thursday 92
called 92
got 92
group 92
American 91
US 91
expected 91
ing 91
officials 91
school 91
security 91
us 91
Tuesday 90
You 90
show 90
here 89
Bush 88
States 88
five 88
health 88
until 88
months 87
11 85
several 85
come 84
money 84
month 84
reported 84
Saturday 83
per 83
've 82
3 82
able 82
came 82
number 82
these 82
use 82
whether 82
Friday 81
Monday 81
She 81
left 81
military 81
20 80
4 80
Washington 80
case 80
ed 80
es 80
put 80
run 80
support 80
China 79
little 79
long 79
need 79
right 79
12 78
days 78
lead 78
night 78
best 77
high 77
report 77
statement 77
Quarter 76
point 76
5 75
At 75
early 75
s 75
six 75
third 75
used 75
North 74
better 74
political 74
took 74
war 74
according 73
away 73
later 73
members 73
news 73
place 73
play 73
AP 72
few 72
killed 72
never 72
'm 71
On 71
assets 71
again 70
chief 70
games 70
men 70
went 70
points 69
America 68
Iran 68
National 68
South 68
across 68
director 68
does 68
every 68
service 68
share 68
win 68
won 68
working 68
15 67
By 67
One 67
area 67
big 67
quarter 67
record 67
6 66
8 66
Sept 66
Total 66
deal 66
hit 66
http 66
loss 66
25 65
might 65
power 65
things 65
7 64
October 64
When 64
announced 64
campaign 64
i 64
income 64
look 64
prices 64
without 64
www.@@ 64
House 63
With 63
World 63
added 63
become 63
change 63
conference 63
didn 63
far 63
less 63
life 63
line 63
... 62
September 62
each 62
led 62
plan 62
plans 62
saying 62
John 61
Of 61
already 61
asked 61
available 61
companies 61
court 61
least 61
local 61
minutes 61
recent 61
start 61
today 61
trying 61
y 61
among 60
based 60
believe 60
car 60
find 60
often 60
really 60
something 60
50 59
His 59
To 59
financial 59
along 58
give 58
industry 58
party 58
private 58
2005 57
Department 57
ago 57
call 57
countries 57
enough 57
lot 57
system 57
Clinton 56
Minister 56
general 56
half 56
held 56
house 56
products 56
return 56
West 55
er 55
include 55
major 55
meeting 55
nuclear 55
oil 55
once 55
operations 55
past 55
Iraqi 54
University 54
behind 54
close 54
energy 54
forces 54
having 54
interest 54
leader 54
leading 54
problems 54
services 54
students 54
17 53
40 53
9 53
David 53
Inc 53
ation 53
cost 53
ended 53
likely 53
others 53
sales 53
All 52
Company 52
career 52
current 52
died 52
growth 52
head 52
international 52
law 52
price 52
weeks 52
women 52
£ 52
16 51
2008 51
different 51
ers 51
increase 51
issue 51
looking 51
lost 51
official 51
players 51
real 51
son 51
spokesman 51
young 51
State 50
While 50
continue 50
credit 50
free 50
hard 50
late 50
miles 50
music 50
o 50
program 50
thousands 50
13 49
14 49
O 49
White 49
attack 49
data 49
dollars 49
great 49
hours 49
making 49
office 49
why 49
British 48
always 48
earlier 48
future 48
keep 48
known 48
leaders 48
national 48
policy 48
recently 48
results 48
taken 48
though 48
troops 48
ts 48
yet 48
! 47
Police 47
average 47
began 47
economy 47
field 47
fight 47
near 47
wanted 47
whose 47
within 47
City 46
Some 46
ahead 46
care 46
control 46
due 46
food 46
open 46
sold 46
taking 46
thing 46
After 45
General 45
November 45
community 45
customers 45
decision 45
done 45
equity 45
face 45
fire 45
higher 45
important 45
net 45
person 45
received 45
released 45
strong 45
times 45
visit 45
About 44
England 44
Press 44
death 44
federal 44
following 44
legal 44
level 44
must 44
name 44
study 44
tax 44
2004 43
An 43
Bank 43
June 43
So 43
TV 43
age 43
capital 43
eight 43
executive 43
fell 43
global 43
morning 43
move 43
period 43
possible 43
provide 43
thought 43
ting 43
First 42
July 42
Times 42
What 42
clear 42
final 42
investment 42
key 42
media 42
series 42
space 42
video 42
18 41
Association 41
Group 41
Republican 41
Street 41
cut 41
full 41
land 41
live 41
markets 41
old 41
over@@ 41
red 41
showed 41
site 41
small 41
water 41
California 40
San 40
These 40
development 40
event 40
further 40
gave 40
himself 40
hope 40
large 40
latest 40
nation 40
pass 40
phone 40
process 40
region 40
research 40
rose 40
senior 40
seven 40
single 40
t 40
technology 40
woman 40
workers 40
'll 39
24 39
Americans 39
January 39
Pakistan 39
ate 39
ated 39
earnings 39
economic 39
ever 39
experience 39
failed 39
force 39
job 39
manager 39
pay 39
playing 39
position 39
running 39
21 38
31 38
Council 38
European 38
Oct. 38
agency 38
am 38
attacks 38
black 38
charges 38
costs 38
evidence 38
firm 38
history 38
leave 38
loans 38
mother 38
nearly 38
needed 38
quickly 38
rate 38
reports 38
safety 38
seen 38
sent 38
shot 38
side 38
statements 38
19 37
Brown 37
Court 37
India 37
My 37
Obama 37
al 37
book 37
charged 37
class 37
coming 37
de 37
feel 37
foreign 37
gas 37
getting 37
goal 37
investigation 37
member 37
production 37
role 37
room 37
shares 37
short 37
states 37
'd 36
90 36
Boston 36
County 36
France 36
No 36
administration 36
air 36
allowed 36
ations 36
bring 36
building 36
cases 36
debate 36
doesn 36
doing 36
expect 36
groups 36
id 36
management 36
patients 36
release 36
spent 36
wife 36
--- 35
0 35
100 35
22 35
August 35
Britain 35
Chicago 35
Democratic 35
Democrats 35
Giuliani 35
Ms. 35
Now 35
Other 35
Russia 35
_ 35
anything 35
article 35
biggest 35
bill 35
body 35
debt 35
given 35
kind 35
minister 35
officer 35
performance 35
played 35
situation 35
station 35
stop 35
summer 35
teams 35
try 35
turn 35
victory 35
wasn 35
winning 35
.com 34
26 34
Chinese 34
Dr. 34
From 34
George 34
Michael 34
Third 34
almost 34
ating 34
beat 34
fourth 34
heart 34
largest 34
match 34
newspaper 34
operating 34
presidential 34
project 34
question 34
rather 34
story 34
ted 34
turned 34
view 34
International 33
Korea 33
access 33
agreed 33
areas 33
arrested 33
cash 33
cause 33
compared 33
defense 33
election 33
helped 33
husband 33
increased 33
ings 33
interview 33
issues 33
organization 33
parents 33
potential 33
revenue 33
scheduled 33
started 33
together 33
trade 33
vote 33
wants 33
Africa 32
Congress 32
However 32
Musharraf 32
Senate 32
Two 32
Web 32
agreement 32
allow 32
appeared 32
center 32
cents 32
comes 32
commercial 32
contract 32
described 32
film 32
however 32
included 32
ist 32
medical 32
outside 32
paid 32
passed 32
peace 32
programs 32
rates 32
spending 32
television 32
test 32
yesterday 32
23 31
Europe 31
Financial 31
French 31
News 31
Prime 31
bit 31
chance 31
decided 31
football 31
hold 31
ine 31
involved 31
light 31
losses 31
ly 31
makes 31
matter 31
network 31
offer 31
officers 31
order 31
p 31
previous 31
round 31
sale 31
stay 31
ter 31
using 31
500 30
= 30
December 30
Health 30
How 30
Israeli 30
Last 30
London 30
Los 30
Party 30
Red 30
changes 30
course 30
dead 30
drug 30
e 30
example 30
forward 30
ground 30
k 30
lower 30
online 30
opportunity 30
opposition 30
probably 30
problem 30
range 30
risk 30
stage 30
success 30
tell 30
town 30
training 30
weapons 30
80 29
Angeles 29
April 29
Bhutto 29
District 29
Interest 29
March 29
Not 29
Sh@@ 29
Three 29
Wall 29
action 29
coach 29
common 29
gone 29
hand 29
homes 29
hospital 29
moving 29
nothing 29
product 29
related 29
result 29
rights 29
rule 29
social 29
someone 29
themselves 29
value 29
vice 29
yards 29
2001 28
Associated 28
Average 28
Center 28
Internet 28
Net 28
No. 28
Palestinian 28
R 28
Research 28
Second 28
accused 28
adding 28
authorities 28
bad 28
board 28
border 28
broke 28
buy 28
comment 28
complete 28
concerns 28
conditions 28
date 28
education 28
employees 28
expenses 28
fall 28
focus 28
funds 28
human 28
jobs 28
knew 28
prime 28
reach 28
ruling 28
runs 28
scored 28
serious 28
signed 28
strike 28
talks 28
watch 28
Afghanistan 27
Cup 27
East 27
Iowa 27
Jones 27
Mexico 27
More 27
Romney 27
Security 27
Sen. 27
UK 27
ability 27
above 27
ad 27
audience 27
became 27
benefit 27
break 27
candidate 27
cities 27
ding 27
disease 27
drive 27
efforts 27
equipment 27
everyone 27
everything 27
expense 27
father 27
fighting 27
impact 27
meet 27
met 27
mortgage 27
particularly 27
pressure 27
remain 27
seems 27
selling 27
soldiers 27
speak 27
standing 27
starting 27
strategy 27
trading 27
violence 27
white 27
words 27
wrote 27
2002 26
Israel 26
Johnson 26
Paris 26
Park 26
Post 26
Russian 26
Thomas 26
banks 26
beginning 26
built 26
calls 26
child 26
details 26
dis@@ 26
forced 26
front 26
hundreds 26
inside 26
list 26
regional 26
remains 26
response 26
sell 26
soon 26
special 26
spokeswoman 26
takes 26
talk 26
toward 26
treatment 26
voters 26
60 25
C 25
Cleveland 25
James 25
League 25
Mike 25
Thompson 25
U.N. 25
addition 25
appear 25
believed 25
considered 25
create 25
demand 25
despite 25
felt 25
giving 25
heard 25
housing 25
idea 25
investors 25
kept 25
leaving 25
liabilities 25
living 25
main 25
movie 25
opened 25
planned 25
player 25
primary 25
race 25
returned 25
scene 25
shows 25
significant 25
student 25
supporters 25
sure 25
surgery 25
systems 25
taxes 25
terms 25
tried 25
whole 25
wide 25
works 25
2003 24
According 24
Baghdad 24
Central 24
May 24
Ministry 24
Open 24
Our 24
People 24
Service 24
Since 24
Union 24
[ 24
] 24
a.m 24
anyone 24
ar 24
cancer 24
carried 24
coalition 24
competition 24
damage 24
fact 24
families 24
followed 24
friend 24
girl 24
immediately 24
includes 24
lack 24
lives 24
majority 24
north 24
out@@ 24
personal 24
provided 24
quite 24
road 24
sense 24
ship 24
software 24
staff 24
store 24
total 24
trial 24
under@@ 24
victims 24
ways 24
16@@ 23
27 23
Although 23
Energy 23
Income 23
Mark 23
Mc@@ 23
McCain 23
Myanmar 23
Nov. 23
Office 23
Richard 23
SOURCE 23
Then 23
attention 23
ball 23
candidates 23
card 23
content 23
continued 23
daughter 23
division 23
dollar 23
fans 23
feet 23
fully 23
gets 23
index 23
joint 23
le 23
loan 23
low 23
murder 23
property 23
step 23
stock 23
title 23
traffic 23
unit 23
.. 22
200 22
29 22
35 22
45 22
70 22
Also 22
E 22
Edwards 22
Federal 22
Inc. 22
Is 22
Many 22
Prince 22
Robert 22
Scotland 22
Simpson 22
Texas 22
Tony 22
Williams 22
accounts 22
ally 22
although 22
art 22
ates 22
b 22
bank 22
base 22
bomb 22
brought 22
certain 22
challenge 22
charge 22
club 22
college 22
commander 22
consumers 22
couple 22
either 22
emergency 22
environmental 22
estate 22
governor 22
hotel 22
items 22
legislation 22
maker 22
margin 22
measures 22
message 22
n 22
needs 22
numbers 22
offered 22
parts 22
prison 22
profit 22
raised 22
read 22
recalled 22
rising 22
rules 22
schools 22
seemed 22
serve 22
talking 22
term 22
worked 22
28 21
36 21
4.@@ 21
Al 21
Conference 21
Germany 21
Giants 21
Hampshire 21
King 21
Royal 21
Scottish 21
Smith 21
Supreme 21
Those 21
Western 21
acting 21
afternoon 21
approach 21
approximately 21
cars 21
chairman 21
committee 21
computer 21
contact 21
d 21
department 21
effect 21
en 21
fiscal 21
fun 21
growing 21
healthy 21
hearing 21
hour 21
huge 21
ic 21
ies 21
illegal 21
improve 21
incident 21
killing 21
limited 21
looked 21
m 21
missed 21
mobile 21
named 21
nine 21
overall 21
planning 21
poor 21
popular 21
practice 21
pretty 21
progress 21
quality 21
reason 21
rebels 21
reduce 21
reporters 21
secretary 21
seeing 21
seem 21
served 21
similar 21
sites 21
spend 21
spoke 21
terrorist 21
testing 21
thescotsman.scotsman.com 21
tickets 21
voice 21
written 21
* 20
47 20
Air 20
Aug. 20
Earlier 20
Florida 20
Justice 20
Most 20
Paul 20
Per@@ 20
Petraeus 20
S 20
St. 20
Today 20
UPI 20
act 20
additional 20
address 20
affected 20
als 20
ant 20
approved 20
attorney 20
boy 20
c 20
conducted 20
contributed 20
crash 20
crime 20
develop 20
difference 20
difficult 20
drinking 20
drugs 20
ds 20
effort 20
else 20
eyes 20
factors 20
figures 20
finance 20
goals 20
guard 20
happen 20
happened 20
happy 20
let 20
letter 20
levels 20
losing 20
material 20
minute 20
mostly 20
ner 20
offers 20
opening 20
original 20
parties 20
perhaps 20
plant 20
press 20
records 20
residents 20
seeking 20
simply 20
speech 20
stand 20
successful 20
telling 20
threat 20
tions 20
travel 20
watching 20
weekend 20
writers 20
y-@@ 20
2000 19
33 19
Army 19
BBC 19
Both 19
Commission 19
During 19
English 19
Even 19
Gordon 19
Her 19
Institute 19
Iranian 19
Korean 19
L 19
Microsoft 19
Rock 19
T 19
UN 19
activities 19
amid 19
annual 19
armed 19
arrest 19
ask 19
asking 19
begin 19
benefits 19
cannot 19
cast 19
cent 19
claims 19
closed 19
comments 19
confirmed 19
consumer 19
currently 19
declined 19
der 19
discuss 19
district 19
drop 19
ent 19
est 19
evening 19
events 19
fired 19
friends 19
g 19
h 19
independent 19
insurance 19
intelligence 19
issued 19
judge 19
kids 19
largely 19
lawyers 19
league 19
measure 19
ordered 19
protect 19
questions 19
represents 19
shop 19
sign 19
sought 19
street 19
th 19
tic 19
ties 19
traditional 19
train 19
warned 19
website 19
writer 19
15@@ 18
2-@@ 18
42 18
65 18
African 18
Arab 18
Bill 18
Blackwater 18
Christmas 18
Colorado 18
Committee 18
Craig 18
Day 18
Despite 18
Exchange 18
Fourth 18
German 18
Japan 18
Northern 18
Services 18
Still 18
Sudan 18
Taliban 18
Their 18
Turkey 18
WASHINGTON 18
accepted 18
advertising 18
aged 18
airline 18
announcement 18
ans 18
army 18
ary 18
author 18
battle 18
beyond 18
bus 18
carry 18
caused 18
cell 18
central 18
church 18
civilian 18
conservative 18
core 18
county 18
criminal 18
deposits 18
dropped 18
ensure 18
entire 18
especially 18
exchange 18
filed 18
finished 18
foot 18
grew 18
holding 18
hurt 18
ia 18
injuries 18
larger 18
longer 18
meetings 18
mission 18
moment 18
movement 18
natural 18
negotiations 18
non-@@ 18
northern 18
p.m 18
politics 18
produced 18
professional 18
providing 18
province 18
ran 18
regular 18
relations 18
relationship 18
responsible 18
rest 18
sanctions 18
score 18
serving 18
sex 18
shooting 18
simple 18
size 18
sometimes 18
source 18
south 18
star 18
stores 18
straight 18
suspect 18
table 18
throughout 18
visitors 18
wearing 18
worldwide 18
yard 18
1,000 17
10@@ 17
3-@@ 17
3.@@ 17
Another 17
CNN 17
Corporation 17
D 17
Former 17
Home 17
Hospital 17
Joe 17
Ltd 17
Meanwhile 17
NEW 17
Reuters 17
School 17
Steve 17
Time 17
Was 17
Yet 17
actions 17
activity 17
actually 17
airport 17
animals 17
attempt 17
attended 17
born 17
build 17
businesses 17
changed 17
citizens 17
civil 17
claimed 17
commission 17
connection 17
couldn 17
critical 17
crude 17
decades 17
deep 17
delivery 17
developing 17
double 17
easy 17
el 17
elections 17
facing 17
gain 17
greater 17
guards 17
high-@@ 17
hopes 17
hot 17
injured 17
instead 17
itself 17
join 17
keeping 17
launch 17
launched 17
les 17
lived 17
love 17
missing 17
noted 17
owner 17
paper 17
partners 17
pitch 17
population 17
push 17
ready 17
relatively 17
review 17
rise 17
scale 17
search 17
separate 17
sort 17
streets 17
style 17
suffered 17
suicide 17
t-@@ 17
tangible 17
tests 17
trip 17
twice 17
two-@@ 17
understand 17
union 17
university 17
uses 17
vehicles 17
winner 17
wrong 17
17@@ 16
18@@ 16
48 16
7.@@ 16
74 16
Act 16
Arizona 16
Asian 16
Canada 16
Carolina 16
Chief 16
Chris 16
College 16
Fed 16
Foreign 16
Gen. 16
Har@@ 16
High 16
Hillary 16
Islamic 16
Let 16
Moscow 16
Ms 16
Over 16
Philadelphia 16
Road 16
Secretary 16
Several 16
War 16
X 16
YORK 16
Yankees 16
account 16
advantage 16
al-@@ 16
analysts 16
appears 16
avoid 16
baby 16
blood 16
budget 16
co-@@ 16
committed 16
concerned 16
condition 16
construction 16
corporate 16
council 16
created 16
deputy 16
devices 16
digital 16
direct 16
driver 16
earned 16
east 16
ending 16
environment 16
era 16
expectations 16
floor 16
forward-looking 16
ge 16
goes 16
hands 16
haven 16
hear 16
helping 16
hits 16
holiday 16
host 16
ics 16
ill 16
injury 16
institutions 16
intangible 16
ks 16
lawyer 16
ley 16
limit 16
looks 16
mark 16
matters 16
mayor 16
means 16
ment 16
model 16
none 16
normal 16
ons 16
operation 16
owners 16
park 16
partner 16
passengers 16
policies 16
present 16
projects 16
proposed 16
protest 16
protests 16
pulled 16
qna 16
refused 16
request 16
require 16
required 16
rich 16
risks 16
roughly 16
scientists 16
securities 16
shopping 16
solutions 16
sound 16
southern 16
standard 16
storm 16
suggested 16
super@@ 16
target 16
teacher 16
ters 16
tour 16
ty 16
users 16
usually 16
ve 16
waiting 16
warning 16
whom 16
worried 16
worst 16
worth 16
z 16
14@@ 15
1999 15
4,@@ 15
7,@@ 15
75 15
Afghan 15
Anderson 15
Australia 15
Beijing 15
Bob 15
Business 15
Car@@ 15
Club 15
Development 15
Diego 15
Good 15
Huckabee 15
INC 15
Its 15
M 15
Maryland 15
Medical 15
Middle 15
Nations 15
Ohio 15
Patriots 15
Public 15
Republic 15
River 15
Stephen 15
Tom 15
Us 15
Virginia 15
achieve 15
active 15
advance 15
album 15
alone 15
ator 15
attacked 15
basis 15
bed 15
buildings 15
car@@ 15
century 15
climate 15
complex 15
continues 15
coverage 15
crisis 15
deaths 15
declared 15
design 15
directly 15
discussed 15
doctor 15
doctors 15
domestic 15
door 15
driving 15
dy 15
earning 15
ess 15
estimated 15
experts 15
extra 15
ey 15
fear 15
focused 15
fresh 15
fund 15
girls 15
heads 15
highly 15
image 15
immigration 15
industrial 15
innings 15
intended 15
isn 15
l 15
marketing 15
mean 15
militants 15
offering 15
organizations 15
places 15
poll 15
profits 15
ps 15
published 15
radio 15
reached 15
receive 15
replace 15
save 15
saw 15
se 15
seized 15
setting 15
spot 15
status 15
struck 15
sub@@ 15
supply 15
supporting 15
suspended 15
toys 15
truck 15
truth 15
u 15
various 15
vast 15
venture 15
ves 15
via 15
willing 15
-based 14
-year-old 14
00 14
1,0@@ 14
12,@@ 14
1997 14
2.@@ 14
300 14
34 14
37 14
49 14
52 14
67 14
800 14
85 14
Ac@@ 14
Agency 14
Bay 14
Blair 14
Board 14
Can 14
Carter 14
Chairman 14
Citigroup 14
Defense 14
Don 14
FBI 14
Fatah 14
Go@@ 14
Google 14
Government 14
Hamas 14
Henry 14
Here 14
Hill 14
Investment 14
Island 14
Jo@@ 14
Matt 14
Mer@@ 14
Republicans 14
Rights 14
Ryan 14
Scott 14
Soviet 14
Writer 14
Y 14
actor 14
actual 14
agent 14
ages 14
aggressive 14
aid 14
aimed 14
alleged 14
allows 14
amount 14
ard 14
believes 14
block 14
bodies 14
books 14
bottom 14
brand 14
clearly 14
concern 14
considering 14
continuing 14
daily 14
decide 14
decline 14
defending 14
denied 14
deposit 14
determined 14
developed 14
dies 14
direction 14
driven 14
elected 14
elsewhere 14
entertainment 14
entirely 14
euro 14
exercise 14
faced 14
faces 14
fellow 14
fifth 14
filled 14
flights 14
fly 14
form 14
founder 14
green 14
grow 14
heavily 14
heavy 14
improved 14
individual 14
influence 14
ity 14
joined 14
jury 14
language 14
leadership 14
ler 14
memory 14
mid-@@ 14
mind 14
mine 14
ned 14
older 14
one-@@ 14
owned 14
patient 14
playoffs 14
port 14
positive 14
posted 14
prepared 14
presence 14
prevent 14
provides 14
purchase 14
pushed 14
religious 14
res 14
researchers 14
resolution 14
resources 14
retail 14
ring 14
s-@@ 14
schedule 14
seconds 14
secret 14
secure 14
skills 14
specific 14
speed 14
sports 14
spread 14
stations 14
thinking 14
ton 14
tough 14
tournament 14
track 14
treated 14
vehicle 14
votes 14
w 14
wait 14
walk 14
writing 14
07 13
2009 13
38 13
44 13
68 13
68@@ 13
ABC 13
Ad@@ 13
Analysts 13
Are 13
Asia 13
Australian 13
Authorities 13
BANKS 13
Bar@@ 13
Ben 13
Black 13
CEO 13
COMMUNITY 13
Cash 13
Charles 13
Christian 13
Darfur 13
Davis 13
Del@@ 13
Executive 13
F 13
Fiscal 13
Force 13
Ford 13
Green 13
Gu@@ 13
Insight 13
Italian 13
Japanese 13
Just 13
Latin 13
Like 13
Ma@@ 13
Manchester 13
Massachusetts 13
Mets 13
Minnesota 13
New@@ 13
Notes 13
Orleans 13
P 13
PRNewswire-FirstCall 13
Peter 13
Rice 13
Rodriguez 13
SEPTEMBER 13
SUBSIDIARIES 13
Se@@ 13
Sir 13
Staff 13
Su@@ 13
Tehran 13
Wales 13
Warner 13
accept 13
acquisition 13
adults 13
advice 13
affairs 13
affect 13
analyst 13
announce 13
answer 13
anti-@@ 13
below 13
bid 13
bought 13
broken 13
cable 13
camera 13
camp 13
ce 13
centre 13
championship 13
changing 13
check 13
coast 13
colleagues 13
command 13
communities 13
compete 13
consider 13
contest 13
cover 13
criticized 13
cuts 13
deals 13
designed 13
documents 13
effects 13
established 13
estimates 13
eye 13
fair 13
fashion 13
favor 13
finding 13
firms 13
flight 13
forecast 13
fuel 13
futures 13
ged 13
grand 13
guy 13
helps 13
highest 13
hole 13
hoped 13
ie 13
increases 13
increasingly 13
individuals 13
jail 13
kill 13
laws 13
ling 13
link 13
listen 13
machine 13
magazine 13
mass 13
meaning 13
meant 13
millions 13
ms 13
occurred 13
ors 13
ous 13
overseas 13
pair 13
permission 13
personnel 13
piece 13
plants 13
please 13
politicians 13
polls 13
post 13
produce 13
protection 13
reality 13
recorded 13
reflect 13
remember 13
remove 13
reputation 13
ry 13
sat 13
seat 13
self-@@ 13
settlement 13
shots 13
shut 13
signs 13
sixth 13
starts 13
steps 13
stood 13
strategic 13
streak 13
threatened 13
tive 13
trans@@ 13
upon 13
walked 13
wall 13
wild 13
work@@ 13
x 13
younger 13
ys 13
zone 13
,000 12
100,000 12
150 12
24@@ 12
32 12
55 12
6,@@ 12
7-@@ 12
71 12
72 12
8,@@ 12
88@@ 12
9.@@ 12
@ 12
AL 12
Am@@ 12
Apple 12
B 12
Balance 12
Barack 12
Because 12
Bell 12
Brazil 12
Bu@@ 12
Calif 12
Chavez 12
Copyright 12
Cor@@ 12
D. 12
Dec. 12
Democrat 12
Director 12
Do@@ 12
Each 12
Foundation 12
Francisco 12
Frank 12
Gaza 12
Gov. 12
Hall 12
Hollywood 12
Houston 12
Indian 12
Indonesia 12
Interior 12
Irish 12
Jackson 12
Jim 12
Jordan 12
Journal 12
Lake 12
Lewis 12
Loans 12
Major 12
Martin 12
Mor@@ 12
Mrs. 12
Museum 12
Muslim 12
Muslims 12
Network 12
Once 12
Phil 12
Prize 12
Putin 12
Sal@@ 12
Sheriff 12
Sox 12
Turkish 12
Under 12
Vegas 12
Vietnam 12
Well 12
Why 12
accident 12
ads 12
aircraft 12
alive 12
allegations 12
appeal 12
appearance 12
aren 12
arm 12
assault 12
assistance 12
assistant 12
backing 12
balance 12
banking 12
bar@@ 12
barrel 12
ber 12
bigger 12
ble 12
boost 12
box 12
bridge 12
bringing 12
calling 12
cap@@ 12
carbon 12
carrying 12
causing 12
certainly 12
ch 12
chosen 12
clients 12
cold 12
collection 12
computers 12
conflict 12
count 12
covered 12
crew 12
discussion 12
dismissed 12
doubt 12
easier 12
effective 12
engineering 12
expand 12
expects 12
expensive 12
features 12
figure 12
fine 12
finish 12
fit 12
follow 12
gains 12
gold 12
guilty 12
ice 12
identify 12
increasing 12
index.cfm 12
internal 12
introduced 12
involvement 12
island 12
ism 12
journalist 12
ke 12
kick 12
km 12
learn 12
letters 12
lines 12
long-@@ 12
minus 12
miss 12
mortgages 12
nearby 12
ones 12
onto 12
option 12
options 12
ourselves 12
passing 12
paying 12
penalty 12
pictures 12
plane 12
powerful 12
promise 12
prosecutors 12
putting 12
quarterback 12
raise 12
reading 12
reduction 12
regarding 12
reporting 12
responsibility 12
restaurant 12
row 12
scientific 12
screen 12
senator 12
sentenced 12
shown 12
sit 12
squad 12
stories 12
strength 12
studio 12
summit 12
survey 12
suspects 12
tackle 12
tools 12
touchdown 12
turns 12
typically 12
um 12
unique 12
utility 12
version 12
veto 12
weak 12
wear 12
weather 12
weight 12
west 12
wounded 12
ying 12
10,000 11
13,@@ 11
1994 11
1995 11
20-@@ 11
27@@ 11
39 11
4-@@ 11
51 11
53 11
54 11
56 11
6-@@ 11
62 11
69 11
78 11
8-@@ 11
Alan 11
Ali 11
Andrew 11
Andy 11
Baltimore 11
Bel@@ 11
Bowl 11
Bryant 11
CBS 11
Canadian 11
Chelsea 11
Co 11
Col@@ 11
Country 11
Daily 11
Deputy 11
Dis@@ 11
Dow 11
Du@@ 11
Dubai 11
EU 11
Four 11
Fox 11
GOP 11
Gonzales 11
Goodwill 11
Gulf 11
Ian 11
Illinois 11
Indians 11
Ireland 11
J. 11
Jersey 11
Joseph 11
K 11
Kennedy 11
Kevin 11
Kyi 11
L. 11
La@@ 11
Las 11
Lo@@ 11
Man 11
Mayor 11
Miller 11
Mitt 11
NFL 11
Olmert 11
Or@@ 11
Pal@@ 11
Products 11
Radio 11
Said 11
Series 11
Sha@@ 11
Southern 11
Spanish 11
Sunni 11
Suu 11
Syria 11
Thailand 11
Torre 11
Tri@@ 11
Will 11
William 11
Year 11
a.m. 11
acts 11
agenda 11
agents 11
air@@ 11
alcohol 11
allowing 11
alternative 11
and-@@ 11
applications 11
argue 11
ars 11
artist 11
atmosphere 11
authority 11
aware 11
ban 11
basic 11
blue 11
breast 11
brother 11
buying 11
cards 11
catch 11
caught 11
chain 11
challenges 11
champion 11
choice 11
ck 11
client 11
closely 11
comparable 11
competitive 11
completed 11
consumption 11
controversial 11
conviction 11
criticism 11
cultural 11
cutting 11
declaration 11
ded 11
defensive 11
deliver 11
democracy 11
den 11
ders 11
discovered 11
dominated 11
drawn 11
drivers 11
easily 11
edge 11
electric 11
employee 11
ence 11
enforcement 11
entered 11
ently 11
ered 11
eventually 11
exactly 11
exciting 11
exile 11
expanding 11
experienced 11
explain 11
explosion 11
extreme 11
extremely 11
failing 11
feeling 11
films 11
findings 11
funding 11
gay 11
gives 11
goods 11
herself 11
homer 11
homers 11
ian 11
identified 11
images 11
immigrants 11
investigating 11
ised 11
king 11
knee 11
landmark 11
lawsuit 11
legs 11
lights 11
location 11
middle 11
mile 11
modern 11
moved 11
multiple 11
myself 11
names 11
nations 11
nationwide 11
non@@ 11
nonprofit 11
nor 11
note 11
obviously 11
offense 11
officially 11
os 11
package 11
panel 11
path 11
photographs 11
physical 11
pick 11
picture 11
plays 11
pleaded 11
pool 11
possibly 11
previously 11
producers 11
professor 11
prominent 11
prompted 11
ranked 11
reasons 11
rebounds 11
receiving 11
remained 11
remarks 11
respect 11
retired 11
retirement 11
rival 11
seats 11
seventh 11
shared 11
shareholders 11
shortly 11
sides 11
standards 11
stands 11
ste@@ 11
stocks 11
stress 11
studied 11
subject 11
sued 11
suggest 11
surprise 11
targets 11
telephone 11
tensions 11
ticket 11
tion 11
to-@@ 11
tomorrow 11
trouble 11
trucks 11
truly 11
trust 11
type 11
v 11
visited 11
walks 11
win@@ 11
winds 11
write 11
.org 10
1-@@ 10
10,@@ 10
11,@@ 10
11.@@ 10
13@@ 10
1988 10
20@@ 10
4,000 10
41 10
5-@@ 10
55@@ 10
58 10
6.@@ 10
64 10
86 10
95 10
AN@@ 10
Abdullah 10
Administration 10
Ahmadinejad 10
Alexander 10
Annual 10
Before 10
Book 10
Br@@ 10
Brian 10
Bro@@ 10
Cal@@ 10
Cha@@ 10
Clark 10
Columbia 10
Cre@@ 10
Dan 10
Dar@@ 10
Delta 10
Detroit 10
Diluted 10
Drew 10
Entertainment 10
February 10
Fire 10
Fo@@ 10
Forest 10
GAAP 10
Georgia 10
Gr@@ 10
Human 10
IC@@ 10
II 10
Iraqis 10
Italy 10
Judge 10
Kim 10
Kong 10
Later 10
Lebanon 10
Little 10
Louis 10
Mac@@ 10
Media 10
Michigan 10
Mukasey 10
NBC 10
Nick 10
Nobel 10
Only 10
Operating 10
Oregon 10
PRNewswire 10
Profile 10
Real 10
Reserve 10
Reserved 10
Rudy 10
Seattle 10
Securities 10
Show 10
Social 10
Special 10
Such 10
TM 10
Tim 10
Treasury 10
UAE 10
Up 10
Watch 10
Were 10
Who 10
Without 10
YouTube 10
Young 10
acknowledged 10
advanced 10
agree 10
alliance 10
anger 10
anniversary 10
apartment 10
argued 10
arms 10
artists 10
attempted 10
attend 10
attract 10
band 10
bases 10
beating 10
becomes 10
becoming 10
begins 10
bills 10
blamed 10
borrowers 10
boys 10
bre@@ 10
buses 10
can@@ 10
ces 10
chair 10
channel 10
choose 10
circumstances 10
cl@@ 10
claim 10
clean 10
climbing 10
clinical 10
closing 10
collapse 10
combination 10
commitment 10
contained 10
controls 10
convinced 10
courts 10
cra@@ 10
crowd 10
crucial 10
danger 10
deadly 10
delivered 10
des 10
detained 10
die 10
diet 10
differ 10
dog 10
down@@ 10
drink 10
drove 10
eat 10
eating 10
effectively 10
efficiency 10
electricity 10
elements 10
estimate 10
explained 10
expressed 10
facility 10
farm 10
fast 10
fatal 10
fears 10
fewer 10
firefighters 10
flow 10
forth 10
generally 10
ging 10
guide 10
gun 10
handed 10
hasn 10
hoping 10
iPhone 10
ical 10
immediate 10
inches 10
independence 10
indicated 10
indication 10
initially 10
initiative 10
insisted 10
investments 10
ists 10
judgment 10
justice 10
killings 10
leg 10
lies 10
links 10
located 10
long-term 10
maintain 10
manage 10
managed 10
managing 10
married 10
matching 10
maybe 10
minor 10
moral 10
mouth 10
museum 10
nature 10
neighborhood 10
new@@ 10
nomination 10
notice 10
offensive 10
offices 10
offset 10
operates 10
opportunities 10
p.m. 10
painful 10
parking 10
particular 10
percentage 10
plus 10
positions 10
powers 10
prior 10
prize 10
promote 10
proposal 10
provider 10
publicly 10
racing 10
raising 10
rare 10
receiver 10
reduced 10
referring 10
reform 10
registered 10
removed 10
repeatedly 10
rescue 10
river 10
rookie 10
rooms 10
ruled 10
sal@@ 10
sea 10
second-@@ 10
sector 10
sen 10
session 10
sexual 10
ships 10
sitting 10
smaller 10
society 10
soldier 10
solution 10
songs 10
spring 10
st 10
stone 10
stressed 10
structure 10
struggling 10
studies 10
subprime 10
supplies 10
supported 10
swe@@ 10
technologies 10
ten 10
terror 10
testimony 10
theme 10
throwing 10
thrown 10
tor@@ 10
towards 10
traded 10
uncertainties 10
unlikely 10
unusual 10
ure 10
urged 10
user 10
van 10
victim 10
volunteers 10
voted 10
walking 10
wedding 10
wing 10
wins 10
wonder 10
© 10
0.02 9
100@@ 9
12@@ 9
1998 9
2,9@@ 9
23@@ 9
27,@@ 9
49@@ 9
5,@@ 9
5.@@ 9
50@@ 9
57 9
83 9
88 9
9-@@ 9
94 9
96 9
99 9
AIDS 9
Alabama 9
Alex 9
Among 9
Arkansas 9
Art 9
Ba@@ 9
Basra 9
Ben@@ 9
Between 9
Broadway 9
Building 9
Bureau 9
Campbell 9
Capital 9
Challenge 9
Children 9
Corp 9
Corp. 9
Credit 9
Cross 9
D-@@ 9
D.C. 9
Da@@ 9
Dallas 9
De 9
Dutch 9
El@@ 9
Electric 9
Eric 9
Fe@@ 9
Following 9
Fred 9
Free 9
Games 9
Goldman 9
Gra@@ 9
Great 9
HIV 9
Hong 9
Howard 9
Information 9
Islam 9
Kurdish 9
Labor 9
Lee 9
Li@@ 9
Life 9
Live 9
Management 9
Market 9
Milan 9
Mount 9
N 9
Next 9
Or 9
Pacific 9
Ph@@ 9
Phoenix 9
Qaeda 9
Queen 9
Quote 9
Report 9
Retail 9
Robinson 9
Santa 9
Sharif 9
Shiite 9
Si@@ 9
Six 9
Ste@@ 9
Tennessee 9
Terry 9
Thanksgiving 9
Tour 9
Tra@@ 9
USA 9
Valley 9
Van 9
Whit@@ 9
aboard 9
aging 9
aides 9
ak 9
ality 9
all-@@ 9
allegedly 9
animal 9
anyway 9
approached 9
associated 9
attorneys 9
banned 9
barely 9
bas@@ 9
behavior 9
bin 9
blast 9
blocked 9
blog 9
bra@@ 9
breaks 9
bri@@ 9
brings 9
campaigns 9
captain 9
casino 9
cat@@ 9
ceremony 9
character 9
civilians 9
closer 9
code 9
combat 9
comfortable 9
commissioner 9
communications 9
complaints 9
completely 9
conc@@ 9
confidence 9
cor@@ 9
corruption 9
counts 9
cr@@ 9
creating 9
critics 9
custody 9
customer 9
decisions 9
detention 9
directed 9
divisions 9
dozen 9
dozens 9
duty 9
earn 9
emerged 9
enter 9
ethanol 9
ethnic 9
euros 9
excited 9
expansion 9
expert 9
fail 9
failure 9
falling 9
famous 9
farmers 9
feels 9
female 9
finally 9
flag 9
fled 9
foundation 9
fraud 9
ful 9
gained 9
gasoline 9
gathered 9
ges 9
giant 9
governing 9
greatest 9
happens 9
harder 9
hat 9
headed 9
heading 9
headquarters 9
hired 9
hospitals 9
ideas 9
imagine 9
impressive 9
in-@@ 9
inning 9
ins 9
insurgents 9
interest-bearing 9
interested 9
interests 9
investor 9
ish 9
jet 9
ked 9
label 9
lawmakers 9
leads 9
likes 9
lined 9
linked 9
longtime 9
lose 9
ma 9
mail 9
male 9
managers 9
manufacturers 9
mar@@ 9
mention 9
ments 9
messages 9
milk 9
minimum 9
ministers 9
minority 9
monks 9
mounted 9
movements 9
multi-@@ 9
ne 9
negative 9
neither 9
nice 9
ninth 9
novel 9
oc@@ 9
on-@@ 9
operate 9
opposite 9
orders 9
ously 9
paint 9
participants 9
payment 9
performed 9
phones 9
pink 9
planes 9
platform 9
playoff 9
plea 9
pleased 9
plenty 9
portion 9
postseason 9
potentially 9
prisoners 9
pro-@@ 9
producer 9
programme 9
promised 9
properly 9
prove 9
provision 9
pun@@ 9
questioning 9
quoted 9
rally 9
re 9
recall 9
recommended 9
regard 9
regime 9
regions 9
rejected 9
remaining 9
replaced 9
requires 9
residential 9
respond 9
responded 9
returning 9
revenues 9
ride 9
riding 9
routine 9
safe 9
satellite 9
savings 9
section 9
sentence 9
sentencing 9
sets 9
shape 9
sharing 9
sharp 9
sing 9
sister 9
sli@@ 9
soft 9
sources 9
species 9
square 9
ster 9
stuff 9
supposed 9
sw@@ 9
talent 9
te 9
tells 9
temporary 9
tens 9
terrorism 9
tested 9
transport 9
traveling 9
tree 9
tries 9
unable 9
understood 9
units 9
up@@ 9
update 9
videos 9
village 9
virus 9
vital 9
walls 9
warming 9
waste 9
weapon 9
welcome 9
western 9
wouldn 9
0,000 8
0-1 8
1,7@@ 8
1-2 8
11-@@ 8
120 8
13.@@ 8
14-@@ 8
1980s 8
1996 8
2,5@@ 8
2-0 8
2012 8
22,@@ 8
23,@@ 8
250 8
26@@ 8
29@@ 8
3,7@@ 8
3,9@@ 8
30-@@ 8
34@@ 8
35@@ 8
4,8@@ 8
43 8
63 8
66 8
700 8
75@@ 8
87 8
9,@@ 8
AL@@ 8
Adam 8
Airport 8
Ambassador 8
Anna 8
Anthony 8
Ap@@ 8
Argentina 8
Atlanta 8
Atlantic 8
Aung 8
Avenue 8
B. 8
Ban 8
Beach 8
Benazir 8
Big 8
Bl@@ 8
Bur@@ 8
CO@@ 8
Cameron 8
Catholic 8
Championship 8
Che@@ 8
Chrysler 8
Church 8
Consumer 8
Control 8
Core 8
Dan@@ 8
Daniel 8
Den@@ 8
Deposits 8
Diana 8
Do 8
Dr 8
Earnings 8
Edinburgh 8
Emirates 8
FDA 8
Family 8
Gar@@ 8
Garden 8
Global 8
Go 8
Golden 8
Grand 8
H 8
Ha@@ 8
Had 8
Harry 8
Has 8
Holdings 8
Hu@@ 8
Hunter 8
Hussein 8
Instead 8
Is@@ 8
Jose 8
Kansas 8
Keith 8
Kerry 8
Khan 8
LONDON 8
LOS 8
Land@@ 8
Larry 8
Light 8
Lilly 8
Local 8
Louisiana 8
Love 8
Lu@@ 8
Marine 8
McCann 8
McLaren 8
Mel@@ 8
Memphis 8
Men 8
Merrill 8
Miami 8
Mississippi 8
Mitchell 8
Mohammed 8
Montgomery 8
Mrs 8
Mu@@ 8
Much 8
Mur@@ 8
Murphy 8
My@@ 8
Nasdaq 8
Officer 8
Olympics 8
Pan@@ 8
Pennsylvania 8
Pentagon 8
Portugal 8
Powell 8
Q 8
Resources 8
Rio 8
Roberts 8
Rodham 8
Safety 8
Sales 8
Sarkozy 8
Saudi 8
Senator 8
Seven 8
So@@ 8
Sony 8
Sur@@ 8
Sweden 8
TD 8
Tar@@ 8
Taylor 8
Tech 8
Town 8
Trade 8
Utah 8
Very 8
Vick 8
Vladimir 8
We@@ 8
Whatever 8
Win@@ 8
Woods 8
Workers 8
abroad 8
absolutely 8
accounting 8
acted 8
actress 8
admitted 8
adopted 8
advised 8
afford 8
aim 8
airports 8
allies 8
ana 8
analysis 8
ants 8
approval 8
arrived 8
asset 8
auction 8
audio 8
aw@@ 8
back@@ 8
bail 8
bar 8
birth 8
blame 8
blessing 8
bling 8
bloc 8
bound 8
brands 8
brief 8
burned 8
cameras 8
camps 8
capable 8
captured 8
characters 8
checking 8
ched 8
chocolate 8
cited 8
claiming 8
classic 8
combined 8
compensation 8
competing 8
completion 8
comprehensive 8
conduct 8
contains 8
cooperation 8
corner 8
coup 8
creative 8
crimes 8
cross 8
crowds 8
currency 8
da 8
dance 8
dangerous 8
dark 8
debut 8
dec@@ 8
decrease 8
dedicated 8
def@@ 8
defeated 8
deficit 8
degrees 8
democratic 8
differences 8
diplomatic 8
directors 8
disappointed 8
dogs 8
downtown 8
dra@@ 8
draw 8
drew 8
dry 8
e-mail 8
eastern 8
eighth 8
emotional 8
enable 8
equivalent 8
er-@@ 8
ering 8
everybody 8
except 8
executives 8
fac@@ 8
fair@@ 8
faith 8
fallen 8
fees 8
fied 8
fighter 8
five-@@ 8
follows 8
foods 8
ford 8
formed 8
founded 8
freedom 8
frequently 8
friendly 8
gar@@ 8
governments 8
guns 8
guys 8
handle 8
handled 8
harm 8
highway 8
hire 8
historic 8
honest 8
honor 8
houses 8
hunt 8
ile 8
immigrant 8
implement 8
improvement 8
inflation 8
inj@@ 8
invited 8
ise 8
ities 8
jets 8
ker 8
knowledge 8
knows 8
labor 8
lands 8
learning 8
lenders 8
length 8
locations 8
lots 8
low-@@ 8
marked 8
marks 8
mentioned 8
midnight 8
militant 8
ministry 8
mph 8
multi@@ 8
necessary 8
ness 8
newly 8
notes 8
objects 8
of-@@ 8
off-@@ 8
ongoing 8
opponent 8
opponents 8
opposed 8
otherwise 8
outlook 8
outstanding 8
overnight 8
ownership 8
pain 8
parliament 8
passes 8
payments 8
penalties 8
periods 8
permanent 8
photos 8
picked 8
pieces 8
ple@@ 8
plot 8
practices 8
pre-@@ 8
preliminary 8
premium 8
primarily 8
proceeds 8
proof 8
prosecutor 8
proved 8
pull 8
purpose 8
quiet 8
quit 8
ra 8
raid 8
rain 8
ranks 8
realize 8
realized 8
recovery 8
reducing 8
regulated 8
relationships 8
relief 8
rent 8
replacement 8
represent 8
representing 8
requirements 8
reserve 8
resort 8
restore 8
restrictions 8
retailer 8
retailers 8
school@@ 8
scoring 8
seek 8
sees 8
send 8
settle 8
severe 8
shift 8
showing 8
singer 8
singles 8
sive 8
slightly 8
smoking 8
so-called 8
sounds 8
speaking 8
spots 8
stars 8
stolen 8
stroke 8
subsidiaries 8
survive 8
symbol 8
teachers 8
tennis 8
tension 8
thin 8
threw 8
tied 8
tly 8
tool 8
touch 8
touchdowns 8
true 8
ultimately 8
unexpected 8
universal 8
universities 8
unknown 8
urban 8
ve@@ 8
veteran 8
viewers 8
views 8
ving 8
virtual 8
vision 8
voting 8
watchdog 8
widespread 8
winter 8
wish 8
witness 8
witnesses 8
worry 8
youth 8
ze 8
+ 7
01 7
04 7
1,3@@ 7
1.5 7
10-@@ 7
18-@@ 7
19.@@ 7
1989 7
1992 7
2,7@@ 7
20.@@ 7
24,@@ 7
26,@@ 7
27.@@ 7
3,000 7
3-1 7
400 7
58@@ 7
600 7
61 7
650 7
7,000 7
7,7@@ 7
7.11 7
75,260 7
76 7
79 7
8.@@ 7
81 7
84 7
89 7
95@@ 7
A. 7
ABN 7
AND 7
ANGELES 7
Abbas 7
Abu 7
Across 7
Adams 7
Airlines 7
Al-@@ 7
Alliance 7
Any 7
Asked 7
Back 7
Barry 7
Bernanke 7
Best 7
Black@@ 7
Bri@@ 7
CH@@ 7
CI@@ 7
CIA 7
Cabinet 7
Call 7
Castro 7
Centers 7
Cincinnati 7
Cl@@ 7
Co. 7
Coalition 7
Commercial 7
Cri@@ 7
Cro@@ 7
DNA 7
DVDs 7
Defence 7
Denver 7
Design 7
Dick 7
Disney 7
Division 7
Dra@@ 7
E. 7
ET 7
Early 7
Earth 7
Eastern 7
Economic 7
Facebook 7
Far@@ 7
Farm 7
Fla 7
Football 7
Fortune 7
Fre@@ 7
GM 7
Game 7
God 7
Graham 7
Ham@@ 7
Hamilton 7
Han@@ 7
Harris 7
Hawaii 7
Hezbollah 7
Hughes 7
IAEA 7
IBM 7
IS@@ 7
Ill 7
Je@@ 7
Jesse 7
Jewish 7
Julie 7
Kabul 7
Kar@@ 7
Karzai 7
Kate 7
Kingdom 7
Laden 7
Lakers 7
Land 7
Law 7
Long 7
Long-term 7
MP 7
MTV 7
Mah@@ 7
Mal@@ 7
Manning 7
Mary 7
Mass 7
Mat@@ 7
Merger 7
Missouri 7
Mobile 7
Morgan 7
Murray 7
Music 7
N.Y. 7
NET 7
Nation 7
None 7
OF 7
Oil 7
Olympic 7
Others 7
Out@@ 7
PKK 7
Paid 7
Pakistani 7
Palestinians 7
Pet@@ 7
Peterson 7
Philip 7
Poor 7
Portuguese 7
Pri@@ 7
Private 7
Reagan 7
Rep. 7
Ri@@ 7
Rock@@ 7
Rockies 7
Ron 7
Rooney 7
Ru@@ 7
SEC 7
Saint 7
Schumer 7
Scotsman 7
Seoul 7
Society 7
Sources 7
Spain 7
Stadium 7
Standard 7
Stockholders 7
Stone 7
Storm 7
Sun 7
Super@@ 7
Susan 7
Sydney 7
System 7
Te@@ 7
Television 7
Though 7
Through 7
Tigers 7
Tokyo 7
Toronto 7
Travel 7
Unlike 7
Venezuelan 7
Vice 7
W 7
W. 7
War@@ 7
Where 7
Wood 7
Would 7
Yangon 7
Yo@@ 7
abuse 7
accord 7
achieved 7
adult 7
afraid 7
agencies 7
agreements 7
ah 7
aims 7
airlines 7
al-Qaida 7
amounts 7
ance 7
answers 7
anti@@ 7
anticipate 7
aries 7
arrive 7
associate 7
association 7
asthma 7
ately 7
ats 7
attributed 7
award 7
ay 7
bag 7
balls 7
ban@@ 7
barrels 7
bars 7
baseball 7
beautiful 7
benchmark 7
bi@@ 7
bilateral 7
birthday 7
bishops 7
bombs 7
boo@@ 7
borrowings 7
brain 7
breaking 7
brilliant 7
broadcast 7
but@@ 7
buyers 7
cally 7
campus 7
candidacy 7
careful 7
carries 7
cells 7
centers 7
challenged 7
chances 7
ches 7
chose 7
citing 7
cleared 7
cli@@ 7
clothes 7
coal 7
collected 7
color 7
commit 7
complained 7
complicated 7
concrete 7
confident 7
congressional 7
conservatives 7
consolidated 7
consultant 7
controlled 7
correct 7
creation 7
crowded 7
cul@@ 7
cup 7
d-@@ 7
damaged 7
dealing 7
dealt 7
deeply 7
defend 7
definitely 7
degree 7
delivers 7
depression 7
developments 7
disappointing 7
disaster 7
discovery 7
discussions 7
distance 7
distribution 7
document 7
dose 7
doubled 7
dream 7
dress 7
drilling 7
drinks 7
dro@@ 7
economies 7
edition 7
editorial 7
efficient 7
electronic 7
eliminate 7
elite 7
ell 7
emerging 7
emissions 7
encouraged 7
enormous 7
ents 7
episode 7
episodes 7
ery 7
ets 7
existing 7
exposed 7
extension 7
extensive 7
extremists 7
f 7
facilities 7
factor 7
fairly 7
falls 7
feature 7
featuring 7
fields 7
finishing 7
first-@@ 7
fish 7
fl@@ 7
flew 7
flying 7
footprint 7
forum 7
franchise 7
fre@@ 7
gates 7
gathering 7
generation 7
ger 7
gifts 7
glass 7
grade 7
grounds 7
guess 7
guest 7
half-@@ 7
ham 7
hanging 7
happening 7
healthcare 7
hero 7
hi@@ 7
holds 7
homeless 7
iTunes 7
ically 7
identity 7
ier 7
ils 7
impose 7
impression 7
improvements 7
ina 7
ingly 7
innovative 7
intent 7
interviews 7
investigators 7
ited 7
jo@@ 7
kicked 7
ky 7
lab 7
land@@ 7
landing 7
latter 7
lawsuits 7
lungs 7
mainstream 7
maintenance 7
march 7
matches 7
materially 7
medicine 7
merger 7
met@@ 7
micro@@ 7
missile 7
missiles 7
mix 7
mixed 7
moderate 7
monthly 7
mood 7
moon 7
n-@@ 7
native 7
no-@@ 7
noting 7
numerous 7
obligation 7
offshore 7
ong 7
operated 7
operational 7
operator 7
opinion 7
owns 7
pack 7
papers 7
partnership 7
pat@@ 7
pe 7
perfect 7
perform 7
performances 7
pet 7
pilot 7
pipeline 7
plastic 7
plate 7
pointing 7
politician 7
pollution 7
pound 7
poverty 7
preparing 7
presentation 7
prevented 7
principal 7
probe 7
procedure 7
proceed 7
proceedings 7
pursue 7
pursuing 7
quick 7
reaching 7
rebel 7
red@@ 7
reference 7
regret 7
regulations 7
relatives 7
replay 7
replied 7
represented 7
resident 7
resulted 7
returns 7
revealed 7
rhetoric 7
robbery 7
rock 7
rushing 7
sand 7
schemes 7
scores 7
searching 7
seasons 7
seriously 7
sessions 7
sexy 7
sho@@ 7
shock 7
shoot 7
show@@ 7
significance 7
sions 7
ski 7
slight 7
slipped 7
slump 7
somewhat 7
specialist 7
sport 7
stake 7
stand@@ 7
stated 7
stopped 7
strange 7
striker 7
stronger 7
sts 7
subsidiary 7
succeed 7
surge 7
surprised 7
surrounding 7
survived 7
suspected 7
suspension 7
suspicion 7
sustained 7
sweet 7
syn@@ 7
takers 7
tal@@ 7
tape 7
teenager 7
terrorists 7
the@@ 7
theater 7
three-@@ 7
tourists 7
towns 7
trademark 7
tragic 7
trained 7
tran@@ 7
transfer 7
transition 7
travelers 7
treat 7
trees 7
trend 7
trials 7
tribal 7
tribute 7
tropical 7
tru@@ 7
tures 7
turning 7
types 7
veterans 7
virtually 7
wa@@ 7
watched 7
wealthy 7
weekly 7
welcomed 7
wet 7
window 7
winners 7
wood 7
worker 7
ws 7
ya 7
year-old 7
yourself 7
zen 7
0-@@ 6
0.42 6
03 6
08 6
1,500 6
1,5@@ 6
1- 6
10-year 6
15,@@ 6
17,@@ 6
18,@@ 6
1983 6
1990 6
1990s 6
1991 6
2,0@@ 6
2,3@@ 6
20th 6
25,000 6
25@@ 6
28@@ 6
3.94 6
350 6
38@@ 6
39@@ 6
40-@@ 6
400,000 6
40@@ 6
45@@ 6
48@@ 6
5,000 6
54@@ 6
59 6
6-2 6
73 6
77 6
82 6
92 6
93 6
97 6
AF@@ 6
AN 6
AS@@ 6
Ak@@ 6
Allen 6
Ann 6
Anne 6
Area 6
Armed 6
Assets 6
At@@ 6
Awards 6
Barbara 6
Barclays 6
Beckett 6
Benjamin 6
Blake 6
Bon@@ 6
Bonds 6
Bor@@ 6
Brad 6
Brandon 6
Bre@@ 6
Britney 6
Bruce 6
Burma 6
CONSOLIDATED 6
Cambridge 6
Can@@ 6
Carlos 6
Case 6
Cavaliers 6
Chancellor 6
Char@@ 6
Chen 6
Chiefs 6
Collins 6
Colombia 6
Congressional 6
Cost 6
Crocker 6
Cuban 6
Currently 6
DVD 6
Dam@@ 6
Dave 6
Delaware 6
Des@@ 6
Detective 6
Did 6
Djokovic 6
Dr@@ 6
ES 6
Eagles 6
Earned 6
Ed 6
Egypt 6
Ehud 6
Equity 6
Expense 6
Explorer 6
FTE 6
Fame 6
Favre 6
Federer 6
Fernando 6
Filed 6
Five 6
Flood 6
Foods 6
Fund 6
Gal@@ 6
Gary 6
Gates 6
Ger@@ 6
Get 6
Gold 6
Gore 6
Governor 6
Hamid 6
Have 6
Having 6
Hen@@ 6
Hotel 6
III 6
IN 6
Im@@ 6
Indiana 6
Insurance 6
Investigators 6
J 6
Jack 6
Jan. 6
Jason 6
Jets 6
Jews 6
Jon 6
Jr 6
Ju@@ 6
Ke@@ 6
Kenya 6
Ko@@ 6
Kosovo 6
Kremlin 6
LLC 6
LO@@ 6
La 6
Lanka 6
Liberal 6
Lindsay 6
Liverpool 6
Lord 6
Loss 6
Lynch 6
Mac 6
Mag@@ 6
Mail 6
Man@@ 6
Manager 6
Mattel 6
Matthew 6
McClaren 6
Meet 6
Mi@@ 6
N.@@ 6
N.F.L. 6
NASA 6
NEWSWEEK 6
NOW 6
Nevada 6
Nicole 6
Nigeria 6
Non-interest 6
Nor@@ 6
Number 6
OS 6
Old 6
Organization 6
Ortiz 6
Out 6
Owen 6
Oxford 6
P. 6
Pa 6
Pa@@ 6
Packers 6
Palm 6
Parker 6
Parliament 6
Pen@@ 6
Perhaps 6
Pete 6
Phase 6
Phillies 6
Place 6
Pol@@ 6
Power 6
Prevention 6
Program 6
Prosecutors 6
Provision 6
Rate 6
Rec@@ 6
Redskins 6
Review 6
Rockets 6
Roger 6
Roman 6
S. 6
Sachs 6
Salem 6
Sam@@ 6
San@@ 6
Says 6
Sc@@ 6
Science 6
Sco@@ 6
Senior 6
Share 6
Shares 6
Short-term 6
Simon 6
Somalia 6
Spector 6
Sri 6
St 6
Station 6
Stay 6
Steven 6
Subordinated 6
THE 6
Tax 6
Technology 6
Ted 6
Ter@@ 6
Things 6
Top 6
Tribune 6
Turner 6
Tyson 6
U 6
Unfortunately 6
Universal 6
Vatican 6
Vi@@ 6
Wal@@ 6
Wang 6
Wayne 6
Welsh 6
West@@ 6
Wil@@ 6
Wilson 6
Winfrey 6
Wo@@ 6
Wor@@ 6
Work 6
Yahoo 6
Your 6
Zealand 6
Zimbabwe 6
abandoned 6
ably 6
absence 6
ace 6
achievement 6
acquired 6
acquisitions 6
acres 6
administrative 6
adopt 6
adviser 6
advocate 6
ain 6
air-@@ 6
albums 6
amazing 6
ambassador 6
ambition 6
anxiety 6
apparent 6
appeals 6
application 6
appointed 6
appreciate 6
appropriate 6
arrangement 6
aside 6
ass 6
assumptions 6
assured 6
athletes 6
ational 6
ative 6
attached 6
attacking 6
attempts 6
attracted 6
auto 6
awareness 6
backed 6
band@@ 6
barriers 6
bat 6
begun 6
blew 6
blo@@ 6
blocks 6
blogs 6
boards 6
boat 6
boats 6
bond 6
bone 6
book@@ 6
bothered 6
bounced 6
breakfast 6
breakthrough 6
breath 6
briefly 6
bro@@ 6
brothers 6
brutal 6
bum@@ 6
burning 6
burst 6
bury 6
busy 6
cage 6
cap 6
capacity 6
carriers 6
ced 6
ceiling 6
charity 6
checked 6
ching 6
choices 6
cing 6
cks 6
cleaning 6
clo@@ 6
collapsed 6
commented 6
comparison 6
compet@@ 6
concert 6
concluded 6
condemned 6
confidential 6
consequences 6
consistent 6
consistently 6
conspiracy 6
constant 6
constitutional 6
consulting 6
contacts 6
contain 6
contracts 6
conversation 6
conversion 6
counter 6
counter@@ 6
credits 6
crews 6
ction 6
cu@@ 6
culture 6
dangers 6
database 6
daughters 6
decade 6
declining 6
defended 6
del@@ 6
delay 6
deliberately 6
deployed 6
desperate 6
destruction 6
detail 6
detailed 6
determine 6
developers 6
dial 6
dinner 6
diplomats 6
disp@@ 6
distributed 6
districts 6
doors 6
draft 6
dramatic 6
drives 6
dying 6
eager 6
ear 6
editor 6
electoral 6
electronics 6
eliminated 6
ement 6
emphasis 6
employers 6
employs 6
enabling 6
end@@ 6
ends 6
engage 6
enjoy 6
entering 6
entitled 6
entrance 6
errors 6
escaped 6
establish 6
execution 6
existence 6
explo@@ 6
exports 6
extended 6
extent 6
external 6
familiar 6
faster 6
fat 6
favorite 6
fed 6
felony 6
festival 6
files 6
filings 6
fires 6
flo@@ 6
floors 6
flu@@ 6
forcing 6
forest 6
formal 6
forms 6
foster 6
fought 6
foul 6
four-@@ 6
fragile 6
freed 6
funded 6
gangs 6
gap 6
gather 6
gel 6
gift 6
grandson 6
guarantees 6
guests 6
hair 6
hall 6
handful 6
handling 6
hang 6
harsh 6
hedge 6
hidden 6
holders 6
hom@@ 6
horse 6
hum@@ 6
humanitarian 6
humans 6
ial 6
ideological 6
imp@@ 6
implemented 6
impressed 6
incidents 6
indicate 6
inf@@ 6
infection 6
influential 6
initiatives 6
insists 6
inspector 6
inspired 6
inst@@ 6
instance 6
institution 6
integrated 6
intend 6
interesting 6
introduction 6
inventory 6
investigations 6
investing 6
involves 6
involving 6
ising 6
item 6
iting 6
ization 6
izing 6
jeans 6
jokes 6
journey 6
jumped 6
junta 6
kidnapping 6
launching 6
leaves 6
lender 6
lessons 6
license 6
lifting 6
lineup 6
liquid 6
loaded 6
lobby 6
loo@@ 6
loves 6
lunch 6
lung 6
luxury 6
machines 6
mad 6
manufacturing 6
marijuana 6
massive 6
master 6
materials 6
mental 6
mini-@@ 6
models 6
moments 6
moves 6
negotiators 6
ner@@ 6
networking 6
networks 6
newspapers 6
ning 6
nominee 6
northeast 6
obligations 6
obtain 6
ocean 6
odds 6
offenders 6
ological 6
ologist 6
oned 6
opens 6
opposing 6
organic 6
originally 6
oud 6
outbreak 6
overcome 6
owed 6
pa@@ 6
page 6
pain@@ 6
pairs 6
panic 6
parent 6
parliamentary 6
partly 6
peaceful 6
pension 6
persuade 6
phenomenon 6
photo 6
pin@@ 6
ping 6
pitched 6
placed 6
pledged 6
politically 6
pop 6
portfolio 6
portraits 6
prayer 6
predicted 6
pregnancy 6
presented 6
principles 6
privacy 6
pro 6
prof@@ 6
profile 6
promises 6
promising 6
proposals 6
protesters 6
proud 6
provincial 6
pursuit 6
pushing 6
quarterly 6
quarters 6
que 6
questioned 6
rapidly 6
ratings 6
re-@@ 6
reception 6
recession 6
recognized 6
regularly 6
releases 6
religion 6
repair 6
resigned 6
responding 6
ress 6
robust 6
rural 6
sacrifice 6
saved 6
saving 6
scheme 6
science 6
sco@@ 6
scra@@ 6
seeks 6
segment 6
sending 6
serves 6
sha@@ 6
similarly 6
sky 6
sleep 6
slow 6
sn@@ 6
snow 6
solve 6
somebody 6
somewhere 6
song 6
speakers 6
speculation 6
spirit 6
split 6
sponsored 6
spotted 6
stability 6
starter 6
stayed 6
staying 6
steady 6
steering 6
steroids 6
sting 6
stopping 6
strain 6
stran@@ 6
strategies 6
strikes 6
striking 6
strongly 6
struggle 6
suffer 6
suggestion 6
suggests 6
suit 6
supports 6
surface 6
surprising 6
surrounded 6
surveyed 6
tar@@ 6
targeting 6
task 6
tears 6
technical 6
teenagers 6
territory 6
text 6
ther@@ 6
therapy 6
tie 6
tiger 6
tight 6
tips 6
tom@@ 6
torture 6
totally 6
toy 6
tradition 6
trains 6
transactions 6
transportation 6
treaty 6
trips 6
troop 6
troubled 6
ture 6
understanding 6
unidentified 6
universe 6
unprecedented 6
upcoming 6
uranium 6
ute 6
va 6
valued 6
values 6
vessel 6
vin 6
voluntary 6
vowed 6
wake 6
ward 6
warrants 6
waters 6
welfare 6
well-@@ 6
weren 6
whatever 6
widely 6
wider 6
wind 6
windows 6
wireless 6
word 6
worse 6
wounds 6
writes 6
yer 6
yes 6
zing 6
• 6
'Neill 5
-and-@@ 5
-up 5
.cfm 5
0-2 5
0.32 5
0.40 5
1,4@@ 5
1,6@@ 5
1-1 5
1-3 5
1.2 5
101 5
11@@ 5
12-@@ 5
13-@@ 5
14,@@ 5
16,@@ 5
16-@@ 5
19-year-old 5
190 5
1948 5
1960s 5
1970 5
1st 5
2.0@@ 5
20,000 5
200,000 5
206 5
25.@@ 5
259,@@ 5
28,@@ 5
28-@@ 5
3-2 5
3.4 5
30,@@ 5
360 5
37@@ 5
39,@@ 5
3rd 5
4,6@@ 5
4-3 5
4.2 5
46 5
51,548 5
53,@@ 5
6-4 5
60@@ 5
65@@ 5
750 5
8,000 5
80@@ 5
85@@ 5
87@@ 5
91 5
98 5
< 5
AC 5
AM@@ 5
AOL 5
ATLANTA 5
Academy 5
Acc@@ 5
Affairs 5
Agriculture 5
Ahmed 5
Airways 5
Alaska 5
Ali@@ 5
All@@ 5
Allowance 5
Amazon 5
Amortization 5
Amro 5
Amsterdam 5
Ann@@ 5
Annapolis 5
Antonio 5
Ara@@ 5
Areas 5
Arthur 5
Ash@@ 5
Assembly 5
Associates 5
Attorney 5
Authority 5
Award 5
Bad 5
Base 5
Based 5
Bear 5
Belichick 5
Bell@@ 5
Betty 5
Bi@@ 5
Biden 5
Birmingham 5
Bishop 5
Bloomberg 5
Blue 5
Blues 5
Boo@@ 5
Bow@@ 5
Boy 5
Bra@@ 5
Brady 5
Braves 5
Bryan 5
Buffalo 5
Bulldogs 5
C. 5
CD 5
Cabrera 5
Cape 5
Card 5
Cardinal 5
Cardinals 5
Care 5
Carl 5
Carol 5
Category 5
Change 5
Channel 5
Charleston 5
Charlie 5
Charts 5
Chase 5
Civil 5
Cle@@ 5
Clemens 5
Close 5
Coast 5
Coll@@ 5
Commander 5
Commerce 5
Community 5
Connecticut 5
Conservative 5
Consolidated 5
Constitution 5
Consumers 5
Continuing 5
Cook 5
Corps 5
Countrywide 5
Cowboys 5
Cubs 5
Current 5
Czech 5
DI@@ 5
Data 5
Days 5
Dec@@ 5
Deferred 5
Denmark 5
Dhabi 5
Digital 5
Disease 5
Dodgers 5
Don@@ 5
Dream 5
Duke 5
Duncan 5
Ed@@ 5
End 5
Every 5
Fac@@ 5
Few 5
Fine 5
Floods 5
Form 5
Forms 5
Formula 5
Friends 5
Future 5
Gaming 5
Gardner 5
Gas 5
Gen 5
Geneva 5
Germans 5
Gmt 5
Gol@@ 5
Goodell 5
Gre@@ 5
Greater 5
Greenspan 5
Gul 5
H. 5
Harrison 5
He@@ 5
Health@@ 5
Help 5
Hi@@ 5
Hispanic 5
History 5
Holiday 5
Homeland 5
How@@ 5
Hsu 5
ICE 5
IM@@ 5
ING 5
IP 5
IT 5
Indonesian 5
Industries 5
Islamabad 5
Ja@@ 5
Jane 5
Jay 5
Jena 5
Jimmy 5
Jobs 5
Joint 5
Jonathan 5
Josh 5
Jr. 5
Karachi 5
Ken 5
Key 5
Ki@@ 5
Kno@@ 5
Koreans 5
Kurdistan 5
L-@@ 5
LDP 5
Lady 5
Lafayette 5
Lau@@ 5
Liberty 5
Line 5
Lowell 5
Luke 5
Malaysia 5
Manhattan 5
Maria 5
Mas@@ 5
May@@ 5
Maybe 5
McC@@ 5
Medicaid 5
Met 5
Mid@@ 5
Miss 5
Missing 5
Mohammad 5
Montreal 5
Moore 5
Morris 5
Mortgage 5
Myers 5
NBA 5
Navy 5
Nebraska 5
Ni@@ 5
Night 5
Nobody 5
Nokia 5
Norfolk 5
Nuclear 5
O.J. 5
Officials 5
Oklahoma 5
Op@@ 5
Organ@@ 5
Oscar 5
PC 5
PPP 5
Page 5
Parents 5
Part 5
Partners 5
Past 5
Patrick 5
Pe@@ 5
Peace 5
Pelosi 5
Penn 5
Pervez 5
Philippines 5
Pi@@ 5
Pl@@ 5
Plans 5
Poland 5
Por@@ 5
Portland 5
Potter 5
Pow@@ 5
Pre-@@ 5
Pres@@ 5
Project 5
Province 5
Quality 5
R. 5
RBI 5
Rab@@ 5
Ram@@ 5
Ramadan 5
Ramirez 5
Randolph 5
Rangers 5
Red@@ 5
Reid 5
Reports 5
Representative 5
Residents 5
Revenue 5
Reyes 5
Rob 5
Rose 5
SAP 5
ST@@ 5
Sa@@ 5
Sabathia 5
Saddam 5
Sak@@ 5
Salt 5
Sea 5
See 5
Sel@@ 5
Sen@@ 5
Ser@@ 5
Shanghai 5
Sharpton 5
Shawn 5
Sheikh 5
Should 5
Sibling 5
Sierra 5
Silver 5
Singapore 5
Singh 5
Sm@@ 5
Space 5
Speaker 5
Spears 5
Spec@@ 5
Square 5
Stanley 5
Stock 5
Stores 5
Stra@@ 5
Sub@@ 5
Sudanese 5
Sup@@ 5
Super 5
Syrian 5
Systems 5
T-shirts 5
TB 5
TO 5
Ta@@ 5
Taiwan 5
Tangible 5
Technologies 5
Thomson 5
Thousands 5
Ti@@ 5
Tim@@ 5
Too 5
Top@@ 5
Transport 5
Tru@@ 5
Trust 5
Tu@@ 5
Ul@@ 5
Under@@ 5
Upper 5
Va 5
Verizon 5
Vis@@ 5
Wal-Mart 5
Walker 5
Water 5
Wh@@ 5
Wi@@ 5
Wild 5
Wisconsin 5
Worldwide 5
Wright 5
Xbox 5
Yale 5
Yes 5
Yu@@ 5
a-@@ 5
academic 5
accompanied 5
accounted 5
achieving 5
activist 5
add 5
ade 5
adjacent 5
adoption 5
advocates 5
affordable 5
aggression 5
ale 5
all-time 5
ani 5
annually 5
apparently 5
apply 5
appointment 5
appointments 5
approve 5
architecture 5
arriving 5
ash 5
asing 5
aspects 5
assist 5
assume 5
astronauts 5
atomic 5
ators 5
attendance 5
attitude 5
attractive 5
audiences 5
automotive 5
awarded 5
awards 5
babies 5
bags 5
bal@@ 5
bands 5
bargaining 5
baseman 5
beach 5
beans 5
beaten 5
belt 5
bet 5
bets 5
birds 5
bitter 5
ble@@ 5
bles 5
blocking 5
bna 5
bombers 5
boom 5
boosting 5
boots 5
breach 5
breathing 5
bright 5
broad 5
bs 5
bulk 5
burden 5
burn 5
buyer 5
ca 5
cal@@ 5
carefully 5
category 5
causes 5
caution 5
celebrate 5
celebrity 5
cell@@ 5
certainty 5
chan@@ 5
char@@ 5
che@@ 5
checkpoints 5
chemical 5
childhood 5
chorus 5
chronic 5
cians 5
circle 5
citizenship 5
cking 5
classes 5
classroom 5
cle@@ 5
click 5
clothing 5
clubs 5
coffee 5
col@@ 5
collaboration 5
collect 5
comeback 5
commanders 5
commitments 5
complaining 5
composite 5
compound 5
concentrate 5
concept 5
conclusion 5
conducting 5
conf@@ 5
confirm 5
conflicts 5
connected 5
consecutive 5
contender 5
contra@@ 5
contrast 5
controller 5
conver@@ 5
convert 5
converted 5
convicted 5
convoy 5
cooking 5
cope 5
coroner 5
counsel 5
counted 5
courthouse 5
covering 5
crashed 5
creates 5
credentials 5
cross-@@ 5
crossed 5
ct 5
curb 5
cy@@ 5
dad 5
dates 5
dating 5
day@@ 5
debris 5
deck 5
decreased 5
defence 5
del 5
delayed 5
delegation 5
demands 5
demonstrations 5
deny 5
deputies 5
dered 5
desire 5
destinations 5
detective 5
di 5
diabetes 5
dialogue 5
dis 5
disasters 5
dispute 5
disputed 5
disturbing 5
dividend 5
divorce 5
dly 5
dogfighting 5
donations 5
donors 5
dramatically 5
dressed 5
dust 5
dynamic 5
e-mails 5
economics 5
economists 5
ed-@@ 5
eligible 5
els 5
ely 5
emerge 5
ena 5
enables 5
encounter 5
encourage 5
encouraging 5
endangered 5
enemies 5
enemy 5
engaged 5
engineers 5
enjoyed 5
enrollment 5
ens 5
ent-@@ 5
equ@@ 5
equally 5
erupted 5
escape 5
essentially 5
everywhere 5
exact 5
examine 5
exc@@ 5
exclusive 5
excuse 5
exhibition 5
exist 5
exit 5
expanded 5
expire 5
expired 5
explaining 5
explains 5
explore 5
export 5
ez 5
factory 5
facts 5
feared 5
fence 5
fication 5
fielder 5
finals 5
finds 5
fix 5
fla@@ 5
flags 5
flat 5
fleet 5
fli@@ 5
flood 5
focusing 5
fold 5
folks 5
foreclosures 5
forensic 5
formally 5
formation 5
fortune 5
frequency 5
fron@@ 5
fru@@ 5
fruit 5
fuelled 5
full-@@ 5
full-time 5
function 5
fundamental 5
funny 5
furniture 5
ga 5
gallon 5
gam@@ 5
gambling 5
gaming 5
garden 5
gases 5
ge-@@ 5
gear 5
gen 5
gender 5
gene 5
girlfriend 5
gl@@ 5
gol@@ 5
grabbed 5
graduate 5
grants 5
grateful 5
greatly 5
greenhouse 5
grenades 5
gri@@ 5
grown 5
guarantee 5
guidelines 5
gunmen 5
gy 5
halfway 5
han@@ 5
hand@@ 5
hardly 5
health@@ 5
hearts 5
heat 5
heating 5
helicopters 5
hiding 5
highlight 5
historian 5
historical 5
hitting 5
honored 5
horrible 5
hostage 5
hostages 5
hotels 5
hur@@ 5
hy@@ 5
hybrid 5
iconic 5
ideal 5
il 5
imminent 5
importance 5
imposing 5
indicators 5
iness 5
infections 5
informed 5
ini 5
innocent 5
ino 5
inspection 5
inspectors 5
institute 5
interactive 5
internet 5
interruption 5
interviewed 5
invest 5
investigate 5
ious 5
ir 5
ites 5
itions 5
itor 5
jersey 5
joins 5
journalists 5
jumping 5
juvenile 5
keen 5
keeps 5
kes 5
knocked 5
knowing 5
ko 5
labels 5
laid 5
landscape 5
languages 5
law@@ 5
lending 5
letting 5
liable 5
lic@@ 5
life-@@ 5
lifestyle 5
ligh@@ 5
lighting 5
limits 5
lists 5
liver 5
long-standing 5
ls 5
luck 5
lucky 5
lucrative 5
lured 5
mag@@ 5
maintained 5
makers 5
mansion 5
margins 5
marriage 5
mate 5
math 5
mature 5
maximum 5
meat 5
med 5
membership 5
memo 5
mess 5
metal 5
methods 5
mid@@ 5
militias 5
mining 5
monarch 5
monitoring 5
mothers 5
motion 5
mountain 5
movies 5
mul@@ 5
murders 5
mus@@ 5
na@@ 5
narrowly 5
necessarily 5
neighbors 5
ney 5
nights 5
non-GAAP 5
non-interest 5
normally 5
nu@@ 5
nurses 5
ny 5
obesity 5
obscure 5
obvious 5
occupied 5
od@@ 5
offerings 5
ologists 5
ood 5
oppose 5
oral 5
ore 5
organisation 5
organized 5
oring 5
ot 5
outs 5
pages 5
pan@@ 5
participating 5
participation 5
passionate 5
ped@@ 5
perceived 5
permits 5
photograph 5
physically 5
placebo 5
pm 5
podium 5
policing 5
pose 5
post-@@ 5
pounds 5
precious 5
premiere 5
presidency 5
print 5
priority 5
prisoner 5
pro-democracy 5
proc@@ 5
producing 5
professionals 5
profitability 5
programmes 5
projections 5
prolonged 5
promoting 5
prosecution 5
protecting 5
provinces 5
pu@@ 5
pul@@ 5
qualified 5
ral 5
ranging 5
rape 5
rapid 5
rarely 5
rated 5
ratio 5
readers 5
readiness 5
reasonable 5
reconciliation 5
recording 5
recover 5
ree 5
referred 5
reflects 5
reg@@ 5
regardless 5
reiterated 5
reject 5
rejection 5
rel@@ 5
releasing 5
relevant 5
reliable 5
reportedly 5
reporter 5
resign 5
resignation 5
resistance 5
rest@@ 5
restoring 5
restraint 5
resulting 5
retirees 5
retiring 5
revealing 5
revolution 5
ric 5
riders 5
ripped 5
risky 5
roads 5
rocket 5
rolled 5
rounds 5
route 5
routinely 5
rugby 5
rum@@ 5
rush 5
sand@@ 5
sank 5
scandal 5
scared 5
scattered 5
scenario 5
scholars 5
scientist 5
scratch 5
screening 5
sectors 5
selected 5
seller 5
sely 5
seminar 5
sensitive 5
serv@@ 5
servers 5
sharply 5
sheet 5
shelves 5
short-@@ 5
shoulder 5
shuttle 5
sight 5
sign@@ 5
signing 5
sis 5
sl@@ 5
sleeping 5
slice 5
slowdown 5
soil 5
solid 5
solo 5
sons 5
sophisticated 5
southeast 5
sparking 5
speaker 5
speaks 5
spec@@ 5
specifically 5
spoken 5
sponsors 5
stages 5
stance 5
starred 5
steadily 5
ster@@ 5
stomach 5
stones 5
stor@@ 5
storage 5
stra@@ 5
strains 5
stranded 5
stre@@ 5
stream 5
stretch 5
structures 5
struggled 5
stuck 5
studying 5
stunning 5
substances 5
substantial 5
successor 5
suddenly 5
sufficient 5
suits 5
sum@@ 5
surfaced 5
suspicions 5
swing 5
switch 5
symbolic 5
ta 5
tac@@ 5
tactical 5
tactics 5
talked 5
targeted 5
tax@@ 5
techn@@ 5
teen 5
teens 5
teeth 5
temperature 5
tend 5
tender 5
tering 5
th-@@ 5
thanks 5
theory 5
therefore 5
thinks 5
third-quarter 5
thousand 5
threatening 5
threats 5
thrilled 5
throw 5
ths 5
thus 5
ti 5
tics 5
tier 5
tiny 5
toll 5
topic 5
tor 5
tourist 5
transmission 5
trophy 5
troubles 5
turnaround 5
twins 5
two-run 5
undergo 5
undergraduate 5
unless 5
updated 5
updates 5
ur 5
urge 5
useful 5
ush 5
usual 5
vanished 5
varying 5
ved 5
verdict 5
vers 5
viewed 5
vin@@ 5
violations 5
violent 5
visiting 5
visits 5
vocal 5
volatility 5
warm 5
warnings 5
water@@ 5
waving 5
web 5
wheat 5
wheelchair 5
whites 5
wholesale 5
wholly 5
willingness 5
wire 5
withdraw 5
wore 5
workforce 5
workshops 5
worn 5
yed 5
yen 5
yield 5
yl 5
youngest 5
zed 5
zer 5
zes 5
# 4
'Donnell 4
-F@@ 4
-T@@ 4
-to-@@ 4
0.12 4
0.44 4
0.50 4
0.88 4
02 4
08@@ 4
09 4
1,2@@ 4
1,8@@ 4
1,9@@ 4
1-5 4
1-800-@@ 4
1.8 4
1.@@ 4
10-Q 4
103 4
106 4
110 4
113 4
12,363 4
12.@@ 4
125 4
126 4
129 4
12th 4
13,000 4
13,023 4
13-year-old 4
130 4
14.@@ 4
145 4
15-@@ 4
15.@@ 4
164 4
17-@@ 4
18.@@ 4
1940s 4
1950s 4
1968 4
1969 4
1970s 4
1980 4
1986 4
1987 4
2,000 4
2-1 4
2020 4
21.@@ 4
212 4
21st 4
22.@@ 4
220 4
226 4
22@@ 4
24-@@ 4
24.@@ 4
246,383 4
25,@@ 4
29,@@ 4
3,28@@ 4
300,000 4
30@@ 4
31.@@ 4
31st 4
385 4
4.6 4
415 4
44-@@ 4
44.@@ 4
46@@ 4
47@@ 4
499 4
5,7@@ 4
5,9@@ 4
50.@@ 4
52,174 4
6,000 4
60,000 4
67@@ 4
7.12 4
73@@ 4
8,9@@ 4
84@@ 4
877 4
9,000 4
9,8@@ 4
911 4
918 4
A.@@ 4
AB@@ 4
AFP 4
AMD 4
ANALYSIS 4
AT@@ 4
ATP 4
Aaron 4
Af@@ 4
Aff@@ 4
Ag@@ 4
Again 4
Air@@ 4
Alberto 4
Alonso 4
American-@@ 4
Amman 4
Andrews 4
Angels 4
Antioch 4
Anyone 4
Arabia 4
Around 4
Athens 4
Audrey 4
Av@@ 4
Aviation 4
Ay@@ 4
Az@@ 4
Bailey 4
Banks 4
Baseball 4
Basic 4
Bat@@ 4
Be 4
Bears 4
Bern@@ 4
Berry 4
Bes@@ 4
Bet@@ 4
Blo@@ 4
Boeing 4
Bom@@ 4
Bond 4
Border 4
Brent 4
Bridge 4
Broad@@ 4
Bros. 4
Brothers 4
Browns 4
Bru@@ 4
Bulgaria 4
Burmese 4
But@@ 4
Butler 4
CAL@@ 4
CE@@ 4
CL@@ 4
CNN.com 4
CONDENSED 4
CT@@ 4
Cap@@ 4
Cardiff 4
Cas@@ 4
Cat 4
Cat@@ 4
Cer@@ 4
Chambers 4
Cheney 4
Chertoff 4
Cho@@ 4
Christians 4
Chuck 4
Chávez 4
Ci@@ 4
Civic 4
Clean 4
Click 4
Colle@@ 4
Colombian 4
Colts 4
Commissioner 4
Communications 4
Communist 4
Comple@@ 4
Congo 4
Consent 4
Conservatives 4
Content 4
Cop@@ 4
Cra@@ 4
Crawford 4
Crime 4
Critics 4
Crown 4
Curtis 4
Customers 4
Cutler 4
DDR 4
Dakota 4
Damaged 4
Dame 4
Davies 4
Death 4
Dennis 4
Der@@ 4
Des 4
Deutsche 4
Devlin 4
Discontinued 4
Does 4
Dominican 4
Doug 4
Drug 4
Duffy 4
Dun@@ 4
Durbin 4
E-@@ 4
EM@@ 4
EN@@ 4
Earning 4
Education 4
Eight 4
Elizabeth 4
Emergency 4
Emmy 4
Ethiopia 4
Ev@@ 4
Evans 4
Ever@@ 4
Everybody 4
Everyone 4
F. 4
FEMA 4
FR@@ 4
FT@@ 4
Fair 4
Falcons 4
Falls 4
Families 4
Fanny 4
Far 4
Feb. 4
Fer@@ 4
Fidel 4
Field 4
Fighting 4
Final 4
Finally 4
Fisher 4
Fl@@ 4
Floyd 4
Food 4
Fossett 4
Freeman 4
Fresh 4
Fun@@ 4
G 4
G. 4
G.M. 4
GE@@ 4
Gan@@ 4
Gate 4
Gen@@ 4
Gil@@ 4
Girl 4
Glasgow 4
Grace 4
Gran@@ 4
Gray 4
Greek 4
Greg 4
Guard 4
HBO 4
Haas 4
Half 4
Halo 4
Harman 4
Hay@@ 4
High@@ 4
Hillman 4
Hills 4
Hindu 4
Hit 4
Hol@@ 4
Hold 4
Honda 4
Hoover 4
Hopkins 4
Houses 4
Hugo 4
Hum@@ 4
Hundreds 4
Hurricane 4
Hut@@ 4
Hy@@ 4
INCOME 4
IR@@ 4
IV@@ 4
Idaho 4
Immigration 4
Impact 4
Independent 4
Inside 4
Institution 4
Interpol 4
Investig@@ 4
Ir@@ 4
JERUSALEM 4
Jacksonville 4
Jan@@ 4
Jeff 4
Jefferson 4
Jeffrey 4
Jeffs 4
Jennifer 4
Jeremy 4
Jerry 4
Jerusalem 4
JetBlue 4
Juan 4
Jun@@ 4
Ka@@ 4
Karl 4
Katrina 4
Keep 4
Kelly 4
Kentucky 4
Khartoum 4
Ki-moon 4
Kibaki 4
Kids 4
Kil@@ 4
Killed 4
Kobe 4
Kor@@ 4
Kuwait 4
L.@@ 4
L.A. 4
LA 4
LSU 4
Lakh 4
Lam@@ 4
Large 4
Latino 4
Lauren 4
Lead 4
Leader 4
Left 4
Lem@@ 4
Leone 4
Leslie 4
Li 4
Liabilities 4
Lin@@ 4
Lions 4
Listen 4
Low 4
Luis 4
MRSA 4
MSNBC.com 4
Mad@@ 4
Madison 4
Madrid 4
Maine 4
Maj@@ 4
Make 4
Malibu 4
Marie 4
Mariners 4
Marines 4
Mart@@ 4
Martinez 4
Max 4
McNair 4
Me 4
Measures 4
Melvin 4
Members 4
Mercantile 4
Merkel 4
Mes@@ 4
Met@@ 4
Mich@@ 4
Military 4
Million 4
Mills 4
Mo 4
Moon 4
Morning 4
Motor 4
Motors 4
Mourinho 4
Mussina 4
Mutual 4
NATO 4
NL 4
NT 4
Nancy 4
Nap@@ 4
Nar@@ 4
Nashville 4
Neil 4
Neither 4
Nelson 4
Newark 4
Nicaragua 4
Nichols 4
Norris 4
Nu@@ 4
ON@@ 4
OR@@ 4
Ob@@ 4
Oc@@ 4
Ocean 4
Official 4
Olson 4
Omar 4
Oracle 4
Over@@ 4
Overall 4
PGA 4
PM 4
PT@@ 4
Pac@@ 4
Padres 4
Panama 4
Parks 4
Pass@@ 4
Pat@@ 4
Paula 4
Pavarotti 4
Payne 4
Pc 4
Pel@@ 4
Peninsula 4
Pep@@ 4
Pepsi 4
Peters 4
Phillips 4
Pie@@ 4
Pitt 4
Pittsburgh 4
Political 4
Pop@@ 4
Princ@@ 4
Prior 4
Prison 4
Prote@@ 4
Protection 4
Provi@@ 4
Puerto 4
Pur@@ 4
Quarterly 4
Questions 4
R-@@ 4
RBS 4
RE@@ 4
Randy 4
Rather 4
Raul 4
Ravens 4
Reform 4
Reg@@ 4
Regiment 4
Reliance 4
Reno 4
Reported 4
Res@@ 4
Researchers 4
Resolution 4
Rick 4
Rie@@ 4
Roh 4
Rom@@ 4
Roma 4
Ros@@ 4
Rosa 4
Rosen@@ 4
Rouge 4
Rove 4
Rumsfeld 4
Russians 4
SNP 4
SO@@ 4
STATEMENTS 4
SUV 4
Sab@@ 4
Said. 4
Sanders 4
Sar@@ 4
Sau@@ 4
Saud 4
Scre@@ 4
Sean 4
Senators 4
Serbian 4
Shakespeare 4
Shar@@ 4
Shaun 4
Shaw 4
Sheep 4
Shell 4
Sher@@ 4
Shi@@ 4
Shin@@ 4
Shu@@ 4
Simple 4
Six@@ 4
Sk@@ 4
Slam 4
Smithsonian 4
Snow 4
Solutions 4
Sometimes 4
Sopranos 4
Sou@@ 4
Source 4
Southeast 4
Spar@@ 4
Sports 4
Spring 4
Spring@@ 4
Standards 4
Stanford 4
Stearns 4
Stre@@ 4
Strip 4
Stu@@ 4
Stuart 4
Swedish 4
TA@@ 4
TH@@ 4
Take 4
Tal@@ 4
Talks 4
Tampa 4
Teams 4
Temple 4
Thai 4
Theater 4
Tiger 4
Titans 4
Todd 4
Tom@@ 4
Tory 4
Tower 4
Trans@@ 4
Transportation 4
Trial 4
Tropical 4
Tus@@ 4
U.S.-@@ 4
UAW 4
UNDP 4
USAID 4
Umenyiora 4
Until 4
VA 4
VEBA 4
VH1 4
Value 4
Various 4
Venezuela 4
Vil@@ 4
WAM 4
WHO 4
WM@@ 4
Wallace 4
Warren 4
Web@@ 4
Wheeler 4
Which 4
Wii 4
Wildlife 4
Winners 4
Woman 4
Yao 4
Yesterday 4
Zo@@ 4
abilities 4
abortion 4
acclaimed 4
accountability 4
actively 4
activists 4
adap@@ 4
adds 4
adjustment 4
administ@@ 4
adv@@ 4
adventure 4
adverse 4
advisory 4
affair 4
affluent 4
agricultural 4
aide 4
airwaves 4
al-Qaeda 4
alization 4
alized 4
amassed 4
ammunition 4
an-@@ 4
anchor 4
anes@@ 4
animated 4
anna 4
ano 4
answered 4
antibiotics 4
anticipated 4
antly 4
anymore 4
apart 4
apology 4
appealing 4
argues 4
arguments 4
arrests 4
arts 4
ase 4
asks 4
aspect 4
asses 4
assessed 4
assi@@ 4
assists 4
associates 4
astonishing 4
atics 4
autopsy 4
availability 4
aver@@ 4
aviation 4
awaiting 4
az 4
background 4
backs 4
bacteria 4
ball@@ 4
ballo@@ 4
basically 4
basketball 4
batt@@ 4
bearing 4
bears 4
beauty 4
beg@@ 4
belief 4
beliefs 4
believing 4
bench 4
best-@@ 4
bie 4
bla@@ 4
blan@@ 4
bloo@@ 4
blow 4
blue-@@ 4
boarding 4
bodyguards 4
bomber 4
bombing 4
bombings 4
bor@@ 4
break@@ 4
briefed 4
briefing 4
brigades 4
broadband 4
broader 4
bus@@ 4
cab@@ 4
cabin 4
cabinet 4
cal 4
calories 4
campaigning 4
cancellations 4
cas@@ 4
casting 4
categories 4
caucuses 4
celebrated 4
celebration 4
cement 4
cent@@ 4
cer 4
ch-@@ 4
challenging 4
champions 4
chapter 4
character@@ 4
charities 4
cher 4
chicken 4
chiefs 4
chip 4
cia 4
clar@@ 4
clash 4
clean@@ 4
cler@@ 4
clinic 4
co 4
collateral 4
colle@@ 4
colors 4
com 4
comedy 4
commodities 4
communication 4
communist 4
companion 4
compelling 4
competitors 4
completing 4
complications 4
computing 4
confer@@ 4
confrontation 4
confusion 4
connect 4
conscious 4
consensus 4
consent 4
conservation 4
considerable 4
consortium 4
constitution 4
consul@@ 4
contacted 4
containing 4
contenders 4
contractor 4
contractors 4
controlling 4
convention 4
converting 4
copied 4
copyright 4
copyrighted 4
corn 4
cotton 4
courtroom 4
covers 4
crackdown 4
cream 4
creativity 4
cricket 4
crossing 4
crown 4
crowned 4
cru@@ 4
cry 4
cting 4
cute 4
cycle 4
damages 4
daunting 4
dealers 4
deb@@ 4
debated 4
declare 4
decor@@ 4
decorated 4
deeper 4
defendant 4
dem@@ 4
demanding 4
denies 4
denim 4
depends 4
deployment 4
depth 4
descent 4
describes 4
describing 4
designs 4
desk 4
despair 4
desperately 4
destroyed 4
developer 4
device 4
devoted 4
dic@@ 4
diluted 4
dip 4
diplomat 4
directions 4
disappeared 4
disappointment 4
discipline 4
disclosed 4
discrimination 4
diseases 4
display 4
displayed 4
disrupted 4
dissatisfied 4
distinction 4
distribute 4
dle 4
documented 4
dor@@ 4
double-digit 4
doubles 4
download 4
downright 4
downs 4
dragged 4
drama 4
earthquake 4
ease 4
easing 4
economist 4
ect 4
ection 4
eding 4
egg 4
electrical 4
eless 4
eline 4
elling 4
em 4
email 4
eman 4
embrace 4
emit@@ 4
employed 4
enforce 4
engaging 4
engine 4
engineer 4
enhancing 4
ening 4
ensuring 4
ented 4
enthusiasm 4
envoy 4
equipped 4
error 4
ert 4
essed 4
essence 4
establishing 4
establishment 4
et 4
eting 4
ette 4
evacuate 4
evacuated 4
eventual 4
everyday 4
evolved 4
ex-@@ 4
examined 4
examiner 4
excellence 4
excellent 4
exception 4
excluding 4
executed 4
exhausted 4
exists 4
expertise 4
exploded 4
exploit 4
explorers 4
explosions 4
exposure 4
expres@@ 4
expression 4
extraordinary 4
eye@@ 4
fa@@ 4
fatally 4
fate 4
favour 4
favourite 4
featured 4
feelings 4
fever 4
ff 4
ffed 4
fierce 4
fighters 4
fights 4
figured 4
file 4
fill 4
financing 4
fined 4
finest 4
fire@@ 4
firearms 4
firefighter 4
firing 4
firmly 4
fits 4
fixed 4
flower 4
flowers 4
flown 4
fluctu@@ 4
for-@@ 4
forbidden 4
fore@@ 4
format 4
four-game 4
fourth-quarter 4
frame 4
frankly 4
free-@@ 4
frequent 4
friendship 4
frigh@@ 4
fro@@ 4
functioning 4
fy 4
fying 4
ga@@ 4
gate 4
gener@@ 4
generate 4
genius 4
genocide 4
genuine 4
gers 4
gesture 4
get@@ 4
gh 4
gin 4
glad 4
globe 4
gotten 4
graduates 4
grandchildren 4
grant 4
granted 4
graph@@ 4
gre@@ 4
greeted 4
grocery 4
gross 4
gs 4
guidance 4
hadn 4
halt 4
hand-@@ 4
handcuffs 4
handing 4
handsome 4
hard-@@ 4
hardware 4
hate 4
head@@ 4
heated 4
hes 4
hide 4
higher-@@ 4
highlights 4
hike 4
hinted 4
hiring 4
hitter 4
holder 4
holes 4
home-@@ 4
homeowners 4
hon@@ 4
honour 4
hook 4
hooking 4
hopefully 4
hor@@ 4
hosted 4
household 4
households 4
humidity 4
hygiene 4
iPod 4
ide 4
ign@@ 4
ii 4
iling 4
illa 4
illo 4
im 4
imper@@ 4
implications 4
inconsistent 4
incredibly 4
infants 4
infected 4
infrastructure 4
ing-@@ 4
ington 4
initial 4
inner 4
innocence 4
innovation 4
inquest 4
inspected 4
installed 4
institutional 4
insurgent 4
intelligent 4
intense 4
intensified 4
intensive 4
interception 4
interim 4
invested 4
involve 4
ire 4
irresponsible 4
irritating 4
isation 4
ished 4
itation 4
ite 4
ith 4
ition 4
ize 4
j 4
jacket 4
je@@ 4
jewelry 4
ju@@ 4
judged 4
judges 4
judicial 4
jump 4
junior 4
jurisdiction 4
ka 4
keeper 4
keys 4
kid@@ 4
kilometers 4
kinds 4
laboratory 4
lake 4
lap@@ 4
late-@@ 4
laugh 4
laughed 4
layers 4
leaf 4
learned 4
leg@@ 4
lethal 4
lets 4
liber@@ 4
liberal 4
licensed 4
lied 4
liked 4
lin 4
lining 4
linking 4
listed 4
load 4
loc@@ 4
locked 4
lodging 4
log@@ 4
logo 4
longest 4
loud 4
louder 4
low-cost 4
low-income 4
lowest 4
lust 4
magnetic 4
magnitude 4
mainly 4
mal@@ 4
manufacturer 4
marched 4
marriages 4
meals 4
meanwhile 4
measured 4
mechanical 4
med@@ 4
medicines 4
medium 4
meltdown 4
memorabilia 4
memorial 4
mentally 4
menu 4
mer 4
merchandise 4
meters 4
mi@@ 4
mig@@ 4
minds 4
mines 4
mistake 4
mixing 4
mm 4
mobility 4
mond 4
monetary 4
monitor 4
mor@@ 4
mosque 4
motor@@ 4
mount 4
mountains 4
municipal 4
mur@@ 4
musical 4
musician 4
mut@@ 4
my@@ 4
naked 4
navy 4
need@@ 4
neg@@ 4
neighboring 4
nets 4
neys 4
nickname 4
nik 4
ns 4
nurse 4
nutrition 4
o-@@ 4
objections 4
objectives 4
observed 4
observers 4
obsessed 4
obtained 4
occasion 4
occasions 4
occup@@ 4
occupancy 4
ol 4
ola 4
oldest 4
oning 4
opposes 4
orbit 4
ori@@ 4
ory 4
ot@@ 4
ours 4
outreach 4
outsiders 4
overhaul 4
ovic 4
ow 4
pac@@ 4
painfully 4
painted 4
parallel 4
paralyzed 4
participated 4
passenger 4
patrol 4
patterns 4
pay@@ 4
pays 4
peak 4
pen@@ 4
performing 4
performs 4
permit 4
permitted 4
personality 4
personally 4
perspective 4
petition 4
petrol 4
pets 4
phase 4
photographers 4
phrase 4
pilots 4
pipe 4
pit 4
pivotal 4
platforms 4
play@@ 4
pledge 4
plo@@ 4
plum@@ 4
poet 4
pointed 4
poll@@ 4
popularity 4
portions 4
portrait 4
possession 4
post@@ 4
powered 4
practical 4
preaching 4
precip@@ 4
predecessor 4
predict 4
preferences 4
preseason 4
presidents 4
pressures 4
prestigious 4
prevailing 4
prevention 4
priorities 4
procession 4
profitable 4
programming 4
projected 4
prompting 4
proper 4
properties 4
protections 4
proudly 4
providers 4
psych@@ 4
publish 4
pur@@ 4
purchased 4
qualifier 4
quantities 4
quarter-@@ 4
quick@@ 4
quie@@ 4
races 4
radar 4
rant 4
rating 4
reaches 4
recalling 4
recalls 4
receivers 4
recognition 4
recognize 4
recommend 4
reconstruction 4
recovered 4
recovering 4
recruit 4
ref@@ 4
refer@@ 4
reflected 4
reflecting 4
reforms 4
refugees 4
refurbished 4
refuse 4
regain 4
regulation 4
regulators 4
rely 4
remote 4
removing 4
rene@@ 4
rental 4
repeated 4
representatives 4
republic 4
requested 4
requests 4
researcher 4
reserved 4
reserves 4
residence 4
resolutions 4
resolve 4
resource 4
respected 4
respective 4
respectively 4
restated 4
rested 4
retaliated 4
retaliation 4
retiree 4
reveal 4
reveals 4
revelations 4
rever@@ 4
revised 4
ries 4
right-@@ 4
rin 4
ring@@ 4
rivals 4
ro 4
rob@@ 4
rock@@ 4
rocket-propelled 4
roles 4
roll 4
rolling 4
rolls 4
rooftops 4
rotation 4
rotten 4
routed 4
royal 4
run-scoring 4
run@@ 4
s.com 4
sa 4
sacks 4
sad 4
salaries 4
salon 4
satis@@ 4
saves 4
scan 4
scre@@ 4
screens 4
searched 4
second-half 4
secretary-general 4
sections 4
secured 4
seed 4
selection 4
sells 4
senators 4
ses 4
seven-@@ 4
sey 4
shaping 4
shareholder 4
shattered 4
shed 4
sheer 4
shelter 4
shelters 4
sheriff 4
shoes 4
shoo@@ 4
shook 4
shootings 4
shops 4
shoulders 4
showdown 4
sick@@ 4
sideline 4
signal 4
signaled 4
signals 4
significantly 4
single-@@ 4
sion 4
situations 4
six-@@ 4
six@@ 4
sized 4
skilled 4
slammed 4
slaying 4
slip 4
slowly 4
small-@@ 4
smart 4
smile 4
smo@@ 4
smoke 4
solic@@ 4
solicitation 4
sorry 4
sorts 4
sou@@ 4
spaces 4
spy 4
sq 4
squ@@ 4
stabbed 4
stabilize 4
stable 4
stadium 4
state-@@ 4
sted 4
stem 4
sten 4
stepped 4
stepping 4
sto@@ 4
stock@@ 4
stop@@ 4
strained 4
strengthen 4
strengthened 4
string 4
structured 4
studios 4
styles 4
subsequent 4
suburban 4
subway 4
suff@@ 4
suffering 4
sugar 4
suggestions 4
summar@@ 4
surgeons 4
surround 4
suspend 4
swim 4
swimming 4
switched 4
tag 4
takeover 4
tale 4
tan@@ 4
tapes 4
tast@@ 4
taste 4
tation 4
tations 4
tax-@@ 4
teach 4
teaching 4
televised 4
temp@@ 4
temperatures 4
temporarily 4
tening 4
termin@@ 4
terrain 4
testified 4
theft 4
themes 4
third-@@ 4
thrive 4
tim@@ 4
timid 4
tin 4
tion@@ 4
tire 4
titles 4
tobacco 4
toe 4
top-@@ 4
tops 4
totaled 4
tou@@ 4
tougher 4
tourism 4
touted 4
trace 4
tracks 4
trademarks 4
traders 4
traditionally 4
trailer 4
transaction 4
transformation 4
traveled 4
trends 4
tribe 4
trio 4
triple 4
trousers 4
trusted 4
tum@@ 4
turbulent 4
turnover 4
two-thirds 4
typical 4
ugly 4
unchanged 4
uncovered 4
underwater 4
unease 4
unions 4
unity 4
unrest 4
upset 4
urging 4
utes 4
vable 4
vaccine 4
val 4
variety 4
venturing 4
vicious 4
victories 4
villagers 4
violation 4
visual 4
vit@@ 4
voic@@ 4
vol@@ 4
volume 4
vulnerable 4
waited 4
warn 4
warrant 4
wat@@ 4
wave 4
weigh@@ 4
wer 4
wers 4
whenever 4
wine 4
withdrawal 4
withdrawn 4
wonderful 4
worsened 4
wound 4
wrapped 4
wreckage 4
yellow 4
za 4
'Brien 3
'Connor 3
-M@@ 3
-by-@@ 3
-in 3
-off 3
-the-@@ 3
.N 3
.co.uk 3
0,@@ 3
0.16 3
0.2000 3
0.2100 3
0.4 3
0.45 3
0.46 3
0.90 3
00-@@ 3
000 3
05 3
09@@ 3
1,600 3
1,75@@ 3
1-0 3
1-4 3
1.1 3
1.3 3
1.39@@ 3
1.4 3
1.6 3
1.7 3
1.72 3
1.9 3
10,9@@ 3
10-K 3
10.2 3
10th 3
11,6@@ 3
11.6 3
115 3
116 3
117 3
12-year-old 3
123 3
13,229 3
13,9@@ 3
138 3
140 3
15,000 3
15,7@@ 3
15-year-old 3
154 3
16,0@@ 3
163 3
16th 3
17.@@ 3
170,000 3
17th 3
180 3
185 3
19,@@ 3
192 3
1963 3
1979 3
1984 3
1993 3
2,6@@ 3
2,873,985 3
2.2 3
2.4 3
2.5 3
2.7 3
2.8 3
2.9 3
2011 3
205 3
21,@@ 3
219 3
224 3
23,626 3
23-@@ 3
24,034 3
24,379 3
240 3
24th 3
25,010 3
25-@@ 3
251 3
27,494 3
28,532 3
28.@@ 3
29-year-old 3
2nd 3
3,288,918 3
3,385,905 3
3,452,095 3
3,496,370 3
3,544,189 3
3,6@@ 3
3,778,338 3
3,805,794 3
3-5 3
3.66 3
3.90 3
30,396 3
304 3
30th 3
31-@@ 3
32-@@ 3
33@@ 3
340 3
346 3
35-@@ 3
350,000 3
36-@@ 3
36.@@ 3
36@@ 3
38-@@ 3
4,0@@ 3
4,9@@ 3
4.7 3
40,000 3
406 3
435,014 3
45.@@ 3
47,@@ 3
47.@@ 3
486,161 3
5.2 3
5.25 3
50,000 3
50-@@ 3
505 3
52-@@ 3
52-year-old 3
527 3
53-@@ 3
533 3
56@@ 3
58,928 3
59.@@ 3
591 3
6-1 3
6.4 3
6.7 3
6.92 3
63@@ 3
65,@@ 3
659 3
679 3
682,695 3
69@@ 3
7,0@@ 3
7,6@@ 3
7,8@@ 3
7.0 3
7.19 3
7.23 3
70s 3
731 3
737@@ 3
77.@@ 3
777 3
7th 3
8,8@@ 3
8-0 3
800,000 3
801 3
81,387 3
81-@@ 3
83@@ 3
844 3
9,842 3
9,9@@ 3
9.6 3
9.71 3
900 3
937,362 3
A-@@ 3
AA 3
AB 3
AD@@ 3
ADHD 3
AM 3
AR@@ 3
AVERAGE 3
AZ@@ 3
Abdul@@ 3
Abe 3
Aberdeen 3
Above 3
Accounts 3
Action 3
Additional 3
Adri@@ 3
Affected 3
Agre@@ 3
Ah@@ 3
Aid 3
Albert 3
Alberta 3
Alexis 3
Alfred 3
Alice 3
Allergy 3
Along 3
Already 3
Am 3
Amar@@ 3
Amy 3
Ana 3
Anbar 3
Andre@@ 3
Andrea 3
Angela 3
Angus 3
Ankara 3
Announces 3
Ans@@ 3
Antar@@ 3
Anti-@@ 3
Anti@@ 3
Apparently 3
Applications 3
Approximately 3
Archives 3
Arctic 3
Arsenal 3
Arts 3
Aru@@ 3
Ask 3
Atomic 3
Att@@ 3
Attorneys 3
Auburn 3
Austin 3
Austria 3
Avandia 3
Awareness 3
BAGHDAD 3
BC 3
BE@@ 3
BEIJING 3
BI@@ 3
BMW 3
BP 3
Baby 3
Baikonur 3
Baker 3
Bal@@ 3
Ball@@ 3
Bancorp 3
Bangladesh 3
Bar 3
Barcelona 3
Barnes 3
Bas@@ 3
Basin 3
Battalion 3
Bbl 3
Beat 3
Beckham 3
Been 3
Beg@@ 3
Behind 3
Being 3
Bennett 3
Berkshire 3
Berlin 3
Besides 3
Beverly 3
Billboard 3
Billi@@ 3
Bobby 3
Bou@@ 3
Boys 3
Bradley 3
Brain 3
Brand 3
Bren@@ 3
Brett 3
Bright 3
Britons 3
Broncos 3
Bronx 3
Brooklyn 3
Brother 3
Brownback 3
Brownstein 3
Bruins 3
Brun@@ 3
Bud 3
Buddhist 3
Budget 3
Burke 3
Burton 3
Bus@@ 3
CA@@ 3
CHICAGO 3
CP@@ 3
CS@@ 3
Cah@@ 3
Calderon 3
Cales 3
Callahan 3
Calls 3
Calorie 3
Cam@@ 3
Cancer 3
Candidates 3
Canterbury 3
Capt. 3
Cardiovascular 3
Caribbean 3
Carol@@ 3
Carrie 3
Cast@@ 3
Cau@@ 3
Cec@@ 3
Celtic 3
Certain 3
Chan 3
Chang 3
Chapel 3
Charlotte 3
Check 3
Chic@@ 3
Child 3
Chilean 3
Chips 3
Chocolate 3
Chopin 3
Cin@@ 3
Circulation 3
Cla@@ 3
Clarkson 3
Class 3
Classic 3
Clayton 3
Clients 3
Climate 3
Clint 3
Coach 3
Colbert 3
Come 3
Communication 3
Comp-Att-Int 3
Comp@@ 3
Competition 3
Computer 3
Conc@@ 3
Concern 3
Concrete 3
Condoleezza 3
Conn 3
Conservation 3
Constellation 3
Coors 3
Coral 3
Coun@@ 3
Cour@@ 3
Cow@@ 3
Cr@@ 3
Crescent 3
Crohn 3
Cuba 3
Cul@@ 3
Cunningham 3
Cur@@ 3
Curry 3
Cy@@ 3
DE@@ 3
DENVER 3
DRW 3
DailyCandy 3
Daimler 3
Dance 3
Danger 3
Dark 3
Darling 3
Darren 3
Davydenko 3
Dead 3
Deaths 3
Debate 3
Deep@@ 3
Defending 3
Defoe 3
Del 3
Dell 3
Demand 3
Depot 3
Det@@ 3
Detectives 3
Develop@@ 3
Dialogue 3
Diet 3
Dilfer 3
Dinner 3
Direc@@ 3
Direct 3
Directors 3
Distributed 3
Dixon 3
Doc@@ 3
Doctors 3
Dodd 3
Dollar 3
Dolly 3
Dolphins 3
Donald 3
Doris 3
Down 3
Down@@ 3
Downs 3
Driver 3
Dro@@ 3
Drugs 3
Dub@@ 3
Dublin 3
ED 3
EPA 3
EPS 3
ER@@ 3
Earthquake 3
Eddie 3
Edgar 3
Educational 3
Edward 3
Egyptian 3
Either 3
El 3
Eli 3
Ellis 3
Embassy 3
Empty 3
Engines 3
Environment 3
Ericsson 3
Erik 3
Ernie 3
Esp@@ 3
Est@@ 3
Etisalat 3
Euro 3
Ever 3
Everything 3
Ex-@@ 3
Experts 3
FOR 3
Facing 3
Fal@@ 3
Fall 3
Fallon 3
Famous 3
Fans 3
Fast 3
Fat 3
Fau@@ 3
Federation 3
Federline 3
Felix 3
Fenty 3
Ferguson 3
Fernandez 3
Festival 3
Fi@@ 3
Fif@@ 3
Fight 3
Firm 3
Fish 3
Flesch 3
Fonda 3
Forbes 3
Forces 3
Forum 3
Fra@@ 3
Francis 3
Franklin 3
Freedom 3
Frenchman 3
Fromong 3
Fru@@ 3
Fry 3
Fukuda 3
Futures 3
G-@@ 3
GA@@ 3
GE 3
GPS 3
GS@@ 3
Ga 3
Gab@@ 3
Gabrielle 3
Gall@@ 3
Gambari 3
Garrison 3
Gat@@ 3
Gaz@@ 3
Gerdau 3
Get@@ 3
Gibbs 3
Girardi 3
Girls 3
Given 3
Gl@@ 3
Glam 3
Glenn 3
Goes 3
Going 3
Gorbachev 3
Gorges 3
Gotbaum 3
Goulet 3
Grant 3
Green@@ 3
Greenpeace 3
Gregory 3
Gro@@ 3
Gul@@ 3
H.@@ 3
HD 3
HM 3
Hal@@ 3
Hands 3
Hank 3
Harbor 3
Hart 3
Harvest 3
Hat@@ 3
Haven 3
Hayes 3
Head 3
Head@@ 3
Healthcare 3
Heather 3
Heathrow 3
Heavy 3
Heidi 3
Heisman 3
Helen 3
Henrik 3
Her@@ 3
Heroes 3
Herr@@ 3
Higgins 3
Highland 3
Hil@@ 3
Hispanics 3
Hit@@ 3
Hockey 3
Hop@@ 3
Hornets 3
Host 3
Housing 3
Hubble 3
IA 3
IA@@ 3
ID@@ 3
INTEREST 3
IPO 3
IT@@ 3
Imp@@ 3
Improving 3
Imus 3
Include 3
Ind 3
Indeed 3
Industry 3
Inf@@ 3
Inspector 3
Intel 3
Intel@@ 3
Into 3
Investors 3
Irishman 3
Irvine 3
Italian-@@ 3
J.D. 3
Jackie 3
Jacobs 3
Jam@@ 3
Jav@@ 3
Jayawardene 3
Jean 3
Jenkins 3
Jenna 3
Jer@@ 3
Jet 3
Jewell 3
Jihad 3
Joel 3
Jud@@ 3
Judd 3
Julia 3
Justin 3
KABUL 3
KET 3
Kaczynski 3
Kam@@ 3
Kan 3
Kaplan 3
Kashmir 3
Kathleen 3
Kelud 3
Ken@@ 3
Kent 3
Khalaf 3
Kills 3
Kimmel 3
Kir@@ 3
Kle@@ 3
Krist@@ 3
Kro@@ 3
Kuwaiti 3
Ky@@ 3
LA@@ 3
LD@@ 3
LOG@@ 3
LPGA 3
LY 3
Lab@@ 3
Labour 3
Landing 3
Lat@@ 3
Late 3
Lawrence 3
Lay 3
Leave 3
Lebanese 3
Leno 3
Level 3
Levin 3
Liber@@ 3
Libya 3
Libyan 3
Lil@@ 3
Limited 3
Link 3
Lionel 3
Lloyd 3
Loan 3
Lon@@ 3
London-based 3
Lords 3
Lose 3
Lou@@ 3
Louise 3
Louisville 3
Lowe 3
Lucas 3
Lucy 3
M-@@ 3
M. 3
MAR@@ 3
MARGIN 3
MS@@ 3
MSNBC 3
Machinery 3
Madeleine 3
Madonna 3
Magazine 3
Magic 3
Main 3
Main@@ 3
Managers 3
Managing 3
Mand@@ 3
Mandell 3
Mann@@ 3
Manufacturers 3
Marbury 3
Marc 3
Marino 3
Martina 3
Masters 3
Mau@@ 3
Max@@ 3
Mays 3
McCartney 3
McDonald 3
McG@@ 3
McGrady 3
Medicine 3
Meets 3
Member 3
Men@@ 3
Michelle 3
Miguel 3
Mill@@ 3
Milwaukee 3
Minority 3
Minutes 3
MoD 3
Moh@@ 3
Mol@@ 3
Monetary 3
Monks 3
Montana 3
Moo@@ 3
Moreno 3
Moss 3
Motion 3
Mou@@ 3
Mukherjee 3
Mullah 3
Mumbai 3
Mus@@ 3
Mut@@ 3
MySpace 3
Myint 3
N.H. 3
N.J. 3
N.Y 3
NA@@ 3
NAS@@ 3
NCAA 3
NHL 3
NY@@ 3
Nairobi 3
Nash 3
Nature 3
Neigh@@ 3
Net@@ 3
Netherlands 3
Networks 3
News@@ 3
Nextel 3
Nic@@ 3
Nicholas 3
Nielsen 3
Nik@@ 3
Nikolay 3
Nintendo 3
Nissan 3
Noble 3
Non-@@ 3
Non-GAAP 3
Non@@ 3
Norwegian 3
Nottingham 3
Nur@@ 3
ON 3
OP@@ 3
OS@@ 3
Oakland 3
Obviously 3
Od@@ 3
Odinga 3
Odyssey 3
Offer 3
Officers 3
Oh 3
Okabe 3
Oliver 3
On@@ 3
Open@@ 3
Opinion 3
Opponents 3
Opposition 3
Oprah 3
Orange 3
Ore 3
Ori@@ 3
Osama 3
Ottawa 3
Outside 3
Ow@@ 3
Oz 3
PH@@ 3
PL@@ 3
POR@@ 3
PP 3
Palestine 3
Pap@@ 3
Parsons 3
Pat 3
Paulson 3
Pennington 3
Peru 3
Petersburg 3
Ph.D. 3
Pharma 3
Pho@@ 3
Pichushkin 3
Pick@@ 3
Pictures 3
Pierre 3
Pit@@ 3
Places 3
Plan 3
Plat@@ 3
Platform 3
Players 3
Politkovskaya 3
Poll 3
Poly@@ 3
Pon@@ 3
Pos@@ 3
Pra@@ 3
Premier 3
Previous 3
Price 3
Prices 3
Princess 3
Pris@@ 3
Produc@@ 3
Profit 3
Properties 3
Property 3
Protest@@ 3
Publ@@ 3
Publishing 3
Pyongyang 3
QC 3
Quebec 3
Quinn 3
RAF 3
RBIs 3
RF@@ 3
RI@@ 3
RT@@ 3
Ra@@ 3
Race 3
Rad@@ 3
Rafael 3
Rains 3
Raymond 3
Real@@ 3
Reality 3
Reconciliation 3
Recorded 3
Rein@@ 3
Rel@@ 3
Ren@@ 3
Resistant 3
Resource 3
Reti@@ 3
Return 3
Returns 3
Rev. 3
Revenues 3
Rhode 3
Rich 3
Rich@@ 3
Ridge 3
Right 3
Rijkaard 3
Rit@@ 3
Rivers 3
Riyadh 3
Rob@@ 3
Robertson 3
Robin 3
Rod 3
Roddick 3
Romania 3
Romo 3
Ronald 3
Ronnie 3
Roo@@ 3
Room 3
Rossi 3
Roth@@ 3
Row@@ 3
Rudd 3
Run@@ 3
Russ 3
Russell 3
Rut@@ 3
SA@@ 3
SAFC 3
SE@@ 3
SEIU 3
SH@@ 3
SIRIUS 3
Saakashvili 3
Safin 3
Saget 3
Salmond 3
Sam 3
Samantha 3
Samp@@ 3
Samuel 3
Sang@@ 3
Santiago 3
Scar@@ 3
Schools 3
Sears 3
Secret 3
Secrets 3
Selling 3
Serbs 3
Sergei 3
Sex@@ 3
Sgt. 3
Shah 3
Shah@@ 3
Shake 3
Shane 3
Sharon 3
She@@ 3
Shenandoah 3
Shiite-@@ 3
Sho@@ 3
Shor@@ 3
Sig@@ 3
Sign@@ 3
Signs 3
Silicon 3
Sim@@ 3
Simmons 3
Singer 3
Skype 3
Sl@@ 3
Smart 3
Software 3
Sol@@ 3
Solana 3
Sold 3
Solution 3
Some@@ 3
Song 3
Sonoma 3
Southeastern 3
Spe@@ 3
Spice 3
Spiderman 3
Spitzer 3
Spre@@ 3
Stage 3
Star 3
Star@@ 3
Stars 3
Stat@@ 3
Steinbrenner 3
Stephanie 3
Sterling 3
Stewart 3
Stinnett 3
Stoner 3
Store 3
Stri@@ 3
Strong 3
Stru@@ 3
Students 3
Study 3
Stuttgart 3
Suisse 3
Sul@@ 3
Sumatra 3
Summit 3
Superior 3
Supply 3
Surprise 3
Surrey 3
Survi@@ 3
Sw@@ 3
T-@@ 3
TE@@ 3
TFG 3
TI@@ 3
TIME 3
TO@@ 3
TS 3
Tac@@ 3
Talk 3
Tamil 3
Tan@@ 3
Tani 3
Tat@@ 3
Team 3
Tebow 3
Tech@@ 3
Tel 3
Telecommunications 3
Telegraph 3
Telford 3
Ten 3
Tequila 3
Tesco 3
Thanks 3
Thatcher 3
Think 3
Thirteen 3
Tho@@ 3
Thor@@ 3
Tickets 3
Tinto 3
Title 3
Toll 3
Ton@@ 3
Tor@@ 3
Toyota 3
Tracy 3
Trading 3
Traffic 3
Travis 3
Treasure 3
Trevor 3
True 3
Try 3
Tur@@ 3
Twins 3
Tydfil 3
Tymoshenko 3
UN-@@ 3
US-@@ 3
Ukraine 3
Ultimately 3
Un 3
Unaudited 3
Up@@ 3
Urban 3
Use 3
Used 3
V 3
Val@@ 3
Valencia 3
Vanessa 3
Ve@@ 3
Venice 3
Venture 3
Vera 3
Vernon 3
Veteran 3
Veterans 3
Vice-President 3
Vick@@ 3
Victor 3
Vidal 3
Vie@@ 3
Vir@@ 3
Vision 3
Vo@@ 3
Vodafone 3
Voice 3
Vol@@ 3
Voters 3
WTA 3
Wa@@ 3
Wade 3
Wagner 3
Wake 3
Walter 3
Walters 3
Warsaw 3
Wash@@ 3
Water@@ 3
Watson 3
Watts 3
Way 3
Web-@@ 3
Week 3
Wein@@ 3
Weinstein 3
Wel@@ 3
Wells 3
Wheat 3
Whether 3
Wi-Fi 3
Wigan 3
Willie 3
Willis 3
Win 3
Windows 3
Windsor 3
Wings 3
Witnesses 3
Women 3
Woo@@ 3
Words 3
Working 3
Worries 3
Worth 3
Writers 3
Wy@@ 3
Yan@@ 3
Yanukovych 3
Ye@@ 3
Yonhap 3
Yor@@ 3
Youkilis 3
Zimmer 3
ab 3
abduc@@ 3
abo@@ 3
abortions 3
abrupt 3
academy 3
accelerate 3
accepts 3
accessible 3
accidental 3
accidents 3
accommodate 3
accompany 3
accusations 3
accusing 3
aces 3
ach 3
achievements 3
acknowledge 3
acks 3
acquitted 3
actors 3
acu@@ 3
acute 3
addressed 3
addressing 3
adequate 3
adic@@ 3
adjustable-rate 3
adjustments 3
admission 3
adul@@ 3
advantages 3
advertisement 3
advertisers 3
advocacy 3
affili@@ 3
after-@@ 3
aftermath 3
aggregate 3
aggressively 3
agreeing 3
agriculture 3
ail 3
ail@@ 3
aiming 3
aki 3
aks 3
ali 3
aling 3
alism 3
all-star 3
alle@@ 3
aller@@ 3
alongside 3
alternatives 3
amb@@ 3
ambitious 3
ambulances 3
amed 3
amortization 3
ancient 3
ander 3
ane 3
angels 3
angry 3
ania 3
announces 3
announcing 3
anonymity 3
anonymous 3
anship 3
answering 3
ant@@ 3
antibody 3
anybody 3
anywhere 3
apologi@@ 3
appearances 3
appearing 3
apples 3
applicants 3
appraisal 3
appreciated 3
approaches 3
approaching 3
approximate 3
ara 3
ardent 3
arguing 3
argument 3
ari@@ 3
arm@@ 3
arra@@ 3
arranged 3
arrival 3
artificial 3
artwork 3
ascended 3
assassinate 3
assassination 3
assaulted 3
assembled 3
assembly 3
asser@@ 3
assessment 3
assigned 3
associations 3
asters 3
astronaut 3
ath@@ 3
atic 3
atory 3
attempting 3
attra@@ 3
attracting 3
ature 3
audi@@ 3
author@@ 3
authorized 3
authorizing 3
authors 3
automatic 3
automatically 3
automobile 3
aux 3
avant-garde 3
avi@@ 3
avo@@ 3
avoiding 3
ba@@ 3
bad@@ 3
bake 3
banker 3
bankruptcy 3
banning 3
bare 3
barred 3
bartender 3
bathroom 3
batted 3
batter@@ 3
battling 3
bay 3
bays 3
bear 3
bedroom 3
beer 3
behalf 3
behaviour 3
bel 3
belongs 3
benefactor 3
berg 3
bers 3
bes@@ 3
best-selling 3
betting 3
beverage 3
bidder 3
big-@@ 3
big@@ 3
bil@@ 3
billions 3
bing 3
biodiesel 3
biography 3
biological 3
birdies 3
blacks 3
blade 3
blah 3
blasted 3
blaze 3
blind 3
bloody 3
blown 3
blunt 3
blur@@ 3
bly 3
boarded 3
bon 3
bon@@ 3
bonds 3
bones 3
borders 3
borne 3
borough 3
boss 3
bottles 3
boundaries 3
bowed 3
bowl 3
boy@@ 3
boyfriend 3
bracelet 3
branch 3
breeding 3
broad@@ 3
broadcast@@ 3
broadcasting 3
broker 3
brown 3
browser 3
browsing 3
brush 3
bud@@ 3
bulb 3
bull 3
bull@@ 3
bullets 3
bullpen 3
bun@@ 3
buried 3
butter 3
butter@@ 3
by@@ 3
ca@@ 3
cafe 3
cake 3
cakes 3
calculate 3
calculated 3
calculation 3
calm 3
camel 3
can-@@ 3
canceled 3
capabilities 3
carbonated 3
cardi@@ 3
cardiac 3
cared 3
carrier 3
cartoon 3
cash@@ 3
cast@@ 3
casualties 3
cat 3
categorically 3
cathedral 3
ceasefire 3
cep@@ 3
cer@@ 3
cereals 3
ceremonies 3
chairs 3
champ 3
channels 3
charging 3
charm 3
charred 3
chart 3
charter 3
chat 3
che 3
cheap 3
cheaper 3
checks 3
cheers 3
cheese 3
chef 3
chefs 3
chemicals 3
chen 3
chester 3
chilly 3
cian 3
cigarette 3
circuit 3
circulated 3
circum@@ 3
cites 3
cked 3
cket 3
clarify 3
clas@@ 3
clashes 3
class@@ 3
classi@@ 3
classified 3
cles 3
climb 3
clin@@ 3
clock 3
closure 3
clu@@ 3
clut@@ 3
co-star 3
coached 3
coaches 3
coaching 3
coastal 3
coat 3
cocaine 3
cock@@ 3
coinci@@ 3
coincided 3
coincides 3
colleague 3
collective 3
collectors 3
colonial 3
colony 3
comfort 3
comfortably 3
comic 3
comm@@ 3
commemorate 3
commercials 3
committees 3
commodity 3
commonly 3
commun@@ 3
complaint 3
comple@@ 3
complexity 3
complic@@ 3
composed 3
compromise 3
conce@@ 3
conceded 3
concentrated 3
conclu@@ 3
conditioning 3
confir@@ 3
confisc@@ 3
conglomerate 3
connecting 3
cons@@ 3
consideration 3
consoli@@ 3
constraints 3
consultation 3
contemporary 3
contend 3
context 3
contracted 3
contributing 3
contributions 3
contributors 3
controversy 3
convey 3
cook 3
cool 3
cool@@ 3
coordinated 3
cop 3
copies 3
copper 3
corporations 3
corps 3
corridor 3
costumes 3
councils 3
counseling 3
counties 3
counting 3
countless 3
courses 3
coveted 3
crack@@ 3
cracked 3
craft 3
crazy 3
creatures 3
credibility 3
cri@@ 3
cried 3
crisp 3
criti@@ 3
criticize 3
criticizing 3
crops 3
crying 3
ctions 3
cub@@ 3
curbing 3
currencies 3
cy 3
cycles 3
cyclist 3
dairy 3
dale 3
dar 3
dark@@ 3
darkness 3
dated 3
dawn 3
de-@@ 3
dead@@ 3
deal@@ 3
dealer 3
dean 3
deci@@ 3
decre@@ 3
decree 3
default 3
defeat 3
defined 3
definition 3
delays 3
deliveries 3
delivering 3
demanded 3
demonstrated 3
demonstration 3
dence 3
denounced 3
dense 3
dent 3
dep@@ 3
departments 3
departure 3
depicted 3
deployments 3
depressant 3
depressed 3
deprived 3
depths 3
derived 3
describe 3
description 3
desert 3
deserved 3
deserves 3
design@@ 3
designated 3
designer 3
desired 3
destination 3
destroy 3
detainee 3
detect 3
deterior@@ 3
determination 3
determining 3
devastated 3
dh@@ 3
dia 3
diamond 3
dian 3
difficulties 3
dig@@ 3
digging 3
diminished 3
direc@@ 3
dirty 3
disabling 3
disap@@ 3
disappear 3
disappearance 3
disc 3
disc@@ 3
disciplined 3
disclosure 3
disguise 3
dish 3
dish@@ 3
disorder 3
disorders 3
dispatch 3
disper@@ 3
disrup@@ 3
disrupt 3
dist@@ 3
distinct 3
distracted 3
distributor 3
dive 3
diverse 3
diversity 3
divided 3
dness 3
doc@@ 3
dock 3
dogged 3
dolls 3
domain 3
donate 3
doomed 3
doping 3
dou@@ 3
downgrade 3
downturn 3
dragging 3
drags 3
drain 3
drawing 3
dreams 3
dresses 3
dressing 3
driveway 3
dropping 3
drops 3
drought 3
drug-@@ 3
drug@@ 3
drunken 3
dubbed 3
duck 3
dugout 3
dull 3
dump 3
dwellers 3
eBay 3
earliest 3
ears 3
echoed 3
eclipsed 3
econom@@ 3
ected 3
edi@@ 3
edited 3
educ@@ 3
educational 3
ef@@ 3
eggs 3
el-@@ 3
elaborate 3
elder 3
elders 3
ele 3
electri@@ 3
electro@@ 3
eled 3
element 3
eliminating 3
elled 3
embarr@@ 3
embassy 3
ements 3
emo@@ 3
emphasize 3
employer 3
ences 3
endor@@ 3
enduring 3
ene 3
ened 3
enhance 3
enhanced 3
enjoys 3
enrichment 3
enrolled 3
ensuing 3
enterprise 3
enterprises 3
entertainer 3
enting 3
entries 3
entry 3
ep 3
epidemic 3
equivalents 3
ere 3
erup@@ 3
es' 3
es-@@ 3
es.com 3
esh 3
et-@@ 3
ethical 3
etti 3
evacuation 3
evaluate 3
evaluation 3
evangelical 3
evangelicals 3
ever-@@ 3
evic@@ 3
evident 3
evidently 3
ex 3
ex-wife 3
examination 3
exceed 3
excitement 3
excluded 3
exempt 3
exhib@@ 3
exited 3
expectancy 3
expectation 3
expelled 3
expenditure 3
experiences 3
experiments 3
expiration 3
explanation 3
exploited 3
explosive 3
extraordinarily 3
extremism 3
eyed 3
facial 3
faction 3
faculty 3
fail@@ 3
famed 3
famously 3
fan@@ 3
fanned 3
fare 3
farming 3
fashion@@ 3
fast-@@ 3
fast@@ 3
favorites 3
fee 3
fel@@ 3
fen@@ 3
fil@@ 3
filling 3
filmed 3
financed 3
fingers 3
fishing 3
five-hour 3
fixtures 3
flames 3
flammable 3
flash 3
flashed 3
flesh 3
flexibility 3
flexible 3
fliers 3
flour 3
flows 3
fluent 3
folk 3
followers 3
fool 3
foot-@@ 3
foot@@ 3
footed 3
footing 3
foreclosure 3
foreigners 3
forget 3
forward- 3
founders 3
founding 3
four@@ 3
frac@@ 3
fraction 3
fragments 3
fran@@ 3
fraudulent 3
fray 3
freshman 3
front-@@ 3
front-runner 3
frustration 3
ft 3
fts 3
fuels 3
ful@@ 3
full-scale 3
fundraiser 3
fundraising 3
funeral 3
furn@@ 3
fury 3
gad@@ 3
gaining 3
gal 3
gar 3
gard 3
garnered 3
gas@@ 3
gash 3
generated 3
gg@@ 3
ghost 3
ghs 3
gigabyte 3
glam@@ 3
gle 3
gle@@ 3
gli@@ 3
glimpses 3
gloves 3
glow 3
golf 3
grab 3
grading 3
gradually 3
grams 3
gran@@ 3
grap@@ 3
grass 3
grave 3
gren 3
groin 3
ground@@ 3
grounded 3
groundwork 3
grows 3
gues 3
guild 3
guitar 3
gul@@ 3
guru 3
gy@@ 3
hair@@ 3
halls 3
ham@@ 3
handgun 3
hands-on 3
hanged 3
harassment 3
hard@@ 3
harmful 3
harness 3
hats 3
hazards 3
headache 3
hear@@ 3
hears 3
heart-@@ 3
hefty 3
height 3
helicopter 3
helpful 3
helpl@@ 3
herein 3
heritage 3
high-end 3
high-profile 3
high-risk 3
high@@ 3
highlighted 3
highs 3
hip-hop 3
hman 3
hn 3
hob@@ 3
holidays 3
holy 3
home-field 3
homeland 3
hoo@@ 3
hood 3
hopefuls 3
hormone 3
hostile 3
housed 3
hub 3
hull 3
humiliation 3
humor 3
hundred 3
hung 3
hunger 3
hungry 3
hurricane 3
hurting 3
hurts 3
hydro@@ 3
i-@@ 3
ian@@ 3
ians 3
ic-@@ 3
ica 3
ication 3
ich 3
iciency 3
icism 3
ick 3
icon 3
identification 3
ids 3
ield 3
if@@ 3
ific@@ 3
ification 3
igh@@ 3
ign 3
ignited 3
ignored 3
ignoring 3
ik 3
il-@@ 3
iles 3
ill-@@ 3
illegally 3
ily 3
ima 3
imitate 3
import 3
impossible 3
impres@@ 3
impro@@ 3
inability 3
inappropriate 3
incentives 3
inch 3
inconclusive 3
inde@@ 3
indefinitely 3
indent@@ 3
independents 3
indic@@ 3
indicted 3
indictment 3
industries 3
ine@@ 3
ined 3
inevitable 3
inflicted 3
influences 3
inform 3
ingredient 3
ingredients 3
ink 3
inmates 3
inqu@@ 3
insi@@ 3
insist 3
insp@@ 3
inspiration 3
installing 3
instantly 3
instructed 3
instructions 3
instrum@@ 3
intact 3
integration 3
integrity 3
intellectually 3
intensity 3
intention 3
intentionally 3
intercept 3
internally 3
internationally 3
interpre@@ 3
interrogation 3
intervals 3
intervention 3
intoler@@ 3
intox@@ 3
intru@@ 3
invasion 3
inventor 3
inventories 3
iring 3
ironic 3
ishing 3
istic 3
ita 3
itate 3
itive 3
itous 3
ity-@@ 3
ium 3
ized 3
izes 3
jab 3
jan 3
join@@ 3
joining 3
joked 3
journals 3
judiciary 3
justified 3
k-@@ 3
kar@@ 3
ken 3
ken@@ 3
kers 3
ki 3
kin 3
kles 3
kne@@ 3
kno@@ 3
knocking 3
kovic 3
la 3
lab@@ 3
lad@@ 3
lam@@ 3
landed 3
lar@@ 3
large-scale 3
lasting 3
lately 3
laughing 3
laureate 3
lawmaker 3
lay 3
lazy 3
lean 3
leaning 3
leased 3
legislators 3
legitimate 3
lengthy 3
ler@@ 3
lessly 3
lesson 3
lever@@ 3
liability 3
liberty 3
lic 3
licenses 3
licensing 3
lie 3
lieutenant 3
lifetime 3
lifted 3
likened 3
limitations 3
linchpin 3
liner 3
lis 3
listening 3
literature 3
loads 3
locker 3
log 3
logical 3
long@@ 3
lou@@ 3
lovely 3
lover 3
loyal 3
lun@@ 3
ly-@@ 3
lying 3
lyrics 3
macro@@ 3
mad@@ 3
magnate 3
maintaining 3
maintains 3
mandatory 3
manner 3
manners 3
manual 3
manufactures 3
map 3
marathon 3
marry 3
mas@@ 3
masters 3
matic 3
may@@ 3
meal 3
meaningful 3
measuring 3
medi@@ 3
memories 3
ment@@ 3
merely 3
mers 3
mes@@ 3
meter 3
meth@@ 3
method 3
mice 3
midday 3
midfield 3
milestone 3
militia 3
milli@@ 3
mir@@ 3
miserable 3
mistakes 3
mix@@ 3
mob 3
moder@@ 3
modi@@ 3
mom@@ 3
momentum 3
monitors 3
motorcycle 3
mounting 3
mud@@ 3
multimedia 3
mum@@ 3
mushrooms 3
na 3
nar@@ 3
narrative 3
narrow 3
nationally 3
neck 3
negotiated 3
negotiating 3
negotiator 3
neighborhoods 3
neighbours 3
nektar.com 3
ners 3
nervous 3
newer 3
newscast 3
nic@@ 3
nicely 3
night@@ 3
nightclub 3
nightly 3
nominees 3
non- 3
noon 3
north-@@ 3
notebook 3
noti@@ 3
noticed 3
notified 3
objec@@ 3
object 3
obsessions 3
obstacles 3
occasionally 3
occurs 3
od 3
offseason 3
ology 3
oma 3
omed 3
oms 3
omy 3
ona 3
one-day 3
oners 3
oney 3
op 3
opener 3
oper@@ 3
opera 3
optim@@ 3
optimistic 3
or-@@ 3
ordering 3
ordinary 3
organ@@ 3
organize 3
organizers 3
organizing 3
orial 3
oriented 3
origin 3
ort 3
out-@@ 3
outcome 3
outcomes 3
outlets 3
outpost 3
output 3
outrage 3
outskirts 3
ov 3
ovation 3
over-@@ 3
overhead 3
override 3
overseeing 3
oversees 3
ox@@ 3
pace 3
packs 3
pact 3
paintings 3
paperwork 3
parade 3
parenting 3
parks 3
partition 3
passage 3
passion 3
patch 3
patches 3
pay-per-@@ 3
payable 3
payout 3
payroll 3
pec@@ 3
ped 3
pending 3
pepper 3
perception 3
perfectly 3
period-end 3
persuaded 3
pet@@ 3
philosophy 3
photo@@ 3
photographer 3
photography 3
physi@@ 3
pic@@ 3
pickup 3
pig@@ 3
pin 3
pinch 3
pinch@@ 3
pip@@ 3
pitcher 3
pizza 3
placement 3
plain 3
planet 3
ple 3
ples 3
plotted 3
poetry 3
poin@@ 3
poised 3
polio 3
poly@@ 3
pools 3
populations 3
portray 3
ports 3
posed 3
poss@@ 3
possibility 3
poster 3
posters 3
posting 3
pot 3
powder 3
power-@@ 3
pping 3
pr@@ 3
praise 3
pray 3
precautions 3
predic@@ 3
premises 3
prepare 3
prescri@@ 3
presided 3
pressing 3
pressured 3
presumably 3
prey 3
pricing 3
principals 3
procedures 3
produces 3
promo@@ 3
promotes 3
promotion 3
pron@@ 3
pronounced 3
prop@@ 3
prosecute 3
prosperous 3
proteins 3
proves 3
provoke 3
psychology 3
pt 3
pub 3
publisher 3
pulls 3
pump 3
punish 3
punishment 3
put@@ 3
puts 3
qualify 3
quarterbacks 3
queen 3
ques 3
questionable 3
questionnaire 3
quet 3
quotas 3
r 3
rab@@ 3
rac@@ 3
racial 3
radical 3
radioactive 3
rah 3
railway 3
rainy 3
raises 3
rallies 3
ramp@@ 3
random 3
ranking 3
rankings 3
ratify 3
react 3
reacted 3
reaction 3
reactions 3
rebuilding 3
receives 3
recognizes 3
recommending 3
recruiting 3
refers 3
refinery 3
refining 3
reflective 3
refugee 3
regist@@ 3
rela@@ 3
relegated 3
reliance 3
relies 3
relieved 3
rell 3
relying 3
remark@@ 3
reminded 3
reminder 3
renewable 3
renewed 3
reopen 3
rep@@ 3
repairs 3
repe@@ 3
replacements 3
replicate 3
representation 3
repris@@ 3
requirement 3
rescued 3
researched 3
resolved 3
reson@@ 3
respects 3
respondents 3
restored 3
restri@@ 3
restructuring 3
resume 3
retain 3
retake 3
revered 3
reverse 3
reviewed 3
reward 3
rey 3
rice 3
rier 3
risen 3
robot 3
romance 3
roof 3
root 3
roots 3
roster 3
rout 3
routes 3
rows 3
rubber 3
rulers 3
rum 3
run-@@ 3
runner 3
runners 3
runway 3
rus 3
sack 3
salmon 3
salt 3
sang 3
satisfactory 3
scal@@ 3
scares 3
scooters 3
scope 3
scoreless 3
scratched 3
script 3
scrutiny 3
se-@@ 3
sealed 3
seamless 3
searchers 3
seas@@ 3
season-@@ 3
seasoned 3
sectarian 3
sed 3
seeds 3
sei@@ 3
self 3
self-imposed 3
semester 3
semi@@ 3
sends 3
sentiment 3
separated 3
separatist 3
sequ@@ 3
sett@@ 3
settled 3
shaft 3
shake 3
shaking 3
sham@@ 3
shei@@ 3
shell 3
shifted 3
shiny 3
ship@@ 3
shipped 3
shirt 3
shop@@ 3
shor@@ 3
shore 3
short-term 3
short@@ 3
shortages 3
shortest 3
shout 3
shouting 3
shower 3
shr@@ 3
shutout 3
sick 3
sie 3
sil@@ 3
silence 3
singing 3
sion@@ 3
sisters 3
sitcom 3
sits 3
skeptical 3
skies 3
sla@@ 3
slam 3
slated 3
sleeve 3
slept 3
slide 3
slogan 3
slot 3
sman 3
smar@@ 3
smooth 3
smooth@@ 3
snap 3
snapped 3
snow@@ 3
soared 3
socially 3
solar 3
sole 3
song@@ 3
sooner 3
sor@@ 3
sounding 3
south@@ 3
southwestern 3
spacecraft 3
sparks 3
spe@@ 3
speciali@@ 3
speculative 3
speech@@ 3
spell 3
spends 3
spi@@ 3
spilled 3
spinning 3
spirited 3
splits 3
spo@@ 3
sprain 3
sprawling 3
spreading 3
sprin@@ 3
squeeze 3
squeezed 3
staffers 3
stamp 3
standings 3
standoff 3
starring 3
starters 3
statues 3
stays 3
ste 3
steam 3
steep 3
stic 3
stick 3
stick@@ 3
sticks 3
stole 3
stops 3
strategist 3
straw 3
stres@@ 3
stretches 3
strip 3
stro@@ 3
stum@@ 3
stumbled 3
stupid 3
sty@@ 3
sub 3
subjects 3
submitted 3
subpo@@ 3
subsi@@ 3
substance 3
substitutes 3
suburbs 3
succeeded 3
successfully 3
succession 3
successive 3
succumbed 3
sudden 3
suggesting 3
sultry 3
sun 3
sundown 3
sunlight 3
sup@@ 3
supermarket 3
supplied 3
supplier 3
supportive 3
surgical 3
surplus 3
surrender 3
surveillance 3
suspicious 3
sustainability 3
swept 3
sy 3
symptoms 3
tability 3
tables 3
tage 3
tail@@ 3
tain@@ 3
tal 3
talented 3
tan 3
tank 3
tanks 3
tap 3
tapped 3
tator 3
taught 3
taxi 3
tea 3
teammate 3
tear 3
technique 3
techniques 3
tee 3
teenage 3
tenant 3
tended 3
tending 3
tends 3
tened 3
tenure 3
tered 3
terminology 3
terrible 3
tery 3
testament 3
tex@@ 3
th- 3
thank@@ 3
the-@@ 3
theatre 3
then-@@ 3
therap@@ 3
third-and-@@ 3
third-party 3
thorough 3
thr@@ 3
three-day 3
three-run 3
throne 3
throws 3
tia 3
tical 3
tick@@ 3
tightening 3
tiles 3
tional 3
tired 3
tis 3
titled 3
tiv@@ 3
tivate 3
tle 3
toilet 3
ton@@ 3
tonnes 3
tons 3
top@@ 3
tors 3
tory 3
tot@@ 3
touch@@ 3
touched 3
touches 3
tour@@ 3
tournaments 3
tow@@ 3
tracking 3
tragedy 3
trail 3
trailed 3
trainers 3
transparency 3
transparent 3
transplant 3
traumatic 3
travels 3
treating 3
treatments 3
tremendous 3
triggered 3
triumph 3
triumphant 3
trum@@ 3
trunk 3
tt 3
tumors 3
tune 3
tuning 3
turmoil 3
two-year 3
ty-@@ 3
ular 3
ums 3
uncertainty 3
unclear 3
uncon@@ 3
undertaken 3
undertakes 3
unexpectedly 3
ung 3
unhappy 3
uniforms 3
unilaterally 3
unle@@ 3
unofficial 3
unpredictable 3
unusually 3
unveiled 3
unwelcome 3
up-@@ 3
upgrade 3
upheld 3
upscale 3
uring 3
usa@@ 3
useless 3
ut 3
utilities 3
vaccinations 3
vaccines 3
valu@@ 3
valuable 3
van@@ 3
vanish 3
vegetables 3
vely 3
vendors 3
ventures 3
venue 3
venues 3
ver 3
verge 3
videotap@@ 3
vie 3
viewing 3
vigil 3
villages 3
vine 3
violated 3
violently 3
virtue 3
visa 3
visibility 3
visible 3
vivid 3
void 3
vs 3
vs. 3
wa 3
wan@@ 3
wanting 3
ward@@ 3
warheads 3
wary 3
waved 3
waves 3
weaker 3
wealth 3
weeklong 3
weighted 3
wells 3
wering 3
west-northwest 3
wheelchairs 3
whist@@ 3
white-@@ 3
wick 3
wicket 3
wickets 3
wid@@ 3
wild-card 3
wildfire 3
wildlife 3
wings 3
wishes 3
wit@@ 3
witch 3
wives 3
wom@@ 3
won@@ 3
world-class 3
wounding 3
wre@@ 3
wrest@@ 3
wrong@@ 3
www.c@@ 3
yarder 3
yers 3
yn 3
you@@ 3
youngsters 3
zation 3
zi@@ 3
zinc 3
zoo 3
zy 3
'Connell 2
'Hara 2
'Malley 2
'Neal 2
'mon 2
,000-@@ 2
-H@@ 2
-S@@ 2
-a-@@ 2
-action 2
-f@@ 2
-fi 2
-free 2
-growing 2
-h@@ 2
-hour 2
-long 2
-related 2
-tech 2
.7 2
.O 2
.htm 2
0,6@@ 2
0-3 2
0-for-@@ 2
0.01 2
0.03 2
0.07 2
0.09 2
0.11 2
0.1810 2
0.1905 2
0.22 2
0.23 2
0.25 2
0.28 2
0.33 2
0.35 2
0.47 2
0.51 2
0.53 2
0.61 2
0.65 2
0.7@@ 2
0.85 2
0.97 2
0.98 2
000-@@ 2
0100 2
028 2
06@@ 2
07@@ 2
1,050 2
1,078 2
1,124 2
1,136 2
1,17@@ 2
1,300 2
1,344,962 2
1,351 2
1,591 2
1,700 2
1,916 2
1,998 2
1-yard 2
1.00 2
1.02 2
1.16 2
1.35 2
1.36@@ 2
1.40 2
10,493 2
10,554 2
10,558 2
10,664 2
10,950 2
10-12 2
10.05 2
10.3 2
10.4 2
10.@@ 2
107@@ 2
109 2
109,@@ 2
11,559 2
11.7 2
114 2
116.@@ 2
118 2
119.@@ 2
11th 2
12,000 2
12,0@@ 2
128 2
13,086 2
13,369 2
13,641 2
13,6@@ 2
13th 2
14,083 2
14,127,000 2
14,446 2
14,631 2
14,834 2
14-0 2
14-year-old 2
14.6 2
144 2
149,@@ 2
14th 2
15,397 2
150,000 2
150,9@@ 2
153,@@ 2
157 2
157@@ 2
15th 2
16,000 2
16,759 2
16-year-old 2
160 2
168@@ 2
17,000 2
17-year-old 2
170 2
171 2
172,357 2
173 2
175 2
175,@@ 2
176@@ 2
178,487 2
18,486 2
18,9@@ 2
18-hour 2
18-year-old 2
180,000 2
183 2
188 2
18th 2
19,019 2
19.5 2
1904 2
1915 2
1922 2
193 2
1930s 2
1939 2
195 2
1952 2
196 2
1964 2
1965 2
1966 2
1974 2
1975 2
1976 2
1977 2
1985 2
1999-@@ 2
199@@ 2
19th 2
2,200 2
2,234 2
2,253 2
2,260 2
2,261 2
2,348,159 2
2,370,889 2
2,40@@ 2
2,442,318 2
2,500 2
2,545,739 2
2,567,638 2
2,609,744 2
2,60@@ 2
2,709 2
2,893,861 2
2,935,448 2
2,996 2
2- 2
2-3 2
2-7 2
2-yard 2
2.04@@ 2
2.1 2
2.40 2
2.6 2
20,@@ 2
20.6 2
2002-@@ 2
2010 2
2014 2
2017 2
204780 2
21,000 2
21,172 2
21-@@ 2
21-year-old 2
210 2
212-845-4@@ 2
22,141 2
22,328 2
22,482 2
22,932 2
22-@@ 2
22-year-old 2
228,346 2
229,500 2
22nd 2
23,505 2
23-year-old 2
230 2
232-@@ 2
234 2
239,@@ 2
24,0@@ 2
24,491 2
24,9@@ 2
240,000 2
241 2
245,652 2
245,794 2
245,864 2
246,287 2
246,400 2
246,449 2
249 2
25,580 2
25.5 2
252 2
253 2
256 2
26-@@ 2
26.@@ 2
260 2
263,694 2
265,048 2
265,129 2
265,136 2
266 2
269 2
26th 2
270 2
275 2
277 2
279,@@ 2
28,124 2
28,854 2
282 2
29,324 2
29.@@ 2
290 2
3,00@@ 2
3,0@@ 2
3,236,964 2
3,324,514 2
3,431,208 2
3,49@@ 2
3,5@@ 2
3,627,739 2
3,750,844 2
3,789,634 2
3-Point 2
3.17 2
3.45 2
3.5 2
3.55 2
3.67 2
3.67@@ 2
3.77 2
3.92 2
30,000 2
30,813 2
300@@ 2
301 2
302007 2
308,@@ 2
31-year-old 2
318 2
32,063 2
326 2
329 2
33,5@@ 2
33,@@ 2
33.@@ 2
338 2
34,@@ 2
34.@@ 2
340,162 2
350-@@ 2
351,412 2
352 2
36-year-old 2
361 2
363,409 2
365 2
37-@@ 2
373 2
38,@@ 2
390 2
391 2
397 2
398 2
3x 2
4,186,000 2
4,38@@ 2
4,400 2
4,4@@ 2
4,500 2
4,5@@ 2
4,69@@ 2
4-1 2
4-6 2
4.46 2
4.47 2
4.5 2
4.54 2
4.67 2
4.75 2
4.8 2
4.99 2
40-year-old 2
41,031 2
42,7@@ 2
42-year-old 2
42007 2
429 2
42nd 2
43,@@ 2
43-year-old 2
43.@@ 2
439 2
447 2
44@@ 2
45-0521 2
45-year-old 2
450 2
452007 2
456,769 2
459 2
46,000 2
469 2
47-@@ 2
471,911 2
478 2
479,584 2
480 2
481 2
481,734 2
486,928 2
490 2
490,564 2
493 2
4m 2
5,207 2
5,264 2
5,4@@ 2
5,659 2
5,6@@ 2
5-1 2
5.28 2
5.8 2
5.99 2
500,000 2
5000 2
509 2
50s 2
513 2
517,193 2
52,158 2
52,359 2
52,@@ 2
52.4 2
521,089 2
522,409 2
526,475 2
530 2
538 2
542 2
543 2
545 2
547 2
55,000 2
55,@@ 2
55-@@ 2
55-year-old 2
552 2
556 2
55th 2
566,772 2
58,937 2
581 2
584 2
586 2
599 2
59@@ 2
5m 2
6,4@@ 2
6,582 2
6,587 2
6,8@@ 2
6-0 2
6-3 2
6-7 2
6-8@@ 2
6-foot-@@ 2
6.02 2
6.20 2
6.24 2
6.3 2
6.99 2
60,680 2
60,@@ 2
60-@@ 2
60th 2
61.3 2
619 2
62,3@@ 2
62,6@@ 2
626 2
630 2
632,137 2
632,532 2
634,019 2
65,019 2
66-@@ 2
665 2
67,@@ 2
67-year-old 2
671,210 2
683 2
687 2
69,@@ 2
690 2
694 2
6th 2
7,27@@ 2
7,610 2
7,802 2
7-6 2
7-year-old 2
7.05 2
7.08 2
7.18 2
7.22 2
7.5 2
7.87 2
7.9 2
7.96 2
70,000 2
70,@@ 2
708 2
72,@@ 2
728 2
729 2
739.@@ 2
75,000 2
75,@@ 2
75.@@ 2
750,000 2
769 2
77.9 2
788 2
79,230 2
8,194 2
8,279 2
8,924 2
8.1 2
80-@@ 2
807,618 2
80s 2
84,885 2
85.@@ 2
850 2
86@@ 2
87,000 2
870 2
873,670 2
877-@@ 2
89@@ 2
9,400 2
9,915 2
9.3 2
9.45 2
9.77 2
9.8 2
9.91 2
90,6@@ 2
90,@@ 2
90s 2
92-@@ 2
92007 2
93.@@ 2
942,150 2
949 2
95,@@ 2
958,605 2
96@@ 2
973 2
97@@ 2
980,000 2
99.@@ 2
993 2
AA@@ 2
AAA 2
ACC@@ 2
ADIS 2
ADS 2
AE@@ 2
APA 2
AS 2
ASU 2
AT 2
ATF 2
ATK 2
ATS 2
AU@@ 2
AYP 2
Abdoulaye 2
Abdul 2
Abe@@ 2
Able 2
Abraham 2
Abramovich 2
Academic 2
Accounting 2
Accumulated 2
Acquisition 2
Adamson 2
Adap@@ 2
Additionally 2
Adjusted 2
Adm. 2
Administ@@ 2
Adrian 2
Adul@@ 2
Advanced 2
Advis@@ 2
Aerospace 2
African-American 2
Afterward 2
Afterwards 2
Against 2
Aidan 2
Aim 2
Ain 2
Aires 2
Aj@@ 2
Al-Bashir 2
Al-Qaeda 2
Al-S@@ 2
Ala 2
Alb@@ 2
Alban@@ 2
Albanian 2
Alcat@@ 2
Aldridge 2
Alec 2
Alevi 2
Alex@@ 2
Alexandra 2
Alexandria 2
Alf@@ 2
Alistair 2
All-Star 2
Alp@@ 2
Alstead 2
Alternate 2
Alternative 2
Americas 2
Amos 2
Amund@@ 2
Anatoli@@ 2
Anci@@ 2
Ander@@ 2
Andre 2
Andreas 2
Angel@@ 2
Anglican 2
Animal 2
Anno@@ 2
Announ@@ 2
Any@@ 2
Apart 2
Apartment 2
App@@ 2
Appeals 2
Arabic 2
Arabs 2
Arafat 2
Arc@@ 2
Arch@@ 2
Arena 2
Ari@@ 2
Ark@@ 2
Arm@@ 2
Arma@@ 2
Armen@@ 2
Arms 2
Arnaud 2
Arnold 2
Arti@@ 2
As@@ 2
Asa@@ 2
Asdrubal 2
Ashfaq 2
Ashraf 2
Ashton 2
Asi@@ 2
Asma 2
Asp@@ 2
Assad 2
Assassination 2
Assi@@ 2
Associ@@ 2
Ast@@ 2
Astaire 2
Astana 2
Astron@@ 2
Atapattu 2
Athletic 2
Atkinson 2
Attack 2
Attention 2
Audi 2
Aug@@ 2
Australians 2
Auth@@ 2
Autism 2
Auto 2
Auto@@ 2
Avail@@ 2
Aviv 2
Avon 2
Awar@@ 2
Away 2
Ax@@ 2
Ayatollah 2
Azim 2
B-52 2
B04 2
BA@@ 2
BAL@@ 2
BALANCE 2
BALANCES 2
BANGKOK 2
BAS@@ 2
BB@@ 2
BER 2
BER@@ 2
BM@@ 2
BO@@ 2
BOSTON 2
BST 2
BUR@@ 2
BURLIN@@ 2
Bab@@ 2
Babies 2
Babineaux 2
Back@@ 2
Backed 2
Backstrom 2
Bad@@ 2
Baden 2
Baer 2
Bag@@ 2
Bagh@@ 2
Bah@@ 2
Bai 2
Balasore 2
Bali 2
Ballet 2
Band 2
Bangkok 2
Banglad@@ 2
Bank@@ 2
Baq@@ 2
Barb@@ 2
Barbie 2
Barbour 2
Baron 2
Barre 2
Barro@@ 2
Bartlett 2
Baryshnikov 2
Bash@@ 2
Basketball 2
Battle 2
Battlestar 2
Bay@@ 2
Beale 2
Beau@@ 2
Beck 2
Beck@@ 2
Becomes 2
Beginning 2
Beirut 2
Belgium 2
Benedict 2
Benefit 2
Bengals 2
Benn@@ 2
Benoit 2
Bere@@ 2
Berkeley 2
Bernstein 2
Besiktas 2
Beslan 2
Biff 2
Big@@ 2
Biggest 2
Bilingual 2
Bill@@ 2
Billionaire 2
Billions 2
Bills 2
Bin 2
Bin@@ 2
Bio@@ 2
Bion@@ 2
Bis@@ 2
Bish@@ 2
Bites 2
Bjorkman 2
Bla@@ 2
BlackRock 2
Blacks 2
Blackwell 2
Blan@@ 2
Blanchett 2
Blanco 2
Blechschmidt 2
Blocks 2
Blog 2
Bloom@@ 2
Blu@@ 2
Bluffs 2
Boca 2
Bol@@ 2
Bolivia 2
Bollinger 2
Bolton 2
Bombay 2
Bombing 2
Bone 2
Books 2
Boras 2
Born 2
Borough 2
Bosco 2
Bosnian 2
Boston-@@ 2
Bottom 2
Boulerice 2
Boulevard 2
Bourque 2
Branch 2
Brat@@ 2
Braveheart 2
Breast 2
Breyer 2
Brigadier 2
Brinkley 2
Bristol 2
Brit@@ 2
Broad 2
Brock@@ 2
Bron@@ 2
Broo@@ 2
Brook@@ 2
Brookfield 2
Bros 2
Browne 2
Brum@@ 2
Brunswick 2
Brussels 2
Buch@@ 2
Buck@@ 2
Buckinghamshire 2
Buddha 2
Buddy 2
Budhabalanga 2
Buenos 2
Bulger 2
Bull 2
Bull@@ 2
Bullock 2
Bulls 2
Bund@@ 2
Buoyed 2
Burlington 2
Burns 2
Buy 2
C.D. 2
C.R. 2
C11 2
CA 2
CAGR 2
CAPE 2
CCCCQQ 2
CE 2
CHANGE 2
CHESTER 2
CHINA 2
CIO 2
CN@@ 2
CO 2
CPR 2
CR 2
CW 2
Cab@@ 2
Cablevision 2
Cabo 2
Caesar 2
Cag@@ 2
Cairo 2
Calif.-based 2
Californian 2
Call@@ 2
Called 2
Calzaghe 2
Cam 2
Cambodian 2
Camor@@ 2
Camp@@ 2
Canc@@ 2
Cand@@ 2
Capitol 2
Caracas 2
Care@@ 2
Cargill 2
Carl@@ 2
Carrington 2
Cars 2
Cashmore 2
Casino 2
Cass@@ 2
Cassell 2
Cast 2
Castle 2
Caterpillar 2
Cato 2
Caucasus 2
Caused 2
Cav@@ 2
Cave 2
Celebrity 2
Cell 2
Celsius 2
Cent@@ 2
Centr@@ 2
Centre 2
Century 2
Ch 2
Chad 2
Chadian 2
Chall@@ 2
Cham@@ 2
Chamber 2
Champions 2
Chanel 2
Chap@@ 2
Chapmanville 2
Chargers 2
Charlene 2
Chateau 2
Chemicals 2
Cheryl 2
Ches@@ 2
Cheshire 2
Chi@@ 2
Chidambaram 2
Chien-Ming 2
Childs 2
Chinese-@@ 2
Cho 2
Choir 2
Christianity 2
Christopher 2
Chronicle 2
Church@@ 2
Circuit 2
Cit@@ 2
Citation 2
Citi 2
Clarksburg 2
Clas@@ 2
Cler@@ 2
Cleve 2
Cli@@ 2
Client 2
Clifford 2
Clinical 2
Clippers 2
Clo@@ 2
Clooney 2
Clove 2
Cly@@ 2
Coca-Cola 2
Coch@@ 2
Cohen 2
Cointreau 2
Col. 2
Cole 2
Colin 2
Collapsed 2
Collings 2
Collingwood 2
Columbus 2
Comcast 2
Comedy 2
Comment 2
Commissioners 2
Commonwealth 2
Commun@@ 2
Communion 2
Companies 2
Companion 2
Complain@@ 2
ConAgra 2
Confidence 2
Conn@@ 2
Conne@@ 2
Connell 2
Conrad 2
Conservancy 2
Consolidating 2
Constant@@ 2
Contact 2
Contin@@ 2
Continental 2
Contract 2
Controls 2
Convention 2
Conventions 2
Convicted 2
Cookie 2
Cooper 2
Cooperation 2
Cornwall 2
Corporate 2
Corry 2
Costa 2
Costas 2
Costs 2
Cott@@ 2
Cou@@ 2
Coul@@ 2
Course 2
Courtney 2
Courts 2
Cove 2
Cox 2
Crashed 2
Crew 2
Criminal 2
Cris@@ 2
Cristina 2
Croatia 2
Croatian 2
Crocs 2
Crops 2
Cros@@ 2
Crossing 2
Crowe 2
Cru@@ 2
Crude 2
Cruise 2
Cruz 2
Culpepper 2
Cultural 2
Cumbria 2
Curbing 2
Currie 2
Customer 2
Cut@@ 2
Cyn@@ 2
Cyprus 2
D-N.Y. 2
DALLAS 2
DATA 2
DES 2
DH 2
DNA-binding 2
DO@@ 2
DP@@ 2
DR@@ 2
DRC 2
DaVita 2
Dab@@ 2
Dade 2
DaimlerChrysler 2
Dalai 2
Daley 2
Daly 2
Dam 2
Damascus 2
Damon 2
Dana 2
Dancing 2
Danny 2
Darius 2
Dart 2
Dartmouth 2
Dat@@ 2
Davenport 2
Dawn 2
Day@@ 2
Dayton 2
DeGeneres 2
DeMarcus 2
Dealer 2
Dear 2
Deb@@ 2
Debra 2
Decision 2
Decorative 2
Def 2
Deleg@@ 2
Delgado 2
Democracy 2
Depreciation 2
Depres@@ 2
Depression 2
Describing 2
Desig@@ 2
Designer 2
Desperate 2
Details 2
Dhaliwal 2
Diabetes 2
Dial 2
Diamond 2
Diamondbacks 2
Diane 2
Diaz 2
Dick@@ 2
Died 2
Dies 2
Differ@@ 2
Dim@@ 2
Directed 2
Dirt 2
Disaster 2
Disc@@ 2
Discovery 2
Dismissed 2
Disrup@@ 2
Disrupted 2
Distri@@ 2
Diversity 2
Divi@@ 2
Dock 2
Doctor 2
Document 2
Dodge 2
Doing 2
Dol@@ 2
Dolls 2
Domin@@ 2
Doomsday 2
Dor@@ 2
Dou@@ 2
Douglas 2
Doyle 2
Draganchuk 2
Dri@@ 2
Drivers 2
Dru@@ 2
DubaiSat-1 2
Ducati 2
Duchess 2
Due 2
Dundee 2
Dunk@@ 2
Dup@@ 2
Duran 2
Durant 2
Dwight 2
Dy@@ 2
Dylan 2
EA 2
EADS 2
EAST 2
EBITDA 2
EBay 2
EC 2
ECB 2
ED@@ 2
EDT 2
EIAST 2
EIS 2
EK@@ 2
EL@@ 2
EMC 2
EN 2
END 2
ENDED 2
ER 2
ESP@@ 2
ESPN 2
EU-@@ 2
EUR 2
EXPENSES 2
Earth@@ 2
Eck@@ 2
Econom@@ 2
Economists 2
Ecuador 2
Eddy 2
Edith 2
Editor 2
Editorial 2
Eff@@ 2
Efforts 2
Eg@@ 2
Eid 2
Eisenhower 2
ElBaradei 2
Eleanor 2
Electricity 2
Electronic 2
Eleven 2
Eliot 2
Elizabeths 2
Elli@@ 2
Ellison 2
Elsewhere 2
Em@@ 2
Employers 2
Eng@@ 2
Engine 2
Engineers 2
Enjoy 2
Enright 2
Enter@@ 2
Entrepreneurs 2
Environ@@ 2
Environmental 2
Envoy 2
Ep@@ 2
Episcopal 2
Epperly 2
Epson 2
Equ@@ 2
Erdogan 2
Eriksson 2
Erin 2
Erlanger 2
Ernest 2
Ernst 2
Es 2
Esc@@ 2
Esk@@ 2
Especially 2
Essex 2
Ethics 2
Eu@@ 2
Eurostar 2
Eve 2
Evert 2
Everton 2
Every@@ 2
Excellence 2
Except 2
Excluding 2
Exper@@ 2
Experian 2
Exploration 2
Expo 2
Expressed 2
Extreme 2
Exxon 2
F-@@ 2
F.D.A. 2
FCC 2
FD@@ 2
FFO 2
FG 2
FIA 2
FIFA 2
FIL@@ 2
FOXNews.com 2
FY2007 2
FY2008 2
Fa@@ 2
Factor 2
Factors 2
Fair@@ 2
Fairfax 2
Fall@@ 2
Fan@@ 2
Fannie 2
Farmer 2
Farmers 2
Farms 2
Farr 2
Fat@@ 2
Fear@@ 2
Feder@@ 2
Fellows 2
Fent@@ 2
Fenway 2
Ferr@@ 2
Ferrari 2
Ferriss 2
Fewer 2
Fid@@ 2
Fielder 2
Fiji 2
Films 2
Find 2
Fink 2
Fisher-Price 2
Fiskars 2
Fit 2
Fitch 2
Fitzgerald 2
Flags 2
Flanagan 2
Flavor 2
Fletcher 2
Flex@@ 2
Flintoff 2
Flo@@ 2
Flowing 2
Fly 2
Flynn 2
Fogh 2
Fol@@ 2
Foo@@ 2
Forec@@ 2
Forecast 2
Foreig@@ 2
Forfar 2
Fort 2
Foster 2
Found 2
Francoeur 2
Francon@@ 2
Frankfurt 2
Fraser 2
Fred@@ 2
Freddie 2
Fresh@@ 2
Fri@@ 2
Friedgen 2
Friedl 2
Friendship 2
Front 2
Fu@@ 2
Fuel 2
Ful@@ 2
Funds 2
Fur@@ 2
Furn@@ 2
Further 2
Furyk 2
Future@@ 2
GDP 2
GMT 2
GON 2
GP@@ 2
GT-R 2
Gabriel 2
Galler@@ 2
Gam@@ 2
Gandhi 2
Gap 2
Garcia 2
Gareth 2
Garry 2
Gasquet 2
Gateway 2
Gatherings 2
Gatorade 2
Gau@@ 2
Gay 2
Gene@@ 2
Genetic 2
Geo 2
Geographic 2
Gerald 2
Gerard 2
Gerson 2
Gets 2
Ghanem 2
Gi@@ 2
Gibson 2
Gill 2
Gilli@@ 2
Gilmore 2
Gilmour 2
Gilroy 2
Ging@@ 2
Gipp 2
Gir@@ 2
Gis@@ 2
Give 2
Gla@@ 2
Glen 2
Globe 2
Goals 2
Gogg@@ 2
Gold@@ 2
Golf 2
Golo@@ 2
Gom@@ 2
Gomez 2
Gong 2
Gonzalez 2
Good@@ 2
Gooden 2
Goth@@ 2
Gould 2
Govan 2
Governments 2
Grammy 2
Granderson 2
Granta 2
Grav@@ 2
Greene 2
Griffey 2
Grizz@@ 2
Gross 2
Grou@@ 2
Ground 2
Grow@@ 2
Growers 2
Guantánamo 2
Guard@@ 2
Guardian 2
Guests 2
Guillaume 2
Gwaltney 2
Gwinnett 2
HAV@@ 2
HD-@@ 2
HE@@ 2
HER2-positive 2
HERO 2
HIV-@@ 2
HO@@ 2
HR 2
HS@@ 2
HU@@ 2
Hadi@@ 2
Haitian 2
Halloween 2
Hamp@@ 2
Hand@@ 2
Hanlon 2
Happy 2
Haqqani 2
Hard 2
Hariri 2
Harkin 2
Harlem 2
Harrington 2
Hartley 2
Haru@@ 2
Harvard 2
Hashemi 2
Hassan 2
Hawk 2
Hawker 2
Haynes 2
Hayward 2
Headquarters 2
Heads 2
Healy 2
Hear@@ 2
Heart 2
Heat 2
Heaven 2
Hebei 2
Hebert 2
Hectares 2
Hed@@ 2
Heights 2
Heineken 2
Hel@@ 2
Hell 2
Helms 2
Helmsley 2
Helsinki 2
Helton 2
Hend@@ 2
Henin 2
Henley 2
Hepatitis 2
Herald 2
Heritage 2
Hern@@ 2
Hershey 2
Hewitt 2
Hick@@ 2
Hicks 2
Highway 2
Hij@@ 2
Hin@@ 2
Hindus 2
Hirschfeld 2
Historians 2
Hits 2
Ho 2
Hoch@@ 2
Hoffman 2
Hokies 2
Holl@@ 2
Hollen 2
Holloway 2
Holy 2
Hom@@ 2
Home@@ 2
Homes 2
Honduras 2
Honor 2
Hook 2
Hor@@ 2
Horizons 2
Hou@@ 2
Huet 2
Huff@@ 2
Hull 2
Humberto 2
Humph@@ 2
Hun@@ 2
Hung@@ 2
Hur@@ 2
Hurdle 2
Hutto 2
Hutton 2
Hyatt 2
I.@@ 2
IBAB.B@@ 2
IBC 2
ICA 2
ICs 2
ID 2
IES 2
IMF 2
IN@@ 2
INFORMATION 2
INRIX 2
INT@@ 2
IPCC 2
IRS 2
IS 2
ITV 2
Ibrahim 2
Id@@ 2
Iggy 2
Il 2
Il@@ 2
Ilya 2
Immun@@ 2
Impairment 2
Imper@@ 2
Imports 2
Improve 2
Inc@@ 2
Including 2
Increasing 2
Index 2
Indian@@ 2
Industrial 2
Initi@@ 2
Initial 2
Injured 2
Inspection 2
Interest-bearing 2
Internal 2
Interstate 2
IoD 2
Iqbal 2
Iranians 2
Ironically 2
Irwin 2
Islam@@ 2
Israeli-Palestinian 2
Itar-Tass 2
Ivan@@ 2
Ivy 2
J.@@ 2
JUNE 2
Jagr 2
Jail@@ 2
Jam 2
Jama@@ 2
Janet 2
Jaroslaw 2
Jarvis 2
Javed 2
Javier 2
Jay-Z 2
Jazz 2
Jehangir 2
Jell-@@ 2
Jen 2
Jenny 2
Jermain 2
Jimenez 2
Jo 2
Joey 2
Joh@@ 2
Johann@@ 2
Johannesburg 2
Johansson 2
Johnny 2
Johns 2
Johnston 2
Jonny 2
Jord@@ 2
Jorge 2
José 2
Judicial 2
Juli@@ 2
Julio 2
Jurors 2
K. 2
KAR@@ 2
KE@@ 2
KFC 2
KGB 2
KI@@ 2
KOCH 2
Kahle 2
Kahn 2
Kaiser 2
Kallis 2
Kan@@ 2
Kap@@ 2
Karen 2
Kas@@ 2
Kat@@ 2
Kath@@ 2
Katie 2
Kazak@@ 2
Keating 2
Kel@@ 2
Kendrapara 2
Kenn@@ 2
Kenyan 2
Ker@@ 2
Kerr 2
Ket@@ 2
Khalis 2
Khamenei 2
Khmer 2
Kickoff 2
Kid 2
Kid@@ 2
Kidd 2
Kidnapp@@ 2
Kill 2
Killings 2
Kin@@ 2
Kingsley 2
Kingston 2
Kippur 2
Kirk 2
Kit 2
Kit@@ 2
Kiwanuka 2
Kiyani 2
Klein 2
Kn@@ 2
Know 2
Knowles 2
Known 2
Knox 2
Konstantin 2
Korn@@ 2
Kost@@ 2
Kosuke 2
Kouchner 2
Kovalchuk 2
Kr@@ 2
Kravis 2
Kri@@ 2
Kucinich 2
Kul@@ 2
Kumble 2
Kurds 2
Kuyper 2
Kuznetso@@ 2
Kwame 2
Kyodo 2
LCD 2
LE@@ 2
LES 2
LIN 2
LIN@@ 2
LLP 2
LOAN 2
LOSS 2
LaSalle 2
Lach@@ 2
Lag@@ 2
Lagos 2
Lak@@ 2
Lama 2
Lamar 2
Lambert 2
Lane 2
Lang 2
Langham 2
Lanier 2
Lantos 2
Lap@@ 2
Larijani 2
Larson 2
Last@@ 2
Lately 2
Laura 2
Laurence 2
Law@@ 2
Lawmakers 2
Le 2
Leaders 2
Leading 2
Leads 2
Leakey 2
Leaves 2
Leavitt 2
Led 2
Leeds 2
Legendary 2
Leggett 2
Legion 2
Legislature 2
Lehmann 2
Lei@@ 2
Lein@@ 2
Lennon 2
Lenny 2
Les 2
Letterman 2
Levi 2
Levinson 2
Levit@@ 2
Libby 2
Lic@@ 2
Lif@@ 2
Lim@@ 2
Linda 2
Lindsey 2
Lines 2
Lisa 2
Listing 2
Litigation 2
Liu 2
Liv@@ 2
LiveScience 2
Llan@@ 2
Loc@@ 2
Lof@@ 2
Lohan 2
Long@@ 2
Look 2
Looking 2
Loren 2
Lost 2
Lots 2
Lottery 2
Lotus 2
Lou 2
Loudoun 2
Low@@ 2
Lower 2
Lt. 2
Luciano 2
Lucio 2
Lucky 2
Lufthansa 2
Lun@@ 2
Lund@@ 2
Luther 2
Ly@@ 2
Lyon 2
Lyons 2
M.@@ 2
MAN@@ 2
MB@@ 2
MBE 2
MC@@ 2
MDU 2
MDV@@ 2
ME 2
MI@@ 2
MINNEAPOLIS 2
MO@@ 2
MOINES 2
MONTHS 2
MOS@@ 2
MOUNTAIN 2
MP3tunes 2
MPs 2
MSP 2
MTH 2
MacDonald 2
Machimura 2
Macy 2
Mae 2
Mafia 2
Mahela 2
Mahmoud 2
Majority 2
Mak@@ 2
Makes 2
Makh@@ 2
Making 2
Malamud 2
Malaysian 2
Mam@@ 2
Manassas 2
Mandatory 2
Mangini 2
Manilow 2
Mann 2
Mantle 2
Manuel 2
Manzanillo 2
Maoist 2
Mara 2
Marfleet 2
Margaret 2
Marion 2
Maritime 2
Mark@@ 2
Marketing 2
Marks 2
Marqu@@ 2
Mars 2
Marsh 2
Marsh@@ 2
Marshall 2
Mary@@ 2
Masked 2
Mason 2
Masood 2
MassMutual 2
Master 2
Match 2
Materials 2
Mathew 2
Matthews 2
Mattingly 2
Maui 2
Mavs 2
Mazda 2
Mbeki 2
McCanns 2
McCarthy 2
McDonnell 2
McGee 2
McGu@@ 2
McLeish 2
McN@@ 2
McNabb 2
McPherson 2
Mcf 2
Md 2
Me.dium 2
Mechan@@ 2
Medal 2
Medicare 2
Mediterranean 2
Medtronic 2
Meeting 2
Megan 2
Meh@@ 2
Mekong 2
Memorial 2
Mentor 2
Merthyr 2
Messi@@ 2
Metabolic 2
Meteorological 2
Metro 2
MetroCard 2
Metropolis 2
Metropolitan 2
Mex@@ 2
Meyer 2
Mich 2
Mickelson 2
Mickey 2
Might 2
Mik@@ 2
Mikhail 2
Mil@@ 2
Milit@@ 2
Millions 2
Milton 2
Mineral 2
Miners 2
Mini 2
Mis@@ 2
Mishkin 2
Mission 2
Mist@@ 2
Mob@@ 2
Mobil 2
Mogadish@@ 2
Mohamed 2
Moines 2
Mom@@ 2
Mombasa 2
Money 2
Monica 2
Monitoring 2
Montenegro 2
Months 2
Morales 2
Morgenstern 2
Mormon 2
Morton 2
Mother 2
Mothers 2
Mott 2
Moun@@ 2
Mountains 2
Move 2
MoveOn.org 2
Movement 2
Moving 2
Moya 2
Mubadala 2
Mud@@ 2
Mugabe 2
Muhammad 2
Multi-@@ 2
Multimedia 2
Mun@@ 2
Murdoch 2
Murra@@ 2
N-@@ 2
N. 2
N.C. 2
N.C.@@ 2
NA 2
NAACP 2
NALC 2
NASCAR 2
NCS 2
NG@@ 2
NHS 2
NIS 2
NO@@ 2
NON-INTEREST 2
NRA 2
NY 2
NYC 2
NYR 2
NYSE 2
Nadal 2
Nagin 2
Nah@@ 2
Nal@@ 2
Nam@@ 2
Name 2
Named 2
Namibia 2
Nardelli 2
Nasser 2
Natalee 2
Nation@@ 2
Nato 2
Natural 2
Navratilova 2
Nawaz 2
Naz@@ 2
Nazi 2
Nearby 2
Nearly 2
Neck 2
Negroponte 2
Neighbours 2
Ner@@ 2
Nets 2
Networked 2
Neu@@ 2
Never 2
Nevertheless 2
Newcastle 2
NewsRadio 2
Nguyen 2
Nie@@ 2
Nigerian 2
Nike 2
Nil@@ 2
Nina 2
Nine 2
Nine@@ 2
Nisoor 2
Niss@@ 2
Nixon 2
Noel 2
Non-performing 2
Nord 2
Noriega 2
North@@ 2
Northampton 2
Northeastern 2
Norway 2
Norwich 2
Note 2
Nothing 2
Notre 2
Nov@@ 2
Nova 2
Novo@@ 2
Nowak 2
Num@@ 2
Numbers 2
Nun@@ 2
Nut@@ 2
Ny@@ 2
O-@@ 2
O. 2
OF@@ 2
OK 2
OL@@ 2
ONA 2
ONS 2
OPERATIONS 2
OSF 2
OUGH 2
Oakwood 2
Oats 2
Ocado 2
Ocala 2
Occup@@ 2
Ochoa 2
Offers 2
Og@@ 2
Ok@@ 2
Ol@@ 2
Oli@@ 2
Olymp@@ 2
Om@@ 2
Omaha 2
Omidyar 2
One-@@ 2
Online 2
Opera 2
Opportunity 2
Optim@@ 2
Order 2
Orissa 2
Orlando 2
Orthodox 2
Ortmeier 2
Os@@ 2
Osmond 2
Ot@@ 2
Oth@@ 2
Ottoman 2
Outer 2
Own 2
Ownership 2
Ox@@ 2
P.R. 2
PARIS 2
PBS 2
PD 2
PER 2
PETA 2
PFCD 2
PHILADELPHIA 2
PM@@ 2
PN@@ 2
PP@@ 2
PR 2
PR@@ 2
PRNewswire-USNewswire 2
PT 2
Pace 2
PacificNet 2
Pacman 2
Pad@@ 2
Paisley 2
Pal 2
Palaniappan 2
Palmer 2
Panthers 2
Pao 2
Paradise 2
Parma 2
Participants 2
Partly 2
Partnership 2
Pascal 2
Pass 2
Passenger 2
Patients 2
Patri@@ 2
Patterson 2
Paul@@ 2
Paxson 2
Payment 2
Pearl 2
Pearson 2
Pediatric 2
Pedro 2
Penalties-Yards 2
Pentecost@@ 2
Per 2
Perez 2
Perfect 2
Performance 2
Perino 2
Perrotta 2
Perry 2
Persian 2
Perth 2
Peru@@ 2
Petra 2
Petrie 2
Petrin@@ 2
Petro@@ 2
Pettitte 2
Peyton 2
Pha@@ 2
Phalange 2
Pharsight 2
Philbin 2
Philippine 2
Philli@@ 2
Photo@@ 2
Physics 2
Pic@@ 2
Picasso 2
Pick 2
Pickhardt 2
Pieces 2
Pietersen 2
Pin@@ 2
Pine 2
Pink 2
Pir@@ 2
Pitts@@ 2
Pla@@ 2
Plac@@ 2
Plaines 2
Plan@@ 2
Planck 2
Plane 2
Planet 2
Platinum 2
Platt 2
Play 2
PlayStation 2
Plaza 2
Ple@@ 2
Please 2
Poet 2
Policy 2
Polit@@ 2
Poll@@ 2
Pollock 2
Popeye 2
Posada 2
Post-@@ 2
Post@@ 2
Postal 2
Power@@ 2
Pratt 2
Precious 2
Premises 2
Premium 2
Prepaid 2
Presence 2
Previously 2
Priv@@ 2
Pro 2
Production 2
Professor 2
Projects 2
Proof 2
Psych@@ 2
Puck 2
Pud@@ 2
Pudding 2
Pulitzer 2
Punch 2
Purchase 2
Put@@ 2
Q. 2
QUARTER-TO-DATE 2
Qaida-@@ 2
Qatar 2
Quake 2
Qualcomm 2
Queens 2
Quincy 2
RDF 2
RIS@@ 2
RM@@ 2
RO@@ 2
ROE 2
RT 2
RUTHERFORD 2
Rac@@ 2
Raceway 2
Rach@@ 2
Radcliffe 2
Radi@@ 2
Radicchio 2
Rail 2
Raj@@ 2
Ramadi 2
Ramallah 2
Rams 2
Ramsay 2
Ran@@ 2
Random 2
Range 2
Rani 2
Rankings 2
Rarely 2
Rasmussen 2
Rat@@ 2
Rato 2
Raton 2
Rav@@ 2
Rawalpindi 2
Ray 2
Raytheon 2
Reach 2
Reaching 2
Read 2
Ready-to-@@ 2
Really 2
Realty 2
Rebounds 2
Rebuilding 2
Receives 2
Recep 2
Records 2
Recovery 2
Recycling 2
Reds 2
Reed 2
Refugees 2
Reggie 2
Regi@@ 2
Regional 2
Regist@@ 2
Relations 2
Rele@@ 2
Released 2
Religion 2
Religious 2
Remained 2
Remember 2
Remy 2
Renault 2
Rene@@ 2
Repor@@ 2
Reporting 2
Representatives 2
Represents 2
Republi@@ 2
Rescue 2
Residential 2
Resig@@ 2
Resp@@ 2
Rest 2
Rest@@ 2
Resul@@ 2
Reynaud 2
Reza 2
Rh@@ 2
Ric@@ 2
Rican 2
Richardson 2
Richie 2
Rico 2
Ricoh 2
Riding 2
Rig@@ 2
Riley 2
Ritterbusch 2
Rivera 2
Robbery 2
Roberto 2
Roch@@ 2
Roche 2
Rochester 2
Rod@@ 2
Rojo 2
Rok@@ 2
Rol@@ 2
Roland 2
Rolling 2
Rollins 2
Rome 2
Romero 2
Ronaldo 2
Ronan 2
Rose@@ 2
Rosecroft 2
Ross 2
Roth 2
Rou@@ 2
Row 2
Rowan 2
Rowling 2
Roy 2
Royals 2
Royalty 2
Rub@@ 2
Rules 2
Rum@@ 2
Run 2
Running 2
Rus@@ 2
Russo 2
S.@@ 2
S.A. 2
S.C. 2
SAS 2
SAT 2
SCH@@ 2
SDRAM 2
SE 2
SHARE 2
SINGAPORE 2
SM 2
SOA 2
SPI 2
SPLM 2
SST 2
SUNA 2
SWAT 2
SWS 2
Sabres 2
Sacramento 2
Sad@@ 2
Sadr 2
Saeb 2
Safe 2
Sainsbury 2
Saints 2
Sally 2
Salman 2
Samaritans 2
Sanchez 2
Sand@@ 2
Sandra 2
Sank@@ 2
Sant@@ 2
Sarah 2
Sat@@ 2
Satellite 2
Saul 2
Savings 2
Savio 2
Say 2
Scandinavian 2
Schiff@@ 2
Schilling 2
Schreiber 2
Schulte 2
Schwarzenegger 2
Scientist 2
Scot@@ 2
Scotsman.com 2
Scri@@ 2
Segment 2
Sei@@ 2
Seinfeld 2
Sellers 2
Sempill 2
Senegal 2
Sens@@ 2
Separ@@ 2
Serbia 2
Set 2
Sev@@ 2
Shadow 2
Shaiken 2
Shal@@ 2
Shame 2
Shapir@@ 2
Sharapova 2
Shareholders 2
Sharks 2
Sharma 2
Sharp 2
Sheffield 2
Sheik@@ 2
Shel@@ 2
Shelley 2
Sheridan 2
Shields 2
Shift 2
Shiny 2
Ship@@ 2
Shui-bian 2
SiR@@ 2
Siber@@ 2
Siddeley 2
Siddi@@ 2
Side 2
Side@@ 2
Sidney 2
Siemens 2
Silence 2
Silva 2
Silverstein 2
Similarly 2
Simpsons 2
Simul@@ 2
Sin@@ 2
Sinatra 2
Sing@@ 2
Sioux 2
Sirius 2
Sisters 2
Sitting 2
Skid@@ 2
Sky 2
Sla@@ 2
Slat@@ 2
Slo@@ 2
Slovakia 2
Smash 2
Snapp@@ 2
Sofia 2
Sol 2
Solanki 2
Solazyme 2
Solicitation 2
Sollecito 2
Somali 2
Somerville 2
Son 2
Son@@ 2
Sonia 2
Soon 2
Soprano 2
Sor@@ 2
Sorenstam 2
Sotheby 2
Sousa 2
Southside 2
Sovereign 2
Spaniard 2
Spaniards 2
Spanish-language 2
Speaking 2
Speed 2
Spo@@ 2
Spokes@@ 2
Spokesman 2
Spot 2
Spra@@ 2
Spread 2
Sprint 2
Spur@@ 2
Spurs 2
Spy 2
Stalin 2
Stan@@ 2
Staples 2
Starr 2
Start 2
Starting 2
Statement 2
Statistics 2
Steel@@ 2
Stein 2
Steph@@ 2
Steps 2
Stern 2
Stevens 2
Steyn 2
Stockholm 2
Stocks 2
Stockton 2
Stonebridge 2
Stor@@ 2
Stranded 2
Strategies 2
Straw 2
Strawberry 2
Stricker 2
Strikes 2
Stub@@ 2
Student 2
Submer@@ 2
Subsidiaries 2
Subsidiary 2
Success 2
Sudairi 2
Sue 2
Suff@@ 2
Suh 2
Suharto 2
Suicide 2
Sukuk 2
Sultan 2
Sum 2
Sum@@ 2
Sun-Times 2
Sun@@ 2
Sunderland 2
Sunnis 2
Sunrise 2
Suns 2
Superferry 2
Supplemental 2
Surgery 2
Surry 2
Sus@@ 2
Susp@@ 2
Suspends 2
Suwaidi 2
Suz@@ 2
Swallows 2
Swe@@ 2
Sweet 2
Swiss 2
Swollen 2
Syl@@ 2
Syn@@ 2
TAR@@ 2
TB-@@ 2
THE@@ 2
THREE 2
TIC@@ 2
TMS 2
TODA@@ 2
TS@@ 2
TSA 2
TVs 2
Tab@@ 2
Tag@@ 2
Taipei 2
Taleban 2
Talking 2
Tanner 2
Tanya 2
Tariq 2
Tarsa 2
Taser 2
Tatiana 2
Tau@@ 2
Taxi 2
Tay@@ 2
Tayyip 2
Tear 2
Techn@@ 2
Ted@@ 2
Teddy 2
Tele@@ 2
Telescope 2
Tem@@ 2
Tender 2
Tenn 2
Terminal 2
Test 2
Test@@ 2
Testaverde 2
Tet@@ 2
Tetra 2
Thales 2
Than@@ 2
Theatre 2
Theft 2
Them 2
Ther@@ 2
Therap@@ 2
Third-@@ 2
Thrash@@ 2
Throughout 2
Ticket 2
Tiffany 2
Tight 2
Tila 2
Tis@@ 2
Together 2
Tol@@ 2
Tomlinson 2
Tommy 2
Tonight 2
Took 2
Topamax 2
Topps 2
Torres 2
Tottenham 2
Tou@@ 2
Toulouse 2
Toward 2
Townsend 2
Toys 2
Tr@@ 2
Train 2
Training 2
Tran@@ 2
Travelers 2
Tre@@ 2
Treated 2
Trent 2
Treo 2
Trey 2
Trin@@ 2
Tripoli 2
Trisha 2
Tro@@ 2
Trojans 2
Troops 2
Tsang 2
Tuck 2
Tul@@ 2
Turks 2
Tut@@ 2
Tuxpan 2
Tw@@ 2
Twelve 2
Two-@@ 2
Tyler 2
Typical 2
U.S 2
U.S.-backed 2
U.S.-led 2
U.S.C. 2
U.S@@ 2
UC@@ 2
UCLA 2
UK-based 2
UM@@ 2
UNAUDITED 2
UNM@@ 2
USB 2
USDA 2
USO 2
UT@@ 2
Uganda 2
Ultra@@ 2
Unear@@ 2
Unit 2
Universe 2
Updated 2
Utilities 2
VIP 2
VP 2
VW 2
Vall@@ 2
Van@@ 2
Vander@@ 2
Vang 2
Vargas 2
Veh@@ 2
Vekselberg 2
Venetiaan 2
Vermont 2
Ves@@ 2
Via 2
Viacom 2
Vic@@ 2
Victi@@ 2
Video 2
View 2
Viktor 2
Vill@@ 2
Villarreal 2
Villiers 2
Vin 2
Visit 2
Visitors 2
Vista 2
Volkswagen 2
Volunteers 2
Voting 2
Vt 2
WEST 2
WFP 2
WGA 2
WH@@ 2
WHIT@@ 2
WIL@@ 2
WITH 2
WLAN 2
Wakefield 2
Walsh 2
Wanted 2
Warwick 2
Washington-based 2
Watching 2
Watkins 2
Waverley 2
Waziristan 2
Wear 2
Web-based 2
Weber 2
Website 2
Week@@ 2
Weeks 2
Weighted 2
Weir 2
Weiss 2
Wer@@ 2
Westbrook 2
Westwood 2
Whar@@ 2
Whis@@ 2
Who@@ 2
Whoever 2
Whole 2
Wicks 2
Wie 2
Wife 2
Wildcats 2
Wilhelm 2
Wilkins 2
Wilkinson 2
William@@ 2
Williamson 2
Wimbledon 2
Wing 2
Winst@@ 2
Wisin 2
Withers 2
Within 2
Wizards 2
Wol@@ 2
Won@@ 2
Wood@@ 2
Woodhead 2
Woodward 2
Woody 2
Work@@ 2
Works 2
Worst 2
Writing 2
Wyatt 2
Wyman 2
Wyoming 2
Xi 2
Xinhua 2
Xue 2
Yang 2
Yangtze 2
Yards 2
Yaris 2
Year@@ 2
Years 2
Yemen 2
Yen 2
Yog@@ 2
Yom 2
Yon@@ 2
Yongbyon 2
Yoo 2
Yorkers 2
Yorkshire 2
You@@ 2
Youn@@ 2
Yushchenko 2
Zaheer 2
Zal@@ 2
Zambrano 2
Zaw@@ 2
Zealous 2
Zebari 2
Zel@@ 2
Zeppelin 2
Zoe 2
Zone 2
Zur@@ 2
aa 2
abandon 2
abandoning 2
abbey 2
abducted 2
abound 2
absolute 2
absorbed 2
absurd 2
abul@@ 2
abuses 2
abusing 2
ac 2
academics 2
accelerating 2
accent 2
acceptable 2
accepting 2
accommod@@ 2
accomplished 2
accomplishments 2
accountable 2
accumulated 2
accuracy 2
accurately 2
accusation 2
achie@@ 2
aching 2
acid 2
ack 2
acked 2
acknowledges 2
acoustic 2
acqu@@ 2
acrob@@ 2
adapted 2
adapting 2
addict 2
addresses 2
adic 2
adjusting 2
admi@@ 2
admir@@ 2
admire 2
admissions 2
ado 2
adopting 2
advances 2
advancing 2
adventures 2
advert 2
advertised 2
advisers 2
advises 2
advising 2
advoc@@ 2
aec@@ 2
aer@@ 2
aesthe@@ 2
af 2
affecting 2
affects 2
affidavits 2
affiliate 2
after@@ 2
afterwards 2
aggrav@@ 2
agitated 2
ago@@ 2
agrarian 2
agrees 2
ai 2
airing 2
airmen 2
airspace 2
airstrikes 2
aisle 2
aj@@ 2
ake 2
aked 2
akes 2
aking 2
al- 2
al-Faisal 2
al-Maliki 2
alan 2
alcoho@@ 2
alcohol@@ 2
aled 2
alert 2
ales 2
alight 2
alised 2
alist 2
alled 2
allege 2
alleges 2
alleging 2
allied 2
alling 2
allocated 2
alt@@ 2
altered 2
alternate-@@ 2
alties 2
alty 2
amazed 2
ambivalent 2
ambulance 2
ame 2
amend 2
amend@@ 2
americ@@ 2
amese 2
ami 2
amine 2
amity 2
amortized 2
amounted 2
amping 2
an-born 2
analyses 2
analyze 2
ance-@@ 2
ances 2
and-a-@@ 2
ands 2
anec@@ 2
angle 2
anians 2
anim@@ 2
ankle 2
annon 2
anom@@ 2
anth@@ 2
anti-Syrian 2
anti-terrorism 2
antibio@@ 2
antics 2
antioxid@@ 2
any@@ 2
ao 2
apocalyptic 2
app@@ 2
appalling 2
apparatus 2
appe@@ 2
apping 2
appl@@ 2
applause 2
apple 2
appliance 2
appliances 2
applied 2
applies 2
appreciates 2
appreciation 2
appreciative 2
appropriately 2
approving 2
approximating 2
aps 2
arch@@ 2
archaeologists 2
architectural 2
archive 2
arena 2
ares 2
arest 2
ari 2
arian 2
arians 2
aring 2
arise 2
arises 2
arly 2
armored 2
armoured 2
array 2
arrives 2
arsenal 2
art@@ 2
artery 2
arti@@ 2
articles 2
artifacts 2
artillery 2
artistic 2
ases 2
ashes 2
ashing 2
asonic 2
assaulting 2
asse 2
assed 2
asserted 2
assess 2
assessing 2
asset-backed 2
assing 2
assuming 2
assurance 2
ast 2
astron@@ 2
asts 2
at-bats 2
ate-@@ 2
ath 2
athle@@ 2
ativity 2
atmospheric 2
atop 2
atories 2
atsu 2
atten@@ 2
attending 2
attitudes 2
attributable 2
audited 2
auditors 2
auth@@ 2
authored 2
authorization 2
autographed 2
autom@@ 2
automaker 2
automakers 2
avalanche 2
averted 2
aw 2
awful 2
awk@@ 2
aye@@ 2
az@@ 2
azza 2
b-@@ 2
ba 2
babe 2
bac@@ 2
back-to-@@ 2
backers 2
backgrounds 2
backup 2
backyard 2
bag@@ 2
balanced 2
balances 2
ballistic 2
ballots 2
bankers 2
banner 2
barbecue 2
barton@@ 2
basics 2
bat@@ 2
batsmen 2
batters 2
batting 2
beaches 2
beacon 2
beck@@ 2
bed@@ 2
bedro@@ 2
bee 2
beef 2
beer-@@ 2
behave 2
behavi@@ 2
beings 2
believable 2
believer 2
bell 2
belong 2
belonging 2
belt-@@ 2
belts 2
beneath 2
benef@@ 2
beneficial 2
benefited 2
bent 2
bert 2
berth 2
bes 2
besides 2
best@@ 2
bi 2
bian 2
bic@@ 2
bidders 2
bike 2
bility 2
bill@@ 2
billed 2
billion-dollar 2
billionaire 2
bin@@ 2
biofuel 2
biographer 2
biographies 2
bipartis@@ 2
bir@@ 2
bird 2
birdie 2
bis@@ 2
bit@@ 2
bite-@@ 2
black-and-white 2
black@@ 2
blankets 2
blasts 2
blatant 2
blazes 2
bleak 2
bleeding 2
blend 2
blin@@ 2
blockbuster 2
bloggers 2
blond 2
blood-@@ 2
blow@@ 2
blowing 2
blu@@ 2
blueprin@@ 2
blunders 2
bn 2
boast 2
boasted 2
bob 2
bodyguard 2
boiled 2
bol@@ 2
bolt 2
bombed 2
bonanz@@ 2
bonus 2
bonuses 2
booked 2
booming 2
boon 2
boos 2
boosted 2
bore 2
borrowed 2
bother 2
bott@@ 2
bottle 2
boun@@ 2
bouncing 2
boundary 2
bourg 2
bourne 2
bow@@ 2
bowled 2
boxes 2
boxing 2
boycott 2
brainchild 2
brass 2
braving 2
breakaway 2
breast-feeding 2
breath@@ 2
breathe 2
briefings 2
brightness 2
brochure 2
brokerage 2
brokers 2
bru@@ 2
brush@@ 2
brutish 2
bubbles 2
budgets 2
bugs 2
buil@@ 2
builds 2
built-in 2
bul@@ 2
bullet 2
bullying 2
bunch 2
bure@@ 2
bureau 2
bureaucratic 2
burger 2
burglary 2
burns 2
burnt 2
bush 2
businesslike 2
businessmen 2
button 2
buz@@ 2
buzz 2
by-@@ 2
bypass 2
cache 2
caf@@ 2
calculations 2
calendar 2
cali@@ 2
call@@ 2
caller 2
callers 2
calmed 2
cameraman 2
campaigners 2
camping 2
canc@@ 2
cancers 2
cann@@ 2
canned 2
cans 2
canvas 2
capitalist 2
capitalists 2
capitalize 2
capitals 2
capped 2
caps 2
capture 2
capturing 2
cardin@@ 2
cardio 2
carmenère 2
carnage 2
carr@@ 2
carri@@ 2
carved 2
cashmere 2
casts 2
casual 2
catac@@ 2
catalog 2
catalogue 2
catalyst 2
catch-up 2
catcher 2
catches 2
cau@@ 2
cautioned 2
cautious 2
ce-@@ 2
ce@@ 2
cease-fire 2
cel@@ 2
celeb@@ 2
celebr@@ 2
celebrating 2
cellphone 2
cellphones 2
cens@@ 2
center@@ 2
centre-@@ 2
centrifu@@ 2
centuries 2
centuries-old 2
certi@@ 2
certification 2
certified 2
chai 2
chains 2
chaired 2
chamber 2
chambers 2
champion@@ 2
chant 2
chanting 2
chants 2
charis@@ 2
charting 2
charts 2
chase 2
chased 2
chases 2
chasing 2
cheaply 2
cheating 2
checkup 2
cheek 2
cheer@@ 2
chem@@ 2
chequ@@ 2
cher@@ 2
cherry 2
chers 2
chest@@ 2
chew 2
chickens 2
chin@@ 2
chips 2
cho@@ 2
choc@@ 2
choking 2
cholesterol 2
choo@@ 2
choosing 2
chop 2
chopp@@ 2
choreographed 2
chro@@ 2
chrome 2
chronicle 2
cht 2
chur@@ 2
churches 2
ci 2
cigarettes 2
cin@@ 2
cir@@ 2
cite 2
civil-rights 2
ck-@@ 2
ckle 2
clans 2
clapping 2
clashed 2
classmates 2
cleansing 2
clear-@@ 2
clearing 2
clerks 2
clever 2
client@@ 2
clim@@ 2
climatic 2
climbed 2
cling 2
clinging 2
clogged 2
closed-@@ 2
closed-door 2
closest 2
clou@@ 2
clouds 2
clout 2
clubhouse 2
co-author 2
co-defendants 2
coal-@@ 2
coast@@ 2
cockta@@ 2
cod 2
coffees 2
cog 2
cognitive 2
coins 2
collabor@@ 2
collaborate 2
collapsing 2
collar 2
collateralized 2
collectibles 2
colleges 2
colli@@ 2
collision 2
color@@ 2
colorful 2
colour 2
coloured 2
colum@@ 2
column 2
combatant 2
combining 2
comedi@@ 2
comet 2
commando 2
commandos 2
commands 2
commenced 2
commend 2
comment@@ 2
commerci@@ 2
commissions 2
communes 2
communicate 2
communion 2
compact 2
compan@@ 2
comparing 2
compatible 2
compatri@@ 2
competent 2
complac@@ 2
complain 2
comply 2
component 2
components 2
composer 2
compost 2
compounded 2
compounds 2
compul@@ 2
conceived 2
concentrations 2
concep@@ 2
concurrently 2
concussions 2
condemn 2
condemnation 2
condesc@@ 2
conditi@@ 2
condol@@ 2
condomin@@ 2
condoms 2
conferences 2
confess 2
confessed 2
confessions 2
confi@@ 2
configuration 2
confin@@ 2
confrontational 2
confused 2
congrat@@ 2
congres@@ 2
conne@@ 2
conscience 2
consensual 2
consents 2
consequently 2
conservationists 2
conservatism 2
consi@@ 2
considerably 2
considers 2
console 2
consorti@@ 2
consternation 2
constit@@ 2
constitutionally 2
constrained 2
construc@@ 2
consultants 2
consum@@ 2
cont@@ 2
contaminate 2
contaminated 2
contem@@ 2
contention 2
contents 2
continent 2
continental 2
conting@@ 2
continuous 2
continuously 2
contracting 2
contrasts 2
contribute 2
contribution 2
conven@@ 2
convenient 2
conventions 2
convictions 2
convoluted 2
convoys 2
coordin@@ 2
coordinate 2
coordination 2
cop@@ 2
copy 2
cordoned 2
cornerback 2
coronary 2
correction 2
correl@@ 2
cosmic 2
cost-effective 2
costly 2
costume 2
couch 2
couched 2
cough 2
councillors 2
counselors 2
counterpart 2
counterparts 2
counters 2
countryside 2
coupe 2
couples 2
courage 2
court@@ 2
courted 2
courtesy 2
cousin 2
cover-up 2
coverings 2
crack 2
crater 2
cratic 2
craving 2
creators 2
credible 2
credit@@ 2
credited 2
crib 2
criminals 2
criteria 2
criticised 2
crop 2
cross@@ 2
cruci@@ 2
cruelty 2
crum@@ 2
crushed 2
cs 2
cted 2
cti@@ 2
ctive 2
ctively 2
ctor 2
ctors 2
cts 2
cular 2
culated 2
cult 2
cum@@ 2
cumbersome 2
cure 2
curfew 2
curtain 2
cus 2
cushion 2
cust@@ 2
custom@@ 2
customary 2
customized 2
customs 2
cutting-edge 2
cyclone 2
cyn@@ 2
czar 2
dam 2
danced 2
dancer 2
dancing 2
databases 2
dd@@ 2
deadline 2
debates 2
debts 2
decep@@ 2
declares 2
declines 2
decommissioning 2
dedic@@ 2
dedly 2
deductible 2
deducting 2
deed 2
deemed 2
deep-@@ 2
deep@@ 2
deepening 2
defamation 2
defeating 2
defective 2
defendants 2
defenseman 2
defiant 2
define 2
deforestation 2
defrau@@ 2
delaying 2
delegate 2
delegates 2
deliber@@ 2
delinquencies 2
delinquent 2
demise 2
demolished 2
demonstrate 2
demoralized 2
denti@@ 2
dentist 2
denying 2
depar@@ 2
dependent 2
depending 2
depic@@ 2
deplo@@ 2
deploy 2
deportations 2
depres@@ 2
der-@@ 2
dering 2
desig@@ 2
deskPDF 2
dessert 2
destabilizing 2
destroying 2
destructive 2
detainees 2
detected 2
detectives 2
detector 2
deter@@ 2
detonation 2
dev@@ 2
devastation 2
develops 2
devi@@ 2
dex@@ 2
dged 2
dges 2
dget 2
dging 2
diabe@@ 2
diagno@@ 2
dialing 2
diam@@ 2
diameter 2
diarrhe@@ 2
diary 2
dic 2
dict@@ 2
dictions 2
diesel 2
differenti@@ 2
difficulty 2
digestive 2
dignity 2
dily 2
dings 2
dining 2
diplomacy 2
directing 2
disa@@ 2
disabilities 2
disable 2
disablement 2
disagrees 2
disarmament 2
discards 2
dischar@@ 2
disciplinary 2
disclosures 2
disconnected 2
discontinued 2
discount 2
discounts 2
discouraging 2
discourse 2
discover 2
discoveries 2
discovering 2
discrepancy 2
discretion 2
discrimin@@ 2
discs 2
disgu@@ 2
disgust 2
disks 2
disman@@ 2
dismantling 2
dismiss 2
dismissal 2
dismissing 2
displ@@ 2
displaced 2
displays 2
disrespectful 2
dist 2
dista@@ 2
distant 2
distinc@@ 2
distinctive 2
disting@@ 2
distra@@ 2
distributing 2
distributors 2
dity 2
diver@@ 2
diversi@@ 2
dividends 2
dividing 2
divisive 2
documentary 2
documentation 2
dog@@ 2
dominant 2
don@@ 2
donating 2
donor 2
doom 2
dors 2
dosage 2
doses 2
dotMobi 2
double-double 2
dow 2
downed 2
downloads 2
downstream 2
downtime 2
draconian 2
drag 2
draped 2
drastic 2
draws 2
dreamed 2
dres@@ 2
dri@@ 2
drill 2
drome 2
ds@@ 2
du 2
dual 2
duet 2
dum@@ 2
dummy 2
dumped 2
duo 2
duration 2
dyn@@ 2
dynamics 2
e-and-@@ 2
e.@@ 2
e.com 2
eagerly 2
eagle 2
early-@@ 2
earth 2
eased 2
easyJet 2
eb 2
eco-@@ 2
ecological 2
ecosystem 2
ecting 2
ections 2
edit 2
editing 2
editions 2
editors 2
edonia 2
eds 2
educate 2
educated 2
efficiencies 2
efficiently 2
eful 2
egg@@ 2
ei 2
eight-@@ 2
eight-year 2
ela 2
eland 2
elderly 2
elec@@ 2
elect 2
electro-@@ 2
electronically 2
elementary 2
eleph@@ 2
elev@@ 2
elevated 2
elimination 2
elle 2
ellen 2
ellers 2
ells 2
elyn 2
email@@ 2
emas 2
embarrassment 2
embedded 2
embraces 2
embracing 2
emerges 2
emic 2
emp@@ 2
emphatically 2
empire 2
empty-@@ 2
emulate 2
enabler 2
enberg 2
ence-@@ 2
ench@@ 2
encies 2
encing 2
enclosure 2
encountered 2
encouragement 2
ency 2
endo 2
endorses 2
endur@@ 2
energy- 2
enforcing 2
eng@@ 2
engagement 2
enger 2
engineered 2
engines 2
enh@@ 2
enhancement 2
enjo@@ 2
enlarged 2
enrich 2
enriched 2
ense 2
ensemble 2
ensu@@ 2
ensued 2
ental 2
entary 2
enters 2
enth@@ 2
enthusi@@ 2
enthusiastic 2
entic@@ 2
entit@@ 2
entity 2
entrep@@ 2
enty 2
envelop@@ 2
environmentally 2
environments 2
envisaged 2
envoys 2
enwriter 2
enz@@ 2
eous 2
eps 2
equality 2
equals 2
equator 2
equip 2
erie 2
erners 2
ero 2
ero@@ 2
eroded 2
erratic 2
escal@@ 2
escalator 2
ese 2
eshi@@ 2
esi 2
ess-@@ 2
essential 2
esses 2
essing 2
ession 2
essly 2
essors 2
ete 2
eth@@ 2
etongue 2
etri@@ 2
etta 2
eutics 2
evacu@@ 2
evacuees 2
evaders 2
evaluated 2
evaporated 2
eve 2
evenly 2
event@@ 2
ever@@ 2
evidential 2
evolution 2
evolving 2
exagger@@ 2
exam 2
exam@@ 2
examples 2
exce@@ 2
exceeds 2
excess 2
excessive 2
exchanges 2
exchanging 2
exclusively 2
exec@@ 2
executions 2
exerc@@ 2
exhibit 2
exhibited 2
exist@@ 2
exodus 2
exonerated 2
expansive 2
expecting 2
expenditures 2
exper@@ 2
experiencing 2
experimental 2
explicit 2
exploration 2
explosives 2
expor@@ 2
express 2
expresses 2
exten@@ 2
extend 2
extends 2
extensively 2
extinct 2
extinguished 2
extortion 2
extra@@ 2
extract 2
extracted 2
extravagant 2
exuber@@ 2
ey@@ 2
eyebrows 2
fabulous 2
factories 2
factual 2
fain@@ 2
fakes 2
fal@@ 2
fallout 2
false 2
falsely 2
faltered 2
fame 2
family-@@ 2
fantastic 2
fantasy 2
far-@@ 2
far@@ 2
fare@@ 2
fares 2
farmer 2
farms 2
fas@@ 2
fascinated 2
fastball 2
fastest-growing 2
fasting 2
fats 2
fault 2
fav@@ 2
favorable 2
favored 2
favors 2
favour@@ 2
fax 2
fear@@ 2
feasibility 2
features.cfm 2
federation 2
feedback 2
felled 2
fend 2
fer 2
ferocious 2
ferry 2
fertility 2
fertiliz@@ 2
fetched 2
ffing 2
fford 2
fiasco 2
fiber 2
fic@@ 2
ficial 2
fide 2
fiel@@ 2
field-@@ 2
fier@@ 2
fiery 2
fif@@ 2
filing 2
filmmaker 2
filtering 2
filters 2
filthy 2
finale 2
finalist 2
finalists 2
finalized 2
finances 2
finger 2
finishes 2
fireball 2
fireworks 2
first-class 2
first-degree 2
fis@@ 2
fist 2
fitness 2
fitted 2
fix@@ 2
fixes 2
flag-@@ 2
flag@@ 2
flagship 2
flam@@ 2
flan@@ 2
flas@@ 2
flashy 2
flat-panel 2
flat-rate 2
flat@@ 2
flattened 2
flavors 2
flaws 2
fle@@ 2
fleeing 2
flick 2
floated 2
flooded 2
flooding 2
floods 2
flu 2
flu-like 2
fluctuated 2
flush 2
flyer 2
focuses 2
folds 2
follow-up 2
foot-and-mouth 2
foray 2
fordshire 2
forecasts 2
forests 2
forex 2
forfeit@@ 2
forge 2
forged 2
forgive 2
forgotten 2
fork 2
forma 2
formative 2
formats 2
formerly 2
formula 2
fortunes 2
forums 2
foss@@ 2
fossil 2
fou@@ 2
fouls 2
foundations 2
four-day 2
fourth-@@ 2
foyer 2
fra@@ 2
fragrance 2
framework 2
franchisees 2
franchises 2
frantic 2
fratern@@ 2
free-trade 2
free@@ 2
frees@@ 2
freighters 2
frenetic 2
frenzied 2
fresh@@ 2
frey 2
fried 2
frontal 2
frontier 2
frontman 2
frustrating 2
ft@@ 2
fted 2
fueled 2
fugitive 2
fulfils 2
full-year 2
full@@ 2
fumbled 2
fun@@ 2
functi@@ 2
functional 2
functionality 2
fund@@ 2
funerals 2
fur@@ 2
furry 2
g-@@ 2
g. 2
gaffes 2
gallery 2
game-changing 2
gamers 2
gangster 2
garages 2
garbage 2
garrulous 2
gart 2
gau@@ 2
gauge 2
gays 2
gence 2
gencies 2
generals 2
generating 2
generator 2
generators 2
genetic 2
genetically 2
genre 2
geographic 2
geomet@@ 2
geon 2
ger-than-@@ 2
gest 2
gestured 2
get-@@ 2
gg 2
gging 2
ghter 2
ghts 2
gi 2
giants 2
gie 2
gifted 2
gig@@ 2
gio 2
gir@@ 2
glac@@ 2
glimpse 2
gling 2
glo@@ 2
glue 2
gly 2
glyc@@ 2
gn 2
gon 2
goo-@@ 2
good@@ 2
gorge 2
gossip 2
gour@@ 2
govern 2
governance 2
government-backed 2
governors 2
grace 2
graduating 2
graduation 2
gram 2
granddaughter 2
grandfather 2
grandparents 2
gras@@ 2
grass-roots 2
grassroots 2
grati@@ 2
gravity 2
gray 2
greed 2
green-@@ 2
greet 2
grey 2
grief 2
grip 2
groo@@ 2
grounder 2
grounding 2
grouse 2
guaranteeing 2
guarded 2
gue 2
guerrilla 2
guerrillas 2
guiding 2
gum@@ 2
gun@@ 2
gunfire 2
gunman 2
gunpoint 2
gunshot 2
gur@@ 2
gut 2
guts 2
ha 2
habit 2
habit@@ 2
habits 2
hack 2
hacking 2
hairbrush 2
halftime 2
hallway 2
hallways 2
hammer 2
hamstring 2
han 2
handic@@ 2
handlers 2
happ@@ 2
harassed 2
harbor 2
hardest 2
harmon@@ 2
hart 2
harvest 2
harvest@@ 2
hatred 2
hau@@ 2
haul 2
haunted 2
havoc 2
haw@@ 2
hawk 2
hazard 2
hazy 2
head-to-@@ 2
headlines 2
headlong 2
headquartered 2
healed 2
healthier 2
heart@@ 2
hearted 2
heav@@ 2
heavyweight 2
hed 2
heed 2
hege@@ 2
heightened 2
heights 2
helmets 2
hem 2
hem@@ 2
hemp 2
hen 2
hepatitis 2
here@@ 2
hero@@ 2
heroes 2
heroine 2
hi 2
high-quality 2
high-tech 2
highest-ranking 2
hik@@ 2
hiking 2
hil@@ 2
hill@@ 2
hills 2
hints 2
historians 2
historically 2
hitters 2
hmm-hmm-h@@ 2
hn@@ 2
hol@@ 2
home@@ 2
homebu@@ 2
homecoming 2
homered 2
hometown 2
homicide 2
homosexu@@ 2
homosexual 2
honesty 2
honoring 2
honors 2
honoured 2
honours 2
hony 2
hooked 2
hooker 2
hop 2
hop@@ 2
hopeful 2
horizon 2
horn 2
horns 2
horse@@ 2
horses 2
hosp@@ 2
hospitalised 2
hospitalizations 2
hostility 2
hosting 2
hot@@ 2
hou@@ 2
housewife 2
hovering 2
hubs 2
hug 2
hugely 2
human-@@ 2
hunters 2
hunting 2
hyper@@ 2
hyster@@ 2
iPhones 2
ially 2
iano 2
iatric 2
ib 2
ican 2
ichi 2
ici 2
icians 2
icles 2
ico 2
identical 2
identifi@@ 2
identities 2
ideology 2
ides 2
iding 2
idle 2
iel 2
iest 2
ife 2
ifi@@ 2
ig 2
ight 2
ilant 2
iled 2
ility 2
illegals 2
iller 2
illian 2
illness 2
illu@@ 2
illustrates 2
imag@@ 2
imagination 2
imaginative 2
imagined 2
imaging 2
imens 2
imm@@ 2
immun@@ 2
immunity 2
impart 2
impe@@ 2
impending 2
implementing 2
imposed 2
impoverished 2
impris@@ 2
improper 2
improves 2
in-chief 2
in-law 2
ina@@ 2
inary 2
inated 2
ination 2
inations 2
inaugur@@ 2
inaugural 2
inaugurate 2
incomes 2
incomplete 2
inconsistency 2
incorpor@@ 2
incorrect 2
incremental 2
inct 2
incursion 2
ind 2
indeed 2
indelible 2
independent-minded 2
indicating 2
indicator 2
indigenous 2
individu@@ 2
induc@@ 2
industr@@ 2
industri@@ 2
industrialized 2
iner@@ 2
ines 2
inexpensive 2
inexperienced 2
infant 2
inflamed 2
inflammatory 2
inflate 2
inflation@@ 2
influ@@ 2
influenced 2
info 2
inform@@ 2
infractions 2
infrin@@ 2
inger 2
ingham 2
inging 2
ingo 2
ington@@ 2
inhaled 2
inher@@ 2
inherent 2
inhib@@ 2
initi@@ 2
injuring 2
inn@@ 2
input 2
inquiry 2
ins@@ 2
insight 2
insights 2
insistence 2
insomnia 2
install 2
installation 2
insufficient 2
insul@@ 2
insulting 2
insur@@ 2
insurers 2
insurgency 2
integrate 2
integrating 2
integrative 2
intellectual 2
inten@@ 2
intendent 2
intends 2
intensely 2
intensifying 2
intentional 2
interactions 2
interceptors 2
interest-@@ 2
interpretation 2
interrup@@ 2
intest@@ 2
intimid@@ 2
intri@@ 2
intrigu@@ 2
intro@@ 2
introduces 2
intu@@ 2
invest@@ 2
investig@@ 2
investigator 2
io 2
io@@ 2
iol@@ 2
ion@@ 2
ip 2
ip@@ 2
irony 2
irresistible 2
isers 2
ises 2
ish@@ 2
ishers 2
ishes 2
isi 2
isms 2
isol@@ 2
isolation 2
ison 2
iss 2
issuance 2
ist-@@ 2
ista 2
it-@@ 2
itable 2
itating 2
itative 2
iter 2
iti 2
ition@@ 2
itioning 2
itiveness 2
itly 2
itory 2
itu@@ 2
itude 2
iture 2
ity. 2
ive 2
iyan 2
iz 2
izable 2
izations 2
ja 2
jackets 2
jams 2
jan@@ 2
jay 2
jazz 2
jealous 2
ji 2
ji@@ 2
jit@@ 2
jockey 2
journal 2
journalism 2
joy 2
joys 2
judgement 2
jum@@ 2
jumper 2
jumps 2
jurors 2
just@@ 2
justices 2
justify 2
kan@@ 2
kat 2
kay@@ 2
ke-@@ 2
kered 2
ket 2
kets 2
key@@ 2
kick@@ 2
kicking 2
kickoff 2
kicks 2
kid 2
kidnapp@@ 2
kil@@ 2
killer 2
killers 2
kills 2
kilometer 2
kilometre 2
kind@@ 2
king@@ 2
kir@@ 2
kitchen 2
kka 2
knife 2
knit 2
knock 2
knockout 2
knotty 2
knowingly 2
knowledgeable 2
knu@@ 2
kur@@ 2
kus 2
labeling 2
labor@@ 2
laborer 2
lacking 2
laden 2
lah@@ 2
lak@@ 2
lame 2
lan 2
landers 2
landings 2
landscaping 2
lane 2
laps 2
last-@@ 2
lasted 2
lat@@ 2
lators 2
laun@@ 2
laundering 2
lavis@@ 2
lawfully 2
lay@@ 2
laying 2
layoffs 2
layup 2
le-@@ 2
lead@@ 2
leader@@ 2
leap 2
lear@@ 2
leasing 2
lec@@ 2
lectures 2
lef@@ 2
left-@@ 2
left-handed 2
left-wing 2
leftist 2
lefty 2
legendary 2
legislative 2
legislature 2
legitim@@ 2
lement 2
len@@ 2
lene 2
lenience 2
lenient 2
lers 2
lesbian 2
lesions 2
less@@ 2
lesser-known 2
lessness 2
leton 2
lev@@ 2
libel 2
liberate 2
liberties 2
lics 2
life-threatening 2
lifel@@ 2
lift 2
ligament 2
lik@@ 2
limb 2
limitation 2
limp 2
line-@@ 2
linebacker 2
liners 2
ling@@ 2
liqu@@ 2
liquor 2
list@@ 2
listened 2
listing 2
listings 2
lit@@ 2
litigation 2
litre 2
loading 2
lobbying 2
locate 2
locating 2
loch 2
lock 2
lodged 2
lofty 2
logging 2
lon 2
longest-serving 2
look-alike 2
loopy 2
loose 2
lopsided 2
lord 2
lorry 2
lottery 2
loudest 2
lounge 2
lovic 2
lowered 2
lowering 2
lows 2
loyalists 2
ls@@ 2
lum@@ 2
lurched 2
lure 2
lymphom@@ 2
lyrical 2
m-@@ 2
m-hm-h@@ 2
mach@@ 2
magazines 2
magic 2
magistrate 2
mailers 2
majorities 2
make-up 2
makeover 2
makeshift 2
malaria 2
malicious 2
mall 2
mam@@ 2
mand@@ 2
maneuver 2
manifest 2
manifest@@ 2
manifesto 2
manipul@@ 2
manipulative 2
mannered 2
manoeu@@ 2
manpower 2
manslaughter 2
manufactured 2
maps 2
marchers 2
marine 2
marketplace 2
marred 2
mary 2
mascot 2
masks 2
massac@@ 2
massi@@ 2
matched 2
mathematical 2
mation 2
mb@@ 2
meantime 2
medal 2
medals 2
median 2
mediate 2
medications 2
medics 2
mega 2
melt 2
melted 2
melting 2
member@@ 2
memor@@ 2
mentary 2
mented 2
menus 2
mere 2
merit 2
merits 2
mert 2
mes 2
mess@@ 2
metal-boring 2
metals 2
metho@@ 2
methodology 2
metres 2
mets 2
mid 2
mid-1990s 2
mid-60s 2
mid-afternoon 2
middle-@@ 2
midfielder 2
midmorning 2
midway 2
midwife 2
mies 2
mild 2
military-@@ 2
mimic 2
mimics 2
mina 2
mind-set 2
miner 2
miners 2
ming 2
mini@@ 2
minim@@ 2
minimal 2
ministerial 2
minology 2
miracle 2
mirror 2
mirrors 2
misleading 2
mism 2
mission@@ 2
missionaries 2
missions 2
misstep 2
mist@@ 2
mistakenly 2
misunderstood 2
mix.com 2
mixture 2
mm-h@@ 2
mode 2
modeled 2
modest 2
modified 2
modify 2
modul@@ 2
mol@@ 2
mold 2
mom 2
mommy 2
mon 2
monarchy 2
money-@@ 2
monitored 2
monolithic 2
monopol@@ 2
monster 2
morale 2
morph@@ 2
mortars 2
mosqu@@ 2
mosquito 2
most-@@ 2
moth 2
motiv@@ 2
motivated 2
motivational 2
motors 2
motorway 2
mound 2
mourning 2
mouse 2
mps 2
mud 2
muddy 2
multibillion-dollar 2
multimilli@@ 2
multinational 2
musicians 2
myocardial 2
mystery 2
nam@@ 2
nan 2
nap 2
narcotics 2
narrator 2
narrowed 2
nasty 2
national@@ 2
nationalgeographic.com 2
nationalist 2
natur@@ 2
nausea 2
naval 2
navigate 2
navigation 2
near-@@ 2
nearer 2
nears 2
neat 2
necess@@ 2
necklaces 2
needing 2
needle 2
neglecting 2
negotiation 2
neighbor 2
nel 2
nes 2
nesting 2
nett 2
neu@@ 2
newborn 2
newfound 2
next-generation 2
ni 2
ni@@ 2
nia 2
niece 2
nightmare 2
nighttime 2
nine-@@ 2
nings 2
nit@@ 2
nobody 2
noise 2
nomin@@ 2
nominated 2
nominating 2
non 2
non-fiction 2
noncurrent 2
nonetheless 2
nooses 2
northeastern 2
northwest 2
not-@@ 2
notable 2
notably 2
notches 2
notices 2
novelist 2
novels 2
now-you-@@ 2
nowhere 2
null 2
nursing 2
nutritional 2
nuts 2
objective 2
obli@@ 2
obscured 2
observation 2
observing 2
obsol@@ 2
obstetri@@ 2
occupants 2
occur 2
occurring 2
oda 2
odd 2
oe 2
oes 2
offence 2
offended 2
offender 2
offenses 2
offs 2
offsetting 2
offspring 2
often-@@ 2
oh 2
oi 2
oil-rich 2
okay 2
old-@@ 2
olive 2
olly 2
ologically 2
oman 2
on-dollar 2
on-line 2
on-time 2
onal 2
onautics 2
one-off 2
one-third 2
one-time 2
one-way 2
oni 2
oni@@ 2
onial 2
onic 2
ono 2
onstage 2
oot 2
open-@@ 2
openly 2
operas 2
operators 2
oping 2
oplast 2
opping 2
optical 2
optimism 2
optimize 2
orbiting 2
orchest@@ 2
ord 2
ordeal 2
orderly 2
ordinance 2
organ 2
organis@@ 2
organisers 2
organiz@@ 2
oria 2
ories 2
origin@@ 2
orium 2
ornament 2
orph@@ 2
ou 2
ounce 2
oured 2
oust 2
ousting 2
out-of-@@ 2
out-of-town 2
outburst 2
outdoor 2
outerwear 2
outfit 2
outfits 2
outing 2
outlines 2
outposts 2
outright 2
outscored 2
outsourcing 2
outstripping 2
ov@@ 2
ovaries 2
ovations 2
oven 2
overdraft 2
overindul@@ 2
overlooked 2
overseen 2
oversized 2
overtime 2
overtook 2
overturn 2
overwhelmed 2
overwhelming 2
overwhelmingly 2
overworked 2
owing 2
owitz 2
oxide 2
ozone 2
p.com 2
pack@@ 2
packaging 2
packing 2
pairing 2
pairings 2
pal 2
pal@@ 2
palate 2
pale 2
palm 2
pander 2
panels 2
pap@@ 2
paparazzi 2
paper@@ 2
parameters 2
paramilitary 2
pared 2
parental 2
parl@@ 2
parody 2
part-time 2
partial 2
participate 2
particle 2
particulate 2
partnered 2
partnerships 2
passages 2
passcode 2
passive 2
passport 2
passports 2
passwords 2
patents 2
path@@ 2
pati@@ 2
patriarch 2
patrols 2
patronage 2
pattern 2
patties 2
paus@@ 2
paused 2
payday 2
peacekeepers 2
peer 2
peer-to-peer 2
pel 2
penchant 2
penny 2
per-@@ 2
percussive 2
performer 2
performers 2
permitting 2
perpetrators 2
perpetual 2
perpetuating 2
pers 2
person@@ 2
perspectives 2
perver@@ 2
pessi@@ 2
pesticides 2
petition@@ 2
petroleum 2
ph 2
pharmaceutical 2
pharmaceuticals 2
pharmacists 2
phases 2
phenomenal 2
phil@@ 2
photographic 2
phy 2
physician 2
pi@@ 2
pian@@ 2
piano 2
picket 2
picks 2
pie 2
pil@@ 2
pileup 2
pineapple 2
pioneer 2
pious 2
pirate 2
pirated 2
pistol 2
pitches 2
pitching 2
pla@@ 2
plac@@ 2
placing 2
plaintiffs 2
plantations 2
planted 2
planting 2
plasma 2
plat@@ 2
plating 2
platinum 2
plausible 2
pleas@@ 2
plight 2
pling 2
plume 2
plung@@ 2
pod@@ 2
pointedly 2
pois@@ 2
poisoning 2
poke 2
policemen 2
policy@@ 2
polished 2
pollutants 2
poo@@ 2
poor@@ 2
popping 2
populated 2
populist 2
pork 2
porn 2
pornographic 2
pornography 2
portfolios 2
portra@@ 2
portrayal 2
poses 2
posing 2
possess 2
possibilities 2
post-mortem 2
posts 2
potent 2
pounder 2
poured 2
powdered 2
power@@ 2
pped 2
pper 2
ppers 2
pr 2
practi@@ 2
practicing 2
praised 2
pre-tax 2
prec@@ 2
precise 2
precision 2
predator 2
predatory 2
predicated 2
prediction 2
predominantly 2
prefer 2
prefer@@ 2
preference 2
preferred 2
prefers 2
pregnant 2
prem@@ 2
premature 2
premise 2
prep 2
preparation 2
preparations 2
prescription 2
presents 2
preserve 2
pressed 2
prevalence 2
preventing 2
prevents 2
priced 2
prici@@ 2
principle 2
printed 2
printing 2
prints 2
pris@@ 2
prisons 2
private-@@ 2
privately 2
privilege 2
prizes 2
pro-Taliban 2
proactive 2
processes 2
processing 2
proclaiming 2
produc@@ 2
productivity 2
profane 2
profession 2
profite@@ 2
profiting 2
profound 2
prognosis 2
progressing 2
progressive 2
prohib@@ 2
prohibition 2
projec@@ 2
proliferation 2
promotions 2
prompts 2
prop 2
prosecut@@ 2
prosecuted 2
prosp@@ 2
prospect 2
prospects 2
prosperity 2
prostitution 2
prote@@ 2
protected 2
protects 2
protein 2
protestors 2
protocols 2
proven 2
provisional 2
provisions 2
provocation 2
provoked 2
proxy 2
prudent 2
psychic 2
pub@@ 2
publ@@ 2
publication 2
publications 2
publishing 2
pulling 2
punch 2
punched 2
punished 2
punishing 2
puppet 2
purchases 2
purpo@@ 2
purportedly 2
purposes 2
purses 2
pursu@@ 2
puzz@@ 2
q 2
quali@@ 2
qualifi@@ 2
qualifying 2
qualities 2
quandary 2
quant@@ 2
quar@@ 2
quer@@ 2
quest 2
question@@ 2
queu@@ 2
queue 2
quibble 2
raced 2
radi@@ 2
radial 2
radicals 2
raffle 2
raft 2
rage 2
rail 2
railroad 2
ral@@ 2
rallied 2
rallying 2
ram 2
random@@ 2
ranged 2
rap 2
rap@@ 2
raped 2
rapper 2
rat 2
rati@@ 2
ration 2
rator 2
rats 2
rav@@ 2
raw 2
re- 2
re-election 2
reactor 2
reader 2
readings 2
reads 2
real-@@ 2
real-life 2
real@@ 2
realistically 2
realization 2
rear-@@ 2
reas@@ 2
reassurance 2
reassure 2
rebellion 2
rebirth 2
rebounded 2
rebu@@ 2
rebuild 2
recei@@ 2
receipts 2
recep@@ 2
receptions 2
recipe 2
recipient 2
reckons 2
reclaimed 2
recogn@@ 2
recognise 2
recommendations 2
record-@@ 2
recordings 2
recruits 2
recurrence 2
recurring 2
recycled 2
recycling 2
red-@@ 2
redirect 2
reductions 2
reevaluated 2
refer 2
referee 2
references 2
referendum 2
refra@@ 2
refrigerator 2
refusal 2
refuses 2
refusing 2
regained 2
regains 2
regarded 2
regrouped 2
regulate 2
regulatory 2
rehabilitation 2
rehearsal 2
reign 2
reigning 2
reimbursement 2
rein@@ 2
reinforced 2
relating 2
relaxing 2
reless 2
reli@@ 2
reliever 2
relocated 2
reluctant 2
rem@@ 2
remediation 2
remedy 2
remembers 2
rement 2
remin@@ 2
remind 2
remission 2
remo@@ 2
remotely 2
removal 2
renaming 2
renegoti@@ 2
renovation 2
renowned 2
rented 2
rents 2
reopened 2
repatri@@ 2
repeat 2
replacing 2
reply 2
repos@@ 2
representative 2
repugnant 2
requesting 2
requiring 2
rescu@@ 2
resembled 2
reserv@@ 2
reshuffled 2
resignations 2
resist 2
resistant 2
respec@@ 2
respondent 2
responders 2
responds 2
responses 2
restaurants 2
resting 2
restrained 2
restrict 2
resur@@ 2
ret@@ 2
reta@@ 2
reti@@ 2
retire 2
retreat 2
retrieve 2
retrograde 2
rett 2
reversed 2
revi@@ 2
reviewing 2
revise 2
revitali@@ 2
revived 2
revolt 2
revolution@@ 2
revolutionary 2
rex 2
rhetorical 2
rhythm 2
ri 2
rib 2
rib@@ 2
rick 2
rid 2
ridden 2
ridiculous 2
rifle 2
right-hander 2
righthander 2
rigorous 2
rine 2
rings 2
ripples 2
rises 2
rist 2
rivalries 2
rivalry 2
rivers 2
road@@ 2
roar 2
rob 2
robots 2
rogue 2
roiled 2
ron 2
ron@@ 2
roo@@ 2
room@@ 2
rop@@ 2
ror@@ 2
ros 2
rotated 2
rots 2
rough 2
rough@@ 2
round-@@ 2
rounded 2
rousing 2
rowing 2
royalties 2
royalty 2
rub@@ 2
rud@@ 2
rug 2
ruins 2
rul@@ 2
rumours 2
run-ins 2
rung 2
runways 2
rup 2
rupees 2
rupt 2
rus@@ 2
rushed 2
russopartnersllc.com 2
ruthless 2
s-free 2
s-up 2
s. 2
s.@@ 2
sacrific@@ 2
sacrifices 2
sadness 2
safely 2
safer 2
safest 2
sail 2
sailors 2
sain 2
sake 2
sal 2
salary 2
salesman 2
salv@@ 2
sam@@ 2
same-sex 2
sample 2
sampled 2
san@@ 2
sandwich 2
sar@@ 2
satellites 2
satire 2
sauce 2
sav@@ 2
savvy 2
scapegoat 2
scare 2
scarves 2
scen@@ 2
scenes 2
schedul@@ 2
schedules 2
scholar@@ 2
scramble 2
screaming 2
scrip@@ 2
scrub@@ 2
sculp@@ 2
seals 2
searches 2
seas 2
seash@@ 2
season-opening 2
seated 2
seaweed 2
sec@@ 2
second-highest 2
second@@ 2
secrecy 2
secretly 2
secrets 2
secularism 2
sed@@ 2
seduce 2
see-through 2
see@@ 2
seemingly 2
select 2
self-destructive 2
selfsame 2
sellers 2
sellout 2
semi-autonomous 2
seniors 2
sens@@ 2
sensing 2
sentences 2
sep-2007 2
separ@@ 2
september 2
sequel 2
sequences 2
sequential 2
serial 2
seriousness 2
sers 2
servic@@ 2
servicing 2
set-top 2
set@@ 2
setback 2
settling 2
seven-game 2
seven@@ 2
seventh-@@ 2
sever@@ 2
severely 2
sex@@ 2
sexist 2
sexu@@ 2
sford 2
sh 2
shadow@@ 2
shadows 2
shaken 2
shakes 2
shall 2
shame 2
shaped 2
shar@@ 2
sheets 2
shellfish 2
shelling 2
shi@@ 2
shiel@@ 2
shields 2
shifting 2
shifts 2
shire 2
shirts 2
shocked 2
shod 2
shoe 2
shoppers 2
shortage 2
shortcomings 2
shouldn 2
shouted 2
showc@@ 2
showers 2
shrimp 2
shrines 2
shrinking 2
shut@@ 2
shutdown 2
shutting 2
shuttled 2
shy 2
si 2
sibly 2
sic 2
side@@ 2
sidelines 2
siege 2
sigh@@ 2
signature 2
signatures 2
silent 2
silk 2
silver 2
simultaneously 2
sin 2
sin@@ 2
sincere 2
single-minded 2
singled 2
sink 2
sity 2
six-game 2
six-week 2
skatebo@@ 2
skateboarder 2
skepticism 2
skid 2
skipped 2
skipper 2
skipping 2
skull 2
sky@@ 2
slain 2
slap 2
slate 2
sle@@ 2
sleepwalking 2
sleeves 2
slew 2
sley 2
slices 2
slick 2
slid 2
slides 2
sloppy 2
slower 2
slowing 2
slumping 2
sly 2
sm@@ 2
smacked 2
smallpox 2
smashed 2
smen 2
smil@@ 2
smiling 2
smoker 2
smoky 2
snacks 2
snake 2
sne@@ 2
sneak 2
soaring 2
sober 2
soci@@ 2
soda 2
sof@@ 2
sofa 2
soft-@@ 2
soften 2
solely 2
solem@@ 2
soli@@ 2
solidi@@ 2
som@@ 2
somehow 2
sor 2
sorority 2
sorting 2
soulful 2
sound@@ 2
sounded 2
soundtrack 2
soup 2
sour 2
southeastern 2
souven@@ 2
sovereign@@ 2
spac@@ 2
spaceflight 2
spacewalks 2
spare 2
sparing 2
spark 2
speci@@ 2
specialists 2
specialized 2
specialty 2
specify 2
spectacle 2
spectators 2
spectrum 2
speculated 2
speculators 2
speedy 2
spik@@ 2
spin 2
spirits 2
spiritually 2
spl@@ 2
splitting 2
spokesperson 2
sponsor 2
sponsorship 2
spor@@ 2
sporting 2
spotlight 2
spotting 2
spotty 2
spouse 2
sprained 2
spray 2
sprayed 2
spree 2
sprung 2
sput@@ 2
sson 2
stab 2
stabil@@ 2
staged 2
stagehands 2
staggering 2
stair@@ 2
stairs 2
stalls 2
star-studded 2
starving 2
statin 2
stating 2
stationed 2
statist@@ 2
statue 2
staunch 2
steal 2
stealing 2
steals 2
steel 2
steeper 2
stellar 2
stemming 2
stepped-up 2
stered 2
sters 2
stew 2
sticky 2
stif@@ 2
stiff 2
stim@@ 2
stir 2
stockholders 2
stockp@@ 2
stockpile 2
stoked 2
stoppage 2
store-@@ 2
stored 2
stormed 2
stown 2
stra 2
strated 2
strators 2
strengthens 2
strengths 2
stretching 2
strict 2
strings 2
stron@@ 2
strong-willed 2
strongholds 2
stu@@ 2
stun 2
stunned 2
stunt 2
stymied 2
sub-prime 2
submarine 2
submission 2
submit 2
subscribers 2
subscrip@@ 2
substantially 2
substantive 2
substitute 2
subtle 2
subtler 2
subur@@ 2
successes 2
sue 2
sufficiently 2
sug@@ 2
sul@@ 2
sulfur 2
summary 2
sun@@ 2
sunny 2
super-@@ 2
superior 2
supermarkets 2
supplement 2
supplements 2
suppliers 2
supporter 2
surfers 2
surfing 2
surgeon 2
surreal 2
surveys 2
survival 2
suspends 2
suspiciously 2
sustain@@ 2
swap 2
swayed 2
swaying 2
sweep 2
sweeping 2
sweltering 2
swer@@ 2
swir@@ 2
swit@@ 2
switches 2
sworn 2
synagogues 2
synergies 2
synergy 2
t-driven 2
tablespoons 2
tabs 2
tackling 2
tages 2
tail 2
tailoring 2
tain 2
tainted 2
talents 2
tall 2
tap@@ 2
taped 2
tariff 2
tarnished 2
tasked 2
taunted 2
taxpayers 2
te-@@ 2
team@@ 2
teammates 2
teasing 2
tech 2
tech.com 2
technicians 2
techno@@ 2
telenovel@@ 2
telephon@@ 2
temperamental 2
tempo 2
ten-year 2
tenants 2
tendencies 2
tendency 2
tendon 2
teous 2
ter-@@ 2
terminal 2
terri@@ 2
terrific 2
territories 2
testify 2
testim@@ 2
tet 2
text@@ 2
tful 2
thanked 2
the- 2
thearted 2
theaters 2
thed 2
themed 2
thene 2
theological 2
there@@ 2
thereby 2
thereof 2
thermal 2
thic 2
thickness 2
thief 2
thigh 2
thir@@ 2
third-biggest 2
thirds 2
thor@@ 2
thou@@ 2
threaten 2
threatens 2
three-quarters 2
three-year 2
threshold 2
thri@@ 2
thrift 2
thriller 2
thriving 2
thu@@ 2
thumb@@ 2
thwest 2
thy 2
tial 2
tible 2
tide 2
tie-@@ 2
tigh@@ 2
tighter 2
time-consuming 2
timed 2
timeline 2
timely 2
timesonline.co.uk 2
timing 2
tingly 2
tion-@@ 2
tiously 2
tip 2
tissue 2
tit@@ 2
tively 2
tives 2
tless 2
tman 2
tness 2
toes 2
toilets 2
token 2
ton-@@ 2
tones 2
tonight 2
too-@@ 2
tor-@@ 2
tore 2
torn 2
tornad@@ 2
torrent 2
tos@@ 2
tossed 2
tosses 2
touching 2
town@@ 2
toxic 2
traces 2
tracked 2
tract 2
traffickers 2
transfers 2
transformed 2
transforming 2
transit 2
translucent 2
transmits 2
transported 2
trap 2
trash 2
trav@@ 2
travelled 2
travellers 2
treasure 2
tribes 2
tributes 2
trickier 2
tricky 2
trim 2
triumph@@ 2
trophies 2
trou@@ 2
troub@@ 2
troupe 2
trumps 2
trunks 2
trusts 2
tson 2
tsunami 2
tted 2
tually 2
tubes 2
tug 2
tuition 2
tumbled 2
tumultuous 2
tun@@ 2
tured 2
turing 2
turnout 2
twin 2
twist 2
two-day 2
two-dozen 2
two-game 2
two-month 2
ty@@ 2
tycoon 2
tying 2
tz 2
ually 2
ue 2
uels 2
ulations 2
ultra@@ 2
um-@@ 2
umen 2
unanimously 2
unavailable 2
unbeaten 2
unbelievable 2
unchecked 2
uncomfortable 2
uncompromising 2
unconstitutional 2
unded 2
underestimated 2
undergoing 2
underground 2
undermine 2
undermined 2
underneath 2
underway 2
underwriting 2
undoubted 2
uneasy 2
unethical 2
unfavorable 2
unfold 2
unforced 2
unfortunate 2
unfortunately 2
unharmed 2
uni@@ 2
uniform 2
uniformed 2
unify 2
unilateral 2
uninsured 2
united 2
unjust 2
unlimited 2
unpleasantness 2
unpopular 2
unrelated 2
unscripted 2
unscrupulous 2
unsolved 2
unsure 2
unt 2
untouched 2
untrue 2
unveiling 2
up-to-@@ 2
upbeat 2
upgrading 2
uph@@ 2
upper 2
uproar 2
upward 2
ura 2
ure@@ 2
urer 2
urgency 2
urgent 2
ury 2
usable 2
ush@@ 2
ust 2
utilization 2
uting 2
ution 2
v. 2
vac@@ 2
vacant 2
vacationers 2
vacations 2
vacc@@ 2
vaccinate 2
vague 2
val@@ 2
validly 2
valley 2
vals 2
vand@@ 2
vari@@ 2
variable 2
varied 2
varieties 2
vation 2
vau@@ 2
veget@@ 2
ven 2
verbal 2
vered 2
versions 2
versus 2
vertical 2
vessels 2
vest@@ 2
vests 2
vetoed 2
vets 2
vey 2
vi 2
viable 2
vian 2
vibration 2
vice-@@ 2
vice-president 2
vicinity 2
victimised 2
vie@@ 2
vigorous 2
vigorously 2
ville 2
violate 2
violating 2
violet 2
violin 2
vis 2
visceral 2
vity 2
vo 2
vocalist 2
vocals 2
volle@@ 2
volumes 2
volunteer 2
volunteered 2
voluptuous 2
von 2
vor 2
voter 2
vowing 2
vre 2
vsky 2
vulner@@ 2
vying 2
waged 2
wages 2
wai@@ 2
wal@@ 2
walk-@@ 2
walk@@ 2
walkers 2
waning 2
warehouse 2
warns 2
warplanes 2
warranty 2
warriors 2
wars 2
was@@ 2
wash 2
washed 2
washed-@@ 2
washing 2
washingtonpost.com 2
wasting 2
watchful 2
watered 2
waterproof 2
way@@ 2
wdown 2
weak@@ 2
weakening 2
weakness 2
weaknesses 2
wealth@@ 2
weaponry 2
webcast 2
websites 2
wed@@ 2
weed 2
weed-@@ 2
weekends 2
weighed 2
weightlessness 2
welcoming 2
well-known 2
whale 2
whales 2
wheel 2
wheeling 2
wheels 2
whel@@ 2
wherever 2
whilst 2
whir@@ 2
whis@@ 2
whisk 2
whoever 2
whopping 2
wi-fi 2
widened 2
width 2
wig@@ 2
wil@@ 2
wilderness 2
wildfires 2
wind@@ 2
wing@@ 2
winger 2
wingspan 2
wiped 2
wires 2
wiring 2
wisdom 2
wise 2
wished 2
wishing 2
withdrawing 2
withdrew 2
withstand 2
witnessed 2
wn 2
wo@@ 2
woke 2
wooden 2
woodland 2
woods 2
word-@@ 2
working-@@ 2
workshop 2
world-@@ 2
worlds 2
worries 2
worshipper 2
worthy 2
would-be 2
wra@@ 2
wrangling 2
wraps 2
wright 2
wrinkle 2
write-down 2
write-downs 2
wrought 2
www.fis@@ 2
www.ib@@ 2
xed 2
xing 2
xon 2
xslt 2
xton 2
yar@@ 2
ycles 2
year-end 2
year@@ 2
yelled 2
ygen 2
yle 2
yn@@ 2
yo 2
yoga 2
yon 2
you-@@ 2
yp@@ 2
ys@@ 2
yu@@ 2
zero 2
zero-@@ 2
zig@@ 2
zip-up 2
zo@@ 2
zones 2
zza 2
½ 2
€ 2
'3rd 1
'A 1
'An 1
'Angelo 1
'Biggest 1
'De@@ 1
'Djam@@ 1
'Don@@ 1
'Em@@ 1
'Evil 1
'First-@@ 1
'Grady 1
'Great 1
'Hacks 1
'Hanlon 1
'Histor@@ 1
'I 1
'Kane 1
'Le@@ 1
'Lou@@ 1
'Missing 1
'Or@@ 1
'Ori@@ 1
'Os@@ 1
'S 1
'The 1
'Unknown 1
'What 1
'You 1
'am@@ 1
'e's 1
'o 1
'tcha 1
'Â 1
,338 1
,711 1
--@@ 1
-1 1
-10 1
-12 1
-2 1
-20 1
-225 1
-25 1
-29 1
-35@@ 1
-4 1
-53 1
-A 1
-All 1
-Americans 1
-De@@ 1
-E@@ 1
-Ed 1
-En@@ 1
-G@@ 1
-Ha@@ 1
-Home 1
-In 1
-K@@ 1
-Kar@@ 1
-LAN 1
-Madison 1
-November 1
-Ober@@ 1
-P@@ 1
-Re@@ 1
-TO-DATE 1
-TV 1
-Ter@@ 1
-Tur@@ 1
-Yo 1
-ab@@ 1
-adjusted 1
-and@@ 1
-baby 1
-bin 1
-bo@@ 1
-body 1
-bre@@ 1
-care 1
-case 1
-che@@ 1
-check 1
-collection 1
-conservative 1
-cott 1
-cut 1
-doused 1
-electric 1
-even 1
-federal 1
-film 1
-flow 1
-friendly 1
-fund 1
-general 1
-going 1
-grandchildren 1
-half 1
-hit 1
-hitter 1
-hole 1
-imaging 1
-inch 1
-increase 1
-inspired 1
-kil 1
-laying 1
-led 1
-like 1
-love 1
-magazine 1
-making 1
-mate 1
-most 1
-moving 1
-nation 1
-on 1
-opening 1
-p@@ 1
-paint 1
-phone 1
-place 1
-point 1
-ra@@ 1
-rating 1
-ray 1
-religious 1
-res@@ 1
-rounder 1
-seat 1
-sensing 1
-shaped 1
-south 1
-star 1
-stop@@ 1
-street 1
-technology 1
-than-@@ 1
-the 1
-through 1
-tissue 1
-to 1
-un@@ 1
-use 1
-we 1
-wealth@@ 1
-you 1
.... 1
.0 1
.10 1
.20 1
.203 1
.300 1
.31 1
.354 1
.4 1
.45 1
.481 1
.50 1
.529 1
.6 1
.64@@ 1
.89 1
.97 1
.A 1
.A. 1
.C. 1
.Davis 1
.Jones 1
.M. 1
.Mr 1
.SP@@ 1
.ST 1
.T@@ 1
.TO 1
.arm@@ 1
.asp@@ 1
.ca 1
.go@@ 1
.gov 1
.kg 1
.metro@@ 1
.mil 1
.ny@@ 1
.y@@ 1
0,88@@ 1
0.00 1
0.04 1
0.08 1
0.1 1
0.13 1
0.16@@ 1
0.18 1
0.20 1
0.3 1
0.30 1
0.34 1
0.37@@ 1
0.41 1
0.48 1
0.5 1
0.56 1
0.6 1
0.6300 1
0.66 1
0.7 1
0.73 1
0.75 1
0.8 1
0.83 1
0.86 1
0.87 1
0.87@@ 1
00. 1
000,000 1
000@@ 1
001 1
00212007 1
0023 1
003 1
003.@@ 1
0047 1
008 1
009 1
00S 1
00m 1
0115 1
0130 1
017@@ 1
020-@@ 1
023 1
025 1
03.@@ 1
039 1
04,000 1
0415 1
045 1
051 1
059 1
06 1
064 1
069 1
07-@@ 1
071 1
0756 1
083 1
084 1
087 1
089 1
097 1
0H@@ 1
0bbl@@ 1
0degree 1
1,053 1
1,08@@ 1
1,100 1
1,118 1
1,12@@ 1
1,145 1
1,150 1
1,196 1
1,200 1
1,206 1
1,271 1
1,28@@ 1
1,35@@ 1
1,37@@ 1
1,38@@ 1
1,482 1
1,55@@ 1
1,687 1
1,69@@ 1
1,806 1
1,90@@ 1
1. 1
1.0 1
1.04 1
1.13 1
1.14 1
1.16@@ 1
1.19 1
1.20 1
1.22 1
1.30 1
1.31 1
1.36 1
1.39 1
1.40@@ 1
1.44 1
1.45@@ 1
1.46@@ 1
1.54 1
1.59 1
1.65 1
1.70 1
1.75 1
1.79 1
1.86 1
1.95 1
1.97 1
1000 1
102 1
105 1
106-@@ 1
108 1
11,053 1
110,000 1
112,@@ 1
112.@@ 1
113,@@ 1
114,@@ 1
115,000 1
115,@@ 1
115. 1
115.@@ 1
1160 1
117,@@ 1
117-@@ 1
118-@@ 1
119-@@ 1
1195 1
1200 1
12007 1
120@@ 1
121@@ 1
122 1
124@@ 1
125@@ 1
13,36@@ 1
131 1
141 1
142 1
143 1
146 1
15,0@@ 1
152 1
155 1
158@@ 1
165 1
166 1
168 1
170@@ 1
1769 1
178,@@ 1
18,0@@ 1
19,0@@ 1
19-1-@@ 1
19-@@ 1
1903 1
1907 1
1909 1
191 1
1913 1
1914 1
1916 1
1917 1
1920s 1
1923 1
1924 1
1925 1
1928 1
1932 1
1934 1
1935 1
1936 1
1937 1
1938 1
1939-@@ 1
194.9 1
1940 1
1941 1
1942 1
1944 1
1946 1
1950-@@ 1
1951 1
1954 1
1955 1
1957-@@ 1
1958 1
1959 1
1962 1
1967 1
197,6@@ 1
1970@@ 1
1971 1
1972 1
1973 1
198 1
1981 1
199 1
19th-century 1
1E 1
1b 1
2,000-@@ 1
2,087 1
2,122 1
2,172 1
2,209 1
2,213 1
2,22@@ 1
2,240 1
2,243 1
2,257 1
2,277 1
2,300 1
2,318 1
2,34@@ 1
2,35@@ 1
2,364 1
2,389 1
2,417,@@ 1
2,449 1
2,468 1
2,48@@ 1
2,54@@ 1
2,58@@ 1
2,600 1
2,628 1
2,69@@ 1
2,700 1
2,759 1
2,821,@@ 1
2-year-old 1
2.0 1
2.89 1
200.4 1
2003-@@ 1
2006-7 1
20060@@ 1
2007-@@ 1
202 1
203 1
2030 1
2050 1
208 1
209 1
20s 1
210@@ 1
214,6@@ 1
214@@ 1
215,@@ 1
216 1
2160 1
216@@ 1
218 1
218,@@ 1
22007 1
224,0@@ 1
225 1
225-@@ 1
227 1
229,@@ 1
23.@@ 1
231 1
232 1
233 1
236 1
239 1
239-@@ 1
24,301 1
2400 1
246,@@ 1
247 1
25,0@@ 1
25,972 1
257 1
261 1
263 1
264 1
27,8@@ 1
27-@@ 1
271 1
273 1
28- 1
280 1
291 1
299 1
2V 1
2W 1
2b 1
2fnew@@ 1
2g 1
2hours 1
2hr 1
2m 1
3,000-@@ 1
3,05@@ 1
3,083 1
3,084 1
3,09@@ 1
3,12@@ 1
3,13@@ 1
3,14@@ 1
3,15@@ 1
3,175 1
3,17@@ 1
3,192,7@@ 1
3,200 1
3,210 1
3,234 1
3,23@@ 1
3,240 1
3,24@@ 1
3,25@@ 1
3,29@@ 1
3,36@@ 1
3,379 1
3,385 1
3,400 1
3,400-@@ 1
3,40@@ 1
3,421 1
3,452 1
3,45@@ 1
3,47@@ 1
3,526,@@ 1
3,68@@ 1
3,8@@ 1
3- 1
30.@@ 1
300-@@ 1
308,000 1
30s 1
31,3@@ 1
310 1
3100 1
312 1
312,000 1
315 1
315,0@@ 1
316 1
317 1
318,0@@ 1
318@@ 1
319 1
319@@ 1
32,5@@ 1
32,@@ 1
32.2 1
32.5 1
32.8 1
320 1
32007 1
322,@@ 1
322@@ 1
323,@@ 1
324,0@@ 1
327,@@ 1
329@@ 1
32@@ 1
33,000 1
33-@@ 1
330 1
333,5@@ 1
334 1
336,@@ 1
339,000 1
34,6@@ 1
34.2 1
340,@@ 1
343 1
344,9@@ 1
345 1
345@@ 1
348 1
354 1
358 1
359 1
36,@@ 1
362 1
363,@@ 1
364 1
366 1
37,@@ 1
370 1
372 1
375 1
377 1
380 1
389 1
39,000 1
39-@@ 1
39.8 1
3D 1
3G 1
3M 1
3Q@@ 1
3b 1
4.9 1
40,@@ 1
400-@@ 1
402 1
405 1
407 1
40s 1
41,000 1
41-1 1
41-@@ 1
411 1
413 1
413,@@ 1
414 1
419 1
41st 1
42,000 1
42,@@ 1
42-yard 1
420,000 1
421 1
422 1
422007 1
423 1
4248 1
425 1
425-@@ 1
4250 1
427,8@@ 1
428 1
429@@ 1
43,49@@ 1
43-@@ 1
432 1
434 1
438 1
438,@@ 1
43@@ 1
44,000 1
44,5@@ 1
44,@@ 1
442 1
443 1
444 1
446 1
448@@ 1
45,@@ 1
45-@@ 1
46,434 1
46,@@ 1
460 1
468 1
47,6@@ 1
471 1
48,9@@ 1
483 1
49,@@ 1
49.@@ 1
490,@@ 1
494 1
4CD@@ 1
4E@@ 1
4U 1
4eed@@ 1
4min 1
4th 1
5,0@@ 1
5,651 1
5.0 1
50,6@@ 1
50,@@ 1
500-@@ 1
500@@ 1
501 1
502 1
507 1
508,000 1
51,36@@ 1
51,9@@ 1
51,@@ 1
51.7 1
510@@ 1
512 1
512,000 1
514th 1
515th 1
517 1
517,@@ 1
51st 1
520 1
525 1
525,@@ 1
5267 1
528 1
529 1
52nd 1
53-1 1
53.@@ 1
530,000 1
534 1
536 1
537@@ 1
539,000 1
539,8@@ 1
54,@@ 1
54.@@ 1
548 1
55,6@@ 1
55,7@@ 1
55,9@@ 1
550 1
559 1
56,434 1
56,6@@ 1
56,7@@ 1
56,8@@ 1
56-@@ 1
56.@@ 1
564 1
57-year-old 1
570 1
570,@@ 1
571 1
580 1
592 1
596 1
5Q@@ 1
5ft 1
5minutes 1
5s 1
6,7@@ 1
6- 1
6.28 1
600,000 1
600-@@ 1
6000 1
601 1
604 1
606 1
607 1
608 1
609 1
60s 1
61,7@@ 1
61-@@ 1
61.2 1
61.39 1
61.4 1
610,@@ 1
611 1
612 1
613 1
615,@@ 1
616 1
617-@@ 1
618 1
619-@@ 1
62,000 1
62,318 1
62,7@@ 1
6200 1
622,@@ 1
6222 1
624 1
625,000 1
625,972 1
627,@@ 1
63,000 1
63,452 1
63.@@ 1
633 1
636 1
636.@@ 1
637 1
64,5@@ 1
64-@@ 1
6415 1
645 1
645-@@ 1
646 1
64@@ 1
652 1
655 1
66,@@ 1
660 1
661 1
663 1
66@@ 1
674 1
675 1
675,000 1
68,6@@ 1
68,9@@ 1
680 1
685 1
69.45 1
699 1
6m 1
7-3 1
70-@@ 1
70.53 1
700,000 1
701 1
702 1
703 1
706 1
707 1
70@@ 1
71,8@@ 1
71,@@ 1
71-yard 1
712 1
713-@@ 1
715 1
718 1
72,5@@ 1
720 1
7248 1
725 1
73,000 1
73-@@ 1
732 1
734 1
739 1
74,000 1
74,0@@ 1
74,@@ 1
74-3 1
740 1
740-@@ 1
742 1
744 1
748 1
74@@ 1
756 1
76,4@@ 1
761 1
762 1
763,@@ 1
7699 1
77,@@ 1
77-3 1
770 1
774 1
77@@ 1
77th 1
78,@@ 1
783 1
78th 1
79,@@ 1
79.@@ 1
795 1
797@@ 1
7J 1
7M 1
7m 1
8,19@@ 1
80,000 1
80,@@ 1
80.28 1
800-@@ 1
800@@ 1
806 1
808,000 1
809 1
81,4@@ 1
81.86 1
810 1
810,@@ 1
8105 1
811 1
811.@@ 1
812007 1
813,@@ 1
815 1
815,@@ 1
816 1
8175 1
819 1
819,@@ 1
82,628 1
82-year-old 1
82.6 1
82.89 1
820,000 1
820,@@ 1
8222 1
824,301 1
825 1
825,@@ 1
82gam@@ 1
836,@@ 1
837 1
8396 1
84-@@ 1
843 1
845 1
8467 1
847 1
848 1
858 1
86,4@@ 1
86,6@@ 1
86-@@ 1
86.28 1
868 1
8687 1
87,@@ 1
87.@@ 1
875 1
885 1
89,@@ 1
89.@@ 1
8bn 1
9- 1
90,000 1
90.88 1
905 1
908@@ 1
90@@ 1
910 1
910-@@ 1
911.@@ 1
912,@@ 1
913 1
92,000 1
92,@@ 1
925 1
925,@@ 1
927-@@ 1
9291 1
93,000 1
930 1
930.@@ 1
933 1
933-@@ 1
935 1
938@@ 1
939 1
94,000 1
94-@@ 1
94.46 1
94.@@ 1
942,@@ 1
944,000 1
945 1
95,651 1
95-@@ 1
95.0 1
95.8 1
951 1
954 1
955 1
96,6@@ 1
96.7 1
96.@@ 1
968 1
969@@ 1
972 1
974 1
979 1
98,000 1
98.@@ 1
984,@@ 1
985 1
988 1
98@@ 1
999 1
99@@ 1
9pm 1
9th 1
A03 1
A0@@ 1
A100@@ 1
A11 1
A15 1
A31 1
A380 1
A49 1
A9 1
AAP 1
AAR@@ 1
ACE 1
ACP@@ 1
AD 1
ADEL@@ 1
AEA 1
AF 1
AG 1
AHill 1
AI 1
AIS@@ 1
AK 1
ALL@@ 1
AMS@@ 1
ANA 1
ANS 1
APC 1
APM@@ 1
APOLIS 1
APP@@ 1
APR@@ 1
ARC@@ 1
ARD 1
ASE 1
AU 1
AUS 1
AUS@@ 1
AV 1
AVER@@ 1
AX 1
AX@@ 1
AY 1
Aar@@ 1
Abary 1
Abbey 1
Abbot 1
Abbott 1
Abdira@@ 1
Ability 1
Aboolian 1
Abortion 1
Aboul@@ 1
Abra@@ 1
Abramo@@ 1
Absi 1
Abuja 1
Abyei 1
Academ@@ 1
Acap@@ 1
Ach@@ 1
Achilles 1
Acho@@ 1
Activity 1
Acur@@ 1
Ad 1
Adam@@ 1
Adel 1
Adel@@ 1
Adidas 1
Adjust@@ 1
Adra 1
Ads 1
Adventures 1
Advoc@@ 1
Aedif@@ 1
Aegis 1
Aer@@ 1
Aesthe@@ 1
Aficion@@ 1
After@@ 1
Agri@@ 1
Agu@@ 1
Ahead 1
Ahmad 1
Ahmed@@ 1
Aho@@ 1
Aiden 1
Aiding 1
Aids 1
Ailing 1
Ain@@ 1
Airbus 1
Aisha 1
Al-F@@ 1
Al-K@@ 1
Al-M@@ 1
Ala@@ 1
Alarm@@ 1
Alaron 1
Alas@@ 1
Alba 1
Alcan 1
Aldehy@@ 1
Alden 1
Aldrin 1
Alenia 1
Alerted 1
Alexand@@ 1
Aley 1
Alfre@@ 1
Algan 1
Algecir@@ 1
Alibaba.com 1
Alinder 1
Alinghi 1
Alish@@ 1
Alisha 1
Alison 1
Alive 1
Allah 1
Allan 1
Alle@@ 1
Alleg@@ 1
Alli@@ 1
Allo@@ 1
Allow 1
Allow@@ 1
Alluding 1
Almont 1
Almost 1
Alone 1
Alpha 1
Alt@@ 1
Alta 1
Alta@@ 1
Altim@@ 1
Alto 1
Alum 1
Alvar@@ 1
Always 1
Alyn 1
Alys 1
Alyssa 1
Alzheimer 1
Amal 1
Aman@@ 1
Amber 1
Ambro@@ 1
Amend@@ 1
Amer 1
Americanized 1
Ameristeel 1
Amersfo@@ 1
Amersha@@ 1
Amsterdam@@ 1
Anacleto 1
Anaheim 1
Analyst 1
Anamaria 1
Anbaris 1
Ancel@@ 1
Anchor 1
Anchored 1
Anders 1
Andiwal 1
Ando@@ 1
Andor@@ 1
Andreessen 1
Andrei 1
Andres 1
Andru@@ 1
André 1
Anec@@ 1
Aneck@@ 1
Anelka 1
Anfield 1
Ang@@ 1
Angar@@ 1
Angel 1
Angie 1
Angli@@ 1
Ankiel 1
Annie 1
Annika 1
Annu@@ 1
Ansel 1
Ant@@ 1
Antoine 1
Anton@@ 1
Antrim 1
Apple@@ 1
Aq@@ 1
Aqu@@ 1
Aquila 1
Arato 1
Arbiter 1
Arbor 1
Arbu@@ 1
Archive 1
Are@@ 1
Areas@@ 1
Aren 1
Arenas 1
Arg@@ 1
Argent@@ 1
Argosy 1
Arias 1
Ark 1
Arlington 1
Armstrong 1
Arn@@ 1
Aronso@@ 1
Arreola 1
Arrest 1
Arrested 1
Arri@@ 1
Arrowhe@@ 1
Ars@@ 1
Arthritis 1
Artillery 1
Artur 1
Arundel 1
Arvo 1
Asc@@ 1
Asif 1
Aso 1
Assessment 1
Assistance 1
Astri@@ 1
Atia 1
Atlan@@ 1
Atri@@ 1
Attor@@ 1
Auchan 1
Auction 1
Audi@@ 1
Audit 1
Audit@@ 1
Aul@@ 1
Aurea 1
Aurora 1
Aussie 1
Austen 1
Austra@@ 1
Australian-@@ 1
Austrian 1
Auto-@@ 1
Autumn 1
Auvin@@ 1
Auxili@@ 1
Aval@@ 1
Avin@@ 1
Avram 1
Awak@@ 1
Axed 1
Axis 1
Azer@@ 1
Aznar 1
Azo@@ 1
Azu@@ 1
Azus@@ 1
B-TV 1
B.@@ 1
B.A. 1
B02 1
B847 1
BA 1
BAN@@ 1
BARC@@ 1
BCC@@ 1
BCOM@@ 1
BCS 1
BCS@@ 1
BDN@@ 1
BEA 1
BEN@@ 1
BERT 1
BHP 1
BHUT@@ 1
BIL@@ 1
BK@@ 1
BM 1
BOR@@ 1
BPO 1
BRA 1
BT 1
BURG 1
BY@@ 1
BYu@@ 1
Ba 1
Baby@@ 1
Bacon 1
Bade 1
Bahamas 1
Bahr@@ 1
Bai@@ 1
Bail@@ 1
Baitullah 1
Bake 1
Ball 1
Balle@@ 1
Ballmer 1
Balls 1
Bam@@ 1
Ban@@ 1
Banana 1
Banc@@ 1
Bands 1
Bang 1
Bangalore 1
Bap@@ 1
Barak 1
Bard 1
Bark@@ 1
Barn 1
Barn@@ 1
Barometer 1
Barrel 1
Barri@@ 1
Barroso 1
Bars 1
Bart 1
Bartoli 1
Bashir 1
Bath 1
Batist@@ 1
Batten 1
Bauer 1
Baum 1
Bav@@ 1
Beam 1
Bean 1
Beard 1
Beard@@ 1
Bears@@ 1
Beating 1
Beatles 1
Bebo 1
Becker 1
Become 1
Bed@@ 1
Beech 1
Beekeepers 1
Beers 1
Beg 1
Behr@@ 1
Bei@@ 1
Bejing 1
Beko 1
Belgi@@ 1
Belie@@ 1
Bells 1
Ben-@@ 1
Bench@@ 1
Benef@@ 1
Benson 1
Bentley 1
Beowulf 1
Beppe 1
Berbat@@ 1
Berg@@ 1
Bergen 1
Berger 1
Berkel@@ 1
Berkman 1
Berkov@@ 1
Berman 1
Bermud@@ 1
Bern 1
Bernie 1
Berry@@ 1
Berwick 1
Bethleh@@ 1
Beto 1
Betra@@ 1
Beu@@ 1
Bever@@ 1
Beverage 1
Bevers@@ 1
Beyond 1
Bha@@ 1
Bhar@@ 1
Bhu@@ 1
Bhum@@ 1
Bid 1
Bids 1
Bie@@ 1
Bier@@ 1
Bilbao 1
Bilic 1
Bindi 1
Bing 1
Biok@@ 1
Bir@@ 1
Bird 1
Blackwater-@@ 1
Blanc 1
Blatter 1
Ble@@ 1
Bli@@ 1
Blink 1
Block 1
Block@@ 1
Blon@@ 1
Blondes 1
Bloo@@ 1
Blu-ray 1
Bly 1
BoE 1
Boat 1
Bob@@ 1
Bocelli 1
Bod@@ 1
Bodies 1
Boeings 1
Boga@@ 1
Bogota 1
Boh@@ 1
Bohl 1
Boilermakers 1
Boiling 1
Bok@@ 1
Bolle@@ 1
Bollywood 1
Bomber 1
Bon 1
Bon-@@ 1
Bones 1
Bonner 1
Book@@ 1
Boomer 1
Boots 1
Boris 1
Borowski 1
Boskovic 1
Boss 1
Botan@@ 1
Botswana 1
Botter@@ 1
Bottles 1
Bound 1
Bourne 1
Box 1
Box@@ 1
Boyd 1
Brad@@ 1
Bran@@ 1
Brand@@ 1
Brandt 1
Braun 1
Braz@@ 1
Break 1
Breaking 1
Brei@@ 1
Brick 1
Brie@@ 1
Brief 1
Brigade 1
Bristo@@ 1
Bruno 1
Bs 1
Bub@@ 1
Buchholz 1
Budapest 1
Buffett 1
Bul@@ 1
Bun@@ 1
Burn@@ 1
Burrell 1
Burt 1
Bush-@@ 1
Buss 1
Bust@@ 1
Busy 1
Button 1
Byn@@ 1
Byr@@ 1
Byrd 1
C-TV 1
C.@@ 1
C02 1
C2AP-@@ 1
C94 1
CAM 1
CAN@@ 1
CB 1
CB@@ 1
CBay@@ 1
CC@@ 1
CCS 1
CD-@@ 1
CD@@ 1
CDC 1
CDs 1
CEN@@ 1
CFL@@ 1
CFS 1
CGS 1
CH 1
CI 1
CIA@@ 1
CJ@@ 1
CM@@ 1
CMA 1
CMS 1
COMM@@ 1
CON 1
CON@@ 1
COND@@ 1
CP 1
CPD 1
CRCS 1
CRE@@ 1
CS 1
CSU 1
CT 1
CU@@ 1
CUS@@ 1
CUT@@ 1
CV 1
CWA 1
CX 1
Cabr@@ 1
Cact@@ 1
Cad@@ 1
Caes@@ 1
Caf@@ 1
Caffe 1
Café 1
Cage 1
Cai 1
Cali@@ 1
Californ@@ 1
Calling 1
Cambo@@ 1
Cambrid@@ 1
Came 1
Camer@@ 1
Camp 1
Canaveral 1
Candid@@ 1
Cango 1
Cant@@ 1
Cantele 1
Canyon 1
Capp@@ 1
Capri@@ 1
Cardi@@ 1
Cares 1
Cargo 1
Carlo 1
Carry 1
Casing 1
Cassi@@ 1
Cates 1
Cath@@ 1
Catherine 1
Catho@@ 1
Caus@@ 1
Cause 1
Cay@@ 1
Cb@@ 1
Ce@@ 1
Cel@@ 1
Celeb@@ 1
Cell@@ 1
Cem@@ 1
Censu@@ 1
Cent 1
Centi@@ 1
Cept 1
Ceri@@ 1
Cesar 1
Cet@@ 1
Ceut@@ 1
Cha 1
Chale@@ 1
Chalem@@ 1
Champ@@ 1
Champion 1
Chan@@ 1
Chandler 1
Channing 1
Chartered 1
Chat 1
Chat@@ 1
Chaudhry 1
Che 1
Checking 1
Chefs 1
Chelm@@ 1
Chelten@@ 1
Chemo@@ 1
Chenia 1
Cher@@ 1
Cheren 1
Chess 1
Chevrolet 1
Chi 1
Chichij@@ 1
Chik@@ 1
Chil@@ 1
Chile 1
Chiles 1
Chin@@ 1
Chink 1
Chisale 1
Chlam@@ 1
Chloe 1
Chop@@ 1
Chr@@ 1
Chrebet 1
Christ 1
Christina 1
Christine 1
Chronic@@ 1
Chulalong@@ 1
Cilic 1
Cilli@@ 1
Cim@@ 1
Cinn@@ 1
Circle 1
Citi@@ 1
Cities 1
Citing 1
City@@ 1
Ciudad 1
Claire 1
Clar@@ 1
Claus 1
Clea@@ 1
Cleg@@ 1
Clemente 1
Cliff 1
Clim@@ 1
Clin@@ 1
Cline 1
Clintons 1
Clive 1
Closing 1
Clu@@ 1
Cmdr@@ 1
Coasts 1
Coat 1
Cob@@ 1
Cobourne 1
Cochi 1
Coco 1
Coconut 1
CodaSystem 1
Cofer 1
Cognitive 1
Cok@@ 1
Coke 1
Cola 1
Cologne 1
ComRes 1
Combin@@ 1
Combs 1
Comeback 1
Comerford 1
Comes 1
Comic 1
Comics 1
Comm@@ 1
Commentary 1
Commenting 1
Commodo@@ 1
Common 1
Communic@@ 1
Compares 1
Comparing 1
Compet@@ 1
Compounding 1
Comprehensive 1
Compromise 1
Con 1
Conan 1
Concili@@ 1
Concluding 1
Condem@@ 1
Condensed 1
Condevor 1
Conditions 1
Conducting 1
Coney 1
Confi@@ 1
Configuration 1
Confirmation 1
Conflict 1
Confrontation 1
Confu@@ 1
Congrat@@ 1
Congrats 1
Congre@@ 1
Congres@@ 1
Connery 1
Connor 1
Conroy 1
Cons 1
Conserv@@ 1
Consider 1
Consider@@ 1
Considers 1
Consol 1
Conspiracy 1
Const@@ 1
Constab@@ 1
Construction 1
Contac@@ 1
Contemporary 1
Contep@@ 1
Contra 1
Control@@ 1
Contrôlée 1
Conven@@ 1
Convers@@ 1
Coo@@ 1
Cool 1
Cooley 1
Coolpix@@ 1
Coombes@@ 1
Coon 1
Cooper@@ 1
Coopers 1
Copp@@ 1
Cops 1
Corey 1
Corpor@@ 1
Corriere 1
Cosby 1
Cosco 1
Cost@@ 1
Costei@@ 1
Cota 1
Cotillard 1
Cotte 1
Cough@@ 1
Coughlan 1
Could 1
Counter 1
Counter@@ 1
Courses 1
Cout@@ 1
Covel 1
Coven@@ 1
Cover 1
Coyotes 1
Cozad 1
Cramer 1
Crash 1
Crate 1
Cren@@ 1
Cres@@ 1
Crested 1
Crises 1
Cristiano 1
Crit@@ 1
Cross@@ 1
Crouch 1
Crum@@ 1
Cs 1
Cu@@ 1
Cub@@ 1
Cubas 1
Cue 1
Cult 1
Cum@@ 1
Cups 1
Cure 1
Curt 1
Cust@@ 1
Cut 1
Cycl@@ 1
D.A.@@ 1
D.Brown 1
D01 1
DA@@ 1
DAM 1
DAN@@ 1
DC 1
DCI@@ 1
DEL 1
DER 1
DER@@ 1
DG@@ 1
DGA 1
DH@@ 1
DIT@@ 1
DLA 1
DM 1
DM@@ 1
DOR@@ 1
DP 1
DR 1
DS 1
DS@@ 1
DT-@@ 1
DUB@@ 1
DUR@@ 1
DY 1
DY@@ 1
Dac@@ 1
Dad 1
Dada 1
Daddy 1
Dadul@@ 1
Dady 1
Daft 1
Dai@@ 1
Dain@@ 1
Dale 1
Dalian 1
Dall@@ 1
Dando 1
Danes 1
Dani 1
Dar 1
Daro@@ 1
Date 1
Dau@@ 1
Dav@@ 1
Davi@@ 1
DeCour@@ 1
DeFord 1
DeFrank 1
DeGette 1
DeLau@@ 1
DeLillo 1
DeNiro 1
DeRosa 1
DeVecchio 1
DeWa@@ 1
DeWald 1
Deal 1
Deals 1
Dean 1
Deans 1
Dearborn 1
Deb 1
Deby 1
Dec 1
Dedicated 1
Defen@@ 1
Definition 1
Defra 1
Degas 1
Degre@@ 1
Degree 1
Degrees 1
Dei@@ 1
Dein 1
Deir@@ 1
Delhi 1
Dem@@ 1
Demo 1
Democr@@ 1
Demon@@ 1
Demonstr@@ 1
Dene 1
Deng@@ 1
Dental 1
Depending 1
Deported 1
Deposed 1
Deposit 1
Depth 1
Derby 1
Derek 1
Descri@@ 1
Desper@@ 1
Dest@@ 1
Det 1
Determination 1
Deux 1
Dev@@ 1
Devalued 1
Develop 1
Deven 1
Devil 1
Devin 1
Devon 1
Dha@@ 1
Dhar@@ 1
Dhark@@ 1
Dhir@@ 1
Di 1
DiGennaro 1
Dia 1
Diam@@ 1
Diary 1
Dibab@@ 1
Dic@@ 1
Didier 1
Didn 1
Die 1
Die@@ 1
Dig@@ 1
Dign@@ 1
Ding 1
Dings 1
Dip 1
Diplom@@ 1
Dipnote 1
Dir@@ 1
Dirk 1
Display 1
Dist@@ 1
Diva 1
Divis@@ 1
Diyala 1
Dj@@ 1
Dmit@@ 1
Dnipro 1
Dob@@ 1
Dobson 1
Doh@@ 1
Dole 1
Doll 1
Doll@@ 1
Dollars 1
Dom@@ 1
Dome 1
Domen@@ 1
Doping 1
Dore 1
Dorothy 1
Dose 1
Dover 1
Downing 1
Download 1
Drama 1
Dre 1
Dre@@ 1
Dres@@ 1
Dressed 1
Drin@@ 1
Drought 1
Drum@@ 1
Drun@@ 1
Dry 1
Ds 1
Dul@@ 1
Dum@@ 1
Dung@@ 1
Duo 1
Dur@@ 1
Dustin 1
Dwa@@ 1
Dynamics 1
E.C. 1
E.D. 1
E01 1
E07 1
E337 1
EAM 1
EAN 1
EC@@ 1
ECT@@ 1
EE@@ 1
EEA 1
EET 1
EFA 1
EM 1
EMEN@@ 1
EMENTS 1
EPC@@ 1
EQU@@ 1
ERS 1
EY@@ 1
Eag@@ 1
Ear@@ 1
Earl 1
Earnhardt 1
Easter 1
Eastwood 1
Eat 1
Eat@@ 1
Eating 1
Eb@@ 1
Ebert 1
Ebling 1
Eche@@ 1
Echo 1
Ecli@@ 1
Ecology 1
Eder@@ 1
Edison 1
Edit 1
Edmund 1
Eduardo 1
Eel@@ 1
Ef@@ 1
Effici@@ 1
Egypti@@ 1
Ehrlich 1
Ei@@ 1
Eid@@ 1
Eigh@@ 1
Eih@@ 1
Eil@@ 1
Einstein 1
Eisen@@ 1
Ela@@ 1
Elad 1
Ele@@ 1
Elek@@ 1
Elektron@@ 1
Elf@@ 1
Eli@@ 1
Ell@@ 1
Ellen 1
Else 1
Elton 1
Elvis 1
Ely 1
Em 1
Emer@@ 1
Emerging 1
Emily 1
Emm@@ 1
Emp@@ 1
Emplo@@ 1
EnCana 1
Enables 1
End@@ 1
Ended 1
Enders 1
Ending 1
Endo 1
Ene@@ 1
Energ@@ 1
Enforcement 1
Enigma 1
Ennio 1
Enquir@@ 1
Enrico 1
Ensure 1
Enth@@ 1
Entirely 1
Envoys 1
Eph@@ 1
Epi@@ 1
Epo@@ 1
Era@@ 1
Erb 1
Erb@@ 1
Ere@@ 1
Eres@@ 1
Eri@@ 1
Erne@@ 1
Ertegun 1
Erup@@ 1
Espresso 1
Essen@@ 1
Establ@@ 1
Estate 1
Estee 1
Eth@@ 1
Ethan 1
Ethan@@ 1
Ether@@ 1
Ethi@@ 1
Eto 1
Etr@@ 1
Euphr@@ 1
Eur 1
Eur@@ 1
Euro@@ 1
Eva 1
Evan 1
Evander 1
Evel@@ 1
Even@@ 1
Evil 1
Ewan 1
ExCup 1
Exact 1
Exactly 1
Exc@@ 1
Exchanged 1
Exchequ@@ 1
Execu@@ 1
Exhale 1
Exhib@@ 1
Exile 1
Expanding 1
Exped@@ 1
Expir@@ 1
Expl@@ 1
Expor@@ 1
Extell 1
Extensive 1
Extrem@@ 1
Exxon@@ 1
Eye 1
Eyes 1
F136 1
FA 1
FA@@ 1
FAL@@ 1
FAR@@ 1
FC 1
FC-@@ 1
FEN@@ 1
FER 1
FIE@@ 1
FIN@@ 1
FINAN@@ 1
FIS@@ 1
FL@@ 1
FLD@@ 1
FM 1
FNL 1
FO@@ 1
FOL@@ 1
FOM@@ 1
FOS@@ 1
FOX@@ 1
FPO 1
FPP 1
FRAN@@ 1
FSA 1
FX 1
FX@@ 1
Fab@@ 1
Faber@@ 1
Fabio 1
Fad@@ 1
Fag@@ 1
Fah@@ 1
Fahey 1
Fahr@@ 1
Fai@@ 1
Fail@@ 1
Fallen 1
Falling 1
Fan 1
Fas@@ 1
Fashion 1
Fast@@ 1
Fathers 1
Fatic 1
Faul@@ 1
Fay@@ 1
Fayette 1
Fed@@ 1
Feeling 1
Felder 1
Fen@@ 1
Ferdinand 1
Fern@@ 1
Ferrer 1
Fi 1
Fiat 1
Fich@@ 1
Fiel@@ 1
Fielder-Civil 1
Fields 1
Fier@@ 1
Fig@@ 1
Figh@@ 1
Fil 1
Fill 1
Filling 1
Film 1
Finance 1
Financing 1
Finder.com 1
Findus 1
Fineg@@ 1
Fineman 1
Finish 1
Finishing 1
Finjan 1
Finkel 1
Finland 1
Finley 1
Finmec@@ 1
Finn 1
Finnish 1
Fir 1
Fire@@ 1
First-@@ 1
Fischer 1
Fish@@ 1
Fit@@ 1
Flam@@ 1
Flaun@@ 1
Fli@@ 1
Flight 1
Flights 1
Floo@@ 1
Flor@@ 1
Focus 1
Fon@@ 1
Forbes@@ 1
Forced 1
Forensic 1
Forge 1
Format 1
Formed 1
Formig@@ 1
Formul@@ 1
Fornac@@ 1
Forrest 1
Forrester 1
Forsett 1
Forsy@@ 1
Fort@@ 1
Fortis 1
Forward-@@ 1
Four@@ 1
Fow@@ 1
Fr@@ 1
Franc@@ 1
Frances 1
Frances@@ 1
Franchit@@ 1
Francis@@ 1
Franco-@@ 1
Franco@@ 1
Frau@@ 1
Frederic 1
Freg@@ 1
Fren@@ 1
Fres@@ 1
Frey 1
Friend 1
Fris@@ 1
Frit@@ 1
Fritz 1
Fro@@ 1
Fuentes 1
Fujian 1
Full 1
Funded 1
Furies 1
Fury 1
Fuse 1
G.A.@@ 1
G2 1
G2E 1
G9 1
GA 1
GAR@@ 1
GAT@@ 1
GB 1
GBY@@ 1
GCC 1
GD@@ 1
GF 1
GF@@ 1
GFS 1
GH 1
GHA@@ 1
GIA 1
GIG 1
GILL@@ 1
GNI 1
GSA 1
GTON 1
GUING@@ 1
GVA 1
GW 1
Gabe 1
Gables 1
Gabor@@ 1
Gadd@@ 1
Gaelic 1
Gain@@ 1
Galle@@ 1
Galli@@ 1
Gang 1
Gang@@ 1
Gao 1
Gares 1
Gark@@ 1
Garment 1
Gart@@ 1
Gas@@ 1
Gasol 1
Gast@@ 1
Gately 1
Gath@@ 1
Gators 1
Gattuso 1
Gaul@@ 1
Gav@@ 1
Gave 1
Gaz 1
Gebr@@ 1
Geffen 1
Gelder 1
Gem@@ 1
Gen-@@ 1
Gene 1
Generation 1
Gennaro 1
Gent@@ 1
Geoff 1
Geoffrey 1
Geor@@ 1
Georges 1
Georgi@@ 1
Gere 1
Gerrard 1
Gerry 1
Gh@@ 1
Ghad 1
Ghaz@@ 1
Gib@@ 1
Gibr@@ 1
Gif@@ 1
Gil 1
Giles 1
Gill@@ 1
Gilliam 1
Gio@@ 1
Gisha 1
Glam@@ 1
Glit@@ 1
Global@@ 1
Glove 1
Glover 1
Goldw@@ 1
Goo@@ 1
Gop@@ 1
Gor@@ 1
Gough 1
Govern@@ 1
Governance 1
Grady 1
Graff@@ 1
Gramm@@ 1
Grange 1
Grass 1
Grau@@ 1
Greg@@ 1
Grei@@ 1
Gren@@ 1
Gri@@ 1
Griff@@ 1
Griffin 1
Grimes 1
Gris@@ 1
Gru@@ 1
Grum@@ 1
Grun@@ 1
Gs 1
Guang@@ 1
Guant@@ 1
Guar@@ 1
Gucci 1
Gud@@ 1
Guern@@ 1
Guerr@@ 1
Guillermo 1
Gull 1
Gund@@ 1
Guru@@ 1
Gust@@ 1
Gutsch@@ 1
Guy 1
Gy@@ 1
Gyn@@ 1
H-bee 1
H.N 1
H1 1
H2 1
H5N1 1
H7 1
H7N2 1
HA 1
HAR@@ 1
HCT 1
HD@@ 1
HEM 1
HER@@ 1
HI@@ 1
HMR@@ 1
HN 1
HO 1
HOF 1
HOK 1
HOR@@ 1
HP 1
HSBC 1
Haare@@ 1
Hab@@ 1
Hag@@ 1
Hagan 1
Hagen 1
Hager 1
Hair 1
Halber@@ 1
Hale 1
Hali@@ 1
Hall@@ 1
Halle 1
Halley 1
Ham 1
Hamburg 1
Han 1
Hana 1
Hang 1
Hank@@ 1
Hann 1
Hann@@ 1
Hannah 1
Hannover 1
Hans 1
Hansen 1
Happ@@ 1
Harare 1
Harmony 1
Haro@@ 1
Hartford 1
Harv@@ 1
Has@@ 1
Hash@@ 1
Hashmi 1
Hasi@@ 1
Hass@@ 1
Hat 1
Hate 1
Hatri@@ 1
Hau 1
Hau@@ 1
Haug 1
Haute 1
Hav@@ 1
Haw@@ 1
Hays 1
HdV 1
Heb@@ 1
Hec@@ 1
Heg@@ 1
Hei@@ 1
Heidelberg 1
Heim@@ 1
Hein@@ 1
Heir 1
Helicop@@ 1
Helicopter 1
Heller 1
Hello 1
Helmand 1
Hendrix 1
Hens 1
Hens@@ 1
Hert@@ 1
Heu@@ 1
Hev@@ 1
Hh 1
Hi 1
Hidden 1
Hig@@ 1
Highlights 1
Hill@@ 1
Hilli@@ 1
Hincapie 1
Hins@@ 1
Hip-@@ 1
Hir@@ 1
Hiro@@ 1
Hirosh@@ 1
Hirsch 1
Hiz@@ 1
Hlad@@ 1
Hmm-hmm-h@@ 1
Hmong 1
Hoa 1
Hoan 1
Hoboken 1
Hoch 1
Hodg@@ 1
Hoek@@ 1
Hoerne@@ 1
Hof@@ 1
Hogan 1
Hogs 1
Hogwarts 1
Holding 1
Holik 1
Hollow 1
Holmes 1
Holocau@@ 1
Holyfield 1
Hon@@ 1
Hoo@@ 1
Hop 1
Horn 1
Hoskins 1
Hospitals 1
Hoss@@ 1
Hostage 1
Hostility 1
Hot 1
Hotels 1
Hotline 1
Hotmail 1
Hotspur 1
Hours 1
Hous@@ 1
Housewives 1
Hover 1
Hoyas 1
Hoyer 1
Hrbat@@ 1
Hu 1
Hua@@ 1
Hubert 1
Hummer 1
Hund@@ 1
Hunt 1
Hunts 1
Hurt 1
Hus@@ 1
Hust@@ 1
I-@@ 1
I. 1
I.B@@ 1
IAAF 1
IB@@ 1
IBA 1
IC 1
IDEN@@ 1
IDI@@ 1
IE@@ 1
IGT 1
IIs 1
IL@@ 1
ING@@ 1
IO 1
IOD-@@ 1
ION 1
IONAL 1
IOP 1
IPT@@ 1
IQ 1
IR 1
ISS 1
ISS@@ 1
IST 1
ITY 1
IX 1
Ia 1
Iain 1
Ibn 1
Ice 1
Iced 1
Iceland 1
Id 1
Ift@@ 1
Igl@@ 1
Igor 1
Igum@@ 1
Ike 1
Ilan@@ 1
Ile@@ 1
Illin@@ 1
Illu@@ 1
Incidents 1
Incorpor@@ 1
Incre@@ 1
Incredible 1
Indent@@ 1
Indic@@ 1
Indies 1
Indirect 1
Individu@@ 1
Indones@@ 1
Indy 1
Indy@@ 1
Infan@@ 1
Infin@@ 1
Info@@ 1
Infra@@ 1
Ing@@ 1
Inge 1
Inger@@ 1
Ingmar 1
Ingre@@ 1
Ingrid 1
Iniesta 1
Initiative 1
Inman 1
Inmates 1
Innocent 1
Innovation 1
Innovative 1
Inorganic 1
Ins@@ 1
Insider 1
Inspect 1
Inspiration 1
Instit@@ 1
Insur@@ 1
Intangible 1
Intelligen@@ 1
Inten@@ 1
Inter-Services 1
InterActi@@ 1
InterOil 1
Interfax 1
Intergovernmental 1
Interim 1
Interlinked 1
Interoper@@ 1
Interpre@@ 1
Intertek 1
Interventions 1
Interview 1
Intimate 1
Inund@@ 1
Invasion 1
Invent 1
Invent@@ 1
Inverg@@ 1
Invern@@ 1
Invest@@ 1
Investments 1
Involving 1
Ion 1
Ior@@ 1
Isa@@ 1
Ish@@ 1
Ishi@@ 1
Isi@@ 1
Iskand@@ 1
Israel@@ 1
Israelis 1
Istanbul 1
Itali@@ 1
Italia 1
Itz@@ 1
Ivan 1
Ivo 1
Ivá@@ 1
Iwaki 1
Iz@@ 1
Izz@@ 1
IÂ 1
J.C. 1
J.J. 1
JFK 1
JI 1
JMP 1
JNF 1
JOAN 1
JOL@@ 1
JON@@ 1
JP 1
JPMorgan 1
JTCRele@@ 1
JTF 1
JUBA 1
Jac@@ 1
Jacob 1
Jacobson 1
Jacqu@@ 1
Jacques 1
Jagger 1
Jaghato 1
Jagu@@ 1
Jaguar 1
Jah 1
Jail 1
Jamie 1
Jank@@ 1
Janka 1
Jann@@ 1
Jap@@ 1
Jar@@ 1
Jard@@ 1
Jau@@ 1
Jayden 1
Jaz@@ 1
Jean-@@ 1
Jean-Claude 1
Jed 1
Jeh@@ 1
Jenn@@ 1
Jess 1
Jessica 1
Jet@@ 1
Jetta 1
Jiang 1
Jill 1
Jimm@@ 1
Jin 1
Jind@@ 1
Jit@@ 1
Job 1
Joc@@ 1
John@@ 1
Jok@@ 1
Jol@@ 1
Jon@@ 1
Jones-@@ 1
Jong 1
Jong-@@ 1
Jor@@ 1
Jorda@@ 1
Jos 1
Josef 1
Jous@@ 1
Jow@@ 1
Jub@@ 1
Jude 1
Jump 1
Junior 1
Junk@@ 1
Jupiter 1
Jur@@ 1
Jury 1
Just@@ 1
Juventus 1
Jy-@@ 1
Jyo@@ 1
KA 1
KCN@@ 1
KEL 1
KFT@@ 1
KGTV 1
KHO@@ 1
KINNE@@ 1
KNOL@@ 1
KO 1
KPHO@@ 1
KPS 1
KRON 1
KTV@@ 1
Kab@@ 1
Kabil@@ 1
Kad@@ 1
Kagan 1
Kahe@@ 1
Kai@@ 1
Kak@@ 1
Kala 1
Kampf 1
Kandahar 1
Kane 1
Kang@@ 1
Karamanlis 1
Kare@@ 1
Karin 1
Karma 1
Karti@@ 1
Kassi 1
Kast 1
Kauf@@ 1
Kay 1
Kay@@ 1
Keh@@ 1
Keira 1
Kellen 1
Keller 1
Kemal 1
Kemp@@ 1
Kend@@ 1
Kenne@@ 1
Kens@@ 1
Kern@@ 1
Kes@@ 1
Kessel 1
Kessler 1
Keuro@@ 1
Keyes 1
Keynes 1
Khal@@ 1
Khan@@ 1
Khar@@ 1
Khie@@ 1
Khin 1
Kidman 1
Kie@@ 1
Kier@@ 1
Kik@@ 1
Kili@@ 1
Killing 1
Kim@@ 1
Kimberly-@@ 1
Kin 1
Kinder@@ 1
Kindle 1
Kings 1
Kirchner 1
Kirsten 1
Kis@@ 1
Kl@@ 1
Klaeden 1
Kli@@ 1
Klin@@ 1
Kline 1
Klo@@ 1
Klu@@ 1
Kmart 1
Knapp 1
Kne@@ 1
Knight 1
Knights 1
Knu@@ 1
Kob@@ 1
Koch 1
Kodak 1
Kof@@ 1
Koh@@ 1
Kohlberg 1
Kol@@ 1
Konaté 1
Koop 1
Kop@@ 1
Koreas 1
Kow@@ 1
Kra@@ 1
Kraft 1
Krauss 1
Kress 1
Kroes 1
Ku 1
Kum@@ 1
Kun@@ 1
Kung@@ 1
Kur@@ 1
Kus@@ 1
Kush@@ 1
Kut@@ 1
Kuwa@@ 1
Kvamme 1
Kwo@@ 1
Kyr@@ 1
L-C 1
L.-@@ 1
L10 1
LAM@@ 1
LAN 1
LAND 1
LAR@@ 1
LBS 1
LCO@@ 1
LCOR@@ 1
LD 1
LDL-C 1
LEA 1
LG.Philips 1
LIA@@ 1
LIST 1
LP 1
LSD 1
LUT@@ 1
LV@@ 1
LY@@ 1
Labo@@ 1
Labor@@ 1
Lac@@ 1
Lack@@ 1
Lacking 1
Lacy 1
Lad@@ 1
Laguna 1
Lah@@ 1
Lahore 1
Lakes 1
Lan@@ 1
Lance 1
Lapparent 1
Lappe@@ 1
Lar@@ 1
Larkin 1
Lars 1
Late-@@ 1
Lati@@ 1
Latt@@ 1
Lauer 1
Lav@@ 1
Lay@@ 1
LeBlanc 1
LeBron 1
LeCro@@ 1
LeRoy 1
Leader@@ 1
Leaf 1
Leah 1
Lean 1
Learning 1
Lease 1
Least 1
Leav@@ 1
Lec@@ 1
Leefe 1
Leenane 1
Leesburg 1
Leesport 1
Leeuwen 1
Leftw@@ 1
Legal 1
Legi@@ 1
Legis@@ 1
Leh@@ 1
Lehr 1
Leipzig 1
Lekut@@ 1
Len 1
Len@@ 1
Lending@@ 1
Lens 1
Lenti@@ 1
Leon 1
Leona 1
Leonard 1
Leonel 1
Lep@@ 1
Lepetit 1
Les@@ 1
Lesch@@ 1
Less@@ 1
Lest@@ 1
Lester 1
Letta 1
Lev@@ 1
Levy 1
Lew 1
Lew@@ 1
Lex@@ 1
Lexus 1
Ley@@ 1
León 1
Liang 1
Liberia 1
Lickl@@ 1
Lido 1
Lie@@ 1
Lifesty@@ 1
Lifestyle 1
Lig@@ 1
Ligh@@ 1
Lighting 1
Lights 1
Lik@@ 1
Lil 1
Lily 1
Lima 1
Linc@@ 1
Lind@@ 1
Linden 1
Link@@ 1
Links 1
Lion 1
Liqu@@ 1
Lis@@ 1
List 1
Lite 1
Liter@@ 1
Living@@ 1
Llos@@ 1
Lloy@@ 1
Lo 1
Lob@@ 1
Lobby@@ 1
Lock@@ 1
Locke 1
Logist@@ 1
Logo 1
Loire 1
Lok@@ 1
Loma 1
Lopez 1
Lor@@ 1
Louis@@ 1
Lover@@ 1
Ltd. 1
Luc@@ 1
Luci@@ 1
Lue 1
Luisa 1
Lutz 1
Lux@@ 1
Luxem@@ 1
Luz@@ 1
Lyn@@ 1
Lynn 1
Lys@@ 1
M.D. 1
M03 1
M2D 1
M4 1
M56 1
M60 1
M74 1
MAD@@ 1
MAR 1
MASS 1
MBA 1
MBC 1
MCD 1
MD 1
MDA@@ 1
ME@@ 1
MEE@@ 1
MEL@@ 1
MEM@@ 1
MERS 1
MES 1
MEX 1
MFA 1
MFS 1
MI 1
MIA@@ 1
MID@@ 1
MIKE 1
MIL@@ 1
MINGTON 1
MLA 1
MLB 1
MM@@ 1
MMB@@ 1
MMS 1
MP@@ 1
MR@@ 1
MT 1
MUMB@@ 1
MUS 1
Ma 1
Macau 1
Mad 1
Maddie 1
Made 1
Magist@@ 1
Magn@@ 1
Magna 1
Mahm@@ 1
Mailer 1
Maker 1
Malcolm 1
Mall 1
Malle@@ 1
Mallon 1
Malta 1
Mandalay 1
Mandate 1
Manhat@@ 1
Manmohan 1
Manufac@@ 1
Manufactur@@ 1
Mao@@ 1
Maps 1
Mar 1
Marath@@ 1
Marathons 1
Marce@@ 1
Marchetta 1
Marcia 1
Marcil 1
Marco 1
Marconi 1
Marcus 1
Mare@@ 1
Margie 1
Marianne 1
Marin 1
Marin@@ 1
Marina 1
Marinca 1
Mario 1
Mario@@ 1
Maris 1
Marisha 1
Market@@ 1
Markets 1
Marlboro 1
Marlins 1
Marlow 1
Marmont 1
Maron@@ 1
Marras 1
Marrero 1
Marseille 1
Mart 1
Marta 1
Martha 1
Martinon 1
Marty 1
Martí@@ 1
Marv 1
Marvan 1
Marware 1
Marxist 1
Mary-@@ 1
Mash@@ 1
Maske 1
Massachu@@ 1
Masse@@ 1
Massi@@ 1
Master@@ 1
Mats@@ 1
Matt@@ 1
Maurer 1
Maver@@ 1
Mavericks 1
Mazz@@ 1
Mb@@ 1
McCar@@ 1
McGowan 1
McKin@@ 1
McKinsey 1
McLe@@ 1
McQu@@ 1
Me. 1
Mead@@ 1
Meadows 1
Mealam@@ 1
Means 1
Mears 1
Measuring 1
Meat 1
Meave 1
Meche 1
Med 1
Med@@ 1
Medi@@ 1
Mee 1
Mega 1
Mehsud 1
Mei@@ 1
Meier 1
Melanie 1
Mell@@ 1
Mem@@ 1
Memorabilia 1
Mend@@ 1
Menn@@ 1
Mercedes 1
Mess@@ 1
Messe 1
Messe@@ 1
Messen@@ 1
Messer 1
Messi 1
Metho@@ 1
Metro-@@ 1
Metro@@ 1
Metz@@ 1
Mezzo@@ 1
Mhap@@ 1
Mian 1
Mice 1
Mick@@ 1
Micro@@ 1
Mide@@ 1
Mign@@ 1
Mika 1
Mile 1
Miliband 1
Mill 1
Millie 1
Mims 1
Minaya 1
Mindshare 1
Mindy 1
Mine 1
Mine-@@ 1
Ming 1
Mini@@ 1
Mining 1
Minist@@ 1
Ministeri@@ 1
Ministers 1
Minneapolis 1
Minnes@@ 1
Minnie 1
Minogue 1
Mintz 1
Minut@@ 1
Mir 1
Mir@@ 1
Miriam 1
Mirko 1
Mirror 1
Misha 1
Missour@@ 1
Mitch 1
Mitra 1
Mitsuhide 1
Mittal 1
Mix 1
MoCA 1
Mode 1
Modena 1
Modenese 1
Moder@@ 1
Modern 1
Moderne 1
Moe 1
Mogend@@ 1
Moham@@ 1
Moi 1
Moll 1
Moms 1
Mona 1
Monaco 1
Monast@@ 1
Mondale 1
Money@@ 1
Mongolia 1
Monina 1
Monitor 1
Monkeys 1
Monop@@ 1
Monroe 1
Monster 1
Mont@@ 1
Monte 1
Montero 1
Montes 1
Montgom@@ 1
Montzerrat 1
Monywa 1
Moo-@@ 1
Moonstruck 1
Moquet 1
Moral 1
Mos@@ 1
Mosca 1
Moser 1
Mosh 1
Mosley 1
Mota 1
Mote 1
Mother@@ 1
Motor@@ 1
Motown 1
Mottaki 1
Mounga 1
Mousa 1
Movellan 1
Movement@@ 1
Movie 1
Movie@@ 1
Moy 1
Moyock 1
Moz@@ 1
Mozel@@ 1
Mul@@ 1
Mulroney 1
Multi@@ 1
Mund@@ 1
Musa 1
Museums 1
Musi@@ 1
Must 1
Must@@ 1
Mwai 1
N.com 1
N360 1
NAND 1
NATI@@ 1
NC 1
NCI@@ 1
ND 1
NDS@@ 1
NE 1
NE@@ 1
NEW@@ 1
NFC 1
NH@@ 1
NI 1
NI@@ 1
NII 1
NIKE 1
NIN 1
NISS@@ 1
NIT 1
NJ 1
NN@@ 1
NO 1
NOR@@ 1
NPO 1
NPR 1
NS 1
NS@@ 1
NV 1
NV@@ 1
NW 1
NW@@ 1
Nabe@@ 1
Nad 1
Naga 1
Nagu@@ 1
Nak@@ 1
Nallet 1
Namib@@ 1
Nantes 1
Naomi 1
Nas 1
Nass 1
Nath 1
Native 1
Nativity 1
Nav@@ 1
Navig@@ 1
Naw@@ 1
Nay@@ 1
Nazir 1
Neanderth@@ 1
Near 1
Ned 1
Need 1
Needless 1
Negev 1
Negli@@ 1
Negr@@ 1
Nei@@ 1
Neich 1
Neilly 1
Neitzel 1
Neko 1
Neller 1
Nelly 1
Nep@@ 1
Nest@@ 1
Netscape 1
Neuda 1
Neut@@ 1
Nev 1
Never@@ 1
Nevins 1
Newcom@@ 1
Newell 1
Newham 1
Newswire 1
Nezam@@ 1
Nghe 1
Nicolas 1
Nig@@ 1
Nigeri@@ 1
Nights 1
Nikkei@@ 1
Nikolai 1
Nile 1
Nils 1
Ning 1
Nippon 1
Nissen 1
Nkul@@ 1
No-Name 1
No.1769 1
Noa 1
Noah 1
Nob 1
Nobutaka 1
Nocioni 1
Nocturn@@ 1
Nol@@ 1
Nolte 1
Nomin@@ 1
Noord@@ 1
Nor 1
Norbert 1
Nord@@ 1
Nos. 1
Nott@@ 1
Nourred@@ 1
Nov 1
Novakovic 1
Novel@@ 1
Now@@ 1
Nowhere 1
Nowitzki 1
Nseries 1
Nur 1
Nuri 1
Nx@@ 1
Nye 1
O.C. 1
O.T@@ 1
OB@@ 1
OC@@ 1
OE@@ 1
OEM@@ 1
OH 1
OK@@ 1
OKA 1
OM 1
OM@@ 1
ONAL 1
OR 1
OT 1
OT@@ 1
OTER 1
OTH@@ 1
OU@@ 1
Oaks 1
Obes@@ 1
Obey 1
Observer 1
Obst@@ 1
Odi@@ 1
Odom 1
Ofcom 1
Off 1
Offensive 1
Ofic@@ 1
Oil@@ 1
Oiled 1
Oilers 1
Oj@@ 1
Ola@@ 1
Ole 1
Omach@@ 1
Omer 1
Omes@@ 1
One@@ 1
Ono@@ 1
Oper@@ 1
Ophys 1
Oppen@@ 1
Opport@@ 1
Opti@@ 1
Ora@@ 1
Oral 1
Oran@@ 1
Oreg@@ 1
Oren@@ 1
Organis@@ 1
Organisation 1
Origin@@ 1
Original 1
Oro@@ 1
Oscar-@@ 1
Osi 1
Oslo 1
Osse@@ 1
Otherwise 1
Otter 1
Oval 1
Oversi@@ 1
Ovi 1
Owa@@ 1
Owens 1
Oyster-@@ 1
Oz@@ 1
P-@@ 1
P.J. 1
P.M. 1
PAA 1
PAC 1
PAL@@ 1
PAS@@ 1
PB@@ 1
PCCS 1
PCs 1
PEC 1
PER@@ 1
PERFOR@@ 1
PF@@ 1
PGM 1
PGP 1
PHI@@ 1
PHO@@ 1
PI 1
PLAN@@ 1
PO 1
PO@@ 1
POL@@ 1
POP@@ 1
PPI 1
PPR 1
PS2 1
PS3 1
PSE@@ 1
PST 1
PUR@@ 1
Pack 1
Packer 1
Pad 1
Pago@@ 1
Pah@@ 1
Pain 1
Pain@@ 1
Pakist@@ 1
Palma 1
Pam@@ 1
Pan 1
Panc@@ 1
Panorama 1
Paolo 1
Paper 1
Parachute 1
Parade 1
Paramet@@ 1
Pare@@ 1
Parent 1
Parenth@@ 1
Parenting 1
Parfitt 1
Parise 1
Parish 1
Parish@@ 1
Park@@ 1
Parmes@@ 1
Parole 1
Parr 1
Pars 1
Particip@@ 1
Parties 1
Partner 1
Parts 1
Pas 1
Pas@@ 1
Pash@@ 1
Past@@ 1
Pastor 1
Path 1
Path@@ 1
Patriarch 1
Patt@@ 1
Pau@@ 1
Paulo 1
Paus@@ 1
Pav@@ 1
Pax@@ 1
Pay 1
Pay@@ 1
Pct 1
Pe 1
Peck 1
Peck@@ 1
Ped@@ 1
Pem@@ 1
Pen 1
Penn@@ 1
Pens 1
Peri@@ 1
Persi@@ 1
Person 1
Pess@@ 1
Petacchi 1
Peugeot 1
Pey@@ 1
Pfi@@ 1
Phan@@ 1
Pharmaceutical 1
Phelps 1
Phil@@ 1
Philips 1
Physi@@ 1
Pich@@ 1
Picks 1
Pico 1
Pie 1
Pier@@ 1
Pilot 1
Pino 1
Pion@@ 1
Pirlo 1
Pist@@ 1
Pix 1
Piz@@ 1
Placid 1
Plas@@ 1
Play@@ 1
Pm 1
Po 1
Pochoir 1
Pocket 1
Poh@@ 1
Poin@@ 1
Point 1
Poitren@@ 1
Pok@@ 1
Poker 1
Pole 1
Poli@@ 1
Pom@@ 1
Ponce 1
Pool 1
Pooling 1
Poop 1
Poorman 1
Pop 1
Popul@@ 1
Population 1
Porsche 1
Portfolio 1
Porto 1
Portu@@ 1
Positive 1
Poss@@ 1
Pot 1
Potan@@ 1
Potential 1
Potom@@ 1
Poux 1
Powers 1
Pradesh 1
Pran@@ 1
Pras@@ 1
Praxis 1
Predat@@ 1
Predic@@ 1
Prefer 1
Preliminary 1
Prem@@ 1
Premier@@ 1
Prepare@@ 1
Presidency 1
Presidential 1
Presidents 1
Presiding 1
Prestbury 1
Preston 1
Pretor@@ 1
Preven@@ 1
Prevent 1
Preventing 1
Prewitt 1
Primetime 1
Princip@@ 1
Principal 1
Privat@@ 1
Probe 1
Problem 1
Procri@@ 1
Prodi 1
Product 1
Prof@@ 1
Professi@@ 1
Programme 1
Progress 1
Progressi@@ 1
Prokop@@ 1
Proliferation 1
Promin@@ 1
Promise 1
Promised 1
Promo@@ 1
Propon@@ 1
Propul@@ 1
Prosec@@ 1
Prospect 1
Prosper@@ 1
Protest 1
Protestant 1
Protests 1
Proton@@ 1
Prouty 1
Provin@@ 1
Provo@@ 1
Pru@@ 1
Psa@@ 1
Psar@@ 1
Psy@@ 1
Pte 1
Pti 1
Pu@@ 1
Pul@@ 1
Pun@@ 1
Punk 1
Punt 1
Push@@ 1
Put 1
Pyl 1
Pyle 1
Pärt 1
Pérez 1
Q3 1
QChat 1
QLT 1
QPR 1
QRI@@ 1
QSB 1
QUAR@@ 1
QUARTER@@ 1
QVC 1
Qab@@ 1
Qadeer 1
Qaida 1
Qala 1
Qarg@@ 1
Qat@@ 1
Qaz@@ 1
Qd5 1
Qin@@ 1
Quan 1
Quant@@ 1
Quar@@ 1
Quds 1
Quick@@ 1
Quicken 1
Quiet 1
Quigo 1
Quintel@@ 1
Quip 1
Quit@@ 1
Quite 1
Quitting 1
Quo@@ 1
Quoted 1
Qureia 1
Qxb4 1
R-K@@ 1
R.@@ 1
RA 1
RA@@ 1
RAN@@ 1
RATI@@ 1
RB@@ 1
RC@@ 1
RCS 1
RDavis 1
RE 1
RFC 1
RG 1
RH1 1
RIC@@ 1
RL@@ 1
RMS 1
RMT 1
RN 1
RNC 1
RO 1
ROM@@ 1
RP 1
RP-@@ 1
RS@@ 1
RSA 1
RSP@@ 1
RSS 1
RV 1
RY 1
RY@@ 1
Raf@@ 1
Rage 1
Ragged 1
Rahr 1
Rai@@ 1
Ral@@ 1
Ralph 1
Ram 1
Ranch 1
Rand 1
Rand@@ 1
Ranking 1
Rap@@ 1
Rapp 1
Rapp@@ 1
Rare 1
Ras@@ 1
Rash@@ 1
Rashid 1
Rat 1
Ratatouille 1
Ratings 1
Ratt@@ 1
Reaches 1
React 1
Read@@ 1
Reading 1
Ready 1
Rear 1
Reason 1
Rebel@@ 1
Reconstruction 1
Recoveries 1
Recovering 1
Reda 1
RediClin@@ 1
Reduc@@ 1
Reef 1
Reelection 1
Rees 1
Reese 1
Refer@@ 1
Referees 1
Refin@@ 1
Refund 1
Refuses 1
Regar@@ 1
Region 1
Reich 1
Reiter@@ 1
Rejec@@ 1
Rek@@ 1
Reli@@ 1
Rely 1
Rem@@ 1
Rembrandt 1
Remo@@ 1
Rend@@ 1
Rene 1
Rent@@ 1
Rental 1
Repe@@ 1
Report@@ 1
Reporters 1
Reprinted 1
Requests 1
Require@@ 1
Required 1
Reservoir 1
Resist@@ 1
Respect 1
Response 1
Restau@@ 1
Retired 1
Reuben 1
Reunion 1
Reusa@@ 1
Revol@@ 1
Revolution 1
Revs 1
Rexam 1
Rhapso@@ 1
Rhi@@ 1
Rhodes@@ 1
Rhon@@ 1
Ric 1
Rica 1
Richards 1
Richter 1
Rider 1
Rig 1
Rings 1
Rio@@ 1
Rip@@ 1
Ripe 1
Ris@@ 1
Rising 1
Rita 1
Ritz 1
Riverside 1
Roacc@@ 1
Roach 1
Roadside 1
Roasted 1
Robar@@ 1
Robby 1
Robel 1
Robin@@ 1
Rocc@@ 1
Rocked 1
Rockef@@ 1
Rockstar 1
Rodeo 1
Rodríguez 1
Roebuck 1
Roenick 1
Rogan 1
Roh@@ 1
Roll 1
Roll@@ 1
Romanti@@ 1
Romeo 1
Ron@@ 1
Ronaldinho 1
Roof 1
Roper 1
Rosalind 1
Rosan@@ 1
Rosenberg 1
Rosett@@ 1
Rosh 1
Rosie 1
Rossi@@ 1
Rosy 1
Rotem 1
Rough 1
Round 1
Rous@@ 1
Rout 1
Routine 1
Rover 1
Rowland 1
Rox@@ 1
Roy@@ 1
Royle 1
Rozsi@@ 1
Rs 1
Rubens 1
Rud@@ 1
Rudolf 1
Rudolph 1
Rue 1
Runn@@ 1
Runs 1
Rupp 1
Rush 1
Russi@@ 1
Rustin 1
Ruth 1
Ruud 1
Rwand@@ 1
Rx 1
Ry@@ 1
Rye 1
S-@@ 1
S237@@ 1
S4@@ 1
SA 1
SAB@@ 1
SAN 1
SB 1
SB@@ 1
SBA 1
SC 1
SC@@ 1
SCM@@ 1
SCO 1
SCO@@ 1
SEL@@ 1
SF 1
SFA 1
SFO 1
SG 1
SI@@ 1
SIC 1
SING 1
SING@@ 1
SIV@@ 1
SJ@@ 1
SL 1
SL@@ 1
SM@@ 1
SMS 1
SON 1
SON@@ 1
SPEC@@ 1
SPPI 1
SRS 1
SRS@@ 1
SS 1
SSE@@ 1
SSP 1
SST@@ 1
ST 1
STAT@@ 1
STE@@ 1
STH@@ 1
SUN@@ 1
SVEN@@ 1
SW@@ 1
SY@@ 1
Sac@@ 1
Sack@@ 1
Sacra@@ 1
Saf@@ 1
Saga 1
Sah@@ 1
Sal 1
Sale 1
Salon 1
Samak 1
Samsung 1
Sana 1
Sanc@@ 1
Sander 1
Sandy 1
Sants 1
Sao 1
Sapp 1
Sari 1
Sasha 1
Sati@@ 1
Satraplatin 1
Satri@@ 1
Saturn 1
Saudi@@ 1
Sauerland 1
Sav@@ 1
Saved 1
Scand@@ 1
Scarlett 1
Sce@@ 1
Scha@@ 1
Schaschen 1
Schedul@@ 1
Scheher@@ 1
Schie@@ 1
Schn@@ 1
Schneider 1
Schof@@ 1
Schreck 1
Schreu@@ 1
Schultz 1
Schw@@ 1
Schwar@@ 1
Schwarz 1
Schwarz@@ 1
Sci@@ 1
Scienti@@ 1
Scola 1
Scop@@ 1
Scor@@ 1
Scott@@ 1
Scout 1
Scro@@ 1
Scul@@ 1
Season 1
Sebastian 1
Sec@@ 1
Secre@@ 1
Secu@@ 1
Secur@@ 1
See@@ 1
Sef@@ 1
Seg@@ 1
Seiden@@ 1
Selec@@ 1
Sell 1
Sem@@ 1
Semer@@ 1
Semin@@ 1
Sen 1
Send 1
Sender@@ 1
Seneca 1
Sent@@ 1
Sep@@ 1
Sepp 1
Sera 1
Serbi@@ 1
Serge@@ 1
Sergio 1
Seri@@ 1
Serie 1
Serte 1
Servers 1
Ses@@ 1
Sessions 1
Set@@ 1
Seth 1
Sett@@ 1
Seymour 1
Shalt 1
Share@@ 1
Shear@@ 1
Sheets 1
Sherr@@ 1
Shipping 1
Shot 1
Shr@@ 1
Sie@@ 1
Sik@@ 1
Sil@@ 1
Sili@@ 1
Sim 1
Simil@@ 1
Simp@@ 1
Sin 1
Sindh 1
Single 1
Sir@@ 1
Sister 1
Sit 1
Site 1
Skel@@ 1
Skilling 1
Skir@@ 1
Skoda 1
Slad@@ 1
Slas@@ 1
Sloo@@ 1
Smail@@ 1
Small@@ 1
Smel@@ 1
Smi@@ 1
Smil@@ 1
Smith@@ 1
Smor@@ 1
Smu@@ 1
Snakes 1
Sne@@ 1
Snec@@ 1
Sno@@ 1
Soc@@ 1
Soccer 1
Soft@@ 1
Soldier 1
Solic@@ 1
Solidar@@ 1
Solo 1
Som@@ 1
Somer@@ 1
Song@@ 1
Sonnen@@ 1
Sons 1
Sop@@ 1
Sort 1
Sound@@ 1
South@@ 1
Sow@@ 1
Spakovsky 1
Spalding 1
Spart@@ 1
Spas 1
Spelunk@@ 1
Spen@@ 1
Spend 1
Spending@@ 1
Spheres 1
Spick@@ 1
Spiegel 1
Spielberg 1
Spilbor@@ 1
Spine 1
Split 1
Spon@@ 1
Sport 1
Sporting 1
Spratt 1
Sprit 1
Spur 1
Sput@@ 1
Spy@@ 1
Squ@@ 1
Sr. 1
StL 1
Sta@@ 1
Stacie 1
Stacy 1
Stad@@ 1
Stadler 1
Staff@@ 1
Stahl 1
Stairs 1
Stall@@ 1
Stamford 1
Stand@@ 1
Stap@@ 1
Star-@@ 1
Starbucks 1
Status 1
Staying 1
Stei@@ 1
Stein@@ 1
Steinberg 1
Stepanek 1
Stephan 1
Ster@@ 1
Sti@@ 1
Stick@@ 1
Stief@@ 1
Stiles 1
Still@@ 1
Sting@@ 1
Sto@@ 1
Stock@@ 1
Stol@@ 1
Stole 1
Ston@@ 1
Stones 1
Stops 1
Story 1
Stoxx 1
Str@@ 1
Stran@@ 1
Strang 1
Strat@@ 1
Strateg@@ 1
Strategi@@ 1
Stree 1
Stres@@ 1
Stro@@ 1
Struck 1
Studios 1
Stur@@ 1
Sturm 1
Style 1
Su 1
Succ@@ 1
Sud@@ 1
Sund@@ 1
Sung@@ 1
Sunn@@ 1
Supp@@ 1
Sustain@@ 1
Suzuki 1
Sv@@ 1
Swan@@ 1
Sweep 1
Swin@@ 1
Swinden 1
Swis@@ 1
Switz@@ 1
Sword 1
Sy@@ 1
Symantec 1
Symb@@ 1
Symp@@ 1
Syri@@ 1
T-Mobile 1
T. 1
T.J. 1
T.N 1
T.S. 1
TA 1
TAB@@ 1
TAL 1
TALL@@ 1
TAN@@ 1
TB@@ 1
TBAL@@ 1
TCP 1
TCS 1
TDs 1
TE 1
TEL@@ 1
TER 1
TER@@ 1
TF 1
TF@@ 1
TGV 1
TIN 1
TING 1
TIR@@ 1
TIT@@ 1
TM@@ 1
TMZ 1
TNT 1
TOL@@ 1
TON 1
TRS 1
TSB 1
TT@@ 1
TU@@ 1
TWEL@@ 1
TX 1
Tabasco 1
Table 1
Tad@@ 1
Tah@@ 1
Tai@@ 1
Tak@@ 1
Takes 1
Takeshi 1
Taking 1
Talabani 1
Tales 1
Tall@@ 1
Tam 1
Tam@@ 1
Tang@@ 1
Tango 1
Tanja 1
Tank 1
Tank@@ 1
Tanti 1
Tanz@@ 1
Tap@@ 1
Tas@@ 1
Taste 1
Tax@@ 1
Tazza 1
Tbil@@ 1
Team@@ 1
Tec@@ 1
Tees@@ 1
Tel@@ 1
Tell 1
Teme 1
Temp@@ 1
Ten@@ 1
Tend@@ 1
Tennes@@ 1
Tennis 1
Tenor 1
Tens 1
Tense 1
Tent 1
Tent@@ 1
Tentative 1
Tepp@@ 1
Tergat 1
Terror 1
Terror@@ 1
Tes@@ 1
Tess 1
Tessa 1
Testament 1
Tests 1
Teva 1
Tex@@ 1
Text@@ 1
Thab@@ 1
Thain 1
Than 1
Thank 1
Tharth@@ 1
That@@ 1
Theater@@ 1
Theatri@@ 1
Their@@ 1
Them@@ 1
Then-@@ 1
Theo 1
Theod@@ 1
Theola 1
Theory 1
Thermo 1
Thi 1
Thing 1
Thinkers 1
Thins 1
Thion 1
Thir@@ 1
Thom@@ 1
Thome 1
Thorpe 1
Thought 1
Thrombo@@ 1
Thrott@@ 1
Thu 1
Thud 1
Thumping 1
Thura 1
Thus 1
Thwarted 1
Tib@@ 1
Tibet 1
Ticket@@ 1
Tide 1
Tie 1
Tier@@ 1
Tigris 1
Tijuana 1
Tillard 1
Timber@@ 1
Timberlake 1
Tin@@ 1
Tina 1
Tio@@ 1
Tip@@ 1
Titan 1
Tiz@@ 1
Toasted 1
Tobago 1
Tobe 1
Toddler 1
Todesch@@ 1
Toe 1
Toeav@@ 1
Toelke 1
Told 1
Toll@@ 1
Tonga 1
Too@@ 1
Tool 1
Toomer 1
Tops 1
Torb@@ 1
Toshiba 1
Toshik@@ 1
Tote 1
Totten 1
Tough 1
Toul@@ 1
Tour@@ 1
Tourism 1
Tours 1
Tous@@ 1
Touts 1
Town@@ 1
Tradition 1
Transpor@@ 1
Travel@@ 1
Tread@@ 1
Treas@@ 1
Treaty 1
Tree 1
Trends 1
Tres@@ 1
Trinidad 1
Trojan 1
Tsvet@@ 1
Tsz@@ 1
Tum@@ 1
Tumble 1
Tund@@ 1
Turbo 1
Turn@@ 1
Turs@@ 1
Tusk 1
Twin 1
Twit@@ 1
Ty@@ 1
Tyn@@ 1
Tynes 1
Typ@@ 1
Tys@@ 1
U-@@ 1
U.C.@@ 1
U.N.C.@@ 1
U20@@ 1
UAL 1
UBS 1
UC-@@ 1
UES 1
UG@@ 1
UHP 1
UIS 1
UN@@ 1
UNE@@ 1
UNHCR 1
UP 1
URL 1
USC 1
USTON 1
USVILL@@ 1
UZ 1
Ubal@@ 1
Uchi@@ 1
Ugly 1
Uhry 1
Ulrich 1
Ultimatum 1
Um 1
Um@@ 1
Ump@@ 1
Unauthorized 1
Unchan@@ 1
Undecided 1
Underdog 1
Undetered 1
Undoub@@ 1
Une@@ 1
Unicef 1
Unified 1
Uniform 1
Union@@ 1
Unisys 1
Unit@@ 1
Unity 1
Unless 1
Unprecedented 1
Unquestion@@ 1
Untrue 1
Unwelcome 1
UoHP 1
Upp@@ 1
Ur@@ 1
Uri@@ 1
Useful 1
Usel@@ 1
User 1
Users 1
Using 1
Usu@@ 1
Usum@@ 1
Ut 1
Ut@@ 1
Utd 1
Ute@@ 1
Utrecht 1
Uttar 1
Utter 1
V-@@ 1
V. 1
VALL@@ 1
VAT 1
VE 1
VEN@@ 1
VER@@ 1
VI 1
VIC 1
VIDEN@@ 1
VIE@@ 1
VIII 1
VIN@@ 1
VIX 1
VLDL-C 1
VLO@@ 1
VMr@@ 1
VNU 1
VSS 1
VUTO 1
Va@@ 1
Vacc@@ 1
Vaden 1
Vale 1
Valent@@ 1
Vanc@@ 1
Vann 1
Var@@ 1
Vard@@ 1
Vast 1
Vault 1
Vech@@ 1
Ved@@ 1
Veg@@ 1
Vela 1
Vele@@ 1
Venezuel@@ 1
Venk@@ 1
Venter 1
Venus 1
Verd@@ 1
Verdes 1
Verdu@@ 1
Vergan@@ 1
VeriS@@ 1
Verifi@@ 1
Verification 1
Vermili@@ 1
Vermon@@ 1
Verolme 1
Verona 1
Vers@@ 1
Vet@@ 1
Veto 1
Vets 1
Vian@@ 1
Vic 1
Vice-@@ 1
Victor@@ 1
Vid@@ 1
Videos 1
Vienn@@ 1
Viertel 1
Vietn@@ 1
Vik@@ 1
Villa 1
Village 1
Villar@@ 1
Vin@@ 1
Vinny 1
Vist@@ 1
Viz@@ 1
Vogue 1
Volker 1
Volunte@@ 1
Von@@ 1
Vos 1
Vq43@@ 1
Vra@@ 1
Vrem@@ 1
Vs 1
Vue 1
Vuitton 1
Vujo@@ 1
Vul@@ 1
W.@@ 1
WA 1
WADA 1
WALL@@ 1
WAN@@ 1
WAS 1
WAU@@ 1
WAY@@ 1
WBA@@ 1
WBO 1
WC 1
WIBC 1
WIC@@ 1
WIN@@ 1
WLS 1
WN 1
WPCS 1
WR 1
WREN@@ 1
WSP 1
WTO 1
WW@@ 1
WWF 1
WYOM@@ 1
Wah@@ 1
Wain@@ 1
Walk 1
Walk@@ 1
Wall@@ 1
Walther 1
Wander@@ 1
Wanderers 1
Wann@@ 1
Want 1
Wants 1
Ward 1
Wardak 1
Ware 1
Wash 1
Waters 1
Waves 1
Wax@@ 1
Ways 1
Wed@@ 1
Weide 1
Weiner 1
Well@@ 1
Wellington 1
Wen@@ 1
Wendy 1
Werner 1
Wes 1
Wes@@ 1
West-@@ 1
Wey@@ 1
Whol@@ 1
Wide 1
Wies@@ 1
Wig@@ 1
Wikipedia 1
Wild@@ 1
Wilhel@@ 1
Will@@ 1
Wim@@ 1
Wimm@@ 1
Wine 1
Winehouse 1
Winning 1
Wins 1
Winter@@ 1
Wipro 1
Wir@@ 1
Wis@@ 1
Wished 1
Wit@@ 1
Wiz@@ 1
Wolfgang 1
Word 1
Wre@@ 1
Wren 1
Wrigh@@ 1
Wright-Phillips 1
Written 1
Wuhan 1
Wyn@@ 1
X-ray 1
XML 1
XOM@@ 1
XP 1
XT 1
XT3 1
XVI 1
Xcelic@@ 1
Xeus 1
Xia@@ 1
Xie 1
Xmas 1
Xu 1
Xuren 1
Y-1-@@ 1
YAD@@ 1
YAN@@ 1
YC 1
YEAR@@ 1
YO-@@ 1
YOT@@ 1
YTH@@ 1
Yacht 1
Yad@@ 1
Yak@@ 1
Yam@@ 1
Yanke@@ 1
Yann 1
Yar@@ 1
Yara 1
Yarns 1
Yasar 1
Yass@@ 1
Yasser 1
Yaz@@ 1
Yazi@@ 1
Yel@@ 1
Yellow 1
Yem@@ 1
Yet@@ 1
Yi 1
Yield 1
Yo 1
Yop@@ 1
Yous@@ 1
Youth 1
Yshow@@ 1
Yulia 1
Yuma 1
Yury 1
Yus@@ 1
Yuster 1
Yzer@@ 1
ZATS 1
ZFPs 1
ZIP 1
Zach 1
Zadro@@ 1
Zaff@@ 1
Zags 1
Zah@@ 1
Zailli@@ 1
Zain@@ 1
Zaj@@ 1
Zarina 1
Zas@@ 1
Zauber@@ 1
Zay@@ 1
Zayed 1
Zemin 1
Zer@@ 1
Zeus 1
Zhar@@ 1
Zhi 1
Zhir@@ 1
Zhit@@ 1
Zim@@ 1
Zimbab@@ 1
Zin@@ 1
Zion@@ 1
Zlobin 1
Zof@@ 1
Zoo 1
Zook 1
Zucker@@ 1
Zvic@@ 1
Zvir@@ 1
Zvon@@ 1
a-based 1
a. 1
a33@@ 1
aFl@@ 1
aah 1
aam 1
aan 1
aat 1
ab-containing 1
abad 1
aban 1
abase 1
abbles 1
abbot 1
abdomin@@ 1
abe 1
aber@@ 1
abha@@ 1
abhor@@ 1
abide 1
abis 1
abnormal@@ 1
abo 1
abolished 1
abort 1
abrasive 1
abri@@ 1
abrup@@ 1
abs 1
absc@@ 1
abscon@@ 1
absent 1
absol@@ 1
absor@@ 1
abstin@@ 1
abstra@@ 1
abu@@ 1
abund@@ 1
acAss@@ 1
academ@@ 1
acan 1
accented 1
accep@@ 1
accessi@@ 1
accessories 1
acci@@ 1
accolade 1
accom@@ 1
accompan@@ 1
accompl@@ 1
accordance 1
accoun@@ 1
accre@@ 1
accredit@@ 1
accrual 1
accrued 1
accumul@@ 1
accur@@ 1
accuses 1
accust@@ 1
ace@@ 1
ached 1
achers 1
aches 1
achi 1
acidic 1
acidity 1
acing 1
acinta 1
acitor 1
acknowle@@ 1
aco 1
acrest 1
acrimony 1
acron@@ 1
acrow@@ 1
acters 1
actica 1
action@@ 1
acy 1
acyz@@ 1
ada-based 1
adams 1
add-@@ 1
adden@@ 1
addic@@ 1
addictions 1
additi@@ 1
aded 1
adel 1
adel@@ 1
adener 1
adent 1
adequ@@ 1
ader@@ 1
ades 1
ades-old 1
adget 1
adher@@ 1
adien@@ 1
ading 1
adjec@@ 1
adjour@@ 1
adjust 1
adjust@@ 1
adjusted 1
administer 1
admit 1
admits 1
admitting 1
adoc 1
adolescent 1
adoli@@ 1
adop@@ 1
ador@@ 1
adorned 1
ados 1
adr 1
adrenal@@ 1
adro@@ 1
adron 1
adth 1
adtrum 1
aduce 1
advent@@ 1
adver@@ 1
advertis@@ 1
advis@@ 1
ady 1
ae 1
ae-@@ 1
ae@@ 1
aed@@ 1
aen 1
aerial 1
aero@@ 1
af- 1
afano 1
afar 1
afarer 1
afer@@ 1
affection@@ 1
affections 1
affidav@@ 1
affirmed 1
afflicted 1
afia 1
afio 1
afloat 1
afour 1
ag 1
again-@@ 1
agate 1
agawa 1
age@@ 1
agel@@ 1
agen 1
ager@@ 1
agew@@ 1
agged 1
aggres@@ 1
aghan 1
aghast 1
agher 1
agio 1
agne 1
agnelli 1
ago-@@ 1
agon 1
agonist 1
agony 1
agov@@ 1
agre@@ 1
agri@@ 1
agrochemical 1
agu@@ 1
ague 1
ahanty 1
ahas 1
ahassee 1
ahiri 1
ahl 1
ahoo@@ 1
ahs 1
ai-@@ 1
ai@@ 1
aign 1
aigo@@ 1
ails 1
aim@@ 1
ain-F@@ 1
ainan 1
aine 1
ained 1
ains 1
aire 1
aired 1
airs 1
ais@@ 1
aise 1
aka 1
akami 1
ake.com 1
aken 1
akened 1
akening 1
akey 1
akhel 1
akin 1
aku@@ 1
aky 1
al-Islam 1
al.com 1
ala 1
alade 1
alak 1
alarmed 1
alarms 1
alata 1
ald@@ 1
alded 1
alders 1
alds 1
ale@@ 1
aleban 1
alerted 1
alerting 1
aletta 1
algae 1
alhealth@@ 1
alia 1
alian 1
alidom@@ 1
alien 1
alienrock@@ 1
alies 1
alig@@ 1
alighting 1
align 1
alike 1
aliki 1
alion 1
alise 1
aliser 1
alists 1
alithar@@ 1
alities 1
alizing 1
allal 1
alleg@@ 1
allen 1
aller 1
alli 1
alli@@ 1
allo@@ 1
allocation 1
allt 1
alltime 1
allude 1
alluded 1
allure 1
[...]
