a n 22648
e n 20504
i n 20502
e s</w> 20268
t h 18600
e r 16487
o n 15646
o u 15596
t i 13980
a r 13342
d e</w> 12591
r e 12124
o n</w> 11255
e r</w> 10882
a i 10279
o r 10240
th e</w> 10207
l e</w> 9512
q u 8357
l i 8128
t r 7882
e d</w> 7653
e s 7126
i t 6822
i s 6777
in g</w> 6586
en t</w> 6514
c h 6391
e n</w> 6366
o m 6258
a l 6215
p r 6090
a t 6082
t o</w> 5873
u r 5827
an d</w> 5686
i n</w> 5411
i s</w> 5402
e l 5360
e t</w> 5339
e m 5330
o f</w> 5135
l a</w> 5103
a s 5013
a c 4989
i l 4893
a s</w> 4890
u n 4835
i c 4634
a ti 4450
a u 4257
a t</w> 4228
a v 4215
l es</w> 4123
t s</w> 4066
s i 3949
a n</w> 3908
a l</w> 3880
r e</w> 3850
c on 3797
a m 3729
s t 3620
d i 3570
l '</w> 3554
l e 3506
c e</w> 3486
a g 3455
s e</w> 3413
o r</w> 3397
d es</w> 3314
o l 3238
s u 3223
h e</w> 3171
t e</w> 3045
r o 3031
p l 3024
d '</w> 2936
r i 2935
d e 2929
c om 2911
qu e</w> 2747
p o 2711
ou r</w> 2636
an s</w> 2622
s e 2595
pr o 2590
a b 2588
a r</w> 2492
c i 2433
d u</w> 2431
er s</w> 2424
m e</w> 2420
d é 2373
es t</w> 2366
ati on</w> 2360
u n</w> 2312
u s 2308
w h 2275
p ar 2251
on s</w> 2248
ou r 2242
an t</w> 2230
i t</w> 2220
b e 2200
a p 2193
e u 2150
f f 2121
l o 2114
' s</w> 2099
a d 2053
a u</w> 2022
s ai 1992
th at</w> 1987
un e</w> 1979
e x 1974
o p 1971
v i 1945
v er 1925
n e</w> 1899
a y</w> 1876
on t</w> 1869
en t 1866
p e 1861
n o 1861
a in 1861
ti on</w> 1858
f or</w> 1830
é e</w> 1807
em ent</w> 1779
e t 1769
ai t</w> 1763
l y</w> 1753
T he</w> 1704
t er 1666
tr e</w> 1666
0 0 1651
i g 1649
sai d</w> 1649
r é 1637
i m 1620
p our</w> 1601
v e</w> 1571
é t 1566
p er 1550
m o 1539
f or 1512
i r 1488
t er</w> 1475
it h</w> 1474
u l 1468
i r</w> 1461
p or 1457
s h 1437
n e 1408
ou t</w> 1403
qu i</w> 1401
re s 1399
w as</w> 1382
d ans</w> 1376
g r 1375
w ith</w> 1365
th e 1363
i l</w> 1361
u s</w> 1356
c o 1337
t e 1334
s on</w> 1324
en d 1319
er e</w> 1306
ou n 1302
a y 1269
c t 1230
c l 1201
b u 1201
p u 1190
é s</w> 1185
h e 1165
m ent</w> 1164
a d</w> 1157
2 00 1136
s t</w> 1123
ar e</w> 1114
t o 1110
ou s</w> 1109
s er 1108
a li 1107
a k 1089
b e</w> 1081
ou l 1076
s o 1063
an d 1055
p ar</w> 1043
av e</w> 1043
en ts</w> 1042
m i 1028
at e</w> 1026
ur s</w> 1026
b y</w> 1024
n i 1019
au x</w> 1007
em b 1006
c h</w> 994
ai s</w> 991
ag e</w> 987
f ro 977
pr é 975
u e</w> 970
é r 960
h is</w> 954
p re 952
in g 948
d ay</w> 942
e d 939
fro m</w> 939
an ce</w> 934
C h 929
ur e</w> 922
su r</w> 919
qu '</w> 918
o o 913
t h</w> 907
m in 907
v o 905
as s 905
b i 900
h ave</w> 893
t es</w> 890
il l 887
d o 881
p as</w> 879
or e</w> 876
m an 873
on n 869
m ar 860
g e</w> 856
el le</w> 856
oul d</w> 856
e c 852
s s 852
en ce</w> 852
ai re</w> 850
in e</w> 845
il l</w> 836
o u</w> 835
eu r</w> 835
è s</w> 827
d is 820
v er</w> 815
an n 815
t é</w> 811
h as</w> 806
pl us</w> 801
f i 800
com m 800
e l</w> 793
m on 791
r a 790
th er</w> 790
d u 789
è re</w> 786
g i 783
on e</w> 778
L e</w> 769
ai n</w> 768
h i 763
al l 763
t en 758
e c</w> 752
y e 752
d s</w> 749
r es</w> 746
c u 740
ati ons</w> 731
it s</w> 729
c es</w> 728
w e 726
tr i 726
s es</w> 721
g o 721
t ed</w> 715
s '</w> 712
d er 712
T h 711
il li 707
g h 701
or s</w> 698
ac e</w> 696
no t</w> 696
it y</w> 692
re c 691
al l</w> 688
a le</w> 687
com p 687
an ts</w> 686
ou v 678
av ec</w> 677
I n 675
ét é</w> 674
a f 673
w or 673
N o 672
w ill</w> 670
ar d</w> 669
s p 664
o c 658
wh o</w> 657
r an 654
ig h 653
it e</w> 650
o ff 649
si d 649
A n 646
u r</w> 645
d i</w> 640
is t 636
ic e</w> 627
as t</w> 625
o b 621
t - 619
bu t</w> 616
1 9 609
ti ons</w> 609
L es</w> 606
ab le</w> 606
tr o 604
ic i 602
e v 600
u m 597
ch e</w> 591
s o</w> 590
i e</w> 589
t y</w> 588
M ar 586
L a</w> 582
b o 575
h o 572
u d 571
c re 566
e p 566
n '</w> 565
ai l 565
at t 563
h ad</w> 562
et te</w> 559
b li 557
d er</w> 556
th is</w> 556
é es</w> 552
si on</w> 552
f in 550
w ere</w> 547
t ing</w> 544
po li 543
A l 542
in ter 541
w n</w> 540
l u 537
ay s</w> 536
for m 533
v en 531
ac c 529
the y</w> 529
ic h</w> 527
t u 526
k s</w> 524
u x</w> 523
3 0</w> 521
m e 520
s c 520
v is 519
g u 516
é n 514
the ir</w> 511
r u 510
s ont</w> 510
it é</w> 510
en s</w> 508
s tr 507
r ou 506
our s</w> 506
m ore</w> 505
ar s</w> 505
s om 504
qu es</w> 499
b l 496
be en</w> 495
is e</w> 493
ser v 488
S t 487
dé c 483
e urs</w> 482
es t 481
es s</w> 480
ai ent</w> 479
m a 474
an g 473
par ti 473
s a</w> 469
m illi 460
en c 460
on al</w> 460
p i 457
en ti 456
at ed</w> 456
in s</w> 455
am e</w> 454
a m</w> 451
t ou 449
é l 447
w ould</w> 447
I l</w> 446
po s 444
eu x</w> 444
pu bli 444
m er 443
é g 442
1 0</w> 441
ol l 441
i v 440
es s 440
el l 440
wh ich</w> 440
e w</w> 439
f ir 438
h om 432
k e</w> 432
f o 432
in v 429
p s</w> 426
so ci 426
i on</w> 424
Q u 423
u t 421
ol d</w> 420
' t</w> 419
sid ent</w> 419
k ing</w> 414
h er</w> 413
al ly</w> 413
c er 412
pr ès</w> 412
i m</w> 411
s pe 411
i re</w> 410
a ch 410
s ur 410
u t</w> 409
c ou 409
m es</w> 409
con t 409
ab out</w> 409
p h 406
t w 405
c ar 404
j us 401
u p</w> 400
p e</w> 399
0 0</w> 398
e - 396
s ti 396
de v 396
il le</w> 393
el l</w> 392
s ou 391
an y</w> 391
ë l</w> 390
00 0</w> 390
w e</w> 388
de ux</w> 388
ak e</w> 388
o ther</w> 387
ver n 387
por t 387
emb re</w> 386
c tion</w> 383
ac k</w> 383
th an</w> 381
le ur</w> 381
e u</w> 380
on g</w> 380
m at 378
c ette</w> 377
l a 377
g h</w> 377
I t</w> 377
p res 376
c ur 375
es ti 375
ar y</w> 374
L '</w> 371
s i</w> 370
ing s</w> 369
an c 367
re m 367
é ri 365
R o 365
c an</w> 364
a ff 364
in t 364
m ais</w> 363
d ing</w> 363
ain e</w> 363
qu i 362
200 7</w> 362
No ël</w> 362
e ff 359
t out</w> 359
al s</w> 359
i es</w> 358
el y</w> 358
ye ar</w> 358
gh t</w> 358
af ter</w> 356
v e 355
ti c 353
oun d</w> 353
s ch 352
as e</w> 352
f er 351
b er 350
- -</w> 349
f r 349
w i 349
t ur 348
H e</w> 348
f ait</w> 348
c r 346
por t</w> 346
m an</w> 345
P ar 345
ap p 345
t t 344
m is 344
d em 344
tr es</w> 344
pre mi 344
y ou</w> 342
en tre</w> 342
ar g 342
re d</w> 341
c ent</w> 339
v es</w> 339
ti me</w> 338
o w 337
b r 335
au t 335
com me</w> 335
b le</w> 332
der ni 331
r en 330
i li 329
k e 328
po in 327
pro du 327
au ss 326
il s</w> 325
C on 324
op le</w> 324
c au 323
ê me</w> 322
ti es</w> 322
f am 321
al so</w> 321
R e 319
I n</w> 318
j ou 318
a ur 317
re r</w> 316
en d</w> 315
t em 313
s he</w> 313
p on 312
n ati 312
po si 312
pu is</w> 312
j e 311
an s 311
per s 311
c ol 310
tr a 309
at es</w> 309
C om 307
av ait</w> 307
igh t</w> 307
g n 305
ac h</w> 305
k ed</w> 303
c oun 302
B ut</w> 300
pe ople</w> 300
ai res</w> 299
ur es</w> 298
1 8</w> 297
pl o 297
c ul 296
or d</w> 296
am p 296
m es 295
ag es</w> 294
ét ait</w> 294
re e</w> 293
le urs</w> 293
tw o</w> 293
j o 292
ne w</w> 292
auss i</w> 292
c ri 290
w ay</w> 290
2 0</w> 288
s y 286
in to</w> 286
pré s 286
m ême</w> 285
en f 285
tr y</w> 285
tr av 285
e ar 284
p ass 283
E n 283
our n 283
in d 282
di ff 282
u c 281
r is 281
o ver</w> 279
M on 279
or g 279
i d 278
in cl 278
at s</w> 278
m u 277
wh en</w> 277
par t 277
gr ou 277
J o 275
s el 274
d es 274
. .</w> 274
an t 274
th ere</w> 274
re st 274
al es</w> 274
fir st</w> 274
f ac 273
i c</w> 272
U n 272
ê tre</w> 272
1 5</w> 271
lo c 271
oo d</w> 271
n ous</w> 269
1 2</w> 269
D e 269
ti ve</w> 269
ain s</w> 269
n ing</w> 268
l ast</w> 266
an ci 266
lo w 266
o f 265
su p 265
A r 264
pl ace</w> 264
n ouv 263
déc embre</w> 263
milli on</w> 263
ic es</w> 262
ann ée</w> 262
c our 261
c ould</w> 261
com e</w> 261
pro f 261
bi en</w> 261
em ents</w> 259
m é 258
ex p 258
no w</w> 258
o se</w> 257
d ed</w> 257
on g 257
re l 257
per cent</w> 257
par t</w> 256
p our 254
t on</w> 253
F r 253
li c 253
h u 252
ai s 252
av o 252
N ew</w> 251
. ..</w> 251
m or 250
E n</w> 250
c ap 249
O n</w> 249
min is 249
1 4</w> 248
g e 247
pr i 247
vi er</w> 247
ar i 246
we e 246
ch e 245
ct ed</w> 245
j ours</w> 244
lo o 244
j u 243
un i 243
c '</w> 242
ai r 242
C l 241
b re 241
u m</w> 239
c as 239
h el 239
n er</w> 239
b as 239
d r 239
0 3</w> 239
ou se</w> 239
o t 238
f aire</w> 238
c an 237
g ar 237
2 , 237
i ch 236
1 , 236
el s</w> 236
ye ars</w> 236
a th 235
cau se</w> 235
C '</w> 234
s - 234
f u 234
I ra 234
el les</w> 234
J e 233
con tr 233
st e 233
mi li 233
s or 231
5 0</w> 230
en g 230
in ce</w> 230
le ad 230
B r 229
en ne</w> 229
è res</w> 228
h ar 227
r .</w> 227
w ar 227
re t 227
U . 226
it ed</w> 226
som e</w> 226
j an 225
or i 225
wh at</w> 225
c or 223
c ro 223
i f</w> 223
i le</w> 223
org an 223
S ch 222
M o 222
ci p 222
ver y</w> 222
ran ç 222
é v 221
su l 221
hi m</w> 221
fo is</w> 221
f e 220
d re 219
go vern 219
d ur 218
3 , 218
en n 218
le c 218
mo st</w> 218
jan vier</w> 218
C an 217
s al 217
W h 217
o s</w> 216
m y</w> 216
d o</w> 216
A mer 216
en er 215
ch an 215
di t</w> 215
i d</w> 214
a z 214
1 7</w> 214
a di 213
pe ti 213
Amer ic 213
n o</w> 212
s é 212
en s 212
Fr ance</w> 212
a i</w> 211
a près</w> 211
è me</w> 211
avo ir</w> 211
m et 210
s ans</w> 210
ver s 210
ali s 210
v ic 209
g et</w> 209
1 1</w> 209
U n</w> 209
li ke</w> 209
o g 208
th ing</w> 208
on ne</w> 208
or y</w> 208
at er</w> 208
at ing</w> 208
S .</w> 207
i e 207
b our 207
L e 207
de puis</w> 207
tr ès</w> 206
tr ans 206
the m</w> 206
e ur 205
s ol 205
be t 205
publi c</w> 205
T he 204
con tre</w> 204
o ù</w> 203
mes se</w> 203
enf ants</w> 203
A u 202
th ou 202
wh ere</w> 202
es e</w> 201
es day</w> 201
s s</w> 200
ai l</w> 200
posi tion</w> 200
m ent 199
or d 199
t ers</w> 198
p le</w> 198
en se</w> 198
qu el 198
ac ti 198
au tres</w> 198
vi r 198
S u 197
w s</w> 197
U ne</w> 197
ar r 197
con om 197
emb er</w> 197
comm un 197
it al</w> 196
al ement</w> 196
off ici 196
é qui 195
l l</w> 195
g l 194
W e</w> 194
ai r</w> 194
vi e</w> 194
sh o 194
ser a</w> 194
tro is</w> 194
lu i</w> 194
p eu 193
f l 193
f il 193
on ly</w> 193
jus t</w> 193
200 6</w> 192
c t</w> 191
e au</w> 191
m s</w> 191
av ant</w> 191
ri v 191
pers onn 191
t ant</w> 190
n ed</w> 190
P re 190
ê te</w> 190
qu ar 190
is s 190
do wn</w> 190
l d</w> 189
n om 189
ic al</w> 189
C ar 188
f t</w> 188
wor k</w> 188
M r.</w> 187
ac k 187
for e</w> 187
tem ps</w> 187
r ue</w> 186
it u 186
st e</w> 186
sh i 186
t ous</w> 185
b ack</w> 185
pr is 185
200 8</w> 185
and s</w> 185
0 . 184
ti s 184
pl ay 184
he im</w> 184
p er</w> 183
, 000</w> 183
ch o 183
U. S.</w> 183
in es</w> 182
re g 182
as h 182
19 9 182
poli ce</w> 182
d ou 181
B o 181
re ct 181
le v 181
nati onal</w> 181
g o</w> 180
2 5</w> 180
an de</w> 180
st at 180
se con 180
b er</w> 179
P o 179
th rou 179
pr om 179
S ain 178
e y</w> 178
g ro 178
E l 178
an te</w> 178
il y</w> 178
S h 177
w w 177
j ec 177
in i 177
ch es</w> 177
su b 177
ex pe 177
An d</w> 177
prés ent 177
en tr 176
di d 176
ab ili 175
C ol 174
ar ds</w> 174
res pon 174
c el 173
p as 173
ac t</w> 173
bi li 173
r ai 172
le g 172
op er 172
In ter 172
cer t 172
f on 171
pl ac 171
be fore</w> 171
c li 170
end re</w> 170
cl u 170
govern ment</w> 170
b us 169
el op 169
1 9</w> 168
1 6</w> 168
en te</w> 168
ti que</w> 168
ar t</w> 168
ent re 168
incl ud 168
j e</w> 167
of f</w> 167
The y</w> 167
c ed</w> 166
d ont</w> 166
M ais</w> 166
2 4</w> 166
re ment</w> 166
r it 165
r ait</w> 165
s ed</w> 165
pré sident</w> 165
form ation</w> 165
Y or 164
si gn 164
enc ore</w> 164
di e</w> 163
ci d 163
ap pe 163
ain st</w> 163
tri bu 163
s en 162
d on</w> 162
pro gr 162
be cause</w> 162
comp any</w> 162
cont in 162
c lo 161
l er</w> 161
m ake</w> 161
in k</w> 161
mo is</w> 161
g re 160
N e 160
it és</w> 160
as on</w> 160
ag ainst</w> 160
res s</w> 160
throu gh</w> 160
v ol 159
P ro 159
th en</w> 159
tr ou 159
man y</w> 159
hom e</w> 159
p ul 158
p ays</w> 158
v ed</w> 158
er a</w> 158
su m 158
c ré 157
d oll 157
f in</w> 157
ati ve</w> 157
con n 157
di rect 157
Yor k</w> 157
be ing</w> 156
derni er</w> 156
s k 155
2 0 155
ou t 155
pl u 155
str u 155
cou p</w> 155
S e 154
a de</w> 154
b an 154
D i 154
B e 154
4 0</w> 154
sh e 154
vo ir</w> 154
ma de</w> 154
sti tu 154
a w 153
d - 153
d ro 153
g er</w> 153
f s</w> 153
8 8</w> 153
an ti 153
th ree</w> 153
un di</w> 153
serv ice</w> 153
Ira q</w> 153
m un 152
s em 152
y ing</w> 152
f our</w> 152
qu é</w> 152
ain es</w> 152
i z 151
t ure</w> 151
t old</w> 151
k et</w> 151
H o 151
I s 150
in a</w> 150
con cer 150
ma j 150
premi er</w> 150
v al 149
b re</w> 149
d ic 149
re por 149
su ch</w> 149
c c 148
r y</w> 148
J e</w> 148
s po 148
d y</w> 148
1 3</w> 148
f ai 148
Qu é 148
t él 147
p ou 147
p end 147
s ays</w> 147
P our</w> 147
f e</w> 147
B l 147
li er</w> 147
tr ic 147
di d</w> 147
mo ins</w> 147
wee k</w> 147
c amp 146
t al 146
a k</w> 146
r ap 146
1 0 146
ou ver 146
qu es 146
ch il 146
M e 145
pro c 145
ig n 145
jus qu'</w> 145
c all 144
t en</w> 144
d om 144
si x</w> 144
ist an</w> 144
ev en</w> 144
ho w</w> 144
mili t 144
c ours</w> 143
w ell</w> 143
ill er</w> 143
bour g</w> 143
S ep 142
C o 142
A f 142
H e 142
li g 142
ch é</w> 142
se p 142
min u 142
go ing</w> 142
c is 141
t és</w> 141
l s</w> 141
n um 141
r a</w> 141
4 , 141
in t</w> 141
ch ang 141
al ors</w> 141
em plo 141
si ve</w> 141
us h</w> 141
co m</w> 141
t ak 140
C e</w> 140
N or 140
si ons</w> 140
cl ar 140
form er</w> 140
h ab 139
h igh 139
J u 139
g én 139
an im 139
as soci 139
un es</w> 139
au t</w> 139
wh ile</w> 139
u es</w> 138
a h 138
m us 138
s ay</w> 138
f ic 138
te - 138
we en</w> 138
l and</w> 137
E ur 137
f ranç 137
em s</w> 137
am es</w> 137
us ed</w> 137
ap pro 137
ain si</w> 137
n et</w> 136
m emb 136
d en</w> 136
U ni 136
3 1</w> 136
an - 136
is su 136
includ ing</w> 136
t a 135
b ar 135
d on 135
M c 135
in ess</w> 135
ex t</w> 135
pe u</w> 135
im port 135
t re 134
m ag 134
m ak 134
b ou 134
5 , 134
pr iv 134
poin ts</w> 134
t ake</w> 133
l ine</w> 133
a î 133
ai ss 133
is t</w> 133
si m 133
co t 133
end ed</w> 133
poin t</w> 133
h ouse</w> 132
M in 132
G r 132
en vir 132
ch ar 132
si eurs</w> 132
st ud 132
sh ould</w> 132
ér ation</w> 132
wi th 132
S tr 131
i a</w> 131
e z</w> 131
K o 131
am ed 131
S o 130
S un 130
e g 130
m en 130
b ro 130
L i 130
1 . 130
E t</w> 130
. com</w> 130
st ate</w> 130
su cc 130
te ch 130
te urs</w> 130
t- il</w> 130
som e 130
inv esti 130
c in 129
l ong</w> 129
s ince</w> 129
è ne</w> 129
8 9</w> 129
in cre 129
th ose</w> 129
op e</w> 129
pos si 129
Jo h 129
Qué be 129
n u 128
v ers</w> 128
A b 128
in st 128
ar m 128
ci al</w> 128
personn es</w> 128
é co 127
T his</w> 127
B ar 127
in di 127
ar e 127
ir d</w> 127
res s 127
he al 127
mon de</w> 127
coun try</w> 127
organ is 127
shi p</w> 127
amed i</w> 127
S te 126
o ver 126
c a 126
m ay</w> 126
m ents</w> 126
d onn 126
g ou 126
1 7 126
A s 126
M .</w> 126
j ourn 126
er ed</w> 126
er re</w> 126
ti onn 126
ol og 126
per i 126
bet ween</w> 126
l ed</w> 125
p p 125
s itu 125
v ing</w> 125
v ous</w> 125
f un 125
ch er</w> 125
di a</w> 125
ter r 125
ali té</w> 125
sti ll</w> 125
Un ited</w> 125
fu l</w> 125
she im</w> 125
S ou 124
l ors</w> 124
l ong 124
b or 124
b ur 124
P l 124
4 5</w> 124
an ces</w> 124
ab les</w> 124
ex c 124
to ire</w> 124
pre sident</w> 124
enc y</w> 124
spe ct 124
m ai 123
z e</w> 123
T o 123
ent ly</w> 123
hi er</w> 123
c ent 122
m is</w> 122
2 2</w> 122
ch am 122
am s</w> 122
Québe c</w> 122
s et</w> 121
g ame</w> 121
w om 121
an che</w> 121
ch arg 121
mu ch</w> 121
u se</w> 120
p le 120
h al 120
m er</w> 120
m ain 120
F or 120
f ol 120
B er 120
ar ound</w> 120
at ur 120
ag ne</w> 120
be li 120
Ch r 120
tic al</w> 120
dur ing</w> 120
chan ge</w> 120
gou vern 120
n s</w> 119
y our</w> 119
W e 119
is i 119
un der</w> 119
é li 118
v a</w> 118
b oo 118
E x 118
f ul 118
G u 118
B ro 118
ch er 118
pr is</w> 118
im p 118
cur r 118
s ing</w> 117
U S</w> 117
I N 117
j à</w> 117
en e 117
si de</w> 117
ri ght</w> 117
ing ton</w> 117
oo l</w> 117
c ts</w> 116
m a</w> 116
b all</w> 116
T u 116
th er 116
pro ch 116
ed er 116
comm er 116
dre n</w> 116
a - 115
R es 115
y er</w> 115
M ich 115
j et</w> 115
j am 115
2 3</w> 115
en ces</w> 115
in d</w> 115
tr ai 115
st es</w> 115
se e</w> 115
pro vi 115
ad y</w> 115
wor ld</w> 115
ind us 115
secon d</w> 115
é d 114
s ous</w> 114
v ille</w> 114
P er 114
k o 114
j our</w> 114
qu a 114
at eurs</w> 114
be au 114
i que</w> 113
é l</w> 113
n ext</w> 113
ô t</w> 113
f oo 113
f ace</w> 113
on - 113
li s 113
be g 113
lo w</w> 113
mis sion</w> 113
quel ques</w> 113
doll ars</w> 113
o wn</w> 112
n é 112
r ac 112
v en</w> 112
W or 112
W ed 112
er t</w> 112
is te</w> 112
el d</w> 112
as ed</w> 112
ic k</w> 112
se ason</w> 112
ann ées</w> 112
c ar</w> 111
n esday</w> 111
r an</w> 111
D ans</w> 111
2 1</w> 111
an e</w> 111
th ink</w> 111
re ven 111
pr ise</w> 111
ic k 111
di rec 111
dé jà</w> 111
ad a</w> 111
man ag 111
je unes</w> 111
Wed nesday</w> 111
S er 110
e conom 110
1 8 110
P e 110
k ill 110
w er</w> 110
au tre</w> 110
di man 110
bu il 110
gi on</w> 110
Th ere</w> 110
premi ère</w> 110
Sain t- 110
c ame</w> 109
m ati 109
F ri 109
y s</w> 109
T él</w> 109
M us 109
G e 109
in formation</w> 109
ai se</w> 109
as s</w> 109
as se 109
il es</w> 109
ne y</w> 109
grou p</w> 109
o le</w> 108
r un 108
m om 108
v ement</w> 108
g ood</w> 108
A s</w> 108
re f 108
con se 108
se cur 108
ann on 108
Je an- 108
o is</w> 107
m ed</w> 107
O ct 107
M er 107
2 8</w> 107
an i 107
el ec 107
us si 107
no v 107
he ad</w> 107
tou jours</w> 107
mat ch</w> 107
ener al</w> 107
Pre sident</w> 107
bus iness</w> 107
c k 106
c ity</w> 106
i x</w> 106
n or 106
a que</w> 106
s ite</w> 106
R i 106
x i 106
con f 106
dé clar 106
emb le</w> 106
parti cip 106
peu t</w> 106
plu sieurs</w> 106
chil dren</w> 106
diman che</w> 106
c oll 105
i - 105
p es</w> 105
A u</w> 105
w in 105
om e</w> 105
am ér 105
le ar</w> 105
su ite</w> 105
can did 105
équi pe</w> 105
u ti 104
b illi 104
1 6 104
D av 104
A d 104
k no 104
ê tes</w> 104
2 6</w> 104
at ure</w> 104
av aient</w> 104
wh e 104
t our 103
p ay 103
m aire</w> 103
R é 103
F or</w> 103
L ou 103
y s 103
D es</w> 103
W ash 103
w ant</w> 103
an other</w> 103
th s</w> 103
ar ly</w> 103
li se</w> 103
is h 103
ati onal</w> 103
st ar 103
gr ap 103
clu b</w> 103
a tr 102
f em 102
f ound</w> 102
in f 102
es p 102
av ing</w> 102
po pul 102
to p</w> 102
ann oun 102
ail leurs</w> 102
ég alement</w> 102
h ere</w> 101
m al 101
P ak 101
B en 101
B ush</w> 101
I f</w> 101
j our 101
li m 101
tr é 101
ag n 101
de f 101
sai t</w> 101
ver al</w> 101
ét aient</w> 101
serv ices</w> 101
c ô 100
v end 100
P i 100
M r</w> 100
re le 100
pr in 100
di tion</w> 100
ag o</w> 100
por ts</w> 100
Ch ar 100
Th at</w> 100
ut to</w> 100
call ed</w> 100
gén ér 100
D em 99
A P</w> 99
P h 99
f av 99
B h 99
2 - 99
ti f</w> 99
it es</w> 99
il les</w> 99
le ct 99
ain ed</w> 99
te am</w> 99
rec e 99
milli ons</w> 99
ell ement</w> 99
fam ily</w> 99
bas ed</w> 99
expe cted</w> 99
h is 98
m é</w> 98
m en</w> 98
C oun 98
s ame</w> 98
O r 98
H ar 98
f é 98
' re</w> 98
er g 98
re tur 98
ur s 98
un der 98
pl an</w> 98
pro bl 98
ci r 98
ter min 98
to o</w> 98
mar ket</w> 98
bo th</w> 98
acc or 98
Str as 98
As soci 98
Bh utto</w> 98
d am 97
A N 97
8 0</w> 97
ar - 97
us es</w> 97
ig h</w> 97
sh ow 97
te l</w> 97
vis ion</w> 97
gouvern ement</w> 97
Wash ington</w> 97
R ob 96
g g 96
A v 96
le t 96
ne l</w> 96
hom me</w> 96
nati on 96
Americ an</w> 96
El le</w> 96
qua tre</w> 96
o m</w> 95
h au 95
h and 95
b ri 95
ti l</w> 95
tr ouv 95
at ten 95
le y</w> 95
se ar 95
eu di</w> 95
go t</w> 95
én é 95
fer ence</w> 95
mu si 95
S y 94
u le</w> 94
l ég 94
l arg 94
m ul 94
G er 94
B ri 94
7 0</w> 94
vi ew</w> 94
no t 94
cre di</w> 94
parti e</w> 94
inv est 94
tra î 94
anci al</w> 94
eur os</w> 94
sho w</w> 94
Sun day</w> 94
billi on</w> 94
o th 93
s w 93
Y ou</w> 93
k now</w> 93
in de 93
is h</w> 93
ac tion</w> 93
av er 93
am ment</w> 93
po se</w> 93
et ing</w> 93
oc r 93
sc ri 93
ke y</w> 93
hel p</w> 93
thou gh</w> 93
amér ic 93
l in 92
s amedi</w> 92
L u 92
g n</w> 92
N ous</w> 92
A m 92
A R 92
ç a</w> 92
I ls</w> 92
ti er</w> 92
or t</w> 92
at eur</w> 92
ac t 92
st and 92
so it</w> 92
cu e 92
Th urs 92
dev elop 92
minis tr 92
Thurs day</w> 92
i er</w> 91
e p</w> 91
p ère</w> 91
F ran 91
P r 91
li eu</w> 91
li tt 91
is ter</w> 91
is tes</w> 91
pr im 91
ac ro 91
con s 91
ri e</w> 91
end ing</w> 91
sch ool</w> 91
part ment</w> 91
Can ada</w> 91
offici als</w> 91
secur ity</w> 91
S ar 90
c é</w> 90
c am 90
l ess</w> 90
n on</w> 90
m et</w> 90
v re</w> 90
w at 90
ar ti 90
dé r 90
hu i</w> 90
ie f</w> 90
Tu esday</w> 90
jour d'</w> 90
u p 89
n ight</w> 89
C or 89
s ing 89
N ic 89
D e</w> 89
w rit 89
re sul 89
li b 89
ex plo 89
200 5</w> 89
sel f</w> 89
a jou 88
r un</w> 88
F l 88
L o 88
D is 88
em p 88
un til</w> 88
de t 88
de b 88
dé f 88
par ents</w> 88
vi ol 88
ig n</w> 88
gr ande</w> 88
to t 88
fi ve</w> 88
St ates</w> 88
tou te</w> 88
Par is</w> 88
ke ts</w> 88
nouv elle</w> 88
franç ais</w> 88
heal th</w> 88
é lec 87
h um 87
1 4 87
M an 87
f a 87
f ut 87
w . 87
2 7</w> 87
an y 87
on d 87
re li 87
re port</w> 87
qu o 87
es se</w> 87
ac tu 87
le - 87
com b 87
lo t</w> 87
to o 87
ser ont</w> 87
mon ths</w> 87
oc cas 87
dev ant</w> 87
fam ille</w> 87
sel on</w> 87
che z</w> 87
ww w. 87
Stras bourg</w> 87
l undi</w> 86
h .</w> 86
R ussi 86
1 5 86
D im 86
8 , 86
ou s 86
ti on 86
is ion</w> 86
ch i 86
au th 86
am a</w> 86
pl ay</w> 86
ver y 86
ct eur</w> 86
mon th</w> 86
rec ord</w> 86
minis tre</w> 86
S atur 85
c al 85
t el 85
h ol 85
m al</w> 85
1 - 85
V er 85
M u 85
w ays</w> 85
6 , 85
j ur 85
ti mes</w> 85
re di</w> 85
at ely</w> 85
com pl 85
se veral</w> 85
pro t 85
pu t</w> 85
tri es</w> 85
An g 85
ici p 85
aut om 85
incl u 85
grou pe</w> 85
spo k 85
beau coup</w> 85
Pak istan</w> 85
S en 84
p ho 84
v ent</w> 84
b on</w> 84
b al 84
G o 84
en traî 84
or ig 84
qu and</w> 84
al - 84
no tre</w> 84
im m 84
mon ey</w> 84
Qu ar 84
loc al</w> 84
repor ted</w> 84
minu tes</w> 84
cham pi 84
déclar é</w> 84
t ent</w> 83
h ist 83
m ar</w> 83
F ranç 83
è rement</w> 83
f ri 83
w ard</w> 83
G i 83
9 0</w> 83
j '</w> 83
ar riv 83
es si 83
es ter 83
op s</w> 83
gr and</w> 83
sp é 83
sal le</w> 83
Dem ocr 83
Satur day</w> 83
c us 82
c ase</w> 82
c entre</w> 82
h app 82
d ri 82
w al 82
0 - 82
ê t</w> 82
' ve</w> 82
th ese</w> 82
tr u 82
is l 82
dé but</w> 82
sai son</w> 82
ré alis 82
ay ing</w> 82
ni e</w> 82
bl ess 82
Mon day</w> 82
sup port</w> 82
pris es</w> 82
mun icip 82
num ber</w> 82
fol low 82
Chr ist 82
whe ther</w> 82
S he</w> 81
c k</w> 81
c at 81
t at</w> 81
d ays</w> 81
7 , 81
en ed</w> 81
er ing</w> 81
on es</w> 81
re ady</w> 81
li n</w> 81
li k 81
at h</w> 81
le ft</w> 81
se e 81
pro b 81
ap par 81
lo b 81
vi d 81
Ch ina</w> 81
comp le 81
diff er 81
cour t</w> 81
lead er</w> 81
nom bre 81
ques tion</w> 81
milit ary</w> 81
tech n 81
spect ac 81
Fri day</w> 81
o - 80
c et</w> 80
F in 80
A près</w> 80
P al 80
M i 80
H u 80
3 - 80
ai d</w> 80
qu er</w> 80
pr endre</w> 80
ur g 80
con stru 80
ag re 80
us t</w> 80
ye ar- 80
met tre</w> 80
acti v 80
camp ai 80
mom ent</w> 80
u tion</w> 79
p é 79
h ic 79
C ro 79
A S 79
E N 79
T e 79
2 9</w> 79
en ing</w> 79
re - 79
is c 79
ch ed</w> 79
lo g 79
vi ent</w> 79
ne ed</w> 79
nouv eau</w> 79
gro w 79
situ ation</w> 79
litt le</w> 79
spok es 79
t at 78
h ô 78
g en 78
P au 78
2 . 78
th re 78
on y</w> 78
ti n</w> 78
ch au 78
at e 78
au g 78
st re 78
di tions</w> 78
le ad</w> 78
ol o 78
sh ar 78
end s</w> 78
gi e</w> 78
ten ant</w> 78
exp li 78
che f</w> 78
Joh n</w> 78
o de</w> 77
e ts</w> 77
l ement</w> 77
h igh</w> 77
v ue</w> 77
b est</w> 77
E R 77
T r 77
w ar</w> 77
I ran</w> 77
j ud 77
an i</w> 77
en heim</w> 77
th ird</w> 77
ou gh</w> 77
con fi 77
con du 77
st om 77
ad ministr 77
res pe 77
so ir</w> 77
ass ur 77
ear ly</w> 77
loo k</w> 77
vers ity</w> 77
stat ement</w> 77
maj or 77
import ant</w> 77
possi ble</w> 77
not amment</w> 77
Dim anche</w> 77
year- old</w> 77
S ec 76
i ons</w> 76
p ol 76
n ée</w> 76
a way</w> 76
J '</w> 76
C ette</w> 76
s m 76
v ill 76
A t</w> 76
M a 76
M ul 76
0 , 76
B i 76
ri er</w> 76
pro v 76
No v 76
poli tical</w> 76
pour rait</w> 76
quar ter</w> 76
sem aine</w> 76
associ ation</w> 76
don c</w> 76
too k</w> 76
Quar ter</w> 76
o l</w> 75
t a</w> 75
s an 75
b les</w> 75
N ational</w> 75
f ew</w> 75
7 . 75
un g</w> 75
ic ul 75
eu se</w> 75
et y</w> 75
wor k 75
la w 75
derni ère</w> 75
ste m</w> 75
Dav id</w> 75
e ct 74
é p 74
s se</w> 74
v ent 74
v ice</w> 74
b on 74
y m 74
y - 74
z ed</w> 74
1 00</w> 74
E m 74
f ail 74
w in</w> 74
6 0</w> 74
ac ks</w> 74
ac cue 74
su ff 74
pro pos 74
ten u</w> 74
wor king</w> 74
id enti 74
bet ter</w> 74
tél é 74
Nor th</w> 74
Eur ope</w> 74
e qu 73
e as 73
e aux</w> 73
é conom 73
l ater</w> 73
g es</w> 73
D u 73
T ot 73
f re 73
f ran 73
f ête</w> 73
B an 73
3 . 73
ti onal</w> 73
li fe</w> 73
at or</w> 73
ati c</w> 73
ri en</w> 73
de al</w> 73
us tr 73
ne ws</w> 73
he ures</w> 73
and er</w> 73
Th om 73
ég lise</w> 73
ve ill 73
pri x</w> 73
progr am 73
contin u 73
memb ers</w> 73
issu e</w> 73
vend redi</w> 73
his toire</w> 73
accor ding</w> 73
c as</w> 72
c ep 72
h tt 72
a h</w> 72
m '</w> 72
R om 72
y oun 72
P a 72
P ri 72
x - 72
ar d 72
ch aque</w> 72
ch ief</w> 72
ati ves</w> 72
av ons</w> 72
su iv 72
ne ver</w> 72
man i 72
inter national</w> 72
aff ir 72
aur a</w> 72
jam ais</w> 72
kill ed</w> 72
prin cip 72
S cot 71
i or</w> 71
e very 71
p en 71
p éri 71
s ouv 71
d ate</w> 71
z - 71
g ens</w> 71
f ig 71
f aut</w> 71
3 5</w> 71
' m</w> 71
es sion</w> 71
it er</w> 71
ri c</w> 71
ri ère</w> 71
com par 71
be h 71
vi e 71
no s</w> 71
tou tes</w> 71
cul te</w> 71
tis h</w> 71
investi g 71
beli e 71
asse ts</w> 71
spé ci 71
htt p</w> 71
S i</w> 70
c entr 70
t ent 70
t ourn 70
p an 70
p ati 70
h ou 70
h it</w> 70
d ers</w> 70
F o 70
g ames</w> 70
O ff 70
f f</w> 70
w ent</w> 70
9 , 70
j eudi</w> 70
an tes</w> 70
on t 70
ac qu 70
au jourd'</w> 70
con si 70
ag ain</w> 70
su sp 70
po wer</w> 70
por te</w> 70
cl ai 70
all er</w> 70
poli tique</w> 70
él é 70
anc er</w> 70
Mon tré 70
Americ a</w> 70
fil m</w> 70
Is ra 70
Sep t</w> 70
olog y</w> 70
c i</w> 69
t i</w> 69
p ur 69
p ap 69
n ings</w> 69
b an</w> 69
d at 69
g ni 69
E r 69
O ne</w> 69
an a</w> 69
in e 69
er y</w> 69
es ts</w> 69
pl ans</w> 69
pro te 69
ain ing</w> 69
per form 69
for ces</w> 69
sh are</w> 69
emb l 69
fi eld</w> 69
gh ts</w> 69
ob jec 69
ail le</w> 69
col le 69
cel u 69
cô té</w> 69
occas ion</w> 69
i ti 68
e very</w> 68
é ch 68
n ers</w> 68
R en 68
b ed</w> 68
z y</w> 68
1 er</w> 68
f ils</w> 68
w on</w> 68
4 . 68
in come</w> 68
ti ce</w> 68
tr ad 68
is se</w> 68
av ail 68
ag er</w> 68
ag ue</w> 68
ol s</w> 68
ci vi 68
ne ed 68
co ver 68
so li 68
do es</w> 68
do it</w> 68
off ic 68
rou te</w> 68
rest e</w> 68
Cl int 68
cid ent</w> 68
direct or</w> 68
Af gh 68
Sou th</w> 68
acro ss</w> 68
m on</w> 67
s ure</w> 67
s tri 67
v u</w> 67
D o 67
D en 67
A c 67
E d 67
f el 67
f as 67
B u 67
B y</w> 67
in c 67
ti v 67
ti c</w> 67
ar ing</w> 67
li ght</w> 67
am bi 67
po st 67
lo ss</w> 67
for ce</w> 67
ir es</w> 67
ne w 67
bi g</w> 67
mar ché</w> 67
comm is 67
comp an 67
sid enti 67
ici le</w> 67
bo dy</w> 67
acc ep 67
parti r</w> 67
produ ction</w> 67
sy st 67
diff ér 67
Un is</w> 67
loo king</w> 67
s- Unis</w> 67
Po li 67
are a</w> 67
eder al</w> 67
xi ème</w> 67
tat s-Unis</w> 67
Tot al</w> 67
Montré al</w> 67
Clint on</w> 67
o ire</w> 66
t y 66
l à</w> 66
C ali 66
b éné 66
D '</w> 66
f ur 66
û t</w> 66
er i 66
on ce</w> 66
ti en</w> 66
qu ali 66
as ked</w> 66
au c 66
ab li 66
par ty</w> 66
200 4</w> 66
ec u 66
ell ing</w> 66
car e 66
aut or 66
anci en</w> 66
mé di 66
sor ti 66
enn es</w> 66
wom an</w> 66
Wor ld</w> 66
Oct ob 66
mul ti 66
pho to 66
o p</w> 65
c eux</w> 65
t able</w> 65
h é 65
h er 65
m ight</w> 65
b onne</w> 65
g é</w> 65
ô le</w> 65
A le 65
P u 65
T E 65
O b 65
f ar</w> 65
U S 65
th ings</w> 65
as h</w> 65
ic s</w> 65
ic i</w> 65
au di 65
de u 65
ab o 65
for me</w> 65
res t</w> 65
and - 65
dis cus 65
inter est</w> 65
ven ir</w> 65
me il 65
cur ité</w> 65
eff ec 65
wi de</w> 65
Com p 65
ais se</w> 65
organ iz 65
leg al</w> 65
rece iv 65
c y</w> 64
t ember</w> 64
p tion</w> 64
n et 64
r on 64
s ts</w> 64
d el 64
L undi</w> 64
O p 64
O N 64
or ale</w> 64
is ts</w> 64
is me</w> 64
om b 64
pr ices</w> 64
au v 64
con ference</w> 64
st on</w> 64
pro jec 64
pro jet</w> 64
im es</w> 64
we ver</w> 64
oc k</w> 64
ho sp 64
tra di 64
Ira q 64
Wh en</w> 64
Au g 64
contin ue</w> 64
pend ant</w> 64
with out</w> 64
cin q</w> 64
terr or 64
hal f</w> 64
announ ced</w> 64
Pi erre</w> 64
campai gn</w> 64
Octob er</w> 64
c elle</w> 63
t ball</w> 63
p ed</w> 63
m ess 63
s co 63
y n 63
è ve</w> 63
5 00</w> 63
H ouse</w> 63
W ith</w> 63
x im 63
w ater</w> 63
an al 63
er t 63
ar tic 63
al li 63
at ors</w> 63
con ditions</w> 63
di ed</w> 63
be come</w> 63
ad ded</w> 63
op é 63
ig r 63
end ant</w> 63
fi ed</w> 63
cu stom 63
tro l</w> 63
publi c 63
publi que</w> 63
inv ol 63
trav ail</w> 63
did n</w> 63
respon s 63
ther n</w> 63
entraî n 63
lik ely</w> 63
péri ode</w> 63
avail able</w> 63
e ach</w> 62
l ar 62
l ing</w> 62
p ing</w> 62
s ac 62
s aying</w> 62
b ul 62
d ru 62
g eneral</w> 62
è le</w> 62
A n</w> 62
V o 62
V i 62
k er</w> 62
f our 62
w an 62
G rou 62
B C</w> 62
in scri 62
er n 62
re présent 62
em ent 62
st u 62
pl y</w> 62
dé e</w> 62
ét u 62
mo y 62
he ad 62
pré c 62
vo y 62
dis tribu 62
oc cu 62
pou voir</w> 62
Sep tember</w> 62
t ement</w> 61
l at 61
p al 61
h on 61
J an 61
s ent</w> 61
s ci 61
D ar 61
O f</w> 61
G re 61
4 7</w> 61
in ten 61
re sear 61
tr ying</w> 61
es ses</w> 61
al low 61
al ready</w> 61
st art</w> 61
le ast</w> 61
su is</w> 61
de li 61
sai re</w> 61
op position</w> 61
to day</w> 61
mi d 61
ten ti 61
rec ent</w> 61
off ice</w> 61
parti cu 61
la w</w> 61
ber g</w> 61
fam ili 61
abili ty</w> 61
hab it 61
Ju li 61
some thing</w> 61
kno wn</w> 61
Nic ol 61
compan ies</w> 61
o d</w> 60
p u</w> 60
n uc 60
a ï 60
r ais 60
J ac 60
m as 60
s our 60
b il 60
F ir 60
A L 60
H am 60
3 2</w> 60
7 5</w> 60
ti ques</w> 60
re ti 60
re ally</w> 60
con serv 60
con fir 60
am ong</w> 60
st er</w> 60
ri r</w> 60
ad op 60
ig g 60
ss ement</w> 60
gi ve</w> 60
comp te</w> 60
fin d</w> 60
ph one</w> 60
pres sion</w> 60
je ts</w> 60
sy stem</w> 60
of ten</w> 60
tél .</w> 60
nu it</w> 60
mai son</w> 60
Av ec</w> 60
ous ly</w> 60
belie ve</w> 60
S el 59
u el</w> 59
l and 59
n ess</w> 59
m ed 59
m ise</w> 59
C our 59
v é 59
v in</w> 59
v eu 59
y ers</w> 59
P et 59
T o</w> 59
H is</w> 59
w iller</w> 59
ch ing</w> 59
un d</w> 59
st or 59
st ation</w> 59
com ing</w> 59
ex t 59
ig e</w> 59
mar di</w> 59
sp ace</w> 59
fin al</w> 59
fin ancial</w> 59
trav ail 59
ini ti 59
rai son</w> 59
Ge or 59
nov embre</w> 59
spectac le</w> 59
m it 58
m ain</w> 58
d en 58
d ra 58
g s</w> 58
g y</w> 58
E S</w> 58
T ur 58
f êtes</w> 58
3 3</w> 58
2 5 58
re b 58
tr on 58
al ong</w> 58
pr è 58
ac tions</w> 58
su s</w> 58
ex per 58
ré du 58
for c 58
mi di</w> 58
ten ir</w> 58
acc oun 58
sc ène</w> 58
mer credi</w> 58
tic s</w> 58
cap it 58
cap ital</w> 58
ens emble</w> 58
quel que</w> 58
Uni on</w> 58
priv ate</w> 58
Ko re 58
curr ent</w> 58
indus try</w> 58
Lou is</w> 58
Associ ation</w> 58
c ad 57
c are</w> 57
c all</w> 57
t ab 57
t ation</w> 57
h ard</w> 57
n es</w> 57
s .</w> 57
v elop 57
b ene 57
T V</w> 57
O U 57
f le 57
en ough</w> 57
in ation</w> 57
ar ed</w> 57
re al</w> 57
or s 57
el a</w> 57
con st 57
con tribu 57
con sum 57
ex peri 57
ré pon 57
mo ve</w> 57
for t</w> 57
ir ée</w> 57
co st</w> 57
bi le</w> 57
me eting</w> 57
est ini 57
ang er</w> 57
milli ards</w> 57
dev rait</w> 57
coun tries</w> 57
jo int</w> 57
De partment</w> 57
ouver t</w> 57
lig ne</w> 57
ko zy</w> 57
Sar kozy</w> 57
lob al</w> 57
deu xième</w> 57
Nicol as</w> 57
c le 56
i de</w> 56
h y 56
h un 56
b éco 56
d ue</w> 56
d ge</w> 56
g res 56
K ar 56
j eu</w> 56
3 6</w> 56
ati on 56
di re</w> 56
ci l</w> 56
par ce</w> 56
op ération</w> 56
im pro 56
for m</w> 56
cl ass 56
onn ement</w> 56
ss es</w> 56
fi re</w> 56
comm it 56
Al l</w> 56
eff et</w> 56
produ cts</w> 56
hel d</w> 56
can adi 56
lead ing</w> 56
sé curité</w> 56
maj or</w> 56
Min ister</w> 56
direc tion</w> 56
retur n</w> 56
administr ation</w> 56
ecu tive</w> 56
S al 55
o il</w> 55
e an</w> 55
t g 55
t eur</w> 55
t ors</w> 55
p ic 55
p ast</w> 55
r é</w> 55
r app 55
s af 55
R h 55
b el 55
b att 55
g es 55
D ec 55
A t 55
A fr 55
M me</w> 55
k a</w> 55
W est</w> 55
G ar 55
4 2</w> 55
4 8</w> 55
3 4</w> 55
an ni 55
ti ci 55
re du 55
re ign</w> 55
it ure</w> 55
pl an 55
de cis 55
se t 55
se cre 55
vi de 55
mo bili 55
por té</w> 55
te fois</w> 55
do w 55
tro p</w> 55
acc ord</w> 55
spe ci 55
port ers</w> 55
jo in 55
Je an</w> 55
thou s 55
oper ations</w> 55
clo se</w> 55
tric t</w> 55
memb res</w> 55
stud ents</w> 55
ca de 55
mai rie</w> 55
quo i</w> 55
inclu de</w> 55
nuc lear</w> 55
p li 54
p at 54
h aving</w> 54
r ont</w> 54
C es</w> 54
s ace</w> 54
s ales</w> 54
d a</w> 54
g ress</w> 54
E ar 54
f ree</w> 54
B re 54
B as 54
I m 54
3 7</w> 54
re qu 54
is es</w> 54
ch és</w> 54
pr ice</w> 54
at u 54
ac comp 54
di es</w> 54
su gg 54
ab or 54
ex tr 54
ni ve 54
do cu 54
Al l 54
Al sace</w> 54
St re 54
aur ait</w> 54
sy m 54
air s</w> 54
Br it 54
ener gy</w> 54
az ir</w> 54
offici al</w> 54
Uni versity</w> 54
probl ems</w> 54
Pau l</w> 54
beh ind</w> 54
celu i</w> 54
Iraq i</w> 54
Afr ic 54
S E 53
u l</w> 53
u al</w> 53
t or 53
l anc 53
n er 53
C ity</w> 53
b s</w> 53
z u 53
g en</w> 53
P hi 53
O u 53
O R 53
M al 53
B al 53
6 - 53
. -</w> 53
ti t 53
ar ri 53
con som 53
ag ement</w> 53
ent er</w> 53
In c</w> 53
af in</w> 53
ven ue</w> 53
sur tout</w> 53
rest aur 53
prof it</w> 53
prof essi 53
pri me</w> 53
Cl au 53
eur opé 53
Ne w 53
proch ain</w> 53
Ben azir</w> 53
musi c</w> 53
oth ers</w> 53
nombre ux</w> 53
souv ent</w> 53
Poli ce</w> 53
lar ge</w> 53
S pe 52
o t</w> 52
i ent</w> 52
t in 52
t ali 52
t ête</w> 52
l ate</w> 52
h op 52
h am</w> 52
r ent</w> 52
r aient</w> 52
R eu 52
b at 52
d an 52
5 2</w> 52
D é 52
D ur 52
M at 52
W il 52
W hi 52
w as 52
2 00</w> 52
en sive</w> 52
re pres 52
re conn 52
or ts</w> 52
qu it 52
qu ant</w> 52
es t- 52
di ri 52
ag ed</w> 52
ri ed</w> 52
po tenti 52
pré cis 52
Ch ris 52
comm une</w> 52
mon di 52
St ate</w> 52
je une</w> 52
diff icul 52
wee ks</w> 52
lead ers</w> 52
war ds</w> 52
Wh ite</w> 52
reg ul 52
Col mar</w> 52
direct eur</w> 52
sep t</w> 52
incre ase</w> 52
wom en</w> 52
boo k</w> 52
conse il</w> 52
fav or 52
tot al</w> 52
fut ure</w> 52
grow th</w> 52
care er</w> 52
Comp any</w> 52
prè s- 52
Phi li 52
o li 51
c y 51
t ée</w> 51
l é</w> 51
n ation</w> 51
a c</w> 51
m i</w> 51
m iles</w> 51
s av 51
b ach</w> 51
è te</w> 51
A T 51
E R</w> 51
O l 51
M or 51
f it</w> 51
f oc 51
B el 51
6 . 51
2 4 51
an istan</w> 51
th é 51
th em 51
ti ers</w> 51
re trouv 51
li v 51
au l 51
su spe 51
us h 51
lo st</w> 51
ex pl 51
op en</w> 51
ré un 51
gr ands</w> 51
ass ist 51
fi c</w> 51
der ed</w> 51
19 6 51
vis i 51
sch ed 51
pass é</w> 51
mor t</w> 51
Can adi 51
play ers</w> 51
pas se</w> 51
Inter net</w> 51
tak en</w> 51
a- t-il</w> 51
annon cé</w> 51
differ ent</w> 51
spokes man</w> 51
youn g</w> 51
Afgh anistan</w> 51
Cali for 51
Sel on</w> 51
Reu ters</w> 51
c le</w> 50
c op 50
i an</w> 50
i de 50
e li 50
t our</w> 50
l am 50
h r</w> 50
h ours</w> 50
a z</w> 50
a près- 50
r ic 50
- B 50
d g 50
d or 50
z one</w> 50
è que</w> 50
V al 50
T imes</w> 50
O N</w> 50
M y 50
f ille</w> 50
an g</w> 50
in stitu 50
er ie</w> 50
de c 50
de ci 50
se x 50
lo i</w> 50
ad v 50
et tes</w> 50
ét at</w> 50
mo der 50
te au</w> 50
200 3</w> 50
pré par 50
min ist 50
man n</w> 50
cre dit</w> 50
me di 50
gu es</w> 50
él è 50
sur g 50
produ c 50
hu it</w> 50
ord in 50
arr ê 50
nom bre</w> 50
progr am</w> 50
mak ing</w> 50
Mul house</w> 50
thous ands</w> 50
Whi le</w> 50
l an 49
p ens 49
n é</w> 49
a el</w> 49
s ent 49
s éri 49
R ich 49
b and</w> 49
d re</w> 49
d est 49
y et</w> 49
g ir 49
g lobal</w> 49
w er 49
0 s</w> 49
qu el</w> 49
ch all 49
at te 49
si è 49
ro se</w> 49
com es</w> 49
dé mo 49
wh y</w> 49
op port 49
ter m</w> 49
ré s</w> 49
gr an 49
oun ds</w> 49
200 1</w> 49
ser ait</w> 49
so irée</w> 49
Ch am 49
ra f</w> 49
cu t</w> 49
tri b 49
comp ag 49
ail s</w> 49
att ack</w> 49
vis it 49
cri min 49
ret our</w> 49
peti t</w> 49
bili té</w> 49
gre at</w> 49
ta x 49
charg es</w> 49
commer cial</w> 49
indus tri 49
foo tball</w> 49
Mus har 49
constru ction</w> 49
dat a</w> 49
Grou p</w> 49
e ver</w> 48
é mo 48
h or 48
n ame</w> 48
C ou 48
C ap 48
s si 48
v al</w> 48
d ar 48
f ont</w> 48
f igh 48
f ici 48
ç on</w> 48
4 4</w> 48
8 7</w> 48
3 8</w> 48
7 2</w> 48
er r 48
re ç 48
ch en</w> 48
ch em 48
al ways</w> 48
em ple</w> 48
si gni 48
am ent</w> 48
su per 48
pl ann 48
ad ver 48
ré gi 48
por ter</w> 48
ne ige</w> 48
vo te</w> 48
rec ently</w> 48
tro ops</w> 48
att end 48
poli cy</w> 48
ven u</w> 48
ven tion</w> 48
me as 48
me dia</w> 48
int é 48
ber t</w> 48
dem and 48
ke ep</w> 48
ear lier</w> 48
des cri 48
ori ties</w> 48
iss ance</w> 48
pris on</w> 48
trou ver</w> 48
beli ev 48
fem mes</w> 48
Bri tish</w> 48
resul ts</w> 48
orig in 48
aug ment 48
program me</w> 48
z- vous</w> 48
wan ted</w> 48
nive au</w> 48
e vid 47
t embre</w> 47
t ats</w> 47
p ital</w> 47
n i</w> 47
a head</w> 47
r om 47
C as 47
s er</w> 47
v rai 47
d one</w> 47
A si 47
P ress</w> 47
T ou 47
f er</w> 47
f all 47
f ight</w> 47
B ou 47
en ci 47
re l</w> 47
dé velop 47
wh ose</w> 47
per son</w> 47
ne ar</w> 47
te e</w> 47
cl in 47
200 2</w> 47
ill s</w> 47
att ent 47
str ong</w> 47
eff orts</w> 47
ind ic 47
uc k</w> 47
cour se</w> 47
gar de</w> 47
peti ts</w> 47
cel a</w> 47
dro it</w> 47
ta x</w> 47
with in</w> 47
pp ed</w> 47
Ber n 47
Bro wn</w> 47
beg an</w> 47
econom y</w> 47
aver age</w> 47
vill age</w> 47
Ban k</w> 47
perform ance</w> 47
Mushar raf</w> 47
S i 46
S p 46
S ome</w> 46
é tr 46
é cri 46
n on 46
n eu 46
J ap 46
m it</w> 46
C E</w> 46
s l 46
s old</w> 46
v ari 46
y e</w> 46
g et 46
5 4</w> 46
M it 46
W illi 46
f ood</w> 46
U N 46
8 5</w> 46
in er</w> 46
re gi 46
re cher 46
re trai 46
ai de</w> 46
om bi 46
el e 46
as se</w> 46
ati s 46
au gh 46
con stitu 46
con trol</w> 46
st and</w> 46
su it</w> 46
ro om</w> 46
ab ly</w> 46
par ole</w> 46
ap er</w> 46
ad ul 46
op pos 46
ré sul 46
im ag 46
co - 46
ali ste</w> 46
str at 46
soci al</w> 46
la un 46
derni ers</w> 46
derni ères</w> 46
jou eurs</w> 46
tem p 46
ant age</w> 46
sep tembre</w> 46
tak ing</w> 46
inst all 46
éco le</w> 46
indi vi 46
main tenant</w> 46
génér al</w> 46
nation ale</w> 46
stand ing</w> 46
Nov ember</w> 46
S an</w> 45
c o</w> 45
c it 45
c lear</w> 45
i ds</w> 45
t or</w> 45
t ory</w> 45
l aiss 45
h am 45
r ul 45
r ate</w> 45
m ou 45
C H 45
s en</w> 45
s man 45
b ru 45
g é 45
N ouv 45
1 3, 45
T i 45
T w 45
k m</w> 45
f ederal</w> 45
G eneral</w> 45
9 . 45
6 5</w> 45
en e</w> 45
in s 45
on d</w> 45
li ve</w> 45
ch ose</w> 45
pr end</w> 45
ati que</w> 45
au té</w> 45
ol sheim</w> 45
ro w 45
se in</w> 45
se cu 45
dé cid 45
ir s</w> 45
res se</w> 45
bu d 45
ni a</w> 45
ér é</w> 45
vo it</w> 45
comm uni 45
Mar c</w> 45
vis it</w> 45
hom mes</w> 45
fer m 45
cr ise</w> 45
dem ande</w> 45
jou er</w> 45
col lec 45
sy n 45
part i</w> 45
mor ning</w> 45
commun ity</w> 45
cert ains</w> 45
Af ter</w> 45
high er</w> 45
donn é</w> 45
ful ly</w> 45
rele ased</w> 45
equ ity</w> 45
receiv ed</w> 45
custom ers</w> 45
decis ion</w> 45
Stre et</w> 45
après- midi</w> 45
S o</w> 44
S t- 44
c ru 44
t z 44
é lect 44
n és</w> 44
a . 44
a w</w> 44
r end 44
C am 44
b lo 44
b elle</w> 44
d ès</w> 44
y le</w> 44
è tres</w> 44
5 5</w> 44
A ustr 44
O ber 44
H en 44
W i 44
f ut</w> 44
G oo 44
4 - 44
8 3</w> 44
er - 44
re ux</w> 44
li gn 44
tr ac 44
tr op 44
is m</w> 44
ch ance</w> 44
con ver 44
di o</w> 44
ag u 44
de ath</w> 44
ex er 44
ser ies</w> 44
vo c 44
ill et</w> 44
gi ble</w> 44
tur es</w> 44
En gl 44
ste in</w> 44
lev el</w> 44
pas s</w> 44
mus t</w> 44
sim ple</w> 44
envir on</w> 44
char ge</w> 44
stud y</w> 44
Ab out</w> 44
journ ée</w> 44
Mich ael</w> 44
uti lis 44
ish ed</w> 44
Rob ert</w> 44
sing le</w> 44
élec tions</w> 44
follow ing</w> 44
olo gi 44
sidenti al</w> 44
mess age</w> 44
Jan u 44
béco is</w> 44
Chris ti 44
Engl and</w> 44
S am 43
e ight</w> 43
t an 43
t on 43
p ai 43
h im 43
J une</w> 43
b es 43
b us</w> 43
d riv 43
L on 43
g ri 43
5 7</w> 43
P or 43
P ar</w> 43
T or 43
T ro 43
f lo 43
f um 43
f ell</w> 43
0 1</w> 43
B ru 43
en se 43
qu ement</w> 43
qu ick 43
es ted</w> 43
ch ec 43
ur y</w> 43
con dam 43
pl ut 43
com ment</w> 43
se ul</w> 43
us é</w> 43
us ing</w> 43
be l</w> 43
ex ecutive</w> 43
ré gion</w> 43
per man 43
mo d 43
gr é</w> 43
cl ass</w> 43
mar kets</w> 43
pi è 43
tou tefois</w> 43
sou ff 43
wi fe</w> 43
pass er</w> 43
De puis</w> 43
wee k 43
uni vers 43
enn ent</w> 43
Wh at</w> 43
thou ght</w> 43
Pre mi 43
fon ds</w> 43
cli m 43
entre prise</w> 43
entre prises</w> 43
aî t</w> 43
peri od</w> 43
ful l</w> 43
provi de</w> 43
grap hi 43
fem me</w> 43
invest ment</w> 43
Pal estini 43
prov ince</w> 43
artic le</w> 43
sci enti 43
Geor ge</w> 43
indivi du 43
c e 42
c ents</w> 42
c ess 42
p ement</w> 42
a des</w> 42
m ère</w> 42
C O 42
C entre</w> 42
s û 42
s li 42
F ro 42
y p 42
N eu 42
5 - 42
D ev 42
D ani 42
O n 42
f eu</w> 42
f isc 42
0 ,000</w> 42
B ur 42
I L 42
I D 42
7 1</w> 42
ti ent</w> 42
ti fs</w> 42
ar ch 42
di g 42
di en</w> 42
pl ai 42
com peti 42
our ces</w> 42
ex emple</w> 42
por te- 42
pu is 42
pre vi 42
mar s</w> 42
we ap 42
Mar i 42
soci été</w> 42
éri eur</w> 42
fr on 42
aut our</w> 42
aut ant</w> 42
Re publi 42
pers on 42
sho t</w> 42
Bo ston</w> 42
sen ior</w> 42
He al 42
emplo ye 42
Ju ly</w> 42
cot sman 42
envir on 42
tech ni 42
manag er</w> 42
mati n</w> 42
autom o 42
imm igr 42
Fir st</w> 42
veu t</w> 42
vide o</w> 42
décid é</w> 42
Austr ali 42
S im 41
u li 41
n on- 41
J us 41
m y 41
s ap 41
s avoir</w> 41
F ar 41
N i 41
A D 41
f ab 41
0 5</w> 41
8 - 41
3 9</w> 41
en ses</w> 41
en suite</w> 41
in ning</w> 41
er ry</w> 41
tr an 41
es ting</w> 41
ch es 41
ch ap 41
al co 41
al leg 41
em erg 41
ac ked</w> 41
au - 41
av en 41
am ed</w> 41
se ul 41
se ven</w> 41
se cteur</w> 41
sh ed</w> 41
to wn</w> 41
ali ty</w> 41
ing er</w> 41
rec or 41
af f</w> 41
sp ir 41
tro isi 41
ev ision</w> 41
Mar di</w> 41
ru p 41
som mes</w> 41
aut eur</w> 41
fam illes</w> 41
sel ves</w> 41
entr ée</w> 41
cert ain 41
doll ar</w> 41
sem aines</w> 41
chang es</w> 41
exc ep 41
buil ding</w> 41
show ed</w> 41
develop ment</w> 41
Franç ois</w> 41
techn ology</w> 41
hô pital</w> 41
chau ff 41
major ité</w> 41
sm all</w> 41
pati ents</w> 41
commis sion</w> 41
Ale x 41
vé hic 41
cad re</w> 41
plut ôt</w> 41
Republi can</w> 41
o ct 40
e m</w> 40
e ase</w> 40
l ors 40
h ai 40
h ope</w> 40
n a</w> 40
s au 40
b loc 40
d it 40
y al</w> 40
g ave</w> 40
5 . 40
A ir</w> 40
E ric</w> 40
f oun 40
f est 40
6 9</w> 40
I S 40
in é</w> 40
re gion</w> 40
qu elle</w> 40
si r</w> 40
st age</w> 40
se en</w> 40
ent ed</w> 40
ter a</w> 40
ser i 40
mi eux</w> 40
pré sid 40
Ch in 40
mar k</w> 40
mar que</w> 40
Th ese</w> 40
In di 40
ev ent</w> 40
parti cul 40
eff ect 40
tur n</w> 40
Com me</w> 40
jo b</w> 40
nouv eaux</w> 40
mor tg 40
minis ter</w> 40
ot ages</w> 40
dur ant</w> 40
peti te</w> 40
Americ ans</w> 40
équi pes</w> 40
Inter national</w> 40
proc ess</w> 40
franç aise</w> 40
sim il 40
imp act</w> 40
work ers</w> 40
new sp 40
fur ther</w> 40
Ob ama</w> 40
lat est</w> 40
resear ch</w> 40
igg est</w> 40
Califor nia</w> 40
compag nie</w> 40
signi fic 40
him self</w> 40
troisi ème</w> 40
S to 39
S ur</w> 39
i en</w> 39
t est</w> 39
t ex 39
t end 39
p it 39
p ay</w> 39
p atr 39
J ourn 39
C he 39
s é</w> 39
v oul 39
b it</w> 39
y es</w> 39
g ener 39
è mes</w> 39
N . 39
T out</w> 39
M ad 39
f au 39
9 4</w> 39
8 4</w> 39
3 00</w> 39
7 - 39
É tats-Unis</w> 39
' ll</w> 39
th y</w> 39
er ont</w> 39
or ity</w> 39
li ste</w> 39
es se 39
con sé 39
am i</w> 39
di pl 39
ag ency</w> 39
ro le</w> 39
pl at 39
par o 39
ad d 39
vi c</w> 39
ain t</w> 39
im age</w> 39
per met 39
sh ire</w> 39
gr ad 39
he ure</w> 39
pré ci 39
ed uc 39
Ch ic 39
An dr 39
ob s</w> 39
ob serv 39
Mar ie</w> 39
ear nings</w> 39
rest ed</w> 39
ju in</w> 39
play ed</w> 39
play ing</w> 39
cli ents</w> 39
concer t</w> 39
Eur op 39
Mich el</w> 39
econom ic</w> 39
run ning</w> 39
Char les</w> 39
Coun cil</w> 39
atten tion</w> 39
musi que</w> 39
reli gi 39
Sec ur 39
fail ed</w> 39
veill ée</w> 39
particu li 39
experi ence</w> 39
dow n 39
bud get</w> 39
Janu ary</w> 39
S m 38
S on</w> 38
o ts</w> 38
i ther</w> 38
t arg 38
p pe</w> 38
m ing</w> 38
b ase</w> 38
d ings</w> 38
F i 38
F re 38
g as</w> 38
N E 38
N o</w> 38
D el 38
k i</w> 38
k y</w> 38
f y</w> 38
f év 38
B our 38
6 7</w> 38
6 4</w> 38
4 1</w> 38
7 8</w> 38
en a</w> 38
en ch 38
in o</w> 38
or der</w> 38
qu é 38
it ation</w> 38
as es</w> 38
as su 38
au d</w> 38
le m</w> 38
le ave</w> 38
ol ution</w> 38
dé p 38
lo ans</w> 38
et é</w> 38
mo i</w> 38
mo ther</w> 38
for d</w> 38
ne arly</w> 38
co sts</w> 38
ct or</w> 38
200 0</w> 38
ser ve</w> 38
ill ed</w> 38
go ti 38
An dre 38
att acks</w> 38
tu de</w> 38
bl ack</w> 38
déc ision</w> 38
él est 38
fir m</w> 38
pers onne</w> 38
stat ements</w> 38
abili ties</w> 38
repor ts</w> 38
ouver ture</w> 38
ques tions</w> 38
aiss ance</w> 38
charg ed</w> 38
We b</w> 38
Oct .</w> 38
inf lu 38
hau sse</w> 38
jur y</w> 38
hist ory</w> 38
need ed</w> 38
saf ety</w> 38
Rh in</w> 38
evid ence</w> 38
quick ly</w> 38
Europ ean</w> 38
fév rier</w> 38
S élest 37
o v 37
t te</w> 37
t ari 37
é ti 37
é ro 37
é cl 37
é cr 37
l y 37
l es 37
p om 37
a p</w> 37
m ation</w> 37
m ember</w> 37
C u 37
s ens</w> 37
b om 37
b as</w> 37
b ab 37
b iggest</w> 37
g er 37
D es 37
T ri 37
M y</w> 37
M ex 37
f esti 37
G ol 37
9 9</w> 37
B ag 37
I I</w> 37
7 7</w> 37
en qu 37
en ge</w> 37
ou bli 37
re ur</w> 37
tr ain</w> 37
pr en 37
el and</w> 37
as si 37
ac u 37
av ez</w> 37
con sul 37
am b 37
st ar</w> 37
st ates</w> 37
ro w</w> 37
com pu 37
se ule</w> 37
ab ord</w> 37
par ts</w> 37
ap e</w> 37
ter ed</w> 37
ét abli 37
sh oo 37
sh ort</w> 37
gr ound</w> 37
ali stes</w> 37
ér it 37
dis pu 37
comm enc 37
go al</w> 37
In v 37
In dia</w> 37
wor ks</w> 37
oc k 37
ran ge</w> 37
ici de</w> 37
bo is</w> 37
poli ci 37
enc our 37
fo reign</w> 37
tw o- 37
sou hai 37
esti m 37
produ its</w> 37
trav aux</w> 37
fe el</w> 37
sol di 37
fon c 37
sign ed</w> 37
ouver te</w> 37
issu es</w> 37
terr ain</w> 37
Coun ty</w> 37
fé dér 37
Gi uli 37
arriv ée</w> 37
ester n</w> 37
ester day</w> 37
shar es</w> 37
Thom as</w> 37
investig ation</w> 37
Cour t</w> 37
minist ère</w> 37
démo cr 37
opport un 37
get ting</w> 37
Chic ago</w> 37
Sélest at</w> 37
Giuli ani</w> 37
S an 36
u su 36
t om 36
l é 36
l ab 36
h eu 36
â tre</w> 36
r ound</w> 36
C A 36
s qu 36
b ers</w> 36
d le</w> 36
d ly</w> 36
g am 36
g ne</w> 36
A g 36
A ir 36
E g 36
E tat</w> 36
M ed 36
k en</w> 36
w r 36
K i 36
B ec 36
6 8</w> 36
I S</w> 36
ê ts</w> 36
4 9</w> 36
' d</w> 36
in king</w> 36
th ers</w> 36
re n</w> 36
re co 36
es n</w> 36
ch ants</w> 36
ac cident</w> 36
si ble</w> 36
st op</w> 36
com pos 36
se au</w> 36
pro per 36
ab e 36
dé plac 36
be at</w> 36
ex ist 36
ent u 36
no m</w> 36
ter rit 36
ne goti 36
co eur</w> 36
he art</w> 36
to - 36
ass ass 36
do ing</w> 36
do esn</w> 36
sp ent</w> 36
ob re</w> 36
att emp 36
tou ch 36
iv ent</w> 36
cont act</w> 36
int el 36
br ing</w> 36
En g 36
diff icile</w> 36
grou ps</w> 36
low er</w> 36
ge ther</w> 36
bre ak 36
cas es</w> 36
mili eu</w> 36
sor t</w> 36
vic ti 36
ment al</w> 36
peu vent</w> 36
expe ct</w> 36
appe ared</w> 36
sk i</w> 36
camp agne</w> 36
rap port</w> 36
Joh n 36
manag ement</w> 36
Mer credi</w> 36
elec tion</w> 36
rele ase</w> 36
inde pend 36
Fl or 36
deb t</w> 36
deb ate</w> 36
viol ence</w> 36
Ang el 36
Franç ais</w> 36
occu p 36
allow ed</w> 36
vrai ment</w> 36
Dani el</w> 36
S é 35
S amedi</w> 35
c ancer</w> 35
e qui 35
t s 35
t z</w> 35
l l 35
l ines</w> 35
p il 35
h ur 35
h 30</w> 35
h old</w> 35
a o 35
s pr 35
s emble</w> 35
- --</w> 35
b â 35
b ill</w> 35
F ren 35
L os</w> 35
y ed</w> 35
5 9</w> 35
A p 35
V ill 35
P P 35
P as 35
O ther</w> 35
M ur 35
M s.</w> 35
k o</w> 35
k il 35
k ind</w> 35
H er 35
H au 35
f ér 35
w it 35
0 7</w> 35
0 9</w> 35
8 6</w> 35
7 9</w> 35
on to</w> 35
re as 35
or ing</w> 35
qu ent</w> 35
li st 35
is s</w> 35
ac i 35
ac e 35
ac es</w> 35
ic o</w> 35
con ne 35
di x</w> 35
de - 35
de l</w> 35
se c 35
pro pri 35
pro pose</w> 35
dé bu 35
ap s</w> 35
ex am 35
ent al</w> 35
pe ace</w> 35
sh or 35
te ams</w> 35
he av 35
ing ly</w> 35
ill ing</w> 35
dis t 35
gi ven</w> 35
all s</w> 35
go ci 35
No w</w> 35
Mar tin</w> 35
inter view</w> 35
ma ch 35
mat eri 35
aff aires</w> 35
cr è 35
mis sed</w> 35
premi ères</w> 35
tra de</w> 35
prés ence</w> 35
ju illet</w> 35
air man</w> 35
vic tory</w> 35
commun ic 35
prom o 35
cert ain</w> 35
plac es</w> 35
sum mer</w> 35
stru ct 35
Bl ack 35
tre at 35
indi qué</w> 35
reven ue</w> 35
direc t</w> 35
win ning</w> 35
popul ation</w> 35
agn é</w> 35
any thing</w> 35
Russi a</w> 35
tion nel</w> 35
Democr ats</w> 35
Democr atic</w> 35
Fin ancial</w> 35
activ ités</w> 35
expli que</w> 35
Off ice</w> 35
offic er</w> 35
ambi ance</w> 35
Aug ust</w> 35
sour ce</w> 35
OU R 35
Brit ain</w> 35
was n</w> 35
sched ul 35
Rich ard</w> 35
porte- parole</w> 35
oct obre</w> 35
Journ al</w> 35
Andr é</w> 35
S ur 34
o eu 34
u fac 34
i ties</w> 34
t ly</w> 34
t ain</w> 34
t ary</w> 34
p ouv 34
p aid</w> 34
h us 34
r i</w> 34
r ing</w> 34
m em 34
C I 34
s h</w> 34
s on 34
R ou 34
v on</w> 34
v ont</w> 34
b le 34
d ad</w> 34
z i 34
N et</w> 34
5 6</w> 34
5 3</w> 34
D u</w> 34
D eux</w> 34
D r.</w> 34
A .</w> 34
W al 34
x e</w> 34
w el 34
9 1</w> 34
7 4</w> 34
an o</w> 34
an ge</w> 34
an ie</w> 34
in tro 34
ti ves</w> 34
li bre</w> 34
tr a</w> 34
ch oc 34
al most</w> 34
ac y</w> 34
av es</w> 34
si on 34
st ory</w> 34
ro ad</w> 34
de z-vous</w> 34
po ss 34
op ér 34
ver t</w> 34
im medi 34
mo ving</w> 34
to gether</w> 34
ali tion</w> 34
ali st</w> 34
pre sidential</w> 34
Ch avez</w> 34
do ssi 34
mar qu 34
ra i</w> 34
ra ther</w> 34
du c 34
gi ving</w> 34
Th ird</w> 34
bo ard</w> 34
fin ale</w> 34
fin anci 34
pi ers</w> 34
ach ed</w> 34
cou ple</w> 34
fr ont</w> 34
tur ned</w> 34
mis sions</w> 34
prés ente</w> 34
pass ed</w> 34
ris que</w> 34
bre ak</w> 34
vic toire</w> 34
bili ty</w> 34
oper ating</w> 34
trou ve</w> 34
fic ation</w> 34
succ ès</w> 34
donn er</w> 34
IN G 34
Res ear 34
né goci 34
larg est</w> 34
améric aine</w> 34
Mi ke</w> 34
autor ités</w> 34
audi ence</w> 34
organiz ation</w> 34
projec t</w> 34
hosp it 34
four th</w> 34
Jac ques</w> 34
retrai te</w> 34
exer c 34
Fro m</w> 34
Chin ese</w> 34
effect u 34
newsp aper</w> 34
dipl om 34
S har 33
u les</w> 33
c é 33
e th 33
l end 33
J .</w> 33
J ames</w> 33
m ur 33
m ouv 33
C enter</w> 33
v ing 33
d ation</w> 33
d ess 33
y a</w> 33
è ge</w> 33
D .</w> 33
A ss 33
E S 33
O li 33
k ir 33
W all</w> 33
w ai 33
w ants</w> 33
9 5</w> 33
9 2</w> 33
9 6</w> 33
K en 33
6 2</w> 33
I T 33
4 6</w> 33
4 3</w> 33
in form 33
ti tre</w> 33
ti ère</w> 33
ar rested</w> 33
re au</w> 33
li ghts</w> 33
es - 33
ch orale</w> 33
ac ts</w> 33
ati v 33
di vision</w> 33
ag ent</w> 33
pro secu 33
dé part</w> 33
ver age</w> 33
ent es</w> 33
ter me</w> 33
ré us 33
ét ant</w> 33
per du</w> 33
per mis</w> 33
end ra</w> 33
oo ds</w> 33
vo iture</w> 33
mar g 33
tri c</w> 33
af ter 33
off er</w> 33
acc ess</w> 33
pres se</w> 33
posi tions</w> 33
cul ation</w> 33
amp le</w> 33
enf ant</w> 33
ris k</w> 33
rel ated</w> 33
Cl ar 33
cas h</w> 33
hel ped</w> 33
2, 3 33
cor ps</w> 33
cro issance</w> 33
év én 33
sol u 33
arr y</w> 33
commun auté</w> 33
dou ble</w> 33
Col ombi 33
out side</w> 33
Se con 33
fai te</w> 33
emplo i</w> 33
incre ased</w> 33
are as</w> 33
Ste ph 33
star ted</w> 33
grap h 33
def ense</w> 33
erg y</w> 33
chi ff 33
tel evision</w> 33
fri end</w> 33
agre ed</w> 33
respe c 33
compar ed</w> 33
objec tif</w> 33
iti é</w> 33
béné fici 33
auc un</w> 33
anal y 33
Kore a</w> 33
Clau de</w> 33
potenti al</w> 33
Tw o</w> 33
Christi an</w> 33
schedul ed</w> 33
hus band</w> 33
S A 32
S ti 32
t ch 32
t ard</w> 32
é po 32
h m 32
h and</w> 32
â ge</w> 32
r at 32
J ones</w> 32
s atis 32
R y 32
R ed</w> 32
v ain 32
b ing</w> 32
d augh 32
F e 32
F er 32
L aur 32
y esterday</w> 32
A li 32
V ic 32
M un 32
f - 32
w ood</w> 32
G ran 32
0 2</w> 32
B ow 32
6 1</w> 32
I tali 32
an n</w> 32
in ée</w> 32
re ad 32
re ach</w> 32
li st</w> 32
is tr 32
al low</w> 32
at ures</w> 32
ac tive</w> 32
un ion</w> 32
ic ale</w> 32
con cl 32
le ction</w> 32
ag é</w> 32
po s</w> 32
se tt 32
ab s 32
dé mar 32
ad ap 32
ver sion</w> 32
et er 32
ter n</w> 32
ré qu 32
ré gu 32
im pl 32
ne - 32
co û 32
oun ded</w> 32
200 9</w> 32
so f 32
In stitu 32
sp ending</w> 32
ho wever</w> 32
ang ers</w> 32
parti es</w> 32
pi ed</w> 32
ell s</w> 32
ph arm 32
jus tice</w> 32
ve hic 32
sch o 32
app el 32
premi ers</w> 32
Con gress</w> 32
Com mun 32
nouv elles</w> 32
ju st 32
ot a</w> 32
contr act</w> 32
sor mais</w> 32
Br un 32
alis ation</w> 32
présent é</w> 32
includ ed</w> 32
appe l</w> 32
progr ams</w> 32
Ho wever</w> 32
Mc C 32
Pl us</w> 32
cent er</w> 32
rac on 32
candid ate</w> 32
Ré publique</w> 32
fa çon</w> 32
Sen ate</w> 32
agre ement</w> 32
respons able</w> 32
med ical</w> 32
Afric a</w> 32
Phili ppe</w> 32
aul t</w> 32
deci ded</w> 32
figh ting</w> 32
reç u</w> 32
descri bed</w> 32
Lon don</w> 32
Heal th</w> 32
seul ement</w> 32
Angel es</w> 32
ao ût</w> 32
intro du 32
c ast</w> 31
e f</w> 31
t ar 31
t ell</w> 31
p un 31
p tions</w> 31
â g 31
r è 31
r ê 31
m and 31
C E 31
C in 31
s ale</w> 31
s enti 31
s ell</w> 31
s ites</w> 31
b rou 31
d in 31
y on</w> 31
N .</w> 31
1 2 31
1 50</w> 31
D am 31
V ir 31
P an 31
M B 31
H ou 31
W ar 31
f ou 31
w ing</w> 31
w il 31
G l 31
I ow 31
8 2</w> 31
7 3</w> 31
ti z 31
re pas</w> 31
re gar 31
ch t</w> 31
ch ac 31
al bu 31
at er 31
em ment</w> 31
av oc 31
si e</w> 31
st ay</w> 31
ri que</w> 31
ri ghts</w> 31
pro pr 31
lo sses</w> 31
ex position</w> 31
et er</w> 31
ter re</w> 31
for t 31
for ced</w> 31
gr and 31
ay ant</w> 31
so ft</w> 31
onn é</w> 31
igh t 31
sid ents</w> 31
ob lig 31
ven us</w> 31
ang l 31
sou lign 31
mat ter</w> 31
Par k</w> 31
Par ty</w> 31
Com mission</w> 31
mé d 31
mé dec 31
ge ts</w> 31
uni que</w> 31
dur ée</w> 31
cho is 31
Sain te- 31
Ne ws</w> 31
hab itu 31
high - 31
mak es</w> 31
Ser vice</w> 31
Associ ated</w> 31
prob ably</w> 31
Pri me</w> 31
cover ed</w> 31
offic ers</w> 31
syst ème</w> 31
net work</w> 31
invol ved</w> 31
entraîn eur</w> 31
trib un 31
strat eg 31
Premi er</w> 31
previ ous</w> 31
Fren ch</w> 31
choc ol 31
épo que</w> 31
pharm ac 31
Iow a</w> 31
o s 30
c s</w> 30
c .</w> 30
c es 30
i ques</w> 30
t aux</w> 30
é di 30
é ment</w> 30
â ce</w> 30
r ates</w> 30
J er 30
m én 30
C .</w> 30
C al 30
C up</w> 30
s elling</w> 30
b ir 30
d n</w> 30
L ast</w> 30
y ards</w> 30
z z 30
N ord</w> 30
5 1</w> 30
5 8</w> 30
D ie</w> 30
A ff 30
P R 30
G en 30
0 6</w> 30
B or 30
B et 30
8 . 30
on ed</w> 30
on line</w> 30
re p 30
li ber 30
tr aining</w> 30
it ing</w> 30
pr ét 30
el i</w> 30
ic ro 30
av is</w> 30
ag ner</w> 30
de ad</w> 30
se y</w> 30
se urs</w> 30
ex - 30
ex ample</w> 30
vi v 30
ré c 30
im pos 30
im ages</w> 30
for ward</w> 30
gr and- 30
co ach</w> 30
te ach 30
pre par 30
min im 30
do ivent</w> 30
mar i 30
comm on</w> 30
gi que</w> 30
wor ds</w> 30
att or 30
fin anc 30
ven te</w> 30
vis ite</w> 30
gu erre</w> 30
la quelle</w> 30
Ro yal</w> 30
int ér 30
ve ille</w> 30
app lic 30
ke ep 30
mes ure</w> 30
Jo sep 30
sup pl 30
pour tant</w> 30
cro w 30
dre ds</w> 30
commun es</w> 30
dou te</w> 30
aw a</w> 30
Ho w</w> 30
val ue</w> 30
10 , 30
minu te</w> 30
succ ess</w> 30
lis h</w> 30
particip ation</w> 30
améric ain</w> 30
prob lem</w> 30
comple te</w> 30
urg ence</w> 30
accue il</w> 30
Rom ney</w> 30
Isra eli</w> 30
Den is</w> 30
photo s</w> 30
sco red</w> 30
dru g</w> 30
Dec ember</w> 30
restaur ant</w> 30
dévelop pement</w> 30
attent at</w> 30
résul tats</w> 30
bes o 30
Palestini an</w> 30
weap ons</w> 30
pom piers</w> 30
opportun ity</w> 30
Resear ch</w> 30
Josep h</w> 30
S N 29
S ud 29
c ra 29
c ard</w> 29
e cted</w> 29
é ment 29
é ma</w> 29
l ent</w> 29
p . 29
r ich</w> 29
r endre</w> 29
m ay 29
C N 29
C ur 29
C ath 29
C entr 29
C ert 29
g one</w> 29
D om 29
A M 29
A pr 29
P A</w> 29
T ex 29
k et 29
H al 29
H ol 29
H amp 29
f ê 29
f all</w> 29
f ru 29
w ers</w> 29
0 8</w> 29
B S</w> 29
6 3</w> 29
ê mes</w> 29
j eux</w> 29
j obs</w> 29
É tat</w> 29
an c</w> 29
en - 29
ti g 29
re v 29
li t</w> 29
li e</w> 29
al u 29
pr acti 29
at tribu 29
as ing</w> 29
ati f</w> 29
au près</w> 29
st - 29
su d</w> 29
su icide</w> 29
ri l</w> 29
de clar 29
se ction</w> 29
pro jets</w> 29
dé pu 29
dé sormais</w> 29
wh ite</w> 29
par fois</w> 29
ad s</w> 29
pe ine</w> 29
no thing</w> 29
00 ,000</w> 29
mo bile</w> 29
ir a</w> 29
pre u 29
Ch ine</w> 29
ass embl 29
mar chés</w> 29
ec t</w> 29
fi le</w> 29
hi ver</w> 29
all ed</w> 29
ten tion</w> 29
Th ree</w> 29
No t</w> 29
ran g 29
Mar k</w> 29
Mar ch</w> 29
poli tici 29
én er 29
ru le</w> 29
enc ed</w> 29
ess enti 29
hom es</w> 29
fo yer</w> 29
sou tien</w> 29
eff ort</w> 29
arg ent</w> 29
ren dez-vous</w> 29
produ ct</w> 29
jou é</w> 29
des p 29
sup por 29
sup porters</w> 29
mor ts</w> 29
Su d</w> 29
peu t- 29
Car ol 29
cho ix</w> 29
abili té</w> 29
leg isl 29
Inter est</w> 29
chil d</w> 29
tak es</w> 29
mag as 29
succ ess 29
some one</w> 29
fun ds</w> 29
long - 29
bor der</w> 29
ys ts</w> 29
resul t</w> 29
lib ération</w> 29
Dis trict</w> 29
fa ther</w> 29
champi on</w> 29
hist ori 29
pé tro 29
san té</w> 29
ym pi 29
continu ed</w> 29
prote ction</w> 29
civi l</w> 29
hosp ital</w> 29
ges tion</w> 29
them selves</w> 29
tax es</w> 29
plai sir</w> 29
person nel</w> 29
intel lig 29
kil om 29
abs ence</w> 29
Apr il</w> 29
o w</w> 28
c oul 28
c élé 28
i dée</w> 28
e ch</w> 28
t émo 28
é vo 28
p son</w> 28
p ment</w> 28
h an</w> 28
h our</w> 28
r am 28
r ace</w> 28
m as</w> 28
C lu 28
s il 28
s mo 28
s por 28
s cre 28
s port</w> 28
R am 28
v an 28
v rai</w> 28
b ad</w> 28
g le</w> 28
A verage</w> 28
E tats-Unis</w> 28
T ous</w> 28
T ran 28
O r</w> 28
O tt 28
M il 28
M ay 28
k new</w> 28
H E 28
w ed</w> 28
w ro 28
6 6</w> 28
I s</w> 28
8 00</w> 28
7 6</w> 28
in qui 28
in cident</w> 28
er ait</w> 28
on a</w> 28
on z 28
on e- 28
ti r 28
ar ies</w> 28
re y</w> 28
ai son</w> 28
or ation</w> 28
li ers</w> 28
is é</w> 28
ch s</w> 28
ch ers</w> 28
el li 28
el ing</w> 28
el se 28
ic ally</w> 28
av i 28
av anc 28
av antage</w> 28
con vic 28
st ock</w> 28
le ar 28
de m</w> 28
po ste</w> 28
ab lement</w> 28
dé t 28
dé s</w> 28
us ement</w> 28
par mi</w> 28
be au</w> 28
ad ding</w> 28
ré g 28
bu y</w> 28
mi ère</w> 28
ed s</w> 28
man ufac 28
fi x 28
comm and 28
mon tr 28
all ée</w> 28
No .</w> 28
bli oth 28
acc used</w> 28
ma î 28
esti me</w> 28
app li 28
pass age</w> 28
ind re</w> 28
part ement</w> 28
exp enses</w> 28
pour suiv 28
loo d</w> 28
contr ôle</w> 28
ste ad</w> 28
fil ms</w> 28
fon d</w> 28
appe ar</w> 28
concer ns</w> 28
tric k</w> 28
tal ks</w> 28
dom in 28
emplo y 28
mag az 28
mak er</w> 28
aî tre</w> 28
Min is 28
bro ke</w> 28
organis ation</w> 28
tionn elle</w> 28
long temps</w> 28
ple in</w> 28
run s</w> 28
annon ce</w> 28
tour isme</w> 28
cir cu 28
show s</w> 28
lég isl 28
wat ch</w> 28
ajou té</w> 28
hum an</w> 28
auth orities</w> 28
hol ders</w> 28
orig ine</w> 28
fran ch 28
affir me</w> 28
civi li 28
stri ke</w> 28
habit ants</w> 28
exper ts</w> 28
europé enne</w> 28
foc us</w> 28
thé âtre</w> 28
inté ress 28
rul ing</w> 28
employe es</w> 28
techni que</w> 28
seri ous</w> 28
educ ation</w> 28
particuli èrement</w> 28
John son</w> 28
propri ét 28
Secon d</w> 28
wro te</w> 28
S om 27
S hi 27
o y 27
c ab 27
c ath 27
t le</w> 27
t ting</w> 27
p sy 27
h ors</w> 27
n ature</w> 27
a ther</w> 27
m .</w> 27
C ela</w> 27
s in 27
v ite</w> 27
b es</w> 27
b out</w> 27
b aisse</w> 27
d onne</w> 27
L a 27
L ab 27
L ig 27
y eux</w> 27
z u</w> 27
D ie 27
A C 27
P I</w> 27
E ast</w> 27
M ay</w> 27
M ore</w> 27
H a 27
H el 27
H ill 27
f ais 27
w le 27
9 8</w> 27
K e 27
B lo 27
B ul 27
B oo 27
B ill</w> 27
U K</w> 27
in fl 27
er son</w> 27
ti r</w> 27
re qui 27
or es</w> 27
or ie</w> 27
or ies</w> 27
li vre</w> 27
is ra 27
pr ol 27
ac king</w> 27
un s</w> 27
au se</w> 27
con sid 27
st ati 27
st ade</w> 27
le ts</w> 27
ag ers</w> 27
de termin 27
com pe 27
se ems</w> 27
ci ties</w> 27
dé b 27
dé ci 27
par l 27
par ler</w> 27
be came</w> 27
ap préci 27
ad vis 27
ad dition</w> 27
op ened</w> 27
op ping</w> 27
ver saire</w> 27
no te</w> 27
ré cu 27
mo vie</w> 27
ne igh 27
gr av 27
co alition</w> 27
oun t</w> 27
ct u 27
pu ty</w> 27
so on</w> 27
and is</w> 27
vo is 27
onn er</w> 27
ec tion</w> 27
dis ease</w> 27
tri al</w> 27
ouv rir</w> 27
igh ts</w> 27
ep t</w> 27
att a 27
poli tiques</w> 27
acc us 27
me et</w> 27
pi re</w> 27
spe ak</w> 27
cou p 27
tw are</w> 27
pres sure</w> 27
anc y</w> 27
rem ain</w> 27
aur ont</w> 27
mes ures</w> 27
anci ens</w> 27
exp ense</w> 27
rel ations</w> 27
rel ation 27
quar tier</w> 27
Po st</w> 27
oper ation</w> 27
ban k</w> 27
Is lam 27
10 - 27
appro xim 27
star ting</w> 27
atr ice</w> 27
mal gré</w> 27
rece i 27
atten d</w> 27
Sy l 27
Fran c 27
Sen .</w> 27
dri ve</w> 27
municip al</w> 27
nombre uses</w> 27
confi d 27
mani fest 27
affir mé</w> 27
every one</w> 27
every thing</w> 27
acqu isi 27
trad ing</w> 27
fel t</w> 27
sorti e</w> 27
abo ve</w> 27
meil leur</w> 27
Op en</w> 27
préc ise</w> 27
bene fit</w> 27
anni versaire</w> 27
cade aux</w> 27
élè ves</w> 27
adver tis 27
demand é</w> 27
Bern ard</w> 27
regi onal</w> 27
pai x</w> 27
sû r</w> 27
particul arly</w> 27
mortg age</w> 27
Secur ity</w> 27
Mex ico</w> 27
soldi ers</w> 27
equi pment</w> 27
PP P</w> 27
Vir g 27
strateg y</w> 27
Hamp shire</w> 27
S U 26
o d 26
c ore</w> 26
t ty</w> 26
é lev 26
l ou 26
p a 26
p ain 26
h aut</w> 26
h aps</w> 26
C lev 26
s ports</w> 26
R u 26
b a</w> 26
y ant</w> 26
y ard</w> 26
z aine</w> 26
N et 26
D V 26
A F 26
A L</w> 26
V ol 26
M as 26
W it 26
W at 26
f ü 26
f ans</w> 26
f its</w> 26
f ice</w> 26
f ourn 26
0 4</w> 26
B is 26
B us 26
6 00</w> 26
j um 26
2 4, 26
en au</w> 26
in side</w> 26
th - 26
re fer 26
re fu 26
qu esti 26
li ving</w> 26
tr o</w> 26
tr aff 26
it aire</w> 26
al ing</w> 26
al ter 26
pr ou 26
ur ch</w> 26
ac ité</w> 26
ac teurs</w> 26
au me</w> 26
con curr 26
am is</w> 26
st er 26
st ations</w> 26
st yle</w> 26
st aff</w> 26
ag e 26
ag ing</w> 26
ag it</w> 26
ol l</w> 26
de ur</w> 26
se ign 26
ci pe</w> 26
par king</w> 26
ad o</w> 26
ad join 26
sai s</w> 26
vi a</w> 26
no on</w> 26
et h</w> 26
et tre</w> 26
ré v 26
im pression</w> 26
gr âce</w> 26
ct ors</w> 26
to ward</w> 26
vo ters</w> 26
mar qué</w> 26
mon t 26
all - 26
we b 26
wor l 26
wor ked</w> 26
An n 26
t- elle</w> 26
Mar c 26
Al ain</w> 26
sc ore</w> 26
sc ale</w> 26
sc ene</w> 26
pos its</w> 26
spe cial</w> 26
sur ance</w> 26
cont ent</w> 26
rem ains</w> 26
ve z</w> 26
fer mé</w> 26
En ergy</w> 26
uc k 26
fac ili 26
De f 26
contr at</w> 26
cor por 26
quar ter 26
pris on 26
199 9</w> 26
expe ct 26
respon se</w> 26
conn u</w> 26
ban ks</w> 26
fai sait</w> 26
tal k</w> 26
call s</w> 26
dom icile</w> 26
milit aire</w> 26
Gr and</w> 26
exc ell 26
To m</w> 26
proch aine</w> 26
commer ce</w> 26
foo t</w> 26
beg inning</w> 26
buil t</w> 26
esp ace</w> 26
det te</w> 26
det ails</w> 26
Russi an</w> 26
prot est 26
Christ mas</w> 26
spokes woman</w> 26
Thom pson</w> 26
Pa trick</w> 26
Isra el</w> 26
syst ems</w> 26
hun dreds</w> 26
cade au</w> 26
sym bo 26
arri ve</w> 26
diri ge 26
chall enge</w> 26
plann ed</w> 26
recher che</w> 26
piè ce</w> 26
Mari e- 26
Jus tice</w> 26
lors que</w> 26
qué bécois</w> 26
fonc tionn 26
treat ment</w> 26
dossi er</w> 26
Steph en</w> 26
McC ain</w> 26
Centr al</w> 26
prol ong 26
Clev eland</w> 26
S T 25
S w 25
t u</w> 25
l un 25
p in 25
p ense</w> 25
n av 25
a b</w> 25
a than</w> 25
r us 25
J ack 25
J eudi</w> 25
m ir 25
m enti 25
- year-old</w> 25
v ac 25
b ons</w> 25
b ack 25
b omb 25
1 1 25
1 3 25
A l</w> 25
P ho 25
P ow 25
E lec 25
Y an 25
k es</w> 25
k ept</w> 25
H un 25
f ar 25
G az 25
9 7</w> 25
K ing</w> 25
B ay</w> 25
I N</w> 25
8 1</w> 25
an ing</w> 25
th ir 25
ti m 25
ai ly</w> 25
li abilities</w> 25
es pr 25
es pe 25
is ed</w> 25
is ation</w> 25
ch in 25
ch or 25
ch al 25
ch ant 25
al ty</w> 25
as k</w> 25
si f</w> 25
st ep 25
le aving</w> 25
ag ents</w> 25
ro g 25
de clin 25
se em 25
se par 25
wh ole</w> 25
lo in</w> 25
ver si 25
ent ation</w> 25
no i</w> 25
ain te</w> 25
ain ment</w> 25
ter ie</w> 25
ter ms</w> 25
ig ne</w> 25
im mobili 25
he ard</w> 25
ser aient</w> 25
ali tés</w> 25
ali zed</w> 25
tri ed</w> 25
sp i 25
oc key</w> 25
ist an 25
cre ate</w> 25
fin ance</w> 25
str eng 25
rou ge</w> 25
bl ed</w> 25
spe ak 25
car rière</w> 25
aff aire</w> 25
dem and</w> 25
ren contre</w> 25
tem ents</w> 25
posi tif</w> 25
pers onal</w> 25
jo ie</w> 25
cri me</w> 25
Mon t 25
grou pes</w> 25
lic op 25
hu man 25
1, 0 25
ste p</w> 25
U. N.</w> 25
Le ague</w> 25
trans port</w> 25
play er</w> 25
gro s</w> 25
cert aines</w> 25
plac ement</w> 25
anti - 25
rap id 25
stud ent</w> 25
arm ée</w> 25
candid ates</w> 25
retur ned</w> 25
invest ors</w> 25
Pr ince</w> 25
prim ary</w> 25
déf ense</w> 25
actu ellement</w> 25
grow ing</w> 25
prov in 25
économ ique</w> 25
hou sing</w> 25
consi dered</w> 25
Ac cor 25
Ed wards</w> 25
auc une</w> 25
Pu bli 25
canadi enne</w> 25
All em 25
professi onn 25
mondi ale</w> 25
ide a</w> 25
dor f</w> 25
surg ery</w> 25
séri e</w> 25
gran des</w> 25
believ ed</w> 25
élect orale</w> 25
fisc al</w> 25
puis que</w> 25
signific ant</w> 25
Sm ith</w> 25
Bag h 25
enqu ête</w> 25
daugh ter</w> 25
chac un</w> 25
PR New 25
beso in</w> 25
Tex as</w> 25
desp ite</w> 25
peut- être</w> 25
isra éli 25
S ince</w> 24
S imp 24
c ing</w> 24
c ée</w> 24
c ement</w> 24
i h 24
i ev 24
e br 24
t ôt</w> 24
l ack</w> 24
m auv 24
C oll 24
s it 24
s le 24
s ense</w> 24
- based</w> 24
R ud 24
R ock</w> 24
v it 24
b elles</w> 24
d û</w> 24
d ated</w> 24
F C</w> 24
L .</w> 24
L ar 24
z en</w> 24
g an 24
g au 24
g az</w> 24
è de</w> 24
V an 24
P lu 24
T ay 24
T ony</w> 24
O ur</w> 24
M iss 24
f il</w> 24
f réqu 24
Z o 24
an k 24
en reg 24
in dé 24
er ship</w> 24
or g</w> 24
qu et</w> 24
qu ite</w> 24
li ty</w> 24
li ves</w> 24
is - 24
at ti 24
at elli 24
as te</w> 24
ac ting</w> 24
si gn</w> 24
con vi 24
st ore</w> 24
st ood</w> 24
di tional</w> 24
ri es</w> 24
se il</w> 24
pro che</w> 24
dé s 24
par ten 24
lo s</w> 24
ex ten 24
vi vre</w> 24
per met</w> 24
mo itié</w> 24
gr atu 24
so ient</w> 24
pre ci 24
pre ad</w> 24
vo il 24
vo tes</w> 24
vo ie</w> 24
vo ix</w> 24
mar k 24
dis pon 24
dis trict</w> 24
fi er</w> 24
fi que</w> 24
ra dio</w> 24
all on</w> 24
all em 24
ouv r 24
sc ru 24
ell ed</w> 24
fo rec 24
spe c 24
sur prise</w> 24
car ried</w> 24
dev raient</w> 24
pres que</w> 24
pres sed</w> 24
rem is</w> 24
fr ont 24
Con seil</w> 24
fac t</w> 24
Can o 24
sol ution</w> 24
cho ses</w> 24
199 5</w> 24
clo sed</w> 24
plu part</w> 24
envir onnement</w> 24
bro ad 24
provi ded</w> 24
Pe ople</w> 24
mati ère</w> 24
Mus li 24
nor th</w> 24
particip er</w> 24
coll abor 24
génér ale</w> 24
dam age</w> 24
inde x</w> 24
any one</w> 24
inclu des</w> 24
Go vern 24
happ y</w> 24
follow ed</w> 24
Christ op 24
see ing</w> 24
thre at 24
major ity</w> 24
consi der 24
clai med</w> 24
inc en 24
famili es</w> 24
Pet er</w> 24
travail ler</w> 24
gres si 24
At l 24
précis é</w> 24
suspe ct</w> 24
gir l</w> 24
atte int</w> 24
communi qué</w> 24
a. m</w> 24
Tro is</w> 24
perman ence</w> 24
competi tion</w> 24
Eg yp 24
victi ms</w> 24
oeu vre</w> 24
immedi ately</w> 24
kir ch</w> 24
réus si</w> 24
Bow l</w> 24
sof tware</w> 24
tribun al</w> 24
Clu b</w> 24
Minis try</w> 24
Lig ue</w> 24
Accor ding</w> 24
Bagh dad</w> 24
dispon i 24
S ab 23
S OUR 23
o k 23
t aine</w> 23
é ph 23
l et</w> 23
p h</w> 23
h ood</w> 23
r oll 23
m ét 23
C i 23
C ab 23
s ement</w> 23
s we 23
v ou 23
v érit 23
b in</w> 23
b res</w> 23
b ord</w> 23
d is</w> 23
d wide</w> 23
g end 23
è rent</w> 23
N A</w> 23
M ême</w> 23
k ers</w> 23
H oll 23
W estern</w> 23
f un</w> 23
G onz 23
B I</w> 23
B on 23
4 00</w> 23
2 3 23
Ç a</w> 23
an ne</w> 23
an mar</w> 23
en vie</w> 23
th es 23
ti ères</w> 23
ar es</w> 23
re trouver</w> 23
qu alité</w> 23
tr ag 23
es tre</w> 23
ch aî 23
al d</w> 23
em ar 23
em an</w> 23
il la</w> 23
un it</w> 23
av en</w> 23
av ril</w> 23
si ght</w> 23
con dition</w> 23
am our</w> 23
st ly</w> 23
ag r 23
ag g 23
pl ant</w> 23
se um</w> 23
pro vo 23
ci tiz 23
eu s</w> 23
lo an</w> 23
ad ress 23
ex pos 23
ex tra 23
op ening</w> 23
ré s 23
ré es</w> 23
ré gl 23
ré seau</w> 23
ct ing</w> 23
cl és</w> 23
cl air</w> 23
cl assi 23
bu ts</w> 23
pré f 23
onn es</w> 23
comm ander</w> 23
mon d</w> 23
Th en</w> 23
comp ens 23
In come</w> 23
off ert</w> 23
bo t 23
Al though</w> 23
ma i</w> 23
iv es</w> 23
ell er</w> 23
Qu e 23
ach iev 23
sur ve 23
jus ti 23
dev ra</w> 23
pres s</w> 23
rem ise</w> 23
rem porté</w> 23
eff ic 23
fer me</w> 23
fr app 23
wi hr</w> 23
Par ti</w> 23
cul ture</w> 23
prés ent</w> 23
trav ers</w> 23
id a</w> 23
exp éri 23
pour raient</w> 23
loo ked</w> 23
gar dien</w> 23
2, 5 23
eng ine 23
ori al</w> 23
Mo sco 23
Mo ham 23
fe et</w> 23
og ue</w> 23
sol d 23
vir tu 23
dou b 23
prom is</w> 23
cel ebr 23
bus in 23
entre - 23
cré é</w> 23
cré er</w> 23
proc e 23
chang ed</w> 23
So ci 23
bor n</w> 23
Chr is</w> 23
commer ci 23
trai ts</w> 23
éd é</w> 23
né ces 23
popul ar</w> 23
lim ited</w> 23
Ph il 23
Lu ci 23
cons ist 23
lib ér 23
al- Q 23
Gi ants</w> 23
jud ici 23
pol lu 23
Nov .</w> 23
Pa tri 23
centr al</w> 23
colle ction</w> 23
différ ents</w> 23
quali ty</w> 23
Dar four</w> 23
Juli e</w> 23
capit ale</w> 23
tit le</w> 23
assist ance</w> 23
My anmar</w> 23
lan gu 23
chall eng 23
neu f</w> 23
cit oy 23
syn dic 23
trop h 23
IL L 23
aven ir</w> 23
recor ds</w> 23
proper ty</w> 23
assass in 23
mur der</w> 23
Oli vier</w> 23
after noon</w> 23
preu ve</w> 23
éner gie</w> 23
Ott awa</w> 23
magaz ine</w> 23
traff ic</w> 23
Allem agne</w> 23
SOUR CE</w> 23
S a 22
S and 22
o te</w> 22
c al</w> 22
c ars</w> 22
e ure</w> 22
e ither</w> 22
t ests</w> 22
é gi 22
é cou 22
h r 22
n es 22
r y 22
J on 22
m ir</w> 22
m oun 22
m att 22
m ains</w> 22
C el 22
s u</w> 22
s un 22
R I 22
d yn 22
F am 22
F ederal</w> 22
L O 22
g - 22
g ain</w> 22
D re 22
A B 22
A ri 22
V e 22
V I 22
P as</w> 22
T H 22
T ON</w> 22
M M 22
M ou 22
M any</w> 22
M id 22
M icro 22
k in</w> 22
H agu 22
f lu 22
G A 22
G ir 22
9 3</w> 22
à - 22
B BC</w> 22
I ran 22
. c 22
. s 22
2 2 22
in str 22
er ve</w> 22
on ship</w> 22
ar ily</w> 22
re ad</w> 22
re porters</w> 22
li day</w> 22
tr ice</w> 22
it ems</w> 22
al though</w> 22
pr ati 22
at mo 22
ati e</w> 22
st o 22
ag s</w> 22
ag ence</w> 22
se x</w> 22
se l</w> 22
dé fin 22
ap pr 22
ap poin 22
lo ve</w> 22
lo sing</w> 22
ver se</w> 22
ré serv 22
ét és</w> 22
for te</w> 22
for war 22
gr ève</w> 22
end ro 22
ay ed</w> 22
mi - 22
pré sidenti 22
ér ature</w> 22
pre me</w> 22
Ch il 22
min e</w> 22
bi o 22
der rière</w> 22
illi r</w> 22
rec ru 22
rec alled</w> 22
In c.</w> 22
off re</w> 22
off ered</w> 22
An der 22
ho tel</w> 22
fin alement</w> 22
Al t 22
Al so</w> 22
lu mière</w> 22
gu ard</w> 22
ru les</w> 22
est ate</w> 22
ach ing</w> 22
éri que</w> 22
aff ich 22
tic kets</w> 22
ans as</w> 22
nouv el</w> 22
prof on 22
prof it 22
mé dic 22
pour quoi</w> 22
1, 3 22
cor rec 22
govern or</w> 22
3, 4 22
sal ari 22
ord on</w> 22
arr êt</w> 22
sho p</w> 22
shi ps</w> 22
reg ard</w> 22
199 7</w> 22
199 8</w> 22
jec t</w> 22
respon sible</w> 22
sign é</w> 22
concer n 22
tal ent</w> 22
tal king</w> 22
num bers</w> 22
appro ved</w> 22
olog ical</w> 22
long ue</w> 22
Pe ti 22
kill ing</w> 22
conse iller</w> 22
nor mal</w> 22
particip ants</w> 22
i- même</w> 22
cô tés</w> 22
bri dge</w> 22
trouv é</w> 22
act or</w> 22
cam p</w> 22
comb at</w> 22
bless é</w> 22
activ ité</w> 22
gen re</w> 22
ate gi 22
économ ie</w> 22
cep endant</w> 22
Scot land</w> 22
fig ure</w> 22
pur ch 22
colle ge</w> 22
need s</w> 22
Pu is</w> 22
meil le 22
étu de</w> 22
étu des</w> 22
voy age</w> 22
distribu tion</w> 22
rais ed</w> 22
Ham as</w> 22
ext rem 22
accoun ts</w> 22
consum ers</w> 22
rapp el 22
docu ment 22
lanc é</w> 22
consom mat 22
consom mation</w> 22
visit eurs</w> 22
chem in</w> 22
meas ures</w> 22
origin al</w> 22
Willi ams</w> 22
ologi es</w> 22
Por tu 22
Tor onto</w> 22
environ mental</w> 22
sap in</w> 22
ches ter</w> 22
emerg ency</w> 22
dit - 22
consé qu 22
grad u 22
bom b</w> 22
commenc é</w> 22
Inv est 22
marg in</w> 22
scho ols</w> 22
brou ght</w> 22
intér êt</w> 22
legisl ation</w> 22
seem ed</w> 22
Simp son</w> 22
Plu sieurs</w> 22
atmo sp 22
S au 21
S he 21
c er</w> 21
i k 21
i ed</w> 21
i tion</w> 21
t al</w> 21
t aire</w> 21
t ine</w> 21
t elling</w> 21
t esting</w> 21
p ush 21
h as 21
h eur</w> 21
n ine</w> 21
n atur 21
n amed</w> 21
m êmes</w> 21
C re 21
C rai 21
s anc 21
s atelli 21
R adi 21
v ê 21
v ain</w> 21
v éné 21
b ly</w> 21
b ass 21
b ande</w> 21
d its</w> 21
F is 21
F our 21
L yon</w> 21
N ations</w> 21
D r 21
D on 21
D ou 21
V ene 21
E sp 21
T al 21
M r 21
M et 21
M ass 21
M aur 21
Y ou 21
H or 21
H ome</w> 21
W in 21
W rit 21
f m</w> 21
G il 21
G ro 21
G ordon</w> 21
B ell</w> 21
. org</w> 21
j ard 21
an while</w> 21
an gible</w> 21
en vo 21
in - 21
on ing</w> 21
ti s</w> 21
ti ens</w> 21
re t</w> 21
re ason</w> 21
ai ses</w> 21
li eux</w> 21
is er</w> 21
is chen</w> 21
ch u 21
ch airman</w> 21
al sac 21
at - 21
ur ing</w> 21
el op</w> 21
em y</w> 21
il ed</w> 21
il legal</w> 21
si c</w> 21
si di 21
con centr 21
st ed</w> 21
le ague</w> 21
de partment</w> 21
po or</w> 21
pro gress</w> 21
ab and 21
eu x- 21
ent rer</w> 21
per mettre</w> 21
mo ved</w> 21
cl am 21
he aring</w> 21
mi d- 21
fro id</w> 21
pre tty</w> 21
vo ice</w> 21
do or</w> 21
fi d 21
ten ue</w> 21
tri p</w> 21
Th ose</w> 21
comp éti 21
In don 21
sp end</w> 21
bo y</w> 21
Al i</w> 21
me ur 21
gu ards</w> 21
str ai 21
bl ing</w> 21
serv ed</w> 21
St .</w> 21
est abli 21
tou ché</w> 21
mer t</w> 21
ph on 21
port ée</w> 21
mat es</w> 21
anc ed</w> 21
Ro ger</w> 21
eff ici 21
fer a</w> 21
cr is 21
Con ference</w> 21
jou eur</w> 21
nati ve</w> 21
posi tive</w> 21
je un 21
ris ing</w> 21
des c 21
fac tors</w> 21
anci enne</w> 21
cour ant</w> 21
hu ge</w> 21
ju ge</w> 21
eng agement</w> 21
ori z 21
cro y 21
sé lec 21
ens ure</w> 21
eur o</w> 21
Au th 21
Su preme</w> 21
prom p 21
sub st 21
sen si 21
vol un 21
dro its</w> 21
iz ed</w> 21
dic t</w> 21
dic tion</w> 21
spo ke</w> 21
mus ée</w> 21
appro ach</w> 21
char ac 21
Ab d 21
heal thy</w> 21
Ste ve</w> 21
over all</w> 21
ca des</w> 21
To day</w> 21
Ex change</w> 21
rac y</w> 21
ref lec 21
probl èmes</w> 21
Sy ri 21
Ger many</w> 21
améric ains</w> 21
dér oul 21
writ er</w> 21
writ ten</w> 21
hol ding</w> 21
see m</w> 21
stre et</w> 21
respe ct</w> 21
Ma j 21
cep tion</w> 21
mani ère</w> 21
princip al</w> 21
Scot tish</w> 21
fig ures</w> 21
tiv ely</w> 21
ty pe</w> 21
effec t</w> 21
terror ist</w> 21
moy ens</w> 21
particu lier</w> 21
Juli en</w> 21
bil an</w> 21
reb els</w> 21
impro ve</w> 21
commit tee</w> 21
redu ce</w> 21
secre t</w> 21
secre tary</w> 21
docu ments</w> 21
sym p 21
zu éli 21
dg ed</w> 21
siè cle</w> 21
plann ing</w> 21
augment ation</w> 21
étr ang 21
ferm ée</w> 21
Goo gle</w> 21
cotsman .com</w> 21
cotsman .s 21
véhic ule</w> 21
simil ar</w> 21
compu ter</w> 21
heu reux</w> 21
materi al</w> 21
solu tions</w> 21
chiff re</w> 21
propr e</w> 21
pharmac ie</w> 21
minim um</w> 21
suppl ément 21
practi ce</w> 21
success ful</w> 21
intellig ence</w> 21
blioth èque</w> 21
Hill ary</w> 21
fais ant</w> 21
approxim ately</w> 21
thes cotsman.s 21
extra ordin 21
.c fm</w> 21
véné zuéli 21
thescotsman.s cotsman.com</w> 21
S es</w> 20
S pr 20
S ol 20
S ports</w> 20
o ise</w> 20
c ell 20
c elles</w> 20
e f 20
t ue</w> 20
t andis</w> 20
é die</w> 20
é missions</w> 20
p ir 20
n al</w> 20
n aissance</w> 20
a f</w> 20
a éri 20
r h 20
r ôle</w> 20
J ud 20
m il 20
C r 20
C F</w> 20
C all</w> 20
C amp 20
s embl 20
R ev 20
v an</w> 20
v ices</w> 20
b en 20
b ran 20
d ress 20
L t 20
L it 20
L au 20
L am 20
è ques</w> 20
è vement</w> 20
1 5, 20
D ay</w> 20
D esp 20
D NA</w> 20
A G 20
A M</w> 20
A ra 20
A ut 20
A tt 20
V in 20
P ol 20
P our 20
E L 20
T ali 20
O L 20
O ri 20
M ag 20
H us 20
f res 20
f ast</w> 20
9 - 20
K y 20
K ur 20
ç ant</w> 20
U PI</w> 20
Z e 20
I l 20
j un 20
ä n 20
7 00</w> 20
É g 20
en vis 20
in ed</w> 20
in et</w> 20
in te 20
in jur 20
in surance</w> 20
er sheim</w> 20
ar rest</w> 20
re ly</w> 20
re ve 20
re sidents</w> 20
qu in 20
tr ait</w> 20
is si 20
ur ation</w> 20
el se</w> 20
el ine</w> 20
as king</w> 20
ac ted</w> 20
au s</w> 20
au to 20
con vo 20
con tres</w> 20
con clu 20
am én 20
am éli 20
de cl 20
po int 20
pro ches</w> 20
dé cl 20
ad el 20
ad ditional</w> 20
vi ennent</w> 20
ent ure</w> 20
per haps</w> 20
mo stly</w> 20
res sed</w> 20
gr ade</w> 20
to ires</w> 20
ser t</w> 20
ali ment 20
ak es</w> 20
so l</w> 20
mi le</w> 20
pré voit</w> 20
ér ence</w> 20
ed a</w> 20
ass ure</w> 20
do g</w> 20
onn at</w> 20
dis par 20
mon tant</w> 20
ra le</w> 20
ra ch 20
go als</w> 20
gh out</w> 20
comp ter</w> 20
off ers</w> 20
ev in</w> 20
bo x</w> 20
ail les</w> 20
Al - 20
Al ors</w> 20
inter net</w> 20
lu tte</w> 20
acc ro 20
gu eur</w> 20
serv ing</w> 20
St éph 20
ma xim 20
iv al 20
spe ech</w> 20
ach u 20
car te</w> 20
e- t-il</w> 20
dev elop</w> 20
mat ches</w> 20
la h</w> 20
Ro dri 20
aff ected</w> 20
cr ash</w> 20
dem i- 20
ow ners</w> 20
produ ire</w> 20
tem por 20
tra eus</w> 20
trav er 20
trav el</w> 20
pass es</w> 20
pass eng 20
ant a</w> 20
cap able</w> 20
dr inking</w> 20
1, 000</w> 20
sor te</w> 20
Mo st</w> 20
met ure</w> 20
vic time</w> 20
Au jourd'</w> 20
lev els</w> 20
Col or 20
cert aine</w> 20
cid ents</w> 20
anti cip 20
val eur</w> 20
fai ts</w> 20
fai tes</w> 20
Bl air</w> 20
proc ès</w> 20
sim ply</w> 20
possi bilité</w> 20
arm ed</w> 20
Ste in 20
bor row 20
Ser vices</w> 20
Pe traeus</w> 20
asse z</w> 20
candid at</w> 20
ish ing</w> 20
Or gan 20
probl ème</w> 20
cir const 20
cir culation</w> 20
let ter</w> 20
stand ard</w> 20
cons ac 20
wat ching</w> 20
arti stes</w> 20
Cor por 20
Nic ole</w> 20
writ ers</w> 20
Russi e</w> 20
auth or</w> 20
cal cul 20
prot ég 20
fri ends</w> 20
happ en</w> 20
happ ened</w> 20
bless és</w> 20
see king</w> 20
differ ence</w> 20
Te ch 20
thre at</w> 20
chau d</w> 20
condu cted</w> 20
pol y 20
tent é</w> 20
fas hi 20
US A</w> 20
Aug .</w> 20
dru gs</w> 20
inscri ptions</w> 20
confir med</w> 20
tab le 20
contribu ted</w> 20
Ear lier</w> 20
accomp agn 20
difficul t</w> 20
oli que</w> 20
retrouv é</w> 20
sex u 20
Cou pe</w> 20
écri t</w> 20
Goo d 20
mod èle</w> 20
week end</w> 20
immigr ation</w> 20
Alex and 20
présid ente</w> 20
add ress</w> 20
assu rer</w> 20
influ ence</w> 20
établi ssement</w> 20
territ oire</w> 20
Eng lish</w> 20
Flor ida</w> 20
bâ ti 20
ING TON</w> 20
évén ement</w> 20
albu m</w> 20
attor ney</w> 20
Cert ains</w> 20
Mil an</w> 20
seign ements</w> 20
adjoin ts</w> 20
gau che</w> 20
mark eting</w> 20
dyn am 20
Micro soft</w> 20
Hagu enau</w> 20
Crai g</w> 20
sanc tions</w> 20
Tali ban</w> 20
S '</w> 19
S I 19
S . 19
c our</w> 19
c ité</w> 19
c élè 19
i j 19
i ors</w> 19
e yes</w> 19
t ons</w> 19
t ait</w> 19
t esti 19
t omb 19
é rer</w> 19
l - 19
l aisse</w> 19
p les</w> 19
p eur</w> 19
p ain</w> 19
p hi 19
h a</w> 19
h onn 19
n y</w> 19
n ar 19
n atu 19
a de 19
r ad 19
r ain</w> 19
r ise</w> 19
m ée</w> 19
C D</w> 19
C op 19
C ir 19
C ul 19
C iti 19
s ons</w> 19
s ely</w> 19
R E 19
R et 19
R ec 19
R ep 19
v illes</w> 19
d é</w> 19
d as</w> 19
d anger</w> 19
F u 19
F eder 19
F ern 19
L an 19
L or 19
L and 19
y land</w> 19
y ond</w> 19
g ar</w> 19
g ement</w> 19
g ment</w> 19
N '</w> 19
1 2, 19
1 1, 19
1 4, 19
D on</w> 19
A in 19
V ille</w> 19
P S</w> 19
E ven</w> 19
T y 19
T ra 19
T hi 19
M ath 19
k y 19
k ids</w> 19
H an 19
H er</w> 19
H ir 19
H um 19
w est</w> 19
G ab 19
G ér 19
G ra 19
B en</w> 19
U N</w> 19
I r 19
2 6 19
2 7, 19
in ju 19
in nov 19
ou tre</w> 19
ti enne</w> 19
re pe 19
re comm 19
re mer 19
or ph 19
or dered</w> 19
li f 19
tr im 19
it z 19
it or</w> 19
om s</w> 19
at tr 19
el ess</w> 19
em ain</w> 19
as pe 19
si t</w> 19
con str 19
am id</w> 19
st op 19
di al 19
di vin</w> 19
le il</w> 19
le ge</w> 19
le quel</w> 19
ag gres 19
su sc 19
ro b 19
ri ch 19
ri re</w> 19
de cre 19
de plo 19
de venu</w> 19
se - 19
pro g 19
pro pos</w> 19
ci ally</w> 19
par k</w> 19
ad en</w> 19
ex change</w> 19
ex iste</w> 19
vi ties</w> 19
ent - 19
ré sid 19
ré col 19
ré forme</w> 19
mo tiv 19
ul aire</w> 19
oun ding</w> 19
ay er</w> 19
pu tation</w> 19
to s</w> 19
pré vu</w> 19
ed ly</w> 19
ill on</w> 19
onn aire</w> 19
mar ks</w> 19
ss é</w> 19
dis position</w> 19
ann ual</w> 19
fi red</w> 19
comm ents</w> 19
ten te</w> 19
cu is 19
tri ème</w> 19
comp lic 19
In fo 19
oc ks</w> 19
off s</w> 19
ob jet</w> 19
ob tenir</w> 19
ev ents</w> 19
ev ening</w> 19
um s</w> 19
att aque</w> 19
sc ol 19
vis ions</w> 19
én om 19
ru ption</w> 19
str ategi 19
rou tes</w> 19
ang er 19
él us</w> 19
ess or</w> 19
inv ent 19
inv ités</w> 19
soci ale</w> 19
Qu ant</w> 19
ph ys 19
ph énom 19
sou th</w> 19
sou ght</w> 19
mat chs</w> 19
éri e</w> 19
mis sing</w> 19
ren contres</w> 19
produ ced</w> 19
aur aient</w> 19
cul tu 19
cri tici 19
Jo e</w> 19
sel f- 19
des ign</w> 19
fac es</w> 19
fac ed</w> 19
loc ation</w> 19
Ar t</w> 19
Ar my</w> 19
prof its</w> 19
ais ons</w> 19
can not</w> 19
ath s</w> 19
war ned</w> 19
cro ss</w> 19
sal u 19
acti vities</w> 19
quar ters</w> 19
cho c</w> 19
ash ed</w> 19
Bo b</w> 19
Bo th</w> 19
prom ise</w> 19
ini que</w> 19
Di rect 19
dro p</w> 19
issu ed</w> 19
Li ber 19
inst ant</w> 19
journ alistes</w> 19
Pl at 19
ple ine</w> 19
curr ently</w> 19
beg in</w> 19
reven u</w> 19
buil d</w> 19
Mus ée</w> 19
coll ap 19
tour noi</w> 19
mal adi 19
larg ely</w> 19
explo sion</w> 19
ajou te</w> 19
emp ê 19
log ement</w> 19
jud ge</w> 19
law yers</w> 19
vent ure</w> 19
Em man 19
eas y</w> 19
pati ent</w> 19
susp ici 19
clai ms</w> 19
Er stein</w> 19
prote ct</w> 19
Ren é</w> 19
discus s</w> 19
tradi tional</w> 19
tradi tionnel</w> 19
conserv ative</w> 19
rédu ction</w> 19
Kore an</w> 19
bene fits</w> 19
consum er</w> 19
Bre teau</w> 19
Bas - 19
Afric an</w> 19
ner ship</w> 19
dan se</w> 19
Dur ing</w> 19
repres ents</w> 19
Ol mert</w> 19
Canadi ens</w> 19
eli min 19
institu tions</w> 19
meas ure</w> 19
Jap an</w> 19
élect or 19
automo bile</w> 19
véhic ules</w> 19
fau dr 19
oubli er</w> 19
usu ally</w> 19
independ ent</w> 19
mach ine</w> 19
pouv ait</w> 19
lend emain</w> 19
Sti ll</w> 19
Institu te</w> 19
assembl ée</w> 19
kilom ètres</w> 19
célé br 19
législ atives</w> 19
acquisi tion</w> 19
fü r</w> 19
web site</w> 19
espr it</w> 19
declin ed</w> 19
Christop he</w> 19
vérit able</w> 19
Patri ots</w> 19
Jon athan</w> 19
Iran ian</w> 19
présidenti elle</w> 19
Alt kirch</w> 19
Vene zu 19
inte gr 19
Color ado</w> 19
Ain si</w> 19
remer ci 19
S A</w> 18
o ires</w> 18
c ue</w> 18
c af 18
c ell</w> 18
i al</w> 18
e k</w> 18
e in 18
e ar</w> 18
t ap 18
t els</w> 18
é pou 18
é dition</w> 18
é lection</w> 18
l or</w> 18
l am</w> 18
l ess 18
p age</w> 18
p oll 18
h en</w> 18
h at</w> 18
h ands</w> 18
n ord</w> 18
a j 18
m age</w> 18
m ail</w> 18
m ètres</w> 18
C ô 18
C et</w> 18
s ation</w> 18
s ong 18
s auv 18
R on 18
R us 18
R ay 18
v in 18
v ali 18
b en</w> 18
b ann 18
d a 18
F ed</w> 18
F oo 18
F ord</w> 18
L E</w> 18
z a</w> 18
z ona</w> 18
g el 18
g agné</w> 18
g agner</w> 18
è se</w> 18
1 1. 18
D r</w> 18
D F</w> 18
D et 18
A U 18
P en 18
E T</w> 18
T our</w> 18
O s 18
M P</w> 18
M ah 18
H INGTON</w> 18
W as</w> 18
W AS 18
W ILL 18
f at 18
f eu 18
f ur</w> 18
w ait</w> 18
K r 18
K le 18
B ai 18
B ud 18
U r 18
2 e</w> 18
an ch 18
an ese</w> 18
en er</w> 18
in aug 18
er ved</w> 18
ti e</w> 18
ar my</w> 18
re té</w> 18
qu ée</w> 18
qu és</w> 18
li en</w> 18
tr uc 18
es ch 18
es sions</w> 18
it t</w> 18
it ter</w> 18
is sait</w> 18
ch ev 18
ch auss 18
ch ron 18
ch urch</w> 18
em ps</w> 18
as t 18
as tron 18
il le 18
ati n</w> 18
au f</w> 18
av ali 18
av ance</w> 18
si ze</w> 18
con ci 18
di que</w> 18
ag ré 18
su e</w> 18
ro s</w> 18
ri ers</w> 18
de posits</w> 18
po st</w> 18
po wer 18
se as 18
dé g 18
dé faite</w> 18
dé partement</w> 18
par c</w> 18
be yond</w> 18
ad joint</w> 18
op tion</w> 18
op tions</w> 18
ent our 18
et - 18
et ings</w> 18
mo vement</w> 18
bu re 18
ak er</w> 18
ér o</w> 18
fi el 18
hi o</w> 18
ten us</w> 18
we aring</w> 18
ouv re</w> 18
wor th</w> 18
No tre</w> 18
sp on 18
oc racy</w> 18
An ne</w> 18
ob s 18
um es</w> 18
ho t</w> 18
fin ished</w> 18
poli tics</w> 18
ven ant</w> 18
acc ès</w> 18
me etings</w> 18
gu ar 18
str ong 18
rou gh 18
bl anc</w> 18
ang es</w> 18
enti al</w> 18
enti re</w> 18
Qu and</w> 18
cer ti 18
ach es</w> 18
sur vi 18
cont em 18
car ry</w> 18
port ent</w> 18
int ure</w> 18
dem ment</w> 18
dem ain</w> 18
Con cer 18
cau sed</w> 18
tra dition</w> 18
Com mit 18
coun ty</w> 18
des ig 18
air line</w> 18
dr am 18
2, 6 18
fu sion</w> 18
contr oll 18
har d 18
war ning</w> 18
ret ail 18
Sch ool</w> 18
bour ge 18
The ir</w> 18
fil ed</w> 18
personn ages</w> 18
throu ghout</w> 18
Sain t</w> 18
plac ed</w> 18
clu bs</w> 18
entre vue</w> 18
cid ent 18
appe ar 18
gre w</w> 18
vol on 18
cré ation</w> 18
dro pped</w> 18
Ho sp 18
Qué bécois</w> 18
milit ants</w> 18
Af rique</w> 18
Nor thern</w> 18
associ ations</w> 18
mus ici 18
some times</w> 18
indi que</w> 18
long er</w> 18
spect ateurs</w> 18
cent aines</w> 18
For mer</w> 18
cher ch 18
provi ding</w> 18
nor thern</w> 18
Ri ver</w> 18
popul aire</w> 18
announ cement</w> 18
Ben o 18
fav eur</w> 18
2- 0</w> 18
hand ic 18
larg er</w> 18
Ger man</w> 18
cons ci 18
cat ég 18
Hu go</w> 18
expli qué</w> 18
assur ance</w> 18
san g</w> 18
bon heur</w> 18
accue ill 18
souv en 18
accep ted</w> 18
sorti r</w> 18
photo graph 18
del à</w> 18
head s</w> 18
préc éd 18
sour ces</w> 18
stor es</w> 18
Tur key</w> 18
class es</w> 18
canadi en</w> 18
batt le</w> 18
professi onal</w> 18
difficul tés</w> 18
regul ar</w> 18
visit ors</w> 18
crimin al</w> 18
laun ch</w> 18
Nouv el</w> 18
Ti me</w> 18
tan gible</w> 18
Dev elop 18
automo bili 18
chap elle</w> 18
au- delà</w> 18
bab y</w> 18
shoo ting</w> 18
polici ers</w> 18
reco gni 18
negoti ations</w> 18
hur t</w> 18
crè che</w> 18
communic ations</w> 18
Black water</w> 18
ativ ely</w> 18
avoc at</w> 18
Sud an</w> 18
p. m</w> 18
manufac tur 18
employ és</w> 18
civili an</w> 18
Die go</w> 18
relation ship</w> 18
advertis ing</w> 18
worl dwide</w> 18
rus se</w> 18
Yan ke 18
Gaz a</w> 18
espe cially</w> 18
rapid ement</w> 18
expéri ence</w> 18
sold ats</w> 18
Phil adel 18
Ari zona</w> 18
GA AP</w> 18
natur al</w> 18
Four th</w> 18
compéti tion</w> 18
Indon es 18
strai ght</w> 18
Desp ite</w> 18
Ara b</w> 18
injur ies</w> 18
Gér ard</w> 18
WAS HINGTON</w> 18
Commit tee</w> 18
Philadel phi 18
S oul 17
S aver 17
c les</w> 17
c ally</w> 17
c ant 17
e e</w> 17
e ce</w> 17
e uses</w> 17
é cu 17
p é</w> 17
p ak 17
p per</w> 17
p ush</w> 17
h oo 17
h one</w> 17
h its</w> 17
h ockey</w> 17
n app 17
â teau</w> 17
r o</w> 17
r ant</w> 17
r are</w> 17
C C 17
C ri 17
C our</w> 17
s én 17
s ond 17
R O 17
R ed 17
v ins</w> 17
b é 17
b y 17
b ar</w> 17
b ig 17
d ant</w> 17
d anger 17
F êtes</w> 17
L et</w> 17
y en</w> 17
y cl 17
g li 17
g ath 17
g gl 17
è nes</w> 17
D er 17
D or 17
D ol 17
A no 17
V is 17
V ous</w> 17
P ré 17
E M 17
E li 17
E sch 17
O d 17
O hio</w> 17
Y et</w> 17
H i 17
H O 17
H aw 17
H uck 17
W is 17
G al 17
K u 17
K ir 17
K ing 17
K evin</w> 17
B A</w> 17
B AN 17
Z im 17
2 1 17
en h 17
en jo 17
in i</w> 17
in ent</w> 17
in no 17
in son</w> 17
in stead</w> 17
th an 17
on str 17
ou est</w> 17
ti tres</w> 17
ar i</w> 17
ar ts</w> 17
ar gu 17
re urs</w> 17
re mon 17
re place</w> 17
re view</w> 17
ai e</w> 17
or ic</w> 17
li es</w> 17
li ved</w> 17
li stes</w> 17
tr om 17
es c 17
it self</w> 17
is ol 17
is ses</w> 17
al ed</w> 17
pr on 17
pr int 17
at i</w> 17
il ing</w> 17
si que</w> 17
con stat 17
st ocks</w> 17
de al 17
de ep</w> 17
de cades</w> 17
com pris</w> 17
po ol</w> 17
se cré 17
pro p 17
pro - 17
dé termin 17
us er</w> 17
par avant</w> 17
par cours</w> 17
ad or</w> 17
ex ig 17
ex clu 17
ex act 17
vi g 17
vi dé 17
ent ing</w> 17
ent ert 17
no ted</w> 17
no wle 17
ré p 17
ré fle 17
ét o 17
per su 17
per for 17
mo de</w> 17
mo del</w> 17
for êt</w> 17
ne ar 17
res tric 17
co de</w> 17
te en 17
he ar</w> 17
to m</w> 17
ak i</w> 17
mi x 17
ing ing</w> 17
bi a</w> 17
ill ustr 17
onn aires</w> 17
mar che</w> 17
ss er</w> 17
ss ements</w> 17
dis cours</w> 17
ann u 17
mon ie</w> 17
go û 17
In d 17
um ents</w> 17
ail l 17
att ended</w> 17
poli s</w> 17
inter nationale</w> 17
inter prét 17
lu i-même</w> 17
form s</w> 17
gu il 17
déc ès</w> 17
milli ard</w> 17
pos er</w> 17
Qu el 17
cou ps</w> 17
cont rer</w> 17
tw ice</w> 17
mat éri 17
Ro d 17
Ro ad</w> 17
Ro ss 17
fr ag 17
tur al</w> 17
ow ner</w> 17
aut on 17
ren tr 17
poin te</w> 17
Con serv 17
col om 17
jo in</w> 17
cri tical</w> 17
En tre 17
org es</w> 17
mu sul 17
part ners</w> 17
des sus</w> 17
fac ing</w> 17
fac ile</w> 17
low - 17
rel atively</w> 17
pour ra</w> 17
mor al</w> 17
ari o</w> 17
uni versity</w> 17
air port</w> 17
Cl em 17
bas es</w> 17
Ira k</w> 17
contr ô 17
ret agne</w> 17
cor respon 17
Mo ts</w> 17
3, 7 17
chan ces</w> 17
alis er</w> 17
ord ers</w> 17
acti fs</w> 17
Su b 17
fl am 17
cho eur</w> 17
reg is 17
199 4</w> 17
présent er</w> 17
Col lege</w> 17
rai d</w> 17
cli ent</w> 17
appe ars</w> 17
sen iors</w> 17
gre ater</w> 17
vol u 17
Be au 17
aw are</w> 17
spo t</w> 17
Me anwhile</w> 17
dom esti 17
chang ing</w> 17
anim aux</w> 17
anim als</w> 17
appro pri 17
mag ni 17
mak ers</w> 17
Min nes 17
investi ssement</w> 17
cin éma</w> 17
over se 17
fun d</w> 17
cent ury</w> 17
qua trième</w> 17
elec tions</w> 17
ck er</w> 17
conf lic 17
win ner</w> 17
Dav is</w> 17
tour istes</w> 17
Har per</w> 17
under stand</w> 17
bri ef 17
sear ch</w> 17
inde x 17
develop ing</w> 17
Man chester</w> 17
quo ti 17
actu ally</w> 17
champi ons</w> 17
isl am 17
réalis é</w> 17
Christ ine</w> 17
activ ity</w> 17
thre e- 17
stre am</w> 17
stre ets</w> 17
Sec ret 17
accue illir</w> 17
suff ered</w> 17
identi fied</w> 17
Du b 17
princip aux</w> 17
centr ale</w> 17
pap er</w> 17
pap ier</w> 17
artic les</w> 17
inscri t</w> 17
moy en</w> 17
moy enne</w> 17
deli very</w> 17
aï da</w> 17
rapp elle</w> 17
set ting</w> 17
hop es</w> 17
Mat t</w> 17
mondi al</w> 17
suspe cts</w> 17
Cham pi 17
enci es</w> 17
imag in 17
laun ched</w> 17
cru de</w> 17
driv en</w> 17
ense ign 17
pit ch</w> 17
NE W</w> 17
festi val</w> 17
estim ated</w> 17
wr ong</w> 17
abe e</w> 17
attemp t</w> 17
Hau t- 17
conne ction</w> 17
struct ure</w> 17
Rou ge</w> 17
négoci ations</w> 17
mouv ement</w> 17
Colombi e</w> 17
tch adi 17
Ry an</w> 17
régu li 17
vehic les</w> 17
méd aille</w> 17
médec in</w> 17
chocol at</w> 17
keep ing</w> 17
SN CF</w> 17
CN N</w> 17
coul dn</w> 17
HE I 17
tir s</w> 17
convic tion</w> 17
infl ation</w> 17
parl ement 17
neigh bor 17
DV D</w> 17
Bus iness</w> 17
corpor ate</w> 17
thir d- 17
separ ate</w> 17
Publi c</w> 17
Tay lor</w> 17
citiz ens</w> 17
busin esses</w> 17
assassin at</w> 17
forwar d- 17
satelli te</w> 17
Mass achu 17
Lt d</w> 17
Corpor ation</w> 17
Citi group</w> 17
inju red</w> 17
orph el 17
Info s</w> 17
Emman uel</w> 17
élector ales</w> 17
Hosp ital</w> 17
pak istan 17
Ano ther</w> 17
Huck abee</w> 17
S a</w> 16
S ci 16
S tu 16
o x 16
u red</w> 16
c en 16
c entre- 16
e ast</w> 16
t op 16
t ées</w> 16
t ack 16
t aille</w> 16
é car 16
l ancer</w> 16
p ages</w> 16
p air</w> 16
h aven</w> 16
n one</w> 16
a g</w> 16
a x 16
a eda</w> 16
â le</w> 16
â gé</w> 16
r ar 16
r is</w> 16
r ay 16
J ord 16
J ason</w> 16
m el 16
m igr 16
s or</w> 16
s age</w> 16
s ound</w> 16
s wi 16
s aw</w> 16
- D 16
R ock 16
v .</w> 16
v allée</w> 16
q na</w> 16
b lood</w> 16
d ent</w> 16
F T 16
L at 16
L uc 16
L ight 16
y right</w> 16
y wood</w> 16
z ation</w> 16
g un 16
g al</w> 16
g lo 16
g ér 16
g ains</w> 16
1 03</w> 16
D - 16
D . 16
D jam 16
A ct</w> 16
V an</w> 16
P aci 16
T er 16
T el 16
O ver</w> 16
O ut 16
M s</w> 16
M E</w> 16
M el 16
M ac 16
M iss</w> 16
M aison</w> 16
Y oun 16
Y ves</w> 16
Y OR 16
H igh</w> 16
W ar</w> 16
f illed</w> 16
w on 16
w illing</w> 16
G ul 16
ç ons</w> 16
B S 16
U s</w> 16
I ES</w> 16
3 4 16
2 50</w> 16
É ric</w> 16
an es</w> 16
en th 16
in surg 16
in jury</w> 16
th ro 16
er te</w> 16
er ia</w> 16
on el</w> 16
on ic</w> 16
on ze</w> 16
ti mis 16
ar mer 16
ar tis 16
ar rang 16
re lev 16
re use</w> 16
ai me</w> 16
ai der</w> 16
li s</w> 16
li c</w> 16
li qui 16
tr ack</w> 16
es po 16
it a</w> 16
it ures</w> 16
is heim</w> 16
is tique</w> 16
ch ant</w> 16
pr o</w> 16
pr ud 16
at trac 16
as tern</w> 16
un t</w> 16
au x- 16
si x 16
con ç 16
con tro 16
am ateurs</w> 16
st abili 16
di um</w> 16
ag res 16
ag ues</w> 16
ol u 16
pl ement</w> 16
de puty</w> 16
com for 16
se ur</w> 16
pro cu 16
ci pl 16
dé es</w> 16
dé par 16
us ers</w> 16
us ine</w> 16
wh om</w> 16
par li 16
par tout</w> 16
ap preci 16
lo ir</w> 16
ad voc 16
ad just 16
sai res</w> 16
ex ter 16
op pon 16
vi ously</w> 16
vi demment</w> 16
ver ed</w> 16
et t</w> 16
ig an</w> 16
ré si 16
ré chauff 16
ré fér 16
im ent</w> 16
im pres 16
im porte</w> 16
ét ais</w> 16
mo di 16
por tion</w> 16
sh ut 16
sh opping</w> 16
ne ys</w> 16
the ast</w> 16
co ff 16
co ver</w> 16
te z</w> 16
end er</w> 16
ak ing</w> 16
mi e</w> 16
ni er</w> 16
ing ue</w> 16
Ch ief</w> 16
vo ient</w> 16
dis ent</w> 16
fi f 16
fi er 16
we al 16
go es</w> 16
wor st</w> 16
wor ried</w> 16
Mar yland</w> 16
ho le</w> 16
ho st</w> 16
ho liday</w> 16
cre ated</w> 16
ven tions</w> 16
me ans</w> 16
sc én 16
vis e</w> 16
gu er 16
gu ez</w> 16
pos ed</w> 16
ess ed</w> 16
soci aux</w> 16
dev ices</w> 16
sou s- 16
sou thern</w> 16
pres ent</w> 16
rem ettre</w> 16
int angible</w> 16
fer meture</w> 16
Par o 16
Par mi</w> 16
dem ander</w> 16
dem ocracy</w> 16
ow ned</w> 16
br and</w> 16
br as</w> 16
produ it</w> 16
posi t</w> 16
je cted</w> 16
col lect 16
coun cil</w> 16
ear ning</w> 16
ear ned</w> 16
En tre</w> 16
En vir 16
En fin</w> 16
ris ks</w> 16
part ner</w> 16
ant aine</w> 16
rest ent</w> 16
low ing</w> 16
sup pli 16
Ar n 16
Ar g 16
exp and 16
exp lic 16
pour ront</w> 16
avo id</w> 16
ari f</w> 16
loo ks</w> 16
ju ste</w> 16
hel ping</w> 16
lead ership</w> 16
cro ss 16
év iter</w> 16
3, 6 16
ie ve</w> 16
trans par 16
ord re</w> 16
acti vis 16
arr on 16
fil les</w> 16
iss ant</w> 16
Car ter</w> 16
ack nowle 16
stat us</w> 16
secon de</w> 16
secon d- 16
sub sidi 16
Pro du 16
pul led</w> 16
direct ly</w> 16
sk y</w> 16
Se veral</w> 16
Be ij 16
Is land</w> 16
concer ned</w> 16
Me yer</w> 16
dom aine</w> 16
anim é</w> 16
mus icale</w> 16
Uni vers 16
import antes</w> 16
tre ated</w> 16
priv il 16
Gr ac 16
with dra 16
inst ance</w> 16
bur g</w> 16
bur y</w> 16
Gu y</w> 16
Tu be</w> 16
mom ents</w> 16
ref used</w> 16
secur ities</w> 16
elec tron 16
nor m 16
conf érence</w> 16
i- ci</w> 16
candid ats</w> 16
lim it</w> 16
fé min 16
fé lic 16
Lu c</w> 16
Fran k</w> 16
Fran cis 16
writ ing</w> 16
8, 9 16
prot est</w> 16
prot ests</w> 16
pho to</w> 16
champi onnat</w> 16
dri ver</w> 16
municip alité</w> 16
techn ologies</w> 16
spectac les</w> 16
campai gn 16
isc ine</w> 16
log ements</w> 16
respe ct 16
law yer</w> 16
ép ouse</w> 16
ym n 16
suff is 16
propos ed</w> 16
Scot t</w> 16
vie ws</w> 16
tourn ée</w> 16
Fo reign</w> 16
eri ff</w> 16
Ale x</w> 16
ON D 16
projec ts</w> 16
anal ysts</w> 16
respons ables</w> 16
sac ri 16
Vo s 16
représent ants</w> 16
ext érieur</w> 16
initi ative</w> 16
mit ted</w> 16
accoun t</w> 16
répon du</w> 16
commit ted</w> 16
set ts</w> 16
requ est</w> 16
requ ire</w> 16
sugg ested</w> 16
cy cli 16
adv antage</w> 16
moder n</w> 16
dest in 16
Cap it 16
Asi an</w> 16
Hen ry</w> 16
flo or</w> 16
scienti sts</w> 16
dig ital</w> 16
environ ment</w> 16
Far c</w> 16
fab ric 16
ches tre</w> 16
alco ol</w> 16
tex te</w> 16
consé cu 16
targ et</w> 16
polici es</w> 16
usu al</w> 16
Ap ple</w> 16
Pas cal</w> 16
wai ting</w> 16
vain c 16
âg ées</w> 16
Gen .</w> 16
teach er</w> 16
may or</w> 16
Carol ina</w> 16
pétro le</w> 16
psy ch 16
requi red</w> 16
Islam ic</w> 16
AF P</w> 16
expect ations</w> 16
allem and</w> 16
incen die</w> 16
Mosco w</w> 16
langu age</w> 16
citoy ens</w> 16
ry th 16
matt ers</w> 16
Ander son</w> 16
consommat eurs</w> 16
passeng ers</w> 16
poly val 16
Math i 16
WILL ER</w> 16
rough ly</w> 16
Yanke es</w> 16
Philadelphi a</w> 16
Saver ne</w> 16
print emps</w> 16
perfor man 16
colom bien</w> 16
Minnes ota</w> 16
Secret ary</w> 16
forward- looking</w> 16
Massachu setts</w> 16
Light ning</w> 16
Djam ena</w> 16
YOR K</w> 16
S ac 15
S il 15
S us 15
S ing 15
o des</w> 15
o ir</w> 15
c anc 15
i Ph 15
e il</w> 15
e ines</w> 15
e ball</w> 15
t rem 15
t ellement</w> 15
é - 15
é tique</w> 15
l on 15
l our 15
p t</w> 15
p és</w> 15
p ér 15
p én 15
p ack 15
h n</w> 15
h ang 15
n ations</w> 15
n am</w> 15
n ai</w> 15
n esses</w> 15
a ël</w> 15
a war 15
a éro 15
r al 15
J . 15
m ad</w> 15
m él 15
C at 15
s in</w> 15
s ave</w> 15
s tro 15
s ich</w> 15
- b 15
- up</w> 15
v is</w> 15
v ast</w> 15
v eux</w> 15
v e- 15
v eter 15
b o</w> 15
b oun 15
d den</w> 15
F I 15
F ab 15
F BI</w> 15
L ak 15
L ake</w> 15
y ou 15
z aines</w> 15
g al 15
g ang 15
g ymn 15
N as 15
5 5 15
î t</w> 15
D un 15
A C</w> 15
V A</w> 15
V eg 15
P .</w> 15
P el 15
P ic 15
P TE 15
E U 15
T G 15
T om 15
T ig 15
M ut 15
M ot 15
k ne 15
k id 15
H y 15
H is 15
H om 15
H ur 15
H ay 15
H ill</w> 15
H ier</w> 15
f r</w> 15
f are</w> 15
f ine</w> 15
f air 15
f air</w> 15
f arm 15
f light</w> 15
w all</w> 15
w ish</w> 15
G ood</w> 15
B ra 15
B lu 15
I V</w> 15
I ts</w> 15
I ris 15
j et 15
4 00 15
4 ,000</w> 15
2 5, 15
2 8, 15
an des</w> 15
en de</w> 15
en du</w> 15
in ks</w> 15
in nings</w> 15
th r 15
er s 15
ti ble</w> 15
ar ité</w> 15
ar ms</w> 15
re ached</w> 15
re présente</w> 15
qu as 15
li ance</w> 15
li gh 15
tr uck</w> 15
it ali 15
it aires</w> 15
is n</w> 15
is és</w> 15
is ted</w> 15
ch oo 15
ch ans 15
ch air</w> 15
al one</w> 15
al ties</w> 15
pr êts</w> 15
at ory</w> 15
at oire</w> 15
ur b 15
ur al</w> 15
as i 15
as ter</w> 15
as tique</w> 15
ac ing</w> 15
ac cu 15
il u 15
ati fs</w> 15
au paravant</w> 15
con sen 15
am ou 15
st ress</w> 15
ol der</w> 15
ol ympi 15
ro ck</w> 15
ri gh 15
de ad 15
de pend 15
de venir</w> 15
de aths</w> 15
se ts</w> 15
se ized</w> 15
ab eth</w> 15
ci gar 15
dé plo 15
us age</w> 15
be aring</w> 15
ap pl 15
ap pu 15
lo ts</w> 15
lo se</w> 15
ad ing</w> 15
sai ent</w> 15
ex prim 15
ent é</w> 15
ent y</w> 15
ain ts</w> 15
ré jou 15
ré ussi 15
per dre</w> 15
per spec 15
mo t</w> 15
ul l</w> 15
ul lah</w> 15
sh are 15
ne g 15
ne urs</w> 15
ne cess 15
the im</w> 15
co ût</w> 15
to ys</w> 15
ni es</w> 15
Ch an 15
min d</w> 15
vo tre</w> 15
ill u 15
do gs</w> 15
do ctor</w> 15
do ctors</w> 15
man que</w> 15
dis tin 15
dis appoin 15
dis cipl 15
ten sions</w> 15
off ering</w> 15
An ti 15
ev acu 15
Mar se 15
bo ys</w> 15
ep is 15
att le</w> 15
att ach 15
att acked</w> 15
inter nation 15
ven ues</w> 15
me th 15
me an</w> 15
ru es</w> 15
str as 15
str uck</w> 15
bl ement</w> 15
St and 15
publi shed</w> 15
inv ité</w> 15
soci étés</w> 15
spe ed</w> 15
ach ieve</w> 15
ph y 15
car act 15
sti que</w> 15
port ant</w> 15
la ws</w> 15
aff ron 15
int ended</w> 15
wi d 15
mis s</w> 15
mis es</w> 15
mis si 15
ren du</w> 15
Re public</w> 15
Re public 15
jou e</w> 15
Com ment</w> 15
cri tic 15
ris on</w> 15
rest er</w> 15
loc ale</w> 15
of - 15
sup ply</w> 15
prof esse 15
exp an 15
pour suit</w> 15
ari at</w> 15
uni quement</w> 15
bas is</w> 15
2, 9 15
2, 7 15
év entu 15
fe ar</w> 15
alis ts</w> 15
vic e- 15
Le w 15
trans f 15
Su isse</w> 15
riv al</w> 15
iss ons</w> 15
Bo ard</w> 15
secon ds</w> 15
El les</w> 15
Sh arif</w> 15
ini a</w> 15
plac é</w> 15
contin ues</w> 15
20 12</w> 15
stru ggl 15
ban que</w> 15
stitu tion</w> 15
val eurs</w> 15
minu it</w> 15
chang er</w> 15
high est</w> 15
high ly</w> 15
mus ical</w> 15
import ance</w> 15
priv é</w> 15
aiss ent</w> 15
organis me</w> 15
ca p</w> 15
pp ing</w> 15
situ é</w> 15
For ce</w> 15
boo ks</w> 15
ful l- 15
Bro ad 15
IN C</w> 15
né cess 15
18 , 15
buil dings</w> 15
ref igh 15
Ad ministr 15
AN G 15
AR C</w> 15
develop ed</w> 15
Fl ori 15
fut ures</w> 15
Mu k 15
imm eu 15
wal d</w> 15
tru ct 15
tru th</w> 15
municip ales</w> 15
comple x</w> 15
Mi ami</w> 15
olo gie</w> 15
expli qu 15
confi ance</w> 15
assur é</w> 15
pol l</w> 15
Bi en</w> 15
vent es</w> 15
propos é</w> 15
fig ur 15
pan el</w> 15
susp ended</w> 15
trad u 15
cover age</w> 15
Afgh an</w> 15
Do w</w> 15
discus sion</w> 15
discus sed</w> 15
discus sions</w> 15
meil leurs</w> 15
effec tive</w> 15
organiz ations</w> 15
étu di 15
pal ais</w> 15
Pet erson</w> 15
stor m</w> 15
rédu ire</w> 15
forc és</w> 15
pat in 15
extr a</w> 15
SE PTE 15
quit té</w> 15
foc used</w> 15
Canadi en</w> 15
adv ance</w> 15
gir ls</w> 15
wer den</w> 15
industri e</w> 15
industri al</w> 15
dar ité</w> 15
régi me</w> 15
vari ous</w> 15
temp érature</w> 15
laiss é</w> 15
Ober nai</w> 15
driv ing</w> 15
chec k</w> 15
condam nés</w> 15
piè ces</w> 15
clim ate</w> 15
CO MM 15
arch it 15
fron tières</w> 15
Australi a</w> 15
Sim on</w> 15
tran si 15
aven ue</w> 15
Alex ander</w> 15
foun der</w> 15
Sto ck 15
religi ous</w> 15
écl air 15
pren ant</w> 15
Med ical</w> 15
heav y</w> 15
cé ré 15
ving taine</w> 15
Laur ent</w> 15
coû ts</w> 15
War ner</w> 15
wil d</w> 15
soulign é</w> 15
prepar ed</w> 15
cra ft</w> 15
Dom inique</w> 15
declar ed</w> 15
suppor ting</w> 15
montr é</w> 15
circu it</w> 15
recei ve</w> 15
Virg inia</w> 15
rév él 15
Marc el</w> 15
dirige ants</w> 15
vac ances</w> 15
PRNew swi 15
Zo é</w> 15
Holl ywood</w> 15
Mid dle</w> 15
endro it</w> 15
concern ant</w> 15
purch ase</w> 15
meille ure</w> 15
Invest ment</w> 15
Radi o</w> 15
cris is</w> 15
fres h</w> 15
Stéph ane</w> 15
maxim um</w> 15
ival ent</w> 15
Rodri guez</w> 15
honn eur</w> 15
appear ance</w> 15
volon té</w> 15
Develop ment</w> 15
domesti c</w> 15
orphel ins</w> 15
armer ie</w> 15
dépar tem 15
arron dis 15
Beij ing</w> 15
polyval ente</w> 15
SEPTE MB 15
PRNewswi re- 15
S ak 14
S ix</w> 14
S pan 14
o red</w> 14
o graphi 14
c ed 14
c tions</w> 14
c able</w> 14
c ach 14
e in</w> 14
e ine</w> 14
e ye</w> 14
t ter</w> 14
é m 14
é o</w> 14
é par 14
é mission</w> 14
é vid 14
n is</w> 14
n our 14
a x</w> 14
r ati 14
r ée</w> 14
r all 14
J é 14
J am 14
J ér 14
J ust</w> 14
m ans</w> 14
C a 14
C y 14
C S</w> 14
C li 14
C an</w> 14
C ar</w> 14
C onn 14
C ash</w> 14
s ainte</w> 14
s pread</w> 14
R a 14
R .</w> 14
R ol 14
R ice</w> 14
R ights</w> 14
v o</w> 14
v ul 14
v acc 14
b é</w> 14
d ine</w> 14
d aily</w> 14
F L</w> 14
F at 14
F ree</w> 14
F ARC</w> 14
L N 14
L av 14
L ap 14
L oc 14
L ev 14
L ind 14
z on</w> 14
g ed</w> 14
g ol 14
g un</w> 14
N e</w> 14
N ig 14
N on- 14
5 2, 14
D P</w> 14
D an</w> 14
D ak 14
D all 14
A z 14
A PA</w> 14
V end 14
P E 14
P T 14
P ère</w> 14
P enn 14
P riv 14
E A</w> 14
E N</w> 14
E st</w> 14
T S</w> 14
T enn 14
T reas 14
O per 14
M an</w> 14
M iller</w> 14
M olsheim</w> 14
k ill</w> 14
H ere</w> 14
H all</w> 14
H ow 14
W oo 14
W ill</w> 14
f us 14
f ly</w> 14
f ant 14
f lights</w> 14
w ie</w> 14
w estern</w> 14
G as 14
G ene 14
K S</w> 14
B O</w> 14
B ab 14
U l 14
U R 14
U A 14
U E</w> 14
I B 14
I II</w> 14
j ac 14
j uni 14
8 7 14
3 e</w> 14
3 5 14
3 9 14
3 0 14
2 0. 14
en sion</w> 14
in k 14
in car 14
in stru 14
th i 14
th ony</w> 14
th inking</w> 14
er o</w> 14
er ies</w> 14
ou x</w> 14
ti mat 14
ti ll 14
ar rière</w> 14
re vi 14
re prises</w> 14
re construction</w> 14
re trouve</w> 14
ai rement</w> 14
ai med</w> 14
or b 14
qu elles</w> 14
tr ace</w> 14
it er 14
it ations</w> 14
is on</w> 14
is té</w> 14
pr int</w> 14
at t</w> 14
el ed</w> 14
em o 14
as tic</w> 14
au d 14
av ions</w> 14
con g 14
am ount</w> 14
st ing</w> 14
st ock 14
di al</w> 14
di zaines</w> 14
le terre</w> 14
su c 14
su i 14
su ed</w> 14
ro is</w> 14
ro oms</w> 14
pl ants</w> 14
pl ays</w> 14
ri t</w> 14
de au</w> 14
de te 14
de fin 14
de fe 14
de vient</w> 14
de -B 14
de posit</w> 14
com man 14
se at</w> 14
pro xim 14
ab e</w> 14
par al 14
be i</w> 14
be aux</w> 14
ap point 14
ex ec 14
vi et</w> 14
ver dict</w> 14
no tes</w> 14
ain tes</w> 14
ter ing</w> 14
im médi 14
ét ér 14
per te</w> 14
mo ire</w> 14
res ources</w> 14
res olution</w> 14
te dly</w> 14
ay ne</w> 14
cl asse</w> 14
bu reau</w> 14
he im 14
ser ver</w> 14
ali e</w> 14
ér ité</w> 14
pre dic 14
pre vent</w> 14
ing - 14
ing ham</w> 14
ed y</w> 14
Ch i 14
Ch airman</w> 14
Ch else 14
vo s</w> 14
vo l</w> 14
vo ted</w> 14
ass es</w> 14
ass er</w> 14
bi e</w> 14
do m</w> 14
mar i</w> 14
mar ch 14
ann y</w> 14
fi refigh 14
mon tre</w> 14
mon tée</w> 14
all ait</w> 14
ten ance</w> 14
we ar</w> 14
we ight</w> 14
tri o</w> 14
In de</w> 14
In sight</w> 14
No tes</w> 14
off ices</w> 14
off ensive</w> 14
An al 14
An to 14
An dy</w> 14
An thony</w> 14
t- on</w> 14
19 70</w> 14
bo dies</w> 14
Al g 14
inter médi 14
tu red</w> 14
me - 14
serv i</w> 14
St an 14
pi ece</w> 14
enti rely</w> 14
tou gh</w> 14
cer em 14
ach - 14
sur pris 14
car r 14
dev ait</w> 14
la g</w> 14
pres ence</w> 14
rem ents</w> 14
rem pli 14
Ro y</w> 14
aff ect 14
ve to</w> 14
app els</w> 14
tt en</w> 14
dem eur 14
dem onstr 14
produ ce</w> 14
Com ité</w> 14
coun t</w> 14
coun ts</w> 14
pass ing</w> 14
incl us</w> 14
loc aux</w> 14
loc ated</w> 14
Ar che</w> 14
cour ts</w> 14
mé can 14
exp ensive</w> 14
lic k</w> 14
ari an</w> 14
hel ps</w> 14
2, 4 14
1, 5 14
1, 7 14
fu el</w> 14
Br yant</w> 14
ret te</w> 14
ret ail</w> 14
cro it</w> 14
év acu 14
3, 2 14
adi um</w> 14
alis ée</w> 14
vic times</w> 14
trans form 14
ord - 14
peu ple</w> 14
play offs</w> 14
199 1</w> 14
gro w</w> 14
sub i</w> 14
fon ction</w> 14
cli mati 14
sign s</w> 14
gre en</w> 14
gre at 14
sk ills</w> 14
anti c</w> 14
Ho ch 14
concer n</w> 14
Bl ack</w> 14
proc éd 14
anim al</w> 14
anim ation</w> 14
te- t-il</w> 14
So viet</w> 14
men é</w> 14
éco les</w> 14
Bar ack</w> 14
organis é</w> 14
organis ée</w> 14
17 , 14
Bro w 14
IN G</w> 14
a- t-elle</w> 14
provi des</w> 14
Per vez</w> 14
foo t 14
reven ir</w> 14
reven us</w> 14
coll ège</w> 14
Ad am</w> 14
def ending</w> 14
prin cipe</w> 14
Ph illi 14
Rob er 14
Av ant</w> 14
hau te</w> 14
lég èrement</w> 14
Bri an</w> 14
sw iller</w> 14
reli gion</w> 14
actu al</w> 14
cal end 14
tel ep 14
Ang leterre</w> 14
autom ne</w> 14
wal k</w> 14
Te h 14
hô tel</w> 14
ate ver</w> 14
Tr av 14
assur ée</w> 14
identi té</w> 14
télé vision</w> 14
télé phone</w> 14
fre qu 14
continu ing</w> 14
suiv i</w> 14
tent ative</w> 14
tourn ament</w> 14
élé ments</w> 14
fel den</w> 14
fel low</w> 14
post ed</w> 14
médi as</w> 14
mess ages</w> 14
alli ance</w> 14
public s</w> 14
Vi et 14
stu dio</w> 14
pal estini 14
resear chers</w> 14
allow s</w> 14
rais ons</w> 14
confir mé</w> 14
med ic 14
veu lent</w> 14
travail l 14
den ied</w> 14
Tur k 14
exper t</w> 14
forc ement</w> 14
tab ac</w> 14
cle arly</w> 14
impro ved</w> 14
anni que</w> 14
dow ns</w> 14
speci fic</w> 14
join ed</w> 14
accomp agné</w> 14
restaur ants</w> 14
quit ter</w> 14
favor able</w> 14
Ol ympi 14
liv res</w> 14
assist ant</w> 14
sched ule</w> 14
deci de</w> 14
pens er</w> 14
believ es</w> 14
ele cted</w> 14
adul tes</w> 14
résul tat</w> 14
strat é 14
laiss er</w> 14
mou th</w> 14
gé ant</w> 14
collec te</w> 14
individu al</w> 14
ID I 14
alco ho 14
alleg ed</w> 14
lors qu'</w> 14
bloc k</w> 14
plat eau</w> 14
Ag ency</w> 14
sec ure</w> 14
heav ily</w> 14
communic ation</w> 14
mem ory</w> 14
sion er</w> 14
duc ation</w> 14
financi ers</w> 14
exerc ise</w> 14
Ken ya</w> 14
IT Y</w> 14
vehic le</w> 14
ater al</w> 14
fort un 14
réc emment</w> 14
grand- messe</w> 14
rev anche</w> 14
else where</w> 14
determin ed</w> 14
Franc is</w> 14
Bis ch 14
concurr ence</w> 14
Def ense</w> 14
step s</w> 14
licop t 14
Govern ment</w> 14
consider ing</w> 14
chaî ne</w> 14
bot tom</w> 14
Soci été</w> 14
push ed</w> 14
You Tube</w> 14
Writ er</w> 14
alsac ien</w> 14
jeun esse</w> 14
volun te 14
symp ath 14
supplément aires</w> 14
Vin cent</w> 14
Il lin 14
Ég lise</w> 14
amén agement</w> 14
decl ine</w> 14
Tech n 14
fashi on</w> 14
célè bre</w> 14
aggres sive</w> 14
phénom ène</w> 14
cultu rel</w> 14
Bas- Rhin</w> 14
guar an 14
desig ned</w> 14
entert ainment</w> 14
quoti dien</w> 14
HEI M</w> 14
centre- ville</w> 14
espo ir</w> 14
fif th</w> 14
Francis co</w> 14
performan ces</w> 14
chans ons</w> 14
ilu ted</w> 14
Marse ille</w> 14
Republic ans</w> 14
Fat ah</w> 14
LN H</w> 14
Chelse a</w> 14
S O 13
S or 13
S ir</w> 13
S af 13
S aid</w> 13
S ony</w> 13
o v</w> 13
o ds</w> 13
u rer</w> 13
c old</w> 13
e b</w> 13
e igh 13
t ac 13
t elle</w> 13
t um 13
é qu 13
é preuve</w> 13
l le</w> 13
l ink</w> 13
p in</w> 13
p eux</w> 13
p auv 13
n arr 13
a o</w> 13
a che</w> 13
r av 13
r and 13
r um 13
r ond 13
J eux</w> 13
m st 13
m ass</w> 13
m aisons</w> 13
C S 13
C D 13
s at</w> 13
s ag 13
s son</w> 13
s ors</w> 13
s low 13
s ession</w> 13
s berg</w> 13
- hm 13
R and 13
v or 13
v ely</w> 13
v étér 13
b ail</w> 13
d man</w> 13
d avantage</w> 13
F R 13
F D 13
F ur 13
F ol 13
F oun 13
F ut 13
F red</w> 13
F isc 13
L - 13
L A</w> 13
L M</w> 13
L il 13
L et 13
L eur</w> 13
L atin</w> 13
y i 13
y ne</w> 13
z o 13
z e 13
z ing</w> 13
g old</w> 13
ô me</w> 13
è re- 13
N u 13
N av 13
N um 13
N AS 13
N FL</w> 13
1 00 13
1 0. 13
5 0 13
D R 13
D I 13
D an 13
D oll 13
A N</w> 13
A S</w> 13
A re 13
A re</w> 13
A us 13
A cc 13
A BC</w> 13
V la 13
P eu 13
P ent 13
P iscine</w> 13
E very 13
T S 13
T - 13
T A</w> 13
T I 13
T it 13
T ch 13
T im</w> 13
O k 13
O w 13
O sc 13
M is 13
M au 13
M AR 13
k el</w> 13
k ins</w> 13
H ô 13
H op 13
ü r 13
W y 13
W E 13
W .</w> 13
W ales</w> 13
f al 13
f ts</w> 13
w oo 13
w ird</w> 13
G O 13
G am 13
ç ants</w> 13
B .</w> 13
B es 13
B au 13
6 8 13
I R 13
I ni 13
I ll 13
j ail</w> 13
j eté</w> 13
4 7 13
3 50</w> 13
2 60</w> 13
an moins</w> 13
in ion</w> 13
in spect 13
in spir 13
on ey</w> 13
ou l</w> 13
ar t 13
ar a</w> 13
ar m</w> 13
ar mes</w> 13
re z</w> 13
re ine</w> 13
re grou 13
re pris</w> 13
re tenu</w> 13
re move</w> 13
re ality</w> 13
re putation</w> 13
ai da</w> 13
or al</w> 13
or chestre</w> 13
qu els</w> 13
qu anti 13
qu ettes</w> 13
li ation</w> 13
es te</w> 13
es cap 13
is ing</w> 13
ch asse</w> 13
pr êt</w> 13
pr atique</w> 13
ur a</w> 13
em pr 13
em ph 13
as ts</w> 13
as sum 13
as ingly</w> 13
il ton</w> 13
un certain 13
au f 13
av ais</w> 13
con qu 13
con cours</w> 13
con soli 13
st ands</w> 13
st Call</w> 13
di ver 13
di mir</w> 13
le ans</w> 13
le tt 13
ag an</w> 13
su st 13
su jet</w> 13
pl ane</w> 13
ri ver</w> 13
de g 13
de als</w> 13
com ité</w> 13
po dium</w> 13
pro position</w> 13
ab att 13
ci t</w> 13
ci v 13
ci a</w> 13
dé cre 13
dé gu 13
ad o 13
ad vice</w> 13
ex hi 13
ex écu 13
op hi 13
ent endre</w> 13
et ed</w> 13
ter y</w> 13
ter ri 13
ter mes</w> 13
ig u 13
ig ner</w> 13
per mission</w> 13
sh el 13
sh ut</w> 13
ne ts</w> 13
co ast</w> 13
end a</w> 13
oun d 13
cl é 13
pu issance</w> 13
to w 13
ali se</w> 13
so eur</w> 13
mi que</w> 13
ni cht</w> 13
ed ing</w> 13
ed ge</w> 13
Ch ap 13
min i 13
bi d</w> 13
man e</w> 13
ann ing</w> 13
fi é</w> 13
comm and</w> 13
mon y</w> 13
gi a</w> 13
hi vern 13
cu ts</w> 13
we ather</w> 13
rec ycl 13
oc cur 13
ran g</w> 13
An na</w> 13
ob jets</w> 13
19 88</w> 13
19 89</w> 13
ici li 13
Mar ché</w> 13
bo î 13
ud ed</w> 13
ud ing</w> 13
ep tion</w> 13
att endre</w> 13
fin ding</w> 13
Al ber 13
me ant</w> 13
me aning</w> 13
gu y</w> 13
gu ér 13
gu ide</w> 13
som met</w> 13
St aff</w> 13
déc ouvert</w> 13
déc ouvrir</w> 13
parti sans</w> 13
enc ing</w> 13
enc ad 13
iv ers</w> 13
fir ms</w> 13
hom mage</w> 13
inv it 13
ach t</w> 13
ach i</w> 13
ach at</w> 13
sur r 13
sur es</w> 13
sur pris</w> 13
sur veill 13
cou leurs</w> 13
cont est</w> 13
car ds</w> 13
dev ons</w> 13
sou ligne</w> 13
port ation</w> 13
port ait</w> 13
esti mates</w> 13
rem bour 13
rem ember</w> 13
aff airs</w> 13
aff ect</w> 13
sch em 13
sch willer</w> 13
ren contr 13
ren contrer</w> 13
Con sum 13
ans wer</w> 13
col ombi 13
prés ents</w> 13
pass ant</w> 13
org ue</w> 13
des ign 13
ant ly</w> 13
loc at 13
pri ère</w> 13
ath èque</w> 13
organ ise</w> 13
Sch ne 13
3, 5 13
sal aire</w> 13
az z</w> 13
sé jour</w> 13
Le ban 13
Au tre</w> 13
Su per 13
commun aut 13
gl ace</w> 13
sho ts</w> 13
fil et</w> 13
iss ante</w> 13
nom ination</w> 13
Car los</w> 13
tis me</w> 13
Po int</w> 13
sub prime</w> 13
Col um 13
pas si 13
rai se</w> 13
sen al</w> 13
vol ont 13
conn aître</w> 13
20 - 13
ban ques</w> 13
Di eu</w> 13
iz e</w> 13
Me ts</w> 13
chang ements</w> 13
emplo is</w> 13
import ante</w> 13
tre me</w> 13
bou ght</w> 13
priv és</w> 13
sim plement</w> 13
So x</w> 13
bro ken</w> 13
Li ke</w> 13
cin qu 13
incre ases</w> 13
incre asingly</w> 13
Ab bas</w> 13
donn ées</w> 13
tionn els</w> 13
cent aine</w> 13
charg é</w> 13
ple ase</w> 13
Ex ecutive</w> 13
Gu ill 13
Ser ge</w> 13
18 - 13
conse ill 13
Jean- Pierre</w> 13
Ri o</w> 13
win do 13
uti n</w> 13
star ts</w> 13
announ ce</w> 13
Ph il</w> 13
fav or</w> 13
Or leans</w> 13
termin é</w> 13
let te</w> 13
sw it 13
sw ire</w> 13
AR IES</w> 13
cam era</w> 13
wat ch 13
dér ation</w> 13
up on</w> 13
viol ent</w> 13
tion ally</w> 13
champi onship</w> 13
fri end 13
wal ks</w> 13
wal ked</w> 13
cat eg 13
pé rer</w> 13
stre ak</w> 13
télé vis 13
télé phon 13
cep t</w> 13
youn ger</w> 13
pen alty</w> 13
vie wed</w> 13
spéci aliste</w> 13
hou se 13
colle agues</w> 13
cover ing</w> 13
post - 13
accep t</w> 13
différ entes</w> 13
ty pes</w> 13
béné vo 13
hé licopt 13
effec ts</w> 13
Dar fur</w> 13
Gre en</w> 13
Fir stCall</w> 13
adop tion</w> 13
experi enced</w> 13
répon dre</w> 13
hy po 13
class ement</w> 13
bel ow</w> 13
lanc ée</w> 13
arri ver</w> 13
hop ed</w> 13
Wil son</w> 13
reconn u</w> 13
Bel gique</w> 13
Canadi an</w> 13
moder ne</w> 13
arrê ter</w> 13
siè ge</w> 13
origin aire</w> 13
Asi a</w> 13
Jap anese</w> 13
Mit t</w> 13
UN ITY</w> 13
adul ts</w> 13
communi ties</w> 13
ferm és</w> 13
ologi que</w> 13
Sam uel</w> 13
condam né</w> 13
univers ités</w> 13
individu als</w> 13
immigr ants</w> 13
Australi an</w> 13
recor ded</w> 13
sau f</w> 13
patr on</w> 13
voul u</w> 13
paro isse</w> 13
Andre w</w> 13
écr ans</w> 13
ly cée</w> 13
amb ass 13
San té</w> 13
exist ence</w> 13
list en</w> 13
wel come</w> 13
poss ession</w> 13
opér ations</w> 13
exerc ice</w> 13
inform ations</w> 13
évén ements</w> 13
analy st</w> 13
Itali an</w> 13
sett lement</w> 13
appel é</w> 13
introdu ction</w> 13
rê ve</w> 13
CE O</w> 13
Hou ston</w> 13
os ité</w> 13
Jer sey</w> 13
liber té</w> 13
dépu té</w> 13
politici ans</w> 13
magas ins</w> 13
sil ence</w> 13
maî tr 13
poursuiv re</w> 13
propriét aires</w> 13
cath olique</w> 13
consid er</w> 13
compe te</w> 13
déci de</w> 13
SU BS 13
Net work</w> 13
Jack son</w> 13
provin ces</w> 13
vit esse</w> 13
indé pend 13
atti tude</w> 13
convi vi 13
parten aires</w> 13
forec ast</w> 13
Cano e</w> 13
threat ened</w> 13
gressi onal</w> 13
effic acité</w> 13
judici aire</w> 13
conséqu ences</w> 13
establi shed</w> 13
Auth orities</w> 13
reflec t</w> 13
Maj or</w> 13
vénézuéli en</w> 13
Ori ent</w> 13
circonst ances</w> 13
Alexand re</w> 13
ky o</w> 13
Gab ri 13
trim estre</w> 13
constr uc 13
prog ress 13
cuis ine</w> 13
strategi c</w> 13
critici zed</w> 13
poll s</w> 13
Ray mond</w> 13
feu ille</w> 13
bure aux</w> 13
Beno ît</w> 13
catég orie</w> 13
BAN KS</w> 13
Ind us 13
overse as</w> 13
Haut- Rhin</w> 13
six th</w> 13
Arg ent 13
Grac q</w> 13
Vos ges</w> 13
iPh one</w> 13
Veg as</w> 13
Bra z 13
stras bourge 13
COMM UNITY</w> 13
arrondis sement</w> 13
SEPTEMB ER</w> 13
PRNewswire- FirstCall</w> 13
Dall as</w> 13
Anal ysts</w> 13
Teh ran</w> 13
Viet nam</w> 13
Turk ish</w> 13
IDI ARIES</w> 13
Illin ois</w> 13
Foun dation</w> 13
Fisc al</w> 13
Vla dimir</w> 13
occur red</w> 13
SUBS IDIARIES</w> 13
S c 12
S t</w> 12
S én 12
S pi 12
S how</w> 12
c ks</w> 12
i des</w> 12
e ed</w> 12
e ing</w> 12
t t</w> 12
t ted</w> 12
t ants</w> 12
t elles</w> 12
é col 12
é change</w> 12
l i</w> 12
l ä 12
l an</w> 12
l ang 12
l eng 12
p .</w> 12
p ê 12
p lead 12
h - 12
h l</w> 12
h an 12
h all</w> 12
h auteur</w> 12
n ur 12
a tre</w> 12
a tri 12
J im</w> 12
J eff 12
J ah 12
m embre</w> 12
C o</w> 12
C ré 12
C ru 12
C BS</w> 12
s is</w> 12
s oul 12
- T 12
- to- 12
R el 12
R em 12
R angers</w> 12
v ar 12
v el 12
v it</w> 12
b is</w> 12
b au 12
b at</w> 12
b ap 12
b one</w> 12
b ell</w> 12
b anc 12
b log 12
b acking</w> 12
d d</w> 12
d ates</w> 12
F .</w> 12
F our</w> 12
F ace 12
L é 12
L em 12
L as</w> 12
L iv 12
L ond 12
L yn 12
y l</w> 12
z es</w> 12
g ers</w> 12
g are</w> 12
g ue</w> 12
è les</w> 12
1 00,000</w> 12
5 e</w> 12
5 ,000</w> 12
D o</w> 12
D ut 12
A hm 12
P é 12
P res 12
P ass 12
P har 12
P endant</w> 12
P utin</w> 12
E ach</w> 12
E conom 12
E space</w> 12
M e</w> 12
M en 12
M on</w> 12
M ain 12
M ali 12
M illi 12
k ick</w> 12
H igh 12
H ong</w> 12
ü n 12
W o 12
W ell</w> 12
f eux</w> 12
f eld</w> 12
f ish</w> 12
w an</w> 12
w ed 12
w ounded</w> 12
G A</w> 12
G .</w> 12
G ri 12
G én 12
K in 12
K el 12
K ab 12
K ong</w> 12
K han</w> 12
B M 12
B all 12
B ut 12
6 3 12
6 7 12
I an</w> 12
Q aeda</w> 12
j a 12
3 0, 12
œ ur</w> 12
an on 12
in sc 12
in fr 12
in spi 12
er ine</w> 12
on er</w> 12
on ie</w> 12
ou ti 12
ou ch 12
ti le</w> 12
ti se</w> 12
ti more</w> 12
ti vement</w> 12
ar en</w> 12
re ali 12
re cted</w> 12
re vol 12
re usement</w> 12
ai des</w> 12
or row</w> 12
li ts</w> 12
li min 12
es h</w> 12
es sus</w> 12
it - 12
it eur</w> 12
it ting</w> 12
it ely</w> 12
it anie</w> 12
is ée</w> 12
is land</w> 12
ch ain</w> 12
ch ard</w> 12
om ie</w> 12
al ez</w> 12
at en</w> 12
at oires</w> 12
ur ban</w> 12
el ers</w> 12
au dit 12
av an 12
si fs</w> 12
si bility</w> 12
con cre 12
con vers 12
con gé</w> 12
con fusion</w> 12
am bul 12
st y 12
di c</w> 12
di er</w> 12
di vers</w> 12
le f 12
le ver</w> 12
ag enda</w> 12
ol es 12
su its</w> 12
su d- 12
ro y 12
ri de</w> 12
de z</w> 12
com édie</w> 12
po w 12
se a</w> 12
se ver 12
ab ad</w> 12
ci el</w> 12
dé non 12
par le</w> 12
our selves</w> 12
ff e</w> 12
lo y 12
ad ic 12
ex cl 12
vi es</w> 12
ver a</w> 12
ver re</w> 12
ver te</w> 12
no ir</w> 12
et c</w> 12
00 - 12
ré alité</w> 12
ét onn 12
per f 12
mo ts</w> 12
for tement</w> 12
ul é</w> 12
por tes</w> 12
sh ing</w> 12
ne au</w> 12
gr en 12
co in 12
co st 12
co tis 12
te aux</w> 12
end ent</w> 12
end ers</w> 12
pu tting</w> 12
he ct 12
to ols</w> 12
ali ve</w> 12
so ins</w> 12
emb our 12
pré vue</w> 12
ér ic 12
pre h 12
ed om</w> 12
Ch all 12
oo k</w> 12
min us</w> 12
ass emb 12
ass ister</w> 12
ass ault</w> 12
do g 12
ec es</w> 12
dis h</w> 12
dis missed</w> 12
fi ques</w> 12
comm ence</w> 12
ten s</w> 12
ten ait</w> 12
ten heim</w> 12
we igh 12
we ak</w> 12
Th ann</w> 12
In formation</w> 12
An ne- 12
ob sc 12
ob tenu</w> 12
19 . 12
ev entu 12
um p</w> 12
ho p</w> 12
cre w</w> 12
ail ed</w> 12
att endant</w> 12
fin ish</w> 12
Al an</w> 12
inter ro 12
inter rog 12
inter nal</w> 12
acc usé</w> 12
tu é</w> 12
tu al</w> 12
sc oring</w> 12
ru g 12
rou tine</w> 12
som me</w> 12
bl er</w> 12
déc or 12
ang éli 12
parti s</w> 12
milli ers</w> 12
enti èrement</w> 12
ell ers</w> 12
fo re 12
Qu i</w> 12
ph il 12
ph ase</w> 12
car bon</w> 12
sti c</w> 12
sou ver 12
anc ing</w> 12
éri r</w> 12
Ro j 12
int érieur</w> 12
tic ally</w> 12
tic ket</w> 12
sch en</w> 12
tur ns</w> 12
arg ue</w> 12
br û 12
br inging</w> 12
cau sing</w> 12
Com mer 12
enf ance</w> 12
trav ailleurs</w> 12
En ter 12
ris ques</w> 12
part age</w> 12
des per 12
Un der</w> 12
sup éri 12
Ar k 12
Ar ab 12
exp and</w> 12
rel s</w> 12
che ts</w> 12
uni ties</w> 12
air craft</w> 12
1, 9 12
sor tant</w> 12
eng ag 12
eng ager</w> 12
U. S. 12
cor ruption</w> 12
Sch o 12
év alu 12
fe atures</w> 12
3, 9 12
3, 000</w> 12
Wh y</w> 12
peti tes</w> 12
vic toires</w> 12
Le h 12
Le e</w> 12
quel qu'</w> 12
vir us</w> 12
commun ale</w> 12
sho wn</w> 12
cho sen</w> 12
199 2</w> 12
199 6</w> 12
Bo go 12
lev ard</w> 12
prom en 12
Sh an 12
Sh eriff</w> 12
expe cts</w> 12
présent ée</w> 12
respon sibility</w> 12
Inter ior</w> 12
fon d 12
cli ent 12
appe al</w> 12
sen ator</w> 12
sum mit</w> 12
sk i 12
20 10</w> 12
ban king</w> 12
she im 12
dro ite</w> 12
Is lam</w> 12
val u 12
repor ting</w> 12
Bl ue</w> 12
tric ity</w> 12
tal ents</w> 12
rap ide</w> 12
10 ,000</w> 12
Me dia</w> 12
proc essus</w> 12
call ing</w> 12
dom icili 12
milit aires</w> 12
num éro</w> 12
chang é</w> 12
gén é 12
anim ations</w> 12
bar rel</w> 12
mag istr 12
5, 7 12
priv ée</w> 12
aî nés</w> 12
envir ons</w> 12
men ace</w> 12
investi s 12
incre asing</w> 12
possi bly</w> 12
nu l</w> 12
nu clé 12
heal th 12
journ al</w> 12
journ alist</w> 12
situ ée</w> 12
Sou ff 12
bur gh</w> 12
Pl ace</w> 12
To kyo</w> 12
cham bre</w> 12
For t 12
fol k</w> 12
fol low</w> 12
boo st</w> 12
Mich igan</w> 12
jam in</w> 12
ko v</w> 12
né anmoins</w> 12
rac ing</w> 12
Ser ies</w> 12
elec tric</w> 12
uti lity</w> 12
16 , 12
16 0</w> 12
pay ing</w> 12
2- year-old</w> 12
lect ure</w> 12
Coun try</w> 12
cir cul 12
let tre</w> 12
hand ed</w> 12
act eur</w> 12
Sar re 12
cam ps</w> 12
arti ste</w> 12
Lo ans</w> 12
hum our</w> 12
14 - 12
fut ur</w> 12
actu elle</w> 12
actu el</w> 12
occas ions</w> 12
Mu seum</w> 12
bal ance</w> 12
Go v.</w> 12
arriv é</w> 12
Democr at</w> 12
wal king</w> 12
réalis er</w> 12
réalis ation</w> 12
icul ture</w> 12
identi fy</w> 12
eas ily</w> 12
eas ier</w> 12
veill on</w> 12
continu er</w> 12
Pri x</w> 12
Pri ze</w> 12
suiv re</w> 12
compar able</w> 12
spéci alistes</w> 12
Fo x</w> 12
Off ic 12
Off ici 12
acqu it 12
consi dér 12
clai m</w> 12
celu i-ci</w> 12
Ren seignements</w> 12
soli darité</w> 12
ty pic 12
Cali f</w> 12
anal ys 12
invol vement</w> 12
entraîn ement</w> 12
Vo il 12
four - 12
inscri re</w> 12
représent ant</w> 12
inten tion</w> 12
stor ies</w> 12
initi atives</w> 12
capit aine</w> 12
pic tures</w> 12
Dec .</w> 12
redu ction</w> 12
plan es</w> 12
SE C</w> 12
Bal ance</w> 12
Bal timore</w> 12
tali a</w> 12
retrouv és</w> 12
réun is</w> 12
visi ble</w> 12
sex ual</w> 12
produc teurs</w> 12
sent enced</w> 12
régi onal</w> 12
inté gr 12
rom an</w> 12
Tou tefois</w> 12
fall ait</w> 12
Jap on</w> 12
Willi am</w> 12
Wi th 12
lign es</w> 12
conver sion</w> 12
utilis ation</w> 12
gri d</w> 12
ense ur</w> 12
univers ité</w> 12
clim at</w> 12
scienti fic</w> 12
On ce</w> 12
techni ques</w> 12
Jus qu'</w> 12
my st 12
alleg ations</w> 12
certain ly</w> 12
Indi an</w> 12
mortg ages</w> 12
ench aî 12
enqu ê 12
compu ters</w> 12
squ ad</w> 12
squ are</w> 12
wr ite</w> 12
Bec ause</w> 12
touch down</w> 12
spr ing</w> 12
hospit ali 12
ving t</w> 12
Ken ne 12
prosecu tors</w> 12
vain qu 12
Ali talia</w> 12
Gran de-B 12
read ing</w> 12
concl u</w> 12
régu lier</w> 12
impl ant 12
racon te</w> 12
introdu ced</w> 12
regar ding</w> 12
angl ais</w> 12
Aff aires</w> 12
applic ation</w> 12
applic ations</w> 12
essenti el</w> 12
histori que</w> 12
scre en</w> 12
lear n</w> 12
maî tre</w> 12
circu mst 12
propriét aire</w> 12
atta quant</w> 12
refu se</w> 12
alter native</w> 12
quarter back</w> 12
Sw ed 12
chin ois</w> 12
streng th</w> 12
professionn elle</w> 12
mauv ais</w> 12
enreg istr 12
ouvr age</w> 12
Musli m</w> 12
Musli ms</w> 12
Egyp te</w> 12
vou loir</w> 12
Gonz alez</w> 12
Que en</w> 12
surve y</w> 12
engine ering</w> 12
doub t</w> 12
pollu tion</w> 12
salari és</w> 12
dit- il</w> 12
Mr s.</w> 12
Maur itanie</w> 12
sélec tionn 12
étrang ères</w> 12
extraordin aire</w> 12
Cop yright</w> 12
Thi erry</w> 12
Direct or</w> 12
maladi e</w> 12
Foo tball</w> 12
power ful</w> 12
contem por 12
Indones ia</w> 12
sond age</w> 12
big ger</w> 12
Esch au</w> 12
pron on 12
vidé o</w> 12
near by</w> 12
guil ty</w> 12
Quel ques</w> 12
conflic t</w> 12
index .cfm</w> 12
cen tres</w> 12
tack le</w> 12
écar t</w> 12
Jord an</w> 12
prud ence</w> 12
contro versi 12
scén ario</w> 12
TG V</w> 12
Iris h</w> 12
400 e</w> 12
expan sion</w> 12
Lew is</w> 12
Flori de</w> 12
transi tion</w> 12
départem ent 12
Vend redi</w> 12
juni or</w> 12
timat ely</w> 12
Anto ine</w> 12
carr ying</w> 12
calend rier</w> 12
straté gie</w> 12
Osc ar</w> 12
lett ers</w> 12
surveill ance</w> 12
Guill aume</w> 12
Braz il</w> 12
Face book</w> 12
typic ally</w> 12
Grande-B retagne</w> 12
S on 11
S av 11
S ans</w> 11
S eu 11
S um 11
o rer</w> 11
c - 11
c ène</w> 11
c amér 11
i che</w> 11
i eux</w> 11
e usement</w> 11
t l 11
t â 11
t ours</w> 11
t ainment</w> 11
é der</w> 11
é mer 11
é dée</w> 11
é videmment</w> 11
l ay 11
l ands</w> 11
l ande</w> 11
p ont</w> 11
p ell 11
p iste</w> 11
p ick</w> 11
p ath</w> 11
h i</w> 11
h at 11
h oriz 11
n in 11
n or</w> 11
n ames</w> 11
a polis</w> 11
r age</w> 11
J im 11
m ant</w> 11
m urs</w> 11
m onn 11
C . 11
C le 11
s n 11
s ant</w> 11
s ch</w> 11
s ité</w> 11
s bourg</w> 11
R ab 11
v ements</w> 11
v ues</w> 11
b ars</w> 11
b onnes</w> 11
d op 11
d ance</w> 11
d ure</w> 11
F é 11
F O 11
F ré 11
F ace</w> 11
F ire</w> 11
L S 11
L C</w> 11
L im 11
L af 11
L aden</w> 11
g as 11
g ay</w> 11
g oods</w> 11
N O 11
N Y 11
1 st</w> 11
1 1- 11
1 3- 11
D j 11
D onn 11
D ion</w> 11
D aily</w> 11
A h 11
A sh 11
A ux</w> 11
A ma 11
A TE 11
V I</w> 11
P f 11
P ad 11
P op 11
E D 11
E U</w> 11
E mer 11
T M</w> 11
T our 11
T ele 11
O x 11
O reg 11
M and 11
M ili 11
M org 11
Y ear</w> 11
k ic 11
H in 11
H err 11
W el 11
W iss 11
f oul 11
f low</w> 11
w oul 11
w ise</w> 11
G M 11
G M</w> 11
G all 11
G ren 11
G ames</w> 11
K ay 11
K im</w> 11
K ansas</w> 11
B E 11
B il 11
B oul 11
B enn 11
B ye</w> 11
B âle</w> 11
I rel 11
I ll</w> 11
ê ve</w> 11
j ol 11
j ad</w> 11
4 9 11
8 0 11
3 6 11
3 0- 11
2 6, 11
ä h 11
7 ,000</w> 11
en ess</w> 11
en forcement</w> 11
in te</w> 11
in fir 11
er en</w> 11
on ale</w> 11
ar me</w> 11
re prendre</w> 11
re vient</w> 11
re marks</w> 11
or ge</w> 11
or ité</w> 11
qu ette</w> 11
li re</w> 11
tr ue</w> 11
tr ains</w> 11
tr ust</w> 11
es heim</w> 11
ch ré 11
om an</w> 11
al er</w> 11
pr ê 11
el le- 11
as ted</w> 11
as ka</w> 11
ac ad 11
un d 11
ic a</w> 11
ic enci 11
ati cally</w> 11
au teurs</w> 11
av enture</w> 11
si as 11
si des</w> 11
si gne</w> 11
con dem 11
am m 11
am or 11
st one</w> 11
st able</w> 11
st ages</w> 11
st ret 11
di es 11
di minu 11
ag no 11
ag ree</w> 11
ag issait</w> 11
ol en</w> 11
ro bo 11
ro ck 11
pl a 11
ri k</w> 11
ri d</w> 11
de vi 11
de urs</w> 11
se ats</w> 11
se vent 11
dé sign 11
dé pen 11
dé chets</w> 11
par isi 11
our i</w> 11
our ce</w> 11
ap es</w> 11
ap pris</w> 11
ff s</w> 11
ad ed</w> 11
ad ine 11
ex ile</w> 11
ex treme</w> 11
op timis 11
vi vent</w> 11
vi gueur</w> 11
ent ered</w> 11
ent ôt</w> 11
pe l</w> 11
pe ines</w> 11
ter ont</w> 11
ré clam 11
mo s 11
mo on</w> 11
for um</w> 11
for êts</w> 11
ir ts</w> 11
sh oul 11
ne z</w> 11
ne ur 11
co very</w> 11
co ord 11
end or 11
cl er 11
bu ff 11
bu ying</w> 11
pu r</w> 11
he ur 11
to x 11
to il 11
ni ers</w> 11
ing en</w> 11
ed - 11
ed er</w> 11
vo ter</w> 11
vo ire</w> 11
ass et</w> 11
bi an</w> 11
bi entôt</w> 11
do zen</w> 11
mar quer</w> 11
ss ant</w> 11
dis covered</w> 11
dis positif</w> 11
fi e</w> 11
fi ve- 11
du o</w> 11
gi ves</w> 11
hi re</w> 11
all ing</w> 11
ten ues</w> 11
cu tting</w> 11
Th an 11
Th ail 11
rec ours</w> 11
ouv é</w> 11
In grid</w> 11
af t</w> 11
No bel</w> 11
oc cident 11
ran ked</w> 11
off er 11
off en</w> 11
off ense</w> 11
off rir</w> 11
An nu 11
ist ant</w> 11
ob iles</w> 11
ob viously</w> 11
19 80</w> 11
tro it</w> 11
ev alu 11
Mar ch 11
Mar ia</w> 11
bo y 11
fin ances</w> 11
fin dings</w> 11
Al ab 11
Al bert</w> 11
inter est- 11
form ule</w> 11
tu és</w> 11
sc ul 11
vis ited</w> 11
gu id 11
bl ue</w> 11
St ud 11
St ars</w> 11
déc ro 11
enti er</w> 11
publi é</w> 11
ég ard</w> 11
oll ah</w> 11
iv ed</w> 11
fir st- 11
hom er</w> 11
hom ers</w> 11
fo i</w> 11
cou ver</w> 11
cou pe</w> 11
ph y</w> 11
ph ones</w> 11
sti tue</w> 11
mat t</w> 11
mat ern 11
pres cri 11
rem ained</w> 11
fr ère</w> 11
fr ères</w> 11
mis s 11
dem eure</w> 11
ow ns</w> 11
br it 11
ren d</w> 11
ren vers 11
Con tr 11
cau ght</w> 11
Re g 11
Re al</w> 11
tem per 11
col li 11
En f 11
Jo sé</w> 11
fac teur</w> 11
loc k</w> 11
loc ales</w> 11
De puty</w> 11
anci ennes</w> 11
low s</w> 11
Ar m 11
prof iter</w> 11
prof essor</w> 11
mé tier</w> 11
rel le</w> 11
rel ess</w> 11
cap acité</w> 11
bre ast</w> 11
cas ino</w> 11
bas ic</w> 11
bas tien</w> 11
bas eball</w> 11
ath le 11
contr aire</w> 11
mili e</w> 11
sor ties</w> 11
Br ady</w> 11
har mon 11
cor ri 11
év angéli 11
fe eling</w> 11
sal on</w> 11
sal les</w> 11
Wh it 11
chan té</w> 11
chan tiers</w> 11
vers ary</w> 11
ie fs</w> 11
bour g- 11
eur s- 11
sol o</w> 11
Su p 11
Su u</w> 11
offici ally</w> 11
gl om 11
fl ed</w> 11
iss ent</w> 11
Car din 11
cho ice</w> 11
199 0</w> 11
lev é</w> 11
prom inent</w> 11
Sh er 11
sub ject</w> 11
leg s</w> 11
entre tien</w> 11
sign ature</w> 11
clo sely</w> 11
vol s</w> 11
trou pe</w> 11
trou ble</w> 11
cré ée</w> 11
cré dit</w> 11
conn ues</w> 11
20 h</w> 11
out ine</w> 11
Se attle</w> 11
aw az</w> 11
tél é</w> 11
tric ité</w> 11
camp agn 11
chang ement</w> 11
gén ération</w> 11
fic it</w> 11
appro che</w> 11
5, 6 11
Sun ni</w> 11
men u</w> 11
men ac 11
men tion</w> 11
bro ther</w> 11
investi ssements</w> 11
17 h</w> 11
olog ue</w> 11
pp i</w> 11
fun ding</w> 11
Sou thern</w> 11
bur n</w> 11
exc iting</w> 11
cent age</w> 11
main t 11
main tenir</w> 11
We b 11
cher cher</w> 11
imp li 11
imp lic 11
ther e 11
proch ains</w> 11
proch aines</w> 11
Per s 11
Per man 11
ko vic</w> 11
coll è 11
win ds</w> 11
Lou ise</w> 11
popul arité</w> 11
Ben jamin</w> 11
def ensive</w> 11
under stood</w> 11
nation wide</w> 11
atten te</w> 11
scri ption</w> 11
Am érique</w> 11
AR IS</w> 11
stand ards</w> 11
Pr ice</w> 11
arti st</w> 11
explo itation</w> 11
élec tri 11
auth ority</w> 11
hol ds</w> 11
compl è 11
autom obiles</w> 11
bal le</w> 11
0- 2</w> 11
tru ly</w> 11
municip ale</w> 11
cat ch</w> 11
7, 6 11
prob ablement</w> 11
appar aît</w> 11
comple ted</w> 11
3- 2</w> 11
pé ti 11
shar ed</w> 11
condu ite</w> 11
condu cteur</w> 11
vill ages</w> 11
Bi bliothèque</w> 11
law suit</w> 11
ym p 11
fail ing</w> 11
mani f 11
investig ating</w> 11
pan ic</w> 11
Fo rest</w> 11
susp ension</w> 11
élé ment</w> 11
Er n 11
objec tifs</w> 11
trad emar 11
autor ou 11
multi - 11
multi ple</w> 11
hé ros</w> 11
her self</w> 11
receiv ing</w> 11
tradi tionnelle</w> 11
terror ism</w> 11
alli es</w> 11
inscri ption</w> 11
stu died</w> 11
Gre en 11
Gre at</w> 11
allow ing</w> 11
deli ver</w> 11
mid dle</w> 11
bil lets</w> 11
Ham ilton</w> 11
reti red</w> 11
reti rement</w> 11
land mark</w> 11
travail lé</w> 11
Geor gia</w> 11
dra wn</w> 11
reb ounds</w> 11
forc er</w> 11
consum ption</w> 11
cle an</w> 11
pic ture</w> 11
sugg es 11
sugg est</w> 11
docu ment</w> 11
Ou est</w> 11
Dur ant</w> 11
reconn aissance</w> 11
cy cle</w> 11
24 6, 11
ush ing</w> 11
expl ain</w> 11
réun ion</w> 11
institu tion</w> 11
prépar er</w> 11
produc ers</w> 11
sent ence</w> 11
atte indre</w> 11
Cap ital</w> 11
régi ons</w> 11
écri vain</w> 11
non profit</w> 11
recher ches</w> 11
imag ine</w> 11
row ing</w> 11
cru cial</w> 11
a. m.</w> 11
Cam er 11
blo g</w> 11
blo c</w> 11
driv ers</w> 11
Tor re</w> 11
fum eurs</w> 11
perman ent</w> 11
Dev ant</w> 11
competi tive</w> 11
previ ously</w> 11
employe e</w> 11
my self</w> 11
fab ri 11
certain ement</w> 11
excep tionnelle</w> 11
Indi ans</w> 11
tend ance</w> 11
esse l</w> 11
permet tra</w> 11
Secur ities</w> 11
targ ets</w> 11
qué béco 11
écl at 11
Inv esti 11
démocr ate</w> 11
démocr atie</w> 11
tom orrow</w> 11
lab el</w> 11
Air lines</w> 11
déplac ement</w> 11
Sé bastien</w> 11
Vill é</w> 11
reas ons</w> 11
débu té</w> 11
exam en</w> 11
shor tly</w> 11
dist ance</w> 11
poss ède</w> 11
effectu er</w> 11
Clar a</w> 11
Vic tor</w> 11
Mun ster</w> 11
mand at</w> 11
albu ms</w> 11
médec ins</w> 11
Cath erine</w> 11
declar ation</w> 11
Carol ine</w> 11
témo ign 11
May or</w> 11
domin ated</w> 11
franch ise</w> 11
manifest ation</w> 11
Elec tric</w> 11
chant euse</w> 11
Van couver</w> 11
exten sion</w> 11
voil à</w> 11
scru tin</w> 11
Cano ë</w> 11
collabor ation</w> 11
Atl antic</w> 11
disponi bles</w> 11
Gonz ales</w> 11
adress er</w> 11
challeng es</w> 11
écou te</w> 11
extrem ely</w> 11
Portu gal</w> 11
atmosp here</w> 11
jard in</w> 11
chu te</w> 11
promp ted</w> 11
subst anti 11
Syri a</w> 11
Pour tant</w> 11
Hus sein</w> 11
Ky i</w> 11
décl are</w> 11
protég er</w> 11
table au</w> 11
Good will</w> 11
bâti ment</w> 11
phys ical</w> 11
faudr a</w> 11
Venezu ela</w> 11
épou x</w> 11
Cô té</w> 11
fat al</w> 11
Kle in</w> 11
truc ks</w> 11
conci liation</w> 11
Concer t</w> 11
souven irs</w> 11
photograph s</w> 11
automobili stes</w> 11
Eli z 11
secré taire</w> 11
exact ly</w> 11
restric tions</w> 11
goû ter</w> 11
magni fique</w> 11
Dub ai</w> 11
parlement aire</w> 11
Youn g</w> 11
Gul f</w> 11
comfor table</w> 11
procu reur</w> 11
Paro isse</w> 11
expand ing</w> 11
Produ cts</w> 11
privil égi 11
Capit als</w> 11
Mathi eu</w> 11
pack age</w> 11
ral enti 11
kne e</w> 11
choo se</w> 11
consen sus</w> 11
share holders</w> 11
critic ism</w> 11
Administr ation</w> 11
patin oire</w> 11
Span ish</w> 11
Rol and</w> 11
sui vie</w> 11
telep hone</w> 11
alcoho l</w> 11
GO P</w> 11
Ini ti 11
hivern ale</w> 11
Colum bia</w> 11
bénévo les</w> 11
plead ed</w> 11
Ahm adine 11
embour g</w> 11
eventu ally</w> 11
Ark ansas</w> 11
client èle</w> 11
Voil à</w> 11
Kenne dy</w> 11
controversi al</w> 11
Irel and</w> 11
sevent h</w> 11
Thail and</w> 11
Ahmadine jad</w> 11
S id 10
S TE 10
S anta</w> 10
o vic</w> 10
u sion</w> 10
e w 10
e es</w> 10
e ch 10
e at</w> 10
e ating</w> 10
t est 10
l o</w> 10
l en 10
p - 10
p lic 10
p aint</w> 10
h a 10
h az 10
h abili 10
h 45</w> 10
n ent</w> 10
n ic 10
n au 10
n ég 10
n ach</w> 10
n ight 10
a partment</w> 10
r ay</w> 10
r ill</w> 10
J enn 10
m ont</w> 10
m ist 10
m érit 10
C é 10
C G 10
C R</w> 10
C er 10
C ent 10
C ern 10
s y</w> 10
s am 10
s me</w> 10
s man</w> 10
s end</w> 10
s cot 10
s theim</w> 10
R T 10
R at 10
R oc 10
R ég 10
R ach 10
R ome</w> 10
v res</w> 10
v ité</w> 10
b et</w> 10
b un 10
b al</w> 10
b lu 10
b loo 10
b arr 10
b aiss 10
b acks</w> 10
b ills</w> 10
b allon</w> 10
d am</w> 10
F C 10
F F 10
F . 10
F on 10
L . 10
L es 10
L ow 10
L ong 10
L év 10
L ater</w> 10
y é</w> 10
y an</w> 10
y ton</w> 10
z ens</w> 10
z heim</w> 10
g r</w> 10
g em 10
g ad 10
g el</w> 10
g agn 10
è che</w> 10
N I 10
N on</w> 10
N at 10
N ad 10
N ev 10
N ick</w> 10
N BC</w> 10
1 20</w> 10
î le</w> 10
D E</w> 10
D eu 10
D ès</w> 10
D um 10
D iluted</w> 10
A uc 10
P H 10
P I 10
P C</w> 10
P resse</w> 10
P outine</w> 10
E C 10
E .</w> 10
T ai 10
T im 10
T ru 10
T ow 10
T ER 10
T erry</w> 10
O L</w> 10
M é 10
M . 10
M S</w> 10
M ai 10
M en</w> 10
M ach 10
k t</w> 10
k g</w> 10
k - 10
k om 10
H on 10
H él 10
H arr 10
H aut</w> 10
H arry</w> 10
W ere</w> 10
W he 10
f ices</w> 10
x on</w> 10
x elles</w> 10
w o 10
w ins</w> 10
K no 10
K ah 10
B ir 10
B att 10
B oll 10
U p</w> 10
U MP</w> 10
I C 10
I tal 10
. fr</w> 10
j on 10
4 e</w> 10
4 8 10
8 4 10
8 ,000</w> 10
8 0s</w> 10
7 5, 10
7 0, 10
É co 10
an ol</w> 10
en ix</w> 10
en velop 10
en ko</w> 10
in qu 10
in spe 10
in ches</w> 10
in croy 10
th es</w> 10
th or 10
th al</w> 10
th ur</w> 10
th rowing</w> 10
er aient</w> 10
er ai</w> 10
er reur</w> 10
on des</w> 10
on able</w> 10
ti mi 10
ti onne</w> 10
ti ré</w> 10
ar o 10
ar bres</w> 10
re mo 10
re port 10
re jo 10
re ques 10
re form</w> 10
re marqu 10
re moved</w> 10
ai m 10
ai m</w> 10
ai gn 10
or - 10
or a</w> 10
qu e 10
qu ées</w> 10
li eu 10
tr y 10
tr ent 10
tr oo 10
tr êve</w> 10
es que</w> 10
it z</w> 10
it orial</w> 10
ch - 10
ch ée</w> 10
ch im 10
ch e- 10
om en 10
al é</w> 10
al em</w> 10
al pin 10
at edly</w> 10
ur i 10
ur é</w> 10
el er</w> 10
el et</w> 10
el son</w> 10
el ements</w> 10
as ser 10
as ey</w> 10
ac le</w> 10
ac te</w> 10
ac com 10
ac tes</w> 10
ac cidents</w> 10
un anim 10
un likely</w> 10
un usual</w> 10
ic ket</w> 10
au x 10
av ou 10
av icenci 10
con ce 10
con front 10
con vin 10
con vainc 10
con stitue</w> 10
st en</w> 10
st ressed</w> 10
di et</w> 10
di ab 10
di ens</w> 10
di gn 10
di zaine</w> 10
di visions</w> 10
di vor 10
di rected</w> 10
le g</w> 10
ag o 10
ag on</w> 10
ol ine</w> 10
su ing</w> 10
ro c 10
ro i</w> 10
ro ok 10
pl ain</w> 10
ri che</w> 10
de ep 10
de dic 10
po t</w> 10
po wers</w> 10
se ven 10
se cou 10
se cours</w> 10
se ctor</w> 10
pro of</w> 10
pro po 10
pro ve</w> 10
pro vis 10
pro vision</w> 10
pro gres 10
ab elle</w> 10
ab sol 10
ab solu 10
ci - 10
dé pos 10
dé tru 10
dé voil 10
us alem</w> 10
par am 10
our t</w> 10
be ating</w> 10
be coming</w> 10
be comes</w> 10
ap porter</w> 10
eu p</w> 10
ex pressed</w> 10
op inion</w> 10
vi eux</w> 10
ent am 10
ent ente</w> 10
pe ace 10
no tice</w> 10
et ta</w> 10
et terie</w> 10
ter n 10
ré pu 10
ré vol 10
ré nov 10
per centage</w> 10
mo tion</w> 10
for th</w> 10
ir o</w> 10
ir ing</w> 10
ir ak 10
ir ates</w> 10
sh ore</w> 10
sh ape</w> 10
ne ig 10
ne aux</w> 10
res cue</w> 10
gr ave</w> 10
gr ès</w> 10
co o 10
he ar 10
to it</w> 10
to wards</w> 10
so le</w> 10
so leil</w> 10
ni c</w> 10
pré sum 10
pré occup 10
pré fér 10
ér al</w> 10
ér ance</w> 10
pre - 10
pre vent 10
pre station</w> 10
ing u 10
Ch ant 10
min or</w> 10
min eurs</w> 10
vo itures</w> 10
bi bliothèque</w> 10
do is</w> 10
do se</w> 10
do ig 10
man age</w> 10
mar ge</w> 10
mar ès</w> 10
mar ked</w> 10
mar ried</w> 10
ec te</w> 10
dis ait</w> 10
dis crimin 10
dis rup 10
fi re 10
mon g</w> 10
mon it 10
ra di 10
ten d</w> 10
ten sion</w> 10
ten nis</w> 10
cu sto 10
go w</w> 10
der ie</w> 10
Th é 10
gh tly</w> 10
comp tes</w> 10
No tre 10
off en 10
off set</w> 10
ist ance</w> 10
19 83</w> 10
ev a</w> 10
um er</w> 10
Mar s</w> 10
Mar ket</w> 10
bo x 10
bo ar 10
Al liance</w> 10
inter vention</w> 10
inter diction</w> 10
inter pell 10
lu x 10
form ed</w> 10
ven aient</w> 10
sc and 10
vis ant</w> 10
str ic 10
bl anche</w> 10
bl amed</w> 10
St or 10
St ation</w> 10
St adium</w> 10
enti n</w> 10
él u</w> 10
él ég 10
publi ques</w> 10
ég alité</w> 10
ess enheim</w> 10
ell - 10
hom e 10
fo li 10
inv ite</w> 10
soci ales</w> 10
soci ety</w> 10
soci aliste</w> 10
cou leur</w> 10
cont ained</w> 10
cont re- 10
cont acts</w> 10
mat ching</w> 10
mat inée</w> 10
la x 10
cur é</w> 10
Ro y 10
Ro se</w> 10
aff iche</w> 10
eff ets</w> 10
ve dette</w> 10
ber y</w> 10
fr ais</w> 10
fr aud</w> 10
Par t 10
Par lement</w> 10
premi um</w> 10
ren ouv 10
Con tin 10
cau tion</w> 10
fam ous</w> 10
Re i 10
ans - 10
coun ter 10
cul tural</w> 10
cri tique</w> 10
enf in</w> 10
trav aille</w> 10
diff er</w> 10
ris ach</w> 10
mu seum</w> 10
part ager</w> 10
fac tor</w> 10
loc ations</w> 10
De troit</w> 10
Ar c 10
Ar senal</w> 10
cour te</w> 10
cour age</w> 10
cour ses</w> 10
prof ession</w> 10
rel ève</w> 10
cap ac 10
minis tres</w> 10
pri or</w> 10
pri ze</w> 10
ju gement</w> 10
Cl aire</w> 10
dr y</w> 10
dr ink</w> 10
2, 0 10
1, 4 10
Je anne</w> 10
contr ols</w> 10
mili tant</w> 10
Br on 10
Br and 10
fe ars</w> 10
fe wer</w> 10
dre w</w> 10
3, 3 10
Wh o</w> 10
chan nel</w> 10
chan tier</w> 10
sé ance</w> 10
sé lection</w> 10
trans action</w> 10
Su ch</w> 10
offici elle</w> 10
personn alités</w> 10
quar t</w> 10
Car ac 10
ash es</w> 10
dou ze</w> 10
secon des</w> 10
prom ised</w> 10
gro sses</w> 10
Sh a 10
Sh in 10
oper ate</w> 10
oper ates</w> 10
bus es</w> 10
clo sing</w> 10
vol ati 10
Pro file</w> 10
conn ue</w> 10
direct ement</w> 10
sk ins</w> 10
Se cteur</w> 10
Di vision</w> 10
Be fore</w> 10
dro ve</w> 10
concer ne</w> 10
maj eur</w> 10
Bl anc</w> 10
proc ed 10
num érique</w> 10
ah n 10
mag n 10
bou te 10
bou levard</w> 10
envir onn 10
So cial</w> 10
men er</w> 10
men ée</w> 10
possi bili 10
Bar r</w> 10
organis ateurs</w> 10
journ aliste</w> 10
situ ations</w> 10
fun c 10
terr or</w> 10
ple ased</w> 10
main tain</w> 10
main tenance</w> 10
Chr ys 10
Gu erre</w> 10
cher che</w> 10
commer çants</w> 10
Res erve</w> 10
Res erved</w> 10
provi der</w> 10
beg ins</w> 10
reven ues</w> 10
manag ed</w> 10
manag ing</w> 10
kill ings</w> 10
Saint- Louis</w> 10
Ge orges</w> 10
ref us 10
ref usé</w> 10
Jean- Marie</w> 10
Jean- Claude</w> 10
Mer rill</w> 10
ani um</w> 10
elec tricity</w> 10
kno wle 10
pay er</w> 10
pay ment</w> 10
ys ée</w> 10
esp ère</w> 10
Char l 10
2- 1</w> 10
Rob ert 10
Rob inson</w> 10
gg ed</w> 10
Sy stem</w> 10
larg ement</w> 10
Bri g 10
invest ments</w> 10
lin ks</w> 10
lin ked</w> 10
Am éric 10
cam er 10
Cor p.</w> 10
ajou te-t-il</w> 10
Dis ney</w> 10
det ained</w> 10
déf endre</w> 10
tot alement</w> 10
Man agement</w> 10
fa x</w> 10
le- Haut</w> 10
comb ination</w> 10
tion ing</w> 10
Mu sic</w> 10
compl ét 10
cus sions</w> 10
0- 0</w> 10
municip aux</w> 10
cat al 10
cat as 10
3- 1</w> 10
urg ed</w> 10
ate liers</w> 10
shar ing</w> 10
jud gment</w> 10
confi é</w> 10
administr ative</w> 10
sm aller</w> 10
Bi g</w> 10
suff it</w> 10
propos er</w> 10
propos al</w> 10
économ ies</w> 10
Ban que</w> 10
program mes</w> 10
tourn er</w> 10
clai ming</w> 10
ine m</w> 10
éch ou 10
trad ed</w> 10
Bu il 10
Bu reau</w> 10
ambi ti 10
ambi tion</w> 10
accep té</w> 10
différ ence</w> 10
multi ples</w> 10
photo grap 10
hé ber 10
abo li 10
effec tively</w> 10
del eg 10
Iraq is</w> 10
terror iste</w> 10
public ly</w> 10
stu dies</w> 10
head ed</w> 10
voy é</w> 10
occu pe</w> 10
deli vered</w> 10
famili al</w> 10
famili ale</w> 10
rais ing</w> 10
initi ally</w> 10
const ant</w> 10
hun t</w> 10
commit ment</w> 10
saf e</w> 10
anni versary</w> 10
redu ced</w> 10
professi on 10
Spe cial</w> 10
hop ing</w> 10
sav ent</w> 10
them e</w> 10
expl ained</w> 10
Val ley</w> 10
adv anced</w> 10
moder n 10
pens é</w> 10
dest ination</w> 10
opport unities</w> 10
gran d'</w> 10
émo tion</w> 10
attend ent</w> 10
augment er</w> 10
Cas tro</w> 10
Tou te</w> 10
fall en</w> 10
clin ical</w> 10
attent ats</w> 10
indic ation</w> 10
indic ated</w> 10
Sp ace</w> 10
étr anger</w> 10
rul ed</w> 10
bru ary</w> 10
ins isted</w> 10
Hen ri</w> 10
Bru xelles</w> 10
ense igne</w> 10
week - 10
clim bing</w> 10
ce inture</w> 10
On ly</w> 10
On tari 10
fron tière</w> 10
Ni k 10
Ni eder 10
fab rique</w> 10
rup ture</w> 10
excep tion</w> 10
sau ver</w> 10
bloc ked</w> 10
présid ence</w> 10
particul ar</w> 10
Che z</w> 10
gener ation</w> 10
gener ally</w> 10
paro issi 10
permet tant</w> 10
observ ateurs</w> 10
Del ta</w> 10
Bour se</w> 10
dép ôt</w> 10
Gol den</w> 10
Gol dman</w> 10
dispu té</w> 10
souhai te</w> 10
estim ate</w> 10
soldi er</w> 10
fédér al</w> 10
fédér ation</w> 10
Air port</w> 10
Med ic 10
compos é</w> 10
attemp ted</w> 10
victi m</w> 10
independ ence</w> 10
Vill avicenci 10
shor t 10
promo te</w> 10
promo tion</w> 10
CI A</w> 10
zi g</w> 10
immedi ate</w> 10
effectu é</w> 10
Clar k</w> 10
tch èque</w> 10
Fe bruary</w> 10
Itali e</w> 10
Cin q</w> 10
Cin éma</w> 10
senti ment</w> 10
fou le</w> 10
propr es</w> 10
fort une</w> 10
oblig ations</w> 10
chois i</w> 10
mén age</w> 10
viv ant</w> 10
financ ement</w> 10
crow d</w> 10
p. m.</w> 10
may be</w> 10
fê ter</w> 10
fru it</w> 10
fru its</w> 10
dépu tés</w> 10
suppor ted</w> 10
long- term</w> 10
spor tif</w> 10
Tran s 10
Lab or</w> 10
Boo k</w> 10
appréci é</w> 10
récu p 10
récu pérer</w> 10
neigh b 10
accus és</w> 10
coup able</w> 10
recei ver</w> 10
Syl vie</w> 10
manifest ations</w> 10
pain ful</w> 10
Wat ch</w> 10
refer ring</w> 10
facili ty</w> 10
protest ante</w> 10
fonctionn ement</w> 10
Pho enix</w> 10
far m</w> 10
professionn els</w> 10
PRNew swire</w> 10
sit ting</w> 10
Rud y</w> 10
enreg ist 10
Atl anta</w> 10
néces saire</w> 10
néces saires</w> 10
consist ent</w> 10
al-Q aida</w> 10
Cel u 10
Dre w</w> 10
Chil dren</w> 10
profon de</w> 10
correc t</w> 10
gradu ate</w> 10
ik h</w> 10
has n</w> 10
vê tements</w> 10
Don ald</w> 10
Met z</w> 10
fid èles</w> 10
effici ency</w> 10
Abd ullah</w> 10
Jud ge</w> 10
Camp bell</w> 10
Rev en 10
Lit tle</w> 10
quin zaine</w> 10
améli orer</w> 10
tempor ary</w> 10
borrow ers</w> 10
testi mony</w> 10
Tra de</w> 10
Hum an</w> 10
repe atedly</w> 10
attr act</w> 10
dial ogue</w> 10
collap se</w> 10
song s</w> 10
avali ers</w> 10
argu ed</w> 10
constat é</w> 10
réfle x 10
frag ile</w> 10
Clem ens</w> 10
regis tered</w> 10
islam istes</w> 10
neighbor hood</w> 10
ox y 10
won der</w> 10
thro wn</w> 10
artis ts</w> 10
fier té</w> 10
suppli es</w> 10
acknowle dged</w> 10
gang s</w> 10
dead ly</w> 10
perspec tive</w> 10
Stand ard</w> 10
professe ur</w> 10
struggl ing</w> 10
Broad way</w> 10
Muk asey</w> 10
étudi ants</w> 10
archit ect 10
éclair age</w> 10
Dak ar</w> 10
Treas ury</w> 10
Oper ating</w> 10
How ard</w> 10
UA E</w> 10
proxim ité</w> 10
firefigh ters</w> 10
intermédi aire</w> 10
volunte ers</w> 10
rond elle</w> 10
uncertain ties</w> 10
deg ree</w> 10
ophi e</w> 10
boî te</w> 10
guér illa</w> 10
Leban on</w> 10
cinqu antaine</w> 10
hélicopt ères</w> 10
Lond res</w> 10
wed ding</w> 10
Chall enge</w> 10
Roj as</w> 10
Enter tainment</w> 10
Bogo ta</w> 10
Shan gh 10
investis seurs</w> 10
nuclé aire</w> 10
With out</w> 10
circumst ances</w> 10
Fré dé 10
Oreg on</w> 10
Wiss embourg</w> 10
dépen ses</w> 10
Annu al</w> 10
Alab ama</w> 10
évangéli que</w> 10
eurs- pompiers</w> 10
campagn es</w> 10
autorou te</w> 10
Investi g 10
Cern ay</w> 10
Ital y</w> 10
convin ced</w> 10
rook ie</w> 10
Chant al</w> 10
Chrys ler</w> 10
Villavicenci o</w> 10
S k 9
S in 9
S un</w> 9
S lo 9
S ous</w> 9
S ach 9
S ales</w> 9
S ources</w> 9
o i</w> 9
o it</w> 9
o ch</w> 9
o ine</w> 9
c ass 9
c enti 9
c œur</w> 9
i ff 9
i der</w> 9
i enne</w> 9
i x- 9
e v</w> 9
t '</w> 9
t un 9
t an</w> 9
t én 9
t ree</w> 9
t s- 9
t led</w> 9
t ables</w> 9
t ells</w> 9
t swiller</w> 9
é ni 9
é mati 9
é changes</w> 9
l on</w> 9
p ers</w> 9
p ées</w> 9
p ink</w> 9
p ani 9
h n 9
h o</w> 9
h in 9
h ér 9
n ap 9
n ice</w> 9
n ord- 9
a e 9
â teaux</w> 9
r ain 9
r ally</w> 9
r oll</w> 9
r ural</w> 9
J av 9
J ack</w> 9
m ement</w> 9
m és</w> 9
m ale</w> 9
m ages</w> 9
m ène</w> 9
s par 9
s ée</w> 9
s per 9
s and 9
s mar 9
s ens 9
s .com</w> 9
s ley</w> 9
s ister</w> 9
s giving</w> 9
R A 9
R ap 9
R ad 9
R oo 9
R ho 9
R ick</w> 9
R acing</w> 9
v ais</w> 9
v ital</w> 9
v ague</w> 9
b ans</w> 9
b ra 9
b dom 9
b aki</w> 9
b ollah</w> 9
d d 9
d enti 9
d ress</w> 9
F al 9
F un 9
L and</w> 9
L el 9
L ing 9
L ors</w> 9
L ut 9
L acro 9
L ors 9
L arry</w> 9
y és</w> 9
g ing</w> 9
g ent</w> 9
g our 9
g ars</w> 9
g ained</w> 9
ô mes</w> 9
è tre</w> 9
è tes</w> 9
N é</w> 9
N ap 9
N ath 9
N ext</w> 9
N ancy</w> 9
1 30</w> 9
1 10</w> 9
1 3. 9
D a 9
D s</w> 9
D er</w> 9
D at 9
D ru 9
A A</w> 9
A . 9
A T</w> 9
A th 9
A gr 9
A ud 9
A venue</w> 9
A ID 9
A mong</w> 9
V ati 9
V ers</w> 9
V ick</w> 9
P M 9
P K 9
P at 9
P av 9
P le 9
P ap 9
P ays</w> 9
P ot 9
P ie 9
P ack 9
P hal 9
P atr 9
P OR 9
E p 9
E qu 9
E ver 9
E tienne</w> 9
E milie</w> 9
T F 9
T O</w> 9
T D</w> 9
T élé 9
O st 9
M I 9
M oun 9
M ount</w> 9
M anning</w> 9
M gr</w> 9
Y u 9
Y .</w> 9
Y ang 9
k an 9
k er 9
H é 9
H .</w> 9
H ab 9
H ist 9
H ut 9
H igg 9
H IV</w> 9
W ill 9
W ind 9
W oods</w> 9
f i</w> 9
f an 9
f en 9
f aux</w> 9
f ra 9
f ail</w> 9
f ying</w> 9
f -B 9
f lag</w> 9
w ur 9
w alls</w> 9
G O</w> 9
9 5 9
9 00</w> 9
K l 9
K id 9
B at 9
B as</w> 9
B an</w> 9
B ell 9
B ach 9
B arry</w> 9
6 0 9
6 50</w> 9
I A 9
I V 9
I ci</w> 9
ê mement</w> 9
j i</w> 9
j azz</w> 9
4 0 9
4 0- 9
8 8 9
2 9 9
2 7 9
7 3 9
7 50</w> 9
É tats</w> 9
en des</w> 9
en ab 9
en thou 9
en bourg</w> 9
en roll 9
in su 9
in au</w> 9
in ie</w> 9
in ner</w> 9
in sul 9
th ri 9
er ons</w> 9
er ous</w> 9
er ves</w> 9
on i 9
on de</w> 9
ou ts</w> 9
ou ch</w> 9
ti a</w> 9
ti an</w> 9
ti ge</w> 9
ti ssement</w> 9
ti ennent</w> 9
ar re</w> 9
ar bre</w> 9
ar ns</w> 9
re ts</w> 9
re dou 9
re prise</w> 9
re sidential</w> 9
re placed</w> 9
re jected</w> 9
ai d 9
qu in</w> 9
qu ai</w> 9
qu illes</w> 9
li ch 9
li ch</w> 9
tr ained</w> 9
es ter</w> 9
es see</w> 9
it ant</w> 9
it able</w> 9
it e- 9
is ant</w> 9
is son</w> 9
is sions</w> 9
ch ell</w> 9
om p 9
om ic</w> 9
al i</w> 9
al a</w> 9
al o</w> 9
al ais</w> 9
pr end 9
pr ano</w> 9
at e- 9
at tered</w> 9
ur anium</w> 9
em er 9
em ic</w> 9
as is</w> 9
as cul 9
as gow</w> 9
il - 9
un its</w> 9
un able</w> 9
un gen</w> 9
un ivers</w> 9
ati ques</w> 9
ati vement</w> 9
au to</w> 9
av re</w> 9
av ior</w> 9
si eur</w> 9
si ves</w> 9
si x- 9
con ven 9
con fort</w> 9
con vention</w> 9
am oun 9
am ie</w> 9
am az 9
am itié</w> 9
st ers</w> 9
st ars</w> 9
di an</w> 9
di am 9
di os</w> 9
di vid 9
ol ore</w> 9
pl ant 9
pl enty</w> 9
ri ding</w> 9
de tention</w> 9
com preh 9
po ver 9
po ids</w> 9
pro file</w> 9
ab bed</w> 9
ci o</w> 9
ci des</w> 9
dé rale</w> 9
us ée</w> 9
par i</w> 9
par lé</w> 9
par aît</w> 9
lo is</w> 9
lo ad</w> 9
lo tte</w> 9
ad er</w> 9
ad is</w> 9
ad mi 9
ad aire</w> 9
op té</w> 9
vi l</w> 9
vi de</w> 9
vi ens</w> 9
vi ève</w> 9
ver ture</w> 9
ent er 9
ent end</w> 9
ré sou 9
ré mun 9
ré veillon</w> 9
im pose</w> 9
ét onne</w> 9
per tur 9
per tswiller</w> 9
mo tor 9
mo vements</w> 9
ir i</w> 9
ul ée</w> 9
por te 9
por ted</w> 9
sh ops</w> 9
ne c 9
ne ither</w> 9
res ol 9
res sorti 9
gr am</w> 9
gr ounds</w> 9
the w</w> 9
the astern</w> 9
te es</w> 9
ay a</w> 9
pu isse</w> 9
he bdom 9
ser sberg</w> 9
ali a</w> 9
ak sin</w> 9
so - 9
and a</w> 9
and o</w> 9
and er 9
and ed</w> 9
pre sid 9
pre gn 9
min es</w> 9
min ded</w> 9
min ority</w> 9
bi tion</w> 9
ill é</w> 9
do s</w> 9
do zens</w> 9
onn ée</w> 9
onn és</w> 9
mar ri 9
ec k</w> 9
ec tions</w> 9
ec tive</w> 9
ec tionn 9
ss ants</w> 9
fi ée</w> 9
comm un</w> 9
comm ent 9
comm iss 9
mon ks</w> 9
ra ff 9
ra ft</w> 9
du m 9
du r</w> 9
du ty</w> 9
gi es</w> 9
gi ant</w> 9
hi red</w> 9
all et</w> 9
tri um 9
go ût</w> 9
Th rou 9
Th ank 9
Th aksin</w> 9
rec all</w> 9
comp ét 9
comp let 9
af gh 9
wor ry</w> 9
No ë 9
off res</w> 9
An ton 9
ist en</w> 9
ob li 9
ob st 9
ob tient</w> 9
t- term</w> 9
Mar y</w> 9
Mar ine</w> 9
Mar mou 9
ho sti 9
cre ating</w> 9
ep ing</w> 9
fin ally</w> 9
inter pr 9
inter ests</w> 9
inter ested</w> 9
ven ait</w> 9
acc ord 9
tu ée</w> 9
me ts</w> 9
sc rat 9
vis age</w> 9
bl ast</w> 9
bl az 9
St ar 9
St one</w> 9
St ade</w> 9
déc isi 9
ang e 9
tou ch</w> 9
iv re</w> 9
inv ited</w> 9
inv itation</w> 9
Qu ote</w> 9
ach ev 9
sur ge</w> 9
sur face</w> 9
ph en 9
ph ins</w> 9
car di 9
car tes</w> 9
dev ront</w> 9
sou rire</w> 9
port foli 9
la - 9
esti ment</w> 9
esti mé</w> 9
anc ourt</w> 9
rem aining</w> 9
Ro is</w> 9
sch e 9
fer red</w> 9
fr ustr 9
cr ète</w> 9
app ed</w> 9
app elle</w> 9
dem i</w> 9
br ings</w> 9
cau ses</w> 9
Re port</w> 9
plo t</w> 9
amp agne</w> 9
cri tics</w> 9
trav eling</w> 9
ear n</w> 9
Mon de</w> 9
Mon tg 9
id en</w> 9
Jo sh</w> 9
des tro 9
sup prim 9
sup posed</w> 9
Ar thur</w> 9
rel ais</w> 9
rel atives</w> 9
lic enci 9
hu mili 9
mor te</w> 9
cap tain</w> 9
ge gen</w> 9
che fs</w> 9
cas ting</w> 9
gar çon</w> 9
sor ti</w> 9
eng er</w> 9
lead s</w> 9
har der</w> 9
war ming</w> 9
ret ourn 9
cor ner</w> 9
Sch il 9
Sch ir 9
Sch ul 9
Sch war 9
Sch mit 9
fe els</w> 9
govern ing</w> 9
Can n</w> 9
sal aires</w> 9
sé du 9
alis é</w> 9
alis me</w> 9
trans mission</w> 9
trans actions</w> 9
acti onnaires</w> 9
commun al</w> 9
personn age</w> 9
iss ement</w> 9
nom s</w> 9
nom in 9
nom ine 9
0. 02</w> 9
play off</w> 9
Sh or 9
sub stitu 9
présent ation</w> 9
présent és</w> 9
respon d</w> 9
cel lu 9
plac ements</w> 9
clo ser</w> 9
gre es</w> 9
Pro v 9
conn ais 9
Be ar</w> 9
Is abelle</w> 9
concer nés</w> 9
val oir</w> 9
repor ter</w> 9
fai ble</w> 9
pou ssé</w> 9
ques - 9
Me h 9
4, 6 9
Nor folk</w> 9
anim ée</w> 9
associ ated</w> 9
fic ations</w> 9
Eur o</w> 9
appro ached</w> 9
bar ely</w> 9
Mc Lar 9
Mc Cann</w> 9
mag ique</w> 9
bou che</w> 9
5, 9 9
5, 0 9
Gr and 9
Ko so 9
So leil</w> 9
Li b 9
Li ve</w> 9
Li fe</w> 9
investi r</w> 9
organis er</w> 9
organis ations</w> 9
Ste ven</w> 9
olog ist</w> 9
long time</w> 9
exc ited</w> 9
To wn</w> 9
To dd</w> 9
ple a</w> 9
Ex position</w> 9
imp ôt</w> 9
ther ap 9
ther wise</w> 9
éd rale</w> 9
direc trice</w> 9
manag ers</w> 9
run - 9
Jean- Luc</w> 9
Mer kel</w> 9
nov el</w> 9
conf lit</w> 9
uti li 9
Ad ams</w> 9
whe el 9
pay sage</w> 9
Lou isi 9
fem ale</w> 9
inf ection</w> 9
esp è 9
génér alement</w> 9
Or ly</w> 9
retur ning</w> 9
AN D</w> 9
gg ing</w> 9
bri ef</w> 9
atten du</w> 9
invest or</w> 9
lin ed</w> 9
Lu ke</w> 9
Am ster 9
act ors</w> 9
Pr in 9
up date</w> 9
Cor p</w> 9
lib érer</w> 9
déf enseur</w> 9
any way</w> 9
ond a</w> 9
quo ted</w> 9
le- ci</w> 9
comb in 9
1- 0</w> 9
compl été</w> 9
compl aints</w> 9
Ang ela</w> 9
imm ense</w> 9
happ ens</w> 9
0- 1</w> 9
lik es</w> 9
Cro ss</w> 9
Cro ix- 9
AS PT 9
ate lier</w> 9
shar p</w> 9
condu ct</w> 9
Mul ti 9
Bi esheim</w> 9
law makers</w> 9
bon d</w> 9
Em irates</w> 9
fail ure</w> 9
suff ici 9
beh avior</w> 9
9, 8 9
Isra ël</w> 9
perform ed</w> 9
éch elle</w> 9
civi le</w> 9
Den ver</w> 9
Bu ff 9
tiv ité</w> 9
post season</w> 9
commis sioner</w> 9
audi o</w> 9
abo ard</w> 9
ON G</w> 9
terror istes</w> 9
custom er</w> 9
respons abilité</w> 9
stu ff</w> 9
head ing</w> 9
head quarters</w> 9
pal marès</w> 9
sci ence</w> 9
inten se</w> 9
AL L 9
adop ter</w> 9
25 . 9
rédu it</w> 9
fle xi 9
const ater</w> 9
hy bri 9
Kar achi</w> 9
plan ète</w> 9
decis ions</w> 9
vide os</w> 9
speci es</w> 9
Bas ra</w> 9
requ ires</w> 9
extr êmement</w> 9
Mal gré</w> 9
europé en</w> 9
hop e 9
bat aille</w> 9
Wil d 9
Wil d</w> 9
was te</w> 9
reconn aît</w> 9
diri g 9
potenti ally</w> 9
difficul té</w> 9
Phili p</w> 9
sav ings</w> 9
AT I 9
Ol ymp 9
expl or 9
ide as</w> 9
minist ers</w> 9
produc er</w> 9
ordin ated</w> 9
arrê tés</w> 9
sent encing</w> 9
dest inée</w> 9
siè ges</w> 9
crimin elle</w> 9
hor ri 9
vrai e</w> 9
Tou jours</w> 9
fall s</w> 9
fall ing</w> 9
dévelop per</w> 9
étr angers</w> 9
Mit chell</w> 9
regi me</w> 9
regi ons</w> 9
oppos ite</w> 9
temp ête</w> 9
St- Louis</w> 9
4- 3</w> 9
utilis er</w> 9
gri m 9
fum er</w> 9
Bru ins</w> 9
chec k 9
Neu dorf</w> 9
weap on</w> 9
immigr ant</w> 9
Australi e</w> 9
alleg edly</w> 9
emerg ed</w> 9
seul s</w> 9
spir itu 9
foun dation</w> 9
voul ait</w> 9
N. Y.</w> 9
Mad rid</w> 9
plat form</w> 9
religi eux</w> 9
tari at</w> 9
festi v 9
dispu te</w> 9
tom be</w> 9
CA A</w> 9
gam me</w> 9
Ki baki</w> 9
proper ly</w> 9
break s</w> 9
Sé curité</w> 9
Mur phy</w> 9
sec teurs</w> 9
financi er</w> 9
hospit als</w> 9
eth anol</w> 9
eth nic</w> 9
dess ous</w> 9
respec tivement</w> 9
satis fac 9
sett le</w> 9
impl ement 9
Commun auté</w> 9
Brun i</w> 9
Pan thers</w> 9
wil d 9
Gl asgow</w> 9
habitu de</w> 9
mén ages</w> 9
bir th</w> 9
zz a</w> 9
Bet ween</w> 9
impos er</w> 9
attor neys</w> 9
célé b 9
dét ail</w> 9
rég imes</w> 9
civili ans</w> 9
Shi ite</w> 9
cab inet</w> 9
Bul l 9
stati sti 9
stati onnement</w> 9
déb at</w> 9
vois in</w> 9
Islam abad</w> 9
Franc e- 9
confid ence</w> 9
Virg inie</w> 9
questi oning</w> 9
mont rer</w> 9
prison ers</w> 9
prison niers</w> 9
excell ence</w> 9
israéli en</w> 9
mauv aise</w> 9
fréqu entation</w> 9
Cab inet</w> 9
gend armerie</w> 9
régl er</w> 9
compens ation</w> 9
frapp é</w> 9
virtu al</w> 9
libér al</w> 9
syndic ats</w> 9
moun ted</w> 9
Fam ili 9
instr uments</w> 9
correc tionnel</w> 9
atmosp h 9
Cre dit</w> 9
charac ter</w> 9
rh et 9
mil k</w> 9
Att or 9
Kur dish</w> 9
Organ iz 9
table aux</w> 9
Cul ture</w> 9
Ret ail</w> 9
Rep res 9
Feder er</w> 9
recomm ended</w> 9
aspe ct</w> 9
aspe cts</w> 9
ein en</w> 9
bann ed</w> 9
da q</w> 9
Mah mou 9
inaug uration</w> 9
chauss ée</w> 9
musici ens</w> 9
handic ap 9
accueill i</w> 9
manufactur ers</w> 9
napp ing</w> 9
sén atrice</w> 9
gath ered</w> 9
Wis cons 9
détermin er</w> 9
éto ile</w> 9
matéri el</w> 9
Beau coup</w> 9
appropri ate</w> 9
Champi onship</w> 9
réguli èrement</w> 9
rar ement</w> 9
D. C.</w> 9
Paci fic</w> 9
insurg ents</w> 9
impres sive</w> 9
transpar ence</w> 9
campaign s</w> 9
fabric ation</w> 9
ryth me</w> 9
lon gues</w> 9
Nas daq</w> 9
farm ers</w> 9
olympi ques</w> 9
cigar ette</w> 9
neg ative</w> 9
distin ction</w> 9
nécess ité</w> 9
immeu ble</w> 9
céré monie</w> 9
Jé sus</w> 9
Tenn essee</w> 9
Gene viève</w> 9
IB M</w> 9
cong és</w> 9
appoint ment</w> 9
cerem ony</w> 9
great est</w> 9
Hoch felden</w> 9
procéd ure</w> 9
Rober ts</w> 9
pauv reté</w> 9
vétér ans</w> 9
Fol lowing</w> 9
colombi enne</w> 9
friend ly</w> 9
Gabri el</w> 9
écol o 9
pê che</w> 9
Dut ch</w> 9
BM W</w> 9
anon ym 9
limin ary</w> 9
avan t- 9
rug by</w> 9
phil os 9
promen ade</w> 9
nin th</w> 9
monn aie</w> 9
gas oline</w> 9
Ama zon</w> 9
Morg an</w> 9
woul dn</w> 9
Kay sersberg</w> 9
tox ic 9
interest- bearing</w> 9
scul p 9
brit annique</w> 9
colli sion</w> 9
Pers onne</w> 9
Perman ence</w> 9
collè gues</w> 9
complè tement</w> 9
péti tion</w> 9
Camer on</w> 9
québéco ise</w> 9
Eliz abeth</w> 9
Hél ène</w> 9
custo dy</w> 9
Rei pertswiller</w> 9
Carac as</w> 9
environn ement 9
Améric ains</w> 9
Buil ding</w> 9
réflex ion</w> 9
Shangh ai</w> 9
Frédé ric</w> 9
Lel ouch</w> 9
Lacro ix</w> 9
AID S</w> 9
Vati can</w> 9
PK K</w> 9
Ost wald</w> 9
Higg ins</w> 9
commiss ariat</w> 9
Thank sgiving</w> 9
complet ely</w> 9
Marmou tier</w> 9
Montg om 9
McLar en</w> 9
S l 8
S G</w> 8
S F</w> 8
S qu 8
S mi 8
S ie</w> 8
S even</w> 8
S te- 8
o es</w> 8
o is 8
o les</w> 8
o vern 8
o deur</w> 8
o therwise</w> 8
u k</w> 8
u d</w> 8
u elle</w> 8
c u</w> 8
c ence</w> 8
c king</w> 8
c ked</w> 8
c ited</w> 8
i ding</w> 8
e b 8
e ant</w> 8
e ply</w> 8
e inem</w> 8
t é 8
t am 8
t ol 8
t ations</w> 8
t aient</w> 8
t ney</w> 8
t ops</w> 8
t ested</w> 8
t onnes</w> 8
é or 8
l au 8
l aine</w> 8
l ais 8
l enheim</w> 8
l augh 8
l van 8
l èvement</w> 8
p es 8
p au 8
p ét 8
p ical</w> 8
h em 8
h man</w> 8
h aw 8
n - 8
n d</w> 8
n am 8
n ach 8
a ho 8
a eff 8
r ô 8
r d</w> 8
r as 8
r ab 8
r oul 8
r ass 8
r ice</w> 8
r assembl 8
J en 8
J ou 8
J ay</w> 8
m am 8
m ér 8
m its</w> 8
m ut 8
m icro 8
m ph</w> 8
m -hm 8
C H</w> 8
C it 8
C au 8
C ass 8
C ore</w> 8
C él 8
C ow 8
C ène</w> 8
C avaliers</w> 8
s és</w> 8
s by</w> 8
s pre 8
s gi 8
s ounds</w> 8
R C</w> 8
R ic 8
R av 8
R est 8
R aw 8
R BO</w> 8
v é</w> 8
v il 8
v as</w> 8
v or</w> 8
v éri 8
v aste</w> 8
q u</w> 8
b ac 8
b ag 8
b ad 8
b est- 8
b rési 8
d h 8
d il 8
d ons</w> 8
d ney</w> 8
d angers</w> 8
F A</w> 8
F il 8
F au 8
F OR 8
F illon</w> 8
L is 8
L ag 8
L ight</w> 8
L aw 8
L aw</w> 8
L OND 8
y our 8
z bollah</w> 8
g a</w> 8
g les</w> 8
g uns</w> 8
N ation</w> 8
N ich 8
N BA</w> 8
N awaz</w> 8
D ick</w> 8
A V 8
A k 8
A I 8
A ur 8
A ung</w> 8
A cross</w> 8
V en 8
V ert</w> 8
P R</w> 8
P E</w> 8
P in 8
P it 8
P ur 8
P age</w> 8
P ep 8
P OU 8
E u 8
E l</w> 8
E v 8
E ag 8
E ff 8
T an 8
T ab 8
T op 8
T ed 8
T into</w> 8
T VA</w> 8
O c 8
O .</w> 8
O . 8
O ver 8
O il</w> 8
O ld</w> 8
M P 8
M es 8
M ol 8
M ess 8
M ines</w> 8
M ick 8
M emp 8
Y ann 8
k en 8
k on 8
k el 8
k lin</w> 8
H it 8
H as</w> 8
H ad</w> 8
ü ber</w> 8
W S 8
W est 8
W i- 8
f ed</w> 8
f en</w> 8
f at</w> 8
w al</w> 8
w ick</w> 8
w ell- 8
G o</w> 8
G . 8
G at 8
G ame</w> 8
G old</w> 8
G ary</w> 8
G alli 8
G lobal</w> 8
9 3 8
X e</w> 8
X VI</w> 8
K h 8
K on 8
K om 8
K ate</w> 8
K rem 8
K erry</w> 8
B in 8
B it 8
B ol 8
B ay 8
B ob 8
B enf 8
B angl 8
U ta 8
U BS</w> 8
6 e</w> 8
6 ,000</w> 8
I d 8
Q U 8
Q ue</w> 8
4 5 8
8 e</w> 8
3 3 8
2 30</w> 8
2 40</w> 8
2 8- 8
É cou 8
á vez</w> 8
an xi 8
en n</w> 8
en or 8
en st 8
en able</w> 8
en berg</w> 8
in age</w> 8
in dis 8
in e- 8
in cul 8
in cidents</w> 8
in burgh</w> 8
th o 8
th in</w> 8
th ouse</w> 8
th ème</w> 8
th ique</w> 8
er o 8
er al</w> 8
er up 8
er land 8
on n</w> 8
on going</w> 8
ou d</w> 8
ou t- 8
ou red</w> 8
ti z</w> 8
ti ed</w> 8
ti les</w> 8
ti rer</w> 8
ti endra</w> 8
ar o</w> 8
ar ch</w> 8
re d 8
re vers</w> 8
re cue 8
re pli 8
re pos</w> 8
re alized</w> 8
re placement</w> 8
re dress 8
ai ms</w> 8
or ical</w> 8
or ama</w> 8
or ange</w> 8
qu it</w> 8
qu ill 8
qu ake</w> 8
qu ences</w> 8
li é</w> 8
li ens</w> 8
li br 8
li chen</w> 8
tr ont</w> 8
tr ée</w> 8
tr ail 8
es té</w> 8
it ement</w> 8
is en 8
ch ô 8
ch ent</w> 8
om a</w> 8
al le</w> 8
al ent 8
pr es</w> 8
pr ac 8
pr ic 8
pr ête</w> 8
pr ennent</w> 8
el o</w> 8
em pl 8
em porter</w> 8
as c 8
as er</w> 8
as ion</w> 8
as ters</w> 8
as truct 8
il ement</w> 8
un ter</w> 8
un expected</w> 8
un known</w> 8
ic olore</w> 8
au b 8
au str 8
au ction</w> 8
au quel</w> 8
av e 8
av ent</w> 8
av ant 8
si a</w> 8
si ens</w> 8
con c 8
con di 8
con te</w> 8
con state</w> 8
con cept</w> 8
am end 8
st olen</w> 8
di le</w> 8
di ap 8
ag a</w> 8
ag en</w> 8
ag ir</w> 8
ag és</w> 8
ag ric 8
ol f</w> 8
ol et</w> 8
ol ly</w> 8
ol ph</w> 8
su isse</w> 8
ro ï 8
pl i</w> 8
pl ate</w> 8
pl af 8
pl ats</w> 8
pl ainte</w> 8
ri - 8
ri ches</w> 8
de p 8
de but</w> 8
de cor 8
de venue</w> 8
de ficit</w> 8
de grees</w> 8
com e 8
com prom 8
com prend</w> 8
po p</w> 8
po ses</w> 8
po che</w> 8
po ign 8
se z</w> 8
se es</w> 8
pro be</w> 8
pro venant</w> 8
ab road</w> 8
ci de</w> 8
ci er</w> 8
dé pl 8
dé ment</w> 8
dé pend 8
dé fun 8
dé sert</w> 8
wh el 8
par ent</w> 8
be y</w> 8
ap ing</w> 8
ap porte</w> 8
ap partement</w> 8
eu t</w> 8
lo cu 8
ad hé 8
ad mitted</w> 8
ex on 8
ex pres 8
ex ecu 8
vi ation</w> 8
vi ous</w> 8
ver g 8
ent ative</w> 8
pe in 8
no - 8
no ti 8
no ter</w> 8
et es</w> 8
et ary</w> 8
ig e 8
ré ci 8
ré per 8
ré el</w> 8
ré tro 8
ré alise</w> 8
ét age</w> 8
ét ape</w> 8
for ts</w> 8
ul timately</w> 8
res erve</w> 8
co t</w> 8
co ol</w> 8
co operation</w> 8
te en</w> 8
te ch</w> 8
end en</w> 8
end ants</w> 8
end um</w> 8
oun ced</w> 8
ay e</w> 8
bu yers</w> 8
he licop 8
so i 8
so in</w> 8
so lic 8
and ises</w> 8
mi x</w> 8
pré vues</w> 8
ér ée</w> 8
pre stations</w> 8
pre ced 8
pre liminary</w> 8
ing a</w> 8
Ch aque</w> 8
Ch urch</w> 8
Ch ávez</w> 8
min i- 8
vo is</w> 8
vo ting</w> 8
vo eux</w> 8
vo irs</w> 8
vo sgi 8
ass ed</w> 8
bi d 8
bi en 8
onn ées</w> 8
ss en</w> 8
dis cu 8
dis poser</w> 8
mon o 8
du - 8
all ant</w> 8
cu se</w> 8
we ed</w> 8
we ak 8
tri e</w> 8
der en</w> 8
Th ai</w> 8
gh es</w> 8
rec k 8
rec ettes</w> 8
comp li 8
In stead</w> 8
af ric 8
sp an</w> 8
sp ach</w> 8
oc tro 8
ran ks</w> 8
off - 8
An n</w> 8
19 48</w> 8
19 87</w> 8
19 84</w> 8
19 80s</w> 8
um ent 8
Mar guer 8
bo d 8
bo w 8
ud a</w> 8
cre ative</w> 8
fin it</w> 8
fin ir</w> 8
inter dit</w> 8
lu xe</w> 8
acc él 8
tu rer</w> 8
sc en 8
sc ape</w> 8
sc ores</w> 8
vis ites</w> 8
gu it 8
gu eu 8
gu ys</w> 8
én aire</w> 8
rou tière</w> 8
bl é</w> 8
bl ame</w> 8
déc ouverte</w> 8
déc édée</w> 8
est ine</w> 8
ma je 8
parti cipe</w> 8
pi an 8
pi erre</w> 8
pi eces</w> 8
tou chés</w> 8
él ève</w> 8
ég al</w> 8
oll en</w> 8
ess ence</w> 8
ell i</w> 8
fir es</w> 8
Qu elle</w> 8
ut ely</w> 8
spe cul 8
ach et 8
ach ats</w> 8
cou vert</w> 8
cont ourn 8
cont ains</w> 8
ph r 8
e- mail</w> 8
mat h</w> 8
la c</w> 8
esti val</w> 8
rem ises</w> 8
rem porter</w> 8
aff lu 8
aff ord</w> 8
qui et</w> 8
qui red</w> 8
qui ème</w> 8
sch ol 8
fr ac 8
fr au 8
wi des 8
cr ée</w> 8
cr aint</w> 8
Par c</w> 8
tt i</w> 8
dem ocr 8
dem andes</w> 8
arg uments</w> 8
ow nership</w> 8
br illi 8
br ands</w> 8
ren seignements</w> 8
Con trol</w> 8
Con stitution</w> 8
Re agan</w> 8
aur ais</w> 8
pon ctu 8
ans w 8
col on 8
col or 8
col ère</w> 8
Com m 8
Com mis 8
cri mes</w> 8
sy lvan 8
pass ées</w> 8
pass agers</w> 8
En trée</w> 8
ind ice</w> 8
diff usé</w> 8
Jo se</w> 8
des tru 8
rest ation</w> 8
rest ore</w> 8
De posits</w> 8
Ar ch 8
mé moire</w> 8
lic ens 8
mor c 8
cap tured</w> 8
minis try</w> 8
ari a</w> 8
uni ons</w> 8
uni versi 8
air ports</w> 8
bas se</w> 8
ot t</w> 8
ot te</w> 8
gar derie</w> 8
2, 000</w> 8
1, 6 8
1, 5</w> 8
1, 8 8
1, 2 8
fu gi 8
contr ats</w> 8
contr airement</w> 8
eng ou 8
eng en</w> 8
har m</w> 8
ret ali 8
cro is</w> 8
cro ire</w> 8
Sch w 8
Sch engen</w> 8
Mo y 8
Mo bile</w> 8
év olution</w> 8
év olu 8
fe es</w> 8
govern ments</w> 8
Can al</w> 8
Wh atever</w> 8
met tant</w> 8
met tent</w> 8
trans formation</w> 8
trans mis</w> 8
trans ports</w> 8
quel ine</w> 8
Su per</w> 8
offici el</w> 8
personn alité</w> 8
Car di 8
shi ft</w> 8
reg ret</w> 8
199 0s</w> 8
stat ut</w> 8
Sain te</w> 8
gro sse</w> 8
respon ded</w> 8
pas teur</w> 8
oper ated</w> 8
clo thes</w> 8
Pro te 8
trou bles</w> 8
pul l</w> 8
conn aît</w> 8
direct ors</w> 8
20 6</w> 8
20 20</w> 8
out look</w> 8
out standing</w> 8
plu me</w> 8
plu ie</w> 8
Di ff 8
Di ana</w> 8
Be th 8
Be ach</w> 8
dic t 8
spo ts</w> 8
fai th</w> 8
Bl ake</w> 8
camp us</w> 8
He zbollah</w> 8
lig ue</w> 8
4, 8 8
high way</w> 8
ah l 8
ah a</w> 8
fic tion</w> 8
franç aises</w> 8
appro val</w> 8
ta g</w> 8
Mc N 8
mag ie</w> 8
Min u 8
Ko val 8
Li onel</w> 8
1. 5</w> 8
1. 2</w> 8
cin quième</w> 8
Ab u</w> 8
ress ources</w> 8
organis ées</w> 8
Ste arns</w> 8
17 - 8
peri ods</w> 8
fun ded</w> 8
bur st</w> 8
bur ned</w> 8
main tien</w> 8
Ber lin</w> 8
atur ing</w> 8
curr ency</w> 8
Res te</w> 8
Res ources</w> 8
trai tement</w> 8
ko v 8
foo ds</w> 8
rac es</w> 8
Wor kers</w> 8
Saint- Jean</w> 8
run g</w> 8
Jean- Marc</w> 8
ck y</w> 8
déclar ation</w> 8
coll égi 8
win ter</w> 8
uti ves</w> 8
kno ws</w> 8
pay ments</w> 8
ish ops</w> 8
atr a</w> 8
mal ade</w> 8
Pak ist 8
Pak istan 8
lim it 8
lim ite</w> 8
agn on</w> 8
génér ations</w> 8
lect eur</w> 8
Or tiz</w> 8
fé dérale</w> 8
termin ée</w> 8
show ing</w> 8
Rob in</w> 8
let tres</w> 8
hand le</w> 8
hand led</w> 8
bri g 8
Sy dney</w> 8
Ger stheim</w> 8
améric aines</w> 8
Lu is</w> 8
Am bass 8
act ress</w> 8
litt ér 8
prim aire</w> 8
prim arily</w> 8
cam ions</w> 8
wat er 8
arti sans</w> 8
sing er</w> 8
sing les</w> 8
sing ue</w> 8
explo it</w> 8
ajou ter</w> 8
ajou tent</w> 8
Lo ve</w> 8
déf i</w> 8
déf aut</w> 8
élec teurs</w> 8
élec tron 8
élec tricité</w> 8
14 . 8
reli ef</w> 8
comb ined</w> 8
too l</w> 8
hol der</w> 8
1- 2</w> 8
1- 1</w> 8
1- 3</w> 8
Ver y</w> 8
Mu ch</w> 8
Mu sique</w> 8
jur i 8
Sen ator</w> 8
Go d</w> 8
hist oric</w> 8
arriv ed</w> 8
happ ening</w> 8
réalis ateur</w> 8
bless ing</w> 8
bless ure</w> 8
bless ures</w> 8
follow s</w> 8
see k</w> 8
appar ent</w> 8
comple tion</w> 8
differ ences</w> 8
Hu et</w> 8
Hu ghes</w> 8
constru ire</w> 8
constru cteur</w> 8
Te ch</w> 8
2. 0 8
thre w</w> 8
olo gues</w> 8
Tr icolore</w> 8
condu it</w> 8
vill é</w> 8
work er</w> 8
equ ivalent</w> 8
eas tern</w> 8
fre edom</w> 8
fran co- 8
fran cs</w> 8
Rom an</w> 8
youn g 8
princip ale</w> 8
every body</w> 8
pen alties</w> 8
vie wers</w> 8
spéci aux</w> 8
tent er</w> 8
hou ses</w> 8
9, 3 8
acqu is</w> 8
pur pose</w> 8
dat ab 8
embl ée</w> 8
objec ts</w> 8
éch ec</w> 8
Ren o</w> 8
Ren aud</w> 8
soli de</w> 8
stri kes</w> 8
Den ise</w> 8
Ac ad 8
Ed inburgh</w> 8
new ly</w> 8
commis saire</w> 8
béné fice</w> 8
fur n 8
médi athèque</w> 8
audi ences</w> 8
projec tions</w> 8
bul l 8
Grou pe</w> 8
hon or 8
hon or</w> 8
hon est</w> 8
deli ber 8
mid night</w> 8
habit ation</w> 8
Jac queline</w> 8
mas se</w> 8
mas sive</w> 8
Ham id</w> 8
conserv ation</w> 8
adop ted</w> 8
vé cu</w> 8
dra w</w> 8
dra ft</w> 8
exper tise</w> 8
forc ing</w> 8
accoun ting</w> 8
Kar l</w> 8
Kar z 8
impro vement</w> 8
canadi ens</w> 8
pic ked</w> 8
Gar den</w> 8
redu cing</w> 8
Ear th</w> 8
Ear nings</w> 8
Im p 8
accomp li 8
arri ère- 8
europé ens</w> 8
europé ennes</w> 8
tin y</w> 8
bat eau</w> 8
dan ais</w> 8
Dé c 8
repres ent</w> 8
repres enting</w> 8
est- à- 8
regul ated</w> 8
oli c</w> 8
oli ques</w> 8
AT P</w> 8
thé orie</w> 8
liv ré</w> 8
assist ante</w> 8
196 9</w> 8
Califor nie</w> 8
dg ing</w> 8
prépar é</w> 8
arrê ts</w> 8
arrê té</w> 8
compag nies</w> 8
dar k</w> 8
figh ter</w> 8
adver saire</w> 8
attend ait</w> 8
Bou chard</w> 8
écri v 8
Mit tel 8
ele ine</w> 8
constitu tional</w> 8
oppos ed</w> 8
temp êtes</w> 8
install ations</w> 8
Nouv eau</w> 8
voc ation</w> 8
Por t 8
chec king</w> 8
chec ked</w> 8
univers al</w> 8
graphi que</w> 8
sli ghtly</w> 8
Neu f-B 8
Heal th 8
sap eurs-pompiers</w> 8
AD S</w> 8
excep t</w> 8
chauff age</w> 8
foun ded</w> 8
tex tes</w> 8
tend er</w> 8
patr im 8
voul ons</w> 8
Mad eleine</w> 8
down town</w> 8
ench ant 8
Andre i</w> 8
ov ation</w> 8
tari fs</w> 8
Cu stom 8
Cu ba</w> 8
Des ign</w> 8
oubli é</w> 8
consul tant</w> 8
établi r</w> 8
dispu ter</w> 8
encour age</w> 8
tom ber</w> 8
lab or</w> 8
reco very</w> 8
déplac er</w> 8
déplac ements</w> 8
touch downs</w> 8
break ing</w> 8
wit ness</w> 8
wit nesses</w> 8
mach ines</w> 8
crè ches</w> 8
struct ures</w> 8
Sur tout</w> 8
dossi ers</w> 8
diplom atic</w> 8
lend ers</w> 8
ES T</w> 8
prosecu tor</w> 8
respec ter</w> 8
analy stes</w> 8
Ry der</w> 8
démar che</w> 8
adap tation</w> 8
impl ement</w> 8
scho ol 8
Commun ic 8
Brun o</w> 8
âg ée</w> 8
rè gl 8
rè gles</w> 8
tiz ation</w> 8
oblig ation</w> 8
chois ir</w> 8
chocol ate</w> 8
bir th 8
Bet ty</w> 8
Bet ancourt</w> 8
teach ers</w> 8
intér êts</w> 8
crow ds</w> 8
Cath olic</w> 8
ket t</w> 8
Hol dings</w> 8
tig heim</w> 8
practi ces</w> 8
essenti ellement</w> 8
magas in</w> 8
smo king</w> 8
avanc ée</w> 8
lear ning</w> 8
appli quer</w> 8
intéress é</w> 8
Som e 8
Ha as</w> 8
Ke ith</w> 8
requi rements</w> 8
consid ère</w> 8
compe ting</w> 8
déb ats</w> 8
déci der</w> 8
advis ed</w> 8
relation ships</w> 8
acquisi tions</w> 8
élev é</w> 8
prou ve</w> 8
excell ent</w> 8
excell ente</w> 8
symbo l</w> 8
dirige ant</w> 8
menti oned</w> 8
Pow er</w> 8
Pow ell</w> 8
Hun ter</w> 8
chor é 8
chal et</w> 8
immobili er</w> 8
speak ing</w> 8
Miss issi 8
fréqu ent 8
gratu ite</w> 8
forec lo 8
disponi bilité</w> 8
chaî nes</w> 8
agg ed</w> 8
classi c</w> 8
Moham med</w> 8
proce eds</w> 8
Luci e</w> 8
al-Q aïda</w> 8
sun n 8
Fam ily</w> 8
LO S</w> 8
Peti t</w> 8
rappel er</w> 8
document aire</w> 8
Sau di</w> 8
Fis her</w> 8
Esp agne</w> 8
Mr s</w> 8
Gil bert</w> 8
desc ente</w> 8
charac ters</w> 8
Spr ing 8
aéri enne</w> 8
Pour quoi</w> 8
Ze al 8
conclu sion</w> 8
consac ré</w> 8
bâti ments</w> 8
nar row 8
Fern and</w> 8
Hir tz 8
Gra ham</w> 8
innov ation</w> 8
itz er</w> 8
decre ase</w> 8
résid ence</w> 8
scol aire</w> 8
faudr ait</w> 8
Venezu el 8
ille ux</w> 8
survi ve</w> 8
controll ed</w> 8
hard t</w> 8
retail er</w> 8
retail ers</w> 8
cant on</w> 8
Red skins</w> 8
danger ous</w> 8
Dol phins</w> 8
Od inga</w> 8
Zim bab 8
éto iles</w> 8
Rod ham</w> 8
rentr ée</w> 8
volu me</w> 8
tchadi en</w> 8
pakistan aise</w> 8
Sci ence</w> 8
gér ant</w> 8
Tel evision</w> 8
enth u 8
parli ament</w> 8
oppon ent</w> 8
oppon ents</w> 8
Arn aud</w> 8
subsidi aries</w> 8
Univers ité</w> 8
fémin in</w> 8
sacri fice</w> 8
Sus an</w> 8
stro ke</w> 8
veter an</w> 8
Lak ers</w> 8
you th</w> 8
Tig ers</w> 8
accu mul 8
amou reux</w> 8
appl au 8
necess ary</w> 8
disappoin ted</w> 8
internation aux</w> 8
caract ère</w> 8
affron ter</w> 8
transf èrement</w> 8
épar gne</w> 8
Loc al</w> 8
Penn sylvan 8
Priv ate</w> 8
emo tional</w> 8
defe ated</w> 8
exec utives</w> 8
climati que</w> 8
Brow n 8
frequ ently</w> 8
fortun ately</w> 8
Saf ety</w> 8
eigh th</w> 8
FD A</w> 8
Lil ly</w> 8
Pent agon</w> 8
consoli dated</w> 8
décre t</w> 8
Consum er</w> 8
Schne ider</w> 8
watch dog</w> 8
Argent ina</w> 8
strasbourge ois</w> 8
lang ue</w> 8
leng th</w> 8
blog s</w> 8
Lyn ch</w> 8
reali ze</w> 8
audit oire</w> 8
convers ation</w> 8
sever e</w> 8
hect ares</w> 8
supéri eure</w> 8
sheim - 8
Offic er</w> 8
analys is</w> 8
Swed en</w> 8
département ale</w> 8
Fé dération</w> 8
Ox ford</w> 8
électri que</w> 8
Cé ci 8
Long - 8
trent aine</w> 8
alpin di</w> 8
dedic ated</w> 8
absol utely</w> 8
absolu ment</w> 8
rénov ation</w> 8
possibili tés</w> 8
knowle dge</w> 8
camer as</w> 8
Ontari o</w> 8
paroissi ale</w> 8
récup ération</w> 8
Nath alie</w> 8
Equ ity</w> 8
compreh ensive</w> 8
résou dre</w> 8
ressorti ssants</w> 8
so- called</w> 8
interpr été</w> 8
phen omen 8
Schil tigheim</w> 8
Schmit t</w> 8
Koso vo</w> 8
Louisi ana</w> 8
Amster dam</w> 8
Olymp ics</w> 8
Mahmou d</w> 8
Wiscons in</w> 8
Montgom ery</w> 8
overn ight</w> 8
aho o</w> 8
rass emble</w> 8
Cél ine</w> 8
Raw alpindi</w> 8
LOND ON</w> 8
Memp his</w> 8
Yann ick</w> 8
Krem lin</w> 8
Bangl ad 8
Uta h</w> 8
Écou tez</w> 8
enor m 8
alent ours</w> 8
wides pread</w> 8
democr atic</w> 8
destru ction</w> 8
universi ties</w> 8
Ambass ador</w> 8
est-à- dire</w> 8
Neuf-B risach</w> 8
Mississi ppi</w> 8
Pennsylvan ia</w> 8
S T</w> 7
S em 7
S ig 7
S ant 7
S hu 7
S ign 7
S CH 7
S add 7
S ri</w> 7
o b</w> 7
o re 7
o la</w> 7
u se 7
c a</w> 7
c on</w> 7
c age</w> 7
c ann 7
c tive</w> 7
c ells</w> 7
i T 7
i o</w> 7
i tr 7
i ers</w> 7
i dé 7
i erre</w> 7
i dées</w> 7
e x</w> 7
e h</w> 7
e ve</w> 7
e ge</w> 7
e ures</w> 7
e dition</w> 7
t ain 7
t ail 7
t ings</w> 7
t ley</w> 7
t ability</w> 7
t ape</w> 7
é si 7
é duc 7
é sie</w> 7
l â 7
l er 7
l as 7
l ant</w> 7
l ap 7
l ung</w> 7
l y- 7
l abor 7
p â 7
p y 7
p el 7
p et</w> 7
p ée</w> 7
p ack</w> 7
p ound</w> 7
p .com</w> 7
p istes</w> 7
p ôle</w> 7
p airs</w> 7
p ause</w> 7
p eline</w> 7
h of</w> 7
h att 7
n ement</w> 7
n ered</w> 7
n ati</w> 7
a ï</w> 7
a dé 7
r t</w> 7
r in</w> 7
r its</w> 7
r ite</w> 7
r aine</w> 7
r era</w> 7
r ushing</w> 7
J ar 7
J et 7
J esse</w> 7
m ac 7
m ad 7
m ali 7
m ur</w> 7
m ente</w> 7
C A</w> 7
C aire</w> 7
C ard</w> 7
C oc 7
C ut 7
C lim 7
C aisse</w> 7
C ON 7
s and</w> 7
s ers</w> 7
s au</w> 7
s op 7
s avait</w> 7
s ements</w> 7
s év 7
s inc 7
s light</w> 7
s dorf</w> 7
R - 7
R D 7
R on</w> 7
R oll 7
R ie 7
v est</w> 7
v ég 7
v endre</w> 7
v érité</w> 7
b i</w> 7
b ol 7
b oul 7
b arg 7
b acked</w> 7
b ench 7
b alls</w> 7
b ag</w> 7
b ishops</w> 7
d or</w> 7
d ents</w> 7
d ating</w> 7
d less</w> 7
F - 7
F i</w> 7
F in</w> 7
F el 7
F la</w> 7
F ont 7
F und</w> 7
F err 7
F estival</w> 7
L y 7
L à</w> 7
L ac 7
L ong</w> 7
L og 7
L abe 7
L CD</w> 7
L LC</w> 7
y n</w> 7
y me</w> 7
y ota</w> 7
z t</w> 7
z er</w> 7
g y 7
g ig 7
g ates</w> 7
g agne</w> 7
g lob 7
ô ts</w> 7
è tent</w> 7
N H 7
N one</w> 7
N ice</w> 7
N iss 7
N ation 7
N ativ 7
1 ere</w> 7
1 25</w> 7
1 29</w> 7
1 2. 7
5 4 7
5 8. 7
D E 7
D al 7
D as</w> 7
D uc 7
D hab 7
D éch 7
A y 7
A I</w> 7
A st 7
A ction</w> 7
A br 7
A pp 7
V ice</w> 7
V og 7
P y 7
P O</w> 7
P ou 7
P un 7
P ich 7
P aid</w> 7
P GA</w> 7
E s</w> 7
E d</w> 7
E K</w> 7
E hu 7
E ck 7
E arly</w> 7
E astern</w> 7
E isen 7
T .</w> 7
T ar 7
T re 7
T am 7
T ag 7
T oul 7
T amp 7
T ari 7
O T 7
O F</w> 7
O thers</w> 7
O dile</w> 7
M a</w> 7
M I</w> 7
M U 7
M ass</w> 7
M TV</w> 7
M SN 7
Y ahoo</w> 7
k i 7
k ings</w> 7
k man</w> 7
H S 7
H D</w> 7
H il 7
H ass 7
H ER 7
ü ck 7
W ol 7
W ould</w> 7
W all 7
W ood</w> 7
W inf 7
W ayne</w> 7
f it 7
f ted</w> 7
f old</w> 7
f ear 7
f loo 7
w o</w> 7
w et</w> 7
w are</w> 7
w ind</w> 7
w aves</w> 7
G ou 7
G es 7
G as</w> 7
G end 7
G ates</w> 7
G ard 7
ö s 7
K er 7
B D</w> 7
B le 7
B est</w> 7
B illi 7
B ack</w> 7
B uc 7
B ER 7
B omb 7
B AL 7
B rési 7
Z ard 7
I A</w> 7
I ss 7
Q aïda</w> 7
. . 7
ê que</w> 7
j er 7
4 3 7
4 4, 7
4 5- 7
3 38</w> 7
2 7. 7
7 0s</w> 7
' Ne 7
an ou 7
an ke</w> 7
an ia</w> 7
en o</w> 7
en ly</w> 7
en lèvement</w> 7
in ette</w> 7
in cur 7
in dem 7
in éd 7
th ly</w> 7
th ma</w> 7
th west</w> 7
th èse</w> 7
th quake</w> 7
er ate</w> 7
on e 7
on ais</w> 7
on ales</w> 7
on nier</w> 7
ti re</w> 7
ti ger</w> 7
ti ful</w> 7
ti cut</w> 7
re fin 7
re sident</w> 7
re sign 7
re four</w> 7
re ference</w> 7
re play</w> 7
re vue</w> 7
re joint</w> 7
re constitu 7
re bel</w> 7
re marque</w> 7
re command 7
re aching</w> 7
ai i</w> 7
ai mer 7
ai t-il</w> 7
qu ait</w> 7
qu ick</w> 7
tr age</w> 7
tr ici 7
tr end</w> 7
tr ente</w> 7
es sa</w> 7
es sais</w> 7
it ôt</w> 7
it arian</w> 7
is tie</w> 7
ch i</w> 7
ch ère</w> 7
ch ari 7
ch âteau</w> 7
al ti 7
al en</w> 7
at ement</w> 7
el ines</w> 7
el ect 7
el ot</w> 7
em ies</w> 7
em porté</w> 7
em ann</w> 7
em issions</w> 7
as thma</w> 7
ac res</w> 7
il leg 7
un ité</w> 7
un ning</w> 7
ic - 7
ic als</w> 7
au n</w> 7
au ts</w> 7
au ch</w> 7
si vement</w> 7
con s</w> 7
con sorti 7
con join 7
con gressional</w> 7
am ing</w> 7
am me</w> 7
st en 7
st ated</w> 7
st ell 7
st ake</w> 7
st abilité</w> 7
di r</w> 7
le z</w> 7
ag encies</w> 7
ag glom 7
ol é 7
su ites</w> 7
su elo</w> 7
ro vi 7
ro ir</w> 7
ro ots</w> 7
pl at</w> 7
pl ong 7
pl astic</w> 7
ri f 7
de pression</w> 7
de aling</w> 7
de eply</w> 7
com ed</w> 7
com bien</w> 7
com prendre</w> 7
po l</w> 7
se c</w> 7
se ules</w> 7
se gment</w> 7
pro hi 7
pro ved</w> 7
ab sor 7
ab use</w> 7
ci me 7
ci ble</w> 7
dé si 7
dé tention</w> 7
wh is 7
par lement</w> 7
be aten</w> 7
ap ed</w> 7
eu char 7
lo is 7
lo ver</w> 7
lo yer</w> 7
ad resse</w> 7
ad oration</w> 7
ad mir 7
ad oles 7
ex port 7
ex act</w> 7
ex traits</w> 7
op h 7
op pose</w> 7
vi ve</w> 7
ver ts</w> 7
ent ary</w> 7
pe au</w> 7
pe inture</w> 7
no ch</w> 7
no ting</w> 7
et c.</w> 7
ter ait</w> 7
ré ment</w> 7
ré elle</w> 7
ré comp 7
ré action</w> 7
im pe 7
im mer</w> 7
im possible</w> 7
im prov 7
ét end 7
ét ats</w> 7
per form</w> 7
mo od</w> 7
for cé</w> 7
ir - 7
ir ait</w> 7
ul ation</w> 7
ul tu 7
ul time</w> 7
por tr 7
por ting</w> 7
por traits</w> 7
sh ock</w> 7
sh irts</w> 7
res ses</w> 7
res ort</w> 7
res truct 7
gr aves</w> 7
the ater</w> 7
co al</w> 7
co te</w> 7
co tt 7
co équi 7
co ck 7
co opération</w> 7
end resse</w> 7
ct ur 7
cl ays</w> 7
pu b</w> 7
he dge</w> 7
to y</w> 7
to ir</w> 7
to ile</w> 7
ali en</w> 7
ak ed</w> 7
so prano</w> 7
emb ers</w> 7
emb arr 7
pré mat 7
ér y</w> 7
ér on 7
pre v 7
ing ers</w> 7
ed ings</w> 7
ed itorial</w> 7
Ch o 7
Ch anc 7
Ch ase</w> 7
Ch arg 7
Ch âteau</w> 7
Ch iefs</w> 7
vo i 7
ass isté</w> 7
bi ens</w> 7
ill o</w> 7
do u</w> 7
man ie</w> 7
onn a</w> 7
onn ette</w> 7
mar ch</w> 7
mar ine</w> 7
mar ath 7
ss a</w> 7
dis pose</w> 7
dis aster</w> 7
dis covery</w> 7
ann a</w> 7
ann uel</w> 7
fi a</w> 7
fi li 7
fi ers</w> 7
fi ant</w> 7
fi che</w> 7
comm is</w> 7
comm it</w> 7
mon ter</w> 7
mon tré 7
mon thly</w> 7
ra w 7
du b 7
gi fts</w> 7
ten ing</w> 7
cu m 7
cu p</w> 7
cu it</w> 7
we b</w> 7
tri ps</w> 7
tri als</w> 7
Th ur</w> 7
Th ough</w> 7
comp agne</w> 7
ouv ent</w> 7
af raid</w> 7
wor n</w> 7
wor d</w> 7
off shore</w> 7
An y</w> 7
19 , 7
19 h</w> 7
19 0</w> 7
19 50</w> 7
ev ol 7
um b 7
Mar t</w> 7
Mar tin 7
bo w</w> 7
bo ire</w> 7
bo tt 7
bo issons</w> 7
cre ation</w> 7
cre dis</w> 7
fin ancer</w> 7
fin ishing</w> 7
inter pre 7
inter ruption</w> 7
inter ventions</w> 7
inter views</w> 7
acc essi 7
tu des</w> 7
tu me</w> 7
sc ènes</w> 7
vis er</w> 7
vis iter</w> 7
gu é</w> 7
gu est</w> 7
gu ess</w> 7
gu ese</w> 7
én or 7
str ange</w> 7
serv es</w> 7
St ati 7
St ar</w> 7
déc ors</w> 7
déc édé</w> 7
enc oun 7
pi er</w> 7
pi eds</w> 7
pi peline</w> 7
enti stes</w> 7
mer ger</w> 7
mer ci</w> 7
ess ing</w> 7
ell or</w> 7
fir me</w> 7
hom a</w> 7
hom e- 7
hom eless</w> 7
Qu '</w> 7
ach em 7
cont este</w> 7
tw iller</w> 7
car ries</w> 7
dev aient</w> 7
sou p 7
sou tenu</w> 7
sou tenir</w> 7
sou tient</w> 7
mat ure</w> 7
la b</w> 7
pres entation</w> 7
anc é</w> 7
rem porte</w> 7
Ro s 7
Ro han</w> 7
Ro oney</w> 7
int ent</w> 7
eff on 7
sch wihr</w> 7
fer ont</w> 7
fer rovi 7
ber ge</w> 7
ber ger</w> 7
tur n 7
tur ning</w> 7
tur bul 7
cr it 7
cr ack 7
app ell 7
dem ents</w> 7
ow ed</w> 7
br ill 7
br ain</w> 7
ren on 7
ke ys</w> 7
poin ting</w> 7
auss itôt</w> 7
Con soli 7
Con nec 7
Con suelo</w> 7
cau c 7
Re li 7
Re view</w> 7
nati vité</w> 7
posi tionn 7
posi tifs</w> 7
ans wers</w> 7
col or</w> 7
col onel</w> 7
tra - 7
tra fic</w> 7
jo yeux</w> 7
trav elers</w> 7
pass ée</w> 7
En suite</w> 7
part agé</w> 7
part nership</w> 7
des - 7
fac ts</w> 7
Un der 7
Un like</w> 7
cour rier</w> 7
prof ite</w> 7
prof ité</w> 7
rel â 7
rel les</w> 7
rel ation</w> 7
hu mid 7
ais er</w> 7
mor t 7
cap ables</w> 7
ju ana</w> 7
ju gé</w> 7
air lines</w> 7
bre ath 7
bas ket</w> 7
bas ket 7
dr ome</w> 7
dr ôle</w> 7
dr illing</w> 7
dr inks</w> 7
gar anti 7
gar çons</w> 7
1, 1 7
Je ts</w> 7
Je wish</w> 7
contr ac 7
contr adic 7
eng agé</w> 7
Br ad</w> 7
ret ard</w> 7
ori um</w> 7
organ ic</w> 7
Sch umer</w> 7
Mo i</w> 7
fe ct 7
fe ature</w> 7
fe aturing</w> 7
dre am</w> 7
Wh ere</w> 7
peti tion</w> 7
sé par 7
met tra</w> 7
alis m</w> 7
alis ées</w> 7
trans fer</w> 7
sol enn 7
Au tri 7
acti f</w> 7
offici els</w> 7
équi libre</w> 7
équi pés</w> 7
gl ass</w> 7
fl û 7
fl ag 7
fl ying</w> 7
fl éch 7
quar tiers</w> 7
Car tier</w> 7
199 3</w> 7
dou bled</w> 7
Bo s 7
lev ée</w> 7
Po or</w> 7
Po ste</w> 7
prom esses</w> 7
El ysée</w> 7
jec tion</w> 7
présent es</w> 7
entr ées</w> 7
pas sion</w> 7
pas sera</w> 7
oper ational</w> 7
oper ator</w> 7
sign al</w> 7
sign ée</w> 7
tribu te</w> 7
progr ès</w> 7
gre en 7
vol ant</w> 7
Pro z 7
Pro per 7
Pro secu 7
cré dits</w> 7
conn us</w> 7
20 ,000</w> 7
20 h30</w> 7
stru gg 7
Se oul</w> 7
Di rec 7
Di dier</w> 7
aw ard</w> 7
d- Taylor</w> 7
Ho s 7
concer ts</w> 7
fai m</w> 7
pou voirs</w> 7
Bl anche</w> 7
Bl anch 7
tric ts</w> 7
rap ports</w> 7
10 4</w> 7
Me tro 7
dom iné</w> 7
Co .</w> 7
Co st</w> 7
Co alition</w> 7
num erous</w> 7
tak ers</w> 7
hab en</w> 7
associ é</w> 7
associ ate</w> 7
bar a</w> 7
bar rels</w> 7
bar yton</w> 7
import ants</w> 7
tre es</w> 7
tre at</w> 7
bou cl 7
bou tique</w> 7
sim ul 7
char d-Taylor</w> 7
So irée</w> 7
eg en</w> 7
bro w 7
succ eed</w> 7
some what</w> 7
cin nati</w> 7
Québe c- 7
nu tri 7
arm ées</w> 7
Bar clays</w> 7
Bar bara</w> 7
ca che</w> 7
donn ent</w> 7
17 5</w> 7
17 4</w> 7
As ked</w> 7
journ ées</w> 7
olog ists</w> 7
Pl ay 7
To yota</w> 7
cent ers</w> 7
hal f 7
hal f- 7
main stream</w> 7
For ces</w> 7
For êt</w> 7
We in 7
We ber</w> 7
We iss</w> 7
éli min 7
boo m</w> 7
Ex plo 7
trai te</w> 7
trai té</w> 7
trai tements</w> 7
beau tiful</w> 7
foo t- 7
lis ts</w> 7
né erland 7
Wor k</w> 7
Ser ge 7
econom ies</w> 7
18 h</w> 7
Ge is 7
annon cée</w> 7
Jean- Louis</w> 7
Jean- Paul</w> 7
Mer ger</w> 7
Ri ed 7
conf lits</w> 7
win ners</w> 7
candid acy</w> 7
Ad ri 7
tour ists</w> 7
ish es</w> 7
inf ections</w> 7
esp agno 7
popul ations</w> 7
def end</w> 7
Pi er 7
Char est</w> 7
Ph ase</w> 7
rece voir</w> 7
his toires</w> 7
Har rison</w> 7
Har iri</w> 7
retur ns</w> 7
dam aged</w> 7
trouv ent</w> 7
sear ching</w> 7
lég ende</w> 7
Ger main</w> 7
invest i</w> 7
scri p 7
lin e 7
develop ments</w> 7
Pr inc 7
acro b 7
wat ched</w> 7
arti fici 7
resul ted</w> 7
lib éré</w> 7
Fl yers</w> 7
hum aine</w> 7
14 h</w> 7
Man n</w> 7
comb att 7
15 . 7
auth enti 7
1- year-old</w> 7
Ver d 7
6, 9 7
6, 7 7
jur is 7
compl ained</w> 7
compl ément 7
bal les</w> 7
entraî neurs</w> 7
Gi b 7
bless ées</w> 7
7, 7 7
comple x 7
techn ologie</w> 7
urg ences</w> 7
agre ements</w> 7
Cro cker</w> 7
log ici 7
ER T 7
confi er</w> 7
Sec ours</w> 7
Ma x</w> 7
Ma x 7
0, 6 7
7. 11</w> 7
law suits</w> 7
ép ic 7
vent ures</w> 7
identi ty</w> 7
économ iques</w> 7
Du ke</w> 7
fran c</w> 7
mani pul 7
princip ales</w> 7
Scot sman</w> 7
pen sion</w> 7
investig ations</w> 7
investig ators</w> 7
spéci ale</w> 7
spéci alisée</w> 7
acqu érir</w> 7
consi dé 7
pur sue</w> 7
pur suing</w> 7
pap ers</w> 7
colle cted</w> 7
4. 2</w> 7
stri ker</w> 7
fas cin 7
accep table</w> 7
différ ent</w> 7
care ful</w> 7
hé roï 7
her o</w> 7
Ob enheim</w> 7
net tement</w> 7
terror ists</w> 7
alli és</w> 7
public ité</w> 7
Vi eux- 7
représent ent</w> 7
stu dios</w> 7
occu per</w> 7
lat ter</w> 7
deli vers</w> 7
famili ar</w> 7
rais onn 7
mas ters</w> 7
mas sif</w> 7
bil ateral</w> 7
reti re</w> 7
conserv ateurs</w> 7
conserv atives</w> 7
land ing</w> 7
25 ,000</w> 7
fle w</w> 7
fle ur 7
fle et</w> 7
contribu tion</w> 7
répon d</w> 7
cle ared</w> 7
bel ong 7
batt u</w> 7
Gar cia</w> 7
speci alist</w> 7
pat ch</w> 7
extr ême</w> 7
Brit ney</w> 7
lanc ement</w> 7
Ou i</w> 7
Ou verture</w> 7
Mal ay 7
Clau dine</w> 7
dan ses</w> 7
Dé part</w> 7
Mat tel</w> 7
Mat thew</w> 7
repres ented</w> 7
diri ger</w> 7
potenti el</w> 7
regul ations</w> 7
Phili pp 7
suspe cted</w> 7
visi blement</w> 7
cop ains</w> 7
eli te</w> 7
ric ane</w> 7
dg ers</w> 7
Val érie</w> 7
sex y</w> 7
moder ate</w> 7
prépar e</w> 7
prépar ation</w> 7
lan gues</w> 7
séri eux</w> 7
séri eusement</w> 7
dest iné</w> 7
wer en</w> 7
atte inte</w> 7
Cham bre</w> 7
Cham plain</w> 7
trib al</w> 7
Cap e</w> 7
chem ical</w> 7
attend us</w> 7
attend ues</w> 7
rom an 7
Asi f</w> 7
Asi e</w> 7
Bou chard-Taylor</w> 7
Bern anke</w> 7
Si er 7
Sp ain</w> 7
sl ump</w> 7
retrai tes</w> 7
adul t</w> 7
temp ér 7
install é</w> 7
install ation</w> 7
install ée</w> 7
cit ing</w> 7
cit ant</w> 7
laiss ent</w> 7
bru it</w> 7
bru tal</w> 7
13, 0 7
collec tive</w> 7
rend us</w> 7
rend ements</w> 7
Cam sa</w> 7
trop ical</w> 7
voc al</w> 7
Bru ce</w> 7
souff le</w> 7
week ly</w> 7
graphi e</w> 7
Palestini ans</w> 7
individu el</w> 7
sli pped</w> 7
sap ins</w> 7
Far m</w> 7
chap elet</w> 7
emerg ing</w> 7
spir acy</w> 7
fest yle</w> 7
seri ously</w> 7
Indi ana</w> 7
signific ance</w> 7
pit aux</w> 7
fau te</w> 7
7- year-old</w> 7
permet tent</w> 7
particuli ers</w> 7
NE T</w> 7
assu me</w> 7
les quelles</w> 7
ger sheim</w> 7
Mex ique</w> 7
pren ait</w> 7
consul ting</w> 7
consul tation</w> 7
shoo t</w> 7
encour aged</w> 7
souhai ter</w> 7
fédér ations</w> 7
démocr atique</w> 7
lab els</w> 7
squ e 7
gam ing</w> 7
Ag ence</w> 7
Eg lise</w> 7
Bec k</w> 7
Bec kett</w> 7
exist ing</w> 7
intel lect 7
pil ot</w> 7
pil ote</w> 7
Pas teur</w> 7
Mur ray</w> 7
conne cted</w> 7
materi ally</w> 7
ble ue</w> 7
wel comed</w> 7
marqu ée</w> 7
négoci ation</w> 7
chiff res</w> 7
bénéfici aires</w> 7
rat é</w> 7
concl ut</w> 7
Institu t</w> 7
just ement</w> 7
Cin cinnati</w> 7
brou ill 7
regar der</w> 7
avoc ats</w> 7
tribun aux</w> 7
grand- mère</w> 7
prepar ing</w> 7
crow ded</w> 7
Dom in 7
fê tera</w> 7
attribu ted</w> 7
politici an</w> 7
témo in</w> 7
évo que</w> 7
spor tive</w> 7
Ram ad 7
inqui ète</w> 7
montr ent</w> 7
blioth èques</w> 7
cath édrale</w> 7
AC H</w> 7
Hel m 7
Blo om 7
vois ins</w> 7
Syl v 7
Syl vain</w> 7
confid ent</w> 7
élev ée</w> 7
DV Ds</w> 7
fourn is 7
24, 0 7
refu ge 7
concurr ents</w> 7
ster o 7
age ant</w> 7
rév èle</w> 7
Ann apolis</w> 7
facili ties</w> 7
Def ence</w> 7
lun ch</w> 7
lun gs</w> 7
nav al</w> 7
nav ig 7
bomb s</w> 7
11 h</w> 7
Pho to</w> 7
chal eur</w> 7
speak ers</w> 7
human itaire</w> 7
provin cial</w> 7
israéli ens</w> 7
Miss ouri</w> 7
exten sive</w> 7
gratu it</w> 7
ouvr ages</w> 7
broad cast</w> 7
threat ening</w> 7
Sab res</w> 7
swe et</w> 7
Bon ds</w> 7
trag ic</w> 7
expos ed</w> 7
régl ement 7
classi que</w> 7
préf et</w> 7
préf ère</w> 7
compens és</w> 7
Que be 7
achiev ed</w> 7
effic ace</w> 7
Mosco u</w> 7
Moham mad</w> 7
virtu ally</w> 7
doub le- 7
proce ed</w> 7
proce edings</w> 7
Soci ety</w> 7
challeng ed</w> 7
troph es</w> 7
troph ée</w> 7
Sand ra</w> 7
AB N</w> 7
défin iti 7
endro its</w> 7
médic ale</w> 7
meille ures</w> 7
extrem ists</w> 7
rappel é</w> 7
Portu guese</w> 7
fid èle</w> 7
meur tre</w> 7
effici ent</w> 7
Syri an</w> 7
supplément aire</w> 7
EL ES</w> 7
reve aled</w> 7
dispar ition</w> 7
anticip ate</w> 7
borrow ings</w> 7
circonst ance</w> 7
Rep .</w> 7
Fu k 7
Fern ando</w> 7
Lan ka</w> 7
innov ative</w> 7
lif ting</w> 7
lif e- 7
stop ped</w> 7
susc ep 7
rob bery</w> 7
deplo y 7
deplo yed</w> 7
complic ated</w> 7
maladi es</w> 7
empê cher</w> 7
suspici on</w> 7
elimin ate</w> 7
célébr ée</w> 7
seas ons</w> 7
fiel ds</w> 7
fiel der</w> 7
spon sors</w> 7
strong er</w> 7
survi ved</w> 7
handic ap</w> 7
consci ence</w> 7
automobili ste</w> 7
Soul tz 7
gath ering</w> 7
Haw aii</w> 7
King dom</w> 7
inno cent</w> 7
inno cence</w> 7
remon ter</w> 7
deal t</w> 7
prop ag 7
persu ade</w> 7
teen ager</w> 7
mix ed</w> 7
annu elle</w> 7
auton omie</w> 7
Entre tiens</w> 7
musul mans</w> 7
musul mane</w> 7
correspon dant</w> 7
imagin aire</w> 7
réguli ère</w> 7
pakistan ais</w> 7
migr ation</w> 7
migr ants</w> 7
Rock ies</w> 7
Lat endresse</w> 7
arrang ement</w> 7
relev ant</w> 7
conç u</w> 7
parli am 7
référ ence</w> 7
weal thy</w> 7
Envir onnement</w> 7
explic ation</w> 7
subsidi ary</w> 7
Univers al</w> 7
electron ic</w> 7
electron ics</w> 7
suffis amment</w> 7
destin és</w> 7
consécu tive</w> 7
hang ing</w> 7
veter ans</w> 7
FI P</w> 7
Pel le 7
kid napping</w> 7
fair ly</w> 7
quas i</w> 7
righ t- 7
réussi r</w> 7
illu min 7
disappoin ting</w> 7
discipl ine</w> 7
epis ode</w> 7
epis odes</w> 7
attach é</w> 7
phy sique</w> 7
caract ér 7
missi le</w> 7
vice- président</w> 7
ANG ELES</w> 7
Stock holders</w> 7
révél é</w> 7
rall ye</w> 7
Jér ôme</w> 7
Lap ierre</w> 7
Woo d 7
fant as 7
instru ction</w> 7
thi op 7
defin itely</w> 7
Alg érie</w> 7
surpris ed</w> 7
rempli r</w> 7
foot print</w> 7
Trav el</w> 7
medic ine</w> 7
Olympi c</w> 7
équ ivalent</w> 7
Fut ure</w> 7
zo o</w> 7
Num ber</w> 7
NAS A</w> 7
Tch ad</w> 7
Bau er</w> 7
sust ained</w> 7
civ ils</w> 7
tow ns</w> 7
surr ounding</w> 7
schem es</w> 7
rencontr é</w> 7
locat aires</w> 7
conseill ers</w> 7
windo w</w> 7
convivi alité</w> 7
bau m</w> 7
bap tis 7
Econom ic</w> 7
Kab ul</w> 7
ja une</w> 7
insc rits</w> 7
infr astruct 7
inspi red</w> 7
concre te</w> 7
loy d</w> 7
perf ect</w> 7
cotis ation</w> 7
Anne- Marie</w> 7
obsc ure</w> 7
Commer cial</w> 7
magistr at</w> 7
health care</w> 7
Fort une</w> 7
hospitali er</w> 7
vainqu eur</w> 7
sélectionn é</w> 7
contempor ain</w> 7
pronon cé</w> 7
Jim my</w> 7
Ah med</w> 7
kic ked</w> 7
chré tiens</w> 7
buff et</w> 7
matern elle</w> 7
miss iles</w> 7
trademar k</w> 7
sugges tion</w> 7
CG T</w> 7
Cent ers</w> 7
Rég is</w> 7
Nev ada</w> 7
Deu ts 7
Harr is</w> 7
75, 260</w> 7
incroy able</w> 7
accom mo 7
prevent ed</w> 7
doig ts</w> 7
Stor m</w> 7
proced ure</w> 7
héber gement</w> 7
week- end</w> 7
Slo v 7
centi mètres</w> 7
Ling olsheim</w> 7
Yang on</w> 7
Wind sor</w> 7
fra î 7
wur de</w> 7
IA EA</w> 7
amoun ts</w> 7
pover ty</w> 7
hebdom adaire</w> 7
Throu gh</w> 7
décisi ons</w> 7
portfoli o</w> 7
Prin cip 7
suffici ent</w> 7
Buff alo</w> 7
festiv ités</w> 7
céléb rer</w> 7
statisti ques</w> 7
atmosph ère</w> 7
rhet oric</w> 7
pét ards</w> 7
your self</w> 7
tho do 7
repli ed</w> 7
plaf ond</w> 7
soi rées</w> 7
preced ented</w> 7
brilli ant</w> 7
engou ement</w> 7
Pakist ani</w> 7
Pakistan ais</w> 7
Karz ai</w> 7
birth day</w> 7
Venezuel an</w> 7
Zimbab we</w> 7
Céci le</w> 7
Long- term</w> 7
enorm ous</w> 7
Sadd am</w> 7
iT unes</w> 7
sop his 7
vég ét 7
bench mark</w> 7
Labe aume</w> 7
Dhab i</w> 7
Déch etterie</w> 7
Ehu d</w> 7
Tamp a</w> 7
Winf rey</w> 7
Zard ari</w> 7
improv ements</w> 7
Connec ticut</w> 7
héroï ne</w> 7
S W 6
S E</w> 6
S S</w> 6
S po 6
S ad 6
S we 6
S ays</w> 6
S car 6
S tra 6
S che 6
S auv 6
S IS</w> 6
S OL 6
S ophie</w> 6
o h</w> 6
o ivent</w> 6
o eil</w> 6
c ali 6
c ale</w> 6
c ope</w> 6
i g</w> 6
i tre</w> 6
i had</w> 6
i rez</w> 6
e ye 6
e over</w> 6
e ager</w> 6
e iner</w> 6
t .</w> 6
t tes</w> 6
t ale</w> 6
t sch 6
t ains</w> 6
t ext</w> 6
t êtes</w> 6
t ask</w> 6
é tions</w> 6
é tro 6
é lu 6
é mis 6
é ché</w> 6
é puis 6
é mouv 6
é ducation</w> 6
l or 6
l les</w> 6
l ée</w> 6
l ing 6
l aid</w> 6
l friend</w> 6
p m</w> 6
p oul 6
p esti 6
p éd 6
h t</w> 6
h air</w> 6
h ang</w> 6
h itter</w> 6
n ights</w> 6
a qu 6
a un 6
a deur</w> 6
r on</w> 6
r as</w> 6
r ent 6
r ance</w> 6
r ence</w> 6
r ants</w> 6
r ud 6
r ail 6
r ash 6
r ently</w> 6
r ounds</w> 6
r ails</w> 6
r entrer</w> 6
J r</w> 6
J on</w> 6
J ay 6
J ane</w> 6
m p 6
m ic 6
m ate</w> 6
m ass 6
m ail 6
m ég 6
m ails</w> 6
C O</w> 6
C lo 6
C are</w> 6
C and 6
C elle</w> 6
C ec 6
C ann 6
C ase</w> 6
C ris 6
C ant 6
C US</w> 6
s ar 6
s al</w> 6
s ad 6
s ay 6
s ong</w> 6
s now</w> 6
s low</w> 6
s aving</w> 6
s ending</w> 6
s log 6
s essions</w> 6
s ans- 6
- led</w> 6
- and- 6
R E</w> 6
R is 6
R as 6
R ate</w> 6
R ue</w> 6
R af 6
R um 6
R ennes</w> 6
v ine</w> 6
v ici 6
v aut</w> 6
v essel</w> 6
b t</w> 6
b u</w> 6
b û 6
b or</w> 6
b une</w> 6
b ain</w> 6
b ound</w> 6
b ble</w> 6
b ach- 6
d l 6
d in</w> 6
d est</w> 6
d us</w> 6
d ale</w> 6
d ite</w> 6
d ité</w> 6
d ame</w> 6
d ans 6
d ense</w> 6
d ying</w> 6
d ass</w> 6
d hood</w> 6
F le 6
F res 6
F ame</w> 6
F eu</w> 6
F loo 6
F ide 6
F oods</w> 6
F lood</w> 6
F iled</w> 6
F anny</w> 6
F avre</w> 6
L D 6
L ine</w> 6
L eurs</w> 6
L ord</w> 6
L ot 6
L enn 6
L ie 6
L AN 6
L aura</w> 6
y ar 6
y age</w> 6
y ang</w> 6
z o</w> 6
z er 6
z ig 6
z um</w> 6
z ones</w> 6
z enheim</w> 6
z ös 6
g ê 6
g on 6
g ur 6
g le 6
g ly</w> 6
g ais</w> 6
g oo 6
g ence</w> 6
g est 6
g esti 6
g az 6
g ène</w> 6
g ene 6
g ap</w> 6
g ather</w> 6
g âteaux</w> 6
è ves</w> 6
è lement</w> 6
N ou 6
N ai 6
N om 6
N ur 6
N ight</w> 6
N ord 6
N antes</w> 6
N acht</w> 6
1 -</w> 6
1 13</w> 6
1 2- 6
1 2,3 6
5 6 6
5 2 6
5 0. 6
5 0s</w> 6
î les</w> 6
î ner</w> 6
D A 6
D w 6
D R</w> 6
D ig 6
D ave</w> 6
D ep 6
D ame</w> 6
D jo 6
D id</w> 6
D OR 6
D aim 6
A gn 6
A mor 6
A wards</w> 6
V H 6
V ig 6
V erg 6
V eter 6
P a</w> 6
P ay 6
P eu</w> 6
P ick 6
P fas 6
P itt</w> 6
E s 6
E - 6
E P 6
E G 6
E M</w> 6
E P</w> 6
E st 6
E rik</w> 6
E ADS</w> 6
E thiop 6
T R 6
T B</w> 6
T ed</w> 6
T ani</w> 6
T err 6
T ax</w> 6
O t 6
O u</w> 6
O M 6
O T</w> 6
O S</w> 6
O ak 6
O ut</w> 6
M R 6
M O 6
M om 6
M ig 6
M ir 6
M ill 6
M att 6
M én 6
M ise</w> 6
M ang 6
M ail</w> 6
Y o 6
Y our</w> 6
k in 6
k at 6
k am 6
k ly</w> 6
k ia</w> 6
H o</w> 6
H U 6
H . 6
H ai 6
H ave</w> 6
H aving</w> 6
H AR 6
ü h 6
ü ber 6
W H 6
W on 6
W right</w> 6
W al- 6
W ang</w> 6
W agner</w> 6
f ati 6
f ty</w> 6
f low 6
w ill 6
w ich</w> 6
w ake</w> 6
w ounds</w> 6
G a 6
G an 6
G en</w> 6
G et</w> 6
G ore</w> 6
G ener 6
G illes</w> 6
G ES</w> 6
G aul 6
G esch 6
ï c</w> 6
X VI 6
K a 6
K G 6
K or 6
K at 6
K am 6
K ri 6
K og 6
K ouch 6
B a 6
B on</w> 6
B and</w> 6
B ad 6
B elle</w> 6
B ran 6
B onne</w> 6
B ie 6
B ack 6
B urg 6
B CE</w> 6
B ond</w> 6
B OUR 6
B UR 6
U m 6
Z er 6
6 5 6
I e</w> 6
I M 6
I P</w> 6
. uk</w> 6
ê tres</w> 6
j an</w> 6
j ap 6
j eter</w> 6
4 15</w> 6
4 00,000</w> 6
8 3 6
8 00- 6
3 60</w> 6
3 6- 6
3 rd</w> 6
2 2. 6
ä ch 6
ä sident</w> 6
ë n</w> 6
œ u 6
an k</w> 6
an ic</w> 6
en é</w> 6
en en</w> 6
en com 6
en ner</w> 6
en ey</w> 6
en bach</w> 6
en sic</w> 6
en rich 6
in tr 6
in en</w> 6
in ois</w> 6
in ond 6
in tit 6
th a</w> 6
th ered</w> 6
er n</w> 6
er able</w> 6
er s- 6
er reurs</w> 6
on i</w> 6
on aire</w> 6
on so</w> 6
ti g</w> 6
ti as</w> 6
ti gi 6
ti gh 6
ti ps</w> 6
ti ght</w> 6
ti bles</w> 6
ar de</w> 6
re u 6
re es</w> 6
re di 6
re fois</w> 6
re vers 6
re trou 6
re vend 6
re garde</w> 6
re prend</w> 6
re signed</w> 6
re portée</w> 6
re trait</w> 6
or ate</w> 6
qu ants</w> 6
qu e- 6
qu ête</w> 6
li tre</w> 6
li ses</w> 6
li sheim</w> 6
li ament</w> 6
li festyle</w> 6
tr and</w> 6
tr un 6
tr au 6
tr ain 6
tr aint</w> 6
es so 6
es ch</w> 6
es ity</w> 6
es sive</w> 6
es cal 6
it ée</w> 6
it ters</w> 6
it em</w> 6
is col 6
is tiques</w> 6
ch et</w> 6
ch ol 6
ch ette</w> 6
ch ick 6
ch airs</w> 6
ch ampagne</w> 6
al our 6
al om</w> 6
pr êtes</w> 6
pr endra</w> 6
pr ayer</w> 6
at cher</w> 6
el - 6
el ds</w> 6
el der</w> 6
em en</w> 6
em pire</w> 6
as ks</w> 6
as ide</w> 6
ac on</w> 6
ac re</w> 6
ac cident 6
ac quired</w> 6
il er</w> 6
un i</w> 6
un il 6
un ity</w> 6
un ies</w> 6
un ve 6
un identified</w> 6
un precedented</w> 6
ic tion</w> 6
ic ks</w> 6
ic kets</w> 6
si enne</w> 6
si zed</w> 6
si vely</w> 6
con tes</w> 6
con fer 6
con vient</w> 6
con serve</w> 6
con grès</w> 6
con spiracy</w> 6
am i 6
am e 6
am er 6
am ents</w> 6
st in 6
st um 6
st ems</w> 6
st aying</w> 6
st ability</w> 6
st opping</w> 6
st ayed</w> 6
di g</w> 6
di ve</w> 6
le gi 6
le aves</w> 6
ag grav 6
su me</w> 6
ro bus 6
ro yal</w> 6
ro ads</w> 6
ri am</w> 6
de o</w> 6
de part 6
de hors</w> 6
com édi 6
po le</w> 6
po is 6
se aux</w> 6
se cour 6
pro ven 6
pro positions</w> 6
pro gressi 6
pro stitution</w> 6
pro sper 6
ab o</w> 6
ab ond 6
ab ri</w> 6
ab lish</w> 6
ci per 6
ci ous</w> 6
dé ç 6
dé fer 6
dé pass 6
dé bar 6
dé bou 6
dé lég 6
dé tenu</w> 6
dé favor 6
dé parts</w> 6
dé lé 6
dé faites</w> 6
us tin</w> 6
wh ites</w> 6
wh atever</w> 6
par vient</w> 6
par faite</w> 6
par aissent</w> 6
our ne</w> 6
be d 6
be it 6
ap er 6
ap ers</w> 6
eu ve</w> 6
lo ves</w> 6
lo go</w> 6
lo aded</w> 6
ad t</w> 6
ad jac 6
ex il</w> 6
ex port</w> 6
ex ports</w> 6
ex emp 6
ex tent</w> 6
ex pression</w> 6
ex pire</w> 6
ex empl 6
ex cuse</w> 6
op er</w> 6
op ens</w> 6
vi r</w> 6
ver e 6
ver pool</w> 6
ent z</w> 6
ent ering</w> 6
ent atives</w> 6
ent endu</w> 6
no w 6
no ver</w> 6
no ire</w> 6
no ble</w> 6
et ers</w> 6
ter res</w> 6
00 0- 6
ré actions</w> 6
ré serve</w> 6
ré solution</w> 6
ré ception</w> 6
ré putation</w> 6
ré volu 6
ré fugi 6
ré fléch 6
im pu 6
im pul 6
im prim 6
im pressed</w> 6
ét aire</w> 6
ét apes</w> 6
per - 6
per ç 6
per pe 6
per cu 6
per ce 6
mo des</w> 6
mo ves</w> 6
mo indre</w> 6
for - 6
ir ont</w> 6
ir ac</w> 6
ul er</w> 6
ul ar</w> 6
ul tra- 6
por tions</w> 6
por trait</w> 6
sh op 6
res ts</w> 6
res cu 6
gr y</w> 6
gr ati 6
gr ate 6
the - 6
co h 6
co s 6
co in</w> 6
co eurs</w> 6
te ars</w> 6
end o 6
end o</w> 6
oun der</w> 6
ay ette</w> 6
ay ton</w> 6
cl ari 6
bu m 6
pu t 6
he m</w> 6
to ff</w> 6
ser vir</w> 6
ak a</w> 6
so i</w> 6
so vi 6
so eurs</w> 6
so red</w> 6
mi c</w> 6
mi ères</w> 6
emb ar 6
emb all 6
pre fer 6
ing redi 6
ed itor</w> 6
Ch â 6
Ch er 6
Ch es 6
Ch en</w> 6
Ch irac</w> 6
min or 6
min ent</w> 6
vo wed</w> 6
ass é</w> 6
ass ment</w> 6
ass aut</w> 6
bi bliothèques</w> 6
ill us 6
do ch</w> 6
do ors</w> 6
do ck</w> 6
man ger</w> 6
man qué</w> 6
man quer</w> 6
man quent</w> 6
ss ent</w> 6
dis que</w> 6
dis ant</w> 6
dis pos 6
dis tur 6
dis tricts</w> 6
comm ente</w> 6
comm ented</w> 6
ra jou 6
du rer</w> 6
du quel</w> 6
gi ft</w> 6
hi dden</w> 6
all é</w> 6
all ons</w> 6
cu le</w> 6
cu ivre</w> 6
tri ple</w> 6
tri omp 6
go tten</w> 6
Th ir 6
Th ings</w> 6
Th rash 6
rec ession</w> 6
rec eption</w> 6
comp t 6
comp agnon</w> 6
ouv ri 6
In f 6
In surance</w> 6
wor se</w> 6
No s</w> 6
No kia</w> 6
sp ont 6
sp ace 6
sp lit</w> 6
oc é 6
oc ean</w> 6
off enders</w> 6
sid ers</w> 6
An y 6
An im 6
ist ers</w> 6
ob tain</w> 6
19 27</w> 6
19 42</w> 6
19 72</w> 6
19 85</w> 6
19 57</w> 6
19 39</w> 6
19 53</w> 6
tro ën</w> 6
ev ange 6
Mar co</w> 6
Mar tine</w> 6
Mar kov</w> 6
bo at</w> 6
bo ats</w> 6
bo ards</w> 6
bo thered</w> 6
cre di 6
cre ws</w> 6
cre dits</w> 6
ail ing</w> 6
att ached</w> 6
att acking</w> 6
poli tically</w> 6
Al z 6
Al low 6
Al aska</w> 6
Al onso</w> 6
inter ven 6
inter esting</w> 6
lu tter</w> 6
lu cky</w> 6
form al</w> 6
form ations</w> 6
ven ile</w> 6
acc ent</w> 6
me at</w> 6
me hr 6
sc in 6
gu er</w> 6
gu em 6
gu ère</w> 6
gu ests</w> 6
str ing</w> 6
str ain</w> 6
rou le</w> 6
rou ght</w> 6
rou ges</w> 6
St ur 6
St ay</w> 6
déc or</w> 6
déc oll 6
déc oration</w> 6
est on</w> 6
est ablish</w> 6
ang ered</w> 6
parti ciper 6
pi es</w> 6
pi ano</w> 6
enti ère</w> 6
enti tled</w> 6
publi er</w> 6
mer ve 6
mer credis</w> 6
ég er</w> 6
ég yp 6
ég lises</w> 6
iv resse</w> 6
ell en</w> 6
hom ologue</w> 6
fo rest</w> 6
fo ster</w> 6
inv iter</w> 6
inv esting</w> 6
Qu in 6
Qu es 6
Qu atre</w> 6
Qu oi</w> 6
spe culation</w> 6
ach ar 6
ach eté</w> 6
sur - 6
sur ge 6
sur prises</w> 6
sur venue</w> 6
sur venu</w> 6
cou le</w> 6
cou rir</w> 6
cont re 6
cont am 6
cont ain</w> 6
cont est 6
ph ine</w> 6
car riers</w> 6
e- forme</w> 6
sti t 6
sti g 6
sou viens</w> 6
la i</w> 6
la ur 6
la homa</w> 6
pres ented</w> 6
pres tigi 6
cur ieux</w> 6
rem et 6
rem plac 6
Ro th 6
Ro che</w> 6
Ro sa</w> 6
Ro sen 6
aff ec 6
aff ili 6
int ég 6
int éri 6
eff ac 6
fer t</w> 6
ber ry</w> 6
ber gers</w> 6
wi der</w> 6
wi eder 6
wi reless</w> 6
cr aintes</w> 6
Par ce</w> 6
Par ents</w> 6
Par ker</w> 6
Par is- 6
Par liament</w> 6
app ing</w> 6
tt a</w> 6
br is</w> 6
br ac 6
br ush</w> 6
br onn</w> 6
aut refois</w> 6
derni èrement</w> 6
ren e 6
produ cteur</w> 6
Con t 6
Con gressional</w> 6
fam eux</w> 6
Re gi 6
Re gar 6
Re form</w> 6
jou ait</w> 6
je ans</w> 6
gn é</w> 6
gn es</w> 6
coun ter</w> 6
amp leur</w> 6
jo kes</w> 6
cri ti 6
cri tiques</w> 6
En semble</w> 6
ind ices</w> 6
diff usion</w> 6
part ly</w> 6
rest era</w> 6
fac ul 6
fac ture</w> 6
fac ilement</w> 6
Un fortunately</w> 6
loc ked</w> 6
De b 6
sup ports</w> 6
Ar ts</w> 6
Ar med</w> 6
mé th 6
mé tiers</w> 6
ong yang</w> 6
rel ativement</w> 6
lic ate</w> 6
lic ense</w> 6
mor ale</w> 6
cap tur 6
ge o 6
uni tion</w> 6
uni verse</w> 6
air - 6
bre ath</w> 6
ot ers</w> 6
gar der</w> 6
2, 2 6
1, 500</w> 6
Je ws</w> 6
Je ff</w> 6
contr acts</w> 6
ste ady</w> 6
ste ering</w> 6
mili eux</w> 6
eng age</w> 6
Br ent</w> 6
Br ad 6
Br aves</w> 6
har sh</w> 6
war rants</w> 6
ori entation</w> 6
cro is 6
Sch u 6
Sch er 6
Sch ro 6
Sch we 6
Sch aeff 6
Mo ss</w> 6
[...]
