, 11503
the 10185
. 9180
to 5338
of 5101
and 4904
a 4719
" 4389
in 4159
's 2098
that 1987
for 1827
The 1690
said 1649
on 1626
is 1516
was 1378
with 1365
as 1043
it 1043
he 1030
at 1027
by 960
be 946
from 939
) 920
( 916
have 891
his 818
are 811
I 807
$ 804
has 804
an 767
: 705
- 702
not 674
who 657
will 656
had 555
this 552
were 547
or 530
they 529
their 511
been 495
but 492
more 484
would 447
which 440
its 433
't 419
about 409
' 396
out 385
her 382
It 376
we 369
after 356
than 352
one 349
He 348
year 340
you 339
up 331
/ 328
also 319
she 312
In 309
can 302
But 300
people 299
two 293
all 288
other 282
-- 278
into 277
when 277
there 274
first 272
A 271
% 268
over 267
last 266
new 262
could 261
time 260
percent 257
million 251
years 236
? 224
some 220
so 219
if 218
what 218
him 215
New 214
them 206
no 205
; 197
We 194
like 192
just 190
only 190
do 189
Mr. 187
U.S. 183
most 182
And 176
our 175
2007 173
before 170
government 170
where 169
They 167
because 162
make 161
against 160
company 159
home 158
being 156
get 155
then 154
back 153
made 153
Iraq 152
three 152
now 151
through 151
down 150
told 150
any 149
such 149
says 147
week 144
did 143
my 143
way 141
many 138
off 138
day 136
including 136
even 133
1 132
going 132
should 132
take 132
work 132
police 131
how 129
since 129
those 129
York 128
say 128
10 127
This 127
between 126
country 126
may 126
well 125
still 124
United 122
president 122
former 121
much 121
during 120
four 120
while 118
your 118
go 116
under 116
around 115
world 115
state 114
man 113
next 113
2006 112
don 112
me 112
think 111
very 111
There 110
Wednesday 110
game 110
good 108
30 107
As 107
business 106
city 105
President 104
part 104
For 103
another 103
want 103
set 102
2 101
If 101
children 101
end 101
ing 101
own 101
second 101
That 100
found 100
Mr 99
family 99
're 98
both 98
see 97
& 96
information 96
public 96
season 96
team 96
too 96
market 95
same 95
billion 94
top 94
Sunday 93
help 93
know 93
Thursday 92
called 92
got 92
group 92
US 91
expected 91
officials 91
school 91
security 91
Tuesday 90
You 90
show 90
American 89
here 89
us 89
Bush 88
States 88
health 88
until 88
five 87
months 87
11 86
several 85
come 84
money 84
month 84
reported 84
Saturday 83
've 82
20 82
number 82
these 82
whether 82
Friday 81
Monday 81
She 81
came 81
left 81
military 81
Washington 80
per 80
put 80
run 80
support 80
12 79
China 79
able 79
case 79
little 79
long 79
need 79
right 79
use 79
lead 78
night 78
best 77
days 77
ed 77
high 77
report 77
statement 77
Quarter 76
At 75
early 75
point 75
political 75
six 75
third 75
North 74
better 74
took 74
used 74
according 73
later 73
members 73
news 73
place 73
war 73
AP 72
few 72
killed 72
never 72
'm 71
On 71
assets 71
away 71
play 71
again 70
chief 70
games 70
3 69
men 69
points 69
s 69
share 69
went 69
Iran 68
National 68
South 68
across 68
director 68
does 68
every 68
service 68
win 68
won 68
working 68
4 67
5 67
America 67
By 67
One 67
area 67
big 67
quarter 67
record 67
Sept 66
Total 66
deal 66
hit 66
http 66
loss 66
25 65
might 65
things 65
15 64
October 64
When 64
announced 64
campaign 64
income 64
led 64
less 64
power 64
prices 64
without 64
House 63
With 63
World 63
added 63
become 63
change 63
conference 63
didn 63
far 63
life 63
line 63
look 63
... 62
September 62
each 62
plan 62
plans 62
saying 62
John 61
Of 61
already 61
asked 61
available 61
companies 61
court 61
least 61
local 61
minutes 61
recent 61
start 61
today 61
trying 61
among 60
based 60
believe 60
car 60
find 60
often 60
really 60
something 60
His 59
To 59
financial 59
house 59
50 58
along 58
give 58
industry 58
party 58
private 58
2005 57
Department 57
ago 57
call 57
countries 57
enough 57
system 57
6 56
Clinton 56
Minister 56
general 56
half 56
held 56
lot 56
products 56
return 56
West 55
include 55
major 55
meeting 55
nuclear 55
oil 55
once 55
operations 55
past 55
Iraqi 54
University 54
behind 54
close 54
ended 54
energy 54
forces 54
having 54
interest 54
leader 54
leading 54
problems 54
services 54
students 54
17 53
40 53
7 53
David 53
Inc 53
cost 53
likely 53
others 53
8 52
All 52
Company 52
career 52
current 52
ers 52
growth 52
international 52
law 52
price 52
sales 52
weeks 52
women 52
£ 52
2008 51
al 51
died 51
different 51
increase 51
issue 51
lost 51
official 51
players 51
real 51
spokesman 51
young 51
16 50
State 50
While 50
continue 50
credit 50
field 50
free 50
hard 50
head 50
late 50
looking 50
making 50
miles 50
music 50
program 50
thousands 50
14 49
White 49
attack 49
data 49
dollars 49
es 49
great 49
hours 49
known 49
office 49
why 49
British 48
always 48
earlier 48
future 48
keep 48
leaders 48
national 48
policy 48
recently 48
results 48
son 48
though 48
troops 48
yet 48
! 47
13 47
Police 47
average 47
began 47
care 47
economy 47
er 47
fight 47
near 47
taken 47
wanted 47
whose 47
within 47
9 46
City 46
November 46
Some 46
ahead 46
food 46
open 46
After 45
General 45
O 45
TV 45
ate 45
community 45
control 45
customers 45
decision 45
done 45
due 45
equity 45
federal 45
higher 45
important 45
key 45
person 45
received 45
released 45
sold 45
strong 45
taking 45
thing 45
times 45
visit 45
18 44
About 44
England 44
Press 44
death 44
fire 44
following 44
legal 44
level 44
must 44
name 44
net 44
study 44
tax 44
2004 43
An 43
Bank 43
June 43
So 43
capital 43
eight 43
executive 43
fell 43
global 43
morning 43
move 43
period 43
possible 43
provide 43
thought 43
First 42
July 42
Times 42
What 42
ation 42
clear 42
face 42
final 42
investment 42
media 42
old 42
series 42
space 42
video 42
Association 41
Group 41
Republican 41
Street 41
am 41
cut 41
full 41
i 41
live 41
markets 41
seven 41
showed 41
site 41
small 41
California 40
San 40
These 40
ated 40
development 40
event 40
further 40
gave 40
himself 40
hope 40
large 40
latest 40
phone 40
process 40
region 40
research 40
rose 40
senior 40
single 40
technology 40
water 40
woman 40
'll 39
24 39
31 39
Americans 39
January 39
Pakistan 39
age 39
earnings 39
economic 39
ever 39
experience 39
failed 39
force 39
job 39
land 39
manager 39
pass 39
pay 39
playing 39
position 39
running 39
workers 39
21 38
Brown 38
Council 38
European 38
Oct. 38
agency 38
attacks 38
black 38
charges 38
costs 38
evidence 38
firm 38
history 38
leave 38
loans 38
mother 38
nation 38
nearly 38
needed 38
o 38
quickly 38
reports 38
safety 38
seen 38
statements 38
t 38
ts 38
19 37
Court 37
India 37
My 37
Obama 37
air 37
coming 37
feel 37
foreign 37
getting 37
goal 37
investigation 37
member 37
production 37
rate 37
role 37
room 37
sent 37
shares 37
short 37
shot 37
states 37
y 37
'd 36
0 36
22 36
Boston 36
County 36
France 36
No 36
administration 36
allowed 36
book 36
bring 36
building 36
charged 36
class 36
debate 36
doesn 36
doing 36
expect 36
gas 36
groups 36
patients 36
release 36
side 36
spent 36
wife 36
--- 35
90 35
August 35
Britain 35
Chicago 35
Democratic 35
Democrats 35
Giuliani 35
Ms. 35
Now 35
Other 35
Russia 35
_ 35
anything 35
article 35
biggest 35
bill 35
body 35
cases 35
debt 35
given 35
kind 35
management 35
minister 35
officer 35
performance 35
situation 35
station 35
stop 35
summer 35
teams 35
try 35
victory 35
wasn 35
.com 34
Chinese 34
Dr. 34
From 34
George 34
Michael 34
Third 34
almost 34
ating 34
beat 34
fourth 34
heart 34
largest 34
match 34
newspaper 34
operating 34
played 34
presidential 34
project 34
question 34
rather 34
story 34
turn 34
turned 34
winning 34
100 33
International 33
Korea 33
access 33
agreed 33
areas 33
arrested 33
cash 33
cause 33
compared 33
election 33
helped 33
husband 33
increased 33
interview 33
issues 33
organization 33
parents 33
potential 33
revenue 33
scheduled 33
started 33
test 33
together 33
trade 33
vote 33
wants 33
23 32
Africa 32
Congress 32
However 32
Musharraf 32
Senate 32
Two 32
Web 32
agreement 32
allow 32
appeared 32
center 32
cents 32
comes 32
commercial 32
contract 32
defense 32
described 32
film 32
however 32
included 32
medical 32
outside 32
paid 32
passed 32
peace 32
programs 32
spending 32
television 32
ting 32
view 32
yesterday 32
26 31
Europe 31
Financial 31
French 31
News 31
Prime 31
chance 31
decided 31
football 31
hold 31
involved 31
light 31
losses 31
makes 31
matter 31
network 31
offer 31
officers 31
order 31
previous 31
round 31
sale 31
stay 31
80 30
= 30
December 30
Health 30
How 30
Israeli 30
Last 30
London 30
Los 30
Party 30
Red 30
bit 30
changes 30
course 30
dead 30
drug 30
example 30
forward 30
online 30
opportunity 30
opposition 30
probably 30
problem 30
range 30
red 30
risk 30
stage 30
success 30
tell 30
training 30
weapons 30
Angeles 29
April 29
Bhutto 29
District 29
Interest 29
March 29
Not 29
Three 29
Wall 29
action 29
coach 29
common 29
fall 29
hand 29
homes 29
hospital 29
lower 29
moving 29
nothing 29
product 29
rates 29
related 29
result 29
rights 29
rule 29
social 29
someone 29
ted 29
themselves 29
value 29
vice 29
yards 29
2001 28
500 28
Associated 28
Average 28
Center 28
Internet 28
Jones 28
Net 28
No. 28
Palestinian 28
Research 28
Second 28
accused 28
adding 28
ations 28
authorities 28
broke 28
buy 28
comment 28
complete 28
concerns 28
conditions 28
date 28
education 28
employees 28
expenses 28
focus 28
funds 28
gone 28
ground 28
human 28
id 28
jobs 28
knew 28
prime 28
reach 28
ruling 28
runs 28
serious 28
signed 28
talks 28
town 28
watch 28
Afghanistan 27
Cup 27
East 27
Iowa 27
Mexico 27
More 27
Romney 27
Security 27
Sen. 27
UK 27
above 27
audience 27
bad 27
became 27
benefit 27
board 27
border 27
break 27
candidate 27
cities 27
disease 27
efforts 27
equipment 27
everyone 27
everything 27
expense 27
father 27
front 27
impact 27
list 27
ly 27
meet 27
met 27
particularly 27
pressure 27
remain 27
scored 27
seems 27
selling 27
soldiers 27
speak 27
starting 27
strategy 27
strike 27
trading 27
violence 27
white 27
words 27
wrote 27
2002 26
Israel 26
Johnson 26
Paris 26
Park 26
Post 26
Russian 26
Thomas 26
banks 26
beginning 26
built 26
calls 26
child 26
details 26
drive 26
fighting 26
forced 26
hundreds 26
inside 26
m 26
mortgage 26
regional 26
remains 26
response 26
sell 26
soon 26
special 26
spokeswoman 26
standing 26
talk 26
toward 26
treatment 26
using 26
voters 26
45 25
60 25
Cleveland 25
James 25
League 25
May 25
Mike 25
R 25
Thompson 25
U.N. 25
addition 25
ally 25
appear 25
believed 25
considered 25
create 25
de 25
demand 25
despite 25
el 25
en 25
felt 25
giving 25
heard 25
housing 25
idea 25
investors 25
kept 25
leaving 25
liabilities 25
main 25
movie 25
opened 25
planned 25
player 25
primary 25
returned 25
scene 25
shows 25
significant 25
student 25
supporters 25
sure 25
surgery 25
systems 25
takes 25
taxes 25
ter 25
terms 25
tried 25
ways 25
whole 25
wide 25
works 25
2003 24
27 24
28 24
According 24
Baghdad 24
Central 24
Ministry 24
Open 24
Our 24
People 24
Service 24
Since 24
Union 24
[ 24
] 24
a.m 24
ability 24
anyone 24
cancer 24
carried 24
coalition 24
competition 24
d 24
damage 24
fact 24
families 24
followed 24
friend 24
girl 24
immediately 24
includes 24
lack 24
lives 24
living 24
majority 24
north 24
personal 24
provided 24
quite 24
race 24
road 24
sense 24
software 24
staff 24
store 24
total 24
trial 24
victims 24
29 23
70 23
Although 23
C 23
Energy 23
Income 23
Mark 23
McCain 23
Myanmar 23
Nov. 23
Office 23
Richard 23
SOURCE 23
Then 23
ad 23
art 23
attention 23
ball 23
candidates 23
card 23
continued 23
daughter 23
division 23
dollar 23
fans 23
feet 23
fully 23
growing 23
index 23
joint 23
k 23
loan 23
murder 23
property 23
step 23
title 23
traffic 23
unit 23
.. 22
35 22
Also 22
Edwards 22
Federal 22
Inc. 22
Is 22
Many 22
Prince 22
Robert 22
Scotland 22
Simpson 22
Texas 22
Tony 22
Williams 22
accounts 22
although 22
ar 22
bank 22
bomb 22
brought 22
certain 22
challenge 22
charge 22
club 22
college 22
commander 22
consumers 22
content 22
couple 22
either 22
emergency 22
environmental 22
est 22
estate 22
gets 22
governor 22
hotel 22
ings 22
items 22
legislation 22
low 22
maker 22
margin 22
measures 22
message 22
needs 22
numbers 22
offered 22
parts 22
prison 22
profit 22
raised 22
read 22
recalled 22
rules 22
schools 22
seemed 22
serve 22
stock 22
talking 22
term 22
th 22
worked 22
4.@@ 21
47 21
Al 21
Conference 21
Germany 21
Giants 21
Hampshire 21
King 21
Royal 21
Scottish 21
Smith 21
Supreme 21
Those 21
Western 21
act 21
acting 21
afternoon 21
approach 21
approximately 21
base 21
c 21
cars 21
chairman 21
committee 21
computer 21
contact 21
department 21
e 21
effect 21
factors 21
fiscal 21
fun 21
healthy 21
hearing 21
hour 21
huge 21
illegal 21
improve 21
incident 21
killing 21
le 21
les 21
limited 21
looked 21
missed 21
mobile 21
named 21
nine 21
opening 21
ous 21
overall 21
p 21
planning 21
poor 21
popular 21
pretty 21
progress 21
reason 21
rebels 21
reduce 21
reporters 21
rising 21
seeing 21
seem 21
ship 21
sites 21
spend 21
spoke 21
terrorist 21
thescotsman.scotsman.com 21
tickets 21
ties 21
voice 21
* 20
200 20
33 20
Air 20
Aug. 20
Earlier 20
Florida 20
Justice 20
Most 20
Paul 20
Petraeus 20
St. 20
Today 20
UPI 20
additional 20
address 20
affected 20
approved 20
attorney 20
conducted 20
contributed 20
crash 20
crime 20
develop 20
difference 20
difficult 20
ding 20
drinking 20
drugs 20
effort 20
else 20
figures 20
finance 20
goals 20
guard 20
happen 20
happened 20
happy 20
ist 20
letter 20
levels 20
losing 20
material 20
minute 20
mostly 20
offers 20
original 20
parties 20
perhaps 20
plant 20
practice 20
press 20
quality 20
records 20
residents 20
secretary 20
seeking 20
served 20
shop 20
similar 20
simply 20
speech 20
stand 20
street 20
successful 20
telling 20
testing 20
threat 20
travel 20
watching 20
weekend 20
written 20
2000 19
36 19
65 19
Army 19
BBC 19
Both 19
Commission 19
D 19
During 19
English 19
Even 19
Gordon 19
Her 19
Institute 19
Iranian 19
Korean 19
Microsoft 19
Rock 19
UN 19
activities 19
amid 19
annual 19
ans 19
arrest 19
ask 19
asking 19
ates 19
begin 19
benefits 19
cannot 19
claims 19
closed 19
comments 19
confirmed 19
conservative 19
consumer 19
currently 19
declined 19
discuss 19
district 19
drop 19
ending 19
evening 19
events 19
eyes 19
fired 19
friends 19
independent 19
insurance 19
intelligence 19
issued 19
judge 19
kids 19
largely 19
lawyers 19
league 19
let 19
measure 19
ordered 19
protect 19
questions 19
represents 19
sign 19
sought 19
south 19
star 19
traditional 19
train 19
warned 19
website 19
writer 19
writers 19
42 18
52 18
Arab 18
Bill 18
Blackwater 18
Christmas 18
Colorado 18
Committee 18
Craig 18
Day 18
Despite 18
Fourth 18
German 18
Japan 18
Northern 18
Services 18
Still 18
Sudan 18
T 18
Taliban 18
Their 18
Turkey 18
WASHINGTON 18
accepted 18
actions 18
advertising 18
airline 18
announcement 18
armed 18
army 18
author 18
battle 18
beyond 18
born 18
boy 18
bus 18
carry 18
cast 18
caused 18
cell 18
central 18
church 18
civilian 18
core 18
county 18
criminal 18
deposits 18
dropped 18
ensure 18
entire 18
especially 18
exchange 18
filed 18
finished 18
foot 18
g 18
grew 18
hurt 18
injuries 18
ity 18
larger 18
longer 18
meetings 18
moment 18
movement 18
natural 18
negotiations 18
non-@@ 18
northern 18
ons 18
p.m 18
politics 18
produced 18
professional 18
providing 18
province 18
regular 18
relations 18
relationship 18
responsible 18
rest 18
sanctions 18
serving 18
sex 18
shooting 18
simple 18
sometimes 18
source 18
stores 18
straight 18
suspect 18
throughout 18
visitors 18
wearing 18
worldwide 18
African 17
Another 17
CNN 17
Corporation 17
Exchange 17
Former 17
Home 17
Hospital 17
Joe 17
L 17
Ltd 17
Meanwhile 17
NEW 17
Reuters 17
S 17
School 17
Steve 17
Time 17
Was 17
Yet 17
activity 17
actually 17
aged 17
airport 17
animals 17
ant 17
attempt 17
attended 17
b 17
build 17
businesses 17
cent 17
changed 17
citizens 17
civil 17
claimed 17
commission 17
connection 17
couldn 17
critical 17
crude 17
decades 17
deep 17
delivery 17
developing 17
double 17
easy 17
elections 17
facing 17
greater 17
guards 17
high-@@ 17
holding 17
hopes 17
hot 17
ine 17
injured 17
instead 17
itself 17
join 17
keeping 17
king 17
launch 17
launched 17
ley 17
lived 17
love 17
missing 17
mission 17
noted 17
ors 17
owner 17
paper 17
partners 17
pitch 17
population 17
push 17
ran 17
ready 17
relatively 17
review 17
rise 17
scale 17
score 17
search 17
separate 17
size 17
sort 17
streets 17
suffered 17
suicide 17
tangible 17
tests 17
tions 17
trip 17
twice 17
two-@@ 17
understand 17
union 17
university 17
vehicles 17
worth 17
wrong 17
34 16
48 16
49 16
67 16
74 16
Act 16
Arizona 16
Asian 16
Canada 16
Carolina 16
Chief 16
Chris 16
College 16
Fed 16
Foreign 16
Gen. 16
High 16
Hillary 16
Islamic 16
Let 16
Moscow 16
Ms 16
Over 16
Philadelphia 16
Road 16
Secretary 16
Several 16
War 16
X 16
YORK 16
Yankees 16
account 16
advantage 16
analysts 16
appears 16
ard 16
avoid 16
baby 16
blood 16
budget 16
ch 16
co-@@ 16
committed 16
concerned 16
condition 16
construction 16
corporate 16
council 16
created 16
deputy 16
devices 16
digital 16
direct 16
driver 16
earned 16
east 16
environment 16
era 16
expectations 16
floor 16
forward-looking 16
gain 16
goes 16
hands 16
haven 16
hear 16
helping 16
hits 16
holiday 16
host 16
ia 16
injury 16
institutions 16
intangible 16
ked 16
ks 16
lawyer 16
limit 16
looks 16
matters 16
mayor 16
means 16
model 16
none 16
normal 16
operation 16
owners 16
park 16
partner 16
passengers 16
policies 16
present 16
projects 16
proposed 16
protest 16
protests 16
pulled 16
qna 16
refused 16
request 16
require 16
required 16
ring 16
risks 16
roughly 16
scientists 16
securities 16
shopping 16
solutions 16
sound 16
southern 16
standard 16
suggested 16
table 16
target 16
teacher 16
users 16
usually 16
waiting 16
warning 16
whom 16
winner 16
worried 16
worst 16
1999 15
37 15
44 15
68 15
85 15
Afghan 15
Anderson 15
Australia 15
Beijing 15
Bob 15
Business 15
Club 15
Development 15
Diego 15
Good 15
Huckabee 15
INC 15
Its 15
Maryland 15
Medical 15
Middle 15
Nations 15
Ohio 15
Patriots 15
Public 15
Republic 15
River 15
Stephen 15
Tom 15
Us 15
Virginia 15
achieve 15
active 15
advance 15
album 15
als 15
ator 15
attacked 15
basis 15
buildings 15
century 15
climate 15
complex 15
continues 15
coverage 15
crisis 15
deaths 15
declared 15
directly 15
discussed 15
doctor 15
doctors 15
domestic 15
door 15
driving 15
earning 15
estimated 15
experts 15
extra 15
fear 15
focused 15
fund 15
girls 15
heads 15
highly 15
image 15
immigration 15
industrial 15
innings 15
intended 15
isn 15
mark 15
marketing 15
mean 15
mid-@@ 15
militants 15
offering 15
organizations 15
places 15
poll 15
profits 15
published 15
radio 15
receive 15
religious 15
replace 15
save 15
seized 15
setting 15
spot 15
status 15
storm 15
struck 15
style 15
supply 15
supporting 15
suspended 15
tour 15
toys 15
truck 15
truth 15
ty 15
various 15
vast 15
willing 15
1,000 14
1,0@@ 14
1997 14
64 14
71 14
800 14
Agency 14
Bay 14
Blair 14
Board 14
Bu@@ 14
Can 14
Carter 14
Chairman 14
Citigroup 14
Defense 14
Don 14
FBI 14
Fatah 14
Google 14
Government 14
Hamas 14
Henry 14
Here 14
Hill 14
Investment 14
Island 14
Matt 14
N 14
New@@ 14
P 14
Republicans 14
Rights 14
Ryan 14
Soviet 14
Writer 14
actual 14
agent 14
ages 14
aggressive 14
aid 14
aimed 14
alleged 14
allows 14
alone 14
amount 14
anti-@@ 14
ary 14
bed 14
believes 14
block 14
books 14
bottom 14
brand 14
clearly 14
concern 14
considering 14
continuing 14
daily 14
decide 14
decline 14
defending 14
denied 14
deposit 14
design 14
determined 14
developed 14
dies 14
direction 14
elsewhere 14
entertainment 14
entirely 14
euro 14
exercise 14
faces 14
fellow 14
fifth 14
filled 14
flights 14
fly 14
founder 14
fresh 14
green 14
heavily 14
heavy 14
improved 14
individual 14
influence 14
joined 14
jury 14
kill 14
leadership 14
lights 14
memory 14
mine 14
older 14
one-@@ 14
owned 14
playoffs 14
port 14
positive 14
posted 14
presence 14
prevent 14
provides 14
purchase 14
pushed 14
reached 14
researchers 14
resolution 14
resources 14
retail 14
rich 14
schedule 14
seat 14
seconds 14
secret 14
secure 14
skills 14
specific 14
speed 14
sports 14
spread 14
stations 14
thinking 14
tough 14
tournament 14
track 14
treated 14
uses 14
vehicle 14
venture 14
votes 14
wait 14
writing 14
yard 14
00 13
2009 13
23@@ 13
38 13
39 13
6-@@ 13
69 13
7-@@ 13
83 13
88 13
ABC 13
AL 13
Analysts 13
Are 13
Asia 13
Australian 13
Authorities 13
BANKS 13
Ben 13
Black 13
CEO 13
COMMUNITY 13
Cash 13
Charles 13
Christian 13
D. 13
Darfur 13
Davis 13
E 13
Executive 13
Fiscal 13
Force 13
Ford 13
Green 13
Insight 13
Italian 13
J. 13
Japanese 13
Just 13
Latin 13
Like 13
M 13
Manchester 13
Massachusetts 13
Mets 13
Minnesota 13
Notes 13
Orleans 13
PRNewswire-FirstCall 13
Peter 13
Rice 13
Rodriguez 13
SEPTEMBER 13
SUBSIDIARIES 13
Scott 13
Sir 13
Staff 13
Tehran 13
Turkish 13
Wales 13
Warner 13
accept 13
acquisition 13
actor 13
adults 13
advice 13
affairs 13
affect 13
ak 13
analyst 13
announce 13
answer 13
below 13
bid 13
bodies 13
bought 13
broken 13
cable 13
camp 13
centre 13
championship 13
changing 13
coast 13
colleagues 13
command 13
communities 13
compete 13
consider 13
contest 13
criticized 13
cuts 13
deals 13
ded 13
designed 13
documents 13
driven 13
effects 13
elected 13
ent 13
established 13
estimates 13
faced 13
fair 13
fashion 13
finding 13
firms 13
flight 13
forecast 13
fuel 13
ful 13
futures 13
grand 13
grow 13
guy 13
helps 13
highest 13
hole 13
hoped 13
ill 13
increases 13
increasingly 13
individuals 13
l 13
language 13
laws 13
link 13
listen 13
machine 13
magazine 13
mass 13
meaning 13
meant 13
millions 13
mind 13
n 13
occurred 13
overseas 13
pair 13
passing 13
patient 13
permission 13
personnel 13
please 13
politicians 13
polls 13
post 13
prepared 13
produce 13
protection 13
reality 13
recorded 13
reflect 13
remember 13
remove 13
reputation 13
sat 13
saw 13
self-@@ 13
settlement 13
shots 13
shut 13
signs 13
sixth 13
starts 13
steps 13
stood 13
strategic 13
streak 13
super@@ 13
te 13
threatened 13
upon 13
via 13
walk 13
walked 13
wall 13
wild 13
younger 13
z 13
07 12
100,000 12
150 12
300 12
32 12
51 12
53 12
54 12
55 12
75 12
78 12
81 12
9.@@ 12
94 12
@ 12
Apple 12
Balance 12
Barack 12
Because 12
Bell 12
Brazil 12
Calif 12
Chavez 12
Co 12
Copyright 12
Dec. 12
Democrat 12
Director 12
Each 12
F 12
Foundation 12
Francisco 12
Frank 12
Gaza 12
Gov. 12
Hall 12
Hollywood 12
Houston 12
Indian 12
Indonesia 12
Interior 12
Irish 12
Jackson 12
Jim 12
Jordan 12
Journal 12
K 12
Lake 12
Lewis 12
Loans 12
Major 12
Martin 12
Mrs. 12
Museum 12
Muslim 12
Muslims 12
Network 12
Once 12
Phil 12
Prize 12
Putin 12
Sheriff 12
Sox 12
Under 12
Vegas 12
Vietnam 12
Well 12
Why 12
Y 12
accident 12
aircraft 12
alive 12
allegations 12
and-@@ 12
appeal 12
appearance 12
aren 12
assault 12
assistance 12
assistant 12
backing 12
balance 12
banking 12
barrel 12
bigger 12
boost 12
box 12
bridge 12
calling 12
camera 12
carbon 12
carrying 12
causing 12
certainly 12
check 12
chosen 12
clients 12
cold 12
collection 12
computers 12
conflict 12
count 12
cover 12
covered 12
crew 12
der 12
discussion 12
dismissed 12
doubt 12
easier 12
effective 12
engineering 12
expand 12
expects 12
expensive 12
eye 12
favor 12
features 12
figure 12
fine 12
finish 12
fit 12
follow 12
form 12
gains 12
gold 12
guilty 12
ice 12
identify 12
increasing 12
index.cfm 12
internal 12
introduced 12
involvement 12
island 12
jail 12
journalist 12
kick 12
km 12
learn 12
letters 12
lines 12
long-@@ 12
minus 12
miss 12
mortgages 12
nearby 12
onto 12
option 12
options 12
ourselves 12
paying 12
penalty 12
pictures 12
piece 12
plants 12
powerful 12
promise 12
prosecutors 12
ps 12
putting 12
quarterback 12
raise 12
reading 12
reduction 12
regarding 12
reporting 12
responsibility 12
restaurant 12
scientific 12
senator 12
sentenced 12
shown 12
squad 12
stories 12
strength 12
studio 12
summit 12
survey 12
suspects 12
tackle 12
tic 12
tools 12
touchdown 12
turns 12
typically 12
unique 12
utility 12
version 12
veto 12
weak 12
weather 12
west 12
wounded 12
zone 12
03 11
10,000 11
1994 11
1995 11
20-@@ 11
24@@ 11
56 11
58 11
6.@@ 11
72 11
86 11
Alan 11
Ali 11
Andrew 11
Andy 11
B 11
Baltimore 11
Bowl 11
Bryant 11
CBS 11
Canadian 11
Chelsea 11
Country 11
Daily 11
Deputy 11
Dow 11
Dubai 11
EU 11
Fe@@ 11
Four 11
Fox 11
GOP 11
Gonzales 11
Goodwill 11
Gulf 11
Ian 11
Illinois 11
Indians 11
Ireland 11
Jersey 11
Joseph 11
Kennedy 11
Kevin 11
Kyi 11
L. 11
Las 11
Man 11
Mayor 11
Mitt 11
Mor@@ 11
NFL 11
Olmert 11
Products 11
Radio 11
Said 11
Series 11
Shi@@ 11
Southern 11
Spanish 11
Sunni 11
Suu 11
Syria 11
Thailand 11
Torre 11
Will 11
William 11
Year 11
a.m. 11
acts 11
agenda 11
agents 11
alcohol 11
allowing 11
alternative 11
applications 11
argue 11
arm 11
artist 11
atmosphere 11
authority 11
aware 11
ban 11
band 11
basic 11
ber 11
blue 11
breast 11
bringing 11
brother 11
buying 11
cards 11
catch 11
caught 11
chain 11
challenges 11
champion 11
choice 11
client 11
closely 11
comparable 11
competitive 11
completed 11
consumption 11
controversial 11
conviction 11
criticism 11
cutting 11
declaration 11
defensive 11
deliver 11
democracy 11
discovered 11
dog 11
dominated 11
down@@ 11
drivers 11
dy 11
easily 11
edge 11
electric 11
employee 11
enforcement 11
entered 11
er-@@ 11
ering 11
eventually 11
exactly 11
exciting 11
exile 11
expanding 11
experienced 11
explain 11
explosion 11
extreme 11
extremely 11
failing 11
feeling 11
films 11
findings 11
ford 11
funding 11
gay 11
gives 11
goods 11
h 11
herself 11
homer 11
homers 11
ics 11
identified 11
images 11
immigrants 11
investigating 11
knee 11
landmark 11
lawsuit 11
legs 11
ma 11
middle 11
modern 11
moved 11
multiple 11
myself 11
names 11
nations 11
nationwide 11
ned 11
ner 11
ness 11
non@@ 11
nonprofit 11
nor 11
note 11
obviously 11
offense 11
officially 11
ones 11
package 11
panel 11
path 11
photographs 11
physical 11
pick 11
picture 11
plane 11
plays 11
pleaded 11
pool 11
possibly 11
previously 11
producers 11
professor 11
prominent 11
prompted 11
reasons 11
rebounds 11
receiving 11
remained 11
remarks 11
respect 11
retired 11
retirement 11
rival 11
screen 11
se 11
seats 11
seventh 11
shared 11
shareholders 11
shortly 11
sit 11
sl@@ 11
standards 11
stocks 11
stress 11
stri@@ 11
studied 11
subject 11
sued 11
suggest 11
surprise 11
targets 11
telephone 11
ten 11
tensions 11
ticket 11
tomorrow 11
trouble 11
trucks 11
truly 11
trust 11
visited 11
wear 11
weight 11
winds 11
write 11
-based 10
1,3@@ 10
1,7@@ 10
11.@@ 10
12@@ 10
13,@@ 10
13@@ 10
1988 10
4,000 10
5.@@ 10
59 10
62 10
9-@@ 10
95 10
99 10
Abdullah 10
Administration 10
Ahmadinejad 10
Al-@@ 10
Alexander 10
Annual 10
Before 10
Bel@@ 10
Book 10
Brian 10
Cal@@ 10
Clark 10
Columbia 10
D-@@ 10
Dan 10
Delta 10
Detroit 10
Diluted 10
Drew 10
Entertainment 10
February 10
Fi@@ 10
Fire 10
Forest 10
Fre@@ 10
GAAP 10
Gar@@ 10
Georgia 10
Human 10
II 10
Iraqis 10
Italy 10
Judge 10
Kim 10
Kong 10
Later 10
Lebanon 10
Little 10
Louis 10
Mac@@ 10
Media 10
Michigan 10
Miller 10
Mukasey 10
NBC 10
Nick 10
Nobel 10
Only 10
Operating 10
Oregon 10
PRNewswire 10
Profile 10
Real 10
Reserve 10
Reserved 10
Rudy 10
Seattle 10
Securities 10
Show 10
Sm@@ 10
Social 10
Special 10
Such 10
TM 10
Tim 10
Treasury 10
UAE 10
Watch 10
Were 10
Who 10
Without 10
YouTube 10
Young 10
acknowledged 10
ads 10
advanced 10
agree 10
alliance 10
ance 10
anniversary 10
apartment 10
argued 10
arms 10
artists 10
attempted 10
attend 10
attract 10
bases 10
beating 10
becomes 10
becoming 10
begins 10
bills 10
blamed 10
ble 10
borrowers 10
boys 10
buses 10
chair 10
channel 10
choose 10
circumstances 10
claim 10
clean 10
climbing 10
clinical 10
closing 10
collapse 10
combination 10
commitment 10
contained 10
controls 10
convinced 10
courts 10
crowd 10
crucial 10
cultural 10
danger 10
deadly 10
delivered 10
den 10
detained 10
diet 10
differ 10
drawn 10
drink 10
drove 10
eat 10
eating 10
effectively 10
efficiency 10
electricity 10
elements 10
ends 10
ered 10
estimate 10
explained 10
expressed 10
ey 10
facility 10
farm 10
fast 10
fatal 10
fears 10
fewer 10
fied 10
firefighters 10
generally 10
guide 10
gun 10
handed 10
hasn 10
hoping 10
iPhone 10
ian 10
ical 10
immediate 10
in-@@ 10
inches 10
independence 10
indicated 10
indication 10
initially 10
initiative 10
insisted 10
investments 10
judgment 10
justice 10
ke 10
killings 10
leg 10
lies 10
links 10
located 10
location 10
long-term 10
mail 10
maintain 10
manage 10
managed 10
managing 10
married 10
matching 10
maybe 10
ment 10
minor 10
moral 10
museum 10
nature 10
neighborhood 10
nomination 10
notice 10
offensive 10
offices 10
offset 10
operates 10
opportunities 10
p.m. 10
painful 10
parking 10
particular 10
percentage 10
plus 10
positions 10
powers 10
prior 10
prize 10
pro-@@ 10
promote 10
proposal 10
provider 10
publicly 10
racing 10
raising 10
ranked 10
rare 10
receiver 10
reduced 10
referring 10
reform 10
registered 10
removed 10
repeatedly 10
rescue 10
rookie 10
sea 10
second-@@ 10
sector 10
session 10
sexual 10
sides 10
sitting 10
smaller 10
society 10
soldier 10
solution 10
songs 10
spring 10
st 10
stands 10
stone 10
stressed 10
struggling 10
studies 10
subprime 10
supplies 10
supported 10
swe@@ 10
technologies 10
terror 10
testimony 10
theme 10
throwing 10
thrown 10
towards 10
traded 10
tries 10
uncertainties 10
unlikely 10
unusual 10
urged 10
user 10
v 10
victim 10
volunteers 10
voted 10
walking 10
walks 10
wedding 10
wins 10
wonder 10
ys 10
© 10
.org 9
0.02 9
1998 9
2,5@@ 9
2,7@@ 9
2,9@@ 9
4-@@ 9
5-@@ 9
57 9
63 9
700 9
82 9
84 9
87 9
89 9
92 9
96 9
A. 9
AIDS 9
Alabama 9
Alex 9
Among 9
Arkansas 9
Art 9
Basra 9
Between 9
Bre@@ 9
Broadway 9
Building 9
Bureau 9
C. 9
Campbell 9
Capital 9
Challenge 9
Children 9
Corp. 9
Cre@@ 9
Credit 9
Cross 9
D.C. 9
Dallas 9
De 9
Do@@ 9
Dutch 9
ET 9
Electric 9
Eric 9
Following 9
Fred 9
Free 9
Games 9
Goldman 9
Great 9
HIV 9
Hong 9
Howard 9
Information 9
Islam 9
Ke@@ 9
Kurdish 9
Labor 9
Lee 9
Life 9
Live 9
Mal@@ 9
Management 9
Market 9
Milan 9
Mount 9
Next 9
Or 9
Phoenix 9
Qaeda 9
Queen 9
Quote 9
Report 9
Retail 9
Robinson 9
Sal@@ 9
Sales 9
Santa 9
Sharif 9
Six 9
Tennessee 9
Terry 9
Thanksgiving 9
Ti@@ 9
Tour 9
Tri@@ 9
USA 9
Up 9
Valley 9
Van 9
aboard 9
aides 9
ain 9
allegedly 9
anger 9
animal 9
anyway 9
approached 9
ars 9
associated 9
attorneys 9
back@@ 9
banned 9
barely 9
behavior 9
bin 9
blast 9
blocked 9
blog 9
brings 9
campaigns 9
captain 9
ceremony 9
character 9
civilians 9
closer 9
code 9
combat 9
comfortable 9
commissioner 9
communications 9
complaints 9
completely 9
confidence 9
corruption 9
counts 9
creating 9
critics 9
custody 9
customer 9
decisions 9
detention 9
die 9
directed 9
dozen 9
dozens 9
dry 9
duty 9
earn 9
emerged 9
ence 9
enter 9
et 9
ethanol 9
ethnic 9
euros 9
excited 9
expansion 9
expert 9
f 9
fail 9
failure 9
falling 9
famous 9
farmers 9
feels 9
female 9
finally 9
flag 9
fled 9
flow 9
forth 9
foundation 9
fraud 9
gained 9
gasoline 9
gathered 9
giant 9
governing 9
greatest 9
happens 9
harder 9
hat 9
headed 9
heading 9
headquarters 9
hire 9
hired 9
hospitals 9
hunt 9
ideas 9
ies 9
ily 9
imagine 9
impressive 9
inning 9
insurgents 9
interest-bearing 9
interested 9
interests 9
investor 9
ists 9
jet 9
la 9
label 9
lawmakers 9
leads 9
ler 9
linked 9
longtime 9
lose 9
male 9
managers 9
manufacturers 9
mention 9
messages 9
mile 9
milk 9
minimum 9
ministers 9
minority 9
monks 9
mouth 9
movements 9
multi-@@ 9
multi@@ 9
negative 9
neither 9
new@@ 9
nice 9
ninth 9
novel 9
of-@@ 9
operate 9
opposite 9
orders 9
paint 9
participants 9
payment 9
performed 9
phones 9
pink 9
planes 9
platform 9
playoff 9
plea 9
pleased 9
plenty 9
portion 9
postseason 9
potentially 9
prisoners 9
producer 9
programme 9
promised 9
properly 9
provision 9
pun@@ 9
pur@@ 9
questioning 9
quoted 9
rally 9
recall 9
recommended 9
regard 9
regime 9
regions 9
rejected 9
remaining 9
replaced 9
requires 9
residential 9
respond 9
returning 9
revenues 9
ride 9
river 9
rooms 9
routine 9
ruled 9
safe 9
satellite 9
savings 9
section 9
sentence 9
sentencing 9
shape 9
sharp 9
ships 9
sister 9
soft 9
sources 9
species 9
square 9
structure 9
stuff 9
supposed 9
talent 9
tells 9
temporary 9
tens 9
terrorism 9
tion 9
touch 9
transport 9
traveling 9
type 9
unable 9
understood 9
units 9
update 9
van 9
videos 9
village 9
virus 9
vital 9
walls 9
warming 9
waste 9
weapon 9
welcome 9
western 9
wouldn 9
year-old 9
0-1 8
04 8
1-2 8
10,@@ 8
11-@@ 8
11@@ 8
12,@@ 8
13.@@ 8
14-@@ 8
1980s 8
1996 8
2,3@@ 8
2-0 8
2012 8
24,@@ 8
250 8
26,@@ 8
27,@@ 8
3,9@@ 8
30-@@ 8
34@@ 8
41 8
43 8
61 8
66 8
73 8
76 8
79 8
8,000 8
8-@@ 8
93 8
Adam 8
Airport 8
Ambassador 8
Anna 8
Anthony 8
Argentina 8
Atlanta 8
Atlantic 8
Aung 8
Avenue 8
Az@@ 8
B. 8
Ban 8
Beach 8
Benazir 8
Big 8
Cameron 8
Catholic 8
Championship 8
Chrysler 8
Church 8
Consumer 8
Control 8
Core 8
Corp 8
Cr@@ 8
Daniel 8
Del@@ 8
Deposits 8
Des@@ 8
Diana 8
Do 8
Dr 8
Dr@@ 8
Earnings 8
Edinburgh 8
Emirates 8
FDA 8
Family 8
Garden 8
Global 8
Go 8
Golden 8
Grand 8
Had 8
Han@@ 8
Harry 8
Has 8
Holdings 8
Hunter 8
Hussein 8
Im@@ 8
Instead 8
Jose 8
Kansas 8
Keith 8
Kerry 8
Khan 8
LONDON 8
LOS 8
La@@ 8
Land@@ 8
Larry 8
Light 8
Lilly 8
Local 8
Louisiana 8
Love 8
Marine 8
Mas@@ 8
McCann 8
McLaren 8
Mel@@ 8
Memphis 8
Men 8
Merrill 8
Miami 8
Mississippi 8
Mitchell 8
Mobile 8
Mohammed 8
Montgomery 8
Morgan 8
Mrs 8
Much 8
Murphy 8
My@@ 8
Nasdaq 8
Officer 8
Olympics 8
Pacific 8
Pennsylvania 8
Pentagon 8
Portugal 8
Powell 8
Resources 8
Rio 8
Roberts 8
Rodham 8
Safety 8
San@@ 8
Sarkozy 8
Saudi 8
Senator 8
Seven 8
Shiite 8
Si@@ 8
Sony 8
Sp@@ 8
Sur@@ 8
Sweden 8
System 8
TD 8
Taylor 8
Tech 8
Town 8
Trade 8
Utah 8
Very 8
Vick 8
Vladimir 8
Whatever 8
Woods 8
Workers 8
abroad 8
absolutely 8
accounting 8
acted 8
actress 8
admitted 8
adopted 8
advised 8
afford 8
aim 8
airports 8
all-@@ 8
allies 8
analysis 8
approval 8
arrived 8
asset 8
ative 8
ators 8
auction 8
audio 8
bail 8
bar 8
birth 8
blame 8
blessing 8
bloc 8
brands 8
breaks 8
brief 8
burned 8
buyers 8
cameras 8
camps 8
capable 8
captured 8
casino 8
ce 8
characters 8
checking 8
ched 8
chocolate 8
cited 8
classic 8
clothes 8
combined 8
compensation 8
competing 8
completion 8
comprehensive 8
conduct 8
contains 8
cooperation 8
corner 8
coup 8
creative 8
crimes 8
cross 8
crowds 8
currency 8
dance 8
dangerous 8
dark 8
debut 8
decrease 8
dedicated 8
defeated 8
deficit 8
degrees 8
democratic 8
des 8
differences 8
diplomatic 8
directors 8
disappointed 8
divisions 8
dogs 8
downtown 8
draw 8
drew 8
ds 8
e-mail 8
eastern 8
eighth 8
emotional 8
enable 8
ently 8
equivalent 8
ery 8
ess 8
everybody 8
except 8
executives 8
faith 8
fallen 8
fees 8
fighter 8
five-@@ 8
follows 8
foods 8
founded 8
freedom 8
frequently 8
friendly 8
governments 8
guys 8
handle 8
handled 8
harm 8
highway 8
historic 8
honest 8
honor 8
houses 8
ic 8
immigrant 8
implement 8
improvement 8
inflation 8
ins 8
invited 8
jets 8
ker 8
knowledge 8
knows 8
ko 8
labor 8
learning 8
lenders 8
likes 8
ling 8
locations 8
lots 8
low-@@ 8
marked 8
mentioned 8
midnight 8
militant 8
ministry 8
mounted 8
mph 8
necessary 8
newly 8
no-@@ 8
notes 8
objects 8
off-@@ 8
ongoing 8
opponent 8
opponents 8
opposed 8
otherwise 8
outlook 8
outstanding 8
overnight 8
ownership 8
pain 8
parliament 8
passes 8
payments 8
penalties 8
periods 8
permanent 8
photos 8
picked 8
pieces 8
plot 8
practices 8
pre-@@ 8
preliminary 8
premium 8
primarily 8
proceeds 8
prosecutor 8
prove 8
pull 8
purpose 8
quiet 8
quit 8
raid 8
rain 8
ranks 8
realize 8
realized 8
recovery 8
reducing 8
regulated 8
relationships 8
relief 8
replacement 8
represent 8
representing 8
requirements 8
reserve 8
responded 8
restore 8
restrictions 8
retailer 8
retailers 8
riding 8
school@@ 8
scoring 8
seek 8
sees 8
send 8
settle 8
severe 8
sharing 8
shift 8
showing 8
sing 8
singer 8
singles 8
ski 8
sli@@ 8
slightly 8
smoking 8
so-called 8
sounds 8
speaking 8
spots 8
stars 8
stolen 8
stroke 8
subsidiaries 8
survive 8
symbol 8
teachers 8
tennis 8
tension 8
ters 8
tested 8
thin 8
threw 8
tied 8
tive 8
tool 8
touchdowns 8
tree 8
true 8
ultimately 8
unexpected 8
universal 8
universities 8
unknown 8
urban 8
veteran 8
viewers 8
views 8
virtual 8
voting 8
watchdog 8
widespread 8
winter 8
wish 8
witness 8
witnesses 8
worker 8
worry 8
youth 8
+ 7
1,4@@ 7
1,6@@ 7
1.5 7
10-@@ 7
11,@@ 7
120 7
17,@@ 7
18-@@ 7
19.@@ 7
1989 7
1992 7
20.@@ 7
25@@ 7
27.@@ 7
3,000 7
3,2@@ 7
3,7@@ 7
3-1 7
400 7
46 7
650 7
68@@ 7
7.11 7
75,260 7
77 7
88@@ 7
91 7
97 7
98 7
ABN 7
AL@@ 7
AM@@ 7
AND 7
ANGELES 7
Abbas 7
Abu 7
Ac@@ 7
Across 7
Adams 7
Airlines 7
Alliance 7
Ann@@ 7
Any 7
Ap@@ 7
Asked 7
Back 7
Barry 7
Bernanke 7
Best 7
CIA 7
Cabinet 7
Call 7
Cas@@ 7
Castro 7
Centers 7
Che@@ 7
Cincinnati 7
Co. 7
Coalition 7
Commercial 7
Cri@@ 7
DNA 7
DVDs 7
Defence 7
Den@@ 7
Denver 7
Design 7
Dick 7
Disney 7
Division 7
Dun@@ 7
E. 7
Early 7
Earth 7
Eastern 7
Economic 7
Facebook 7
Farm 7
Fla 7
Football 7
Fortune 7
GM 7
Gal@@ 7
Game 7
God 7
Graham 7
Ham@@ 7
Hamilton 7
Harris 7
Hawaii 7
Hezbollah 7
Hughes 7
Hun@@ 7
IAEA 7
IBM 7
IC@@ 7
IS@@ 7
Ill 7
Jesse 7
Jewish 7
Julie 7
Kabul 7
Kar@@ 7
Karzai 7
Kate 7
Ki@@ 7
Kingdom 7
Laden 7
Lakers 7
Land 7
Law 7
Long 7
Long-term 7
MP 7
MTV 7
Manning 7
Mary 7
Mass 7
Merger 7
Missouri 7
Murray 7
Music 7
N.Y. 7
NET 7
Nation 7
None 7
OF 7
Oil 7
Olympic 7
Others 7
Out@@ 7
PKK 7
Paid 7
Pakistani 7
Palestinians 7
Peterson 7
Philip 7
Poor 7
Portuguese 7
Private 7
Q 7
Reagan 7
Rep. 7
Rock@@ 7
Rockies 7
Ron 7
Rooney 7
S. 7
SEC 7
ST@@ 7
Saint 7
Schumer 7
Scotsman 7
Seoul 7
Sl@@ 7
Society 7
Sources 7
Spain 7
Stadium 7
Standard 7
Stockholders 7
Stone 7
Storm 7
Sun 7
Super@@ 7
Susan 7
Sydney 7
Television 7
Though 7
Through 7
Tigers 7
Tokyo 7
Toronto 7
Travel 7
U 7
Ul@@ 7
Unlike 7
Venezuelan 7
Vi@@ 7
Vice 7
W. 7
Where 7
Whit@@ 7
Win@@ 7
Wood 7
Would 7
Yangon 7
abuse 7
accord 7
achieved 7
acres 7
adult 7
afraid 7
agencies 7
aging 7
agreements 7
aims 7
airlines 7
al-Qaida 7
amounts 7
ana 7
answers 7
anticipate 7
arrive 7
ash 7
associate 7
association 7
asthma 7
attributed 7
award 7
bag 7
balls 7
barrels 7
bars 7
baseball 7
bat 7
beautiful 7
benchmark 7
bilateral 7
birthday 7
bishops 7
bombs 7
borrowings 7
brain 7
breaking 7
brilliant 7
broadcast 7
campus 7
candidacy 7
careful 7
carries 7
cells 7
centers 7
challenged 7
chances 7
chemical 7
ching 7
chose 7
citing 7
claiming 7
cleared 7
collected 7
color 7
commit 7
complained 7
complicated 7
concrete 7
confident 7
congressional 7
conservatives 7
consolidated 7
consultant 7
correct 7
creation 7
ct 7
cup 7
damaged 7
dealing 7
dealt 7
deeply 7
defend 7
definitely 7
degree 7
delivers 7
depression 7
developments 7
disappointing 7
disaster 7
discovery 7
discussions 7
distance 7
distribution 7
dly 7
document 7
doubled 7
dream 7
dress 7
drilling 7
drinks 7
economies 7
edition 7
editorial 7
efficient 7
electronic 7
eliminate 7
elite 7
ell 7
emerging 7
emissions 7
encouraged 7
ening 7
enormous 7
ens 7
episode 7
episodes 7
existing 7
exposed 7
extension 7
extensive 7
extremists 7
facilities 7
factor 7
fair@@ 7
fairly 7
falls 7
feature 7
featuring 7
fed 7
fields 7
finishing 7
first-@@ 7
flew 7
flying 7
footprint 7
formed 7
forum 7
franchise 7
gates 7
gathering 7
generation 7
gifts 7
glass 7
guess 7
guest 7
guns 7
half-@@ 7
hanging 7
happening 7
healthcare 7
her@@ 7
hero 7
holds 7
homeless 7
iTunes 7
identity 7
impose 7
impression 7
improvements 7
ina 7
innovative 7
ino 7
inspired 7
intent 7
interviews 7
investigators 7
kicked 7
ky 7
lab 7
landing 7
latter 7
lawsuits 7
length 7
lungs 7
mainstream 7
march 7
marks 7
matches 7
materially 7
medicine 7
mental 7
merger 7
missile 7
missiles 7
mix 7
mixed 7
moderate 7
monthly 7
mood 7
moon 7
native 7
ning 7
noting 7
numerous 7
obligation 7
offshore 7
ologist 7
operated 7
operational 7
operator 7
opinion 7
owns 7
pack 7
papers 7
partnership 7
pe 7
perfect 7
performances 7
pilot 7
pipeline 7
plastic 7
plate 7
pointing 7
politician 7
pollution 7
poverty 7
preparing 7
presentation 7
prevented 7
principal 7
pro 7
probe 7
procedure 7
proceed 7
proceedings 7
proof 7
proved 7
pursue 7
pursuing 7
quick 7
reaching 7
rebel 7
reference 7
regret 7
regulations 7
relatives 7
rent 7
replay 7
replied 7
represented 7
resident 7
resort 7
resulted 7
returns 7
revealed 7
rhetoric 7
robbery 7
rock 7
row 7
rushing 7
sand 7
schemes 7
searching 7
seasons 7
sen 7
seriously 7
ses 7
sets 7
sexy 7
shed 7
shock 7
shoot 7
significance 7
slight 7
slipped 7
slump 7
somewhat 7
speci@@ 7
specialist 7
stake 7
ster 7
stopped 7
strange 7
striker 7
stronger 7
subsidiary 7
succeed 7
surge 7
surprised 7
surrounding 7
survived 7
suspected 7
suspension 7
suspicion 7
sustained 7
sweet 7
ta 7
tape 7
teenager 7
terrorists 7
tes 7
theater 7
three-@@ 7
tie 7
to-@@ 7
tourists 7
towns 7
trademark 7
tragic 7
trained 7
transfer 7
transition 7
travelers 7
treat 7
trees 7
trend 7
trials 7
tribal 7
tribute 7
tropical 7
turning 7
types 7
u 7
um 7
ure 7
ve 7
veterans 7
virtually 7
vision 7
watched 7
wealthy 7
weekly 7
welcomed 7
wet 7
window 7
wing 7
winners 7
wood 7
ws 7
x 7
yes 7
ying 7
yourself 7
zation 7
.cfm 6
0,000 6
0.42 6
01 6
1,500 6
1,5@@ 6
1- 6
1-3 6
10-year 6
100@@ 6
15,@@ 6
18,@@ 6
1983 6
1990 6
1990s 6
1991 6
2,4@@ 6
2,6@@ 6
20,000 6
20th 6
25,000 6
3,4@@ 6
3.94 6
350 6
35@@ 6
40-@@ 6
400,000 6
5,000 6
54@@ 6
55@@ 6
6-2 6
600 6
7,7@@ 6
80@@ 6
83@@ 6
A.@@ 6
All@@ 6
Allen 6
Ann 6
Anne 6
Area 6
Armed 6
Assets 6
At@@ 6
Awards 6
Barbara 6
Barclays 6
Beckett 6
Benjamin 6
Blake 6
Bonds 6
Brad 6
Brandon 6
Britney 6
Bruce 6
Bur@@ 6
Burma 6
CH@@ 6
CONSOLIDATED 6
Cambridge 6
Carlos 6
Case 6
Cavaliers 6
Chancellor 6
Chen 6
Chiefs 6
Collins 6
Colombia 6
Congressional 6
Cost 6
Crocker 6
Cuban 6
Currently 6
DVD 6
Dar@@ 6
Dave 6
Delaware 6
Detective 6
Did 6
Djokovic 6
Eagles 6
Earned 6
Ed 6
Egypt 6
Ehud 6
Equity 6
Expense 6
Explorer 6
FTE 6
Fame 6
Far@@ 6
Favre 6
Federer 6
Fer@@ 6
Fernando 6
Filed 6
Five 6
Flood 6
Fo@@ 6
Foods 6
Fund 6
Gary 6
Gates 6
Gen 6
Get 6
Gold 6
Gore 6
Governor 6
H 6
Hamid 6
Have 6
Having 6
Hotel 6
III 6
IN 6
ING 6
Indiana 6
Insurance 6
Investigators 6
J 6
Jack 6
Jan. 6
Jason 6
Jets 6
Jews 6
Jon 6
Jr 6
Kenya 6
Kosovo 6
Kremlin 6
LLC 6
La 6
Lanka 6
Liberal 6
Lindsay 6
Liverpool 6
Lord 6
Loss 6
Lynch 6
Mail 6
Manager 6
Mattel 6
Matthew 6
McClaren 6
Meet 6
Mid@@ 6
Mur@@ 6
N.@@ 6
N.F.L. 6
NASA 6
NEWSWEEK 6
NOW 6
Nevada 6
Nicole 6
Nigeria 6
Non-interest 6
Number 6
ON 6
Old 6
Op@@ 6
Organization 6
Ortiz 6
Out 6
Owen 6
Oxford 6
Pa 6
Packers 6
Palm 6
Pan@@ 6
Parker 6
Parliament 6
Perhaps 6
Pete 6
Phase 6
Phillies 6
Place 6
Pol@@ 6
Pow@@ 6
Power 6
Prevention 6
Program 6
Prosecutors 6
Provision 6
Rate 6
Red@@ 6
Redskins 6
Review 6
Rockets 6
Roger 6
Roman 6
Ru@@ 6
Sachs 6
Sam@@ 6
Says 6
Science 6
Senior 6
Share 6
Shares 6
Short-term 6
Simon 6
Somalia 6
Space 6
Spector 6
Sri 6
St 6
Station 6
Stay 6
Steven 6
Subordinated 6
THE 6
TO 6
Tax 6
Technology 6
Ted 6
Things 6
Top 6
Tribune 6
Turner 6
Tyson 6
UN@@ 6
Unfortunately 6
Universal 6
Vatican 6
Wal@@ 6
Wang 6
Wayne 6
Welsh 6
Wil@@ 6
Wilson 6
Winfrey 6
Work 6
Yahoo 6
Your 6
Zealand 6
Zimbabwe 6
abandoned 6
absence 6
ace 6
achievement 6
acquired 6
acquisitions 6
administrative 6
adopt 6
adviser 6
advocate 6
ah 6
air-@@ 6
albums 6
ality 6
alized 6
amazing 6
ambassador 6
ambition 6
ani 6
anxiety 6
apparent 6
appeals 6
application 6
appreciate 6
appropriate 6
aries 6
arrangement 6
aside 6
assumptions 6
assured 6
athletes 6
attached 6
attacking 6
attempts 6
attracted 6
auto 6
awareness 6
barriers 6
begun 6
blew 6
bling 6
blocks 6
blogs 6
boards 6
boat 6
boats 6
bond 6
bone 6
book@@ 6
bothered 6
bounced 6
bound 6
breakfast 6
breakthrough 6
breath 6
briefly 6
broad@@ 6
brothers 6
brutal 6
bum@@ 6
burning 6
burst 6
bury 6
busy 6
cage 6
cap 6
capacity 6
carriers 6
ceiling 6
charity 6
choices 6
ck 6
class@@ 6
cleaning 6
coal 6
collapsed 6
commented 6
comparison 6
concert 6
concluded 6
condemned 6
confidential 6
consequences 6
consistent 6
consistently 6
conspiracy 6
constant 6
constitutional 6
consulting 6
contacts 6
contain 6
contracts 6
controlled 6
conversation 6
conversion 6
counter 6
counter@@ 6
credits 6
crowded 6
culture 6
dangers 6
database 6
daughters 6
decade 6
declining 6
defended 6
delay 6
deliberately 6
deployed 6
desperate 6
destruction 6
detail 6
detailed 6
determine 6
developers 6
dinner 6
diplomats 6
distributed 6
districts 6
doors 6
dose 6
draft 6
dramatic 6
drives 6
dying 6
eager 6
ear 6
editor 6
electoral 6
electronics 6
eliminated 6
emphasis 6
employers 6
employs 6
ened 6
engage 6
enjoy 6
entering 6
entitled 6
entrance 6
ents 6
errors 6
escaped 6
establish 6
execution 6
existence 6
exports 6
extended 6
extent 6
external 6
familiar 6
faster 6
fat 6
favorite 6
felony 6
festival 6
files 6
filings 6
fires 6
fish 6
floors 6
flu@@ 6
forcing 6
forest 6
formal 6
foster 6
fought 6
foul 6
four-@@ 6
fragile 6
freed 6
gam@@ 6
gangs 6
gap 6
gather 6
ge 6
gen 6
gift 6
grade 6
grandson 6
grounds 6
guarantees 6
guests 6
hair 6
hall 6
handful 6
handling 6
harsh 6
hedge 6
hidden 6
hitter 6
holders 6
horse 6
humanitarian 6
humans 6
ideological 6
implemented 6
impressed 6
incidents 6
indicate 6
infection 6
influential 6
ingly 6
ington 6
initiatives 6
insists 6
inspector 6
instance 6
institution 6
integrated 6
intend 6
interesting 6
introduction 6
inventory 6
investigations 6
investing 6
involves 6
involving 6
ised 6
ism 6
item 6
jeans 6
jokes 6
journey 6
jumped 6
junta 6
kid@@ 6
kidnapping 6
land@@ 6
lands 6
launching 6
leaves 6
lender 6
lessons 6
license 6
lifting 6
lined 6
lineup 6
liquid 6
lists 6
lobby 6
loves 6
lunch 6
lung 6
luxury 6
machines 6
mad 6
maintenance 6
manufacturing 6
marijuana 6
massive 6
med 6
micro@@ 6
mini-@@ 6
models 6
moments 6
moves 6
ms 6
negotiators 6
ners 6
networking 6
networks 6
newspapers 6
nominee 6
northeast 6
obligations 6
obtain 6
ocean 6
od@@ 6
odds 6
offenders 6
oned 6
opens 6
opposing 6
organic 6
originally 6
ously 6
outbreak 6
overcome 6
page 6
pairs 6
panic 6
parent 6
parliamentary 6
partly 6
peaceful 6
pension 6
perform 6
persuade 6
pet 6
phenomenon 6
photo 6
pitched 6
placed 6
pledged 6
politically 6
pop 6
portfolio 6
portraits 6
pound 6
prayer 6
predicted 6
pregnancy 6
presented 6
principles 6
privacy 6
profile 6
promises 6
promising 6
proposals 6
protesters 6
proud 6
provincial 6
pursuit 6
pushing 6
quarterly 6
quarters 6
questioned 6
rapidly 6
ratings 6
reception 6
recession 6
recognized 6
regularly 6
releases 6
religion 6
resigned 6
robust 6
rural 6
sa 6
sacrifice 6
saved 6
saving 6
scheme 6
science 6
scores 6
seeks 6
segment 6
sending 6
serves 6
sessions 6
similarly 6
sive 6
sky 6
sleep 6
slow 6
snow 6
solve 6
somebody 6
somewhere 6
song 6
speakers 6
speculation 6
spirit 6
split 6
sponsored 6
sport 6
spotted 6
stability 6
starter 6
stated 6
stayed 6
staying 6
steady 6
steering 6
steroids 6
stock@@ 6
stopping 6
strain 6
strategies 6
striking 6
strongly 6
struggle 6
suffer 6
suggestion 6
suggests 6
suit 6
supports 6
surface 6
surprising 6
surrounded 6
surveyed 6
syn@@ 6
takers 6
targeting 6
task 6
tears 6
technical 6
teenagers 6
tering 6
territory 6
tery 6
text 6
th-@@ 6
therapy 6
tics 6
tiger 6
tight 6
tips 6
tor@@ 6
torture 6
totally 6
toy 6
tradition 6
trains 6
transactions 6
transportation 6
treaty 6
trips 6
troop 6
troubled 6
understanding 6
unidentified 6
universe 6
unprecedented 6
upcoming 6
uranium 6
ves 6
vessel 6
ving 6
voluntary 6
vowed 6
wai@@ 6
wake 6
warrants 6
water@@ 6
waters 6
welfare 6
well-@@ 6
weren 6
whatever 6
whites 6
widely 6
wider 6
wind 6
windows 6
wireless 6
word 6
worse 6
wounds 6
writes 6
ya 6
yl 6
ze 6
• 6
'Neill 5
,000 5
0-2 5
0.32 5
0.40 5
09 5
1,2@@ 5
1,9@@ 5
1-1 5
1.2 5
12-@@ 5
13-@@ 5
16,@@ 5
19-year-old 5
1948 5
1960s 5
1970 5
1st 5
2,0@@ 5
2.0@@ 5
200,000 5
206 5
22@@ 5
25.@@ 5
26@@ 5
27@@ 5
3,0@@ 5
3.4 5
33@@ 5
360 5
3rd 5
4,6@@ 5
4,8@@ 5
4-3 5
4.2 5
40@@ 5
5,9@@ 5
50@@ 5
51,548 5
6-4 5
60@@ 5
7,000 5
73@@ 5
750 5
8.@@ 5
84@@ 5
9,8@@ 5
95@@ 5
< 5
AA 5
AC 5
AF@@ 5
AN 5
AOL 5
ATLANTA 5
Academy 5
Affairs 5
Agriculture 5
Ahmed 5
Airways 5
Ak@@ 5
Alaska 5
Allowance 5
Amazon 5
Amortization 5
Amro 5
Amsterdam 5
Annapolis 5
Antonio 5
Areas 5
Arthur 5
Ash@@ 5
Ass@@ 5
Assembly 5
Associates 5
Attorney 5
Authority 5
Award 5
Bad 5
Ball@@ 5
Base 5
Bear 5
Belichick 5
Betty 5
Biden 5
Birmingham 5
Bishop 5
Black@@ 5
Bloomberg 5
Blue 5
Blues 5
Bon@@ 5
Boy 5
Brady 5
Braves 5
Bryan 5
Buffalo 5
Bulldogs 5
But@@ 5
CD 5
CI@@ 5
CO@@ 5
Cabrera 5
Cam@@ 5
Cape 5
Card 5
Cardinal 5
Cardinals 5
Care 5
Carl 5
Carol 5
Category 5
Change 5
Channel 5
Charleston 5
Charlie 5
Charts 5
Chase 5
Ci@@ 5
Civil 5
Clemens 5
Close 5
Coast 5
Coll@@ 5
Commander 5
Commerce 5
Community 5
Connecticut 5
Conservative 5
Consolidated 5
Constitution 5
Consumers 5
Continuing 5
Cook 5
Corps 5
Countrywide 5
Cowboys 5
Cubs 5
Current 5
Czech 5
Dam@@ 5
Data 5
Days 5
Deferred 5
Denmark 5
Dhabi 5
Digital 5
Disease 5
Dodgers 5
Dream 5
Duke 5
Duncan 5
End 5
Every 5
Few 5
Fine 5
Floods 5
Form 5
Forms 5
Formula 5
Friends 5
Fun@@ 5
Future 5
G 5
Gab@@ 5
Gaming 5
Gardner 5
Gas 5
Geneva 5
Germans 5
Gmt 5
Goodell 5
Greater 5
Greenspan 5
Gul 5
H. 5
Hal@@ 5
Harrison 5
Hay@@ 5
Health@@ 5
Help 5
Hend@@ 5
Hi@@ 5
High@@ 5
Hispanic 5
History 5
Hol@@ 5
Holiday 5
Homeland 5
Hsu 5
ICE 5
IP 5
IS 5
IT 5
Indonesian 5
Industries 5
Islamabad 5
Jan@@ 5
Jane 5
Jay 5
Jena 5
Jimmy 5
Jobs 5
Joint 5
Jonathan 5
Josh 5
Jr. 5
Karachi 5
Ken 5
Key 5
Koreans 5
Kurdistan 5
L.@@ 5
LDP 5
LO@@ 5
Lady 5
Lafayette 5
Liberty 5
Line 5
Lowell 5
Luke 5
M. 5
Mac 5
Madison 5
Mah@@ 5
Malaysia 5
Manhattan 5
Maria 5
Maybe 5
Medicaid 5
Met 5
Miss 5
Missing 5
Mohammad 5
Montreal 5
Moore 5
Morris 5
Mortgage 5
Myers 5
NBA 5
Navy 5
Nebraska 5
Night 5
Nobody 5
Nokia 5
Norfolk 5
Nuclear 5
O.J. 5
OS 5
Ob@@ 5
Officials 5
Oklahoma 5
Oscar 5
Ow@@ 5
PC 5
PPP 5
Page 5
Parents 5
Part 5
Partners 5
Past 5
Patrick 5
Peace 5
Pelosi 5
Penn 5
Pervez 5
Philippines 5
Phillips 5
Plans 5
Poland 5
Pop@@ 5
Portland 5
Potter 5
Project 5
Province 5
Pur@@ 5
Quality 5
R-@@ 5
R. 5
RBI 5
RE@@ 5
Rab@@ 5
Ram@@ 5
Ramadan 5
Ramirez 5
Randolph 5
Rangers 5
Reid 5
Ren@@ 5
Reports 5
Representative 5
Residents 5
Revenue 5
Reyes 5
Rob 5
Rose 5
SA@@ 5
SAP 5
Sabathia 5
Saddam 5
Salem 5
Salt 5
Sc@@ 5
Sea 5
See 5
Shanghai 5
Sharpton 5
Shawn 5
Sheikh 5
Should 5
Shu@@ 5
Sibling 5
Sierra 5
Silver 5
Singapore 5
Singh 5
Speaker 5
Spears 5
Square 5
Stanley 5
Stock 5
Stores 5
Stu@@ 5
Sudanese 5
Super 5
Syrian 5
Systems 5
T-shirts 5
T.@@ 5
TB 5
Taiwan 5
Tal@@ 5
Tan@@ 5
Tangible 5
Technologies 5
Thomson 5
Thousands 5
Tim@@ 5
Too 5
Transport 5
Trust 5
Tus@@ 5
Under@@ 5
Upper 5
Va 5
Verizon 5
Vis@@ 5
W 5
Wal-Mart 5
Walker 5
War@@ 5
Water 5
Wild 5
Wisconsin 5
Wo@@ 5
Worldwide 5
Wright 5
Xbox 5
Yale 5
Yes 5
Yu@@ 5
academic 5
accompanied 5
accounted 5
achieving 5
activist 5
add 5
adjacent 5
adoption 5
advocates 5
affordable 5
aggression 5
all-time 5
annually 5
ano 5
ants 5
apparently 5
apply 5
appointed 5
appointment 5
appointments 5
approve 5
architecture 5
arriving 5
aspects 5
assist 5
assume 5
astronauts 5
atomic 5
ats 5
attendance 5
attitude 5
attractive 5
audiences 5
automotive 5
awarded 5
awards 5
ay 5
babies 5
backs 5
bags 5
band@@ 5
bands 5
bargaining 5
baseman 5
bat@@ 5
batt@@ 5
beach 5
beans 5
beaten 5
belt 5
bet 5
birds 5
bitter 5
blocking 5
blu@@ 5
bna 5
boarding 5
bombers 5
boom 5
boosting 5
boots 5
breach 5
breathing 5
bright 5
broad 5
bs 5
bulk 5
buyer 5
by@@ 5
carefully 5
category 5
causes 5
caution 5
celebrate 5
celebrity 5
certainty 5
checked 5
checkpoints 5
childhood 5
chorus 5
chronic 5
circle 5
citizenship 5
classes 5
classroom 5
click 5
clothing 5
clubs 5
coffee 5
collaboration 5
collect 5
com 5
comeback 5
commanders 5
commitments 5
complaining 5
composite 5
compound 5
concentrate 5
concept 5
conclusion 5
conducting 5
confirm 5
conflicts 5
connected 5
consecutive 5
containing 5
contender 5
contrast 5
controller 5
convert 5
converted 5
convicted 5
convoy 5
cooking 5
cope 5
coroner 5
counsel 5
courthouse 5
covering 5
cra@@ 5
crashed 5
creates 5
credentials 5
crews 5
cross-@@ 5
crossed 5
cru@@ 5
curb 5
dad 5
dates 5
debris 5
dec@@ 5
deck 5
decreased 5
defence 5
del 5
del@@ 5
delayed 5
delegation 5
demands 5
demonstrations 5
deny 5
deputies 5
desire 5
destinations 5
detective 5
di 5
diabetes 5
dialogue 5
disasters 5
dispute 5
disputed 5
dist@@ 5
disturbing 5
dividend 5
divorce 5
dogfighting 5
donations 5
donors 5
dramatically 5
dressed 5
dust 5
dynamic 5
e-mails 5
economics 5
economists 5
eli@@ 5
eligible 5
els 5
ement 5
emerge 5
enables 5
enabling 5
encounter 5
encourage 5
encouraging 5
endangered 5
ene 5
enemies 5
enemy 5
engaged 5
engineers 5
enjoyed 5
enrollment 5
equally 5
erupted 5
escape 5
essentially 5
etta 5
everywhere 5
exact 5
exclusive 5
excuse 5
exhibition 5
exist 5
exit 5
expanded 5
expire 5
expired 5
explaining 5
explains 5
explore 5
export 5
factory 5
facts 5
feared 5
fence 5
fication 5
finals 5
finds 5
fix 5
flags 5
flat 5
fleet 5
flood 5
focusing 5
fold 5
folks 5
fore@@ 5
foreclosures 5
forensic 5
formally 5
formation 5
forms 5
fortune 5
frequency 5
fruit 5
fuelled 5
full-@@ 5
full-time 5
function 5
fundamental 5
funded 5
funny 5
furniture 5
fy 5
fying 5
gallon 5
gambling 5
gaming 5
garden 5
gases 5
gear 5
gender 5
gene 5
ger 5
ges 5
ging 5
girlfriend 5
gol@@ 5
grabbed 5
graduate 5
grams 5
grandchildren 5
grants 5
grateful 5
grav@@ 5
greatly 5
greenhouse 5
grenades 5
grown 5
guarantee 5
guidelines 5
gunmen 5
halfway 5
ham 5
hang 5
hardly 5
hearts 5
heat 5
helicopters 5
hiding 5
highlight 5
historian 5
historical 5
hitting 5
honored 5
horrible 5
hostage 5
hostages 5
hotels 5
hun@@ 5
hybrid 5
ically 5
ick 5
iconic 5
ideal 5
ie 5
imminent 5
importance 5
imposing 5
indicators 5
iness 5
infections 5
informed 5
ini 5
innocent 5
inspection 5
inspectors 5
institute 5
interactive 5
internet 5
interruption 5
interviewed 5
invest 5
investigate 5
ish 5
ited 5
itor 5
jersey 5
joins 5
journalists 5
jumping 5
juvenile 5
keen 5
keeps 5
kers 5
ket 5
kin 5
knocked 5
knowing 5
labels 5
laid 5
lake 5
landscape 5
languages 5
lending 5
letting 5
liable 5
life-@@ 5
lifestyle 5
limits 5
liver 5
loaded 5
long-standing 5
luck 5
lucky 5
lucrative 5
lured 5
maintained 5
mansion 5
margins 5
marriage 5
mas@@ 5
mate 5
materials 5
math 5
mature 5
maximum 5
meat 5
med@@ 5
membership 5
memo 5
mess 5
metal 5
methods 5
militias 5
monarch 5
monitoring 5
mothers 5
motion 5
mountain 5
movies 5
murders 5
narrowly 5
ne 5
necessarily 5
neighbors 5
nights 5
non-GAAP 5
non-interest 5
normally 5
ns 5
nurses 5
ny 5
obesity 5
obscure 5
obvious 5
occupied 5
offerings 5
ong 5
oppose 5
organisation 5
organized 5
ot 5
owed 5
pages 5
pain@@ 5
participating 5
participation 5
passionate 5
ped 5
perceived 5
permits 5
photograph 5
physically 5
pil@@ 5
ping 5
placebo 5
pm 5
podium 5
policing 5
post-@@ 5
pounds 5
precious 5
premiere 5
presidency 5
priority 5
prisoner 5
pro-democracy 5
producing 5
professionals 5
profitability 5
programmes 5
projections 5
prolonged 5
promoting 5
prosecution 5
protecting 5
provinces 5
qualified 5
quick@@ 5
r 5
ra 5
ranging 5
rape 5
rapid 5
rarely 5
ratio 5
readers 5
readiness 5
reasonable 5
reconciliation 5
recording 5
recover 5
red@@ 5
referred 5
reflects 5
regardless 5
reiterated 5
reject 5
rejection 5
releasing 5
relevant 5
reliable 5
repair 5
reportedly 5
reporter 5
resign 5
resignation 5
resistance 5
responding 5
ress 5
restoring 5
restraint 5
resulting 5
retirees 5
retiring 5
revealing 5
revolution 5
riders 5
ripped 5
risky 5
roads 5
rocket 5
rounds 5
route 5
routinely 5
rugby 5
rush 5
sand@@ 5
sank 5
scandal 5
scared 5
scattered 5
scenario 5
scholars 5
scientist 5
scratch 5
scre@@ 5
screening 5
sectors 5
seed 5
selected 5
seller 5
seminar 5
sensitive 5
servers 5
sharply 5
sheet 5
shelves 5
short-@@ 5
shoulder 5
shuttle 5
signing 5
sions 5
six-@@ 5
sleeping 5
slice 5
slowdown 5
smart 5
soil 5
solid 5
solo 5
sophisticated 5
sparking 5
speaker 5
speaks 5
specifically 5
spi@@ 5
spoken 5
sponsors 5
stages 5
starred 5
steadily 5
stomach 5
stones 5
strains 5
stranded 5
stream 5
stretch 5
strikes 5
structures 5
struggled 5
stuck 5
studying 5
stunning 5
substances 5
substantial 5
successor 5
suddenly 5
sufficient 5
suits 5
surfaced 5
suspicions 5
swing 5
switch 5
symbolic 5
tactical 5
tactics 5
talked 5
tar@@ 5
targeted 5
teen 5
teens 5
teeth 5
temperature 5
tend 5
tender 5
thanks 5
theory 5
therefore 5
thinks 5
third-quarter 5
thousand 5
threatening 5
threats 5
thrilled 5
throw 5
ths 5
thus 5
tiny 5
toll 5
ton 5
topic 5
tor 5
tourist 5
tran@@ 5
transmission 5
trophy 5
troubles 5
turnaround 5
twins 5
two-run 5
undergo 5
undergraduate 5
unless 5
updated 5
updates 5
urge 5
useful 5
usual 5
va 5
valued 5
values 5
vanished 5
varying 5
verdict 5
viewed 5
violations 5
violent 5
visiting 5
visits 5
vocal 5
volatility 5
w 5
ward 5
warm 5
warnings 5
waving 5
web 5
wheat 5
wheelchair 5
wholesale 5
wholly 5
willingness 5
wire 5
withdraw 5
wore 5
workforce 5
workshops 5
worn 5
yen 5
yield 5
youngest 5
zing 5
# 4
'Donnell 4
-to-@@ 4
-year-old 4
0.12 4
0.44 4
0.50 4
0.88 4
02 4
05 4
06 4
08 4
1,8@@ 4
1-5 4
1-800-@@ 4
1.8 4
10-Q 4
101 4
103 4
11,6@@ 4
110 4
113 4
12,363 4
12.@@ 4
126 4
129 4
12th 4
13,000 4
13,023 4
13-year-old 4
130 4
15-@@ 4
15.@@ 4
16-@@ 4
17-@@ 4
18.@@ 4
190 4
1940s 4
1950s 4
1968 4
1969 4
1970s 4
1980 4
1986 4
1987 4
2,000 4
2.7 4
2020 4
21.@@ 4
212 4
21st 4
22.@@ 4
226 4
24-@@ 4
246,383 4
25,@@ 4
28,@@ 4
28-@@ 4
28@@ 4
3-2 4
30,@@ 4
31st 4
36@@ 4
38-@@ 4
4.6 4
44-@@ 4
44.@@ 4
47@@ 4
499 4
50.@@ 4
52,174 4
58@@ 4
6,000 4
6.7 4
60,000 4
63@@ 4
67@@ 4
7.12 4
8,9@@ 4
85@@ 4
877 4
911 4
93@@ 4
AFP 4
AM 4
AMD 4
ANALYSIS 4
ATP 4
Aaron 4
Again 4
Alberto 4
Ali@@ 4
Alonso 4
American-@@ 4
Amman 4
Andre@@ 4
Andrews 4
Angels 4
Antioch 4
Anyone 4
Arabia 4
Around 4
Athens 4
Audrey 4
Aviation 4
Ay@@ 4
Bai@@ 4
Bailey 4
Banks 4
Bas@@ 4
Baseball 4
Based 4
Basic 4
Bat@@ 4
Be 4
Bears 4
Bell@@ 4
Berry 4
Boeing 4
Bond 4
Bor@@ 4
Border 4
Bow@@ 4
Brent 4
Bridge 4
Bros. 4
Brothers 4
Browns 4
Bru@@ 4
Bulgaria 4
Burmese 4
Bus@@ 4
Butler 4
CNN.com 4
CONDENSED 4
Cardiff 4
Cat 4
Chambers 4
Cheney 4
Chertoff 4
Cho@@ 4
Christians 4
Chuck 4
Chávez 4
Civic 4
Clean 4
Click 4
Colombian 4
Colts 4
Commissioner 4
Communications 4
Communist 4
Congo 4
Consent 4
Conservatives 4
Content 4
Cop@@ 4
Cou@@ 4
Crawford 4
Crime 4
Cris@@ 4
Critics 4
Crown 4
Cu@@ 4
Curtis 4
Customers 4
Cutler 4
Cy@@ 4
DDR 4
Da@@ 4
Dakota 4
Damaged 4
Dame 4
Davies 4
Death 4
Dennis 4
Der@@ 4
Des 4
Deutsche 4
Dev@@ 4
Devlin 4
Discontinued 4
Does 4
Dominican 4
Doug 4
Down@@ 4
Dra@@ 4
Drug 4
Duffy 4
Durbin 4
E-@@ 4
EM@@ 4
ER 4
ES 4
Earning 4
Ed@@ 4
Education 4
Eight 4
Elizabeth 4
Emergency 4
Emmy 4
Er@@ 4
Ethiopia 4
Ev@@ 4
Evans 4
Ever@@ 4
Everybody 4
Everyone 4
F. 4
FEMA 4
FR@@ 4
Fair 4
Falcons 4
Falls 4
Families 4
Fanny 4
Far 4
Feb. 4
Fidel 4
Field 4
Fighting 4
Final 4
Finally 4
Fisher 4
Floyd 4
Food 4
Fossett 4
Freeman 4
Fresh 4
G. 4
G.M. 4
Gate 4
Girl 4
Glasgow 4
Gra@@ 4
Grace 4
Gray 4
Gre@@ 4
Greek 4
Greg 4
Guard 4
Gul@@ 4
H.@@ 4
HBO 4
Ha@@ 4
Haas 4
Half 4
Halo 4
Harman 4
Hillman 4
Hills 4
Hindu 4
Hit 4
Hold 4
Honda 4
Hoover 4
Hopkins 4
Hot@@ 4
Houses 4
How@@ 4
Hugo 4
Hundreds 4
Hurricane 4
Hut@@ 4
INCOME 4
Idaho 4
Immigration 4
Impact 4
Independent 4
Inside 4
Institution 4
Interpol 4
Investig@@ 4
JERUSALEM 4
Jacksonville 4
Jeff 4
Jefferson 4
Jeffrey 4
Jeffs 4
Jennifer 4
Jeremy 4
Jerry 4
Jerusalem 4
JetBlue 4
Juan 4
Karl 4
Katrina 4
Keep 4
Kelly 4
Kentucky 4
Khartoum 4
Ki-moon 4
Kibaki 4
Kid@@ 4
Kids 4
Kil@@ 4
Killed 4
Kir@@ 4
Kobe 4
Kor@@ 4
Kuwait 4
Ky@@ 4
L-@@ 4
L.A. 4
LSU 4
Lakh 4
Large 4
Latino 4
Lau@@ 4
Lauren 4
Lead 4
Leader 4
Left 4
Leone 4
Leslie 4
Li 4
Liabilities 4
Liber@@ 4
Lions 4
Listen 4
Liv@@ 4
Low 4
Luis 4
M.@@ 4
MI@@ 4
MRSA 4
MSNBC.com 4
Madrid 4
Mag@@ 4
Maine 4
Maj@@ 4
Make 4
Malibu 4
Mand@@ 4
Marie 4
Mariners 4
Marines 4
Martinez 4
Max 4
May@@ 4
McC@@ 4
McNair 4
Me 4
Measures 4
Melvin 4
Members 4
Mercantile 4
Merkel 4
Mes@@ 4
Military 4
Million 4
Mills 4
Mo 4
Moon 4
Morning 4
Motor 4
Motors 4
Mou@@ 4
Mourinho 4
Mussina 4
Mutual 4
NATO 4
NL 4
NT 4
Nancy 4
Nar@@ 4
Nashville 4
Neil 4
Neither 4
Nelson 4
Neu@@ 4
Newark 4
Ni@@ 4
Nicaragua 4
Nichols 4
Norris 4
Nur@@ 4
ON@@ 4
OR@@ 4
Ocean 4
Official 4
Olson 4
Omar 4
Oracle 4
Over@@ 4
Overall 4
P. 4
PGA 4
PH@@ 4
PM 4
PT@@ 4
Padres 4
Panama 4
Parks 4
Pass@@ 4
Paula 4
Pavarotti 4
Payne 4
Pc 4
Peninsula 4
Pepsi 4
Pet@@ 4
Peters 4
Pitt 4
Pittsburgh 4
Political 4
Por@@ 4
Pre-@@ 4
Pres@@ 4
Prior 4
Prison 4
Prom@@ 4
Protection 4
Protest@@ 4
Puerto 4
Quarterly 4
Questions 4
RBS 4
Randy 4
Rat@@ 4
Rather 4
Raul 4
Ravens 4
Rec@@ 4
Reform 4
Regiment 4
Rel@@ 4
Reliance 4
Reno 4
Reported 4
Researchers 4
Resolution 4
Rh@@ 4
Rich@@ 4
Rick 4
Roh 4
Roma 4
Rosa 4
Rosen@@ 4
Rouge 4
Rove 4
Rumsfeld 4
Run@@ 4
Russians 4
SNP 4
SO@@ 4
STATEMENTS 4
SUV 4
Said. 4
Sanders 4
Sau@@ 4
Saud 4
Sco@@ 4
Sean 4
Sel@@ 4
Senators 4
Serbian 4
Sha@@ 4
Shakespeare 4
Shar@@ 4
Shaun 4
Shaw 4
Sheep 4
Shell 4
Sher@@ 4
Simple 4
Sk@@ 4
Slam 4
Smithsonian 4
Snow 4
Sol@@ 4
Solutions 4
Some@@ 4
Sometimes 4
Sopranos 4
Source 4
Southeast 4
Sports 4
Spr@@ 4
Spring 4
Standards 4
Stanford 4
Stearns 4
Sti@@ 4
Strip 4
Stuart 4
Sub@@ 4
Sup@@ 4
Swedish 4
T-@@ 4
TH@@ 4
TI@@ 4
Take 4
Talks 4
Tampa 4
Teams 4
Temple 4
Ter@@ 4
Thai 4
Theater 4
Tiger 4
Titans 4
Todd 4
Top@@ 4
Tory 4
Tower 4
Transportation 4
Trial 4
Tropical 4
Tur@@ 4
U.S.-@@ 4
UAW 4
UNDP 4
USAID 4
Umenyiora 4
Until 4
VEBA 4
VH1 4
Val@@ 4
Value 4
Various 4
Venezuela 4
Vol@@ 4
WAM 4
WHO 4
WM@@ 4
Wallace 4
Warren 4
Web@@ 4
Wheeler 4
Which 4
Wii 4
Wildlife 4
Winners 4
Woman 4
Yao 4
Yesterday 4
Yo@@ 4
Zo@@ 4
abilities 4
ably 4
abortion 4
acclaimed 4
accountability 4
actively 4
activists 4
adds 4
adjustment 4
adverse 4
advisory 4
affair 4
affluent 4
agricultural 4
aide 4
airwaves 4
al-Qaeda 4
ale 4
alist 4
alization 4
amassed 4
ammunition 4
anchor 4
ander 4
animated 4
answered 4
antibiotics 4
anticipated 4
antly 4
anymore 4
apart 4
apology 4
appealing 4
argues 4
arguments 4
arrests 4
arts 4
ase 4
asks 4
aspect 4
assessed 4
assists 4
associates 4
astonishing 4
ately 4
atics 4
ation@@ 4
ational 4
autopsy 4
availability 4
aviation 4
aw 4
awaiting 4
backed 4
background 4
bacteria 4
ball@@ 4
ballo@@ 4
basically 4
basketball 4
bearing 4
beauty 4
beliefs 4
believing 4
bench 4
berg 4
bes@@ 4
bets 4
bility 4
ble@@ 4
blow 4
blue-@@ 4
bodyguards 4
bomber 4
bombing 4
bombings 4
break@@ 4
briefed 4
briefing 4
brigades 4
broadband 4
broader 4
burden 4
cabin 4
cabinet 4
calories 4
campaigning 4
cancellations 4
categories 4
caucuses 4
celebrated 4
celebration 4
challenging 4
champions 4
chapter 4
character@@ 4
charities 4
che 4
ches 4
chicken 4
chiefs 4
chip 4
clash 4
clean@@ 4
clinic 4
collateral 4
colors 4
comedy 4
commodities 4
communication 4
communist 4
companion 4
compe@@ 4
compelling 4
competitors 4
completing 4
complications 4
computing 4
confer@@ 4
confrontation 4
confusion 4
connect 4
conscious 4
consensus 4
consent 4
conservation 4
considerable 4
consortium 4
constitution 4
consul@@ 4
contacted 4
contenders 4
contractor 4
contractors 4
controlling 4
convention 4
converting 4
copied 4
copyright 4
copyrighted 4
corn 4
cotton 4
counted 4
courtroom 4
covers 4
crackdown 4
cream 4
creativity 4
cricket 4
crown 4
crowned 4
ction 4
cute 4
cycle 4
da 4
damages 4
dar@@ 4
dating 4
daunting 4
day@@ 4
dealers 4
debated 4
deci@@ 4
declare 4
decor@@ 4
decorated 4
deeper 4
defendant 4
demanding 4
denies 4
denim 4
depends 4
deployment 4
depth 4
ders 4
descent 4
describes 4
describing 4
design@@ 4
designs 4
desk 4
despair 4
desperately 4
destroyed 4
developer 4
device 4
devoted 4
dial 4
diluted 4
dip 4
diplomat 4
directions 4
disappeared 4
disappointment 4
discipline 4
disclosed 4
discrimination 4
diseases 4
display 4
displayed 4
disrupted 4
dissatisfied 4
distinction 4
distribute 4
dle 4
documented 4
double-digit 4
doubles 4
download 4
downright 4
dragged 4
drama 4
earthquake 4
ease 4
easing 4
economist 4
ed-@@ 4
egg 4
electrical 4
ely 4
email 4
eman 4
embrace 4
ements 4
emo@@ 4
employed 4
ena 4
enforce 4
engaging 4
engine 4
engineer 4
enhancing 4
ensuring 4
enthusiasm 4
envoy 4
equipped 4
ere 4
ero 4
error 4
es-@@ 4
ese 4
essence 4
establishing 4
establishment 4
ette 4
evacuate 4
evacuated 4
eventual 4
ever-@@ 4
everyday 4
evolved 4
ex-@@ 4
examine 4
examined 4
examiner 4
excellence 4
excellent 4
exception 4
excluding 4
executed 4
exhausted 4
exists 4
expertise 4
exploded 4
exploit 4
explorers 4
explosions 4
exposure 4
expression 4
extraordinary 4
fashi@@ 4
fast-@@ 4
fatally 4
fate 4
favour 4
favourite 4
featured 4
feelings 4
fever 4
fielder 4
fierce 4
fighters 4
fights 4
figured 4
file 4
fill 4
financing 4
fined 4
finest 4
firearms 4
firefighter 4
firing 4
firmly 4
fits 4
fixed 4
flower 4
flowers 4
flown 4
fluctu@@ 4
forbidden 4
format 4
four-game 4
fourth-quarter 4
frame 4
frankly 4
free-@@ 4
free@@ 4
frequent 4
friendship 4
frigh@@ 4
functioning 4
gener@@ 4
generate 4
genius 4
genocide 4
genuine 4
gesture 4
glad 4
glo@@ 4
globe 4
gotten 4
graduates 4
grant 4
granted 4
graph@@ 4
greeted 4
grocery 4
gross 4
guidance 4
ha@@ 4
hadn 4
halt 4
han@@ 4
hand-@@ 4
handcuffs 4
handing 4
handsome 4
hard-@@ 4
hard@@ 4
hardware 4
hate 4
head@@ 4
heated 4
heating 4
hide 4
higher-@@ 4
highlights 4
hike 4
hinted 4
hiring 4
hn 4
holder 4
holes 4
home-@@ 4
home@@ 4
homeowners 4
honour 4
hoo@@ 4
hook 4
hooking 4
hopefully 4
hosted 4
household 4
households 4
humidity 4
hur@@ 4
hygiene 4
iPod 4
ic-@@ 4
ill-@@ 4
implications 4
inconsistent 4
incredibly 4
infants 4
infected 4
infrastructure 4
ing-@@ 4
initial 4
inner 4
innocence 4
innovation 4
inquest 4
inspected 4
installed 4
institutional 4
insurgent 4
intelligent 4
intense 4
intensified 4
intensive 4
interception 4
interim 4
intr@@ 4
invested 4
involve 4
irresponsible 4
irritating 4
ise 4
ished 4
ising 4
iting 4
jacket 4
jewelry 4
judged 4
judges 4
judicial 4
jump 4
junior 4
jurisdiction 4
keeper 4
kes 4
kilometers 4
kinds 4
laboratory 4
lam@@ 4
late-@@ 4
laugh 4
laughed 4
layers 4
leaf 4
learned 4
less@@ 4
lethal 4
lets 4
liber@@ 4
liberal 4
lic 4
licensed 4
ligh@@ 4
lighting 4
liked 4
lin 4
linking 4
listed 4
load 4
locked 4
lodging 4
logo 4
longest 4
loud 4
louder 4
low-cost 4
low-income 4
lowest 4
lun@@ 4
lust 4
magnitude 4
mainly 4
makers 4
manufacturer 4
marched 4
marriages 4
master 4
meals 4
meanwhile 4
measured 4
mechanical 4
medicines 4
medium 4
meltdown 4
memorabilia 4
memorial 4
mentally 4
ments 4
menu 4
merchandise 4
mes 4
meters 4
meth@@ 4
mid@@ 4
minds 4
mines 4
mining 4
mistake 4
mixing 4
mobility 4
mond 4
monetary 4
monitor 4
mosque 4
mount 4
mountains 4
municipal 4
musical 4
musician 4
naked 4
nam@@ 4
navy 4
need@@ 4
neg@@ 4
neighboring 4
nickname 4
nurse 4
nutrition 4
objections 4
objectives 4
observed 4
observers 4
obsessed 4
obtained 4
occasion 4
occasions 4
occupancy 4
oldest 4
ologists 4
ology 4
omy 4
ona 4
oning 4
opera 4
opposes 4
or-@@ 4
oral 4
orbit 4
oring 4
ory 4
os 4
oud 4
ours 4
outreach 4
outsiders 4
ov 4
over-@@ 4
overhaul 4
ovic 4
painfully 4
painted 4
parallel 4
paralyzed 4
participated 4
passenger 4
pat@@ 4
patrol 4
patterns 4
pays 4
peak 4
pen@@ 4
performing 4
performs 4
permit 4
permitted 4
personality 4
personally 4
perspective 4
petition 4
petrol 4
pets 4
phase 4
photographers 4
phrase 4
pilots 4
pin 4
pin@@ 4
pipe 4
pivotal 4
platforms 4
ple 4
pledge 4
plum@@ 4
poet 4
pointed 4
popularity 4
portions 4
portrait 4
pose 4
possession 4
post@@ 4
powered 4
practical 4
preaching 4
precip@@ 4
predecessor 4
predict 4
preferences 4
prescri@@ 4
preseason 4
presidents 4
pressures 4
prestigious 4
prevailing 4
prevention 4
print 4
priorities 4
procession 4
profitable 4
programming 4
projected 4
prompting 4
proper 4
properties 4
protections 4
proudly 4
providers 4
publish 4
purchased 4
qualifier 4
quantities 4
quarter-@@ 4
races 4
radar 4
rating 4
reaches 4
reas@@ 4
recalling 4
recalls 4
receivers 4
recognize 4
recommend 4
reconstruction 4
recovered 4
recovering 4
recruit 4
refer@@ 4
reflected 4
reflecting 4
reforms 4
refugees 4
refurbished 4
refuse 4
regain 4
regulation 4
regulators 4
remote 4
removing 4
rental 4
repeated 4
representatives 4
republic 4
requested 4
requests 4
researcher 4
reserved 4
reserves 4
residence 4
resolutions 4
resolve 4
resource 4
respected 4
respective 4
respectively 4
restated 4
rested 4
retaliated 4
retaliation 4
retiree 4
reveal 4
reveals 4
revelations 4
revised 4
right-@@ 4
rivals 4
rocket-propelled 4
roles 4
rolled 4
rolling 4
rooftops 4
rotation 4
rotten 4
routed 4
royal 4
rum@@ 4
run-scoring 4
sack 4
sacks 4
sad 4
salaries 4
salon 4
sav@@ 4
saves 4
scan 4
screens 4
searched 4
second-half 4
secretary-general 4
sections 4
secured 4
sed 4
selection 4
sells 4
senators 4
seven-@@ 4
sey 4
shaping 4
shareholder 4
shattered 4
sheer 4
shell 4
shelter 4
shelters 4
sheriff 4
shoes 4
shoo@@ 4
shook 4
shootings 4
shops 4
shoulders 4
showdown 4
sick@@ 4
sideline 4
sight 4
signal 4
signaled 4
signals 4
significantly 4
single-@@ 4
sion@@ 4
sis 4
situations 4
skilled 4
slammed 4
slaying 4
slip 4
slowly 4
small-@@ 4
smile 4
smo@@ 4
smoke 4
solicitation 4
sons 4
sorry 4
sorts 4
southeast 4
spaces 4
spy 4
sq 4
sson 4
stabbed 4
stabilize 4
stable 4
stadium 4
stance 4
state-@@ 4
stem 4
stepped 4
stepping 4
sto@@ 4
stor@@ 4
storage 4
strained 4
strengthen 4
strengthened 4
string 4
structured 4
sts 4
studios 4
styles 4
subsequent 4
suburban 4
subway 4
suffering 4
sugar 4
suggestions 4
summar@@ 4
surgeons 4
surround 4
suspend 4
swim 4
swimming 4
switched 4
tag 4
tail@@ 4
takeover 4
tan@@ 4
tapes 4
taste 4
tax-@@ 4
teach 4
teaching 4
televised 4
temperatures 4
temporarily 4
tening 4
tered 4
terrain 4
testified 4
the-@@ 4
theft 4
themes 4
third-@@ 4
thr@@ 4
thrive 4
tier 4
timid 4
tire 4
titles 4
tively 4
tly 4
tobacco 4
toe 4
tom@@ 4
top-@@ 4
tops 4
tos 4
totaled 4
tougher 4
tourism 4
touted 4
tow@@ 4
trace 4
tracks 4
trademarks 4
traders 4
traditionally 4
trailer 4
transaction 4
transformation 4
traveled 4
trends 4
tribe 4
trio 4
triple 4
trousers 4
trusted 4
tum@@ 4
turbulent 4
turnover 4
two-thirds 4
typical 4
ugly 4
unchanged 4
uncovered 4
underwater 4
unease 4
unions 4
unity 4
unrest 4
upset 4
urging 4
ush 4
vaccine 4
variety 4
venturing 4
vicious 4
victories 4
villagers 4
vin 4
violation 4
visual 4
volume 4
vulnerable 4
waited 4
warn 4
warrant 4
wave 4
whenever 4
wid@@ 4
wine 4
withdrawal 4
withdrawn 4
wonderful 4
worsened 4
wound 4
wrapped 4
wreckage 4
wrong@@ 4
yellow 4
zed 4
'Brien 3
'Connor 3
-led 3
-up 3
.co.uk 3
.gov 3
0.16 3
0.2000 3
0.2100 3
0.4 3
0.45 3
0.46 3
0.90 3
00-@@ 3
1,1@@ 3
1,600 3
1-0 3
1-4 3
1.1 3
1.3 3
1.39@@ 3
1.4 3
1.6 3
1.7 3
1.72 3
1.9 3
10,9@@ 3
10-K 3
10.2 3
106 3
107@@ 3
10th 3
11.6 3
115 3
116 3
117 3
12,5@@ 3
12-year-old 3
123 3
125 3
13,229 3
13,9@@ 3
138 3
14,@@ 3
14.@@ 3
140 3
145 3
15,000 3
15-year-old 3
154 3
16,0@@ 3
164 3
16th 3
17.@@ 3
170,000 3
17th 3
180 3
185 3
19,@@ 3
192 3
1963 3
1979 3
1984 3
1993 3
2,873,985 3
2-1 3
2.2 3
2.4 3
2.5 3
2.8 3
2011 3
220 3
224 3
23,626 3
23-@@ 3
24,034 3
24,379 3
24.@@ 3
240 3
24th 3
25,010 3
25-@@ 3
251 3
26-@@ 3
27,494 3
28,532 3
28.@@ 3
29,@@ 3
29-year-old 3
2nd 3
3,288,918 3
3,385,905 3
3,452,095 3
3,496,370 3
3,544,189 3
3,5@@ 3
3,6@@ 3
3,778,338 3
3,805,794 3
3-5 3
3.66 3
3.90 3
30,396 3
300,000 3
30@@ 3
30th 3
32-@@ 3
32.@@ 3
32@@ 3
35-@@ 3
350,000 3
36-@@ 3
385 3
38@@ 3
39@@ 3
4,3@@ 3
4,9@@ 3
4.7 3
40,000 3
406 3
415 3
435,014 3
44@@ 3
45.@@ 3
45@@ 3
47,@@ 3
47.@@ 3
486,161 3
49@@ 3
5.25 3
50,000 3
50-@@ 3
52-year-old 3
527 3
53-@@ 3
56@@ 3
58,928 3
59.@@ 3
591 3
6,9@@ 3
6-1 3
6.4 3
6.92 3
659 3
65@@ 3
682,695 3
7.0 3
7.19 3
7.23 3
70s 3
731 3
75@@ 3
77.@@ 3
777 3
8,2@@ 3
8,8@@ 3
8-0 3
800,000 3
801 3
81,387 3
9,3@@ 3
9,4@@ 3
9,5@@ 3
9,842 3
9,9@@ 3
9.6 3
9.71 3
900 3
937,362 3
A-@@ 3
AB 3
AD@@ 3
ADHD 3
AT@@ 3
AVERAGE 3
Abdul@@ 3
Abe 3
Aberdeen 3
Above 3
Acc@@ 3
Accounts 3
Action 3
Additional 3
Aff@@ 3
Affected 3
Ag@@ 3
Agre@@ 3
Aid 3
Air@@ 3
Albert 3
Alberta 3
Alexis 3
Alfred 3
Alice 3
Allergy 3
Along 3
Already 3
Am 3
Amar@@ 3
Amy 3
Ana 3
Anbar 3
Andrea 3
Angela 3
Angus 3
Ankara 3
Announces 3
Anti-@@ 3
Anti@@ 3
App@@ 3
Apparently 3
Applications 3
Approximately 3
Archives 3
Arctic 3
Arm@@ 3
Arsenal 3
Arts 3
Ask 3
Atomic 3
Att@@ 3
Attorneys 3
Auburn 3
Austin 3
Austria 3
Avandia 3
Awareness 3
B.@@ 3
BAGHDAD 3
BC 3
BE@@ 3
BEIJING 3
BMW 3
BP 3
Bab@@ 3
Baby 3
Bag@@ 3
Bah@@ 3
Baikonur 3
Baker 3
Bancorp 3
Bangladesh 3
Bar 3
Barcelona 3
Barnes 3
Basin 3
Battalion 3
Bbl 3
Beat 3
Beckham 3
Been 3
Behind 3
Being 3
Bennett 3
Berkshire 3
Berlin 3
Besides 3
Beverly 3
Billboard 3
Billi@@ 3
Bla@@ 3
Blo@@ 3
Blu@@ 3
Bobby 3
Bol@@ 3
Bom@@ 3
Boo@@ 3
Bot@@ 3
Boys 3
Bradley 3
Brain 3
Brand 3
Brett 3
Brig@@ 3
Bright 3
Britons 3
Broad@@ 3
Broncos 3
Bronx 3
Broo@@ 3
Brooklyn 3
Brother 3
Brownback 3
Brownstein 3
Bruins 3
Buc@@ 3
Bud 3
Buddhist 3
Burke 3
Burton 3
CA 3
CAL@@ 3
CE@@ 3
CHICAGO 3
CL@@ 3
CO 3
CP@@ 3
CS 3
CS@@ 3
Ca@@ 3
Cab@@ 3
Calderon 3
Cales 3
Callahan 3
Calls 3
Calorie 3
Cancer 3
Candidates 3
Canterbury 3
Cap@@ 3
Capt. 3
Cardiovascular 3
Caribbean 3
Carrie 3
Cat@@ 3
Celtic 3
Cer@@ 3
Certain 3
Chan 3
Chang 3
Chap@@ 3
Chapel 3
Charlotte 3
Check 3
Child 3
Chilean 3
Chocolate 3
Chopin 3
Cin@@ 3
Circulation 3
Cit@@ 3
Clarkson 3
Class 3
Classic 3
Clayton 3
Cle@@ 3
Cli@@ 3
Clients 3
Climate 3
Clint 3
Coach 3
Colbert 3
Come 3
Communication 3
Comp-Att-Int 3
Competition 3
Compl@@ 3
Comple@@ 3
Computer 3
Concern 3
Concrete 3
Condoleezza 3
Conn 3
Conn@@ 3
Conservation 3
Const@@ 3
Constellation 3
Coors 3
Coral 3
Cour@@ 3
Cow@@ 3
Crescent 3
Crohn 3
Cuba 3
Cul@@ 3
Cunningham 3
Cur@@ 3
Curry 3
DE@@ 3
DENVER 3
DI@@ 3
DRW 3
DailyCandy 3
Daimler 3
Dan@@ 3
Dance 3
Danger 3
Dani@@ 3
Dark 3
Darren 3
Davydenko 3
Dead 3
Deaths 3
Debate 3
Defending 3
Defoe 3
Del 3
Dell 3
Demand 3
Depot 3
Det@@ 3
Detectives 3
Develop@@ 3
Dialogue 3
Diet 3
Dilfer 3
Dinner 3
Direct 3
Directors 3
Distributed 3
Dixon 3
Dob@@ 3
Doctors 3
Dodd 3
Dollar 3
Dolly 3
Dolphins 3
Donald 3
Donn@@ 3
Dor@@ 3
Doris 3
Down 3
Downs 3
Driver 3
Drugs 3
Dublin 3
EL@@ 3
EPA 3
EPS 3
Ear@@ 3
Earthquake 3
Eddie 3
Edgar 3
Educational 3
Edward 3
Eff@@ 3
Egyptian 3
Either 3
El 3
Eli 3
Ellis 3
Embassy 3
Empty 3
Engines 3
Environment 3
Ericsson 3
Erik 3
Ernie 3
Esp@@ 3
Etisalat 3
Eu@@ 3
Euro 3
Ever 3
Everything 3
Ex-@@ 3
Experts 3
FO@@ 3
FOR 3
FT@@ 3
Fab@@ 3
Facing 3
Factor 3
Fai@@ 3
Fal@@ 3
Fall 3
Fall@@ 3
Fallon 3
Famous 3
Fans 3
Fast 3
Fat 3
Federation 3
Federline 3
Felix 3
Fenty 3
Ferguson 3
Fernandez 3
Festival 3
Fight 3
Firm 3
Fish 3
Flesch 3
Fonda 3
Forbes 3
Forces 3
Fore@@ 3
Forum 3
Francis 3
Franklin 3
Freedom 3
Frenchman 3
Fromong 3
Fry 3
Fu@@ 3
Fukuda 3
Fur@@ 3
Futures 3
G-@@ 3
GA@@ 3
GE 3
GPS 3
GS@@ 3
Ga 3
Gabrielle 3
Gall@@ 3
Gambari 3
Gan@@ 3
Garrison 3
Gaz@@ 3
Gen@@ 3
Gerdau 3
Get@@ 3
Gibbs 3
Gil@@ 3
Gilli@@ 3
Girardi 3
Girls 3
Given 3
Gl@@ 3
Glam 3
Glenn 3
Goes 3
Going 3
Gol@@ 3
Gorbachev 3
Gorges 3
Gotbaum 3
Goulet 3
Gran@@ 3
Grant 3
Grav@@ 3
Green@@ 3
Greenpeace 3
Gregory 3
HD 3
HE@@ 3
HM 3
HO@@ 3
HS@@ 3
HU@@ 3
Hai@@ 3
Hands 3
Hank 3
Harbor 3
Hart 3
Harvest 3
Haven 3
Hayes 3
Head 3
Head@@ 3
Healthcare 3
Heather 3
Heathrow 3
Heavy 3
Heidi 3
Heisman 3
Helen 3
Henrik 3
Heroes 3
Herr@@ 3
Higgins 3
Highland 3
Hil@@ 3
Hin@@ 3
Hispanics 3
Hockey 3
Hog@@ 3
Hornets 3
Host 3
Hou@@ 3
Housing 3
Hubble 3
Hum@@ 3
Hur@@ 3
I.@@ 3
ID@@ 3
IM@@ 3
ING@@ 3
INTEREST 3
IPO 3
Improving 3
Imus 3
Include 3
Ind 3
Indeed 3
Industry 3
Inf@@ 3
Inspector 3
Intel 3
Intel@@ 3
Into 3
Investors 3
Ir@@ 3
Irishman 3
Irvine 3
Itali@@ 3
J.D. 3
Jackie 3
Jacobs 3
Jam@@ 3
Jav@@ 3
Jayawardene 3
Jean 3
Jenkins 3
Jenna 3
Jer@@ 3
Jet 3
Jewell 3
Jihad 3
Jord@@ 3
Judd 3
Julia 3
Justin 3
KABUL 3
Kaczynski 3
Kam@@ 3
Kan 3
Kaplan 3
Kashmir 3
Kathleen 3
Kelud 3
Kent 3
Khalaf 3
Kills 3
Kimmel 3
Kle@@ 3
Kno@@ 3
Kr@@ 3
Kro@@ 3
Kuwaiti 3
LA 3
LA@@ 3
LPGA 3
Labour 3
Landing 3
Late 3
Lawrence 3
Leave 3
Lebanese 3
Lem@@ 3
Leno 3
Level 3
Levin 3
Libya 3
Libyan 3
Lim@@ 3
Limited 3
Link 3
Lionel 3
Lloyd 3
Loan 3
London-based 3
Lords 3
Lose 3
Louise 3
Louisville 3
Lowe 3
Lucas 3
Lucy 3
M-@@ 3
MAR@@ 3
MARGIN 3
MB@@ 3
ME 3
MO@@ 3
MS@@ 3
MSNBC 3
Machinery 3
Mad@@ 3
Madeleine 3
Madonna 3
Magazine 3
Magic 3
Main 3
Mak@@ 3
Managers 3
Managing 3
Mandell 3
Manufacturers 3
Marbury 3
Marc 3
Marino 3
Martina 3
Masters 3
Mays 3
McCartney 3
McDonald 3
McG@@ 3
McGrady 3
Medicine 3
Meets 3
Member 3
Mess@@ 3
Met@@ 3
Michelle 3
Miguel 3
Mill@@ 3
Milwaukee 3
Minority 3
Minutes 3
Mir@@ 3
Mis@@ 3
MoD 3
Moder@@ 3
Mol@@ 3
Monetary 3
Monks 3
Montana 3
Moo@@ 3
Moreno 3
Moss 3
Motion 3
Mukherjee 3
Mullah 3
Mumbai 3
Mut@@ 3
MySpace 3
Myint 3
N.H. 3
N.J. 3
N.Y 3
NAS@@ 3
NCAA 3
NHL 3
NY@@ 3
Nairobi 3
Nap@@ 3
Nash 3
Nature 3
Net@@ 3
Netherlands 3
Networks 3
Nextel 3
Nicholas 3
Nielsen 3
Nik@@ 3
Nikolay 3
Nintendo 3
Niss@@ 3
Nissan 3
Noble 3
Non-@@ 3
Non-GAAP 3
Non@@ 3
Norwegian 3
Nottingham 3
Nu@@ 3
OL@@ 3
Obviously 3
Od@@ 3
Odinga 3
Odyssey 3
Offer 3
Officers 3
Oh 3
Okabe 3
Oliver 3
One-@@ 3
Opinion 3
Opponents 3
Opposition 3
Oprah 3
Orange 3
Ore 3
Organ@@ 3
Organiz@@ 3
Os@@ 3
Osama 3
Ottawa 3
Outside 3
Oz 3
POR@@ 3
PP 3
PP@@ 3
Palestine 3
Parsons 3
Pas@@ 3
Pat 3
Paulson 3
Pennington 3
Peru 3
Petersburg 3
Petr@@ 3
Ph.D. 3
Pharma 3
Photo@@ 3
Pic@@ 3
Pichushkin 3
Pick@@ 3
Pictures 3
Pierre 3
Places 3
Plan 3
Platform 3
Players 3
Politkovskaya 3
Poll 3
Poly@@ 3
Premier 3
Previous 3
Price 3
Prices 3
Princess 3
Pris@@ 3
Profit 3
Properties 3
Property 3
Prote@@ 3
Publishing 3
Pyongyang 3
QC 3
Quebec 3
Quinn 3
RAF 3
RBIs 3
RF@@ 3
RT@@ 3
Race 3
Rad@@ 3
Rafael 3
Rains 3
Ran@@ 3
Raymond 3
Real@@ 3
Reality 3
Reconciliation 3
Recorded 3
Reg@@ 3
Resource 3
Reti@@ 3
Return 3
Returns 3
Rev. 3
Revenues 3
Rhode 3
Rich 3
Ridge 3
Rie@@ 3
Right 3
Rijkaard 3
Rivers 3
Riyadh 3
Robertson 3
Robin 3
Roc@@ 3
Rod 3
Roddick 3
Romania 3
Romo 3
Ronald 3
Ronnie 3
Roo@@ 3
Room 3
Ros@@ 3
Rossi 3
Roth@@ 3
Row@@ 3
Rudd 3
Rus@@ 3
Russ 3
Russell 3
Russo 3
SAFC 3
SEIU 3
SI@@ 3
SIRIUS 3
ST 3
Sa@@ 3
Saakashvili 3
Sab@@ 3
Safin 3
Saget 3
Sak@@ 3
Salmond 3
Sam 3
Samantha 3
Samuel 3
Sant@@ 3
Santiago 3
Scar@@ 3
Schools 3
Scot@@ 3
Scre@@ 3
Sears 3
Secret 3
Secrets 3
Selling 3
Serbs 3
Sergei 3
Sex@@ 3
Sgt. 3
Shah 3
Shake 3
Shal@@ 3
Shane 3
Shap@@ 3
Sharon 3
She@@ 3
Shenandoah 3
Shiite-@@ 3
Shin@@ 3
Sho@@ 3
Shor@@ 3
Sig@@ 3
Signs 3
Silicon 3
Simmons 3
Sing@@ 3
Singer 3
Six@@ 3
Skype 3
Smart 3
Software 3
Solana 3
Sold 3
Solution 3
Song 3
Southeastern 3
Speci@@ 3
Spice 3
Spiderman 3
Spitzer 3
Spre@@ 3
Star 3
Star@@ 3
Stars 3
Stat@@ 3
Steinbrenner 3
Steph@@ 3
Stephanie 3
Sterling 3
Stewart 3
Stinnett 3
Sto@@ 3
Stoner 3
Store 3
Stre@@ 3
Strong 3
Students 3
Study 3
Stuttgart 3
Suisse 3
Sumatra 3
Summit 3
Superior 3
Supply 3
Surprise 3
Surrey 3
Sw@@ 3
TE@@ 3
TFG 3
TIME 3
TS@@ 3
Tac@@ 3
Taleban 3
Talk 3
Tamil 3
Tani 3
Tar@@ 3
Tat@@ 3
Team 3
Tebow 3
Tel 3
Telecommunications 3
Telegraph 3
Telford 3
Tem@@ 3
Ten 3
Tequila 3
Terr@@ 3
Tesco 3
Thanks 3
Thatcher 3
Ther@@ 3
Think 3
Thirteen 3
Thor@@ 3
Tickets 3
Tinto 3
Title 3
Toll 3
Tom@@ 3
Ton@@ 3
Tor@@ 3
Tou@@ 3
Toyota 3
Tracy 3
Trading 3
Traffic 3
Tran@@ 3
Travis 3
Tre@@ 3
Treasure 3
Trevor 3
Trin@@ 3
Tru@@ 3
True 3
Try 3
Tw@@ 3
Twins 3
Two-@@ 3
Tydfil 3
Tymoshenko 3
US@@ 3
Ukraine 3
Ultimately 3
Un 3
Unaudited 3
Up@@ 3
Urban 3
Use 3
Used 3
V 3
VA 3
VI@@ 3
Valencia 3
Vanessa 3
Ve@@ 3
Venice 3
Venture 3
Vera 3
Vernon 3
Veteran 3
Veterans 3
Vice-President 3
Vick@@ 3
Victor 3
Vidal 3
Vie@@ 3
Vill@@ 3
Vir@@ 3
Vision 3
Vodafone 3
Voice 3
Voters 3
WTA 3
Wade 3
Wagner 3
Wake 3
Walter 3
Walters 3
Warsaw 3
Water@@ 3
Watson 3
Watts 3
Way 3
Web-@@ 3
Week 3
Weinstein 3
Wells 3
West@@ 3
Wheat 3
Whether 3
Who@@ 3
Wi-Fi 3
Wi@@ 3
Wigan 3
Willie 3
Willis 3
Win 3
Windows 3
Windsor 3
Wings 3
Witnesses 3
Women 3
Words 3
Working 3
Worries 3
Worth 3
Writers 3
Wy@@ 3
Yan@@ 3
Yanukovych 3
Ye@@ 3
Yog@@ 3
Yonhap 3
You@@ 3
Youkilis 3
Youn@@ 3
Zimmer 3
ab 3
abdu@@ 3
abortions 3
abrupt 3
academy 3
accelerate 3
accepts 3
accessible 3
accidental 3
accidents 3
accommodate 3
accompany 3
accusations 3
accusing 3
aces 3
achievements 3
acknowledge 3
acquitted 3
acu@@ 3
acute 3
adap@@ 3
addressed 3
addressing 3
adequate 3
adjustable-rate 3
adjustments 3
admission 3
ado 3
adul@@ 3
advantages 3
adventure 3
advertisement 3
advertisers 3
advocacy 3
aes@@ 3
affili@@ 3
after-@@ 3
aftermath 3
aggregate 3
aggressively 3
agreeing 3
agriculture 3
aiming 3
ained 3
alcoho@@ 3
ali 3
aling 3
alised 3
alism 3
all-star 3
alongside 3
alternatives 3
alty 3
ambitious 3
ambulances 3
amortization 3
ancient 3
ane 3
angels 3
angry 3
ania 3
announces 3
announcing 3
anonymity 3
anonymous 3
answering 3
antibody 3
anybody 3
anywhere 3
apologi@@ 3
appearances 3
appearing 3
apples 3
applicants 3
appraisal 3
appreciated 3
approaches 3
approaching 3
approximate 3
ardent 3
arguing 3
argument 3
arranged 3
arrival 3
artificial 3
artwork 3
ascended 3
ashes 3
ass 3
assassinate 3
assassination 3
assaulted 3
assembled 3
assembly 3
asser@@ 3
assessment 3
assigned 3
associations 3
astronaut 3
ate-@@ 3
atic 3
atory 3
att 3
attempting 3
attracting 3
au 3
authorized 3
authorizing 3
authors 3
automatic 3
automatically 3
automobile 3
aux 3
avant-garde 3
ave 3
avoiding 3
ayed 3
az 3
bad@@ 3
bake 3
banker 3
bankruptcy 3
banning 3
bare 3
barred 3
bartender 3
bathroom 3
batted 3
battling 3
bay 3
bays 3
bear 3
bears 3
bed@@ 3
bedroom 3
bee 3
beer 3
behalf 3
behaviour 3
bel@@ 3
belief 3
belongs 3
benefactor 3
bent 3
bers 3
best-@@ 3
best-selling 3
betting 3
beverage 3
bian 3
bidder 3
big-@@ 3
bil@@ 3
billions 3
bing 3
biodiesel 3
biography 3
biological 3
bir@@ 3
birdies 3
bits 3
blacks 3
blade 3
blah 3
blasted 3
blaze 3
bles 3
blind 3
bloody 3
blunt 3
blur@@ 3
bo 3
boarded 3
bob@@ 3
bon 3
bonds 3
bones 3
borders 3
borough 3
boss 3
bottles 3
boundaries 3
bowed 3
bowl 3
boyfriend 3
bracelet 3
branch 3
breeding 3
broadcasting 3
broker 3
brown 3
browser 3
browsing 3
bru@@ 3
brush 3
bulb 3
bull@@ 3
bullets 3
bullpen 3
buried 3
burn 3
butter 3
butter@@ 3
cab@@ 3
cafe 3
cake 3
cakes 3
calculate 3
calculated 3
calculation 3
calm 3
camel 3
can-@@ 3
canceled 3
capabilities 3
capit@@ 3
carbonated 3
cardi@@ 3
cardiac 3
cared 3
carrier 3
cartoon 3
casting 3
casts 3
casualties 3
cat 3
categorically 3
cathedral 3
ceasefire 3
ced 3
celebr@@ 3
cell@@ 3
cereals 3
ceremonies 3
chairs 3
champ 3
channels 3
charm 3
charred 3
chart 3
charter 3
chat 3
cheap 3
cheaper 3
checks 3
cheers 3
cheese 3
chef 3
chefs 3
chemicals 3
chen 3
chers 3
chilly 3
ci 3
cigarette 3
circuit 3
circulated 3
cit 3
cites 3
clari@@ 3
clarify 3
clashes 3
classified 3
cle@@ 3
cler@@ 3
clic@@ 3
climb 3
clin@@ 3
clock 3
co 3
co-star 3
coached 3
coaches 3
coaching 3
coastal 3
coat 3
cocaine 3
cock@@ 3
coin@@ 3
coincided 3
coincides 3
colleague 3
collective 3
collectors 3
colonial 3
colony 3
come@@ 3
comfort 3
comfortably 3
comic 3
commemorate 3
comment@@ 3
commercials 3
committees 3
commodity 3
commonly 3
competi@@ 3
complaint 3
complexity 3
composed 3
compromise 3
conce@@ 3
conceded 3
concentrated 3
conditioning 3
confisc@@ 3
conglomerate 3
connecting 3
consideration 3
constraints 3
consultation 3
contemporary 3
contend 3
context 3
contracted 3
contradic@@ 3
contributing 3
contributions 3
contributors 3
controversy 3
conver@@ 3
convey 3
cook 3
cool 3
coordinated 3
cop 3
copies 3
copper 3
corporations 3
corps 3
corridor 3
costumes 3
councils 3
counseling 3
counties 3
countless 3
courses 3
coveted 3
crack@@ 3
cracked 3
craft 3
crazy 3
creatures 3
credibility 3
cried 3
crisp 3
criticize 3
criticizing 3
crops 3
crossing 3
cry 3
crying 3
cted 3
ctors 3
curbing 3
currencies 3
cy 3
cy@@ 3
cycles 3
cyclist 3
dairy 3
darkness 3
dawn 3
de-@@ 3
dead@@ 3
deal@@ 3
dealer 3
dean 3
decre@@ 3
decree 3
default 3
defeat 3
defined 3
definition 3
delays 3
deliveries 3
delivering 3
demanded 3
demonstrated 3
demonstration 3
den@@ 3
denounced 3
dense 3
departments 3
departure 3
depend@@ 3
depicted 3
deployments 3
depressed 3
deprived 3
depths 3
dered 3
derived 3
describe 3
description 3
desert 3
deserved 3
deserves 3
designated 3
designer 3
desired 3
destination 3
destroy 3
detainee 3
detect 3
deteri@@ 3
determination 3
determining 3
devastated 3
devi@@ 3
dia 3
diamond 3
dic 3
difficulties 3
digging 3
diminished 3
din@@ 3
dirty 3
disabling 3
disappear 3
disappearance 3
disc 3
disciplined 3
disclosure 3
disguise 3
dish 3
disorder 3
disorders 3
dispatch 3
disrup@@ 3
disrupt 3
distinct 3
distracted 3
distributor 3
dition 3
dity 3
dive 3
diverse 3
diversity 3
divided 3
dock 3
dogged 3
dolls 3
domain 3
donate 3
doomed 3
doping 3
downgrade 3
downs 3
downturn 3
dra@@ 3
dragging 3
drags 3
drain 3
drawing 3
dreams 3
dresses 3
driveway 3
dropping 3
drops 3
drought 3
drug-@@ 3
drug@@ 3
drunken 3
dubbed 3
duck 3
dugout 3
dull 3
dump 3
dwellers 3
eBay 3
earliest 3
ears 3
ech@@ 3
echoed 3
eclipsed 3
edited 3
educ@@ 3
educational 3
eggs 3
ek 3
ela 3
elaborate 3
elder 3
elders 3
eled 3
element 3
eliminating 3
elly 3
elson 3
em 3
embarr@@ 3
embassy 3
emphasize 3
employer 3
ence-@@ 3
ency 3
enduring 3
enhance 3
enhanced 3
enjoys 3
enrichment 3
enrolled 3
ension 3
ensuing 3
ent-@@ 3
ented 3
enterprise 3
enterprises 3
entertainer 3
entries 3
entry 3
eous 3
epidemic 3
equivalents 3
eries 3
erup@@ 3
esh 3
ethical 3
eting 3
ett 3
evacuation 3
evaluate 3
evaluation 3
evangelical 3
evangelicals 3
evident 3
evidently 3
ex-wife 3
examination 3
exceed 3
excitement 3
excluded 3
exempt 3
exhi@@ 3
exited 3
expectancy 3
expectation 3
expelled 3
expenditure 3
experiences 3
experiments 3
expiration 3
explanation 3
exploited 3
explosive 3
expres@@ 3
extraordinarily 3
extremism 3
ez 3
facial 3
faculty 3
famed 3
famously 3
fanned 3
far@@ 3
farming 3
fas@@ 3
favorites 3
fee 3
fel@@ 3
ff 3
ffed 3
ffing 3
filling 3
filmed 3
financed 3
fingers 3
fishing 3
fist 3
fitted 3
five-hour 3
fixtures 3
flames 3
flammable 3
flash 3
flashed 3
flesh 3
flexibility 3
flexible 3
fli@@ 3
fliers 3
flo@@ 3
flour 3
fluent 3
folk 3
followers 3
fool 3
foot-@@ 3
foot@@ 3
footed 3
footing 3
for-@@ 3
foreclosure 3
foreigners 3
forget 3
forward- 3
founders 3
founding 3
four@@ 3
fraction 3
fragments 3
fraudulent 3
fray 3
freshman 3
fron@@ 3
front-@@ 3
front-runner 3
fru@@ 3
frustration 3
ft 3
fuels 3
full-scale 3
fundraiser 3
fundraising 3
funeral 3
furn@@ 3
fury 3
gaining 3
gal 3
garnered 3
gash 3
gate 3
ged 3
generated 3
geo@@ 3
ghost 3
gigabyte 3
gio 3
gle@@ 3
glimpses 3
gloves 3
glow 3
golf 3
grab 3
grading 3
gradually 3
gran@@ 3
grass 3
grave 3
gren 3
gri@@ 3
groin 3
grounded 3
groundwork 3
grows 3
guild 3
guitar 3
guru 3
hair@@ 3
halls 3
ham@@ 3
handgun 3
hands-on 3
hanged 3
harmful 3
harness 3
hats 3
hazards 3
headache 3
hear@@ 3
hears 3
heart-@@ 3
heav@@ 3
hefty 3
height 3
helicopter 3
helpful 3
helpl@@ 3
hem@@ 3
herein 3
heritage 3
hid 3
high-end 3
high-profile 3
high-risk 3
highlighted 3
highs 3
hip-hop 3
holidays 3
holy 3
home-field 3
homeland 3
hon@@ 3
hop@@ 3
hopefuls 3
hor@@ 3
hormone 3
hostile 3
housed 3
hub 3
hull 3
humiliation 3
humor 3
hundred 3
hung 3
hunger 3
hungry 3
hunting 3
hurricane 3
hurting 3
hurts 3
ich 3
icon 3
identification 3
ignited 3
ignored 3
ignoring 3
ii 3
iling 3
illa 3
illegally 3
ils 3
imitate 3
impe@@ 3
impl@@ 3
import 3
impossible 3
in-law 3
inability 3
inappropriate 3
incentives 3
inch 3
inconclusive 3
indefinitely 3
independents 3
indicted 3
indictment 3
industries 3
inevitable 3
inflicted 3
influences 3
inform 3
ingredient 3
ingredients 3
ink 3
inmates 3
insist 3
inspiration 3
installing 3
instantly 3
instructed 3
instructions 3
intact 3
integrity 3
intellectually 3
intensity 3
intention 3
intentionally 3
intercept 3
internally 3
internationally 3
interpre@@ 3
interrogation 3
intervals 3
intervention 3
intol@@ 3
invasion 3
inventor 3
inventories 3
ir 3
ira 3
ire 3
ironic 3
isol@@ 3
itation 3
ite 3
iti 3
ities 3
ize 3
ized 3
ja 3
jan 3
joining 3
joked 3
journals 3
judiciary 3
justified 3
ka 3
kar@@ 3
kat@@ 3
keys 3
kne@@ 3
knocking 3
kovic 3
lab@@ 3
lap@@ 3
large-scale 3
lasting 3
lat@@ 3
lately 3
laughing 3
laun@@ 3
laureate 3
lawmaker 3
lay@@ 3
lazy 3
leaning 3
legislators 3
legitimate 3
lengthy 3
lessly 3
lesson 3
lett 3
lever@@ 3
liability 3
liberty 3
licenses 3
licensing 3
lier 3
lieutenant 3
lifetime 3
lifted 3
likened 3
limitations 3
linchpin 3
lis 3
list@@ 3
listening 3
literature 3
liv@@ 3
locker 3
log 3
logical 3
lovely 3
lover 3
loyal 3
lying 3
lyrics 3
macro@@ 3
mad@@ 3
magnate 3
magnetic 3
maintaining 3
maintains 3
mandatory 3
manner 3
manners 3
manual 3
manufactures 3
map 3
marathon 3
marry 3
masters 3
may@@ 3
meal 3
meaningful 3
measuring 3
medi@@ 3
memories 3
mer 3
merely 3
meter 3
method 3
mice 3
midday 3
midfield 3
milestone 3
militia 3
miserable 3
mistakes 3
mob 3
momentum 3
monitors 3
motor@@ 3
motorcycle 3
mounting 3
mud@@ 3
multimedia 3
mum@@ 3
mushrooms 3
my@@ 3
narrative 3
narrow 3
nationally 3
neck 3
negotiated 3
negotiating 3
negotiator 3
neighborhoods 3
neighbours 3
nektar.com 3
ner@@ 3
nervous 3
nets 3
neur@@ 3
newscast 3
neys 3
nic@@ 3
nicely 3
night@@ 3
nightclub 3
nightly 3
nik 3
nominees 3
non 3
non- 3
noon 3
north-@@ 3
notebook 3
noticed 3
notified 3
object 3
obsessions 3
obstacles 3
occasionally 3
occurs 3
oct@@ 3
od 3
offseason 3
ological 3
oma 3
onably 3
one-day 3
oners 3
onic 3
opener 3
oping 3
optimistic 3
orate 3
ordering 3
ordinary 3
ore 3
ores 3
organize 3
organizers 3
organizing 3
origin 3
ounce 3
out-@@ 3
outcome 3
outcomes 3
outlets 3
outpost 3
output 3
outrage 3
outskirts 3
ov@@ 3
ovation 3
overhead 3
override 3
overs 3
overseeing 3
oversees 3
oxy@@ 3
p-@@ 3
pace 3
packs 3
pact 3
paintings 3
pal@@ 3
pan@@ 3
pand@@ 3
paperwork 3
parade 3
parenting 3
parks 3
parl@@ 3
partition 3
passage 3
passion 3
patches 3
pay-per-@@ 3
payable 3
payout 3
payroll 3
ped@@ 3
pedi@@ 3
pending 3
pepper 3
perception 3
perfectly 3
period-end 3
pers 3
persuaded 3
philosophy 3
photo@@ 3
photographer 3
photography 3
pic@@ 3
pickup 3
pies 3
pinch 3
pit 3
pitcher 3
pizza 3
placement 3
plain 3
planet 3
plotted 3
plun@@ 3
poetry 3
poised 3
polio 3
poly@@ 3
pools 3
popping 3
populations 3
portray 3
ports 3
posed 3
poss@@ 3
possibility 3
poster 3
posters 3
posting 3
pot 3
powder 3
power-@@ 3
pped 3
pper 3
pping 3
praise 3
pray 3
precautions 3
predic@@ 3
premises 3
prepare 3
presided 3
pressing 3
pressured 3
presumably 3
prey 3
pricing 3
principals 3
procedures 3
produces 3
prohi@@ 3
promo@@ 3
promotes 3
promotion 3
pronounced 3
prosecu@@ 3
prosecute 3
prosperous 3
proteins 3
provoke 3
psychology 3
pt 3
pub 3
publisher 3
pulls 3
pump 3
punish 3
punishment 3
puts 3
py 3
qualify 3
quarterbacks 3
queen 3
questionable 3
questionnaire 3
quotas 3
radical 3
radioactive 3
rah 3
railway 3
rainy 3
raises 3
ral 3
rallies 3
random 3
ranking 3
rankings 3
rated 3
ratify 3
react 3
reaction 3
reactions 3
rebuilding 3
receives 3
recognition 3
recognizes 3
recommending 3
recruiting 3
refers 3
refinery 3
refining 3
reflective 3
refugee 3
relegated 3
reliance 3
relies 3
relieved 3
rell 3
rely 3
relying 3
remark@@ 3
reminded 3
reminder 3
rend@@ 3
renewable 3
renewed 3
reopen 3
repairs 3
repe@@ 3
replacements 3
replic@@ 3
replicate 3
representation 3
repris@@ 3
requirement 3
rescu@@ 3
rescued 3
researched 3
resolved 3
reson@@ 3
respects 3
respondents 3
restored 3
restric@@ 3
restructuring 3
resume 3
retain 3
retake 3
revered 3
reverse 3
reviewed 3
reward 3
rey 3
rice 3
risen 3
robot 3
roc@@ 3
rock@@ 3
roll 3
rolls 3
romance 3
roof 3
root 3
roots 3
roster 3
rout 3
routes 3
rows 3
rubber 3
rud@@ 3
rulers 3
run-@@ 3
runner 3
runners 3
runway 3
s.@@ 3
s.com 3
salmon 3
salt 3
salu@@ 3
salv@@ 3
sang 3
satisfactory 3
scal@@ 3
scares 3
sco@@ 3
scooters 3
scope 3
scoreless 3
scratched 3
script 3
scrutiny 3
sealed 3
seamless 3
searchers 3
seas@@ 3
season-@@ 3
seasoned 3
sectarian 3
seeds 3
self 3
self-imposed 3
sely 3
semester 3
semi@@ 3
sends 3
sentiment 3
separated 3
separatist 3
sett@@ 3
settled 3
sexu@@ 3
shack@@ 3
shaft 3
shaking 3
shaped 3
shifted 3
shim@@ 3
shiny 3
shipped 3
shirt 3
shor@@ 3
shore 3
short-term 3
short@@ 3
shortages 3
shortest 3
shout 3
shouting 3
shower 3
shutout 3
si 3
sick 3
silence 3
singing 3
sion 3
sisters 3
sitcom 3
sits 3
six@@ 3
sized 3
skeptical 3
skies 3
slam 3
slated 3
sleeve 3
slept 3
slide 3
slogan 3
slot 3
sman 3
smar@@ 3
smooth 3
sn@@ 3
snap 3
snapped 3
snow@@ 3
soared 3
socially 3
solar 3
sole 3
soli@@ 3
solic@@ 3
song@@ 3
sooner 3
sounding 3
southwestern 3
sovere@@ 3
spacecraft 3
sparks 3
speculative 3
spell 3
spends 3
spilled 3
spinning 3
spirited 3
spl@@ 3
splits 3
spor@@ 3
sprain 3
sprawling 3
spreading 3
squeeze 3
squeezed 3
ss 3
staffers 3
stamp 3
standings 3
standoff 3
starring 3
starters 3
statues 3
stays 3
steam 3
steep 3
ster@@ 3
sters 3
stick 3
sticks 3
sting 3
stole 3
stop@@ 3
stops 3
strang@@ 3
strategist 3
straw 3
stretches 3
strip 3
stro@@ 3
stumbled 3
stupid 3
sty@@ 3
sub 3
subjects 3
submitted 3
subpo@@ 3
substance 3
substitutes 3
suburbs 3
succeeded 3
successfully 3
succession 3
successive 3
succumbed 3
sudden 3
suggesting 3
sultry 3
sun 3
sun@@ 3
sundown 3
sunlight 3
supermarket 3
supplied 3
supplier 3
supportive 3
surgical 3
surplus 3
surrender 3
surveillance 3
suspicious 3
sustainability 3
swept 3
sy 3
symptoms 3
tables 3
tale 3
talented 3
tank 3
tanks 3
tap 3
tapped 3
tation 3
taught 3
tax@@ 3
taxi 3
tea 3
teammate 3
tear 3
technique 3
techniques 3
tee 3
teenage 3
tenant 3
tended 3
tends 3
tened 3
tenure 3
terminology 3
terrible 3
testament 3
testi@@ 3
th- 3
thank@@ 3
theatre 3
then-@@ 3
therap@@ 3
thetic 3
third-and-@@ 3
third-party 3
thorough 3
three-day 3
three-run 3
throne 3
throws 3
ti 3
tical 3
tightening 3
tin 3
tion-@@ 3
tional 3
tired 3
tis 3
titled 3
tiveness 3
toilet 3
ton@@ 3
tonnes 3
top@@ 3
touch@@ 3
touched 3
touches 3
tournaments 3
tracking 3
tragedy 3
trail 3
trail@@ 3
trailed 3
trainers 3
transi@@ 3
transparency 3
transparent 3
transplant 3
traumatic 3
travels 3
treating 3
treatments 3
tremendous 3
tric 3
triggered 3
triumph 3
triumphant 3
trum@@ 3
trunk 3
ts@@ 3
tumors 3
tune 3
tuning 3
ture 3
tures 3
turmoil 3
two-year 3
ular 3
ulation 3
uncertainty 3
unclear 3
undertaken 3
undertakes 3
unexpectedly 3
unhappy 3
uniforms 3
unilaterally 3
unle@@ 3
unofficial 3
unpredictable 3
unusually 3
unveiled 3
unwelcome 3
up-@@ 3
upgrade 3
upheld 3
upscale 3
uring 3
useless 3
utilities 3
vable 3
vaccinations 3
vaccines 3
val 3
valu@@ 3
valuable 3
van@@ 3
vanish 3
vegetables 3
vendors 3
ventures 3
venue 3
venues 3
ver 3
verge 3
videot@@ 3
vie 3
viewing 3
vigil 3
villages 3
violated 3
violently 3
virtue 3
visa 3
visibility 3
visible 3
vivid 3
void 3
vs 3
vs. 3
wanting 3
warheads 3
wary 3
was@@ 3
waved 3
waves 3
weaker 3
weal@@ 3
wealth 3
weed 3
weeklong 3
weigh@@ 3
weighted 3
wells 3
wers 3
west-northwest 3
wheelchairs 3
whist@@ 3
white-@@ 3
wicket 3
wickets 3
wild-card 3
wildfire 3
wildlife 3
wings 3
wishes 3
wit@@ 3
witch 3
wives 3
world-class 3
wounding 3
wrest@@ 3
yarder 3
yer 3
youngsters 3
za 3
zen 3
zi@@ 3
zinc 3
zoo 3
'Connell 2
'Hara 2
'Malley 2
'Neal 2
'mon 2
,000-@@ 2
-D@@ 2
-T@@ 2
-bound 2
-by-@@ 2
-funded 2
.N 2
.O 2
0-3 2
0-for-@@ 2
0.01 2
0.03 2
0.07 2
0.09 2
0.11 2
0.1810 2
0.1905 2
0.22 2
0.23 2
0.25 2
0.28 2
0.33 2
0.35 2
0.37@@ 2
0.47 2
0.51 2
0.53 2
0.61 2
0.65 2
0.7@@ 2
0.85 2
0.97 2
0.98 2
08@@ 2
1,050 2
1,078 2
1,124 2
1,136 2
1,17@@ 2
1,300 2
1,344,962 2
1,351 2
1,591 2
1,700 2
1,916 2
1,998 2
1-yard 2
1.00 2
1.02 2
1.16 2
1.35 2
1.36@@ 2
1.40 2
10,493 2
10,554 2
10,558 2
10,664 2
10,950 2
10-12 2
10.05 2
10.3 2
10.4 2
10.@@ 2
100.@@ 2
109 2
11,559 2
11.7 2
116.@@ 2
118 2
119.@@ 2
11th 2
12,000 2
12,0@@ 2
12,3@@ 2
128 2
13,086 2
13,369 2
13,641 2
13,6@@ 2
13th 2
14,083 2
14,127,000 2
14,446 2
14,631 2
14,834 2
14-0 2
14-year-old 2
14.6 2
144 2
149,@@ 2
14th 2
15,397 2
15,7@@ 2
150,000 2
150,9@@ 2
157 2
15th 2
16,000 2
16,759 2
16-year-old 2
160 2
163 2
17,000 2
17-year-old 2
170 2
171 2
172,357 2
175 2
175,@@ 2
176@@ 2
178,487 2
18,486 2
18,9@@ 2
18-hour 2
18-year-old 2
180,000 2
188 2
18th 2
19,019 2
19-@@ 2
19.5 2
1904 2
191 2
1915 2
1922 2
193 2
1930s 2
1939 2
195 2
1952 2
1964 2
1965 2
1966 2
1974 2
1975 2
1976 2
1977 2
1985 2
1999-@@ 2
19th 2
2,200 2
2,234 2
2,253 2
2,260 2
2,261 2
2,348,159 2
2,370,889 2
2,442,318 2
2,500 2
2,545,739 2
2,567,638 2
2,609,744 2
2,60@@ 2
2,709 2
2,893,861 2
2,935,448 2
2,996 2
2- 2
2-3 2
2-7 2
2-yard 2
2.04@@ 2
2.1 2
2.40 2
2.6 2
2.9 2
20,@@ 2
20.6 2
2002-@@ 2
2010 2
2014 2
2017 2
204780 2
205 2
21,000 2
21,172 2
21,8@@ 2
21-@@ 2
21-year-old 2
210 2
212-845-4@@ 2
22,141 2
22,328 2
22,482 2
22,5@@ 2
22,932 2
22,@@ 2
22-@@ 2
22-year-old 2
228,346 2
229,500 2
22nd 2
23,505 2
23,6@@ 2
23,7@@ 2
23-year-old 2
230 2
232-@@ 2
24,0@@ 2
24,491 2
240,000 2
241 2
245,652 2
245,794 2
245,864 2
246,287 2
246,400 2
246,449 2
25,580 2
25.5 2
252 2
253 2
256 2
259,0@@ 2
26.@@ 2
260 2
263,694 2
265,048 2
265,129 2
265,136 2
266 2
269 2
26th 2
270 2
275 2
277 2
28,124 2
28,854 2
29,324 2
29.@@ 2
29@@ 2
3,00@@ 2
3,236,964 2
3,28@@ 2
3,324,514 2
3,3@@ 2
3,431,208 2
3,627,739 2
3,750,844 2
3,789,634 2
3-Point 2
3.17 2
3.45 2
3.5 2
3.55 2
3.67 2
3.67@@ 2
3.73@@ 2
3.77 2
3.92 2
30,000 2
30,813 2
302007 2
304 2
31-@@ 2
31-year-old 2
31.@@ 2
318 2
32,063 2
329 2
33,5@@ 2
33.@@ 2
34,@@ 2
34.@@ 2
340 2
340,162 2
346 2
350-@@ 2
351,412 2
36-year-old 2
36.@@ 2
363,409 2
365 2
38,@@ 2
39,000 2
39,3@@ 2
390 2
398 2
3x 2
4,0@@ 2
4,186,000 2
4,2@@ 2
4,400 2
4,500 2
4,84@@ 2
4-1 2
4-6 2
4.46 2
4.47 2
4.5 2
4.54 2
4.67 2
4.75 2
4.8 2
4.99 2
40-year-old 2
41,031 2
42,7@@ 2
42-year-old 2
429 2
42nd 2
43-year-old 2
43.@@ 2
44,@@ 2
45-0521 2
45-year-old 2
456,769 2
47-@@ 2
471,911 2
478 2
479,584 2
48-@@ 2
480 2
481,734 2
486,928 2
490 2
490,564 2
4m 2
5,207 2
5,264 2
5,659 2
5,7@@ 2
5-1 2
5.2 2
5.28 2
5.8 2
5.99 2
500,000 2
5000 2
505 2
509 2
50s 2
51,3@@ 2
513 2
517,193 2
52,158 2
52,359 2
52,@@ 2
52.4 2
521,089 2
522,409 2
526,475 2
52@@ 2
533 2
538 2
542 2
543 2
55,000 2
55,@@ 2
55-@@ 2
55-year-old 2
556 2
55th 2
566,772 2
58,937 2
584 2
6,582 2
6,587 2
6,7@@ 2
6,8@@ 2
6-0 2
6-3 2
6-7 2
6-foot-@@ 2
6.02 2
6.20 2
6.24 2
6.3 2
6.99 2
60,680 2
60,8@@ 2
60-@@ 2
608 2
60th 2
61.3 2
613 2
619 2
62,3@@ 2
62,6@@ 2
62@@ 2
630 2
632,137 2
632,532 2
634,019 2
65,019 2
65,@@ 2
66-@@ 2
665 2
67,@@ 2
67-year-old 2
671,210 2
679 2
690 2
6th 2
7,0@@ 2
7,610 2
7,6@@ 2
7,802 2
7-6 2
7-year-old 2
7.05 2
7.08 2
7.18 2
7.22 2
7.5 2
7.87 2
7.96 2
70,000 2
70,@@ 2
70@@ 2
715 2
72,@@ 2
729 2
739.@@ 2
74,000 2
75,@@ 2
75.@@ 2
750,000 2
769 2
77.9 2
77@@ 2
79,230 2
8,194 2
8,279 2
8,4@@ 2
8,924 2
8.1 2
8.4 2
80-@@ 2
807,618 2
80s 2
81-@@ 2
82@@ 2
84,885 2
85.@@ 2
850 2
87,000 2
870 2
873,670 2
877-@@ 2
87@@ 2
9,000 2
9,400 2
9,915 2
9,@@ 2
9.3 2
9.45 2
9.77 2
9.8 2
9.91 2
90,6@@ 2
90,@@ 2
90@@ 2
918 2
92-@@ 2
92007 2
92@@ 2
93.@@ 2
942,150 2
95,14@@ 2
95.@@ 2
958,605 2
96@@ 2
973 2
97@@ 2
980,000 2
98@@ 2
99.@@ 2
AAA 2
AB@@ 2
ABIL@@ 2
ADS 2
AF 2
AI 2
APA 2
ASU 2
AT 2
ATF 2
ATK 2
ATS 2
AU@@ 2
AYP 2
AZ@@ 2
Abdoulaye 2
Abdul 2
Abe@@ 2
Able 2
Abraham 2
Abramovich 2
Academic 2
Accounting 2
Accru@@ 2
Accumulated 2
Acquisition 2
Adamson 2
Adap@@ 2
Additionally 2
Adjusted 2
Adm. 2
Administr@@ 2
Adri@@ 2
Adrian 2
Adv@@ 2
Advanced 2
Aerospace 2
African-American 2
Afterward 2
Afterwards 2
Against 2
Ah@@ 2
Aidan 2
Aim 2
Ain 2
Aires 2
Aj@@ 2
Al-Bashir 2
Al-Qaeda 2
Ala 2
Alban@@ 2
Albanian 2
Aldridge 2
Alec 2
Alevi 2
Alex@@ 2
Alexandra 2
Alexandria 2
Alistair 2
All-Star 2
Alstead 2
Alt@@ 2
Alternate 2
Alternative 2
Americas 2
Amos 2
Amund@@ 2
Anat@@ 2
Anci@@ 2
Ander@@ 2
Andre 2
Andreas 2
Angel@@ 2
Anglican 2
Animal 2
Anni@@ 2
Answ@@ 2
Antarc@@ 2
Any@@ 2
Apart 2
Apartment 2
Appeals 2
Arab@@ 2
Arabic 2
Arabs 2
Arafat 2
Arena 2
Ari@@ 2
Armen@@ 2
Arms 2
Arnaud 2
Arnold 2
Aru@@ 2
Asdrubal 2
Ashfaq 2
Ashraf 2
Ashton 2
Asi@@ 2
Asma 2
Asp@@ 2
Assad 2
Assassination 2
Astaire 2
Astana 2
Astron@@ 2
Atapattu 2
Athletic 2
Atkinson 2
Attack 2
Attention 2
Audi 2
Australians 2
Auth@@ 2
Autism 2
Auto 2
Auto@@ 2
Avail@@ 2
Aviv 2
Avon 2
Awar@@ 2
Away 2
Ax@@ 2
Ayatollah 2
Azim 2
B-52 2
B04 2
BA 2
BA@@ 2
BALANCE 2
BALANCES 2
BANGKOK 2
BB@@ 2
BIO@@ 2
BM@@ 2
BO@@ 2
BOSTON 2
BST 2
BUR@@ 2
BURL@@ 2
Babies 2
Babineaux 2
Back@@ 2
Backed 2
Backstrom 2
Bad@@ 2
Baer 2
Bai 2
Bal@@ 2
Balasore 2
Bali 2
Ballet 2
Band 2
Bangkok 2
Banglad@@ 2
Baq@@ 2
Barb@@ 2
Barbie 2
Barbour 2
Baron 2
Barre 2
Bartlett 2
Baryshnikov 2
Bash@@ 2
Basketball 2
Battle 2
Battlestar 2
Bay@@ 2
Beale 2
Bear@@ 2
Beau@@ 2
Bec@@ 2
Beck 2
Becomes 2
Beg@@ 2
Beginning 2
Beirut 2
Belgium 2
Beli@@ 2
Bene@@ 2
Benedict 2
Benefit 2
Bengals 2
Benn@@ 2
Benoit 2
Berkeley 2
Bern@@ 2
Bernstein 2
Besiktas 2
Beslan 2
Bet@@ 2
Betr@@ 2
Biff 2
Biggest 2
Bilingual 2
Bill@@ 2
Billionaire 2
Billions 2
Bills 2
Bin 2
Bin@@ 2
Bio@@ 2
Bis@@ 2
Bites 2
Bjorkman 2
BlackRock 2
Blacks 2
Blackwell 2
Blanchett 2
Blanco 2
Blechschmidt 2
Bloc@@ 2
Blocks 2
Blog 2
Bloom@@ 2
Bluffs 2
Boca 2
Bolivia 2
Bollinger 2
Bolton 2
Bomb@@ 2
Bombay 2
Bombing 2
Bone 2
Book@@ 2
Books 2
Boras 2
Born 2
Borough 2
Bosco 2
Bosnian 2
Boston-@@ 2
Bottom 2
Boulerice 2
Boulevard 2
Bourque 2
Branch 2
Brand@@ 2
Braveheart 2
Breast 2
Breyer 2
Brigadier 2
Brinkley 2
Bristol 2
Brit@@ 2
Broad 2
Brock@@ 2
Bron@@ 2
Brookfield 2
Bros 2
Browne 2
Brum@@ 2
Brun@@ 2
Brunswick 2
Brussels 2
Buckinghamshire 2
Buddha 2
Buddy 2
Budget 2
Budhabalanga 2
Buenos 2
Bulger 2
Bull 2
Bull@@ 2
Bullock 2
Bulls 2
Bund@@ 2
Buoyed 2
Burg@@ 2
Burlington 2
Burn@@ 2
Burns 2
Buy 2
By@@ 2
C.D. 2
C.R. 2
C11 2
CA@@ 2
CAGR 2
CAPE 2
CCCCQQ 2
CD@@ 2
CE 2
CHANGE 2
CHESTER 2
CHINA 2
CI 2
CIO 2
CN@@ 2
COLO@@ 2
CPR 2
CR 2
CTI@@ 2
CW 2
Cablevision 2
Cabo 2
Caesar 2
Cag@@ 2
Cah@@ 2
Cairo 2
Calif.-based 2
Californian 2
Call@@ 2
Called 2
Calzaghe 2
Cam 2
Cambodian 2
Camor@@ 2
Camp@@ 2
Canc@@ 2
Cand@@ 2
Capitol 2
Caracas 2
Cargill 2
Cari@@ 2
Carol@@ 2
Carrington 2
Cars 2
Cashmore 2
Casino 2
Cass@@ 2
Cassell 2
Cast 2
Castle 2
Caterpillar 2
Cath@@ 2
Cato 2
Cau@@ 2
Caucasus 2
Caused 2
Cavall@@ 2
Cave 2
Ce@@ 2
Cec@@ 2
Celebrity 2
Cell 2
Celsius 2
Cen@@ 2
Centr@@ 2
Centre 2
Century 2
Ch 2
Chad 2
Chadian 2
Chal@@ 2
Chall@@ 2
Cham@@ 2
Chamber 2
Champions 2
Chanel 2
Chapmanville 2
Chargers 2
Charlene 2
Chateau 2
Chel@@ 2
Chemicals 2
Cheryl 2
Ches@@ 2
Cheshire 2
Chester@@ 2
Chic@@ 2
Chidambaram 2
Chien-Ming 2
Childs 2
Chinese-@@ 2
Chips 2
Cho 2
Choir 2
Christianity 2
Christopher 2
Chronicle 2
Chur@@ 2
Circuit 2
Citation 2
Citi 2
Clarksburg 2
Clau@@ 2
Cler@@ 2
Cleve 2
Client 2
Clifford 2
Clinical 2
Clippers 2
Clooney 2
Clove 2
Cly@@ 2
Cob@@ 2
Coca-Cola 2
Coch@@ 2
Cohen 2
Cointreau 2
Col. 2
Cole 2
Colin 2
Collapsed 2
Collings 2
Collingwood 2
Columbus 2
Comcast 2
Comedy 2
Comm@@ 2
Comment 2
Comment@@ 2
Commissioners 2
Commonwealth 2
Communion 2
Companies 2
Companion 2
ConAgra 2
Confidence 2
Conne@@ 2
Conrad 2
Conservancy 2
Consolidating 2
Contact 2
Continental 2
Contract 2
Controls 2
Convention 2
Conventions 2
Convicted 2
Coo@@ 2
Cookie 2
Cooper 2
Cooperation 2
Cornwall 2
Corporate 2
Corry 2
Costa 2
Costas 2
Costs 2
Cott@@ 2
Coul@@ 2
Course 2
Courtney 2
Courts 2
Cove 2
Cox 2
Crashed 2
Crew 2
Criminal 2
Cristina 2
Croatia 2
Croatian 2
Crocs 2
Crops 2
Cross@@ 2
Crossing 2
Crowe 2
Cru@@ 2
Crude 2
Cruise 2
Cruz 2
Culpepper 2
Cultural 2
Cumbria 2
Curbing 2
Currie 2
Customer 2
Cyprus 2
D-N.Y. 2
D.@@ 2
DALLAS 2
DATA 2
DER@@ 2
DES 2
DH 2
DNA-binding 2
DO@@ 2
DP@@ 2
DRC 2
DaVita 2
DaimlerChrysler 2
Dalai 2
Daley 2
Daly 2
Dam 2
Damascus 2
Damon 2
Dana 2
Dancing 2
Danny 2
Darius 2
Darling 2
Dart 2
Davenport 2
Dawn 2
Day@@ 2
Dayton 2
DeGeneres 2
DeMarcus 2
Dealer 2
Dear 2
Debra 2
Decision 2
Decorative 2
Deep@@ 2
Def 2
Deleg@@ 2
Delgado 2
Democracy 2
Demonstr@@ 2
Dep@@ 2
Depreciation 2
Depres@@ 2
Depression 2
Describing 2
Designer 2
Desperate 2
Details 2
Dhaliwal 2
Dhar@@ 2
Diabetes 2
Dial 2
Diamond 2
Diamondbacks 2
Diane 2
Diaz 2
Died 2
Dies 2
Differ@@ 2
Dir@@ 2
Direct@@ 2
Directed 2
Dirt 2
Disaster 2
Discovery 2
Dismissed 2
Disrup@@ 2
Disrupted 2
Diversity 2
Divid@@ 2
Dock 2
Doctor 2
Document 2
Document@@ 2
Dodge 2
Dog@@ 2
Doing 2
Dol@@ 2
Doll@@ 2
Dolls 2
Dom@@ 2
Doomsday 2
Dou@@ 2
Douglas 2
Doyle 2
Draganchuk 2
Drivers 2
Dro@@ 2
Dru@@ 2
DubaiSat-1 2
Ducati 2
Duchess 2
Due 2
Dundee 2
Duran 2
Durant 2
Dwight 2
Dylan 2
EA 2
EADS 2
EAST 2
EBITDA 2
EBay 2
EC@@ 2
ECB 2
ED@@ 2
EDT 2
EIAST 2
EIS 2
EMC 2
END 2
ENDED 2
ESP@@ 2
ESPN 2
EU-@@ 2
EUR 2
EXPENSES 2
Earth@@ 2
Econom@@ 2
Economists 2
Ecuador 2
Eddy 2
Edith 2
Editor 2
Editorial 2
Efforts 2
Ei@@ 2
Eid 2
Eisenhower 2
ElBaradei 2
Ele@@ 2
Eleanor 2
Electricity 2
Electronic 2
Eleven 2
Eliot 2
Elizabeths 2
Ell@@ 2
Ellison 2
Elsewhere 2
Employers 2
Eng@@ 2
Engine 2
Engineers 2
Enjoy 2
Enright 2
Enter@@ 2
Entrepreneurs 2
Environmental 2
Envoy 2
Episcopal 2
Epperly 2
Epson 2
Erdogan 2
Eriksson 2
Erin 2
Erlanger 2
Ernest 2
Ernst 2
Esc@@ 2
Esk@@ 2
Especially 2
Essex 2
Est@@ 2
Este@@ 2
Ethics 2
Eurostar 2
Eve 2
Evert 2
Everton 2
Every@@ 2
Excellence 2
Except 2
Excluding 2
Experian 2
Exploration 2
Expo 2
Expressed 2
Extreme 2
Exxon 2
F-@@ 2
F.D.A. 2
FCC 2
FD@@ 2
FFO 2
FG 2
FIA 2
FIFA 2
FOXNews.com 2
FY2007 2
FY2008 2
Fac@@ 2
Facili@@ 2
Factors 2
Fair@@ 2
Fairfax 2
Fannie 2
Farmer 2
Farmers 2
Farms 2
Farr 2
Fas@@ 2
Fau@@ 2
Fear@@ 2
Fellows 2
Fent@@ 2
Fenway 2
Ferr@@ 2
Ferrari 2
Ferriss 2
Fewer 2
Fielder 2
Fif@@ 2
Fiji 2
Films 2
Find 2
Fink 2
Fisher-Price 2
Fiskars 2
Fit 2
Fitch 2
Fitzgerald 2
Flags 2
Flanagan 2
Flavor 2
Fletcher 2
Flex@@ 2
Flintoff 2
Flo@@ 2
Flowing 2
Fly 2
Flynn 2
Fogh 2
Fol@@ 2
Foot 2
Forec@@ 2
Forecast 2
Forfar 2
Form@@ 2
Fort 2
Foster 2
Found 2
Francoeur 2
Francon@@ 2
Frankfurt 2
Fraser 2
Freddie 2
Friedgen 2
Friedl 2
Friendship 2
Front 2
Fru@@ 2
Fuel 2
Ful@@ 2
Funds 2
Furn@@ 2
Further 2
Furyk 2
Future@@ 2
GDP 2
GE@@ 2
GEN@@ 2
GMT 2
GT-R 2
Gabriel 2
Gam@@ 2
Gandhi 2
Gap 2
Garcia 2
Gareth 2
Garry 2
Gas@@ 2
Gasquet 2
Gat@@ 2
Gateway 2
Gatherings 2
Gatorade 2
Gay 2
Gene@@ 2
Genetic 2
Geo 2
Geographic 2
Gerald 2
Gerard 2
Gerson 2
Gets 2
Ghanem 2
Gibson 2
Gill 2
Gilmore 2
Gilmour 2
Gilroy 2
Gipp 2
Gir@@ 2
Gis@@ 2
Give 2
Glen 2
Globe 2
Goals 2
Gog@@ 2
Gold@@ 2
Golf 2
Golo@@ 2
Gomez 2
Gong 2
Gonzalez 2
Gooden 2
Goth@@ 2
Gould 2
Govan 2
Govern@@ 2
Governments 2
Grammy 2
Granderson 2
Granta 2
Greene 2
Gri@@ 2
Griff@@ 2
Griffey 2
Grizz@@ 2
Gro@@ 2
Gross 2
Ground 2
Grow@@ 2
Growers 2
Guantánamo 2
Guard@@ 2
Guardian 2
Guests 2
Guillaume 2
Gwaltney 2
Gwinnett 2
HAV@@ 2
HD-@@ 2
HER2-positive 2
HERO 2
HIV-@@ 2
HR 2
Hadi@@ 2
Haitian 2
Halloween 2
Hamp@@ 2
Han 2
Hand@@ 2
Hanlon 2
Happy 2
Haqqani 2
Hard 2
Hariri 2
Harkin 2
Harlem 2
Harrington 2
Hartley 2
Haru@@ 2
Harvard 2
Hash@@ 2
Hassan 2
Hau@@ 2
Hawk 2
Hawker 2
Haynes 2
Hayward 2
Headquarters 2
Heads 2
Healy 2
Hear@@ 2
Heart 2
Heat 2
Heaven 2
Hebei 2
Hebert 2
Hectares 2
Hed@@ 2
Heights 2
Heineken 2
Hel@@ 2
Hell 2
Helms 2
Helmsley 2
Helsinki 2
Helton 2
Hen@@ 2
Henin 2
Henley 2
Hepatitis 2
Her@@ 2
Herald 2
Heritage 2
Hern@@ 2
Hershey 2
Hewitt 2
Hick@@ 2
Hicks 2
Highway 2
Hij@@ 2
Hindus 2
Hir@@ 2
Hiro@@ 2
Hirschfeld 2
Historians 2
Hit@@ 2
Hits 2
Hoch@@ 2
Hoffman 2
Hokies 2
Holl@@ 2
Hollen 2
Holloway 2
Holy 2
Holy@@ 2
Hom@@ 2
Home@@ 2
Homes 2
Honduras 2
Honor 2
Hook 2
Hop@@ 2
Horizons 2
Huet 2
Huff@@ 2
Hull 2
Humberto 2
Humph@@ 2
Hurdle 2
Hutto 2
Hutton 2
Hy@@ 2
Hyatt 2
IA 2
IA@@ 2
IBAB.@@ 2
IBC 2
ICs 2
ID 2
IMF 2
INFORMATION 2
INRIX 2
IO@@ 2
IPCC 2
IR@@ 2
IRS 2
IT@@ 2
ITV 2
IV@@ 2
Ibrahim 2
Id 2
Id@@ 2
Iggy 2
Il@@ 2
Ill@@ 2
Ilya 2
Impairment 2
Imports 2
Improve 2
Including 2
Increasing 2
Ind@@ 2
Index 2
Industrial 2
Ing@@ 2
Initi@@ 2
Initial 2
Injured 2
Innov@@ 2
Inspection 2
Interest-bearing 2
Internal 2
Interstate 2
IoD 2
Iqbal 2
Iranians 2
Ironically 2
Irwin 2
Islam@@ 2
Israeli-Palestinian 2
Israeli@@ 2
Italian-@@ 2
Itar-Tass 2
Ivan@@ 2
Ivy 2
J.@@ 2
JUNE 2
Jac@@ 2
Jag@@ 2
Jagr 2
Jam 2
Jamai@@ 2
Janet 2
Jaroslaw 2
Jarvis 2
Javed 2
Javier 2
Jay-Z 2
Jazz 2
Jehangir 2
Jell-@@ 2
Jen 2
Jenny 2
Jermain 2
Jimenez 2
Jo 2
Joel 2
Joey 2
Johannesburg 2
Johansson 2
John@@ 2
Johnny 2
Johns 2
Johnston 2
Jon@@ 2
Jonny 2
Jorge 2
José 2
Jud@@ 2
Judicial 2
Julio 2
Jun@@ 2
Juni@@ 2
Jurors 2
K. 2
KE 2
KE@@ 2
KET 2
KFC 2
KGB 2
KI@@ 2
KOCH 2
Ka@@ 2
Kab@@ 2
Kahle 2
Kai@@ 2
Kaiser 2
Kallis 2
Kap@@ 2
Karen 2
Kat@@ 2
Katie 2
Keating 2
Kel@@ 2
Kendrapara 2
Kenyan 2
Ker@@ 2
Kerr 2
Ket@@ 2
Kh@@ 2
Khalis 2
Khamenei 2
Khmer 2
Kickoff 2
Kid 2
Kidd 2
Kill 2
Killings 2
Kim@@ 2
Kingsley 2
Kingston 2
Kippur 2
Kirk 2
Kit 2
Kit@@ 2
Kiwanuka 2
Kiyani 2
Klein 2
Know 2
Knowles 2
Known 2
Knox 2
Konstantin 2
Korn@@ 2
Kosuke 2
Kouchner 2
Kovalchuk 2
Kravis 2
Krist@@ 2
Kucinich 2
Kul@@ 2
Kumble 2
Kun@@ 2
Kurds 2
Kuyper 2
Kuznet@@ 2
Kwame 2
Kyodo 2
LAN 2
LAR@@ 2
LCD 2
LD@@ 2
LE@@ 2
LES 2
LLP 2
LOAN 2
LOSS 2
LY 2
LaSalle 2
Lab@@ 2
Lach@@ 2
Lag@@ 2
Lagos 2
Lah@@ 2
Lak@@ 2
Lam@@ 2
Lama 2
Lamar 2
Lambert 2
Lane 2
Lang 2
Langham 2
Lanier 2
Lantos 2
Larijani 2
Larson 2
Lat@@ 2
Lately 2
Laura 2
Laurence 2
Law@@ 2
Lawmakers 2
Lay 2
Le 2
Leaders 2
Leading 2
Leads 2
Leakey 2
Leaves 2
Leavitt 2
Led 2
Leeds 2
Legendary 2
Leggett 2
Legion 2
Legislature 2
Lehmann 2
Lein@@ 2
Lennon 2
Lenny 2
Les 2
Les@@ 2
Letterman 2
Lev@@ 2
Levi 2
Levinson 2
Libby 2
Lic@@ 2
Ligh@@ 2
Lil@@ 2
Lind@@ 2
Linda 2
Lindsey 2
Lines 2
Link@@ 2
Lisa 2
Listing 2
Litigation 2
Liu 2
LiveScience 2
Llan@@ 2
Lob@@ 2
Loc@@ 2
Lof@@ 2
Log@@ 2
Lohan 2
Lon@@ 2
Look 2
Looking 2
Loren 2
Lost 2
Lots 2
Lottery 2
Lotus 2
Lou 2
Loudoun 2
Low@@ 2
Lower 2
Lt. 2
Luciano 2
Lucio 2
Lucky 2
Lufthansa 2
Lun@@ 2
Lund@@ 2
Luther 2
Lux@@ 2
Ly@@ 2
Lyon 2
Lyons 2
MAN@@ 2
MBE 2
MDU 2
MDV@@ 2
ME@@ 2
MINNEAPOLIS 2
MOINES 2
MONTHS 2
MOUNTAIN 2
MP3tunes 2
MPs 2
MSP 2
MTH 2
MacDonald 2
Machimura 2
Macy 2
Mae 2
Mafia 2
Magg@@ 2
Magn@@ 2
Mahela 2
Mahmoud 2
Mai@@ 2
Main@@ 2
Majority 2
Makes 2
Making 2
Malamud 2
Malaysian 2
Manassas 2
Mandatory 2
Mangini 2
Manilow 2
Mann 2
Mann@@ 2
Mantle 2
Manuel 2
Manzanillo 2
Maoist 2
Mara 2
Marath@@ 2
Marfleet 2
Margaret 2
Marion 2
Maritime 2
Marketing 2
Marks 2
Marl@@ 2
Mars 2
Marsh 2
Marshall 2
Masked 2
Mason 2
Masood 2
MassMutual 2
Master 2
Match 2
Materials 2
Mathew 2
Matsu@@ 2
Matt@@ 2
Matthews 2
Mattingly 2
Mau@@ 2
Maui 2
Maver@@ 2
Mavs 2
Max@@ 2
Maz@@ 2
Mazda 2
Mbeki 2
McAl@@ 2
McCanns 2
McCarthy 2
McDonnell 2
McGee 2
McGu@@ 2
McK@@ 2
McKin@@ 2
McLeish 2
McNabb 2
McPherson 2
Mcf 2
Md 2
Me.dium 2
Mechan@@ 2
Medal 2
Medicare 2
Mediterranean 2
Medtronic 2
Meeting 2
Megan 2
Meh@@ 2
Mekong 2
Mem@@ 2
Memorial 2
Mentor 2
Merthyr 2
Metabolic 2
Meteorological 2
Metr@@ 2
Metro 2
MetroCard 2
Metropolis 2
Metropolitan 2
Mex@@ 2
Meyer 2
Mich 2
Mickelson 2
Mickey 2
Might 2
Mik@@ 2
Mikhail 2
Mili@@ 2
Millions 2
Milton 2
Mineral 2
Miners 2
Mini 2
Minis@@ 2
Mishkin 2
Mission 2
Mit@@ 2
Mobil 2
Moden@@ 2
Mogadish@@ 2
Moh@@ 2
Mohamed 2
Moines 2
Mom@@ 2
Mombasa 2
Money 2
Monica 2
Monitoring 2
Montenegro 2
Months 2
Morales 2
Morgenstern 2
Mormon 2
Morton 2
Mother 2
Mothers 2
Mott 2
Moun@@ 2
Mountains 2
Mov@@ 2
Move 2
MoveOn.org 2
Movement 2
Moving 2
Moya 2
Moz@@ 2
Mubadala 2
Mud@@ 2
Mugabe 2
Muhammad 2
Multi-@@ 2
Multimedia 2
Mun@@ 2
Murdoch 2
Murray@@ 2
N. 2
N.C. 2
N.C.@@ 2
NA 2
NAACP 2
NALC 2
NASCAR 2
NCS 2
NHS 2
NI@@ 2
NIS 2
NO@@ 2
NON-INTEREST 2
NRA 2
NY 2
NYC 2
NYR 2
NYSE 2
Na@@ 2
Nadal 2
Nagin 2
Nal@@ 2
Nam@@ 2
Name 2
Named 2
Namibia 2
Nardelli 2
Nasser 2
Natalee 2
Nation@@ 2
Nato 2
Natural 2
Navratilova 2
Nawaz 2
Naz@@ 2
Nazi 2
Nearby 2
Nearly 2
Neck 2
Negroponte 2
Neighbour@@ 2
Neighbours 2
Nets 2
Networked 2
Never 2
Nevertheless 2
Newcastle 2
News@@ 2
NewsRadio 2
Nguyen 2
Niem@@ 2
Nig@@ 2
Nigerian 2
Nike 2
Nikke@@ 2
Nil@@ 2
Nina 2
Nine 2
Nisoor 2
Nixon 2
Noel 2
Non-performing 2
Nord 2
Noriega 2
North@@ 2
Northampton 2
Northeastern 2
Norway 2
Norwich 2
Note 2
Nothing 2
Notre 2
Nova 2
Novo@@ 2
Nowak 2
Num@@ 2
Numbers 2
Nun@@ 2
Ny@@ 2
O. 2
O.@@ 2
OK 2
OK@@ 2
ONAL 2
ONS 2
OPERATIONS 2
OSF 2
OUGH 2
Oakland 2
Oakwood 2
Oats 2
Ocado 2
Ocala 2
Occu@@ 2
Ochoa 2
Offers 2
Og@@ 2
Ok@@ 2
Ol@@ 2
Om@@ 2
Omaha 2
Omidyar 2
On@@ 2
Online 2
Opera 2
Opportunity 2
Optimis@@ 2
Order 2
Ori@@ 2
Orig@@ 2
Orissa 2
Orlando 2
Orthodox 2
Ortmeier 2
Osmond 2
Ot@@ 2
Oth@@ 2
Ottoman 2
Outer 2
Own 2
Ownership 2
Ox@@ 2
P.@@ 2
P.R. 2
PARIS 2
PBS 2
PD 2
PER 2
PER@@ 2
PETA 2
PFCD 2
PHILADELPHIA 2
PL@@ 2
PR 2
PR@@ 2
PRNewswire-USNewswire 2
PS@@ 2
PT 2
Pac@@ 2
Pace 2
PacificNet 2
Pack@@ 2
Pacman 2
Paisley 2
Pal 2
Palaniappan 2
Palmer 2
Panthers 2
Pao 2
Pap@@ 2
Paradise 2
Parma 2
Participants 2
Partly 2
Partnership 2
Pascal 2
Pass 2
Passenger 2
Pat@@ 2
Patients 2
Patri@@ 2
Patterson 2
Paxson 2
Payment 2
Pearl 2
Pearson 2
Pediatric 2
Pedro 2
Pel@@ 2
Pen@@ 2
Penalties-Yards 2
Penn@@ 2
Pentecost@@ 2
Pep@@ 2
Pepsi@@ 2
Per 2
Perez 2
Perfect 2
Performance 2
Perino 2
Perrotta 2
Perry 2
Persian 2
Perth 2
Petra 2
Petrie 2
Petter@@ 2
Pettitte 2
Peyton 2
Phalange 2
Pharsight 2
Philbin 2
Philippine 2
Philips 2
Philli@@ 2
Pho@@ 2
Physics 2
Picasso 2
Pick 2
Pickhardt 2
Pie@@ 2
Pieces 2
Pietersen 2
Pin@@ 2
Pine 2
Pink 2
Pit@@ 2
Pitts@@ 2
Plaines 2
Planck 2
Plane 2
Planet 2
Platinum 2
Platt 2
Play 2
PlayStation 2
Plaza 2
Ple@@ 2
Please 2
Poet 2
Poli@@ 2
Policy 2
Pollock 2
Pon@@ 2
Popeye 2
Posada 2
Possi@@ 2
Post-@@ 2
Post@@ 2
Postal 2
Pot@@ 2
Power@@ 2
Pratt 2
Precious 2
Premises 2
Premium 2
Prepaid 2
Presence 2
Prest@@ 2
Previously 2
Primar@@ 2
Prince@@ 2
Princip@@ 2
Priv@@ 2
Pro 2
Produ@@ 2
Production 2
Professor 2
Projects 2
Proof 2
Psy@@ 2
Publish@@ 2
Puck 2
Pud@@ 2
Pudding 2
Pulitzer 2
Punch 2
Purchase 2
Put@@ 2
Q. 2
QUARTER-TO-DATE 2
Qatar 2
Quake 2
Qualcomm 2
Queens 2
Quick@@ 2
Quincy 2
RDF 2
RI@@ 2
RIS@@ 2
ROBER@@ 2
ROE 2
RT 2
RUTHERFORD 2
Raceway 2
Radcliffe 2
Radicchio 2
Rai@@ 2
Rail 2
Ramadi 2
Ramallah 2
Rams 2
Ramsay 2
Random 2
Range 2
Rani 2
Rankings 2
Rarely 2
Rasmussen 2
Rato 2
Raton 2
Rav@@ 2
Rawalpindi 2
Ray 2
Raytheon 2
Reach 2
Reaching 2
Read 2
Ready-to-@@ 2
Really 2
Realty 2
Rebounds 2
Rebuilding 2
Receives 2
Recep 2
Records 2
Recovery 2
Recycling 2
Reds 2
Reed 2
Refer@@ 2
Refugees 2
Reggie 2
Regi@@ 2
Regional 2
Registr@@ 2
Rein@@ 2
Relations 2
Released 2
Religion 2
Religious 2
Remained 2
Remember 2
Remy 2
Renault 2
Rene@@ 2
Reporting 2
Representatives 2
Represents 2
Rescue 2
Residential 2
Resistant 2
Respe@@ 2
Rest 2
Rev@@ 2
Reynaud 2
Reza 2
Ric@@ 2
Rican 2
Richardson 2
Richie 2
Rico 2
Ricoh 2
Riding 2
Rig@@ 2
Riley 2
Rit@@ 2
Ritterbusch 2
Rivera 2
Robbery 2
Roberto 2
Roche 2
Rochester 2
Rojo 2
Roland 2
Rolling 2
Rollins 2
Rome 2
Romero 2
Ronaldo 2
Ronan 2
Rosecroft 2
Ross 2
Roth 2
Row 2
Rowan 2
Rowling 2
Roy 2
Royals 2
Royalty 2
Rub@@ 2
Rud@@ 2
Rules 2
Rum@@ 2
Run 2
Running 2
Rut@@ 2
S.@@ 2
S.A. 2
S.C. 2
SAN 2
SAS 2
SAT 2
SC@@ 2
SCH@@ 2
SCO@@ 2
SDRAM 2
SE 2
SE@@ 2
SHARE 2
SHE@@ 2
SING 2
SINGAPORE 2
SOA 2
SPI 2
SPLM 2
SS 2
SS@@ 2
SST 2
SUNA 2
SWAT 2
SWS 2
Sabres 2
Sac@@ 2
Sacramento 2
Sad@@ 2
Sadr 2
Saeb 2
Safe 2
Sai@@ 2
Sainsbury 2
Saints 2
Sally 2
Salman 2
Samaritans 2
Samp@@ 2
Sanchez 2
Sand@@ 2
Sandra 2
Sang@@ 2
Sarah 2
Sat@@ 2
Satellite 2
Saul 2
Sav@@ 2
Savings 2
Savio 2
Say 2
Scandinavian 2
Schiff@@ 2
Schilling 2
Schreiber 2
Schulte 2
Schwar@@ 2
Schwarzenegger 2
Scientist 2
Scor@@ 2
Scotsman.com 2
Segment 2
Seinfeld 2
Sellers 2
Sem@@ 2
Sempill 2
Senegal 2
Sens@@ 2
Separ@@ 2
Serbia 2
Set 2
Set@@ 2
Shadow 2
Shaiken 2
Shak@@ 2
Shame 2
Sharapova 2
Shareholders 2
Sharks 2
Sharma 2
Sharp 2
Sheets 2
Sheffield 2
Sheik@@ 2
Shel@@ 2
Shelley 2
Sheridan 2
Shields 2
Shift 2
Shiny 2
Shoo@@ 2
Shui-bian 2
SiR@@ 2
Siber@@ 2
Sid@@ 2
Siddeley 2
Side 2
Side@@ 2
Sidney 2
Siemens 2
Sign@@ 2
Silence 2
Silva 2
Silverstein 2
Sim@@ 2
Similarly 2
Simpsons 2
Simul@@ 2
Sin@@ 2
Sinatra 2
Sioux 2
Sir@@ 2
Sirius 2
Sisters 2
Sitting 2
Skid@@ 2
Sky 2
Slovakia 2
Smash 2
Sofia 2
Sol 2
Solanki 2
Solazyme 2
Solicitation 2
Sollecito 2
Somali 2
Somerville 2
Son 2
Sonia 2
Sonoma 2
Soon 2
Soprano 2
Sorenstam 2
Sotheby 2
Sousa 2
Southside 2
Sovereign 2
Spaniard 2
Spaniards 2
Spanish-language 2
Spar@@ 2
Spe@@ 2
Speaking 2
Speed 2
Spo@@ 2
Spokes@@ 2
Spokesman 2
Spot 2
Spread 2
Sprint 2
Spur@@ 2
Spurs 2
Spy 2
Stad@@ 2
Stage 2
Stalin 2
Staples 2
Starr 2
Start 2
Starting 2
Statement 2
Statistics 2
Stein 2
Stein@@ 2
Steps 2
Stern 2
Stevens 2
Steyn 2
Stockholm 2
Stocks 2
Stockton 2
Stonebridge 2
Stor@@ 2
Stranded 2
Strategies 2
Straw 2
Strawberry 2
Stricker 2
Strikes 2
Stru@@ 2
Stub@@ 2
Student 2
Submer@@ 2
Subsidiaries 2
Subsidiary 2
Success 2
Sud@@ 2
Sue 2
Suff@@ 2
Suh 2
Suharto 2
Suicide 2
Sukuk 2
Sul@@ 2
Sultan 2
Sum 2
Sun-Times 2
Sunderland 2
Sunnis 2
Sunrise 2
Suns 2
Superferry 2
Supplemental 2
Surgery 2
Surry 2
Surviv@@ 2
Sus@@ 2
Suspe@@ 2
Suspends 2
Suwaidi 2
Suz@@ 2
Swallows 2
Sweet 2
Swind@@ 2
Swiss 2
Swollen 2
Sym@@ 2
TA 2
TB-4@@ 2
THE@@ 2
THREE 2
TM@@ 2
TMS 2
TO@@ 2
TODA@@ 2
TON 2
TS 2
TSA 2
TVs 2
Tab@@ 2
Taipei 2
Tak@@ 2
Talking 2
Tanner 2
Tanya 2
Targ@@ 2
Tariq 2
Tarsa 2
Taser 2
Tatiana 2
Taxi 2
Tay@@ 2
Tayyip 2
Tear 2
Tech@@ 2
Techn@@ 2
Teddy 2
Tele@@ 2
Telescope 2
Tender 2
Tenn 2
Term 2
Terminal 2
Test 2
Testaverde 2
Tetra 2
Thales 2
Than@@ 2
Theatre 2
Theft 2
Them 2
Therap@@ 2
Third-@@ 2
Throughout 2
Ticket 2
Tiffany 2
Tight 2
Tila 2
Timber@@ 2
Tis@@ 2
Together 2
Tomlinson 2
Tommy 2
Tonight 2
Took 2
Topamax 2
Topps 2
Torres 2
Tottenham 2
Toulouse 2
Tour@@ 2
Toward 2
Townsend 2
Toys 2
Tra@@ 2
Trac@@ 2
Train 2
Training 2
Trans@@ 2
Trav@@ 2
Travelers 2
Treated 2
Trent 2
Treo 2
Trey 2
Tripoli 2
Trisha 2
Tro@@ 2
Trojans 2
Troops 2
Tsang 2
Tuck 2
Tul@@ 2
Turks 2
Tuxpan 2
Twelve 2
Ty@@ 2
Tyler 2
Tyn@@ 2
Typical 2
U.S 2
U.S.-backed 2
U.S.-led 2
U.S.@@ 2
U.S.C. 2
UCLA 2
UK-based 2
UNAUDITED 2
UNM@@ 2
US-@@ 2
USB 2
USDA 2
USO 2
Uganda 2
Um@@ 2
Unear@@ 2
Unit 2
Universe 2
Updated 2
Utilities 2
VE 2
VIP 2
VP 2
VW 2
Vall@@ 2
Van@@ 2
Vander@@ 2
Vang 2
Vargas 2
Veg@@ 2
Vekselberg 2
Venetiaan 2
Veri@@ 2
Vermont 2
Via 2
Viacom 2
Vic@@ 2
Victi@@ 2
Video 2
View 2
Viktor 2
Vil@@ 2
Villarreal 2
Villiers 2
Vin 2
Visit 2
Visitors 2
Vista 2
Vo@@ 2
Volkswagen 2
Volunteers 2
Voting 2
Vs 2
Vt 2
Vu@@ 2
WEST 2
WFP 2
WGA 2
WHIT@@ 2
WIL@@ 2
WITH 2
WLAN 2
WW@@ 2
Wakefield 2
Walk@@ 2
Walsh 2
Wander@@ 2
Wanted 2
Warwick 2
Washington-based 2
Watching 2
Watkins 2
Waverley 2
Wax@@ 2
Waziristan 2
Wear 2
Web-based 2
Weber 2
Website 2
Wee@@ 2
Weeks 2
Weighted 2
Weing@@ 2
Weir 2
Weiss 2
Wel@@ 2
Well@@ 2
Wer@@ 2
Westbrook 2
Wester@@ 2
Westwood 2
Whi@@ 2
Whoever 2
Whole 2
Wi-@@ 2
Wicks 2
Wie 2
Wife 2
Wildcats 2
Wilhelm 2
Wilkins 2
Wilkinson 2
William@@ 2
Williamson 2
Wimbledon 2
Wing 2
Wisin 2
Withers 2
Within 2
Wizards 2
Wol@@ 2
Won@@ 2
Woo@@ 2
Woodhead 2
Woodward 2
Woody 2
Work@@ 2
Works 2
Writing 2
Wyatt 2
Wyman 2
Wyoming 2
Xi 2
Xinhua 2
Xue 2
Yang 2
Yangtze 2
Yards 2
Yaris 2
Yaz@@ 2
Year@@ 2
Years 2
Yemen 2
Yen 2
Yo 2
Yom 2
Yon@@ 2
Yongbyon 2
Yoo 2
York@@ 2
Yorkers 2
Yorkshire 2
Yushchenko 2
Zaheer 2
Zal@@ 2
Zambrano 2
Zaw@@ 2
Zealous 2
Zebari 2
Zeppelin 2
Zh@@ 2
Zoe 2
Zog@@ 2
Zone 2
aa 2
abandon 2
abandoning 2
abbey 2
abducted 2
ables 2
abo@@ 2
abound 2
absolute 2
absorbed 2
absurd 2
abulary 2
abuses 2
abusing 2
academics 2
accelerating 2
accent 2
acceptable 2
accepting 2
accommod@@ 2
accomplished 2
accomplishments 2
accountable 2
accre@@ 2
accru@@ 2
accumulated 2
accuracy 2
accurately 2
accusation 2
ace@@ 2
ach 2
achiev@@ 2
aci@@ 2
acid 2
ack 2
acked 2
acknowledges 2
acks 2
acoustic 2
acrob@@ 2
actors 2
adapted 2
adapting 2
addic@@ 2
addict 2
addresses 2
ade 2
adjusted 2
adjusting 2
admir@@ 2
admire 2
admissions 2
ado@@ 2
adopting 2
adv@@ 2
advances 2
advancing 2
adventures 2
advert 2
advertised 2
advis@@ 2
advisers 2
advises 2
advising 2
advoc@@ 2
ae 2
affecting 2
affects 2
affidavits 2
affiliate 2
after@@ 2
afterwards 2
age@@ 2
agen 2
aggrav@@ 2
agitated 2
ago@@ 2
agon 2
agrarian 2
agrees 2
ai 2
ail 2
aine 2
airing 2
airmen 2
airspace 2
airstrikes 2
aisle 2
aj 2
aka 2
ake 2
aked 2
akes 2
aking 2
aks 2
al- 2
al-Faisal 2
al-Maliki 2
aler@@ 2
alert 2
alia 2
alight 2
alisation 2
alists 2
alities 2
alizes 2
alizing 2
alleg@@ 2
allege 2
alleges 2
alleging 2
allied 2
allocated 2
alter@@ 2
altered 2
alternate-@@ 2
alties 2
alu@@ 2
ama 2
amazed 2
ambivalent 2
ambulance 2
ame 2
amend 2
amend@@ 2
amer@@ 2
amortized 2
amounted 2
an-based 2
analyses 2
analyze 2
ance-@@ 2
ancement 2
ances 2
ancies 2
and-a-@@ 2
angle 2
ankle 2
anna 2
anth@@ 2
anthro@@ 2
anti-Syrian 2
anti-terrorism 2
antibio@@ 2
antic 2
antics 2
antine 2
antioxid@@ 2
apes 2
apocalyptic 2
appalling 2
apparatus 2
applause 2
apple 2
appliance 2
appliances 2
applied 2
applies 2
appreciates 2
appreciation 2
appreciative 2
appropriately 2
approving 2
approximating 2
apso@@ 2
ara 2
arch@@ 2
archaeologists 2
architectural 2
archive 2
ardo 2
arena 2
arer 2
arians 2
arise 2
arises 2
arly 2
armored 2
armoured 2
array 2
arrives 2
arsenal 2
artery 2
articles 2
artifacts 2
artillery 2
artistic 2
ary-@@ 2
asant 2
asco 2
ashing 2
asing 2
asion 2
assaulting 2
asserted 2
assess 2
assessing 2
asset-backed 2
assie 2
assum@@ 2
assuming 2
assurance 2
asters 2
astron@@ 2
at-bats 2
ath 2
athe@@ 2
athle@@ 2
ativity 2
atmospheric 2
atop 2
atories 2
atric 2
atrician 2
attending 2
atti 2
attitudes 2
attributable 2
atu@@ 2
ature 2
audi@@ 2
audited 2
auditors 2
authenti@@ 2
author@@ 2
authored 2
authorization 2
autographed 2
automaker 2
automakers 2
avalanche 2
averted 2
avi@@ 2
awai@@ 2
awful 2
awi 2
awk@@ 2
ba 2
babe 2
back-to-@@ 2
backers 2
backgrounds 2
backup 2
backyard 2
balanced 2
balances 2
baller 2
ballistic 2
ballots 2
bankers 2
banner 2
bans 2
barbecue 2
barg@@ 2
barr@@ 2
barton@@ 2
basics 2
batsmen 2
batters 2
batting 2
beaches 2
beacon 2
beck@@ 2
bedro@@ 2
beef 2
beer-@@ 2
behave 2
behavi@@ 2
beings 2
believable 2
believer 2
bell 2
belong 2
belong@@ 2
belonging 2
belt-@@ 2
belts 2
ben@@ 2
bene@@ 2
beneath 2
beneficial 2
benefited 2
berth 2
bes 2
besides 2
bi 2
bic 2
bic@@ 2
bidders 2
bie 2
bike 2
bil 2
bill@@ 2
billed 2
billion-dollar 2
billionaire 2
bio@@ 2
biofuel 2
biographer 2
biographies 2
biom@@ 2
biparti@@ 2
bird 2
birdie 2
bis 2
bit@@ 2
bite-@@ 2
bited 2
biting 2
bitions 2
black-and-white 2
black@@ 2
blan@@ 2
blankets 2
blasts 2
blatant 2
blaz@@ 2
blazers 2
blazes 2
bleak 2
bled 2
bleeding 2
blend 2
blind@@ 2
blo@@ 2
blockbuster 2
blog@@ 2
bloggers 2
blond 2
bloo@@ 2
blood-@@ 2
blood@@ 2
blow@@ 2
blowing 2
blown 2
blunders 2
bly 2
board@@ 2
boast 2
boasted 2
bob 2
bodyguard 2
boge@@ 2
boiled 2
bol@@ 2
bolt 2
bonan@@ 2
bonus 2
bonuses 2
booked 2
booming 2
boon 2
boos 2
boosted 2
bore 2
borne 2
boro 2
borrowed 2
bother 2
bott@@ 2
bottle 2
boun@@ 2
bouncing 2
boundary 2
bourne 2
bow@@ 2
bowled 2
box@@ 2
boxes 2
boxing 2
boy@@ 2
boycott 2
brainchild 2
brass 2
braving 2
breakaway 2
breast-feeding 2
breath@@ 2
breathe 2
briefings 2
brightness 2
brochure 2
brokerage 2
brokers 2
brutish 2
bubbles 2
bucks 2
bud@@ 2
budgets 2
buff@@ 2
bugs 2
builds 2
built-in 2
bull 2
bullet 2
bullying 2
bun@@ 2
bunch 2
bureau 2
bureaucratic 2
burglary 2
burns 2
burnt 2
business@@ 2
businesslike 2
businessmen 2
but@@ 2
butt@@ 2
button 2
buzz 2
by-@@ 2
bypass 2
ca 2
cache 2
caf@@ 2
calculations 2
calendar 2
cali@@ 2
caller 2
callers 2
cally 2
calmed 2
cameraman 2
campaigners 2
camping 2
canc@@ 2
cancers 2
canned 2
cans 2
canvas 2
capitalist 2
capitalists 2
capitalize 2
capitals 2
capped 2
caps 2
capture 2
capturing 2
cardio 2
carmenère 2
carnage 2
carr@@ 2
carri@@ 2
carved 2
cash@@ 2
cashmere 2
casters 2
casual 2
cataclys@@ 2
catalog 2
catalogue 2
catalyst 2
catch-up 2
catches 2
cautioned 2
cautious 2
cease-fire 2
celebrating 2
cellphone 2
cellphones 2
cement 2
cens@@ 2
center@@ 2
centr@@ 2
centre-@@ 2
centrifu@@ 2
centuries 2
centuries-old 2
certi@@ 2
certification 2
ces 2
chains 2
chaired 2
chamber 2
chambers 2
chanting 2
chants 2
charging 2
charis@@ 2
charting 2
charts 2
chas@@ 2
chase 2
chased 2
chases 2
chasing 2
chat@@ 2
cheaply 2
cheating 2
check@@ 2
checkup 2
cheek 2
cheer@@ 2
chem@@ 2
cher 2
cherry 2
chester 2
chew 2
chickens 2
chill 2
chilli@@ 2
chin@@ 2
chips 2
choking 2
chol@@ 2
cholesterol 2
choosing 2
chop 2
chop@@ 2
choreographed 2
chrom@@ 2
chrome 2
chronicle 2
chur@@ 2
churches 2
cide 2
cigarettes 2
circumst@@ 2
cite 2
civil-rights 2
clam@@ 2
clamp@@ 2
clans 2
clapping 2
clas@@ 2
clashed 2
classmates 2
cleansing 2
clear@@ 2
clearing 2
clerks 2
clever 2
climatic 2
climbed 2
clinging 2
clogged 2
close-@@ 2
closed-@@ 2
closed-door 2
closest 2
closure 2
clou@@ 2
clouds 2
clout 2
clubhouse 2
clut@@ 2
co-author 2
co-defendants 2
coal-@@ 2
coast@@ 2
cod 2
coff@@ 2
coffees 2
cog 2
cognitive 2
coins 2
collabor@@ 2
collaborate 2
collapsing 2
collar 2
collateralized 2
collect@@ 2
collectibles 2
colleges 2
colli@@ 2
collision 2
color@@ 2
colorful 2
colour 2
coloured 2
colum@@ 2
column 2
combatant 2
combining 2
comet 2
command@@ 2
commando 2
commandos 2
commands 2
commenced 2
commend 2
commerci@@ 2
commissions 2
communes 2
communicate 2
communion 2
comparing 2
compatible 2
compatri@@ 2
competent 2
complac@@ 2
complain 2
compli@@ 2
complic@@ 2
comply 2
component 2
components 2
composer 2
compost 2
compounded 2
compounds 2
compul@@ 2
conceived 2
concentr@@ 2
concentrations 2
conclu@@ 2
concurrently 2
concussions 2
condemn 2
condemnation 2
condesc@@ 2
condi@@ 2
condol@@ 2
condomini@@ 2
condoms 2
conferences 2
confess 2
confessed 2
confessions 2
configuration 2
confin@@ 2
confir@@ 2
confrontational 2
confused 2
cong@@ 2
congrat@@ 2
conne@@ 2
conscience 2
consensual 2
consents 2
consequently 2
conservationists 2
conservatism 2
considerably 2
considers 2
console 2
consoli@@ 2
consternation 2
constitu@@ 2
constitutionally 2
constrained 2
consultants 2
consum@@ 2
contaminate 2
contaminated 2
contention 2
contents 2
continental 2
conting@@ 2
continuous 2
continuously 2
contracting 2
contrasts 2
contribute 2
contribution 2
conven@@ 2
convenient 2
conventions 2
convictions 2
convoluted 2
convoys 2
coordin@@ 2
coordinate 2
coordination 2
cop@@ 2
copy 2
cordoned 2
cornerback 2
coronary 2
correction 2
correspon@@ 2
cosmic 2
cost-effective 2
costly 2
costume 2
couch 2
couched 2
cough 2
councillors 2
counselors 2
counterpart 2
counterparts 2
counters 2
counting 2
countryside 2
coupe 2
couples 2
courage 2
court@@ 2
courted 2
courtesy 2
cousin 2
cover-up 2
coverings 2
crack 2
crat 2
crater 2
cratic 2
craving 2
creators 2
credible 2
credited 2
crib 2
criminals 2
cris@@ 2
criteria 2
critic@@ 2
criticised 2
crop 2
cross@@ 2
cruelty 2
crum@@ 2
crushed 2
cting 2
cultiv@@ 2
cumbersome 2
cure 2
curfew 2
curtain 2
cushion 2
custom@@ 2
customary 2
customized 2
customs 2
cutting-edge 2
cyclone 2
cyn@@ 2
czar 2
d-up 2
d. 2
dam 2
danced 2
dancer 2
dancing 2
dark@@ 2
databases 2
dated 2
david@@ 2
deadline 2
debates 2
debts 2
decad@@ 2
decep@@ 2
declares 2
declines 2
decommissioning 2
dedic@@ 2
dedly 2
deductible 2
deducting 2
deed 2
deemed 2
deep-@@ 2
deep@@ 2
deepening 2
defamation 2
defeating 2
defective 2
defendants 2
defenseman 2
defiant 2
define 2
deforestation 2
delaying 2
delegate 2
delegates 2
deli@@ 2
deliber@@ 2
delinquencies 2
delinquent 2
demise 2
demolished 2
demonstrate 2
demor@@ 2
demoralized 2
dentist 2
denying 2
depar@@ 2
dependent 2
depending 2
depic@@ 2
deplo@@ 2
deploy 2
deportations 2
depres@@ 2
depressant 2
deskPDF 2
dessert 2
destabili@@ 2
destabilizing 2
destroying 2
destructive 2
detainees 2
detected 2
detectives 2
detector 2
detonation 2
devastation 2
develops 2
dex@@ 2
dh@@ 2
diabe@@ 2
diagno@@ 2
dialing 2
diam@@ 2
diameter 2
dian 2
diarrhe@@ 2
diary 2
dictat@@ 2
diesel 2
differenti@@ 2
difficulty 2
dig@@ 2
digestive 2
dignity 2
dilig@@ 2
dining 2
diplomacy 2
directing 2
dis 2
disabilities 2
disable 2
disablement 2
disagrees 2
disarmament 2
discards 2
disciplinary 2
disclosures 2
disconnected 2
discontinued 2
discount 2
discounts 2
discouraging 2
discourse 2
discover 2
discoveries 2
discovering 2
discrepancy 2
discretion 2
discrimin@@ 2
discs 2
disgu@@ 2
disgust 2
disks 2
dismantling 2
dismiss 2
dismissal 2
dismissing 2
dispens@@ 2
dispers@@ 2
displaced 2
displays 2
disrespectful 2
dist 2
distant 2
distinctive 2
distingu@@ 2
distributing 2
distributors 2
dits 2
diver@@ 2
diversi@@ 2
dividends 2
dividing 2
divisive 2
dling 2
doct@@ 2
documentary 2
documentation 2
dog@@ 2
dominant 2
donating 2
donor 2
dosage 2
doses 2
dotMobi 2
double-double 2
downed 2
downloads 2
downstream 2
downtime 2
draconian 2
drag 2
drag@@ 2
draped 2
drastic 2
draws 2
dreamed 2
dressing 2
dried 2
drill 2
drow@@ 2
du 2
dual 2
duc@@ 2
duet 2
dum@@ 2
dummy 2
dumped 2
duo 2
duration 2
dyn@@ 2
dynamics 2
e.@@ 2
e.com 2
eagerly 2
eagle 2
early-@@ 2
earth 2
eased 2
easyJet 2
eb 2
echo@@ 2
eco-@@ 2
ecological 2
ecosystem 2
ect 2
edi@@ 2
eding 2
edit 2
editing 2
editions 2
editors 2
edonia 2
educate 2
educated 2
ee 2
ees 2
efficiencies 2
efficiently 2
efully 2
ege 2
ei 2
eight-@@ 2
eight-year 2
eland 2
elderly 2
elds 2
ele 2
elect 2
electrici@@ 2
electro-@@ 2
electro@@ 2
electronically 2
elementary 2
eleph@@ 2
eless 2
elev@@ 2
elevated 2
elimination 2
eling 2
ellan 2
elli 2
elling 2
ells 2
elong 2
elyn 2
embarrassment 2
embedded 2
embo@@ 2
embraces 2
embracing 2
ement@@ 2
emer 2
emerges 2
emic 2
emphatically 2
empire 2
empty-@@ 2
emulate 2
enabler 2
enberg 2
ench@@ 2
encies 2
encing 2
enclosure 2
encountered 2
encouragement 2
endo 2
endor@@ 2
endorses 2
energy- 2
enforcing 2
engagement 2
enger 2
engineered 2
engines 2
enh@@ 2
enhancement 2
eni 2
enjo@@ 2
enlarged 2
enrich 2
enriched 2
ense 2
ensemble 2
ensive 2
ensued 2
ental 2
enters 2
enth@@ 2
enthusi@@ 2
enthusiastic 2
ential 2
enting 2
entity 2
enty 2
envelop@@ 2
environmentally 2
environments 2
envisaged 2
envoys 2
enwriter 2
eprint 2
equality 2
equals 2
equator 2
equip 2
eradic@@ 2
erance 2
eres 2
eri@@ 2
eria 2
erie 2
erman 2
ern@@ 2
eroded 2
err@@ 2
erratic 2
ert 2
es' 2
es.com 2
escal@@ 2
escalator 2
eshead 2
eshi 2
eshi@@ 2
ess-@@ 2
essed 2
essential 2
essly 2
estock 2
eth@@ 2
etongue 2
etric 2
ets 2
eutics 2
evacu@@ 2
evacuees 2
evaders 2
evaluated 2
evaporated 2
eve 2
eved 2
evenly 2
evidential 2
evolution 2
evolving 2
ew 2
ex 2
exagger@@ 2
exam 2
examin@@ 2
examples 2
exceeds 2
excess 2
excessive 2
exchanges 2
exchanging 2
exclusively 2
execu@@ 2
executions 2
exer@@ 2
exhibit 2
exhibited 2
exodus 2
exonerated 2
expansive 2
expecting 2
expenditures 2
exper@@ 2
experiencing 2
experimental 2
expl@@ 2
explicit 2
exploration 2
explosives 2
express 2
expresses 2
extend 2
extends 2
extensively 2
extinct 2
extinguished 2
extortion 2
extr@@ 2
extract 2
extracted 2
extravagant 2
exuber@@ 2
ey@@ 2
eye-@@ 2
eye@@ 2
eyebrows 2
eyed 2
fabulous 2
factories 2
factual 2
fakes 2
fallout 2
false 2
falsely 2
faltered 2
fame 2
family-@@ 2
fan 2
fantas@@ 2
fantastic 2
fantasy 2
far-@@ 2
fare 2
fares 2
farmer 2
farms 2
fascinated 2
fastball 2
fastest-growing 2
fasting 2
fats 2
fault 2
favorable 2
favored 2
favors 2
favour@@ 2
fe 2
fear@@ 2
feasibility 2
features.cfm 2
federation 2
feedback 2
felled 2
fend 2
ferocious 2
ferry 2
fertili@@ 2
fertility 2
fetched 2
fiasco 2
fiber 2
fic 2
fid@@ 2
fiel@@ 2
field-@@ 2
fier@@ 2
fiers 2
fiery 2
fies 2
fif@@ 2
filing 2
filmmaker 2
filtering 2
filters 2
filthy 2
finale 2
finalist 2
finalized 2
finances 2
finger 2
finishes 2
fire@@ 2
fireball 2
fireworks 2
first-class 2
first-degree 2
fish@@ 2
fitness 2
fix@@ 2
fixes 2
flag-@@ 2
flagship 2
flashy 2
flat-panel 2
flat-rate 2
flat@@ 2
flattened 2
flavors 2
flaws 2
fle@@ 2
fleeing 2
floated 2
flooded 2
flooding 2
floods 2
flow@@ 2
flu 2
flu-like 2
fluctuated 2
flush 2
flyer 2
focuses 2
follow-up 2
foot-and-mouth 2
foray 2
forc@@ 2
fordshire 2
forecasts 2
forests 2
forex 2
forfe@@ 2
forge 2
forged 2
forgive 2
forgotten 2
fork 2
forma 2
formative 2
formats 2
formerly 2
formula 2
fortunes 2
forums 2
foss@@ 2
fossil 2
fouls 2
foundations 2
four-day 2
fourth-@@ 2
foyer 2
fragrance 2
framework 2
franchisees 2
franchises 2
frantic 2
free-trade 2
freighters 2
frenetic 2
frenzied 2
fried 2
frontal 2
frontier 2
frontman 2
frustrating 2
ft@@ 2
fted 2
fts 2
fueled 2
fugitive 2
fulfils 2
full-year 2
full@@ 2
fumbled 2
functional 2
functionality 2
funerals 2
fur@@ 2
furry 2
g-@@ 2
ga 2
gad@@ 2
gaffes 2
gallery 2
game-changing 2
gamers 2
gang 2
gangster 2
garages 2
garbage 2
garrulous 2
gas@@ 2
gauge 2
gays 2
gaz@@ 2
generals 2
generating 2
generator 2
generators 2
genetic 2
genetically 2
genre 2
geographic 2
geom@@ 2
ger@@ 2
ges@@ 2
gestured 2
get-@@ 2
gh 2
giants 2
gifted 2
gig@@ 2
gir@@ 2
glaci@@ 2
glasses 2
gli@@ 2
glimpse 2
glue 2
glyc@@ 2
gn 2
goo@@ 2
gossip 2
gour@@ 2
govern 2
governance 2
government-backed 2
government@@ 2
governors 2
graduating 2
graduation 2
granddaughter 2
grandfather 2
grandparents 2
gras@@ 2
grass-roots 2
grassroots 2
grati@@ 2
gravity 2
gray 2
greed 2
green-@@ 2
green@@ 2
greet 2
grey 2
grief 2
grim@@ 2
grip 2
groo@@ 2
ground@@ 2
grounder 2
grounding 2
grouse 2
guar@@ 2
guaranteeing 2
guarded 2
guerrilla 2
guerrillas 2
gues 2
guiding 2
gul@@ 2
gun@@ 2
gunfire 2
gunman 2
gunpoint 2
gunshot 2
gut 2
guts 2
habit 2
habit@@ 2
habits 2
hack 2
hack@@ 2
hacking 2
hairbrush 2
halftime 2
hallway 2
hallways 2
hammer 2
hamstring 2
handlers 2
harassed 2
harassment 2
harbor 2
harder@@ 2
hardest 2
hart 2
harv@@ 2
harvest 2
hat@@ 2
hatred 2
haul 2
haunted 2
havoc 2
hawk 2
hazard 2
hazy 2
head-to-@@ 2
headlines 2
headlong 2
headquartered 2
healed 2
health-@@ 2
health@@ 2
healthier 2
heart@@ 2
hearted 2
heavyweight 2
heed 2
hegem@@ 2
heightened 2
heights 2
heimer 2
helmets 2
hem 2
hemp 2
hepatitis 2
here@@ 2
hero@@ 2
heroes 2
heroine 2
high-quality 2
high-tech 2
highest-ranking 2
hiking 2
hil@@ 2
hills 2
hints 2
historians 2
historically 2
hitters 2
hman 2
hmm-hmm-hm@@ 2
hob@@ 2
homecoming 2
homered 2
hometown 2
homicide 2
homo@@ 2
homosexual 2
honesty 2
honoring 2
honors 2
honoured 2
honours 2
hood 2
hooked 2
hooker 2
hop 2
hopeful 2
horizon 2
horn 2
horns 2
horses 2
hospitalised 2
hospitalizations 2
hostility 2
hosting 2
hot@@ 2
hour@@ 2
house@@ 2
housewife 2
hovering 2
hs 2
hubs 2
hug 2
hugely 2
human-@@ 2
hunters 2
hydro@@ 2
hyper@@ 2
hypo@@ 2
hyster@@ 2
iPhones 2
ial 2
ians 2
ica 2
ices 2
ichi 2
icians 2
icism 2
ide 2
identical 2
identifi@@ 2
identities 2
ideology 2
idle 2
ids 2
ier 2
ign 2
ign-@@ 2
il 2
il-@@ 2
illegals 2
illness 2
illo 2
illustrates 2
ima 2
imag@@ 2
imagination 2
imaginative 2
imagined 2
imaging 2
immunity 2
impart 2
impending 2
imper@@ 2
imperi@@ 2
implementing 2
imposed 2
impoverished 2
impres@@ 2
impro@@ 2
improper 2
improves 2
in-chief 2
ination 2
inaugural 2
inaugurate 2
inc@@ 2
incomes 2
incomplete 2
inconsistency 2
incorpor@@ 2
incorrect 2
incremental 2
incursion 2
ind 2
indeed 2
indelible 2
independent-minded 2
indic@@ 2
indicating 2
indicator 2
indigenous 2
individu@@ 2
industri@@ 2
industrialized 2
ine@@ 2
inely 2
iner@@ 2
ines 2
inexpensive 2
inexperienced 2
infant 2
infl@@ 2
inflamed 2
inflammatory 2
inflate 2
influ@@ 2
influenced 2
info 2
inform@@ 2
infr@@ 2
infractions 2
ingo 2
inhaled 2
inher@@ 2
inherent 2
inhi@@ 2
initi@@ 2
injuring 2
input 2
inqu@@ 2
inquiry 2
insight 2
insights 2
insistence 2
insomnia 2
install 2
installation 2
instruc@@ 2
insu@@ 2
insufficient 2
insul@@ 2
insulting 2
insurers 2
insurgency 2
integrate 2
integrating 2
integration 2
integrative 2
intellectual 2
intellig@@ 2
intendent 2
intends 2
intensely 2
intensifying 2
intentional 2
interactions 2
interceptors 2
interest-@@ 2
interpretation 2
interrup@@ 2
intimid@@ 2
intoxic@@ 2
intrigu@@ 2
introduces 2
investig@@ 2
investigator 2
ior 2
irony 2
irresistible 2
isers 2
ishes 2
isms 2
isolation 2
issuance 2
it-@@ 2
itated 2
ites 2
ith 2
itive 2
itly 2
itory 2
itous 2
iye@@ 2
ization 2
izes 2
jackets 2
jay 2
jazz 2
jealous 2
jihad@@ 2
jockey 2
join@@ 2
journal 2
journalism 2
joy 2
joys 2
judgement 2
jum@@ 2
jumper 2
jumps 2
jurors 2
justi@@ 2
justices 2
justify 2
kan@@ 2
kay@@ 2
keepers 2
ken 2
key@@ 2
ki 2
kick@@ 2
kicking 2
kickoff 2
kicks 2
kid 2
killer 2
killers 2
kills 2
kilometre 2
kind@@ 2
king@@ 2
kirk 2
kitchen 2
kka 2
kle 2
kley 2
knife 2
knit 2
knock 2
knockout 2
knotty 2
knowingly 2
knowledgeable 2
knuc@@ 2
kova 2
kw@@ 2
labeling 2
laborer 2
lac@@ 2
lacking 2
lad@@ 2
lame 2
lan 2
landed 2
landings 2
landscaping 2
lane 2
laps 2
lar@@ 2
last-@@ 2
lasted 2
laundering 2
lav@@ 2
lawfully 2
lay 2
laying 2
layoffs 2
layup 2
leader@@ 2
lean 2
leap 2
lear@@ 2
leased 2
leasing 2
lectures 2
lef@@ 2
left-@@ 2
left-handed 2
left-wing 2
leftist 2
lefty 2
legendary 2
legi@@ 2
legislative 2
legislature 2
len@@ 2
lenience 2
lenient 2
lers 2
lesbian 2
lesions 2
lesser-known 2
libel 2
liberate 2
liberties 2
lie 2
lif@@ 2
life-threatening 2
lifel@@ 2
lift 2
ligament 2
lihood 2
limb 2
limitation 2
limp 2
line-@@ 2
linebacker 2
liners 2
ling@@ 2
lining 2
liquor 2
lism 2
listened 2
listing 2
listings 2
liter 2
litigation 2
litre 2
loading 2
loads 2
lobby@@ 2
lobbying 2
locate 2
locating 2
loch 2
lock 2
lodged 2
lofty 2
logging 2
longest-serving 2
look-alike 2
loopy 2
loose 2
lopsided 2
lord 2
lorry 2
lottery 2
lou@@ 2
loudest 2
lounge 2
lowered 2
lowering 2
lows 2
loyalists 2
ls 2
luci@@ 2
lum@@ 2
lurched 2
lure 2
ly-@@ 2
lymp@@ 2
lyrical 2
m-@@ 2
m-hm@@ 2
mach@@ 2
magazines 2
magic 2
magistrate 2
magni@@ 2
mailers 2
majorities 2
make-up 2
makeover 2
makeshift 2
malaria 2
malicious 2
mall 2
mam@@ 2
mand@@ 2
maneuver 2
manifest 2
manifesto 2
manipulative 2
manpower 2
manslaughter 2
manufactured 2
maps 2
mar 2
marath@@ 2
marchers 2
marine 2
market@@ 2
marketplace 2
marred 2
mascot 2
masks 2
mass@@ 2
matched 2
mathematical 2
meantime 2
medal 2
medals 2
median 2
mediate 2
medications 2
medics 2
mega 2
mel@@ 2
melt 2
melted 2
melting 2
memor@@ 2
menus 2
mere 2
merit 2
merits 2
mess@@ 2
metal-boring 2
metals 2
methodology 2
mets 2
mi 2
mic@@ 2
mid 2
mid-1990s 2
mid-60s 2
mid-afternoon 2
middle-@@ 2
midfielder 2
midmorning 2
midway 2
midwife 2
mies 2
migr@@ 2
mil@@ 2
mild 2
military-@@ 2
million-dollar 2
mimic 2
mimics 2
mind-set 2
miner 2
miners 2
minim@@ 2
minimal 2
ministerial 2
mir@@ 2
miracle 2
mirror 2
mirrors 2
misleading 2
mission@@ 2
missionaries 2
misstep 2
mistakenly 2
misunderstood 2
mit@@ 2
mix@@ 2
mixture 2
mode 2
modeled 2
modern@@ 2
modest 2
modi@@ 2
modified 2
modify 2
mold 2
mom 2
mommy 2
monarchy 2
money-@@ 2
monitored 2
mono@@ 2
monolithic 2
monster 2
morale 2
mortars 2
mosquito 2
most-@@ 2
moth 2
motiv@@ 2
motivated 2
motivational 2
motors 2
motorway 2
mound 2
mourning 2
mouse 2
mud 2
muddy 2
multibillion-dollar 2
multinational 2
mur@@ 2
murder@@ 2
musicians 2
myocardial 2
mystery 2
n-@@ 2
na 2
nap 2
nap@@ 2
napp@@ 2
napped 2
narcotics 2
narr@@ 2
narrator 2
narrowed 2
nasty 2
nationalist 2
natur@@ 2
nausea 2
naval 2
navigate 2
navigation 2
near-@@ 2
nearer 2
nears 2
neat 2
necess@@ 2
necklaces 2
needing 2
neglecting 2
negotiation 2
neighbor 2
nel 2
nesting 2
net@@ 2
newborn 2
newer 2
newfound 2
next-generation 2
ney 2
niece 2
nightmare 2
nighttime 2
nine-@@ 2
nit@@ 2
nobody 2
noise 2
nominating 2
non-fiction 2
noncurrent 2
nonetheless 2
nooses 2
northeastern 2
northwest 2
not-@@ 2
notable 2
notably 2
notches 2
noti@@ 2
notices 2
novelist 2
novels 2
now-you-@@ 2
nowhere 2
nucle@@ 2
null 2
nursing 2
nutritional 2
objec@@ 2
objective 2
obscured 2
observation 2
observing 2
obstetrici@@ 2
occup@@ 2
occupants 2
occur 2
occurring 2
oda 2
oe 2
offence 2
offended 2
offender 2
offenses 2
offsetting 2
offspring 2
often-@@ 2
oh 2
oi 2
oil-rich 2
okay 2
ol 2
old-@@ 2
olds 2
olic@@ 2
olive 2
oller 2
olly 2
ols 2
oman 2
omed 2
on-line 2
on-time 2
one-off 2
one-third 2
one-time 2
one-way 2
oni 2
oni@@ 2
ono 2
onstage 2
ony 2
ood 2
op 2
open-@@ 2
openly 2
operas 2
opo@@ 2
optical 2
optimi@@ 2
optimism 2
optimize 2
ora 2
orbiting 2
orches@@ 2
ordeal 2
ordinance 2
organ 2
organisers 2
organiz@@ 2
oria 2
orial 2
oriented 2
ories 2
ornament 2
orph@@ 2
orthodo@@ 2
othy 2
otte 2
ou 2
ounces 2
ounding 2
ouri 2
oust 2
ousting 2
out-of-@@ 2
out-of-town 2
outburst 2
outdoor 2
outerwear 2
outfit 2
outfits 2
outing 2
outlines 2
outposts 2
outright 2
outscored 2
outsourcing 2
outstripping 2
ovaries 2
ovations 2
oven 2
overdraft 2
overindul@@ 2
overlooked 2
overs@@ 2
overseen 2
oversized 2
overtime 2
overtook 2
overturn 2
overwhelmed 2
overwhelming 2
overwhelmingly 2
overworked 2
owing 2
oxi@@ 2
oxide 2
ozone 2
pac@@ 2
pack@@ 2
packaging 2
packing 2
pairing 2
pairings 2
pal 2
palate 2
pale 2
palm 2
pander 2
panels 2
pans 2
pap@@ 2
paparazzi 2
paper@@ 2
parameters 2
paramilitary 2
pared 2
paren@@ 2
parental 2
parody 2
part-time 2
partial 2
participate 2
particle 2
particulate 2
partnered 2
partnerships 2
passages 2
passcode 2
passive 2
passport 2
passports 2
passwords 2
patch 2
patents 2
patr@@ 2
patriarch 2
patrols 2
patronage 2
pattern 2
patties 2
paused 2
payday 2
peace@@ 2
peacekeepers 2
peer 2
peer-to-peer 2
pel 2
penchant 2
penny 2
percussive 2
performer 2
performers 2
permitting 2
perpetrators 2
perpetual 2
perpetuating 2
person@@ 2
perspectives 2
pessimis@@ 2
pesticides 2
petroleum 2
pharmaceutical 2
pharmaceuticals 2
pharmacists 2
phases 2
phenomenal 2
phil@@ 2
phony 2
photographic 2
phy 2
physician 2
pian@@ 2
piano 2
picket 2
picks 2
pie 2
pileup 2
pinch-@@ 2
pinch@@ 2
pineapple 2
pioneer 2
pious 2
pirate 2
pirated 2
pistol 2
pitches 2
pitching 2
placing 2
plaintiffs 2
plan@@ 2
plantations 2
planted 2
planting 2
plasma 2
platinum 2
plausible 2
plight 2
plume 2
ply 2
pod@@ 2
pointedly 2
pois@@ 2
poisoning 2
policemen 2
policy@@ 2
polished 2
poll@@ 2
pollutants 2
poo@@ 2
pop@@ 2
populated 2
populist 2
pork 2
porn 2
pornographic 2
pornography 2
portfolios 2
portr@@ 2
portrayal 2
poses 2
posing 2
possess 2
possibilities 2
post-mortem 2
posts 2
potent 2
poured 2
powdered 2
power@@ 2
pr 2
practicing 2
praised 2
pre-tax 2
precise 2
precision 2
predator 2
predatory 2
predicated 2
prediction 2
predominantly 2
prefer 2
prefer@@ 2
preference 2
preferred 2
prefers 2
pregnant 2
premature 2
premise 2
prep 2
preparation 2
preparations 2
prescription 2
presents 2
preserve 2
pressed 2
prevalence 2
preventing 2
prevents 2
pric@@ 2
priced 2
prici@@ 2
principle 2
printed 2
printing 2
prints 2
prisons 2
prist@@ 2
private-@@ 2
privately 2
privilege 2
prizes 2
pro-Taliban 2
proactive 2
process@@ 2
processes 2
processing 2
proclaiming 2
productivity 2
profane 2
profession 2
profit@@ 2
profiting 2
profound 2
prognosis 2
progressing 2
progressive 2
prohibition 2
proliferation 2
promotions 2
prompts 2
prop 2
prop@@ 2
proph@@ 2
prosecuted 2
prospect 2
prospects 2
prosperity 2
prostitution 2
prote@@ 2
protected 2
protects 2
protein 2
protestors 2
protocols 2
proven 2
proves 2
provisional 2
provisions 2
provocation 2
provoked 2
proxy 2
prudent 2
psy@@ 2
psych@@ 2
psychi@@ 2
psychic 2
ption 2
ptions 2
publication 2
publications 2
publish@@ 2
publishing 2
pulling 2
punch 2
punched 2
punished 2
punishing 2
pup@@ 2
puppet 2
purchases 2
purportedly 2
purposes 2
purses 2
puzz@@ 2
qualifying 2
qualities 2
quandary 2
quanti@@ 2
que 2
quest 2
questi@@ 2
queu@@ 2
queue 2
quibble 2
rab@@ 2
raced 2
racial 2
radial 2
radicals 2
raffle 2
raft 2
rail 2
railroad 2
rain@@ 2
rallied 2
rallying 2
random@@ 2
ranged 2
rap 2
raped 2
rapper 2
rats 2
rav@@ 2
ravaged 2
raw 2
rd 2
re 2
re- 2
re-election 2
re.org 2
reacted 2
reactor 2
reader 2
readings 2
reads 2
real-@@ 2
real-life 2
realistically 2
realization 2
rear-@@ 2
reassurance 2
reassure 2
rebellion 2
rebirth 2
rebounded 2
rebuild 2
receipts 2
receiv@@ 2
recep@@ 2
receptions 2
recipe 2
recipient 2
reckons 2
reclaimed 2
recognise 2
recommendations 2
record-@@ 2
recordings 2
recruits 2
recurrence 2
recurring 2
recycled 2
recycling 2
red-@@ 2
redirect 2
reds 2
reductions 2
ree 2
reevaluated 2
refer 2
referee 2
references 2
referendum 2
refr@@ 2
refrigerator 2
refusal 2
refuses 2
refusing 2
regained 2
regains 2
regarded 2
regim@@ 2
regis@@ 2
regrouped 2
regulate 2
regulatory 2
rehabili@@ 2
rehabilitation 2
rehearsal 2
reign 2
reigning 2
reimbursement 2
rein@@ 2
reinforced 2
relating 2
relaxing 2
reless 2
reliever 2
rella 2
relocated 2
reluctant 2
remedy 2
remembers 2
rement 2
remind 2
remission 2
remo@@ 2
remotely 2
removal 2
renaming 2
renegoti@@ 2
renovation 2
renowned 2
rented 2
rents 2
reopened 2
repatri@@ 2
repeat 2
replacing 2
reply 2
representative 2
repugnant 2
requesting 2
requiring 2
rer 2
resembled 2
reshuffled 2
resignations 2
resist 2
resistant 2
responders 2
responds 2
responses 2
restaurants 2
resting 2
restrained 2
restrict 2
resur@@ 2
retail@@ 2
retire 2
retreat 2
retrieve 2
retrograde 2
rever@@ 2
revers@@ 2
reversed 2
reviewing 2
revise 2
revitali@@ 2
revived 2
revo@@ 2
revolt 2
revolution@@ 2
revolutionary 2
rh@@ 2
rhetorical 2
rhythm 2
ri 2
rib 2
rib@@ 2
ric@@ 2
rid 2
ridiculous 2
rier 2
ries 2
rifle 2
right-hander 2
righthander 2
rigorous 2
rings 2
ringt@@ 2
ripples 2
rises 2
rist 2
rivalries 2
rivalry 2
rivers 2
road@@ 2
roar 2
rob 2
rob@@ 2
robots 2
rogue 2
roiled 2
roll@@ 2
ror 2
rotated 2
rough 2
rough@@ 2
round-@@ 2
rounded 2
rounder 2
rousing 2
royalties 2
royalty 2
rub@@ 2
ruck@@ 2
rug 2
ruins 2
rul@@ 2
rumours 2
run-ins 2
rung 2
runways 2
rup 2
rupees 2
rushed 2
russopartnersllc.com 2
ruthless 2
ry 2
s-based 2
s-up 2
s. 2
sac@@ 2
sacrific@@ 2
sacrifices 2
sadness 2
safely 2
safer 2
safest 2
sail 2
sailors 2
sake 2
salary 2
salesman 2
same-sex 2
sample 2
sampled 2
san 2
sands 2
sandwich 2
satellites 2
satire 2
satis@@ 2
sauce 2
savvy 2
scapegoat 2
scare 2
scarves 2
scenes 2
schedul@@ 2
schedules 2
scholar@@ 2
scramble 2
screaming 2
scrip@@ 2
scru@@ 2
seals 2
searches 2
seas 2
seash@@ 2
season-opening 2
seated 2
seaweed 2
second-highest 2
secrecy 2
secretly 2
secrets 2
secularism 2
seduce 2
see-through 2
seemingly 2
select 2
self-destructive 2
selfsame 2
sellout 2
semi-autonomous 2
seni@@ 2
seniors 2
sensing 2
sentences 2
sep-2007 2
separ@@ 2
september 2
sequel 2
sequences 2
sequential 2
serial 2
seriousness 2
sert 2
servic@@ 2
servicing 2
set-top 2
setback 2
settling 2
seven-game 2
seven@@ 2
seventh-@@ 2
sever@@ 2
severely 2
sexist 2
sexuality 2
shadows 2
shake 2
shaken 2
shakes 2
shall 2
shame 2
sheets 2
shellfish 2
shelling 2
shen@@ 2
shifting 2
shifts 2
shing 2
shire 2
shman 2
shocked 2
shod 2
shoe 2
shop@@ 2
shoppers 2
shortage 2
shortcomings 2
shouldn 2
shouted 2
showcas@@ 2
showers 2
shrimp 2
shrines 2
shrinking 2
shut@@ 2
shutdown 2
shutting 2
shuttled 2
shy 2
side@@ 2
sidelines 2
siege 2
sigh@@ 2
signature 2
signatures 2
sil@@ 2
silent 2
silk 2
silver 2
simultaneously 2
sin@@ 2
sincere 2
single-minded 2
singled 2
sink 2
six-game 2
six-week 2
skate@@ 2
skateboarder 2
skepticism 2
skid 2
skin@@ 2
skipped 2
skipper 2
skipping 2
skull 2
sky@@ 2
slain 2
slap 2
slate 2
sleepwalking 2
sleeves 2
slew 2
slices 2
slick 2
slid 2
slides 2
sloppy 2
slower 2
slowing 2
slumping 2
sly 2
smacked 2
smallpox 2
smashed 2
smiling 2
smoker 2
smoky 2
smooth@@ 2
snacks 2
snake 2
sne@@ 2
sneak 2
sni@@ 2
soaring 2
sober 2
soda 2
sof@@ 2
sofa 2
soft-@@ 2
soften 2
solely 2
solem@@ 2
solidi@@ 2
somehow 2
sorority 2
sorting 2
soulful 2
sounded 2
soundtrack 2
soup 2
sour 2
south@@ 2
southeastern 2
spac@@ 2
spaceflight 2
spacewalks 2
spar@@ 2
spare 2
sparing 2
spark 2
specialists 2
specialized 2
specialty 2
specify 2
spectacle 2
spectators 2
spectrum 2
speculated 2
speculators 2
speech@@ 2
speedy 2
spin 2
spirits 2
spiritually 2
splitting 2
spokesperson 2
sponsor 2
sponsorship 2
sporting 2
spotlight 2
spotting 2
spotty 2
spouse 2
sprained 2
spray 2
sprayed 2
spree 2
sprung 2
sput@@ 2
squ@@ 2
stab 2
staged 2
stagehands 2
staggering 2
stair@@ 2
stalls 2
star-studded 2
starving 2
statin 2
stating 2
stationed 2
statisti@@ 2
statue 2
staunch 2
steal 2
stealing 2
steals 2
steel 2
steeper 2
stemming 2
sten 2
stepped-up 2
stered 2
stew 2
stic 2
sticky 2
stiff 2
stimul@@ 2
stir 2
stockholders 2
stockpile 2
stoked 2
stoppage 2
store-@@ 2
stored 2
stormed 2
stra 2
strengthens 2
strengths 2
stretching 2
strict 2
strings 2
strong-willed 2
strong@@ 2
strongholds 2
struct@@ 2
stu@@ 2
stum@@ 2
stun 2
stunned 2
stunt 2
sty 2
stymied 2
su 2
sub-prime 2
submarine 2
submission 2
submit 2
subscri@@ 2
subscribers 2
substantially 2
substantive 2
substitute 2
subtle 2
subtler 2
subur@@ 2
successes 2
sufficiently 2
sulfur 2
summary 2
sunny 2
super-@@ 2
superior 2
supermarkets 2
suppl@@ 2
supplement 2
supplements 2
suppliers 2
supporter 2
surfers 2
surfing 2
surgeon 2
surreal 2
surveys 2
survival 2
suspends 2
suspiciously 2
sust@@ 2
swap 2
swayed 2
swaying 2
sweep 2
sweeping 2
sweltering 2
swir@@ 2
swit@@ 2
switches 2
sworn 2
sym@@ 2
synagogues 2
synergies 2
synergy 2
tability 2
tablespoons 2
tabs 2
tack@@ 2
tackling 2
tailoring 2
tain 2
tainted 2
talents 2
tall 2
tall@@ 2
tam@@ 2
tan 2
tants 2
tap@@ 2
taped 2
tari@@ 2
tariff 2
tarnished 2
tasked 2
tate 2
tations 2
taunted 2
taxpayers 2
tches 2
teach@@ 2
team@@ 2
teammates 2
teasing 2
tech 2
technicians 2
techno@@ 2
tedly 2
telenov@@ 2
telephon@@ 2
temp@@ 2
temperamental 2
tempo 2
ten-year 2
tenants 2
tendencies 2
tendency 2
tending 2
tendon 2
tent 2
ter-@@ 2
terminal 2
terri@@ 2
terrific 2
territories 2
testify 2
tex@@ 2
than@@ 2
thanked 2
the- 2
thearted 2
theaters 2
thed 2
thene 2
theological 2
ther 2
there@@ 2
thereby 2
thereof 2
thermal 2
thes@@ 2
thickness 2
thief 2
thigh 2
thir@@ 2
third-biggest 2
thirds 2
thood 2
threaten 2
threatens 2
three-quarters 2
three-year 2
threshold 2
thrift 2
thriller 2
thriving 2
thu@@ 2
thumb@@ 2
tia 2
tically 2
tici@@ 2
ticket@@ 2
tide 2
tie-@@ 2
tig@@ 2
tighter 2
tim@@ 2
time-consuming 2
timed 2
timeline 2
timely 2
timesonline.co.uk 2
timing 2
tingly 2
tionally 2
tioned 2
tip 2
tissue 2
tiv@@ 2
tle 2
tman 2
toes 2
toil@@ 2
toilets 2
token 2
tol@@ 2
tonight 2
tons 2
too-@@ 2
tore 2
torn 2
torn@@ 2
torrent 2
tory 2
tossed 2
tosses 2
touching 2
tout 2
town@@ 2
toxic 2
tra 2
trac@@ 2
traces 2
tracked 2
tract 2
traffickers 2
transfers 2
transformed 2
transforming 2
transit 2
translucent 2
transmits 2
transported 2
trap 2
trash 2
travelled 2
travellers 2
treasure 2
tribes 2
tributes 2
trick 2
trickier 2
tricky 2
trim 2
triumph@@ 2
trophies 2
troupe 2
trumps 2
trunks 2
trusts 2
tsunami 2
tubes 2
tug 2
tuition 2
tumbled 2
tumultuous 2
tun@@ 2
tured 2
turnout 2
twin 2
twist 2
two-day 2
two-dozen 2
two-game 2
two-month 2
ty-@@ 2
ty@@ 2
tycoon 2
tying 2
tz@@ 2
uck 2
uded 2
uding 2
uels 2
ulations 2
um-@@ 2
umen 2
ums 2
unanimously 2
unavailable 2
unbeaten 2
unbelievable 2
unchecked 2
uncomfortable 2
uncompromising 2
unconstitutional 2
und@@ 2
underestimated 2
undergoing 2
underground 2
undermine 2
undermined 2
underneath 2
underway 2
underwriting 2
undoubted 2
uneasy 2
unethical 2
unfavorable 2
unfold 2
unforced 2
unfortunate 2
unfortunately 2
unharmed 2
uniform 2
uniformed 2
unify 2
unilateral 2
uninsured 2
united 2
unities 2
unjust 2
unlimited 2
unpleasantness 2
unpopular 2
unrelated 2
unscripted 2
unscrupulous 2
unsolved 2
unsure 2
untouched 2
untrue 2
unveiling 2
up-to-@@ 2
upbeat 2
upgrading 2
uph@@ 2
upper 2
uproar 2
upward 2
ura 2
urer 2
urgency 2
urgent 2
ut 2
utilization 2
v. 2
vac@@ 2
vacant 2
vacationers 2
vacations 2
vaccinate 2
vague 2
vali@@ 2
validly 2
valley 2
vand@@ 2
vari@@ 2
variable 2
varied 2
varieties 2
vaudev@@ 2
ved 2
veget@@ 2
verbal 2
vers 2
versions 2
versus 2
vertical 2
vessels 2
vests 2
vetoed 2
vets 2
viable 2
vibration 2
vice-@@ 2
vice-president 2
vicinity 2
victimised 2
vigorous 2
vigorously 2
vin@@ 2
vine 2
vint@@ 2
violate 2
violating 2
violin 2
visceral 2
vit@@ 2
vitam@@ 2
vocalist 2
vocals 2
voicemail@@ 2
volt@@ 2
volumes 2
volunteer 2
volunteered 2
voluptuous 2
von 2
voter 2
vowing 2
vulner@@ 2
vying 2
waged 2
wages 2
walk@@ 2
waning 2
ward@@ 2
warehouse 2
warns 2
warplanes 2
warranty 2
warriors 2
wars 2
warts 2
wash 2
washe@@ 2
washed 2
washingtonpost.com 2
wasting 2
watchful 2
watered 2
waterproof 2
wav@@ 2
weak@@ 2
weakening 2
weakness 2
weaknesses 2
weaponry 2
webcast 2
websites 2
weed-@@ 2
weekends 2
weighed 2
weightlessness 2
welcoming 2
well-known 2
whale 2
whales 2
wheel 2
wheeling 2
wheels 2
wherever 2
whilst 2
whir@@ 2
whisk 2
whoever 2
whopping 2
wi-fi 2
wick 2
widened 2
width 2
wil@@ 2
wilderness 2
wildfires 2
wind@@ 2
winger 2
wingspan 2
wiped 2
wiring 2
wisdom 2
wise 2
wished 2
wishing 2
withdrawing 2
withdrew 2
withstand 2
witnessed 2
wo@@ 2
woke 2
wooden 2
woodland 2
woods 2
word-@@ 2
working-@@ 2
workshop 2
world-@@ 2
worlds 2
worries 2
worshipper 2
worthy 2
would-be 2
wrangling 2
wraps 2
wre@@ 2
wrec@@ 2
wrinkle 2
write-down 2
write-downs 2
wrought 2
wt@@ 2
www.c@@ 2
www.ib@@ 2
xis 2
xslt 2
xy 2
y.@@ 2
yan 2
ycles 2
year-end 2
year@@ 2
yelled 2
yn@@ 2
yoga 2
you@@ 2
ysis 2
yu@@ 2
zer 2
zero 2
zero-@@ 2
zers 2
zigz@@ 2
zip-up 2
zones 2
zy 2
½ 2
€ 2
'3rd 1
'A 1
'An 1
'Angel@@ 1
'Biggest 1
'De@@ 1
'Djamena 1
'Don@@ 1
'Em@@ 1
'Evil 1
'First-@@ 1
'Grady 1
'Great 1
'Hacks 1
'Hanlon 1
'Hist@@ 1
'I 1
'Kane 1
'Le@@ 1
'Lou@@ 1
'Missing 1
'Or@@ 1
'Orig@@ 1
'Os@@ 1
'S 1
'The 1
'Un@@ 1
'What 1
'You 1
'am@@ 1
'e's 1
'o 1
'tcha 1
'Â 1
,338 1
,7@@ 1
--@@ 1
-1 1
-10 1
-12 1
-2 1
-20 1
-2007 1
-7 1
-African 1
-All 1
-American 1
-Americans 1
-B@@ 1
-Civil 1
-Cola 1
-Darling 1
-E@@ 1
-Ed 1
-G@@ 1
-Gol@@ 1
-Ham@@ 1
-Home 1
-Il 1
-Karim 1
-MRSA 1
-May@@ 1
-Pick@@ 1
-Pro@@ 1
-R@@ 1
-TO-DATE 1
-TV 1
-Worst 1
-Y 1
-a-@@ 1
-action 1
-and-@@ 1
-appointed 1
-baby 1
-backed 1
-bes@@ 1
-bin 1
-bo@@ 1
-body 1
-border 1
-bre@@ 1
-case 1
-check 1
-cott 1
-cut 1
-day 1
-doused 1
-drive 1
-driven 1
-ego 1
-electric 1
-even 1
-faced 1
-fi 1
-free 1
-friendly 1
-g@@ 1
-general 1
-goo@@ 1
-half 1
-hm-hm@@ 1
-hm@@ 1
-hole 1
-hy@@ 1
-ification 1
-in 1
-inch 1
-k@@ 1
-laden 1
-landed 1
-language 1
-like 1
-long 1
-mate 1
-mile 1
-moving 1
-ner@@ 1
-on 1
-on-@@ 1
-operators 1
-phone 1
-play 1
-rac@@ 1
-rai@@ 1
-ray 1
-sales 1
-sensing 1
-star 1
-tas@@ 1
-technology 1
-than-@@ 1
-the 1
-the-@@ 1
-through 1
-tissue 1
-to 1
-to@@ 1
-un@@ 1
-use 1
-using 1
-we 1
-will 1
-you 1
.... 1
.10 1
.20 1
.2@@ 1
.300 1
.354 1
.481 1
.50 1
.529 1
.6400@@ 1
.Mr 1
.SP@@ 1
.am 1
.arm@@ 1
.com@@ 1
.go@@ 1
.htm 1
.kg 1
.me@@ 1
.us@@ 1
.yahoo@@ 1
0,397 1
0,6@@ 1
0-0 1
0-4 1
0-5 1
0-54 1
0-8 1
0-odd 1
0.00 1
0.04 1
0.08 1
0.13 1
0.16@@ 1
0.18 1
0.20 1
0.27@@ 1
0.3 1
0.30 1
0.34 1
0.41 1
0.48 1
0.5 1
0.56 1
0.6 1
0.6300 1
0.66 1
0.7 1
0.73 1
0.75 1
0.8 1
0.83 1
0.86 1
0.87 1
0.87@@ 1
00,000 1
00. 1
000 1
000,000 1
000-@@ 1
000metres 1
0023 1
003 1
0047 1
008 1
009 1
00S 1
00m 1
01,000 1
0100 1
0115 1
0130 1
017@@ 1
020-@@ 1
025 1
03,4@@ 1
039 1
04,000 1
04,5@@ 1
0415 1
045 1
0630 1
06@@ 1
07-@@ 1
0740 1
0756 1
0800-@@ 1
084 1
089 1
0910 1
0913 1
0HT 1
0degree 1
1,053 1
1,100 1
1,150 1
1,196 1
1,200 1
1,206 1
1-199 1
1-3-2 1
1-49@@ 1
1-68@@ 1
1-7 1
1-9 1
1-kilometer 1
1-lak@@ 1
1-over 1
1-pounder 1
1. 1
1.04 1
1.13 1
1.14 1
1.19 1
1.20 1
1.22 1
1.30 1
1.31 1
1.310 1
1.36 1
1.39 1
1.40@@ 1
1.44 1
1.45@@ 1
1.4631 1
1.54 1
1.59 1
1.65 1
1.6@@ 1
1.75 1
1.79 1
1.825 1
1.86 1
1.89 1
1.95 1
1.97 1
10,5@@ 1
10,8@@ 1
10-15 1
1000 1
101,0@@ 1
101,5@@ 1
101.@@ 1
102 1
102,2@@ 1
103,6@@ 1
104,5@@ 1
104-@@ 1
105 1
105,000 1
105.2 1
106-@@ 1
107,000 1
107,6@@ 1
107.9 1
108 1
109,219 1
109,@@ 1
10bn 1
10ins 1
11,053 1
11,3@@ 1
11,5@@ 1
110,000 1
113,2@@ 1
114 1
115,000 1
115.@@ 1
115@@ 1
1160 1
117,@@ 1
117-@@ 1
118-@@ 1
119-@@ 1
1195 1
12,9@@ 1
1200 1
12007 1
121 1
122 1
124th 1
125-year-old 1
13,0@@ 1
13,3@@ 1
131 1
14,000 1
14,0@@ 1
14,8@@ 1
14.3 1
140,000 1
140,6@@ 1
140,@@ 1
1408@@ 1
141 1
141,8@@ 1
1410 1
142.9 1
1425 1
144,0@@ 1
144th 1
145,7@@ 1
1450 1
146 1
147,0@@ 1
15,0@@ 1
15,5@@ 1
150bbl@@ 1
151,7@@ 1
151.0 1
152 1
152,0@@ 1
152,4@@ 1
152007 1
153,183 1
153,3@@ 1
154,5@@ 1
154,8@@ 1
1548@@ 1
155 1
155,7@@ 1
1550@@ 1
15510@@ 1
156,8@@ 1
157168@@ 1
1578@@ 1
158,000 1
1584@@ 1
1585 1
1588@@ 1
1596@@ 1
15Es 1
16- 1
16-10 1
1608 1
1617452007 1
162,3@@ 1
1630@@ 1
1640 1
1642007 1
165 1
1650 1
1650@@ 1
1651 1
166 1
166,000 1
166,5@@ 1
167 1
167,7@@ 1
167,@@ 1
168 1
168,@@ 1
168@@ 1
169,000 1
169,0@@ 1
169,8@@ 1
16911.@@ 1
1692 1
1695@@ 1
17- 1
170021@@ 1
1701 1
17068@@ 1
171,000 1
171,2@@ 1
1717 1
1722 1
1727@@ 1
173 1
173,0@@ 1
174,9@@ 1
1750@@ 1
176,4@@ 1
1769 1
177,8@@ 1
177,@@ 1
178,3@@ 1
179 1
18,0@@ 1
1800 1
1803 1
181,000 1
1811@@ 1
182 1
1829@@ 1
183 1
184,6@@ 1
185-@@ 1
1852 1
1855 1
187 1
1875 1
1884 1
189 1
1890s 1
1897 1
19,0@@ 1
1903 1
1907 1
1909 1
1913 1
1914 1
1916 1
1917 1
1920s 1
1923 1
1924 1
1925 1
1928 1
1932 1
1934 1
1935 1
1936 1
1937 1
1938 1
1939-@@ 1
194.9 1
1940 1
1941 1
1942 1
1944 1
1946 1
1950-@@ 1
1951 1
1954 1
1955 1
1957-@@ 1
1958 1
1959 1
196 1
1962 1
1967 1
197,6@@ 1
1970@@ 1
1971 1
1972 1
1973 1
198 1
1981 1
199.89 1
1998-99 1
19th-century 1
1E 1
1RN 1
1b 1
2,000-@@ 1
2,093,000 1
2,172 1
2,1@@ 1
2,209 1
2,22@@ 1
2,240 1
2,24@@ 1
2,257 1
2,2@@ 1
2,300 1
2,318 1
2,54@@ 1
2,600 1
2,628 1
2,82@@ 1
2-10 1
2-100 1
2-15 1
2-1687 1
2-2 1
2-2075 1
2-209 1
2-22 1
2-300@@ 1
2-33 1
2-39@@ 1
2-41 1
2-8 1
2-96 1
2-mile 1
2-pound 1
2-year 1
2-year-old 1
2.0 1
2.02 1
2.07 1
2.100@@ 1
2.26 1
2.29@@ 1
2.3 1
2.36 1
2.41 1
2.5m 1
2.65@@ 1
2.68 1
2.79 1
2.87 1
2.89 1
2.92 1
200.4 1
2003-@@ 1
2006-7 1
20060@@ 1
2007-@@ 1
2016 1
20190 1
202 1
202,3@@ 1
202-@@ 1
2030 1
205,@@ 1
2050 1
207,000 1
207,@@ 1
208 1
2085 1
20s 1
21,@@ 1
210@@ 1
214,@@ 1
214@@ 1
215,5@@ 1
216 1
2160 1
216@@ 1
218 1
218,4@@ 1
219 1
22,000 1
22,093,000 1
22,3@@ 1
22,4@@ 1
224,0@@ 1
225 1
225-@@ 1
23,4@@ 1
23,5@@ 1
23,8@@ 1
23,9@@ 1
23.90 1
232 1
233 1
234 1
239 1
24,301 1
24,3@@ 1
24.6 1
242 1
246,@@ 1
247 1
249 1
25,0@@ 1
25,972 1
25-year-old 1
259,@@ 1
261 1
263 1
27,4@@ 1
27,8@@ 1
27-@@ 1
27-year-old 1
271 1
272 1
273 1
274 1
28,5@@ 1
28-30 1
280 1
281 1
282 1
284 1
287@@ 1
29,3@@ 1
29-@@ 1
290 1
295 1
296 1
299 1
2V 1
2W 1
2b 1
2fnew@@ 1
2g 1
2hours 1
2hr 1
2m 1
3,000-@@ 1
3,12@@ 1
3,13@@ 1
3,14@@ 1
3,15@@ 1
3,175 1
3,17@@ 1
3,192,7@@ 1
3,200 1
3,23@@ 1
3,24@@ 1
3,25@@ 1
3,36@@ 1
3,400 1
3,452 1
3,8@@ 1
3- 1
3--4 1
3-0100 1
3-13 1
3-2-1 1
3-49@@ 1
3-4CD@@ 1
3-8175 1
3-89@@ 1
3-D 1
3-and-@@ 1
3-for-@@ 1
3-horse@@ 1
3-hour 1
3-point 1
3-pointer 1
3-ranked 1
3-under 1
3-year-old 1
3.20 1
3.21 1
3.227 1
3.26 1
3.42 1
3.42@@ 1
3.47 1
3.6 1
3.62 1
3.6415 1
3.69 1
3.71 1
3.72 1
3.76 1
3.8 1
3.87 1
3.98 1
30,3@@ 1
30.@@ 1
300-@@ 1
300@@ 1
301 1
30s 1
31,3@@ 1
31-0 1
31.2 1
31.3 1
3100 1
312 1
312,000 1
315 1
315,0@@ 1
316 1
317 1
318,0@@ 1
318@@ 1
319 1
319@@ 1
32,5@@ 1
32,6@@ 1
322@@ 1
324,0@@ 1
326 1
327,4@@ 1
329@@ 1
33,000 1
33,2@@ 1
33,4@@ 1
33-@@ 1
330 1
334 1
34,6@@ 1
34-@@ 1
34.2 1
340,@@ 1
345 1
348 1
35.@@ 1
353 1
354 1
355 1
358 1
359 1
36,@@ 1
361 1
364 1
366 1
37,000 1
37,0@@ 1
37-6 1
37-@@ 1
37-year-old 1
370 1
372 1
373 1
375 1
377 1
378 1
37@@ 1
38.@@ 1
39,2@@ 1
39,5@@ 1
39,@@ 1
39-@@ 1
39.8 1
391 1
397 1
3D 1
3G 1
3M 1
3Q07 1
3b 1
4,001 1
4,114 1
4,120 1
4,163 1
4,200 1
4,32@@ 1
4,415 1
4,43@@ 1
4,493 1
4,4@@ 1
4,675,000 1
4,702 1
4,708 1
4-2 1
4.9 1
40,@@ 1
400@@ 1
405 1
40s 1
41,000 1
41-1 1
41-year-old 1
411 1
413 1
413,@@ 1
414 1
419 1
41st 1
42,000 1
42,200 1
42-yard 1
420,000 1
42007 1
421 1
422 1
423 1
425 1
425-@@ 1
4250 1
427,8@@ 1
428 1
429@@ 1
42@@ 1
43,3@@ 1
43,4@@ 1
43,@@ 1
43-@@ 1
432 1
436 1
438 1
43@@ 1
44,000 1
442 1
443 1
444 1
447 1
45,0@@ 1
45,6@@ 1
45-@@ 1
450 1
452007 1
454 1
459 1
46,000 1
46,0@@ 1
46,434 1
460 1
460,000 1
461 1
4636 1
466 1
468 1
47,6@@ 1
47,8@@ 1
471 1
48,9@@ 1
48.@@ 1
481 1
483 1
488 1
48@@ 1
49,2@@ 1
49.@@ 1
490,@@ 1
493 1
495 1
497 1
4EX 1
4U 1
4eed@@ 1
4min 1
5,0@@ 1
5,104 1
5,106 1
5,145 1
5,300 1
5,301 1
5,30@@ 1
5,338 1
5,419 1
5,651 1
5,6@@ 1
50,6@@ 1
50,@@ 1
500-@@ 1
500@@ 1
501 1
502 1
51,9@@ 1
51.7 1
512 1
512,000 1
514th 1
515th 1
516 1
517,@@ 1
51st 1
52-7 1
52-@@ 1
52-yard 1
525 1
525,@@ 1
528 1
529 1
53,2@@ 1
53,3@@ 1
53,5@@ 1
53,694 1
53,7@@ 1
53,@@ 1
53-1 1
53.@@ 1
530 1
530,000 1
534 1
539,000 1
53@@ 1
54,4@@ 1
54,6@@ 1
54.@@ 1
545 1
547 1
548 1
55,6@@ 1
55,7@@ 1
55,9@@ 1
55.@@ 1
550 1
552 1
553 1
557 1
558 1
56,434 1
56,7@@ 1
56,8@@ 1
56,@@ 1
56-@@ 1
56.@@ 1
564 1
57,@@ 1
57-year-old 1
570 1
570,8@@ 1
58-@@ 1
58.@@ 1
580 1
586 1
596 1
599 1
59@@ 1
59th 1
5Q@@ 1
5ft 1
5m 1
5minutes 1
5s 1
6,0@@ 1
6,125 1
6,236 1
6,326 1
6,338 1
6,4@@ 1
6,500 1
6,5@@ 1
6,85@@ 1
6- 1
6.28 1
600,000 1
600-@@ 1
6000 1
601 1
604 1
606 1
607 1
609 1
60s 1
61,7@@ 1
61-year-old 1
61.2 1
61.39 1
61.4 1
610,@@ 1
611 1
612 1
615,@@ 1
616 1
617-@@ 1
618 1
619-@@ 1
62,000 1
62,318 1
62,7@@ 1
6200 1
624 1
625,000 1
625,972 1
626 1
627,@@ 1
63,000 1
63,452 1
63.26 1
633 1
636 1
637 1
64,5@@ 1
64-@@ 1
643 1
645 1
645-@@ 1
646 1
64@@ 1
65,000 1
65,6@@ 1
655 1
66,@@ 1
660 1
661 1
668 1
66@@ 1
674 1
675 1
675,000 1
68,9@@ 1
68,@@ 1
68-@@ 1
680 1
683 1
685 1
687 1
688 1
69,0@@ 1
69,@@ 1
69.45 1
690.@@ 1
691 1
694 1
69th 1
7,100 1
7,205 1
7,249 1
7,272 1
7,27@@ 1
7,290 1
7,3@@ 1
7,481 1
7,500 1
7,50@@ 1
7,600 1
7,8@@ 1
7,94@@ 1
7-3 1
7.07 1
7.142 1
7.257 1
7.26 1
7.3 1
7.34 1
7.48 1
7.55 1
7.6 1
7.7 1
7.74 1
7.75 1
7.811.@@ 1
7.82 1
7.86 1
7.9 1
7.91 1
70,8@@ 1
70-@@ 1
70.53 1
700,000 1
701 1
703 1
706 1
707 1
708 1
71,3@@ 1
71,8@@ 1
71-yard 1
713-@@ 1
718 1
72,5@@ 1
720 1
7248 1
725 1
728 1
73,000 1
73-@@ 1
732 1
734 1
739 1
74,0@@ 1
74,6@@ 1
74-3 1
74-@@ 1
740 1
740-@@ 1
744 1
748 1
75,000 1
752,@@ 1
753 1
754 1
755 1
756 1
757 1
76,4@@ 1
761 1
762 1
763,@@ 1
7699 1
77,000 1
77,@@ 1
77-3 1
770 1
774 1
78,@@ 1
78.@@ 1
783 1
788 1
78@@ 1
79,0@@ 1
79.@@ 1
795 1
797@@ 1
7J 1
7M 1
7m 1
7s 1
7th 1
7x 1
8,000-@@ 1
8,164 1
8,169 1
8,173 1
8,196 1
8,300 1
8,3@@ 1
8,556 1
8-3 1
8-5 1
80,000 1
80,@@ 1
80.28 1
800-@@ 1
800@@ 1
81,4@@ 1
81-year-old 1
81.86 1
810,8@@ 1
8101 1
8105 1
811 1
812007 1
813,@@ 1
815 1
815,0@@ 1
819,@@ 1
82,628 1
82-year-old 1
82.6 1
82.89 1
820,@@ 1
824,301 1
825,@@ 1
83,5@@ 1
837 1
84,@@ 1
84-@@ 1
843 1
844 1
845 1
847 1
848 1
85,6@@ 1
86,4@@ 1
86,@@ 1
86-@@ 1
86.28 1
860,8@@ 1
865,@@ 1
8687 1
87,@@ 1
87.@@ 1
8700 1
875 1
885 1
887 1
889 1
89,@@ 1
89.@@ 1
8bn 1
9,219 1
9,2@@ 1
9- 1
9-1 1
90,000 1
90.88 1
905 1
90s 1
910 1
910-@@ 1
912,9@@ 1
913 1
92,000 1
92,@@ 1
925 1
925,@@ 1
930 1
935 1
939 1
94,000 1
94,5@@ 1
94-@@ 1
94.46 1
94.@@ 1
945 1
949 1
94@@ 1
95,000 1
95,651 1
95-@@ 1
951 1
955 1
96,@@ 1
96.7 1
96.@@ 1
962 1
968 1
97,8@@ 1
972 1
979 1
98,000 1
98,8@@ 1
98,@@ 1
98.@@ 1
985 1
988 1
989 1
99,000 1
993 1
999 1
99@@ 1
9pm 1
9th 1
A.P. 1
A03 1
A0@@ 1
A100@@ 1
A11 1
A15 1
A31 1
A380 1
A49 1
A9 1
AAC@@ 1
AAP 1
AAR 1
AAR@@ 1
AC@@ 1
ACC@@ 1
ACCID@@ 1
ADEL@@ 1
ADR 1
AEA 1
AEG@@ 1
AEP 1
AG 1
AHill 1
AIS@@ 1
AK 1
ALL 1
ALLEN@@ 1
ALLY 1
AME 1
ANA 1
ANAPOLIS 1
ANCH@@ 1
ANCIS@@ 1
ANG@@ 1
ANIA 1
ANKAR@@ 1
ANOPOU@@ 1
ANS 1
ANTAR@@ 1
ANTI@@ 1
ANWR 1
ANYTH@@ 1
AP@@ 1
APC 1
APM@@ 1
APP@@ 1
APR@@ 1
AR-ray 1
AR30@@ 1
ARCAD@@ 1
ARD 1
ART 1
ASA 1
ASE 1
ASEAN 1
ASLA 1
ASNI 1
ASSE@@ 1
ASTUT@@ 1
ATA 1
ATE@@ 1
AU 1
AUS 1
AUS@@ 1
AV 1
AVER@@ 1
AX 1
AX@@ 1
AY 1
AZA 1
Aar@@ 1
Abary 1
Abbey 1
Abbot 1
Abbot@@ 1
Abdi@@ 1
Ability 1
Aboolian 1
Abortion 1
Aboulafia 1
Abr@@ 1
Abram@@ 1
Abu@@ 1
Abyei 1
Acad@@ 1
Acam@@ 1
Acap@@ 1
Ach@@ 1
Achi@@ 1
Achil@@ 1
Acre@@ 1
Acro@@ 1
Acti@@ 1
Acting 1
Actor 1
Acts 1
Actu@@ 1
Acur@@ 1
Ad 1
Adamo 1
Add 1
Adden@@ 1
Addles@@ 1
Addressing 1
Adel 1
Adele 1
Adidas 1
Aditya 1
Adjust@@ 1
Admirals 1
Admission 1
Admit@@ 1
Adra 1
Adriano 1
Ads 1
Adul@@ 1
Adulyadej 1
Adumim 1
Adventures 1
Advertis@@ 1
Advis@@ 1
Adviser 1
Advoc@@ 1
Adès 1
Aedi@@ 1
Aeg@@ 1
Aeronautics 1
Aes@@ 1
Affir@@ 1
Afghans 1
Aficionados 1
Afr@@ 1
Afshin 1
After@@ 1
Afzal 1
Agent 1
Agg@@ 1
Agr@@ 1
Ahead 1
Aher@@ 1
Ahm@@ 1
Aho@@ 1
Aiden 1
Aiding 1
Aids 1
Ailing 1
Aint@@ 1
Airborne 1
Airbus 1
Aisha 1
Akers 1
Al-B@@ 1
Al-Jazeera 1
Alarm@@ 1
Alaron 1
Alasdair 1
Alast@@ 1
Alba 1
Albany 1
Albay 1
Alca@@ 1
Alcan 1
Alcat@@ 1
Aldehy@@ 1
Alden 1
Aldr@@ 1
Alenia 1
Alerted 1
Alexandre 1
Aley 1
Alfie 1
Alfonso 1
Alfredsson 1
Alg@@ 1
Alge@@ 1
Alib@@ 1
Alicia 1
Alien 1
Alinder 1
Alinghi 1
Alison 1
Alive 1
All-@@ 1
Allah 1
Alleg@@ 1
Allez 1
Alli@@ 1
Alloa 1
Allow 1
Allow@@ 1
Almost 1
Alone 1
Alpha 1
Alphar@@ 1
Alta 1
Altima 1
Alto 1
Alum 1
Alvar@@ 1
Always 1
Alyn 1
Alys 1
Alyssa 1
Alzheimer 1
AmTote 1
Amal 1
Aman@@ 1
Amber 1
Amboy 1
Ambrosin@@ 1
Ambulance 1
Ambush 1
Amendment 1
Amer 1
Americanized 1
Ameriste@@ 1
Amersfo@@ 1
Amersham 1
Ames 1
Amfert 1
Ami 1
Amin 1
Amis 1
Ammons 1
Amnesty 1
Amster@@ 1
Amtrak 1
Anacle@@ 1
Anaheim 1
Anal@@ 1
Anamaria 1
Anbar@@ 1
Ancel@@ 1
Anchor 1
Anchored 1
Anders 1
Andi@@ 1
Andor@@ 1
Andover 1
Andrei 1
Andres 1
Andru@@ 1
André 1
Anec@@ 1
Aneck@@ 1
Anelka 1
Anfield 1
Angar@@ 1
Angel 1
Angie 1
Anglian 1
Angsuwan 1
Anki@@ 1
Annie 1
Annoyed 1
Annu@@ 1
Ansel 1
Answer 1
Ant@@ 1
Antar@@ 1
Antoine 1
Antonia 1
Antrim 1
Apu@@ 1
Aqal 1
Aqu@@ 1
Aquila 1
Aragones 1
Aramco 1
Arato 1
Arave 1
Arbiter 1
Arbor 1
Arbuthnot 1
Arcade 1
Arch@@ 1
Archi@@ 1
Archit@@ 1
Arcimbol@@ 1
Are@@ 1
Areas@@ 1
Aren 1
Aren@@ 1
Arg@@ 1
Argent@@ 1
Argo@@ 1
Arias 1
Ark 1
Ark@@ 1
Arkin 1
Arlington 1
Armah 1
Armstrong 1
Arn@@ 1
Aronso@@ 1
Arreola 1
Arrest 1
Arrested 1
Arrives 1
Arrowhe@@ 1
Arshad 1
Arthri@@ 1
Arti@@ 1
Articles 1
Artill@@ 1
Artur 1
Arug@@ 1
Arundel 1
Arvo 1
Asada 1
Asahi 1
Asbury 1
Asc@@ 1
Asif 1
Aso 1
Associate 1
Associations 1
Ast@@ 1
Astrium 1
Astros 1
Atia 1
Atlantis 1
Atri@@ 1
Attor@@ 1
Auchan 1
Auction 1
Aud@@ 1
Audio 1
Audit 1
Aug@@ 1
Augment@@ 1
Aul@@ 1
Aur@@ 1
Aurea 1
Aussie 1
Austen 1
Austral 1
Australi@@ 1
Austri@@ 1
Aut@@ 1
Auto-@@ 1
Auvin@@ 1
Aux@@ 1
Avalanche 1
Avamar 1
Avanti 1
Avi 1
Avinity 1
Avista 1
Avram 1
Awak@@ 1
Axel@@ 1
Axelrod 1
Azu@@ 1
B02 1
B847 1
BAL@@ 1
BALL 1
BALLY 1
BAN@@ 1
BARCELON@@ 1
BAS@@ 1
BASKET@@ 1
BB 1
BCCI 1
BCO@@ 1
BCS 1
BCS@@ 1
BDNF 1
BEA 1
BEN@@ 1
BER 1
BER@@ 1
BHP 1
BHU@@ 1
BIO 1
BKE 1
BLIN 1
BM 1
BMiller 1
BOR@@ 1
BPO 1
BR 1
BR@@ 1
BT 1
BY@@ 1
BYu@@ 1
Ba 1
Bacon 1
Bade 1
Baden 1
Bader 1
Bagh@@ 1
Baha 1
Baise 1
Baitullah 1
Baj@@ 1
Bake 1
Balco 1
Ball 1
Balls 1
Bami@@ 1
Banana 1
Banc@@ 1
Bands 1
Bang 1
Bang@@ 1
Banharn 1
Bank@@ 1
Bankers 1
Bap@@ 1
Bar-T@@ 1
Barak 1
Barber@@ 1
Barca 1
Bard 1
Bargn@@ 1
Barksdale 1
Barn 1
Barn@@ 1
Barometer 1
Barot 1
Barquet 1
Barr@@ 1
Barrel 1
Barreto 1
Barrett 1
Barrientos 1
Barro@@ 1
Barron 1
Barroso 1
Barrows 1
Bars 1
Bart 1
Bartol@@ 1
Barton 1
Baruch 1
Barz 1
Basset 1
Bath 1
Bati@@ 1
Batt@@ 1
Bau@@ 1
Bav@@ 1
Bawa 1
Beam 1
Bean 1
Beard 1
Beating 1
Beatles 1
Bebo 1
Becker 1
Become 1
Bed@@ 1
Bee@@ 1
Beech 1
Beers 1
Beg 1
Begging 1
Beh@@ 1
Beij@@ 1
Bejing 1
Beko 1
Belgi@@ 1
Belgrade 1
Bells 1
Ben-I@@ 1
Benaki 1
Benchmarks 1
Benhur@@ 1
Benin 1
Benitez 1
Benschot@@ 1
Benson 1
Bent@@ 1
Bente 1
Benwell 1
Benz@@ 1
Beowulf 1
Beppe 1
Berbat@@ 1
Berew@@ 1
Berez@@ 1
Berg@@ 1
Bergen 1
Berger 1
Berkel@@ 1
Berkman 1
Berkovit@@ 1
Berman 1
Bermuda 1
Bern 1
Bernard 1
Bernard@@ 1
Bernie 1
Berry@@ 1
Berwick 1
Bes@@ 1
Bespe@@ 1
Bespo@@ 1
Bess@@ 1
Bethlehem 1
Beto 1
Bette 1
Beu@@ 1
Bever@@ 1
Beverage 1
Beversdorf 1
Beyond 1
Bhairavi 1
Bhar@@ 1
Bhu@@ 1
Bhumibol 1
Bibig@@ 1
Bible 1
Bibles 1
Bid 1
Bids 1
Bie@@ 1
Bierman 1
Big@@ 1
Bigg@@ 1
Bil@@ 1
Bili@@ 1
Binoche 1
Bio-tech 1
Biological 1
Biondi 1
Bionic 1
Biope@@ 1
Bir@@ 1
Bird 1
Bish@@ 1
Bishops 1
Blackberry 1
Blackburn 1
Blackhawks 1
Blakey 1
Blanc 1
Blanc@@ 1
Blank@@ 1
Blas 1
Blass 1
Blatter 1
Ble@@ 1
Bless 1
Bli@@ 1
Blimp@@ 1
Blink 1
Block 1
Blondes 1
Blondie 1
Bloo@@ 1
Blunder 1
Blunt 1
Bly 1
BoE 1
Boat 1
Bob@@ 1
Boc@@ 1
Bodies 1
Bodman 1
Boeings 1
Bog@@ 1
Bogota 1
Bohan 1
Bohl 1
Boilermakers 1
Boiling 1
Boks 1
Boll@@ 1
Bon 1
Bon-@@ 1
Bones 1
Bonnaire 1
Bonner 1
Boogie 1
Boomer 1
Booth 1
Borders 1
Borges 1
Boris 1
Bormio 1
Bosk@@ 1
Boss 1
Bott@@ 1
Bou@@ 1
Boul@@ 1
Bound 1
Bour@@ 1
Bouwmeester 1
Bowls 1
Box 1
Boxx 1
Boyd 1
Bra@@ 1
Brad@@ 1
Braden 1
Bragg 1
Bramfitt 1
Brands 1
Brant 1
Bratkowski 1
Bratton 1
Braun 1
Brave 1
Braz@@ 1
Bren@@ 1
Brenda 1
Brendan 1
Brick 1
Bridget 1
Brief 1
Briege 1
Briere 1
Brill 1
Brin 1
Bring 1
Bringing 1
Bristo@@ 1
Bristol@@ 1
Brits 1
Brixton 1
Brnovic 1
Broadcasting 1
Brodeski 1
Brogli@@ 1
Brohm 1
Broin 1
Broken@@ 1
Brokered 1
Bromwich 1
Brook@@ 1
Broven 1
Brox 1
Broxton 1
Brulliard 1
Bruno 1
Brunton 1
Bry@@ 1
Brze@@ 1
Bs 1
Buckeyes 1
Budapest 1
Buff@@ 1
Buil@@ 1
Bulle 1
Bun@@ 1
Buren 1
Bush-@@ 1
Bush@@ 1
Byn@@ 1
C-@@ 1
C.@@ 1
C02 1
C24@@ 1
C2@@ 1
CAIR@@ 1
CAM 1
CAN@@ 1
CB 1
CB@@ 1
CBay@@ 1
CC@@ 1
CCS 1
CD-@@ 1
CDC 1
CEA 1
CEN@@ 1
CFL@@ 1
CFS 1
CG@@ 1
CH 1
CIBC 1
CIL@@ 1
CJ@@ 1
CK@@ 1
CM.@@ 1
CMA 1
CMS 1
COMMENT 1
CON 1
CON@@ 1
COND@@ 1
COR@@ 1
CP 1
CPD 1
CRCS 1
CRE@@ 1
CSKA 1
CT@@ 1
CTR@@ 1
CUE 1
CUS@@ 1
CUT@@ 1
CV 1
CW@@ 1
CX 1
Cact@@ 1
Cadd@@ 1
Caf@@ 1
Caffe 1
Café 1
Cage 1
Cai 1
Cali@@ 1
Califor@@ 1
Calling 1
Cambo@@ 1
Came 1
Camry 1
Canada-based 1
Canal 1
Canary 1
Canaver@@ 1
Canberra 1
Candid@@ 1
Cane 1
Canetti 1
Cango 1
Cant@@ 1
Cantele 1
Canyon 1
Capitals 1
Capp@@ 1
Carafano 1
Caravag@@ 1
Caraway 1
Cardi@@ 1
Cards 1
Career 1
Caren 1
Cares 1
Carey 1
Cargo 1
Carl@@ 1
Carlile 1
Carling 1
Carlo 1
Carlyle 1
Carmona 1
Carnival 1
Caroline 1
Carr@@ 1
Carried 1
Carrots 1
Carry 1
Caryn 1
Case-Shiller 1
Casey 1
Cates 1
Catherine 1
Catr@@ 1
Cauc@@ 1
Caucas@@ 1
Cause 1
Cay@@ 1
Cb@@ 1
Cele@@ 1
Celi@@ 1
Cell@@ 1
Cem@@ 1
Cent 1
Cent@@ 1
Centi@@ 1
Cept 1
Cerio 1
Cert@@ 1
Cesar 1
Cet@@ 1
Ceu@@ 1
Cha 1
Chai@@ 1
Chair 1
Chais@@ 1
Chak 1
Chaka 1
Chakiwar@@ 1
Champi@@ 1
Champs 1
Chan@@ 1
Chandler 1
Channing 1
Chao 1
Chao@@ 1
Characters 1
Charg@@ 1
Charge 1
Charisse 1
Charitable 1
Charonda 1
Chartered 1
Chat 1
Chat@@ 1
Chaud@@ 1
Chaz@@ 1
Che 1
Chefs 1
Chemo@@ 1
Chenia 1
Cheren 1
Cherry 1
Chess 1
Chester 1
Chi 1
Chi@@ 1
Chich@@ 1
Chick@@ 1
Chik@@ 1
Chil@@ 1
Chile 1
Chiles 1
Chin@@ 1
Chink 1
Chisale 1
Chiv@@ 1
Chlam@@ 1
Chlo@@ 1
Choi 1
Chreb@@ 1
Chris@@ 1
Christ 1
Christina 1
Christine 1
Chronic@@ 1
Chulalong@@ 1
Cili@@ 1
Cilli@@ 1
Cim@@ 1
Cindy 1
Cir@@ 1
Citi@@ 1
Cities 1
Citing 1
Claim 1
Claims 1
Clair 1
Claire 1
Clampe@@ 1
Clara 1
Clare 1
Clashes 1
Class@@ 1
Classes 1
Clay 1
Cleg@@ 1
Clem@@ 1
Clement 1
Clements 1
Clemson 1
Clim@@ 1
Clin@@ 1
Cline 1
Clint@@ 1
Clive 1
Clo@@ 1
Closing 1
Clou@@ 1
Cloud 1
Clovis 1
Clu@@ 1
Cmdr@@ 1
Coasts 1
Coat 1
Cochi 1
Coco 1
Coconut 1
Coda@@ 1
Cof@@ 1
Cog@@ 1
Coke 1
Coker 1
Colchester 1
Coleman 1
Coles 1
Colgate 1
Coli 1
Coliseum 1
Collec@@ 1
Colleen 1
Colleges 1
Collegi@@ 1
Colley 1
Cologne 1
Coloplast 1
Color 1
Colsten 1
Colton 1
Com 1
ComRes 1
Comb@@ 1
Combs 1
Comeback 1
Comerford 1
Comes 1
Comic 1
Comics 1
Commodores 1
Common 1
Commun@@ 1
Communic@@ 1
Comp@@ 1
Compan@@ 1
Compares 1
Comparing 1
Compass 1
Competi@@ 1
Compreh@@ 1
Compromise 1
Compu@@ 1
Con 1
Conan 1
Concer@@ 1
Concert 1
Conciliation 1
Concluding 1
Concord 1
Condemned 1
Condens@@ 1
Condevor 1
Conditions 1
Conducting 1
Coney 1
Confi@@ 1
Config@@ 1
Confirmation 1
Conflic@@ 1
Confront@@ 1
Confu@@ 1
Cong@@ 1
Congrat@@ 1
Congrats 1
Congres@@ 1
Connell 1
Connor 1
Conroy 1
Cons 1
Conserv@@ 1
Consider 1
Consider@@ 1
Considers 1
Consol 1
Conspiracy 1
Constable 1
Constru@@ 1
Cont@@ 1
Contacts 1
Contemporary 1
Contepom@@ 1
Contin@@ 1
Contr@@ 1
Contra 1
Contrô@@ 1
Convene 1
Convers@@ 1
Cool 1
Coolpix@@ 1
Coomb@@ 1
Coon 1
Coopers 1
Cooperstown 1
Copland 1
Cops 1
Corbet 1
Cordial 1
Corey 1
Cori@@ 1
Corigli@@ 1
Corium 1
Corn@@ 1
Corner 1
Corpas 1
Corpor@@ 1
Correa 1
Corrections 1
Correspondent 1
Corri@@ 1
Corrosive 1
Cosby 1
Cosco 1
Cost@@ 1
Costeira 1
Cota 1
Cotill@@ 1
Cotte 1
Coughlin 1
Could 1
Counselor 1
Counter 1
Countering 1
Counting 1
Countries 1
Coutu 1
Covel 1
Covenant 1
Cover 1
Coyotes 1
Cozad 1
Crai@@ 1
Cramer 1
Crate 1
Cren@@ 1
Cres@@ 1
Crested 1
Cret@@ 1
Cric@@ 1
Croc 1
Crock 1
Crosby 1
Croshere 1
Crou@@ 1
Crow 1
Crows 1
Croyle 1
Croz@@ 1
Cs 1
Cube 1
Cue 1
Culture 1
Cum@@ 1
Cure 1
Curve 1
Custom@@ 1
Cut 1
Cut@@ 1
Cycl@@ 1
Cyn@@ 1
D01 1
DA@@ 1
DAN@@ 1
DC 1
DCIS 1
DEC@@ 1
DER 1
DG@@ 1
DGA 1
DH@@ 1
DIL@@ 1
DITI@@ 1
DLA 1
DM 1
DM@@ 1
DOR@@ 1
DP 1
DR 1
DRE@@ 1
DRI@@ 1
DSL 1
DT-@@ 1
DU@@ 1
DUR@@ 1
DY 1
DY@@ 1
Da.@@ 1
Dab@@ 1
Dacre 1
Dad 1
Dada 1
Daddy 1
Dade 1
Dadul@@ 1
Dady 1
Daft 1
Dai@@ 1
Dain@@ 1
Daisy 1
Dale 1
Dalian 1
Dall@@ 1
Damian 1
Dando 1
Dane 1
Danes 1
Danger@@ 1
Dani 1
Dar 1
Dari@@ 1
Daring 1
Darr@@ 1
Dart@@ 1
Dartmouth 1
Das@@ 1
Dat@@ 1
Date 1
Dati 1
Daughter 1
Davidson 1
Davo@@ 1
Daw 1
Daw@@ 1
DeCour@@ 1
DeFord 1
DeFrank 1
DeGette 1
DeLauro 1
DeLillo 1
DeNiro 1
DeRosa 1
DeVec@@ 1
DeWa@@ 1
DeWal@@ 1
Deal 1
Deals 1
Dean 1
Deans 1
Dear@@ 1
Deb 1
Debbie 1
Debor@@ 1
Deby 1
Dec 1
Dec@@ 1
Decathlon 1
Deck 1
Declar@@ 1
Deco 1
Ded@@ 1
Deeply 1
Def@@ 1
Definition 1
Defra 1
Degas 1
Degre@@ 1
Degree 1
Degrees 1
Dein 1
Deion 1
Deirdre 1
Dela 1
Delfin@@ 1
Delic 1
Delicate 1
Delight@@ 1
Delima 1
Demo 1
Democratic-@@ 1
Dems 1
Dengue 1
Denis 1
Denise 1
Dental 1
Deported 1
Deposed 1
Deposit 1
Derby 1
Derr@@ 1
Descri@@ 1
Desper@@ 1
Dest@@ 1
Det 1
Deter@@ 1
Deux 1
Deven 1
Devil 1
Devils 1
Dh@@ 1
Dhi@@ 1
Di 1
DiGennaro 1
Dia 1
Diam@@ 1
Diary 1
Dibab@@ 1
Dick@@ 1
Dicker 1
Diction@@ 1
Did@@ 1
Didier 1
Die 1
Diemer 1
Digg@@ 1
Dign@@ 1
Dimitri 1
Dimmock 1
Ding 1
Dings 1
Dip 1
Dipl@@ 1
Dipnote 1
Direc@@ 1
Disappoin@@ 1
Disasters 1
Discipl@@ 1
Disclaiming 1
Disclosure 1
Discus@@ 1
Discussions 1
Diseases 1
Disgrace 1
Disneyland 1
Dispatch 1
Display 1
Displayed 1
Dispute 1
Dist@@ 1
Distribu@@ 1
Districts 1
Diva 1
Divisadero 1
Diyala 1
Dj@@ 1
Dmi@@ 1
Dni@@ 1
Dog 1
Dole 1
Doll 1
Dome 1
Domen@@ 1
Domin@@ 1
Don@@ 1
Doo@@ 1
Dore 1
Dose 1
Dover 1
Dow@@ 1
Drap@@ 1
Draw@@ 1
Dre 1
Dre@@ 1
Dress@@ 1
Dressed 1
Dri@@ 1
Driving 1
Drogba 1
Drought 1
Drum@@ 1
Drunk 1
Drury 1
Dry 1
Ds 1
Dub@@ 1
Dubai@@ 1
Dubliner 1
Duch 1
Duchovny 1
Dudiye@@ 1
Duea 1
Duel 1
Dugard 1
Dujail 1
Dukes 1
Dul@@ 1
Dum@@ 1
Duo 1
Dupont 1
Dupuis 1
Dur@@ 1
Dustin 1
Duvall 1
Dw@@ 1
Dy@@ 1
Dyn@@ 1
E.@@ 1
E.D. 1
E01 1
E07 1
E3@@ 1
ED 1
EEA 1
EFA 1
EKG@@ 1
EKT@@ 1
EM 1
EN 1
ENDS 1
ENE 1
ENIX 1
ENT@@ 1
ENTS 1
EP 1
EP@@ 1
EQU@@ 1
ERA 1
ERDAM 1
ERICA@@ 1
ERS 1
ET@@ 1
ETS 1
EVA 1
EW 1
EY@@ 1
Eag@@ 1
Easter 1
Eastwood 1
Eat 1
Eat@@ 1
Eating 1
Ebert 1
Ebling 1
Ebo@@ 1
Ech@@ 1
Eche@@ 1
Eck@@ 1
Eckert 1
Ecli@@ 1
Ecology 1
Eder@@ 1
Edge 1
Edis@@ 1
Edit 1
Edition 1
Edu@@ 1
Eel@@ 1
Efros 1
Eg@@ 1
Egham 1
Egyp@@ 1
Ehr@@ 1
Eiff@@ 1
Eight@@ 1
Eil@@ 1
Einstein 1
Eisen@@ 1
Elad 1
Elaine 1
Eldar 1
Elders 1
Elec@@ 1
Elfman 1
Elgar 1
Elgin 1
Eli@@ 1
Ellei@@ 1
Ellen 1
Eller@@ 1
Elli@@ 1
Elliott 1
Els 1
Else 1
Elton 1
Elvis 1
Ely 1
Em 1
Emer@@ 1
Emerson 1
Emily 1
Emmert 1
Emmetsburg 1
Emperor 1
Emphasis 1
Emplo@@ 1
EnCan@@ 1
Enables 1
Ended 1
Enders 1
Ending 1
Endo 1
Endress 1
Enemies 1
Enforcement 1
Enhada 1
Enig@@ 1
Ennio 1
Enquirer 1
Enric@@ 1
Ensure 1
Enthu@@ 1
Entirely 1
Environ@@ 1
Environnement 1
Envo@@ 1
Ep@@ 1
Eph@@ 1
Ephr@@ 1
Epi@@ 1
Epo@@ 1
Equ@@ 1
Equin@@ 1
Erb 1
Ere@@ 1
Eres@@ 1
Ern@@ 1
Erup@@ 1
Es 1
Espree 1
Ess@@ 1
Estate 1
Estes 1
Ethan 1
Ethan@@ 1
Ethe@@ 1
Ether@@ 1
Ethiop@@ 1
Eto 1
Etr@@ 1
Eur 1
Euro@@ 1
Euronext 1
Eva 1
Evan 1
Even@@ 1
Event 1
Evil 1
ExCup 1
Exact 1
Exact@@ 1
Exchanged 1
Exchequer 1
Excuse 1
Execution 1
Exhale 1
Exhibition 1
Exile 1
Expand@@ 1
Expedi@@ 1
Exper@@ 1
Experi@@ 1
Expir@@ 1
Expl@@ 1
Export-driven 1
Extell 1
Extensive 1
Extrem@@ 1
Exxon@@ 1
Eye 1
Eyes 1
F136 1
FA 1
FAA 1
FAL@@ 1
FARC 1
FC 1
FC@@ 1
FE 1
FEN@@ 1
FI@@ 1
FIL@@ 1
FILL@@ 1
FIN@@ 1
FINANCIAL 1
FIS@@ 1
FL@@ 1
FLD@@ 1
FM 1
FNL 1
FOL@@ 1
FORM@@ 1
FOX@@ 1
FPO 1
FPP 1
FRE@@ 1
FSA 1
FX 1
FX@@ 1
Fa@@ 1
Facts 1
Fagg 1
Fah@@ 1
Fahim 1
Fail@@ 1
Faki 1
Falling 1
Fan 1
Fan@@ 1
Fant@@ 1
Farr@@ 1
Fast@@ 1
Fat-@@ 1
Fathers 1
Fati 1
Fatic 1
Faubourg 1
Faul@@ 1
Fay@@ 1
Fayette 1
Fed@@ 1
Feder@@ 1
Federici 1
Fel@@ 1
Fenner 1
Fern@@ 1
Fi 1
Fiat 1
Fich@@ 1
Fid@@ 1
Fig@@ 1
Figh@@ 1
Fil 1
Fill 1
Filling 1
Film 1
Finance 1
Financing 1
Finder.com 1
Findus 1
Finegood 1
Fineman 1
Finish 1
Finishing 1
Finjan 1
Finkel 1
Finland 1
Finley 1
Finmec@@ 1
Finn 1
Finnish 1
Fir 1
First-@@ 1
Fischer 1
Fish@@ 1
Fit@@ 1
Flakes 1
Flam@@ 1
Flat 1
Flaun@@ 1
Fli@@ 1
Flight 1
Flights 1
Flo 1
Floo@@ 1
Flor@@ 1
Flushing 1
Flyer 1
Focus 1
Fog@@ 1
Font@@ 1
Foo@@ 1
Forbes@@ 1
Forced 1
Forensic 1
Forest@@ 1
Forge 1
Formed 1
Formul@@ 1
Fornac@@ 1
Forrest 1
Forrester 1
Forsett 1
Forsythe 1
Fort@@ 1
Fortis 1
Forward-@@ 1
Fou@@ 1
Founded 1
Fowler 1
Framework 1
Frampton 1
Franc@@ 1
Frances 1
Frances@@ 1
Franchitti 1
Francis@@ 1
Franco-@@ 1
Francois 1
Fraud 1
Frayer 1
Fred@@ 1
Freddy 1
Freg@@ 1
Fren@@ 1
Fres@@ 1
Frey 1
Friars 1
Fridays 1
Friend 1
Fris@@ 1
Frit@@ 1
Fritz 1
Fro@@ 1
Frrro@@ 1
Frustr@@ 1
Fu 1
Fuj@@ 1
Full 1
Fury 1
Fuse 1
G.@@ 1
G2 1
G2@@ 1
G9 1
GA 1
GAR@@ 1
GB 1
GBY@@ 1
GCC 1
GDT 1
GFI 1
GFS 1
GH 1
GI@@ 1
GIA 1
GIES 1
GILL@@ 1
GNE 1
GNI 1
GP2 1
GPs 1
GSA 1
GU@@ 1
GVA 1
GW 1
Ga@@ 1
Gables 1
Gad@@ 1
Gain@@ 1
Gallery 1
Galli@@ 1
Gallup 1
Gang 1
Gang@@ 1
Gann@@ 1
Gao 1
Garr@@ 1
Garri@@ 1
Gaston 1
Gately 1
Gath@@ 1
Gators 1
Gatt@@ 1
Gatwick 1
Gau@@ 1
Gaugh@@ 1
Gaul@@ 1
Gav@@ 1
Gave 1
Gaz 1
Gebrsel@@ 1
Geff@@ 1
Gelder 1
Gem@@ 1
Gender 1
Gene 1
Gener@@ 1
Gennaro 1
Gent@@ 1
Geoff 1
Geoffrey 1
Georg@@ 1
Georges 1
Georgi@@ 1
Geraldine 1
Gerallt 1
Gerber 1
Gerding 1
Gere 1
Gerecke 1
Gerow 1
Gerrard 1
Gerry 1
Gh@@ 1
Ghad 1
Ghaz@@ 1
Giambi 1
Giant 1
Gib@@ 1
Gibraltar 1
Gifts 1
Gil 1
Gilbert 1
Giles 1
Gill@@ 1
Ging@@ 1
Gingr@@ 1
Giov@@ 1
Gisha 1
Glam@@ 1
Glass 1
Glax@@ 1
Glit@@ 1
Glob@@ 1
Glove 1
Glover 1
GoAmerica 1
Goal 1
God@@ 1
Godd@@ 1
Godiva 1
Goenka 1
Golan 1
Golez 1
Gom@@ 1
Gomes 1
Goo@@ 1
Good@@ 1
Goodman 1
Gop@@ 1
Gore.com 1
Gorge 1
Gosford 1
Gosh 1
Goshen 1
Gossip 1
Got 1
Gothic 1
Gough 1
Govind@@ 1
Grac@@ 1
Grady 1
Graff@@ 1
Grain 1
Gramm@@ 1
Grand@@ 1
Grande 1
Grange 1
Grap@@ 1
Grare 1
Grass 1
Grassi@@ 1
Grassley 1
Gratton 1
Graulich 1
Gravel 1
Greg@@ 1
Grenier 1
Greste 1
Grey 1
Grilled 1
Grinath 1
Grint 1
Gris@@ 1
Grou@@ 1
Ground@@ 1
Groupe 1
Gru@@ 1
Grumman 1
Grun@@ 1
Grus@@ 1
Guangdong 1
Guant@@ 1
Guar@@ 1
Guards 1
Guc@@ 1
Gud@@ 1
Guern@@ 1
Guerr@@ 1
Guess 1
Guevara 1
Guide 1
Guiding 1
Guild 1
Guill@@ 1
Guille 1
Guine@@ 1
Guiseppe 1
Gujarat 1
Gun 1
Gun@@ 1
Guoqiang 1
Gur@@ 1
Gusts 1
Gut@@ 1
Guthrie 1
Guy 1
Gynaec@@ 1
Gyrus 1
H-@@ 1
H1 1
H2 1
H5N1 1
H7 1
H7@@ 1
HAI 1
HAR@@ 1
HCR 1
HCT 1
HDL-C 1
HER@@ 1
HIP@@ 1
HMRC 1
HN 1
HO 1
HOL@@ 1
HOR@@ 1
HOUS@@ 1
HP 1
HSBC 1
Hab@@ 1
Hag@@ 1
Hagan 1
Hagen 1
Hager 1
Hagg@@ 1
Hair 1
Hale 1
Halifax 1
Hall@@ 1
Halle 1
Ham 1
Hana 1
Hang 1
Hank@@ 1
Hann 1
Hanna 1
Hannah 1
Hans 1
Hansen 1
Happ@@ 1
Haq 1
Haralson 1
Harare 1
Harassed 1
Haraz 1
Harbhaj@@ 1
Harder 1
Harding 1
Hardy 1
Hari@@ 1
Harley-@@ 1
Harmison 1
Harmony 1
Haroon 1
Harper 1
Harpo 1
Harrell 1
Harrow 1
Hart@@ 1
Harvey 1
Harvie 1
Harvin 1
Has@@ 1
Hashemi 1
Hasi@@ 1
Hass@@ 1
Hat 1
Hat@@ 1
Hatcher 1
Hate 1
Hatt@@ 1
Hau 1
Haur@@ 1
Hav@@ 1
Haw 1
Haw@@ 1
Hays 1
HdV 1
Heaps 1
Heath 1
Heating 1
Hebrew 1
Hector 1
Hee 1
Hegarty 1
Heid@@ 1
Heier 1
Heimburger 1
Hein@@ 1
Heir 1
Helicop@@ 1
Helicopter 1
Heller 1
Hello 1
Helmand 1
Henne 1
Henri@@ 1
Hens 1
Hens@@ 1
Hert@@ 1
Herzog 1
Heu@@ 1
Hev@@ 1
Hey-@@ 1
Hh 1
Hi 1
Hid@@ 1
High-@@ 1
Hill@@ 1
Hilli@@ 1
Hins@@ 1
Hitting 1
Hixon 1
Hiz@@ 1
Hlad@@ 1
Hmm-hmm-hm@@ 1
Hmong 1
Ho 1
Hoa 1
Hoan 1
Hob@@ 1
Hoch 1
Hodg@@ 1
Hoek@@ 1
Hoern@@ 1
Hof@@ 1
Holding 1
Hole 1
Holik 1
Honey 1
Hoo@@ 1
Hop 1
Hope 1
Hor@@ 1
Horiz@@ 1
Horn 1
Hos@@ 1
Hoskins 1
Hosp@@ 1
Hostage 1
Hostility 1
Hot 1
Hours 1
Hous@@ 1
Hover 1
Howe 1
Hoyas 1
Hoyer 1
Hrbat@@ 1
Hu 1
Hua@@ 1
Huainan 1
Hub 1
Hubert 1
Hue@@ 1
Huelva 1
Huge 1
Huhne 1
Huizing 1
Humane 1
Humanitarian 1
Hus@@ 1
Husain 1
Huston 1
Hyper@@ 1
Hyundai 1
I-A 1
I. 1
IAC 1
IBA 1
IC 1
ICA@@ 1
ICI@@ 1
IDI@@ 1
IE@@ 1
IES 1
IG@@ 1
IIs 1
IL@@ 1
IMB@@ 1
IMS 1
INBUR@@ 1
INDI@@ 1
INGTON 1
INNE@@ 1
INTRI@@ 1
INTs 1
IO 1
IPT@@ 1
IQ 1
IR 1
ISI 1
ISLAMABAD 1
IST 1
ITI@@ 1
ITY 1
Ia 1
Iain 1
Ibn 1
Ice 1
Iced 1
Icel@@ 1
Iftar 1
Igl@@ 1
Igor 1
Igu@@ 1
Ike 1
Il 1
Ile@@ 1
Illin@@ 1
Imag@@ 1
Imm@@ 1
Imp@@ 1
Implic@@ 1
Imran 1
Inc.com 1
Incessant 1
Incidents 1
Incorpor@@ 1
Incre@@ 1
Incredible 1
Indian@@ 1
Indianapolis 1
Indic@@ 1
Indies 1
Indirect 1
Individu@@ 1
Indones@@ 1
Indy 1
Infan@@ 1
Infinitely 1
Info@@ 1
Infr@@ 1
Inge 1
Inger@@ 1
Ingre@@ 1
Ingrid 1
Iniesta 1
Initiative 1
Inman 1
Inmates 1
Innocent 1
Inorganic 1
Ins@@ 1
Insider 1
Inspect 1
Inspiration 1
Institutes 1
Insur@@ 1
Intangible 1
Intelligence 1
Intensity 1
Inter-Services 1
InterActi@@ 1
InterOil 1
Interfax 1
Intergovernmental 1
Interim 1
Interlinked 1
Interoperability 1
Interpreters 1
Intertek 1
Interventions 1
Interview 1
Intimate 1
Inundated 1
Inv@@ 1
Invent 1
Invent@@ 1
Inverg@@ 1
Invern@@ 1
Invest@@ 1
Investments 1
Involving 1
Ion 1
Iori@@ 1
Ira 1
Isa@@ 1
Ish@@ 1
Ishi@@ 1
Isiah 1
Isk@@ 1
Islanders 1
Islands 1
Islet-@@ 1
Isn 1
Isring@@ 1
Issue 1
Issued 1
Issues 1
Istanbul 1
Ivan 1
Ivo 1
Ivá@@ 1
Iwaki 1
Izqui@@ 1
Izz@@ 1
IÂ 1
J.J. 1
J.P. 1
JF@@ 1
JI 1
JMP 1
JNF 1
JO@@ 1
JOL@@ 1
JON@@ 1
JP 1
JP@@ 1
JTC@@ 1
JTF 1
JU@@ 1
Ja@@ 1
Jacob 1
Jacqueline 1
Jacques 1
Jagu@@ 1
Jaguar 1
Jah 1
Jai@@ 1
Jail 1
Jail@@ 1
Jailed 1
Jaison 1
Jamie 1
Jani 1
Jann@@ 1
Jap@@ 1
Jaqu@@ 1
Jaques 1
Jar@@ 1
Jardin 1
Jau@@ 1
Jay@@ 1
Jealous 1
Jean-Claude 1
Jean-Joel 1
Jean@@ 1
Jeans 1
Jebel 1
Jed 1
Jehovah 1
Jenn@@ 1
Jeopar@@ 1
Jess 1
Jess@@ 1
Jet@@ 1
Jetta 1
Jew 1
Jewett 1
Jiang 1
Jill 1
Jim@@ 1
Jin 1
Jind@@ 1
Jitters 1
Joan 1
Joana 1
Joanna 1
Job 1
Joc@@ 1
Jock@@ 1
Jodi 1
Joellen 1
Joginder 1
Johann@@ 1
Johanna 1
Johtje 1
Join 1
Joke 1
Jokingly 1
Jol@@ 1
Jong 1
Jong@@ 1
Joon 1
Jor@@ 1
Jos 1
Josef 1
Jou@@ 1
Jour@@ 1
Jovetic 1
Jovi 1
Jow@@ 1
Joy 1
Juanes 1
Juba 1
Jude 1
Judeo-@@ 1
Judi 1
Juez 1
Jule 1
Juli@@ 1
Juliette 1
Jump 1
Juno 1
Jupiter 1
Jur@@ 1
Jury 1
Justine 1
Juvenile 1
Juvent@@ 1
Juwan 1
Jy-@@ 1
Jyoti 1
KAR@@ 1
KCN@@ 1
KFT@@ 1
KG@@ 1
KN@@ 1
KO 1
KPHO@@ 1
KPS 1
KRON 1
KSB 1
KT@@ 1
Kadhafi 1
Kagan 1
Kahn 1
Kaine 1
Kak@@ 1
Kala 1
Kamp@@ 1
Kan@@ 1
Kandahar 1
Kane 1
Kanes 1
Kang@@ 1
Kare@@ 1
Kari 1
Karin 1
Karm@@ 1
Karti@@ 1
Kas@@ 1
Kass@@ 1
Kassie 1
Kast 1
Kath@@ 1
Kather@@ 1
Kauf@@ 1
Kay 1
Kay@@ 1
Kaz@@ 1
Kazakh 1
Kazakh@@ 1
Keller 1
Kem@@ 1
Kemp@@ 1
Ken@@ 1
Kend@@ 1
Kenne@@ 1
Kennels 1
Kenny 1
Kens@@ 1
Kense@@ 1
Kenyans 1
Kern@@ 1
Kes@@ 1
Kessel 1
Kessler 1
Keuro@@ 1
Khal@@ 1
Khan@@ 1
Khar@@ 1
Khi@@ 1
Kidman 1
Kie@@ 1
Kili@@ 1
Killing 1
Kin 1
Kin@@ 1
Kind@@ 1
Kinder@@ 1
Kings 1
Kinno@@ 1
Kirchner 1
Kis@@ 1
Kla@@ 1
Klan 1
Klim@@ 1
Kline 1
Kline@@ 1
Klo@@ 1
Klu@@ 1
Kmart 1
Knapp 1
Kne@@ 1
Knicks 1
Knife 1
Knight 1
Knights 1
Knop@@ 1
Knowle@@ 1
Knuc@@ 1
Kob@@ 1
Koch 1
Kochi 1
Kod@@ 1
Koen 1
Kof@@ 1
Koh@@ 1
Kohn 1
Koizumi 1
Kol@@ 1
Kon@@ 1
Koolu 1
Koop 1
Kop@@ 1
Kore@@ 1
Kospi 1
Kostopoulos 1
Kostya 1
Kot 1
Kow@@ 1
Kraft 1
Krau@@ 1
Kress 1
Kris@@ 1
Kristen 1
Krom@@ 1
Kru@@ 1
Ku 1
Kum@@ 1
Kur@@ 1
Kus@@ 1
Kush@@ 1
Kut@@ 1
Kuwai@@ 1
Kvamme 1
Kwo@@ 1
Ky 1
L10 1
LAND 1
LBS 1
LCO@@ 1
LDL-C 1
LE 1
LEA 1
LG.@@ 1
LI@@ 1
LIN 1
LIN@@ 1
LIST 1
LOUIS 1
LP 1
LS@@ 1
LV@@ 1
LY@@ 1
Labbé 1
Labo@@ 1
Labor@@ 1
Lac@@ 1
Lack@@ 1
Lacking 1
Lacy 1
Lad@@ 1
Lago@@ 1
Lai@@ 1
Laid@@ 1
Lakes 1
Lamb 1
Lamour 1
Lance 1
Landis 1
Lap 1
Lap@@ 1
Lapparent 1
Lappe@@ 1
Lar@@ 1
Larg@@ 1
Lars 1
Last-@@ 1
Lasts 1
Latendresse 1
Lati@@ 1
Latt@@ 1
Laughter 1
Laurel 1
Laver@@ 1
Lavrov 1
Lay@@ 1
LeBlanc 1
LeBron 1
LeCro@@ 1
LeRoy 1
Leadership 1
Leaf 1
Leah 1
Lean 1
Learning 1
Lease 1
Least 1
Leaven@@ 1
Lecavalier 1
Leefe 1
Leenane 1
Leesburg 1
Leesport 1
Leeu@@ 1
Leftw@@ 1
Legal 1
Legionnaires 1
Legisl@@ 1
Leh@@ 1
Lehr 1
Leigh 1
Leip@@ 1
Leipzig 1
Lekut@@ 1
Lemb@@ 1
Len 1
Len@@ 1
Lend@@ 1
Lens 1
Lenti@@ 1
Leon 1
Leona 1
Leonard 1
Leonel 1
Lepetit 1
Lepis@@ 1
Lesch@@ 1
Less@@ 1
Lest@@ 1
Let@@ 1
Levitic@@ 1
Levy 1
Lew 1
Lew@@ 1
Lex@@ 1
Lexus 1
Leyne 1
León 1
Liang 1
Liars 1
Lib 1
Lick@@ 1
Lid@@ 1
Lie@@ 1
Lifest@@ 1
Lifestyle 1
Lifetime 1
Lifte@@ 1
Lifting 1
Lig@@ 1
Lights 1
Likely 1
Lil 1
Lilas 1
Lily 1
Lin@@ 1
Lincoln 1
Linden 1
Line@@ 1
Links 1
Lion 1
Liquors 1
Lis@@ 1
List 1
Lite 1
Liter@@ 1
Lithu@@ 1
Lives 1
Livni 1
Livre 1
Liz 1
Llo@@ 1
Lloy@@ 1
Lo 1
Loaman@@ 1
Location 1
Lock@@ 1
Loescher 1
Loire 1
Lois 1
Lokomoti@@ 1
Loma 1
Lond@@ 1
Long-@@ 1
Long@@ 1
Looney 1
Lopez 1
Lor@@ 1
Lorelei 1
Losers 1
Losyukov 1
Lot 1
Lot@@ 1
Lott 1
Loudon 1
Louisi@@ 1
Loulis 1
Lourdes 1
Louvre 1
Lover@@ 1
Lt@@ 1
Luallen 1
Lucent 1
Luci@@ 1
Lucia 1
LucidTou@@ 1
Luck@@ 1
Lue 1
Lugar 1
Luggage 1
Luisa 1
Luo 1
Luol 1
Lutz 1
Luzh@@ 1
Lyn@@ 1
Lynn 1
Lys@@ 1
M-hm-hm@@ 1
M03 1
M2@@ 1
M4 1
M56 1
M60 1
M74 1
MAD@@ 1
MAR 1
MASS 1
MBC 1
MBO 1
MC 1
MCD 1
MCK@@ 1
MCM 1
MD 1
MD@@ 1
MEL@@ 1
MEM@@ 1
MEN@@ 1
MEP 1
MES 1
MFA 1
MFS 1
MID@@ 1
MIL@@ 1
MINGTON 1
MLA 1
MLB 1
MM 1
MM@@ 1
MMB@@ 1
MMS 1
MON@@ 1
MOU@@ 1
MP@@ 1
MR@@ 1
MT 1
MU@@ 1
MUS 1
Ma 1
MaSw@@ 1
Maale 1
Maazel 1
Mace@@ 1
Mad 1
Maddie 1
Made 1
Made@@ 1
Madeline 1
Madi@@ 1
Magu@@ 1
Maher 1
Mahmou@@ 1
Mail@@ 1
Maines 1
Mak 1
Maker 1
Makh@@ 1
Mali 1
Maliki 1
Mall 1
Mallon 1
Mamie 1
Mammo@@ 1
Manchester@@ 1
Mandalay 1
Manhatt@@ 1
Mani@@ 1
Manmohan 1
Manny 1
Manolo 1
Mans@@ 1
Mansfield 1
Manufac@@ 1
Manufactur@@ 1
Manuscri@@ 1
Mao@@ 1
Maps 1
Mar 1
Marc@@ 1
March@@ 1
Marcia 1
Marcil 1
Marco 1
Marconi 1
Marcus 1
Marean 1
Maresc@@ 1
Margie 1
Mari@@ 1
Marianne 1
Marin 1
Marina 1
Marinc@@ 1
Marinette 1
Mario 1
Maris 1
Marisha 1
Marka 1
Market@@ 1
Markets 1
Markman 1
Marlow 1
Marmont 1
Maronite 1
Marquette 1
Marquez 1
Marr@@ 1
Marras 1
Marseille 1
Marsha 1
Marshal 1
Mart 1
Mart@@ 1
Marta 1
Martha 1
Martinon 1
Martop@@ 1
Marty 1
Marty-@@ 1
Marty@@ 1
Martyr@@ 1
Marv 1
Marvan 1
Marware 1
Marxist 1
Mary-@@ 1
Mary@@ 1
Maryl@@ 1
Mash@@ 1
Massachu@@ 1
Masse@@ 1
Mat@@ 1
Math 1
Mathews 1
Mathias 1
Matr@@ 1
Mats 1
Matti 1
Maung 1
Maur@@ 1
Maurer 1
Maxwell 1
Maya 1
Mbps 1
McAli@@ 1
McBride 1
McCar@@ 1
McCas@@ 1
McClellan 1
McDade 1
McDar@@ 1
McDon@@ 1
McDy@@ 1
McElfresh 1
McEvel@@ 1
McEwan 1
McFadden 1
McGill 1
McGr@@ 1
McJun@@ 1
McLat@@ 1
McLe@@ 1
McMah@@ 1
McN@@ 1
McNeil 1
McNeilly 1
McNicol@@ 1
McQuillan 1
McTag@@ 1
McTi@@ 1
Me. 1
Meadow 1
Meadows 1
Mealam@@ 1
Means 1
Mears 1
Measuring 1
Meat 1
Meave 1
Meche 1
Med 1
Med@@ 1
Media@@ 1
Mee 1
Mega 1
Mehsud 1
Meier 1
Meigs 1
Melilla 1
Mell@@ 1
Men@@ 1
Mend@@ 1
Mendoza 1
Mene@@ 1
Menn@@ 1
Mercedes 1
Mercer 1
Merchant 1
Mercian 1
Mercury 1
Meredith 1
Mergers 1
Meritori@@ 1
Merle 1
Merlene 1
Merriam 1
Merriweather 1
Merry 1
Mersin 1
Meryl 1
Messe 1
Messe@@ 1
Messi@@ 1
Messier 1
Messner 1
Metho@@ 1
Metro@@ 1
Metromix.com 1
Mezz@@ 1
Mhap@@ 1
Mi.Davis 1
Mian 1
Mice 1
Michal 1
Miche@@ 1
Michelin 1
Michelin-@@ 1
Mick@@ 1
Micro@@ 1
Mideast 1
Mign@@ 1
Mika 1
Mikey 1
Mile 1
Miles 1
Militaire 1
Mill 1
Millet 1
Milli@@ 1
Mims 1
Minaya 1
Mind@@ 1
Mindy 1
Mine 1
Mine-Resistant 1
Ming 1
Mini@@ 1
Mining 1
Ministers 1
Minneapolis 1
Minnes@@ 1
Minnie 1
Minogue 1
Mintz 1
Minutes' 1
Mir 1
Miranda 1
Miriam 1
Misha 1
Miss@@ 1
Mist@@ 1
Mitra 1
Mittal 1
Mix 1
Mixing 1
Mixon 1
MoCA 1
Mob@@ 1
Mobility 1
Mode 1
Moe 1
Mogend@@ 1
Moham@@ 1
Mohler 1
Moi 1
Moll 1
Moms 1
Mona 1
Monaco 1
Monastery 1
Mondale 1
Money@@ 1
Mongolia 1
Monina 1
Monitor 1
Monkeys 1
Monopoly 1
Monroe 1
Monster 1
Mont@@ 1
Monte 1
Montero 1
Montes 1
Montgom@@ 1
Montz@@ 1
Monywa 1
Moonstr@@ 1
Moores 1
Moquet 1
Morris@@ 1
Mors@@ 1
Mosca 1
Moser 1
Mosh 1
Mosley 1
Mosse 1
Mot@@ 1
Mota 1
Mote 1
Motherwell 1
Motown 1
Mottaki 1
Moulin 1
Mountain@@ 1
Movie 1
Movie@@ 1
Moy 1
Moy@@ 1
Muchano 1
Mud 1
Mueller 1
Mughlai 1
Mujaw@@ 1
Muji 1
Muk@@ 1
Mullen 1
Mulroney 1
Multi@@ 1
Munich 1
Muriel 1
Murtaza 1
Musa 1
Musar 1
Museums 1
Mushroom@@ 1
Mushrooms 1
Musical 1
Musli 1
Must 1
Must-@@ 1
Mwai 1
N-IB@@ 1
N.com 1
N2 1
N360 1
NA@@ 1
NAF@@ 1
NAIROBI 1
NAND 1
NATI@@ 1
NC 1
NCI@@ 1
ND 1
NDS@@ 1
NE@@ 1
NFC 1
NG@@ 1
NGO 1
NH@@ 1
NIH 1
NII 1
NIN 1
NIS@@ 1
NJ 1
NNAL 1
NO 1
NOR@@ 1
NPO 1
NPR 1
NS 1
NSW 1
NV 1
NV@@ 1
NW 1
NW@@ 1
Nabe@@ 1
Nad 1
Naga 1
Nagu@@ 1
Nah@@ 1
Nak@@ 1
Nallet 1
Nami@@ 1
Nantes 1
Naples 1
Nas 1
Nass 1
Nath 1
Nativ@@ 1
Native 1
Nav@@ 1
Navig@@ 1
Naw@@ 1
Nay@@ 1
Nazir 1
Neander@@ 1
Near 1
Ned 1
Need 1
Needless 1
Negev 1
Negligence 1
Negri 1
Neigh@@ 1
Neiman 1
Neitz@@ 1
Neko 1
Neller 1
Nelly 1
Nep@@ 1
Ner@@ 1
Nerves 1
Nes@@ 1
Netscape 1
Nev 1
Nev@@ 1
Never@@ 1
Newell 1
Newham 1
Newswire 1
Newton 1
Nezam@@ 1
Nghe 1
Nicol@@ 1
Nicola 1
Nicolas 1
Nigg@@ 1
Nights 1
Nikolai 1
Nile 1
Nils 1
Nine@@ 1
Ninet@@ 1
Ning 1
Nk@@ 1
No-Name 1
No.1769 1
Noa 1
Noah 1
Nob 1
Nobutak@@ 1
Nocioni 1
Noctur@@ 1
Nol@@ 1
Nolan 1
Nom@@ 1
Noord@@ 1
Nor 1
Norbert 1
Nord@@ 1
Norg@@ 1
Norrie 1
Norte 1
Northeast 1
Norwalk 1
Norway@@ 1
Nos. 1
Nott@@ 1
Nour@@ 1
Nov 1
Nov-D@@ 1
Novakovic 1
Nove@@ 1
Novitz@@ 1
Now@@ 1
Nowhere 1
Nowit@@ 1
Nseries 1
Nuggets 1
Nur 1
Nut@@ 1
Nutter 1
Nx@@ 1
Nye 1
O-4 1
O-@@ 1
OCK@@ 1
OE@@ 1
OEM@@ 1
OFF 1
OFF@@ 1
OGO 1
OH 1
OM@@ 1
OP@@ 1
OPE@@ 1
OSH@@ 1
OSX 1
OT 1
OT@@ 1
OTER 1
OTH@@ 1
Oak@@ 1
Ober@@ 1
Obey 1
Obli@@ 1
Observer 1
Ocal@@ 1
Oce@@ 1
Octavio 1
Octob@@ 1
Odile 1
Odom 1
Of@@ 1
Off 1
Off@@ 1
Ofic@@ 1
Oil@@ 1
Oiled 1
Oilers 1
Ojo@@ 1
Ola@@ 1
Ole 1
Olivia 1
Olivier 1
Olymp@@ 1
Olympi@@ 1
Omachi 1
Omer 1
Omes@@ 1
Ono@@ 1
Ontario 1
Open@@ 1
Oper@@ 1
Ophys 1
Opi@@ 1
Oppen@@ 1
Opport@@ 1
Options 1
Oral 1
Oram 1
Oran@@ 1
Orbis@@ 1
Orbit 1
Orbiter 1
OrbusNe@@ 1
Ordered 1
Ordonez 1
Oreg@@ 1
Oren@@ 1
Organisation 1
Orgon 1
Orient 1
Orn@@ 1
Oro@@ 1
Orr 1
Orti 1
Orwell 1
Osc@@ 1
Osi 1
Osl@@ 1
Otherwise 1
Otter 1
Oval 1
Oversi@@ 1
Ovi 1
Oyster-@@ 1
Ozawa 1
P-led 1
PAC 1
PAL@@ 1
PAS@@ 1
PBR 1
PCCS 1
PCs 1
PE@@ 1
PF@@ 1
PG@@ 1
PGM 1
PHO@@ 1
PI 1
PLAN@@ 1
PLC 1
PMC 1
PML-Q 1
PNAS 1
PNC 1
PO 1
POL@@ 1
POO@@ 1
POP@@ 1
POS 1
PPI 1
PSE@@ 1
PST 1
PUR@@ 1
Paci@@ 1
Pack 1
Pad 1
Pad@@ 1
Paddy 1
Paetec 1
Pago@@ 1
Pahl@@ 1
Pain 1
Paint 1
Pajama 1
Pakistan@@ 1
Paley 1
Palfrey 1
Palin 1
Palli-Petr@@ 1
Palma 1
Palmeira 1
Palmesi 1
Palmetto 1
Palminteri 1
Palms 1
Palo 1
Paltronics 1
Pam@@ 1
Pan 1
Pan-@@ 1
Panasonic 1
Panc@@ 1
Panorama 1
Paolo 1
Pap 1
Paper 1
Paprika 1
Parachu@@ 1
Parade 1
Parame@@ 1
Parent 1
Parenth@@ 1
Parenting 1
Pareti 1
Parfitt 1
Parise 1
Parish 1
Parishi@@ 1
Park@@ 1
Parmes@@ 1
Parole 1
Parr 1
Pars 1
Particip@@ 1
Parties 1
Partner 1
Parts 1
Pas 1
Pash@@ 1
Path 1
Path@@ 1
Patr@@ 1
Patricia 1
Patrol 1
Patt@@ 1
Paul@@ 1
Paulison 1
Paulist@@ 1
Paulo 1
Pausing 1
Pav@@ 1
Pavlovic 1
Paw 1
Pax@@ 1
Pay 1
Pay@@ 1
Paz 1
Pct 1
Pe 1
Peabody 1
Peavy 1
Pec@@ 1
Peck 1
Ped@@ 1
Pekkan@@ 1
Pellegrino 1
Pelop@@ 1
Pem@@ 1
Pen 1
Penf@@ 1
Pengu@@ 1
Pens 1
Pens@@ 1
People-@@ 1
Peoples 1
Percent 1
Percy 1
Pereiro 1
Perelman 1
Perfection 1
Perforadora 1
Perform 1
Perform@@ 1
Performed 1
Peril 1
Peripheral 1
Permian 1
Permira 1
Perp 1
Perret 1
Perrier-@@ 1
Perrill@@ 1
Perrin 1
Persepolis 1
Persian-@@ 1
Persie 1
Person 1
Perth-@@ 1
Perugia 1
Peruvi@@ 1
Pess@@ 1
Petro@@ 1
Petron@@ 1
Peugeot 1
Peyto 1
Pfi@@ 1
PhRMA 1
Phaed@@ 1
Phaet@@ 1
Phantom 1
Pharmac@@ 1
Phelps 1
Phetpras@@ 1
Phil@@ 1
Phlebo@@ 1
Phone 1
Photo 1
Phray@@ 1
Phu@@ 1
Phung 1
Phyl@@ 1
Phys@@ 1
Piaf 1
Pich@@ 1
Pico 1
Pie 1
Pied@@ 1
Pierson 1
Pietro 1
Pigeon 1
Pike 1
Pil@@ 1
Pino 1
Pione@@ 1
Piper 1
Pirates 1
Pirlo 1
Pirog 1
Piron@@ 1
Pist@@ 1
Pitie 1
Pix 1
Piz@@ 1
PlGF 1
Place@@ 1
Placement 1
Placid 1
Placid@@ 1
Plains 1
Plan@@ 1
Plank@@ 1
Planned 1
Plant 1
Plasant 1
Plat@@ 1
Plate 1
Platin@@ 1
Playboy 1
Playing 1
Pm 1
Po 1
Poc@@ 1
Pochoir 1
Poham@@ 1
Point 1
Points-@@ 1
Poitr@@ 1
Pokem@@ 1
Poker 1
Pole 1
Polic@@ 1
Polish 1
Poll@@ 1
Pom@@ 1
Ponce 1
Pont@@ 1
Pool 1
Pooling 1
Poop 1
Poor@@ 1
Pop 1
Pope 1
Pors@@ 1
Port@@ 1
Porto 1
Portsmouth 1
Portu@@ 1
Pos@@ 1
Positive 1
Possession 1
Pot 1
Potenti@@ 1
Poux 1
Pra@@ 1
Practitioners 1
Pradesh 1
Prague 1
Praise 1
Pran@@ 1
Prasugre@@ 1
Pre-B@@ 1
Predators 1
Predic@@ 1
Prefer 1
Preliminary 1
Prem@@ 1
Premi@@ 1
Prepared@@ 1
Presidency 1
Presidential 1
Presidents 1
Presiding 1
Press@@ 1
Pret@@ 1
Prevent 1
Preventing 1
Preventive 1
Prewitt 1
Pride 1
Priest 1
Prime@@ 1
Prince-@@ 1
Princes 1
Prius 1
Privil@@ 1
Prize-@@ 1
Prizes 1
Problem 1
Procrit 1
Prodi 1
Produc@@ 1
Productions 1
Professi@@ 1
Profits 1
Programme 1
Progress 1
Progressively 1
Prokop@@ 1
Proliferation 1
Proponents 1
Propul@@ 1
Prosecu@@ 1
Prospect 1
Prosper@@ 1
Protest 1
Protests 1
Proteus 1
Proton@@ 1
Prou@@ 1
Provid@@ 1
Provide 1
Providence 1
Provides 1
Provin@@ 1
Provost 1
Pru@@ 1
Psaki 1
Psar@@ 1
Psych@@ 1
Pte 1
Pti 1
Publi@@ 1
Pun@@ 1
Punjab 1
Punt 1
Push@@ 1
Put 1
Pyl 1
Pyle 1
Pä@@ 1
Pé@@ 1
Q3 1
QChat 1
QLT 1
QPR 1
QRIO 1
QSB 1
QUAR@@ 1
QUARTER@@ 1
QVC 1
Qab@@ 1
Qade@@ 1
Qaida 1
Qaida-@@ 1
Qala 1
Qar@@ 1
Qat@@ 1
Qazi 1
Qd5 1
Qin@@ 1
Quan 1
Quantum 1
Quartet 1
Quds 1
Quiet 1
Quigo 1
Quinte@@ 1
Quip 1
Quite 1
Quitman 1
Quitting 1
Quoted 1
Quoting 1
Qureia 1
Qxb4 1
R.@@ 1
RA 1
RA@@ 1
RAN@@ 1
RATI@@ 1
RBS@@ 1
RCS 1
RCTV 1
RDavis 1
RE 1
RFC 1
RG 1
RH@@ 1
RIM 1
RL@@ 1
RMS 1
RMT 1
RMU@@ 1
RNC 1
RO 1
RO@@ 1
RP 1
RP@@ 1
RS@@ 1
RSP@@ 1
RSS 1
RV 1
RY 1
RY@@ 1
Ra@@ 1
Rac@@ 1
Rach@@ 1
Rachida 1
Racing 1
Radi@@ 1
Rado@@ 1
Raf@@ 1
Rage 1
Ragged 1
Rah@@ 1
Raj@@ 1
Rajasthan 1
Ral@@ 1
Ralph 1
Ram 1
Rand 1
Rand@@ 1
Rania 1
Rap@@ 1
Rapp 1
Rapp@@ 1
Rare 1
Ras@@ 1
Rash@@ 1
Rass@@ 1
Rat 1
Ratt@@ 1
Raw 1
Reaches 1
React 1
Read@@ 1
Reading 1
Reads 1
Ready 1
Rear 1
Reason 1
Rebels 1
Recife 1
Recipe 1
Reconstruction 1
Recoveries 1
Recovering 1
Reda 1
RediClin@@ 1
Reef 1
Reelection 1
Rees 1
Reese 1
Refinery 1
Refund 1
Refuses 1
Regal 1
Regar@@ 1
Region 1
Reich 1
Reinsurance 1
Reiter@@ 1
Rejecting 1
Rekind@@ 1
Rele@@ 1
Reli@@ 1
Relief 1
Rely 1
Rem@@ 1
Remb@@ 1
Remo@@ 1
Rent@@ 1
Rental 1
Repeated 1
Reporte@@ 1
Reporter 1
Reporters 1
Reporting. 1
Reprinted 1
Republi@@ 1
Republic@@ 1
Requests 1
Requi@@ 1
Required 1
Rescuers 1
Reservoir 1
Resign 1
Resignation 1
Resigning 1
Resistor 1
Resort 1
Resorts 1
Respond 1
Response 1
Rest@@ 1
Restaurant 1
Restraint 1
Resulted 1
Results 1
Retired 1
Reu@@ 1
Reunion 1
Reusablebag@@ 1
Revolution 1
Rexam 1
Rhi@@ 1
Rho@@ 1
Riaan 1
Riach 1
Ribeiro 1
Ric 1
Rica 1
Richards 1
Rider 1
Rides 1
Rietz@@ 1
Rig 1
Rigg@@ 1
Rings 1
Rioj@@ 1
Rios 1
Rip@@ 1
Ripe 1
Rising 1
Risk 1
Rita 1
Ritter 1
Ritz 1
Riv@@ 1
Riverside 1
Roaccu@@ 1
Roach 1
Roadside 1
Roasted 1
Robards 1
Robbie 1
Robby 1
Robel 1
Robinowitz 1
Robinsons 1
Robson 1
Rochelle 1
Rochus 1
Rockville 1
Rodeo 1
Rodgers 1
Rodney 1
Rodr@@ 1
Roebu@@ 1
Roenick 1
Rogan 1
Roh@@ 1
Roker 1
Roko@@ 1
Rolex 1
Rolin 1
Roll 1
Roll@@ 1
Roman@@ 1
Romanian 1
Romanians 1
Romano 1
Romantic 1
Romeo 1
Ronaldinho 1
Ronda 1
Roof 1
Roper 1
Rosalind 1
Rosanne 1
Rose@@ 1
Rosem@@ 1
Rosett@@ 1
Rosh 1
Rosie 1
Rosmar@@ 1
Ross@@ 1
Rossi@@ 1
Rosy 1
Rotem 1
Rou@@ 1
Rough 1
Round 1
Rousseau 1
Rout 1
Routine 1
Roux 1
Rover 1
Rowell 1
Rox@@ 1
Roy@@ 1
Royle 1
Rozsi@@ 1
Rubin 1
Rudolf 1
Rudolph 1
Rue 1
Ruiz 1
Rule 1
Runs 1
Rup@@ 1
Rush 1
Russian-born 1
Ruth 1
Rwanda 1
Rx 1
Ry@@ 1
Rye 1
S4@@ 1
SA 1
SB@@ 1
SBA 1
SC 1
SEL@@ 1
SF 1
SF@@ 1
SFA 1
SG 1
SH@@ 1
SING@@ 1
SJ@@ 1
SL 1
SL@@ 1
SM 1
SMC 1
SMS 1
SON 1
SON@@ 1
SPE@@ 1
SPPI 1
SRS 1
SRS@@ 1
SST@@ 1
STE@@ 1
STI 1
SUN@@ 1
SVEN@@ 1
SW@@ 1
SY@@ 1
Saad 1
Sabrina 1
Sacrement 1
Saf@@ 1
Saga 1
Saha 1
Sakharov 1
Sakic 1
Sal 1
Sale 1
Saleh 1
Salis@@ 1
Sallie 1
Salv@@ 1
Samak 1
Samples 1
Samsung 1
Sana 1
Sanc@@ 1
Sander 1
Sandy 1
Sants 1
Sao 1
Sap@@ 1
Saraj@@ 1
Sarasota 1
Saratoga 1
Sarco 1
Sari 1
Sasha 1
Sati@@ 1
Saturn 1
Sauc@@ 1
Saug@@ 1
Savi@@ 1
Scagn@@ 1
Scandinav@@ 1
Scarface 1
Sce@@ 1
Schaeffer 1
Schaschen 1
Sche@@ 1
Scheduled 1
Schi@@ 1
Schnd@@ 1
Schneider 1
Scho@@ 1
Schre@@ 1
Schreck 1
Schultz 1
Schw@@ 1
Schwartz 1
Sci 1
Sciences 1
Scienti@@ 1
Scooter 1
Scop@@ 1
Scot 1
Scream 1
Scri@@ 1
Scrip@@ 1
Scro@@ 1
Scul@@ 1
Seacrest 1
Seafarer 1
Seagate 1
Seal 1
Season 1
Seat 1
Seats 1
Seavi@@ 1
Sebastian 1
Secret@@ 1
Sections 1
Secur@@ 1
Secure@@ 1
See@@ 1
Sees 1
Sefton 1
Segreg@@ 1
Seid@@ 1
Seif 1
Seiko 1
Selec@@ 1
Selig 1
Sell 1
Semer@@ 1
Semin@@ 1
Sen 1
Send 1
Send@@ 1
Sends 1
Seneca 1
Seneg@@ 1
Seng 1
Senger 1
Sensitive 1
Sent@@ 1
Sep 1
Sephardic 1
Sepp 1
Sequo@@ 1
Sera 1
Serb 1
Serbia-@@ 1
Serbo-Cro@@ 1
Serdar 1
Serge@@ 1
Sergio 1
Serie 1
Serious 1
Serjeant 1
Serrao 1
Serte 1
Servers 1
Ses@@ 1
Sessions 1
Seth 1
Sev@@ 1
Seve 1
Severe 1
Sevign@@ 1
Sewell 1
Seymour 1
Sha 1
Shafts@@ 1
Shah@@ 1
Shahi 1
Shahnawaz 1
Shaker 1
Shami 1
Shangh@@ 1
Shannon 1
Share@@ 1
Shariyah 1
Shawa 1
Shed 1
Shenton 1
Shenzhen 1
Sherr@@ 1
Shetty 1
Shi 1
Shillinglaw 1
Shilpa 1
Shine 1
Shiner 1
Shkur@@ 1
Shnewer 1
Shopping 1
Shoptech 1
Shore 1
Short 1
Shot 1
Shrine 1
Shriver 1
Shun 1
Shut 1
Shwed@@ 1
Siegel 1
Sign 1
Signature 1
Sik@@ 1
Sil@@ 1
Sili@@ 1
Sim 1
Simil@@ 1
Simon@@ 1
Simone 1
Sin 1
Sindh 1
Sister 1
Sit 1
Site 1
Six-@@ 1
Sket@@ 1
Skilling 1
Skir@@ 1
Sko@@ 1
Slap 1
Slat@@ 1
Slo@@ 1
Sloo@@ 1
Slov@@ 1
Smi@@ 1
Smith@@ 1
Smu@@ 1
Sn@@ 1
Snapped 1
Snapping 1
Sne@@ 1
Snec@@ 1
Snoop 1
SoHo 1
Soares 1
Soaring 1
Soccer 1
Socks 1
Socr@@ 1
Soda 1
Sof@@ 1
Soli@@ 1
Solic@@ 1
Solo 1
Somer@@ 1
Son@@ 1
Sondheim 1
Song@@ 1
Sonn@@ 1
Sons 1
Sop@@ 1
Sor@@ 1
Sori@@ 1
Sort 1
Soto 1
Soul 1
Soul@@ 1
Sound@@ 1
Southampton 1
Southwest 1
Souza 1
Sow@@ 1
Soy 1
Soyu@@ 1
Spal@@ 1
Spark 1
Sparks 1
Spart@@ 1
Spas 1
Spec@@ 1
Spect@@ 1
Spend@@ 1
Spezza 1
Sph@@ 1
Spiegel 1
Spielberg 1
Spli@@ 1
Spon@@ 1
Sport 1
Sporting 1
Spring@@ 1
Springboks 1
Springfield 1
Springsteen 1
Spur 1
Sput@@ 1
Squ@@ 1
Sr. 1
StL 1
Stacie 1
Stacy 1
Staff@@ 1
Stahl 1
Stairs 1
Stallings 1
Stam@@ 1
Stan@@ 1
Stand@@ 1
Stansted 1
Staph 1
Star-@@ 1
Starts 1
Status 1
Staun@@ 1
Staying 1
Steady 1
Steak 1
Steaua 1
Steel 1
Steelers 1
Steelworkers 1
Steering 1
Steib 1
Step 1
Stepan@@ 1
Ster@@ 1
Stest@@ 1
Stetson 1
Steward 1
Stic@@ 1
Stingley 1
Stolen 1
Stone@@ 1
Stones 1
Stops 1
Story 1
Stra@@ 1
Strachan 1
Straiges 1
Strait 1
Strang 1
Strangely 1
Strategi@@ 1
Strategy 1
Stratus 1
Strauss-Kahn 1
Strayer 1
Stree 1
Stress-free 1
Stri@@ 1
Strike 1
Strips 1
Stro@@ 1
Struck 1
Structured 1
Stur@@ 1
Sturm 1
Style 1
Su 1
Subs 1
Suc@@ 1
Sucre 1
Sudairi 1
Suds 1
Suellen 1
Sues 1
Sugar 1
Sugarland 1
Suish@@ 1
Suit 1
Suits 1
Suleim@@ 1
Sum@@ 1
Summers 1
SunChips 1
Sundaravej 1
Sung-@@ 1
Sunil 1
Sunni-@@ 1
Suphanbur@@ 1
Supp@@ 1
Supt 1
Surg@@ 1
Susie 1
Sustain@@ 1
Suther@@ 1
Suvar@@ 1
Suzuki 1
Sven@@ 1
Swan@@ 1
Swe@@ 1
Sweed 1
Sweep 1
Swit@@ 1
Sword 1
Syl@@ 1
Sylvestre 1
Symantec 1
Symonds 1
Syn@@ 1
Syri@@ 1
T. 1
TAB@@ 1
TAC@@ 1
TAN@@ 1
TAR 1
TAR@@ 1
TAW@@ 1
TB@@ 1
TCP 1
TCS 1
TDs 1
TE 1
TED 1
TEL@@ 1
TER 1
TES 1
TF 1
TF@@ 1
TGV 1
TH 1
TIN 1
TIT@@ 1
TNT 1
TOL@@ 1
TOT@@ 1
TR@@ 1
TT@@ 1
TTO 1
TW@@ 1
TX 1
Ta@@ 1
Table 1
Tabli@@ 1
Tad@@ 1
Tadic 1
Taf 1
Tag@@ 1
Taha 1
Tai@@ 1
Tait 1
Takes 1
Taking 1
Tales 1
Tall@@ 1
Tam 1
Tam@@ 1
Tang@@ 1
Tango 1
Tank@@ 1
Tanti 1
Tanz@@ 1
Tap 1
Tapes 1
Tara 1
Tart@@ 1
Tarts 1
Tas@@ 1
Taste 1
Tau@@ 1
Taur@@ 1
Taxation 1
Tazza 1
Tbili@@ 1
Teachers 1
Teal 1
Teale 1
TeamExchange 1
Tears 1
Tec@@ 1
Techari 1
Ted@@ 1
Tedeschi 1
Tedious 1
Teesside 1
Tejada 1
Tel@@ 1
Tell 1
Templ@@ 1
Ten@@ 1
Tenant 1
Tend@@ 1
Tenn@@ 1
Tennis 1
Tens 1
Tense 1
Tent 1
Tent@@ 1
Tentative 1
Tep@@ 1
Terg@@ 1
Tes@@ 1
Tess 1
Tessa 1
Test@@ 1
Tested 1
Testi@@ 1
Tests 1
Tet@@ 1
Teter@@ 1
Tetrag@@ 1
Teva 1
Tex@@ 1
Thabo 1
Thain 1
Than 1
Thank 1
Thar@@ 1
ThatÂ 1
Theater@@ 1
Theatric@@ 1
Theirry 1
Them. 1
Then-@@ 1
Theo 1
Theod@@ 1
Theola 1
Theory 1
Thi 1
Thi@@ 1
Thin@@ 1
Thing 1
Thins 1
Thir@@ 1
Thoday 1
Thom 1
Thomasch 1
Thome 1
Thorn 1
Thou 1
Thou@@ 1
Thrash@@ 1
Thrashers 1
Throm@@ 1
Thrott@@ 1
Thu 1
Thud 1
Thumping 1
Thura 1
Thus 1
Thwar@@ 1
Tick@@ 1
Tide 1
Tie 1
Tigr@@ 1
Till@@ 1
Tina 1
Tintin 1
Tir@@ 1
Tit@@ 1
Tizi@@ 1
Toasted 1
Tob@@ 1
Tobe 1
Toddler 1
Todeschini 1
Toe 1
Toe@@ 1
Toelke 1
Told 1
Toledo 1
Toll@@ 1
Toly@@ 1
Tomas 1
Tong@@ 1
Too@@ 1
Tool 1
Toomer 1
Topol 1
Tops 1
Tori@@ 1
Toshi@@ 1
Toshiba 1
Totten 1
Tough 1
Toul@@ 1
Tours 1
Toussaint 1
Town@@ 1
Traces 1
Track 1
Traders 1
Trafford 1
Trains 1
Transfer 1
Transit 1
Tread@@ 1
Treas@@ 1
Trends 1
Tres@@ 1
Tribu@@ 1
Tribunal 1
Trou@@ 1
Trump 1
Trusts 1
Trying 1
Tsvet@@ 1
Tsz@@ 1
Tube 1
Tuc@@ 1
Tulowitz@@ 1
Tum@@ 1
Tumble 1
Tun@@ 1
Tuomo 1
Turk@@ 1
Turs@@ 1
Tut@@ 1
Tuthill 1
Tutoplast 1
Tuutti 1
Twin 1
Tys@@ 1
U-M 1
U.C.@@ 1
U.N.C.@@ 1
U20@@ 1
UAL 1
UBS 1
UC-@@ 1
UCB 1
UCF 1
UES 1
UGK 1
UHP 1
UM@@ 1
UP 1
UR@@ 1
UT@@ 1
UTED 1
UZ 1
Ubal@@ 1
Uchi@@ 1
Ugly 1
Uhry 1
Ul-@@ 1
Ulrich 1
Um 1
Unauthorized 1
Unchang@@ 1
Undecided 1
Underground 1
Undetered 1
Undoub@@ 1
Une@@ 1
Unicef 1
Unified 1
Uniform 1
Uniond@@ 1
Unis@@ 1
Unitary 1
Unity 1
Unless 1
Unprecedented 1
Unquesti@@ 1
Untrue 1
Unwelcome 1
Upp@@ 1
Ur@@ 1
Uribe 1
Use@@ 1
Usel@@ 1
User 1
Users 1
Using 1
Usu@@ 1
Usum@@ 1
Ut 1
Ut@@ 1
Utech@@ 1
Utley 1
Utrecht 1
Utt@@ 1
Utter 1
V-@@ 1
V. 1
VAL@@ 1
VAT 1
VB-@@ 1
VEN@@ 1
VER@@ 1
VES 1
VI 1
VID@@ 1
VIII 1
VILLE 1
VIN@@ 1
VLDL-C 1
VLO@@ 1
VMr@@ 1
VNU 1
VSS 1
VU@@ 1
Vacc@@ 1
Vaden 1
Vale 1
Vancouver 1
Vann 1
Var@@ 1
Vard@@ 1
Vast 1
Vault 1
Vax@@ 1
Ved@@ 1
Vehic@@ 1
Vehicles 1
Vel@@ 1
Vela 1
Ven@@ 1
Venezuel@@ 1
Venter 1
Venus 1
Veolia 1
Verd@@ 1
Verdes 1
Verdun 1
Vergangen@@ 1
Verification 1
Vermilion 1
Vermont-@@ 1
Verolme 1
Verona 1
Versas 1
Ves@@ 1
Vessels 1
Vet@@ 1
Vets 1
Vic 1
Vice-@@ 1
Victori@@ 1
Vid@@ 1
Vier@@ 1
Viet@@ 1
Vikings 1
Villa 1
Village 1
Villar@@ 1
Villavicencio 1
Vin@@ 1
Vinokourov 1
Virgin 1
Vis-@@ 1
Vivant 1
Viz@@ 1
Voc@@ 1
Vogue 1
Volunte@@ 1
Vonage 1
Vos 1
Vq43@@ 1
Vrab@@ 1
Vrem@@ 1
Vue 1
Vul@@ 1
W.@@ 1
WAD@@ 1
WALLA@@ 1
WANCE 1
WAS 1
WAU@@ 1
WAY@@ 1
WB@@ 1
WBO 1
WC 1
WHE@@ 1
WHER@@ 1
WI@@ 1
WIC@@ 1
WINE 1
WLS 1
WN 1
WPCS 1
WREN@@ 1
WS 1
WS@@ 1
WTO 1
WYOM@@ 1
Wahoo 1
Wai@@ 1
Wain@@ 1
Wait 1
Wall@@ 1
Wann@@ 1
Want 1
Wants 1
Ward 1
Ward@@ 1
Ware 1
Warg@@ 1
Warri@@ 1
Wash 1
Wash. 1
Washburn 1
Washington@@ 1
Waters 1
Waves 1
Ways 1
WeTru@@ 1
Weakened 1
Weasley 1
Weather@@ 1
Weaver 1
Wedding 1
Weep 1
Wei 1
Weide 1
Wein@@ 1
Weiner 1
Weissman 1
Weld 1
Wend@@ 1
Wenn@@ 1
Werg@@ 1
Wes 1
Wes@@ 1
West-@@ 1
Westin 1
Weyrich 1
Whampo@@ 1
Whar@@ 1
Wharton 1
Whenever 1
Whisen@@ 1
Whisnant 1
Whites 1
Whitney 1
Whitson 1
Wide 1
Wies@@ 1
Wig@@ 1
Wiki@@ 1
Wild@@ 1
Will@@ 1
Willem@@ 1
Wim@@ 1
Wimm@@ 1
Wine 1
Wine@@ 1
Winning 1
Wins 1
Winst@@ 1
Winston 1
Wint@@ 1
Winter@@ 1
Wipro 1
Wir@@ 1
Wiscons@@ 1
Wished 1
Wit@@ 1
Wiz@@ 1
Woerth 1
Wolf@@ 1
Wood@@ 1
Woodstock 1
Woogie 1
Worcest@@ 1
Word 1
Worker 1
Worry 1
Worse 1
Worst 1
Worthington 1
Worthy 1
Wren 1
Wrex@@ 1
Wrigh@@ 1
Wright-@@ 1
Writ@@ 1
Wuhan 1
Wyn@@ 1
X-ray 1
XML 1
XO@@ 1
XP 1
XT 1
XT3 1
XVI 1
Xcelic@@ 1
Xeus 1
Xiao@@ 1
Xie 1
Xmas 1
Xu 1
Xuren 1
Y-1-@@ 1
YAD@@ 1
YANG@@ 1
YC 1
[...]
