, 12839
de 10878
. 8795
la 5000
à 4375
le 3857
et 3665
l' 3553
" 3479
les 3084
des 2969
d' 2823
en 2552
du 2317
a 2117
un 2064
une 1751
est 1715
pour 1601
: 1548
au 1464
qui 1398
dans 1372
que 1326
) 1210
( 1143
par 1042
h 1000
sur 918
pas 842
il 837
plus 785
ont 775
Le 766
se 726
qu' 721
son 712
s' 710
avec 677
ce 606
Les 604
ne 592
été 585
La 575
n' 563
aux 541
- 518
sont 510
ans 447
Il 444
on 427
sa 420
ses 412
deux 388
cette 377
L' 371
; 369
ou 369
Noël 362
y 347
30 346
comme 335
fait 331
mais 331
leur 318
avait 299
était 294
aussi 292
tout 278
elle 268
nous 266
10 265
année 262
décembre 260
même 258
En 249
% 248
c' 241
bien 237
C' 234
être 234
faire 228
ces 219
18 217
entre 215
janvier 213
après 210
depuis 207
ils 206
très 206
Un 205
03 203
où 203
autres 198
Une 197
enfants 197
lui 194
trois 194
? 191
! 189
messe 188
sans 188
... 187
tous 185
14 180
rue 180
On 178
contre 173
2007 171
France 171
avant 171
sera 171
15 170
avoir 170
A 169
si 168
20 167
Mais 166
dont 166
place 165
encore 164
je 164
mois 161
/ 160
9 157
temps 155
dernier 154
pays 154
président 154
1 151
2 149
12 148
Je 148
premier 148
Pour 147
17 145
leurs 145
jusqu' 144
ée 142
alors 141
Ce 140
fin 139
' 137
ainsi 137
peu 135
é 135
2008 132
Et 130
moins 129
jours 128
personnes 128
fois 127
8 126
monde 125
€ 125
000 124
lors 122
Québec 121
ant 118
M. 117
dit 117
hier 117
er 115
3 114
quelques 113
sous 113
88 112
an 112
années 112
Dans 111
déjà 111
jeunes 111
autre 110
première 110
24 109
me 109
toujours 107
és 107
19 106
Tél 106
dimanche 106
peut 106
plusieurs 106
Au 105
vie 105
équipe 105
avaient 104
der 102
6 101
également 101
étaient 101
ait 100
eu 100
Des 99
ai 99
jour 99
7 98
maire 98
16 97
gouvernement 97
Elle 96
die 96
ent 96
quatre 96
11 94
partie 94
89 92
Ils 92
samedi 92
soit 92
ça 92
Nous 91
homme 91
près 91
ées 91
ailleurs 90
hui 90
public 90
français 88
grande 88
nouvelle 88
toute 88
Strasbourg 87
devant 87
famille 87
lieu 87
selon 87
31 86
5 86
h. 86
lundi 86
millions 86
ministre 86
beaucoup 85
euros 85
va 85
déclaré 84
non 84
notre 84
quand 84
seront 84
chez 83
cours 83
j' 83
salle 83
début 82
service 82
4 81
Après 80
groupe 80
saison 80
vers 80
2006 79
25 79
De 79
cet 79
nouveau 79
notamment 77
soir 77
13 76
Cette 76
Dimanche 76
J' 76
donc 76
in 76
pourrait 76
père 76
semaine 76
dernière 75
vous 74
fête 73
heures 73
histoire 73
part 73
vendredi 73
église 73
cas 72
chaque 72
jamais 72
m' 72
match 72
prix 72
22 71
club 71
faut 71
gens 71
mis 71
nos 71
toutes 71
Si 70
aujourd' 70
culte 70
jeudi 70
$ 69
Bhutto 69
association 69
chef 69
six 69
ville 69
1er 68
doit 68
grand 68
politique 68
23 67
Montréal 67
avons 67
côté 67
reste 67
ancien 66
centre 66
née 66
À 66
21 65
Canada 65
D' 65
ceux 65
marché 65
occasion 65
rien 65
45 64
dollars 64
partir 64
voir 64
bonne 63
période 63
travail 63
Paris 62
aura 62
eux 62
moment 62
pouvoir 62
projet 62
route 62
te 62
Lundi 61
fils 61
suis 61
28 60
40 60
Avec 60
bon 60
maison 60
nuit 60
pris 60
puis 60
tél. 60
celle 59
compte 59
mardi 59
novembre 59
pendant 59
cinq 58
elles 58
fêtes 58
mercredi 58
pu 58
quelque 58
scène 58
deuxième 57
devrait 57
face 57
points 57
s 57
spectacle 57
50 56
effet 56
ensemble 56
milliards 56
parce 56
Mme 55
mairie 55
mal 55
membres 55
sécurité 55
trop 55
Ces 54
celui 54
e 54
ici 54
26 53
aient 53
coup 53
es 53
mon 53
nombreux 53
prendre 53
prochain 53
raison 53
souvent 53
surtout 53
27 52
Alsace 52
Colmar 52
commune 52
conseil 52
directeur 52
jeune 52
point 52
suite 52
tête 52
Nicolas 51
Selon 51
annoncé 51
grands 51
jeu 51
mort 51
police 51
sept 51
afin 50
aurait 50
loi 50
nombre 50
t 50
und 50
état 50
Mulhouse 49
Sarkozy 49
a-t-il 49
car 49
mettre 49
mise 49
opération 49
retour 49
soirée 49
femmes 48
fille 48
font 48
huit 48
neige 48
niveau 48
or 48
parents 48
petit 48
cela 47
ons 47
question 47
serait 47
services 47
Pakistan 46
aller 46
derniers 46
dernières 46
droit 46
eau 46
général 46
joueurs 46
maintenant 46
passé 46
septembre 46
Benazir 45
après-midi 45
certains 45
crise 45
demande 45
dire 45
hommes 45
jouer 45
là 45
vu 45
Pierre 44
accord 44
donné 44
dès 44
environ 44
fut 44
journée 44
ligne 44
situation 44
tant 44
école 44
élections 44
Depuis 43
Europe 43
Par 43
entreprise 43
entreprises 43
fonds 43
ouvert 43
passe 43
petits 43
région 43
seul 43
toutefois 43
age 42
autour 42
direction 42
décidé 42
exemple 42
femme 42
long 42
mars 42
matin 42
parti 42
société 42
veut 42
Mardi 41
autant 41
cadre 41
ensuite 41
entrée 41
familles 41
hôpital 41
majorité 41
plutôt 41
savoir 41
secteur 41
semaines 41
sommes 41
Centre 40
Comme 40
belle 40
cause 40
compagnie 40
durant 40
française 40
mieux 40
nouveaux 40
otages 40
passer 40
petite 40
troisième 40
équipes 40
Sur 39
juin 39
musique 39
programme 39
ter 39
États-Unis 39
80 38
François 38
Jean 38
Tout 38
ation 38
décision 38
era 38
hausse 38
moi 38
n 38
personne 38
site 38
veillée 38
village 38
29 37
Sélestat 37
abord 37
aide 37
arrivée 37
ations 37
feu 37
film 37
liste 37
ma 37
ministère 37
o 37
sens 37
seule 37
travaux 37
vue 37
70 36
Etat 36
Français 36
New 36
Son 36
ante 36
ants 36
campagne 36
chose 36
difficile 36
février 36
garde 36
heure 36
i 36
milieu 36
peuvent 36
produits 36
sait 36
vraiment 36
-- 35
Mercredi 35
activités 35
affaires 35
ambiance 35
conditions 35
dix 35
el 35
explique 35
fort 35
indiqué 35
juillet 35
octobre 35
porte-parole 35
premières 35
présence 35
rapport 35
Du 34
Marc 34
Michel 34
Reuters 34
Samedi 34
américaine 34
autorités 34
bois 34
chants 34
ement 34
mes 34
mère 34
propose 34
retraite 34
sein 34
succès 34
tour 34
victoire 34
vont 34
zone 34
00 33
Deux 33
aucun 33
chorale 33
communauté 33
concert 33
croissance 33
départ 33
emploi 33
enfant 33
eur 33
objectif 33
ouverture 33
perdu 33
permis 33
presse 33
risque 33
terme 33
titre 33
vient 33
voiture 33
2005 32
35 32
Jacques 32
Plus 32
République 32
août 32
coeur 32
donner 32
façon 32
marque 32
nom 32
nouvelles 32
présenté 32
responsable 32
reçu 32
seulement 32
terrain 32
té 32
âge 32
100 31
André 31
Eric 31
as 31
den 31
durée 31
entraîneur 31
exposition 31
formation 31
important 31
opposition 31
plan 31
premiers 31
repas 31
tard 31
époque 31
étant 31
75 30
90 30
accueil 30
américain 30
attentat 30
ayant 30
corps 30
doivent 30
doute 30
développement 30
km 30
laquelle 30
pourtant 30
résultats 30
système 30
taux 30
urgence 30
visite 30
von 30
Chine 29
York 29
action 29
air 29
argent 29
auprès 29
but 29
choix 29
désormais 29
hiver 29
morts 29
ouverte 29
parfois 29
peine 29
plaisir 29
porte 29
projets 29
rendez-vous 29
rendre 29
santé 29
semble 29
soutien 29
État 29
37 28
Denis 28
Die 28
Etats-Unis 28
Nord 28
Tous 28
Union 28
able 28
ajouté 28
annonce 28
communes 28
contrôle 28
date 28
estime 28
européenne 28
habitants 28
ie 28
longtemps 28
nationale 28
origine 28
parmi 28
particulièrement 28
plein 28
publique 28
total 28
tourisme 28
vente 28
vin 28
vrai 28
33 27
Cela 27
Philippe 27
anciens 27
anniversaire 27
appel 27
auront 27
auteur 27
baisse 27
beau 27
cadeaux 27
clients 27
demandé 27
fond 27
forme 27
foyer 27
leader 27
libération 27
livre 27
m 27
malgré 27
meilleur 27
mesure 27
mesures 27
nombreuses 27
paix 27
parler 27
politiques 27
possible 27
poste 27
production 27
précise 27
sortie 27
stade 27
sûr 27
tenu 27
venir 27
vite 27
zu 27
élèves 27
+ 26
2003 26
Alain 26
Daniel 26
Paul 26
Sud 26
acteurs 26
affirmé 26
agit 26
ale 26
amis 26
cadeau 26
contrat 26
domicile 26
dossier 26
espace 26
faisait 26
fermé 26
finale 26
gestion 26
grâce 26
guerre 26
haut 26
idée 26
jeux 26
lorsque 26
marchés 26
militaire 26
né 26
pied 26
pièce 26
prison 26
prochaine 26
quartier 26
québécois 26
recherche 26
simple 26
tel 26
théâtre 26
veille 26
Charles 25
Jeudi 25
Premier 25
[ 25
] 25
actuellement 25
affaire 25
antes 25
armée 25
aucune 25
besoin 25
bout 25
carrière 25
chacun 25
cher 25
défense 25
enquête 25
eront 25
grandes 25
gros 25
groupes 25
joué 25
ler 25
libre 25
loin 25
mondiale 25
participation 25
peut-être 25
province 25
puisque 25
quoi 25
rencontre 25
rouge 25
seraient 25
série 25
technique 25
trouver 25
voit 25
électorale 25
200 24
32 24
Afghanistan 24
Conseil 24
Ligue 24
M 24
Trois 24
accident 24
affirme 24
atteint 24
certaines 24
choses 24
commerce 24
commission 24
communiqué 24
devraient 24
donne 24
dû 24
environnement 24
gaz 24
générale 24
image 24
joie 24
main 24
marqué 24
matière 24
moitié 24
participer 24
passage 24
permanence 24
permet 24
plupart 24
presque 24
précisé 24
remis 24
rer 24
réussi 24
soient 24
sud 24
travailler 24
tribunal 24
2004 23
36 23
47 23
Allemagne 23
Bernard 23
Claude 23
Darfour 23
Internet 23
Journal 23
Même 23
Parti 23
absence 23
ais 23
art 23
avenir 23
avril 23
budget 23
buts 23
canadienne 23
capitale 23
clés 23
créer 23
créé 23
dem 23
devra 23
envie 23
ers 23
ferme 23
gardien 23
local 23
mai 23
met 23
mit 23
municipal 23
neuf 23
offert 23
pourraient 23
présent 23
qualité 23
r 23
remporté 23
retrouver 23
réseau 23
tes 23
tir 23
travers 23
u 23
um 23
° 23
Ça 23
économique 23
énergie 23
60 22
Chavez 22
PPP 22
Plusieurs 22
Puis 22
Robert 22
ables 22
activité 22
agence 22
al 22
arrêt 22
blessé 22
bord 22
cependant 22
che 22
connu 22
conseiller 22
côtés 22
derrière 22
différents 22
finalement 22
forte 22
grève 22
intérêt 22
issue 22
lancé 22
longue 22
lumière 22
mains 22
message 22
minutes 22
nouvel 22
photos 22
pourquoi 22
prend 22
sapin 22
trouvé 22
tôt 22
visiteurs 22
voix 22
économie 22
2001 21
2002 21
55 21
David 21
Julien 21
Louis 21
Martin 21
Pas 21
Patrick 21
aire 21
américains 21
ancienne 21
ar 21
augmentation 21
bande 21
bilan 21
chiffre 21
commencé 21
consommation 21
courant 21
droits 21
ens 21
fera 21
fermée 21
froid 21
is 21
joueur 21
juge 21
lieux 21
manière 21
moyens 21
national 21
ni 21
oeuvre 21
organisation 21
particulier 21
permettre 21
pharmacie 21
problèmes 21
proche 21
propre 21
siècle 21
touché 21
us 21
vivre 21
voyage 21
véhicule 21
500 20
52 20
57 20
Alors 20
Aujourd' 20
Certains 20
Christian 20
Coupe 20
E 20
Haguenau 20
Olivier 20
Ottawa 20
Russie 20
Ses 20
St-@@ 20
adjoints 20
administration 20
amour 20
artistes 20
assez 20
avis 20
blessés 20
candidat 20
carte 20
charge 20
chaud 20
circulation 20
clair 20
eaux 20
efforts 20
ez 20
fer 20
fil 20
gauche 20
genre 20
heureux 20
hors 20
international 20
lutte 20
musée 20
naissance 20
offre 20
prise 20
problème 20
proches 20
procès 20
profit 20
présidente 20
prévoit 20
quant 20
ques 20
remise 20
retrouvé 20
rôle 20
sorte 20
tandis 20
ten 20
tenté 20
territoire 20
trouve 20
valeur 20
victime 20
voie 20
écrit 20
émissions 20
établissement 20
événement 20
2009 19
41 19
72 19
Ainsi 19
Air 19
Altkirch 19
Breteau 19
C 19
Canadiens 19
Erstein 19
Musée 19
N' 19
Or 19
Quant 19
S' 19
ajoute 19
ales 19
ard 19
arrive 19
attaque 19
auraient 19
bons 19
compter 19
das 19
devenu 19
disposition 19
divin 19
engagement 19
esprit 19
existe 19
faisant 19
force 19
für 19
g 19
images 19
impression 19
ine 19
inscriptions 19
invités 19
ité 19
journalistes 19
kilomètres 19
laisse 19
lendemain 19
lequel 19
lot 19
législatives 19
matchs 19
objet 19
obtenir 19
oublier 19
outre 19
peur 19
places 19
pleine 19
pompiers 19
pouvait 19
propos 19
présente 19
présidentielle 19
prévu 19
questions 19
record 19
rencontres 19
revenu 19
réduction 19
réforme 19
sociale 19
tournoi 19
traditionnel 19
tu 19
version 19
véhicules 19
véritable 19
ère 19
études 19
01 18
06 18
300 18
65 18
67 18
71 18
Afrique 18
An 18
Bou@@ 18
Cet 18
Christophe 18
Grand 18
Gérard 18
I 18
Lyon 18
Nouvel 18
Québécois 18
accès 18
adjoint 18
assemblée 18
au-delà 18
avance 18
avocat 18
belles 18
bonheur 18
canadien 18
celles 18
cent 18
centaines 18
certaine 18
champion 18
chapelle 18
compétition 18
construction 18
cour 18
crèche 18
d 18
demain 18
difficultés 18
défaite 18
département 18
employés 18
entrevue 18
ex-@@ 18
expliqué 18
faveur 18
football 18
gagner 18
gagné 18
im 18
indique 18
instant 18
ist 18
iste 18
justice 18
logement 18
mer 18
modèle 18
montant 18
nord 18
parc 18
pense 18
personnages 18
policiers 18
population 18
possibilité 18
promis 18
rapidement 18
restaurant 18
russe 18
section 18
sol 18
soldats 18
ue 18
unique 18
vert 18
yeux 18
ères 18
édition 18
élus 18
* 17
44 17
54 17
78 17
92 17
A. 17
Association 17
Colombie 17
Cour 17
Dé@@ 17
Fêtes 17
Infos 17
Irak 17
John 17
Joseph 17
Marie 17
Mots 17
Quand 17
René 17
S. 17
SNCF 17
Ville 17
Vous 17
Washington 17
accueillir 17
actifs 17
aires 17
als 17
animaux 17
assassinat 17
attend 17
centrale 17
chemin 17
choc 17
chocolat 17
choeur 17
cinéma 17
commercial 17
compris 17
coups 17
création 17
culture 17
danse 17
discours 17
décès 17
enne 17
expérience 17
facile 17
films 17
final 17
forêt 17
inscrit 17
internationale 17
investissement 17
l 17
lui-même 17
marche 17
milliard 17
mission 17
mondial 17
mouvement 17
moyen 17
moyenne 17
médaille 17
médecin 17
nature 17
négociations 17
parcours 17
populaire 17
pourra 17
principaux 17
produire 17
présenter 17
quatrième 17
rappelle 17
réalisé 17
signé 17
sort 17
source 17
tirs 17
titres 17
touristes 17
train 17
vent 17
venus 17
villes 17
vins 17
z 17
élection 17
électorales 17
& 16
0 16
150 16
2000 16
2e 16
Christine 16
Emmanuel 16
Enfin 16
Entre 16
Er@@ 16
FC 16
Farc 16
Gar@@ 16
Harper 16
Julie 16
Lightning 16
Maison 16
Notre 16
Parmi 16
Sa 16
Saverne 16
Sports 16
actions 16
aider 16
aime 16
alcool 16
allemand 16
amateurs 16
animé 16
assure 16
attention 16
auf 16
automobile 16
bas 16
base 16
blanc 16
candidats 16
ch 16
championnat 16
colombien 16
conférence 16
consommateurs 16
court 16
demander 16
direct 16
disent 16
domaine 16
ements 16
extérieur 16
fermeture 16
filles 16
hockey 16
importantes 16
importe 16
incendie 16
juste 16
lancer 16
listes 16
logements 16
mann 16
municipalité 16
musicale 16
ner 16
ordre 16
papier 16
partout 16
personnel 16
position 16
pourront 16
printemps 16
produit 16
protection 16
pétrole 16
remettre 16
représentants 16
responsables 16
restent 16
routes 16
répondu 16
rés 16
seconde 16
sociaux 16
sortir 16
spectacles 16
sport 16
table 16
texte 16
tient 16
ton 16
tournée 16
transport 16
ts 16
usine 16
vallée 16
viennent 16
Éric 16
âgé 16
âgées 16
épouse 16
étais 16
éviter 16
43 15
68 15
B 15
Bien 15
Canadien 15
D 15
Djamena 15
Dominique 15
Elles 15
Guy 15
Her@@ 15
Hier 15
Marcel 15
Musharraf 15
Obernai 15
Roger 15
Stéphane 15
Toronto 15
Zoé 15
aine 15
airs 15
ance 15
articles 15
associations 15
assurer 15
assuré 15
auparavant 15
avantage 15
banque 15
bras 15
capital 15
cité 15
comment 15
concernant 15
condamnés 15
confiance 15
contact 15
coûts 15
devenir 15
dirigeants 15
distribution 15
endroit 15
euse 15
faits 15
forces 15
honneur 15
industrie 15
internet 15
invité 15
joue 15
locale 15
manque 15
meilleure 15
meilleurs 15
minuit 15
municipales 15
mêmes 15
net 15
note 15
organisme 15
orphelins 15
perdre 15
pièces 15
polyvalente 15
poursuit 15
proposé 15
prêts 15
quitté 15
rendu 15
représente 15
rues 15
réduire 15
régime 15
seniors 15
sich 15
sie 15
situé 15
ski 15
sociétés 15
souligné 15
taille 15
température 15
tenir 15
uniquement 15
usage 15
vacances 15
valeurs 15
ventes 15
vingtaine 15
volonté 15
vote 15
votre 15
werden 15
étude 15
09 14
38 14
69 14
76 14
800 14
82 14
Angleterre 14
Arche 14
Avant 14
Bas-Rhin 14
Car 14
Comité 14
Est 14
F 14
Hugo 14
Inde 14
Jonathan 14
LNH 14
Marie-@@ 14
Meyer 14
Molsheim 14
Ne 14
Père 14
Sal@@ 14
Société 14
Vincent 14
Yves 14
a-t-elle 14
accompagné 14
adultes 14
animation 14
appels 14
assurance 14
ateur 14
aus 14
automne 14
avenue 14
avions 14
centre-ville 14
chansons 14
classe 14
collecte 14
collège 14
concurrence 14
confirmé 14
continue 14
course 14
coût 14
croit 14
célèbre 14
devait 14
dizaines 14
entrer 14
espoir 14
faites 14
financiers 14
fonction 14
frontières 14
grand-messe 14
géant 14
hôtel 14
identité 14
inclus 14
isme 14
jeunesse 14
laissé 14
livres 14
locaux 14
lorsqu' 14
légèrement 14
mari 14
mode 14
mot 14
médias 14
organisée 14
palais 14
perte 14
peuple 14
phénomène 14
positif 14
principal 14
principe 14
privé 14
publics 14
quitter 14
quotidien 14
raisons 14
rait 14
reprises 14
rester 14
retrouve 14
revanche 14
revenir 14
revenus 14
récemment 14
résultat 14
sainte 14
second 14
servi 14
sous-@@ 14
su 14
subi 14
suivi 14
supplémentaires 14
tellement 14
terre 14
téléphone 14
télévision 14
veulent 14
victimes 14
wie 14
Église 14
écoles 14
éléments 14
émission 14
1998 13
34 13
3e 13
42 13
48 13
49 13
600 13
61 13
73 13
84 13
Autre 13
Bel@@ 13
Belgique 13
Benoît 13
Bowl 13
Bush 13
Canoe 13
Comment 13
DNA 13
Dieu 13
FARC 13
Gracq 13
Haut-Rhin 13
Jean-Pierre 13
Jeux 13
Leur 13
Marché 13
Marseille 13
Nicole 13
Pascal 13
Piscine 13
Santé 13
Serge 13
The 13
US 13
Vosges 13
achat 13
agents 13
allait 13
alsacien 13
ami 13
appelé 13
arriver 13
arrondissement 13
arrêter 13
at 13
attendre 13
avais 13
banques 13
catholique 13
catégorie 13
centaine 13
champions 13
chance 13
changements 13
chasse 13
chaîne 13
circonstances 13
citoyens 13
classement 13
clubs 13
combat 13
comité 13
condamné 13
connaître 13
conséquences 13
davantage 13
devient 13
devons 13
différentes 13
données 13
double 13
décide 13
découvert 13
député 13
efficacité 13
emplois 13
ente 13
exercice 13
experts 13
filet 13
forcés 13
glace 13
haute 13
hommage 13
impact 13
importante 13
information 13
informations 13
ir 13
judiciaire 13
laisser 13
lancée 13
large 13
liberté 13
lycée 13
magasins 13
maisons 13
matches 13
midi 13
moderne 13
nicht 13
objets 13
opérations 13
orchestre 13
organise 13
organisé 13
originaire 13
paroisse 13
partenaires 13
participants 13
partisans 13
peux 13
plateau 13
poursuivre 13
pratique 13
pression 13
privés 13
prière 13
propriétaires 13
présents 13
prêt 13
puissance 13
quel 13
reconnu 13
regard 13
reine 13
rencontrer 13
repris 13
retenu 13
rois 13
répondre 13
rêve 13
sais 13
salaire 13
sang 13
sauf 13
sent 13
simplement 13
siège 13
soeur 13
sommet 13
souligne 13
spectateurs 13
spécialiste 13
sujet 13
surpris 13
surprise 13
séjour 13
talent 13
tentative 13
tenue 13
termes 13
terminé 13
trimestre 13
universités 13
ure 13
venu 13
venue 13
veux 13
vitesse 13
vos 13
voulu 13
vénézuélien 13
wird 13
écrans 13
épreuve 13
événements 13
.- 12
08 12
103 12
1995 12
400e 12
56 12
91 12
95 12
98 12
AFP 12
APA 12
Affaires 12
Alitalia 12
Anne 12
Bu@@ 12
Commission 12
Egypte 12
Eschau 12
Espace 12
Floride 12
Grande-Bretagne 12
Japon 12
Jusqu' 12
Mal@@ 12
Mauritanie 12
Mon 12
Office 12
Pendant 12
Prix 12
Quelques 12
Qui 12
R 12
Renseignements 12
Suisse 12
Thierry 12
Toutefois 12
Vendredi 12
accusé 12
actuelle 12
agent 12
anglais 12
animations 12
arrivé 12
artiste 12
assister 12
assurée 12
attaquant 12
aînés 12
b 12
bach 12
beaux 12
bei 12
bureau 12
bureaux 12
bus 12
calendrier 12
capitaine 12
celui-ci 12
certain 12
chargé 12
chinois 12
civil 12
classes 12
climat 12
commence 12
conclu 12
concours 12
congé 12
continuer 12
couple 12
cuisine 12
culturel 12
dit-il 12
dollar 12
droite 12
découvrir 12
enfance 12
engager 12
ennes 12
entendre 12
entièrement 12
entraînement 12
environs 12
essentiel 12
etc 12
extraordinaire 12
fallait 12
fermés 12
feux 12
fortement 12
futur 12
hauteur 12
ins 12
inscrire 12
intérieur 12
iser 12
k 12
lettre 12
lignes 12
maladie 12
man 12
mauvais 12
maître 12
membre 12
menace 12
militaires 12
milliers 12
million 12
minimum 12
montré 12
montée 12
mots 12
nul 12
numéro 12
néanmoins 12
obtenu 12
office 12
onne 12
orgue 12
ouvrage 12
parle 12
partage 12
partis 12
patron 12
performance 12
petites 12
porter 12
privée 12
processus 12
producteurs 12
professionnelle 12
proposition 12
prudence 12
présentée 12
prévue 12
quelqu' 12
qué 12
raconte 12
rang 12
rapide 12
représentant 12
restaurants 12
retrouvés 12
risques 12
roman 12
réalisation 12
réaliser 12
réalité 12
régulier 12
réunis 12
salariés 12
scénario 12
située 12
soins 12
solidarité 12
somme 12
sondage 12
sortant 12
spécialistes 12
stratégie 12
suivre 12
tabac 12
telle 12
tent 12
tente 12
tions 12
tradition 12
travailleurs 12
tué 12
tée 12
ung 12
université 12
utilisation 12
verre 12
victoires 12
vidéo 12
vingt 12
vit 12
vouloir 12
écart 12
échange 12
étrangères 12
17h 11
1999 11
20h 11
58 11
77 11
AD@@ 11
Alexandre 11
Amérique 11
Aux 11
Bibliothèque 11
Bye 11
Bâle 11
Canoë 11
Cas@@ 11
Clinton 11
D. 11
DVD 11
Devant 11
Dion 11
Face 11
Francis 11
Mathieu 11
Milan 11
Miss 11
Munster 11
Ouest 11
P 11
Paroisse 11
Peter 11
Pourtant 11
Richard 11
Roy 11
Saint 11
Sans 11
Stephen 11
Sébastien 11
TGV 11
Thomas 11
Tom 11
USA 11
Villé 11
Voilà 11
actuel 11
adresser 11
agissait 11
am 11
aménagement 11
anciennes 11
apparaît 11
appris 11
approche 11
arrière 11
assistance 11
atteindre 11
attendant 11
attente 11
auteurs 11
automobilistes 11
balle 11
be 11
bel 11
bientôt 11
billets 11
bonnes 11
bâtiment 11
bénévoles 11
c 11
cancer 11
certainement 11
chambre 11
changement 11
changer 11
changé 11
chanteuse 11
chantiers 11
chanté 11
chercher 11
circuit 11
comédie 11
conducteur 11
contraire 11
couleurs 11
crédit 11
créée 11
demeure 11
disponibles 11
dispositif 11
divers 11
débuté 11
déchets 11
déclare 11
démocratie 11
déplacement 11
effectuer 11
eine 11
entretien 11
ents 11
erait 11
ette 11
eurs 11
exceptionnelle 11
facteur 11
faudra 11
festival 11
foi 11
formule 11
forêts 11
frère 11
goûter 11
historique 11
hivernale 11
humour 11
héros 11
inger 11
inscription 11
investissements 11
lecture 11
lire 11
lit 11
locales 11
magnifique 11
maintenir 11
mandat 11
manifestation 11
ment 11
mises 11
municipale 11
murs 11
musical 11
médecins 11
métier 11
noir 11
objectifs 11
offrir 11
onze 11
ouvrir 11
pages 11
pain 11
parking 11
parlementaire 11
parole 11
passant 11
passes 11
patinoire 11
peines 11
penser 11
permettra 11
piste 11
pointe 11
portes 11
pose 11
possède 11
probablement 11
prochaines 11
prochains 11
procureur 11
profiter 11
propriétaire 11
protéger 11
préparer 11
publié 11
recherches 11
recours 11
reprendre 11
revient 11
régional 11
régions 11
réunion 11
salles 11
scrutin 11
secrétaire 11
signe 11
social 11
sorties 11
tableau 11
telles 11
tendance 11
teurs 11
tiers 11
traditionnelle 11
travaillé 11
tués 11
type 11
télé 11
uns 11
vigueur 11
vivent 11
voilà 11
vols 11
écoute 11
écrivain 11
égard 11
élément 11
époux 11
évidemment 11
05 10
07 10
2-0 10
2010 10
39 10
62 10
64 10
66 10
74 10
83 10
87 10
96 10
Ac@@ 10
Ali 10
Art 10
Banque 10
Barr 10
Bruxelles 10
Capitals 10
Caroline 10
Cernay 10
Chantal 10
Chez 10
Cinq 10
Cinéma 10
Clara 10
Concert 10
Côté 10
Dakar 10
Dr 10
Dès 10
Gonzalez 10
Guerre 10
Guillaume 10
H 10
Ingrid 10
Italie 10
J. 10
Jason 10
Jean-Marie 10
L 10
Lam@@ 10
Laurent 10
Londres 10
Metz 10
Michael 10
Mont@@ 10
Non 10
Ober@@ 10
Parlement 10
Point 10
Poutine 10
Presse 10
Raymond 10
Rojas 10
Saint-Louis 10
Samuel 10
Secteur 10
Sylvie 10
Toute 10
UE 10
UMP 10
Vancouver 10
Wissembourg 10
accepté 10
acteur 10
ade 10
affiche 10
ajoute-t-il 10
alement 10
alisation 10
améliorer 10
ane 10
apporter 10
apprécié 10
arbres 10
ateliers 10
attendent 10
attentats 10
augmenter 10
automobiles 10
autoroute 10
aventure 10
ballon 10
ber 10
bibliothèque 10
blanche 10
boulevard 10
boîte 10
campagnes 10
capable 10
ceinture 10
centres 10
chances 10
chantier 10
charges 10
cherche 10
ches 10
choisi 10
chute 10
cinquantaine 10
clientèle 10
collection 10
commerçants 10
composé 10
comptes 10
concerne 10
conduite 10
confié 10
constaté 10
constitue 10
couleur 10
coupable 10
courte 10
disputé 10
division 10
dizaine 10
dure 10
défendre 10
démocrate 10
dépenses 10
députés 10
dépôt 10
dés 10
dés@@ 10
effectué 10
effets 10
ein 10
enfin 10
enseigne 10
entente 10
erreur 10
espère 10
examen 10
exploitation 10
f 10
fabrique 10
familiale 10
fidèles 10
fierté 10
figure 10
fonctionnement 10
foule 10
frais 10
fédéral 10
fédération 10
fêter 10
gare 10
ge 10
ger 10
grand' 10
grosses 10
guérilla 10
génération 10
hélicoptères 10
ier 10
ies 10
importance 10
instance 10
interdiction 10
intermédiaire 10
investisseurs 10
islamistes 10
jardin 10
journal 10
journaliste 10
jugement 10
largement 10
lien 10
lin 10
liv@@ 10
lé 10
majeur 10
marge 10
matinée 10
maximum 10
ministres 10
minute 10
moments 10
montre 10
municipaux 10
nach 10
nez 10
nucléaire 10
numérique 10
nécessaire 10
nécessaires 10
observateurs 10
officielle 10
one 10
organisateurs 10
ot 10
ouest 10
parties 10
payer 10
permettant 10
personnalités 10
photo 10
placé 10
pont 10
prestation 10
preuve 10
prises 10
professeur 10
profonde 10
proposer 10
propres 10
protestante 10
proximité 10
publiques 10
quart 10
quelle 10
quer 10
quinzaine 10
re 10
reconnaissance 10
reconstruction 10
refusé 10
relève 10
report 10
respect 10
riche 10
rondelle 10
rupture 10
récupérer 10
sauver 10
savent 10
secondes 10
secours 10
silence 10
sociales 10
socialiste 10
soleil 10
souhaite 10
souvenirs 10
sportif 10
station 10
suffit 10
séance 10
sélection 10
ta 10
talents 10
tchèque 10
tera 10
tiré 10
toit 10
totalement 10
tourner 10
travaille 10
trêve 10
tés 10
ve 10
vedette 10
vieux 10
visant 10
vivant 10
voitures 10
vêtements 10
éclairage 10
économies 10
émotion 10
étranger 10
étudiants 10
évangélique 10
île 10
0-0 9
1970 9
400 9
4e 9
63 9
79 9
85 9
94 9
97 9
AS 9
Américains 9
Australie 9
Beaucoup 9
Bell 9
Biesheim 9
Bill 9
Bogota 9
Bourse 9
Brown 9
Bruni 9
CH@@ 9
Catherine 9
Club 9
Communauté 9
Der 9
Durant 9
Emilie 9
Exposition 9
Fer@@ 9
Frédéric 9
Geneviève 9
George 9
Henri 9
Hélène 9
II 9
Ici 9
Im@@ 9
Iran 9
Isabelle 9
Israël 9
Jean-Claude 9
Jean-Luc 9
Jeanne 9
José 9
Jésus 9
Kaysersberg 9
Klein 9
LE 9
Lacroix 9
Lelouch 9
Lors 9
Malgré 9
Mgr 9
Mike 9
Monde 9
Neudorf 9
Né 9
ONG 9
Orly 9
Ostwald 9
Pays 9
Permanence 9
Personne 9
Pervez 9
Reipertswiller 9
Ren@@ 9
Rhin 9
Rois 9
S 9
Sainte-@@ 9
Simon 9
Soleil 9
Sous 9
St-Louis 9
Stade 9
Sécurité 9
Thaksin 9
Toujours 9
Tour 9
Vers 9
Vi@@ 9
Villavicencio 9
Virginie 9
accueilli 9
actes 9
actionnaires 9
adopter 9
alité 9
amitié 9
anges 9
animée 9
appelle 9
arbre 9
ards 9
arrêtés 9
atelier 9
ates 9
attendu 9
bataille 9
bis 9
bourg 9
britannique 9
camp 9
cap 9
capacité 9
cartes 9
chant 9
ciel 9
civile 9
collègues 9
commissariat 9
commun 9
communale 9
communication 9
complètement 9
complété 9
concernés 9
conflit 9
congés 9
consac@@ 9
constater 9
correctionnel 9
coupe 9
criminelle 9
critique 9
curé 9
cérémonie 9
cœur 9
danger 9
demi 9
destinée 9
dette 9
devront 9
difficulté 9
différence 9
directement 9
directrice 9
disait 9
douze 9
duo 9
débat 9
défenseur 9
détail 9
déterminer 9
développer 9
effort 9
eines 9
entend 9
estiment 9
estimé 9
européen 9
extrêmement 9
fabrication 9
faible 9
faite 9
familial 9
faux 9
financement 9
finances 9
financier 9
frappé 9
frontière 9
fruits 9
frères 9
fréquentation 9
fumer 9
fumeurs 9
gamme 9
garçon 9
gegen 9
gendarmerie 9
ger@@ 9
généralement 9
habitude 9
hat 9
ille 9
immeuble 9
imposer 9
impôt 9
inflation 9
intention 9
investir 9
invite 9
ise 9
israélien 9
ités 9
libéral 9
longues 9
lou@@ 9
magazine 9
magique 9
manifestations 9
matériel 9
mauvaise 9
mené 9
menée 9
mineurs 9
monnaie 9
morte 9
multiples 9
musiciens 9
mètres 9
ménages 9
nie 9
nécessité 9
obtient 9
occupe 9
offres 9
olympiques 9
opté 9
ouvre 9
palmarès 9
pari 9
partager 9
pauvreté 9
paysage 9
personnage 9
pire 9
planète 9
popularité 9
portait 9
portant 9
possession 9
prisonniers 9
procédure 9
professionnels 9
promenade 9
présentés 9
puisse 9
quai 9
quement 9
québécoise 9
radio 9
rarement 9
reconnaît 9
relations 9
rend 9
reprise 9
respectivement 9
rose 9
rythme 9
réduit 9
réflexion 9
régimes 9
régler 9
régulièrement 9
réveillon 9
salaires 9
secteurs 9
sel 9
sheim 9
signature 9
sion 9
sièges 9
sources 9
sourire 9
star 9
stationnement 9
style 9
surveillance 9
syndicats 9
sénatrice 9
tableaux 9
tempête 9
terroriste 9
terroristes 9
tique 9
tombe 9
tor@@ 9
tours 9
transparence 9
troupe 9
tuée 9
ues 9
union 9
univers 9
utiliser 9
vais 9
verdict 9
violence 9
visage 9
voient 9
voisin 9
voter 9
votes 9
voulait 9
vraie 9
vétérans 9
willer 9
États 9
ès 9
échanges 9
échelle 9
égalité 9
éré 9
étoile 9
étrangers 9
04 8
160 8
1997 8
46 8
51 8
53 8
5e 8
6e 8
86 8
93 8
99 8
Albert 8
All@@ 8
Antoine 8
Bal@@ 8
Betancourt 8
Blanc 8
Bouchard 8
Bour@@ 8
Californie 8
Chaque 8
Christmas 8
Cou@@ 8
Culture 8
Céline 8
Dor@@ 8
Entrée 8
Espagne 8
F. 8
Fillon 8
Fédération 8
G 8
G. 8
Gerstheim 8
Group 8
Hamas 8
Hochfelden 8
III 8
James 8
Jean-Marc 8
Kenya 8
Lucie 8
Mars 8
Me 8
Musique 8
Nathalie 8
Neu@@ 8
Neuf-Brisach 8
Nouveau 8
Olmert 8
PS 8
Parc 8
Peterson 8
Petit 8
Pourquoi 8
Pré@@ 8
Que 8
Quelle 8
RBO 8
Racing 8
Reste 8
Roland 8
Rome 8
Rouge 8
Ryder 8
Saint-Jean 8
Sainte 8
Schengen 8
Schiltigheim 8
Schmitt 8
Sie 8
Stars 8
Sto@@ 8
Surtout 8
TVA 8
Thann 8
Ti@@ 8
Tricolore 8
Tur@@ 8
Université 8
Val@@ 8
Victor 8
Yannick 8
absolument 8
accusés 8
achats 8
acquis 8
adoption 8
adversaire 8
affronter 8
ages 8
ajoutent 8
ajouter 8
al-Qaïda 8
alentours 8
allant 8
amie 8
amoureux 8
américaines 8
analystes 8
appartement 8
appliquer 8
apporte 8
arme 8
armes 8
arrêts 8
arrêté 8
article 8
artisans 8
assistante 8
ateurs 8
ative 8
atoire 8
attendait 8
attitude 8
auditoire 8
auquel 8
aurais 8
avancée 8
avent 8
basse 8
bateau 8
blessure 8
blessures 8
bouche 8
bâtiments 8
bénéfice 8
camions 8
canadiens 8
canton 8
caractère 8
chalet 8
chauffage 8
chaînes 8
choisir 8
cinquième 8
climatique 8
colère 8
command@@ 8
commissaire 8
communal 8
compagnies 8
comprend 8
conduit 8
confusion 8
connaît 8
consacré 8
considère 8
constate 8
constructeur 8
conte 8
contrairement 8
contrats 8
couvert 8
craint 8
croire 8
crois 8
crèches 8
crée 8
demandes 8
descente 8
devenue 8
diffusé 8
dirigeant 8
discussions 8
disponibilité 8
disposer 8
disputer 8
documentaire 8
documents 8
dois 8
don 8
dossiers 8
débats 8
décider 8
déclaration 8
décret 8
décédée 8
défaut 8
défi 8
démarche 8
départementale 8
déplacements 8
déplacer 8
désert 8
einem 8
einen 8
emporter 8
erie 8
es-@@ 8
essentiellement 8
est-à-dire 8
européennes 8
européens 8
eut 8
excellente 8
explosion 8
faudrait 8
favorable 8
finir 8
finit 8
fiée 8
foot 8
francs 8
françaises 8
fédérale 8
féminin 8
goût 8
gratuite 8
grosse 8
gérant 8
hectares 8
heim 8
immense 8
immobilier 8
inauguration 8
indice 8
instruments 8
interdit 8
internationaux 8
interprété 8
intéressé 8
intérêts 8
invitation 8
ira 8
issement 8
ite 8
junior 8
jury 8
ke 8
kg 8
lac 8
langue 8
lecteur 8
lettres 8
levé 8
ligue 8
limite 8
livré 8
luxe 8
magasin 8
magie 8
maintien 8
malade 8
missions 8
mobile 8
mène 8
médiathèque 8
mémoire 8
ménage 8
non-@@ 8
nés 8
occasions 8
odeur 8
officiel 8
ondes 8
organisations 8
organiser 8
organisées 8
oublié 8
pakistanaise 8
pal@@ 8
paraît 8
parlé 8
participe 8
passagers 8
pasteur 8
personnalité 8
phase 8
plainte 8
plats 8
poche 8
podium 8
poids 8
porté 8
positions 8
possibilités 8
prestations 8
primaire 8
principale 8
profession 8
provenant 8
provinces 8
préparé 8
présidence 8
prévues 8
prête 8
pêche 8
qu 8
quilles 8
qués 8
rappeler 8
rassemble 8
recettes 8
refuse 8
relais 8
religieux 8
religion 8
remporter 8
renseignements 8
rentrée 8
repos 8
res 8
respecter 8
responsabilité 8
ressortissants 8
ressources 8
revers 8
routière 8
règles 8
ré 8
réalisateur 8
réalise 8
récupération 8
réel 8
rées 8
rénovation 8
résoudre 8
sapeurs-pompiers 8
satellite 8
scolaire 8
score 8
seuls 8
siens 8
sites 8
soin 8
solide 8
sorti 8
sports 8
spéciaux 8
statut 8
strasbourgeois 8
structure 8
suisse 8
suit 8
suivie 8
supérieure 8
tab@@ 8
tar@@ 8
tarifs 8
tchadien 8
tels 8
tempêtes 8
tenter 8
textes 8
thème 8
théorie 8
tion 8
tirer 8
tomber 8
touchés 8
trace 8
traitement 8
transfèrement 8
transports 8
tre 8
trentaine 8
trio 8
tz 8
vaste 8
venait 8
villages 8
violent 8
vise 8
visites 8
voeux 8
voire 8
vol 8
vor 8
voulons 8
vécu 8
Écoutez 8
âgée 8
échec 8
électeurs 8
électricité 8
électrique 8
élevé 8
élève 8
épargne 8
établir 8
étage 8
étape 8
évolution 8
-B@@ 7
1,5 7
11h 7
14h 7
18h 7
1950 7
1980 7
19h 7
1ere 7
2012 7
20h30 7
250 7
59 7
700 7
81 7
@ 7
Agence 7
Alex 7
Algérie 7
Andrei 7
Anne-Marie 7
Arsenal 7
Asie 7
Bauer 7
Bor@@ 7
Bouchard-Taylor 7
Bruno 7
Bur@@ 7
CGT 7
Caire 7
Caisse 7
Camsa 7
Canal 7
Caracas 7
Carlos 7
Chambre 7
Champlain 7
Charest 7
Chris 7
Château 7
City 7
Claire 7
Claudine 7
Consuelo 7
Cour@@ 7
DE 7
Das 7
Del@@ 7
Denise 7
Des@@ 7
Déchetterie 7
Départ 7
Eglise 7
Elysée 7
Ensuite 7
Entretiens 7
FIP 7
Fernand 7
Fin 7
Flyers 7
Gilbert 7
Google 7
Gro@@ 7
Groupe 7
Hau@@ 7
In 7
International 7
Jacqueline 7
Jean-Louis 7
Jean-Paul 7
Jou@@ 7
Lab@@ 7
Labeaume 7
Lapierre 7
Lingolsheim 7
Luc 7
Là 7
Mexique 7
Miami 7
Moscou 7
National 7
Nice 7
Obenheim 7
Ontario 7
Oscar 7
Oui 7
Ouverture 7
P. 7
Pakistanais 7
Panthers 7
Pasteur 7
Poste 7
Pu@@ 7
Qu' 7
Rangers 7
Renaud 7
Rohan 7
Ru@@ 7
Régis 7
Schneider 7
Secours 7
Service 7
Soirée 7
Sylvain 7
Tchad 7
U 7
UBS 7
US@@ 7
V 7
Valérie 7
Van 7
Ve@@ 7
Venezuela 7
Vert 7
Vo@@ 7
Vol@@ 7
Wilson 7
XVI 7
Zardari 7
accidents 7
acquérir 7
acte 7
ad 7
adaptation 7
adoration 7
ain 7
ains 7
alliés 7
annoncée 7
annuel 7
annuelle 7
anti-@@ 7
armées 7
assisté 7
associé 7
atmosphère 7
atteinte 7
attendues 7
audience 7
aussitôt 7
automobiliste 7
autonomie 7
avocats 7
aérienne 7
balles 7
baryton 7
bases 7
battu 7
berg 7
blessées 7
bleue 7
boissons 7
boutique 7
bruit 7
bâ@@ 7
bénéficiaires 7
cathédrale 7
centimètres 7
chaleur 7
chapelet 7
chiffres 7
chrétiens 7
château 7
ché 7
chée 7
circonstance 7
citant 7
civils 7
classique 7
collision 7
colombienne 7
combien 7
commis 7
compagne 7
comprendre 7
conclut 7
concurrents 7
condition 7
confier 7
conflits 7
connues 7
conseillers 7
consensus 7
conservateurs 7
consécutive 7
contemporain 7
conteste 7
convivialité 7
conçu 7
coopération 7
copains 7
correspondant 7
cotisation 7
courage 7
courrier 7
courses 7
crédits 7
cène 7
célébrer 7
danses 7
de-@@ 7
dessus 7
destination 7
destiné 7
destinés 7
devaient 7
disparition 7
dispose 7
doigts 7
dominé 7
donnent 7
dons 7
dos 7
drôle 7
due 7
dur 7
décisions 7
décors 7
découverte 7
décédé 7
démocratique 7
détention 7
efficace 7
els 7
emporté 7
empêcher 7
ences 7
endroits 7
engagé 7
engouement 7
enheim 7
enlèvement 7
entraîneurs 7
eraient 7
essais 7
etc. 7
ettes 7
euro 7
explication 7
extraits 7
extrême 7
faim 7
faute 7
feront 7
festivités 7
fiche 7
fidèle 7
financer 7
firme 7
forcer 7
forts 7
fs 7
fédérations 7
fêtera 7
gagne 7
gars 7
garçons 7
gratuit 7
grave 7
graves 7
générations 7
haben 7
habitation 7
hebdomadaire 7
histoires 7
hospitalier 7
humaine 7
humanitaire 7
hy@@ 7
hébergement 7
héroïne 7
imaginaire 7
importants 7
incident 7
incroyable 7
individuel 7
ines 7
inquiète 7
inscrits 7
installations 7
installé 7
installée 7
intervention 7
investi 7
ique 7
israéliens 7
isé 7
it 7
jaune 7
jazz 7
journées 7
joyeux 7
jugé 7
justement 7
laissent 7
lancement 7
langues 7
lesquelles 7
libérer 7
lié 7
lois 7
légende 7
mages 7
magistrat 7
maladies 7
marquer 7
marquée 7
masse 7
massif 7
maternelle 7
meilleures 7
menu 7
merci 7
mettra 7
meurtre 7
musulmane 7
musulmans 7
médicale 7
nativité 7
nettement 7
noms 7
noter 7
négociation 7
officiels 7
orange 7
ouvrages 7
p 7
page 7
pakistanais 7
parlement 7
paroissiale 7
particuliers 7
passera 7
passée 7
passées 7
pause 7
pe 7
peinture 7
performances 7
permettent 7
physique 7
pieds 7
pilote 7
pistes 7
placement 7
plafond 7
plan@@ 7
plans 7
plat 7
potentiel 7
pouvoirs 7
prime 7
principales 7
profite 7
profité 7
progrès 7
promesses 7
promotion 7
prononcé 7
préfère 7
préparation 7
prépare 7
présentation 7
présentes 7
publicité 7
pétards 7
pôle 7
quartiers 7
quasi 7
quée 7
rallye 7
rappelé 7
rapports 7
raté 7
recevoir 7
regarder 7
rejoint 7
remarque 7
remonter 7
remplir 7
remporte 7
rencontré 7
rendements 7
rendus 7
représentent 7
reti@@ 7
retraites 7
revue 7
riches 7
rire 7
rock 7
roi 7
réaction 7
réelle 7
référence 7
régl@@ 7
réjou@@ 7
répond 7
résidence 7
réussir 7
révèle 7
révélé 7
salon 7
sapins 7
savait 7
scènes 7
secret 7
sentiment 7
seules 7
so 7
soirées 7
souffle 7
souhaiter 7
soutenir 7
soutenu 7
soutient 7
sportive 7
spéciale 7
spécialisée 7
stabilité 7
statistiques 7
suffisamment 7
suicide 7
supplémentaire 7
sélectionné 7
sérieusement 7
sérieux 7
t' 7
t-il 7
techniques 7
technologie 7
tent@@ 7
teront 7
th 7
the 7
tiendra 7
tif 7
to 7
trafic 7
traitements 7
traité 7
tran@@ 7
trente 7
tres 7
tribunaux 7
trophée 7
trouvent 7
témoin 7
ultime 7
unité 7
urgences 7
use 7
vague 7
vainqueur 7
valoir 7
vendre 7
via 7
vice-président 7
visiblement 7
visiter 7
vois 7
voisins 7
volant 7
vérité 7
week-end 7
wo 7
wurde 7
x 7
éch@@ 7
économiques 7
élevée 7
élu 7
équilibre 7
équipés 7
équivalent 7
états 7
étoiles 7
évoque 7
.com 6
.fr 6
0-2 6
02 6
104 6
10e 6
14h30 6
1927 6
1953 6
1991 6
1994 6
2-1 6
3-2 6
350 6
58.@@ 6
900 6
AC 6
ADQ 6
ARIS 6
Abbas 6
Adam 6
Agnès 6
Angela 6
Anthony 6
Arnaud 6
Asif 6
Ass@@ 6
Assemblée 6
Autriche 6
BCE 6
BMW 6
Belle 6
Ben 6
Benfeld 6
Bertrand 6
Bil@@ 6
Blair 6
Bloc 6
Bonne 6
Boston 6
Brady 6
Bre@@ 6
Bref 6
Bru@@ 6
Bruins 6
C. 6
CUS 6
Cal@@ 6
Cannes 6
Carla 6
Celle 6
Celui 6
Chirac 6
Citroën 6
Croix 6
Cré@@ 6
Damas 6
Didier 6
Dur@@ 6
Déjà 6
EN 6
ES 6
ES@@ 6
Enfance 6
Ensemble 6
Environnement 6
Euro 6
Feu 6
Florence 6
GES 6
Gabriel 6
Gaza 6
Gendarmerie 6
Georges 6
Gilles 6
Guay 6
Général 6
Hampshire 6
Higgins 6
Histoire 6
Hor@@ 6
Huet 6
Hôpital 6
Institut 6
Justice 6
Jérusalem 6
Jérôme 6
Kevin 6
Kogenheim 6
Kri@@ 6
Lar@@ 6
Latendresse 6
Leh@@ 6
Leurs 6
Louise 6
Loïc 6
Ma 6
Mahmoud 6
Mairie 6
Marguerite 6
Maria 6
Mark 6
Markov 6
Marmoutier 6
Martine 6
Mas@@ 6
Mise 6
Moi 6
Mor@@ 6
Moubarak 6
Mun@@ 6
N 6
Nacht 6
Nations 6
Nativité 6
Nawaz 6
Neuf 6
Nos 6
Notre-Dame 6
O. 6
Op@@ 6
Opération 6
Ouvert 6
Palestiniens 6
Parce 6
Paris-@@ 6
Pascale 6
Peu 6
Pfastatt 6
Phalsbourg 6
Photo 6
Pin@@ 6
Place 6
Police 6
Price 6
Proche-Orient 6
Président 6
Quatre 6
Quoi 6
Rawalpindi 6
Rennes 6
Ribeauvillé 6
Riedisheim 6
Rien 6
Robertsau 6
Roumanie 6
Royal 6
SAQ 6
Sabine 6
Sam@@ 6
Sarre-Union 6
Sharif 6
Somalie 6
Sophie 6
Sor@@ 6
Soultz 6
Sp@@ 6
St 6
Ste-@@ 6
T 6
T. 6
Théâtre 6
Times 6
Tournoi 6
Tri@@ 6
Très 6
VI@@ 6
Vig@@ 6
W. 6
Web 6
ab 6
accepter 6
accords 6
acheté 6
achevée 6
acquisition 6
actif 6
active 6
adjointe 6
adopté 6
adresse 6
adressé 6
affich@@ 6
affiches 6
africain 6
agir 6
agréable 6
aise 6
ajoutant 6
aliser 6
aliste 6
allé 6
amendement 6
amment 6
amoureuse 6
ampleur 6
and 6
animateurs 6
annoncer 6
appareil 6
appartenant 6
application 6
approuvé 6
armés 6
arrivés 6
artistique 6
assaut 6
assurant 6
atif 6
attaché 6
attendus 6
attr@@ 6
auf@@ 6
augmente 6
autrefois 6
auxquels 6
avancement 6
aérien 6
aéroport 6
baleines 6
baril 6
barrage 6
barre 6
basket 6
bassin 6
batterie 6
ben 6
bergers 6
bibliothèques 6
biens 6
bienvenue 6
bilingue 6
ble 6
ble@@ 6
bouger 6
bran@@ 6
brû@@ 6
buffet 6
bâton 6
cahier 6
cellulaire 6
chacune 6
chanter 6
chapitre 6
charbon 6
chauffeur 6
chaussée 6
chefs 6
chen 6
chercheur 6
chercheurs 6
chien 6
chiens 6
choristes 6
chère 6
chés 6
cible 6
cigarette 6
client 6
code 6
coin 6
collaboration 6
colonel 6
commente 6
commerces 6
commerciales 6
communautés 6
compagnon 6
compar@@ 6
complète 6
compléter 6
concerts 6
confirme 6
congrès 6
connaissent 6
connus 6
conservateur 6
conserve 6
consiste 6
consommateur 6
constructeurs 6
conséquence 6
contes 6
contest@@ 6
contre-@@ 6
contre@@ 6
contribué 6
contrôles 6
convaincre 6
conversion 6
convient 6
cote 6
coule 6
coupables 6
coûté 6
craintes 6
critiques 6
cuivre 6
curieux 6
cyclisme 6
célébration 6
célébrée 6
dame 6
danseurs 6
dar@@ 6
dass 6
dehors 6
demi-finale 6
dernièrement 6
différent 6
diminuer 6
diriger 6
dispar@@ 6
disparu 6
disque 6
dit-elle 6
domaines 6
domiciliée 6
donnée 6
dor@@ 6
ds 6
duquel 6
durer 6
dynamique 6
débou@@ 6
débuts 6
déclarations 6
décor 6
décoration 6
défaites 6
délégation 6
démarches 6
démarrage 6
démo@@ 6
dénoncé 6
départs 6
dépit 6
détenu 6
effectue 6
einer 6
ellement 6
em 6
emprunt 6
ence 6
enquêteurs 6
enseignement 6
entendu 6
entier 6
entière 6
entrées 6
envoi 6
envoyer 6
erreurs 6
ert 6
espaces 6
espèces 6
euses 6
eux-mêmes 6
exactement 6
exception 6
exil 6
existence 6
explique-t-il 6
expliquer 6
fabriquer 6
facilement 6
facture 6
fameux 6
fasse 6
festif 6
figur@@ 6
fiscale 6
fié 6
fontaine 6
forcément 6
formations 6
fourni 6
franc 6
front 6
fréquent@@ 6
fus@@ 6
fusion 6
futurs 6
félicite 6
gagnant 6
garantie 6
garder 6
gen 6
geste 6
gouvernance 6
gradins 6
gratuites 6
guère 6
gymnase 6
gymnastique 6
gâteaux 6
gérer 6
h-18 6
habite 6
hall 6
handicap 6
hatte 6
homologue 6
horaires 6
humaines 6
idées 6
immer 6
immeubles 6
immobiliers 6
implantation 6
inc@@ 6
indices 6
indépendance 6
influence 6
initialement 6
initiative 6
initiatives 6
inquiétude 6
installer 6
instruction 6
interventions 6
introduction 6
inviter 6
invitées 6
iné 6
ire 6
isation 6
issant 6
issante 6
istes 6
ivresse 6
joli 6
laine 6
lever 6
libér@@ 6
libéraux 6
lie 6
liens 6
limiter 6
livraison 6
locataire 6
loyer 6
lutter 6
législation 6
légumes 6
légère 6
machine 6
malades 6
manquent 6
manquer 6
manqué 6
mari@@ 6
mariage 6
matières 6
maîtrise 6
menaces 6
mener 6
mercredis 6
mettant 6
mettent 6
metteur 6
mi-@@ 6
milieux 6
mobilisation 6
modes 6
moindre 6
mondiales 6
monter 6
montrent 6
montrer 6
moral 6
mur 6
mécanique 6
médailles 6
mérite 6
métiers 6
nation 6
nes 6
noch 6
noire 6
normal 6
notes 6
obligé 6
obsèques 6
oeil 6
of 6
oiseaux 6
ol 6
ologie 6
onné 6
opposé 6
options 6
os 6
our 6
ours 6
outils 6
palestinien 6
pan@@ 6
paraissent 6
parfaite 6
parisien 6
parlementaires 6
paroisses 6
partagé 6
participé 6
parts 6
parvient 6
pen@@ 6
perspective 6
pes@@ 6
pianiste 6
plate-forme 6
pluie 6
pluies 6
plume 6
portefeuille 6
possibles 6
post-@@ 6
poubelles 6
poursuivra 6
poussé 6
prati@@ 6
prenant 6
primaires 6
producteur 6
prolongation 6
prolonger 6
proposera 6
propositions 6
proposées 6
précédent 6
préfér@@ 6
présentant 6
prêtes 6
publier 6
puisqu' 6
pur 6
pée 6
pétroliers 6
quasiment 6
quinze 6
quête 6
racheté 6
racines 6
rails 6
rant 6
rare 6
recyclables 6
redressement 6
regarde 6
rejoindre 6
relation 6
relativement 6
relever 6
remarquable 6
remercier 6
remises 6
rendement 6
rendue 6
rentrer 6
reportage 6
reportée 6
reprend 6
respectée 6
restera 6
retard 6
retrait 6
retrouvée 6
reçus 6
rouges 6
réactions 6
réception 6
récession 6
réchauffer 6
réclamé 6
régulière 6
rémunération 6
réponses 6
réputation 6
réputé 6
réserve 6
résolution 6
réunir 6
rê@@ 6
rôles 6
sacré 6
sacs 6
satisfait 6
sauvages 6
sciences 6
scolaires 6
secrétariat 6
semblait 6
semblent 6
sensibles 6
sentir 6
ser 6
signée 6
sinon 6
situations 6
siècles 6
soeurs 6
soi 6
solo 6
solution 6
souffert 6
souligner 6
souviens 6
ssant 6
stand 6
stocks 6
subvention 6
sud-est 6
super@@ 6
surprises 6
survenu 6
survenue 6
suscite 6
suspect 6
suspendre 6
symbole 6
sympathique 6
sélections 6
séries 6
sûreté 6
tapis 6
technologies 6
tenant 6
termine 6
terminer 6
terminée 6
tienne 6
tifs 6
tiques 6
titulaire 6
top 6
touristique 6
tourné 6
traditionnels 6
traduit 6
tranches 6
transaction 6
transformer 6
transmis 6
traversé 6
trice 6
troupes 6
trouvait 6
trésor 6
tue 6
types 6
tz@@ 6
tées 6
téléphon@@ 6
téléviseurs 6
têtes 6
unanimité 6
uni 6
unies 6
universitaire 6
unter 6
vas 6
venaient 6
vendus 6
venues 6
vera 6
vide 6
vieil 6
visibilité 6
vive 6
volontaires 6
vosgien 6
voyages 6
vé@@ 6
vénézuéliens 6
vêpres 6
wer@@ 6
yer 6
zen 6
âgés 6
écologique 6
écriture 6
éditeur 6
églises 6
ém@@ 6
émotions 6
étapes 6
étions 6
évacuation 6
évident 6
îles 6
über 6
1-0 5
11,@@ 5
110 5
11e 5
15h 5
16e 5
1945 5
1957 5
1962 5
1972 5
1989 5
1990 5
1992 5
21h 5
23@@ 5
34@@ 5
5,5 5
8-@@ 5
8e 5
AC@@ 5
AG@@ 5
AGF 5
AL@@ 5
AMF 5
ASPTT 5
AUT 5
Abéché 5
Acc@@ 5
Adèle 5
Ajaccio 5
Aleg 5
Alexander 5
Anna 5
Armée 5
Aucun 5
Aut@@ 5
Avenir 5
Aï@@ 5
B. 5
Bach 5
Bachelot 5
Bagdad 5
Ballon 5
Bas@@ 5
Bat@@ 5
Bay 5
Beck 5
Benjamin 5
Berlin 5
Bernier 5
Bischheim 5
Bischwiller 5
Bon 5
Bon@@ 5
Bossue 5
Bretagne 5
Brière 5
Brésil 5
CH 5
CICR 5
Camille 5
Canucks 5
Carbonneau 5
Carrefour 5
Cartier 5
Casey 5
Center 5
Certaines 5
Certes 5
Chap@@ 5
Che@@ 5
Christ 5
Christkindel 5
Cirque 5
Cité 5
Clemens 5
Coll@@ 5
Croix-Rouge 5
Crosby 5
Cuba 5
Cy@@ 5
Cécile 5
Dannemarie 5
Devoir 5
Difficile 5
Do@@ 5
Dolphins 5
Don 5
Dou@@ 5
Dr@@ 5
Dumont 5
Déry 5
EDF 5
ER 5
ET 5
El 5
Elena 5
Elisabeth 5
Elizabeth 5
Emma 5
Encore 5
Ensisheim 5
Es 5
Européens 5
FMI 5
FRA 5
Fabrice 5
Facebook 5
Fe@@ 5
Fessenheim 5
Finalement 5
Finances 5
Fischer 5
Football 5
Forêt 5
France-KLM 5
Franck 5
Frey 5
GDF 5
GMF 5
Ga@@ 5
Garage 5
Garcia 5
Ges@@ 5
Gl@@ 5
Glasgow 5
Gou@@ 5
Gran@@ 5
Grande 5
HLM 5
Ha@@ 5
Halte-garderie 5
Hariri 5
Hillary 5
Hirtzbach 5
Hol@@ 5
Hopper 5
Hosni 5
Hé@@ 5
IS@@ 5
IV 5
Intérieur 5
Jahr 5
Januar 5
Jean-Philippe 5
Juliette 5
Jung 5
Karine 5
Kibaki 5
Kl@@ 5
Kostitsyn 5
Kovalev 5
L. 5
LA 5
LCD 5
La@@ 5
Lapointe 5
Lau@@ 5
Lav@@ 5
Laval 5
Leclerc 5
Limersheim 5
Lionel 5
Lor@@ 5
Lorsqu' 5
Los 5
Léon 5
M.@@ 5
MAR@@ 5
MJC 5
Madame 5
Madrid 5
Maintenant 5
Mann 5
Mario 5
Maroc 5
Mat@@ 5
Maurer 5
Maxime 5
May@@ 5
Menschen 5
Merkel 5
Mes 5
Michaël 5
Mickaël 5
Monsieur 5
Moyen-Orient 5
Muller 5
My@@ 5
Médiathèque 5
Ménard 5
Nach 5
Nadine 5
Nancy 5
Nantes 5
Nathan 5
Neuhof 5
Nez 5
Ni@@ 5
Noëls 5
ON@@ 5
ONU 5
OT 5
OT@@ 5
Odinga 5
Organisation 5
Ou 5
Ouellet 5
Outre 5
PI@@ 5
PIB 5
POULE 5
Pap@@ 5
Park 5
Pelletier 5
Petite 5
Pharmacie 5
Pou@@ 5
Prozent 5
Präsident 5
Près 5
Quel 5
Québec-Canada 5
R. 5
RD 5
RI@@ 5
Rachid 5
Radio-Canada 5
Rendez-vous 5
Rhinau 5
Rick 5
Rio 5
Robin 5
Romain 5
Rose 5
Rosheim 5
Région 5
SA@@ 5
Sabres 5
Saint-Sylvestre 5
Sainte-Cène 5
San 5
San@@ 5
Sandra 5
Sarrebourg 5
Sarreguemines 5
Schw@@ 5
Se 5
Sim@@ 5
Six 5
Sony 5
Statistique 5
Steinbourg 5
Stille 5
Strasbourg-@@ 5
Sundgau 5
Sur@@ 5
Sé@@ 5
Sénateurs 5
TF1 5
TQS 5
Ter@@ 5
Thur 5
Tinto 5
Tit@@ 5
Todd 5
Tokyo 5
Toutes 5
UN@@ 5
Und 5
Valeria 5
Vallée 5
Van@@ 5
Vauban 5
Vie 5
Visite 5
Vladimir 5
Voici 5
Véronique 5
WE@@ 5
WILLER 5
Wasselonne 5
Weber 5
Weiss 5
Wil@@ 5
Wisches 5
_ 5
abattement 5
ablement 5
abords 5
ac 5
accompagnée 5
accompagnés 5
accorde 5
accordé 5
accro@@ 5
accroître 5
accueille 5
accueillera 5
accuse 5
aci@@ 5
actionnaire 5
activistes 5
adapté 5
ades 5
adhésion 5
adressant 5
affecté 5
affirmant 5
affron@@ 5
agglomération 5
agression 5
agé 5
aile 5
aille 5
aiment 5
aimerais 5
aimé 5
album 5
albums 5
alerte 5
alimentaire 5
alisme 5
alisée 5
alli@@ 5
allons 5
allée 5
alpin 5
ambassadeur 5
ange 5
anglaise 5
animal 5
animateur 5
apparemment 5
apporté 5
apprendre 5
arabe 5
armoire 5
arrivent 5
arrière-@@ 5
arrêtées 5
aspect 5
assassins 5
atifs 5
atiques 5
atoires 5
ats 5
attentat-suicide 5
attirer 5
attribution 5
au-dessus 5
auch 5
augmenté 5
aus@@ 5
auto@@ 5
autonome 5
autrement 5
avancé 5
avancées 5
aviaire 5
avion 5
aériennes 5
bail 5
bain 5
baissé 5
bar 5
basé 5
battre 5
bav@@ 5
beauté 5
besoins 5
blessée 5
blo@@ 5
boire 5
bombe 5
bonbons 5
bottes 5
bouteille 5
bouteilles 5
bre 5
bref 5
brésilien 5
bénédiction 5
bénéfices 5
bénéficiaire 5
bénéficier 5
cabinet 5
cache 5
café 5
caisse 5
calme 5
camion 5
caméra 5
canadiennes 5
candidature 5
cant@@ 5
carbone 5
carrés 5
carton 5
caserne 5
catholiques 5
celle-ci 5
central 5
cents 5
certes 5
certi@@ 5
cessez-le-feu 5
champagne 5
change 5
chanson 5
chargée 5
charme 5
chaude 5
chaussures 5
chent 5
chev@@ 5
chiff@@ 5
cht 5
ci-dessous 5
cimetière 5
circonscription 5
classiques 5
co 5
coeurs 5
collec@@ 5
combats 5
combattants 5
combiné 5
commencer 5
commenté 5
commettre 5
complet 5
complexe 5
complicité 5
compromis 5
comptent 5
concertation 5
condamnée 5
confie 5
confort 5
connue 5
conscience 5
conseils 5
conserv@@ 5
consom@@ 5
constat 5
constat@@ 5
constituent 5
construire 5
construit 5
contribution 5
convention 5
conviction 5
conç@@ 5
cop@@ 5
coulisses 5
couronne 5
coéquipier 5
croisé 5
croisée 5
cru 5
ction 5
curiosité 5
cédé 5
dangereux 5
demandant 5
demeurer 5
demi-@@ 5
demie 5
den@@ 5
deuil 5
devenues 5
devenus 5
devise 5
devoir 5
di 5
dialogue 5
dirige 5
discu@@ 5
dispositifs 5
distinction 5
distribu@@ 5
district 5
diverses 5
divertissement 5
dominicale 5
donnait 5
doublé 5
doutes 5
drame 5
dynam@@ 5
décrets 5
décro@@ 5
dées 5
défend 5
défendu 5
défini 5
définitivement 5
délai 5
démarrer 5
dépasse 5
dépense 5
dépensé 5
déployés 5
déposer 5
déroulera 5
désir 5
dét@@ 5
détermin@@ 5
e-t-il 5
effectu@@ 5
elle-même 5
embar@@ 5
emment 5
encadrement 5
enchaîné 5
end 5
engins 5
enjeu 5
enregistrement 5
entouré 5
entraîne 5
entraînements 5
entraîneur-chef 5
entraîné 5
envers 5
envoyé 5
er-@@ 5
esprits 5
essai 5
est-il 5
et-@@ 5
eucharistie 5
ex 5
excellence 5
exercer 5
exigé 5
existent 5
expert 5
explications 5
expliqu@@ 5
explosifs 5
expéri@@ 5
extrêmes 5
exécution 5
eût 5
fabricant 5
faisaient 5
fallu 5
familiales 5
fausse 5
favorables 5
fenêtre 5
fi 5
fiction 5
fier 5
fiers 5
file 5
financements 5
financière 5
finden 5
fini 5
fleuve 5
flo@@ 5
fonctionnaires 5
fonctionne 5
fonctionner 5
fondateur 5
fortes 5
fossé 5
fou 5
foulée 5
fournir 5
fournisseurs 5
foyers 5
frapp@@ 5
fraude 5
fruit 5
fumeur 5
fumée 5
féminines 5
fêté 5
galette 5
gardiens 5
gel@@ 5
genoux 5
ges@@ 5
gestionnaire 5
gibt 5
gie 5
glaces 5
gne 5
gouvernements 5
grand-père 5
grands-parents 5
graphie 5
gras 5
gri@@ 5
grippe 5
grièvement 5
gé 5
géants 5
généreux 5
générosité 5
géré 5
habitait 5
habitant 5
habitat 5
handicapés 5
harmonie 5
hasard 5
hauts 5
her 5
historiques 5
http 5
humanitaires 5
hôpitaux 5
ignore 5
ih@@ 5
ihrer 5
illon 5
illumin@@ 5
illustré 5
immigration 5
immobilière 5
immédiat 5
immédiatement 5
impos@@ 5
impulsion 5
ina 5
incul@@ 5
industrielle 5
iner 5
infirmiers 5
informé 5
insiste 5
instar 5
institu@@ 5
institution 5
intense 5
interpellé 5
interprétation 5
interprétés 5
interroge 5
intégration 5
intéress@@ 5
intéressant 5
invent@@ 5
irakien 5
ischen 5
isse 5
itaire 5
italien 5
italienne 5
iter 5
its 5
japonais 5
jard@@ 5
jets 5
jouait 5
jouent 5
joueuse 5
judo 5
jusque 5
justifier 5
laissant 5
lesquels 5
levée 5
lier 5
ling 5
liés 5
location 5
loisirs 5
look 5
loto 5
lourd 5
lourdes 5
loyers 5
ludique 5
lundis 5
légale 5
légendes 5
léger 5
maires 5
majeure 5
manger 5
marcher 5
maux 5
mentionne 5
merveilleux 5
messages 5
messes 5
mi-chemin 5
mi-janvier 5
migrants 5
mines 5
mineures 5
mini@@ 5
modernité 5
mont 5
montréalais 5
morceau 5
motiv@@ 5
motivation 5
mou@@ 5
mystère 5
mécanisme 5
média 5
médico-social 5
mérit@@ 5
métal 5
météo 5
naturel 5
naturelles 5
neu@@ 5
niveaux 5
nommé 5
normale 5
normes 5
négocier 5
oblige 5
observ@@ 5
occidentaux 5
occuper 5
oeuvres 5
officiellement 5
olympique 5
onnée 5
opposante 5
option 5
opér@@ 5
orbite 5
oubli@@ 5
oublie 5
ouverts 5
palestiniens 5
paniers 5
papa 5
pape 5
paquet 5
parcomètres 5
parfaitement 5
partagés 5
party 5
passent 5
passeport 5
patient 5
patients 5
patrimoine 5
payé 5
peau 5
peintre 5
perd 5
permanente 5
personnelle 5
personnelles 5
pertes 5
pes 5
petit-fils 5
petits-enfants 5
phare 5
pierre 5
pil@@ 5
piétonne 5
placée 5
plaintes 5
plaît 5
poissons 5
porte-@@ 5
portée 5
positive 5
posée 5
poule 5
poursuivi 5
pouvons 5
poète 5
pratiques 5
preuves 5
prit 5
pro 5
probable 5
procédé 5
professeurs 5
programmes 5
progressivement 5
progressé 5
projeté 5
promesse 5
propriété 5
prouve 5
provenance 5
provisoire 5
provo@@ 5
précieux 5
précis 5
préciser 5
précisément 5
précédentes 5
prédilection 5
préfet 5
préféré 5
prépar@@ 5
présentées 5
présumés 5
prévention 5
prévisions 5
prévoient 5
prê@@ 5
pure 5
pé 5
pér@@ 5
périodes 5
périscolaire 5
quarantaine 5
quarts 5
quelles 5
quitte 5
racheter 5
raconter 5
raconté 5
ralentissement 5
ramener 5
rappel 5
rapporte 5
rapporté 5
rassurer 5
rayon 5
reconnaître 5
reconnus 5
regroupe 5
relev@@ 5
religieuse 5
relâ@@ 5
relè@@ 5
rement 5
remplacement 5
remplacé 5
ren 5
renoncer 5
représentation 5
requis 5
responsabilités 5
resté 5
retire 5
retirer 5
retourner 5
rette 5
reçoit 5
rigueur 5
rivaux 5
rom@@ 5
romans 5
ron@@ 5
rond 5
ront 5
routières 5
royale 5
rumeurs 5
règlement 5
règne 5
réalisée 5
récente 5
réchauffement 5
récit 5
récolte 5
récolté 5
récompenses 5
récompensés 5
récupère 5
réduite 5
réellement 5
référendum 5
régionale 5
réjouit 5
répertoire 5
réponse 5
rés@@ 5
réserves 5
réservée 5
résidents 5
réuni 5
révolutionnaires 5
rêver 5
saisons 5
salut 5
salué 5
sant 5
savons 5
schon 5
scientifique 5
scientifiques 5
scotch 5
seit 5
sensible 5
sentiers 5
serre 5
servir 5
sexualité 5
sif 5
similaire 5
simples 5
sind 5
sives 5
slalom 5
soirs 5
soldat 5
soli@@ 5
sondages 5
sons 5
soprano 5
soudanais 5
souff@@ 5
souffrance 5
soulignant 5
souvenir 5
soviétique 5
spécial 5
ssement 5
stable 5
stati@@ 5
succombé 5
sunnites 5
suspects 5
syndicales 5
syndicat 5
systèmes 5
sénateur 5
sépar@@ 5
tables 5
tait 5
talibans 5
taxe 5
tchadienne 5
températures 5
tenait 5
tenues 5
terres 5
teur 5
textile 5
thèmes 5
thé@@ 5
tier 5
tigre 5
tionner 5
tombé 5
tonnes 5
totale 5
touche 5
toucher 5
tourn@@ 5
tournant 5
trains 5
transition 5
travaillant 5
travaillent 5
tâches 5
téléspectateurs 5
témoignages 5
témoigne 5
témoins 5
ténor 5
ultra-@@ 5
ums 5
unités 5
usé 5
utilisé 5
utilisée 5
vainqueurs 5
vali@@ 5
variés 5
vaut 5
venant 5
verra 5
verts 5
vieille 5
vieilli@@ 5
vies 5
violences 5
vision 5
vivement 5
voisine 5
voisines 5
voulaient 5
yens 5
z-vous 5
ze 5
ze@@ 5
zum 5
zur 5
zéro 5
² 5
École 5
à-@@ 5
âme 5
èrent 5
éclair@@ 5
éclaté 5
économiste 5
écr@@ 5
écrivains 5
édi@@ 5
électronique 5
élo@@ 5
émouvant 5
épicerie 5
épices 5
épou@@ 5
établie 5
étiquette 5
étonn@@ 5
étonnant 5
étrangère 5
évoquant 5
évoquer 5
êtes 5
-et 4
1,1 4
10,@@ 4
10h 4
10h30 4
112 4
12@@ 4
12h 4
130 4
132 4
135 4
14e 4
1942 4
1967 4
1969 4
1984 4
1985 4
1987 4
1993 4
1996 4
1e 4
2020 4
22h 4
230 4
240 4
25@@ 4
4,3 4
4,5 4
5-5 4
5.@@ 4
6.@@ 4
750 4
9,@@ 4
9e 4
AM 4
AM@@ 4
AT@@ 4
AU 4
Abitibi 4
Action 4
Agé 4
Airlines 4
Al 4
Alger 4
Algériens 4
Amazon 4
Anim@@ 4
Ann@@ 4
Apple 4
Arthur 4
Assad 4
At@@ 4
Atlantique 4
Attentat 4
Aucune 4
Auf@@ 4
Auto 4
Autour 4
Az@@ 4
BD 4
BNP 4
Bali 4
Balle 4
Band 4
Bartenheim 4
Batt@@ 4
Bear 4
Belfort 4
Bellaïd 4
Bercy 4
Bern@@ 4
Bethléem 4
Bir@@ 4
Bitche 4
Blanche 4
Bob 4
Boutin 4
Bran@@ 4
Brian 4
Brunstatt 4
Bé@@ 4
Bédard 4
CAF 4
CCI 4
CD 4
CE 4
CI@@ 4
CO2 4
CSN 4
Canard 4
Celle-ci 4
Celui-ci 4
Champ 4
Christelle 4
Christiane 4
Chávez 4
Châtenois 4
Circuit 4
Cisjordanie 4
Clemessy 4
Coeur 4
Colombie-Britannique 4
Comp@@ 4
Congrès 4
Cora 4
Coulibaly 4
Couronne 4
Crédit 4
Cédric 4
DI@@ 4
DJ 4
Dallas 4
Dam@@ 4
Dan 4
Danemark 4
Dati 4
Derrière 4
Desjardins 4
Dessenheim 4
Dettwiller 4
Don@@ 4
Dow 4
Début 4
Décembre 4
EADS 4
EC@@ 4
Eg@@ 4
Eguisheim 4
Elec@@ 4
Emery 4
Emile 4
Emmaüs 4
Entre@@ 4
Espérance 4
Est-ce 4
Est@@ 4
Etats 4
Fabien 4
Fermeture 4
Festival 4
Financial 4
Fisher 4
Fiévet 4
Fle@@ 4
Fondation 4
Forces 4
France-@@ 4
Françoise 4
Fre@@ 4
Fred 4
Free 4
Fête 4
GMT 4
GO 4
GR@@ 4
Gal@@ 4
Galles 4
Gare 4
Gaz 4
Germain 4
Gh@@ 4
Gil@@ 4
Gir@@ 4
Golfe 4
Gone 4
Grallet 4
Grand' 4
Gri@@ 4
Grâce 4
HEIM 4
Haas 4
Ham@@ 4
Hamel 4
Hamilton 4
Hans 4
Hardy 4
Haute-@@ 4
Hervé 4
Hirsingue 4
Ho 4
Hoenheim 4
Honoré-Mercier 4
Horbourg-Wihr 4
Horn 4
Hou@@ 4
Hubert 4
Hudec 4
Hus@@ 4
Hésingue 4
Hôtel 4
ISF 4
Ill 4
Ill@@ 4
Image 4
Ingersheim 4
Initi@@ 4
Iowa 4
Ir@@ 4
Irlande 4
Islamabad 4
J.@@ 4
Jac@@ 4
Jacky 4
Jacob 4
Jean-Loup 4
Jeunes 4
Jones 4
Josh 4
Jules 4
K 4
Karachi 4
Karl 4
Kat@@ 4
Khan 4
Ki@@ 4
Kinder@@ 4
King 4
Kingersheim 4
Kir@@ 4
Kle@@ 4
Koivu 4
Kom@@ 4
Kouchner 4
LS600hL 4
Lac 4
Lad@@ 4
Laden 4
Laf@@ 4
Land@@ 4
Lap@@ 4
Laur@@ 4
Laura 4
Laurentides 4
Lauterbourg 4
Lemieux 4
Lepage 4
Les@@ 4
Liban 4
Liberté 4
Lille 4
Loeb 4
Lorrain 4
Lorsque 4
Loto 4
Lucien 4
Lucky 4
Luemschwiller 4
Luis 4
Luke 4
Lé@@ 4
Lévesque 4
MKX 4
Mac@@ 4
Mag@@ 4
Manchester 4
Mang@@ 4
Manon 4
Marco 4
Masevaux 4
Match 4
Medef 4
Mehsud 4
Meinau 4
Mel@@ 4
Mieux 4
Minuit 4
Mis@@ 4
Mission 4
Mit@@ 4
Mittel@@ 4
Mitterrand 4
Mogadiscio 4
Moins 4
Moselle 4
Mou@@ 4
Moulin 4
Mouvement 4
Mundolsheim 4
Mur@@ 4
Mut@@ 4
Mutzig 4
Myriam 4
Mélanie 4
N. 4
N.@@ 4
Nationale 4
Naudero 4
Net 4
Nieder@@ 4
Nordhouse 4
Norfolk 4
Norvège 4
Nouvelle 4
Nouvelle-@@ 4
Nuit 4
OL 4
OU@@ 4
Ob@@ 4
On@@ 4
Orbey 4
Orléans 4
Ostheim 4
Ou@@ 4
Oussama 4
Ovechkin 4
PCAA 4
Palais 4
Parallèlement 4
Parfois 4
Paribas 4
Paroisses 4
Pass@@ 4
Patricia 4
Patriots 4
Pauline 4
Perrin 4
Peuple 4
Plateau 4
Poli@@ 4
Port 4
Principale 4
Provencher 4
Pékin 4
Péligat 4
Qaïda 4
Quebecor 4
Quichotte 4
RA@@ 4
Rab@@ 4
Rad@@ 4
Ram@@ 4
Regardez 4
Reich@@ 4
Relais 4
Reno 4
Rhodia 4
Rich@@ 4
Riquewihr 4
Rita 4
Riv@@ 4
Rivière-@@ 4
Rodrigo 4
Roselyne 4
Rouffach 4
Rue 4
Rus@@ 4
Réservations 4
Résultats 4
Réunion 4
SC 4
SCH@@ 4
SE@@ 4
SG 4
SI@@ 4
SIG 4
SOS 4
SPA 4
SR 4
ST@@ 4
SUI 4
Sahara 4
Salv@@ 4
Samak 4
Sandrine 4
Santos 4
Sau@@ 4
Scherwiller 4
Schirmeck 4
Schweighouse 4
Seconde 4
Sel@@ 4
Sept 4
Seu@@ 4
Seule 4
Shanghai 4
Sharp 4
Si@@ 4
Smith 4
Soit 4
Soufflenheim 4
Soultzmatt 4
Spe@@ 4
Spiegel 4
Sport 4
Stearns 4
Steve 4
Sti@@ 4
Street 4
Streit 4
Sturm 4
Stéphanie 4
Super@@ 4
Syndicat 4
TH@@ 4
Tal@@ 4
Tandis 4
Tarifs 4
Tech@@ 4
Thai 4
Thaïlande 4
Thrashers 4
Thé@@ 4
Théo 4
Tou@@ 4
Tours 4
Toyota 4
Tu 4
Téhéran 4
Téléthon 4
Um@@ 4
Ur@@ 4
Urgences 4
Uribe 4
Val-d' 4
Var 4
Verdun 4
Verts 4
Vieux-@@ 4
Vive 4
Wall 4
Wattwiller 4
Wehr@@ 4
Wes@@ 4
Wi@@ 4
Wild 4
Wit@@ 4
Wittenheim 4
Wonder 4
X 4
XXe 4
Y 4
YouTube 4
Zer@@ 4
Zimmermann 4
abandonner 4
abeilles 4
abilité 4
abor@@ 4
abouti@@ 4
absorber 4
accent 4
accep@@ 4
accommodements 4
accompagnement 4
accompagner 4
accordéon 4
accrocher 4
accél@@ 4
accélérer 4
accéléré 4
achet@@ 4
acheter 4
acquéreur 4
actrice 4
actualité 4
adapter 4
adieu 4
administrative 4
admirer 4
adop@@ 4
adoptés 4
adulte 4
affectés 4
affiché 4
afghane 4
ag 4
aggrav@@ 4
agi 4
agricole 4
agricoles 4
aidé 4
ail 4
aliment@@ 4
aliments 4
alisés 4
allaient 4
allemandes 4
alliance 4
allié 4
allocution 4
altitude 4
aluminium 4
ambitieuse 4
ambition 4
ambitions 4
ame 4
amené 4
amicale 4
amusé 4
amélioration 4
ances 4
andere 4
ang 4
annonçant 4
antan 4
appareils 4
apparence 4
apparente 4
apparition 4
applique 4
apportent 4
appr@@ 4
apprenant 4
appropri@@ 4
appréci@@ 4
appréciés 4
appui 4
aque 4
arbi@@ 4
architecte 4
archives 4
arde 4
arguments 4
ari 4
arrête 4
arrêtée 4
artifice 4
artifici@@ 4
arts 4
aspects 4
asse 4
assist@@ 4
associatif 4
atives 4
atrice 4
atta@@ 4
attaques 4
atte@@ 4
attend@@ 4
atti@@ 4
attribuer 4
au-@@ 4
auberge 4
australien 4
autobus 4
autorisé 4
autorité 4
avantages 4
averti 4
aéroports 4
bach-@@ 4
baisser 4
balade 4
banc 4
bancaire 4
banlieue 4
baptis@@ 4
barils 4
bars 4
baseball 4
bat 4
battue 4
bel@@ 4
belge 4
belote 4
bert 4
billet 4
bière 4
blanch@@ 4
bles 4
blonde 4
boisson 4
bombes 4
boule@@ 4
boutiques 4
branche 4
bronze 4
bs 4
bulletin 4
buteur 4
bébé 4
bénéficie 4
bénéficié 4
bûche 4
cab@@ 4
cad@@ 4
caf@@ 4
cafés 4
caisses 4
calculer 4
camping 4
camps 4
caméras 4
captivité 4
cartons 4
catastrophes 4
catégories 4
causes 4
causé 4
cave 4
cellule 4
cesse 4
cessent 4
challenge 4
chambres 4
championne 4
chanteur 4
chantée 4
chargés 4
cheminots 4
cheminée 4
cherché 4
cheurs 4
chevaux 4
cheveux 4
chimiques 4
chinoise 4
choisis 4
chs 4
chèque 4
chômage 4
cigarettes 4
citoyen 4
cités 4
civiles 4
cland@@ 4
class@@ 4
climatiques 4
clé 4
co-@@ 4
col 4
collaborateurs 4
collation 4
collective 4
collé 4
colonnes 4
commande 4
commandes 4
commentaires 4
commenter 4
commerciaux 4
communautaire 4
communiquer 4
comparaison 4
compli@@ 4
complémentaires 4
comportement 4
composée 4
comprises 4
compromettre 4
comptait 4
concentrer 4
conception 4
conclure 4
concrètes 4
confiait 4
conforme 4
conjoint 4
conjointe 4
connaissances 4
conservation 4
considèrent 4
considéré 4
considérés 4
consist@@ 4
constant 4
constante 4
constitué 4
consul@@ 4
consultation 4
consécutif 4
contacter 4
contacts 4
contenant 4
contenu 4
contraception 4
contraste 4
contrer 4
contribu@@ 4
conver@@ 4
convi@@ 4
convictions 4
convié 4
convoi 4
conçus 4
coordonnées 4
copain 4
corri@@ 4
cotisations 4
cou 4
coude 4
couloir 4
coup@@ 4
courir 4
courts 4
couteau 4
coutume 4
coû@@ 4
cra@@ 4
crime 4
criminels 4
crist@@ 4
critères 4
croient 4
crois@@ 4
croix 4
croyait 4
créations 4
crédibilité 4
créneaux 4
cs 4
culturelle 4
cycle 4
cycliste 4
da 4
dan@@ 4
danser 4
dant 4
debout 4
degré 4
del 4
dents 4
des-@@ 4
dessin 4
dessins 4
dial@@ 4
dialecte 4
diffus@@ 4
diffusée 4
différente 4
dimanches 4
dimension 4
dirigé 4
dirigée 4
disant 4
disponible 4
dispu@@ 4
dispute 4
distance 4
distribuer 4
distributeurs 4
distribué 4
dite 4
dits 4
dixième 4
doch 4
docteur 4
document 4
document@@ 4
donnera 4
douce 4
douleur 4
doyen 4
dramatique 4
drei 4
dress@@ 4
dresser 4
du-@@ 4
duel 4
durable 4
durch 4
duré 4
débutants 4
décor@@ 4
décorations 4
dée 4
défait 4
défen@@ 4
déferlante 4
défunte 4
dég@@ 4
dégagé 4
dégu@@ 4
dégustation 4
déjoué 4
délinquance 4
démarré 4
démission 4
démocrates 4
démographique 4
démunis 4
dépassé 4
dépens 4
dépos@@ 4
déroul@@ 4
désaccord 4
désigné 4
désire 4
détails 4
déte@@ 4
détente 4
détenus 4
détient 4
dévelop@@ 4
déviation 4
dévoil@@ 4
dévoilé 4
dîner 4
effectués 4
effraction 4
egen 4
eller 4
emballage 4
ement@@ 4
emmener 4
emmené 4
empire 4
emportent 4
empê@@ 4
empêche 4
empêché 4
encad@@ 4
encadrer 4
ench@@ 4
enchantée 4
enchaî@@ 4
encour@@ 4
endra 4
enen 4
engagements 4
enlever 4
enregistr@@ 4
enregistrer 4
entam@@ 4
entamée 4
entendent 4
enthousiasme 4
entourée 4
entraînant 4
entrepris 4
env@@ 4
enveloppe 4
envisage 4
envisagé 4
erai 4
erons 4
ersheim 4
erst@@ 4
espagnol 4
espérer 4
esse 4
essence 4
est-ce 4
est-elle 4
excellent 4
exig@@ 4
exigeant 4
existait 4
expertise 4
exploit 4
exploser 4
expositions 4
exprim@@ 4
exprimé 4
extension 4
externes 4
exécu@@ 4
faciliter 4
faille 4
faillite 4
faisons 4
fast 4
favori 4
favoris 4
ferroviaire 4
festive 4
feuille 4
ff 4
figurent 4
filiale 4
finance 4
financières 4
fins 4
fiscal 4
fit 4
fix@@ 4
fixé 4
flam@@ 4
flamand 4
flor@@ 4
flotte 4
flûte 4
foie 4
fondam@@ 4
fondation 4
former 4
fortune 4
forum 4
fou@@ 4
fragile 4
fraises 4
franchir 4
franchise 4
französischen 4
fresque 4
friandises 4
frontale 4
fuir 4
fuite 4
fum@@ 4
future 4
fédéraux 4
félic@@ 4
fê@@ 4
g' 4
gagn@@ 4
gain 4
gains 4
gangs 4
gants 4
garage 4
gastronomie 4
gaz@@ 4
gendarmes 4
genou 4
ges 4
gesch@@ 4
gestes 4
get 4
gli@@ 4
gouverneur 4
goû@@ 4
grade 4
grains 4
grand-mère 4
grandi 4
graphique 4
gravité 4
grossesse 4
gue 4
gé@@ 4
génie 4
géné@@ 4
habillé 4
habitations 4
habituellement 4
heureuse 4
heureusement 4
heurté 4
historien 4
honor@@ 4
horizons 4
hou@@ 4
humeur 4
hypothé@@ 4
hàn 4
hôtellerie 4
hôtels 4
ia 4
illégal 4
imagin@@ 4
imaginer 4
implique 4
impossible 4
imposé 4
imprim@@ 4
impu@@ 4
impôts 4
inaire 4
incapables 4
incar@@ 4
incarne 4
incendies 4
incluant 4
inconnue 4
individu@@ 4
individus 4
industriel 4
indé@@ 4
indépend@@ 4
infirmière 4
influ@@ 4
inférieur 4
innovation 4
inqui@@ 4
insisté 4
inspiré 4
installation 4
installés 4
intensité 4
intermédiaires 4
interrog@@ 4
interrogé 4
intervenants 4
intervenir 4
introdu@@ 4
intégr@@ 4
intégrer 4
intéressante 4
intéri@@ 4
investiture 4
invitent 4
inédite 4
ires 4
ironie 4
iront 4
isant 4
ises 4
isolation 4
israélienne 4
israélite 4
issent 4
issues 4
isés 4
ites 4
itée 4
jeter 4
jeté 4
jon@@ 4
jouets 4
jouée 4
juges 4
juridiction 4
juridiques 4
justesse 4
justi@@ 4
ka 4
ken 4
ken@@ 4
ker 4
kom@@ 4
lam@@ 4
lan@@ 4
larmes 4
leaders 4
lecteurs 4
lement 4
les@@ 4
lette 4
letzten 4
ley 4
libéré 4
limitées 4
liquidation 4
lisant 4
litre 4
littérature 4
livrer 4
livrée 4
liées 4
lo 4
locataires 4
loge 4
logiciels 4
longs 4
lu 4
lycéens 4
lé@@ 4
mach@@ 4
majoritairement 4
malaise 4
mandats 4
manifesté 4
mant 4
march@@ 4
marchandises 4
marches 4
marketing 4
marquant 4
marques 4
mas@@ 4
masters 4
matt 4
matten 4
matériels 4
menacé 4
mentation 4
mentionné 4
meu@@ 4
meurtrier 4
mille 4
mine 4
mit@@ 4
mobili@@ 4
mobilier 4
mobilières 4
modalités 4
mois-ci 4
mondes 4
monsieur 4
montagne 4
monté 4
monétaire 4
morale 4
mortalité 4
moul@@ 4
mourir 4
mouvements 4
multitude 4
munir 4
mé 4
médicales 4
mélomanes 4
mén@@ 4
naturelle 4
nautique 4
nav@@ 4
naître 4
ndlr 4
nent 4
ner@@ 4
neutre 4
niques 4
noces 4
nocturne 4
nord-est 4
normalement 4
notion 4
numéros 4
négocié 4
obligations 4
obst@@ 4
obtenus 4
occidentale 4
occupent 4
océan 4
offen@@ 4
offensive 4
offerts 4
offices 4
ois 4
old 4
ologiques 4
ombre 4
oppos@@ 4
opérateur 4
ordures 4
orientation 4
origines 4
ouvrant 4
ov@@ 4
paiement 4
panier 4
pap@@ 4
papiers 4
pareille 4
parité 4
parquet 4
partenaire 4
partenariat 4
parvenir 4
parvenu 4
passi@@ 4
passion 4
passionné 4
patin@@ 4
patins 4
patrons 4
pauvres 4
payées 4
pensent 4
pensionnaires 4
pensé 4
pensée 4
percussions 4
permettrait 4
personnels 4
persu@@ 4
philosophie 4
piano 4
pilule 4
placer 4
plaidé 4
plaine 4
plaques 4
pleurer 4
poing 4
pollu@@ 4
polluer 4
pollution 4
polémique 4
ponctu@@ 4
populations 4
portaient 4
porteurs 4
portion 4
positionnement 4
poss@@ 4
potable 4
poul@@ 4
poursuite 4
pousser 4
pouvez 4
poésie 4
pratiquer 4
prenait 4
prendra 4
prennent 4
principalement 4
principes 4
privilégié 4
privilégiées 4
procéder 4
produite 4
profil 4
profitent 4
profits 4
profond 4
profondément 4
programmation 4
progression 4
prolong@@ 4
prostitution 4
prouver 4
provisoirement 4
provoquer 4
provoqué 4
préalable 4
préc@@ 4
précisant 4
préfèrent 4
prématuré 4
préoccupation 4
présentaient 4
présidents 4
présidée 4
prévenir 4
prévisible 4
psychologique 4
publication 4
publie 4
puissant 4
pétition 4
quait 4
quali@@ 4
qualification 4
qualités 4
quantité 4
quarante 4
quelques-uns 4
ra 4
rachat 4
raff@@ 4
rais@@ 4
raisonnables 4
rajou@@ 4
ralenti@@ 4
rappelant 4
rapprochement 4
rares 4
ras 4
ravis 4
rebelles 4
recette 4
recher@@ 4
reconstituer 4
recrutement 4
recul 4
refuge 4
refus 4
regrette 4
rejet 4
rejeté 4
rejo@@ 4
relancer 4
relevé 4
religions 4
remarquer 4
rembour@@ 4
remboursement 4
rembourser 4
remonte 4
rempli 4
renforcer 4
renforcé 4
renonce 4
renouvel@@ 4
rent 4
rent@@ 4
rentr@@ 4
renvoyé 4
reporter 4
repose 4
représentaient 4
représentations 4
représenter 4
ressemble 4
restauration 4
ret 4
retenue 4
retenus 4
retiennent 4
retourne 4
retrouvailles 4
retrouvait 4
reurs 4
rev@@ 4
revenant 4
richesse 4
rideau 4
risquent 4
rite 4
rival 4
robots 4
ronde 4
rugby 4
réaffirme 4
réalisant 4
réalisations 4
réalisés 4
récentes 4
réceptions 4
réci@@ 4
réclamer 4
réconfort 4
réductions 4
réels 4
réflexe 4
référ@@ 4
rég@@ 4
réglementation 4
répétition 4
réseaux 4
réservation 4
réserver 4
résidants 4
résistance 4
réunies 4
réunions 4
réunissait 4
réussie 4
réussit 4
réussite 4
révolte 4
révèlent 4
révél@@ 4
rêves 4
sab@@ 4
sagte 4
saient 4
saisir 4
salariale 4
salarié 4
salons 4
saluer 4
sanitaires 4
sap@@ 4
sation 4
sau@@ 4
saura 4
saurait 4
sauvage 4
savoir-faire 4
sch 4
seau 4
secouristes 4
secoué 4
secrets 4
secrète 4
sehen 4
semble-t-il 4
semestre 4
sensibilité 4
senti 4
serai 4
serais 4
serbe 4
sert 4
servira 4
sex@@ 4
sexuelles 4
show 4
signific@@ 4
single 4
sinistre 4
skis 4
sobre 4
solennelle 4
solutions 4
sombre 4
sont-ils 4
souci 4
souffrir 4
souhai@@ 4
soulèvement 4
soumis 4
souplesse 4
soupç@@ 4
souscription 4
souverain 4
spectateur 4
spécialement 4
sse 4
sser 4
standard 4
stations 4
ste 4
ste-cène 4
stein 4
stock 4
strasbourgeoise 4
stress 4
subprimes 4
subventions 4
sucre 4
sud-ouest 4
suffis@@ 4
suivants 4
super 4
superficie 4
supporters 4
supérieur 4
susceptible 4
suspension 4
sé 4
sécheresse 4
sée 4
sévère 4
sûrement 4
t-on 4
tabagisme 4
tan@@ 4
tap@@ 4
taxes 4
temporaires 4
tend@@ 4
tensions 4
tentent 4
tentera 4
tests 4
textiles 4
tiens 4
tige 4
tionnée 4
tis 4
tives 4
tlj 4
tomb@@ 4
tombés 4
tort 4
totalité 4
touchée 4
tournent 4
tout-petits 4
tracé 4
traditions 4
tradu@@ 4
tragédie 4
traits 4
trajet 4
tram 4
transfert 4
transformation 4
transféré 4
transmettre 4
transmission 4
transporté 4
traver@@ 4
traverse 4
traverser 4
trib@@ 4
triomphe 4
trom@@ 4
trésors 4
ts@@ 4
tude 4
turque 4
ty@@ 4
tâche 4
tél 4
télécommunications 4
témoigner 4
uniforme 4
ur 4
urbain 4
urbaine 4
urgentistes 4
utilisateurs 4
vaincu 4
valable 4
valait 4
valu 4
vari@@ 4
variétés 4
verser 4
ves 4
vidéos 4
vigilance 4
violents 4
vis-à-vis 4
visibles 4
visée 4
vivante 4
vives 4
voc@@ 4
vocation 4
voies 4
voirie 4
voleurs 4
volume 4
voté 4
voy@@ 4
vélo 4
vœux 4
wach@@ 4
was 4
weiter 4
wieder@@ 4
ya 4
zi@@ 4
zones 4
zoo 4
zu@@ 4
Étoile 4
än@@ 4
çant 4
ème 4
éc@@ 4
échanger 4
échoué 4
éclat 4
écrire 4
édifice 4
élev@@ 4
élire 4
élite 4
élégance 4
émer@@ 4
émettre 4
énergétique 4
énorme 4
épaule 4
épuis@@ 4
équipement 4
équitable 4
éro@@ 4
érée 4
éthique 4
étonne 4
étonnement 4
étrang@@ 4
évacu@@ 4
évacuer 4
évalu@@ 4
éventuellement 4
évidence 4
über@@ 4
-18@@ 3
-Lundi 3
0,1 3
0,5 3
02.@@ 3
11-@@ 3
125 3
12e 3
13,@@ 3
15,@@ 3
16h 3
170 3
174 3
175 3
17h30 3
1905 3
1910 3
1917 3
1922 3
1939 3
1940 3
1948 3
1949 3
1952 3
1958 3
1964 3
1965 3
1971 3
1983 3
1988 3
2,5 3
20.000 3
2013 3
20e 3
20h15 3
20h45 3
21@@ 3
22@@ 3
252 3
3,5 3
3,9 3
3-0 3
30-@@ 3
30@@ 3
4,2 3
4,25 3
4-3 3
4-@@ 3
5-@@ 3
500@@ 3
55@@ 3
68,@@ 3
85e 3
AL 3
ANPE 3
ASPTTS 3
AU@@ 3
Abou 3
Abraham 3
Abrapa 3
Académie 3
Accueil 3
Accès 3
Aceh 3
Adrien 3
Ag@@ 3
Aide 3
Aiguillon 3
Aile 3
Airbus 3
Ak@@ 3
Al-Qaïda 3
Alcool 3
Alexandra 3
Ali@@ 3
Alice 3
Aline 3
All 3
Allaire 3
Alliance 3
Alphonse 3
Alsace-@@ 3
Alvin 3
Alzheimer 3
Amar 3
Ambulances 3
American 3
Amicale 3
Amiens 3
Amsterdam 3
Andrade 3
Andrée 3
Andy 3
Angaben 3
Angeles 3
Anglais 3
Anne-@@ 3
Annette 3
Arc 3
Arcand 3
Argol 3
Armand 3
Arn@@ 3
Arriv@@ 3
Arrê@@ 3
Artisan 3
Arts 3
Associated 3
Ath@@ 3
Attention 3
Aud@@ 3
Augustine 3
Aur@@ 3
Aus@@ 3
Autant 3
Autorité 3
Ave 3
Ayant 3
BA@@ 3
BACH 3
BARR 3
BBC 3
BR@@ 3
BTS 3
Baby 3
Baggersee 3
Baitullah 3
Bak@@ 3
Balgau 3
Ballersdorf 3
Bank 3
Barcelone 3
Barth 3
Barzic 3
Bas-Saint-Laurent 3
Beblenheim 3
Becker 3
Bee 3
Bennwihr 3
Benoit 3
Bes@@ 3
Bet@@ 3
Betty 3
Bevölkerung 3
Bills 3
Bis@@ 3
Biz@@ 3
Blo@@ 3
Bloch 3
Blotzheim 3
Blue 3
Bodin 3
Boecklin 3
Boisclair 3
Bolivie 3
Bolufer 3
Boogie 3
Boris 3
Bormio 3
Boul@@ 3
Boulet 3
Bourdais 3
Bourg@@ 3
Bourgois 3
Bouxwiller 3
Breton 3
Brigitte 3
Bruche 3
Bryant 3
Brydon 3
Budapest 3
Bus 3
Bus@@ 3
C4 3
CC@@ 3
CDC 3
CFDT 3
CIA 3
CO@@ 3
Ca@@ 3
Caennais 3
Calais 3
Camp@@ 3
Canadienne 3
Cant@@ 3
Cap@@ 3
Capgemini 3
Caraïbes 3
Carey 3
Caritas 3
Carnaval 3
Carpentier 3
Cassard 3
Castro 3
Cathy 3
Celtic 3
Cependant 3
Chacun 3
Champagne 3
Championnat 3
Charlotte 3
Charsadda 3
Chasse 3
Cheikh 3
Chelsea 3
Chi@@ 3
Chipmunks 3
Châteaux 3
Cie 3
Cir@@ 3
Citigroup 3
Clausewitz 3
Cler@@ 3
Clim@@ 3
Clu@@ 3
Clément 3
Coco 3
Cohen 3
Collecte 3
Communes 3
Conférence 3
Constitution 3
Consultations 3
Contrairement 3
Cop@@ 3
Corée 3
Coup 3
Cr@@ 3
Crnjanski 3
Cronenbourg 3
Cu@@ 3
Cyril 3
Cène 3
Côte 3
Côte-@@ 3
D.@@ 3
DI 3
DR@@ 3
Dames 3
Danse 3
Dar@@ 3
Dernières 3
Deuxième 3
Dey@@ 3
Diego 3
Diesel@@ 3
Diet@@ 3
Dietrich 3
Dimas 3
Dinsheim-sur-Bruche 3
Disney 3
Division 3
Dj@@ 3
Djihad 3
Dol@@ 3
Donc 3
Dorion-Coupal 3
Dorlisheim 3
Douce 3
Dre@@ 3
Drury 3
Dubois 3
Dupont 3
Durée 3
Duttlenheim 3
Défense 3
Désormais 3
E. 3
ED@@ 3
EG@@ 3
EN.- 3
EU-@@ 3
Eau 3
Eco@@ 3
Ed@@ 3
Edge 3
Edwards 3
Eh 3
Eisenbahn@@ 3
Electricité 3
Eli@@ 3
Elise 3
Emily 3
Empire 3
Energy 3
Enfants 3
Environ 3
Erik 3
Eschbach 3
Espagnols 3
Esprit 3
Ess@@ 3
Et@@ 3
Etienne 3
Etoile 3
Ett@@ 3
Eva 3
Everton 3
Excellence 3
Exchange 3
F-@@ 3
FE 3
Faire 3
Famili@@ 3
Far@@ 3
Farandole 3
Federer 3
Ferrette 3
Fi@@ 3
Fichter 3
Fils 3
Finlande 3
Fleurs 3
Florent 3
Florimont 3
Fo@@ 3
Fon@@ 3
Fonds 3
Fontenay 3
Football-club 3
Ford 3
Four@@ 3
Frank 3
Froehly 3
Furlan 3
Futsal 3
Félix 3
Gainey 3
Gallery 3
Gallimard 3
Gaston 3
Gazprom 3
Gen@@ 3
Gener@@ 3
Georg@@ 3
Gerber 3
Geschichte 3
Gol@@ 3
Grand-@@ 3
Grand@@ 3
Grandadam 3
Grendelbruch 3
Grenz@@ 3
Grosh@@ 3
Guebwiller 3
Guerin 3
Guide 3
Guil@@ 3
Gustave 3
Gutenberg 3
Gwénaelle 3
Gé@@ 3
Générale 3
HO@@ 3
HSBC 3
Hag@@ 3
Hamrlik 3
Han@@ 3
Hartsburg 3
Hass@@ 3
Hautepierre 3
Hawks 3
Haïti 3
Hel@@ 3
Helmand 3
Henri-@@ 3
Herr@@ 3
Herrlisheim 3
Heureusement 3
Hi@@ 3
Hindisheim 3
Hirtzfelden 3
Hit@@ 3
Hoerdt 3
Hollande 3
Hollywood 3
Hom@@ 3
Home 3
Hong 3
Hongrie 3
Houssen 3
Huber 3
Hug@@ 3
Hussein 3
Huttenheim 3
Hyundai 3
Hér@@ 3
I. 3
ID@@ 3
IG@@ 3
ING 3
IR@@ 3
Ile-@@ 3
Illfurth 3
Indonésie 3
Infoman 3
Information 3
Ingwiller 3
Insee 3
Inter 3
Interac 3
Inv@@ 3
Issenheim 3
JOURNAL 3
Ja@@ 3
Jack 3
Jahre 3
Jam@@ 3
Jamais 3
Jardin 3
Jay 3
Jean-François 3
Jean@@ 3
Jenna 3
Jer@@ 3
Jeu 3
Jeune 3
Jo 3
Joachim 3
Josée 3
Joséphine 3
Juppé 3
Jura 3
Jérémy 3
Kab@@ 3
Kahn 3
Kal@@ 3
Kan@@ 3
Kansas 3
Kar@@ 3
Karcher 3
Keller 3
Kempf 3
Ker@@ 3
Kie@@ 3
Kings 3
Kirch@@ 3
Kling 3
Koch 3
Koeberlé 3
Komisarek 3
Kon@@ 3
Kretz 3
Ku@@ 3
Kyle 3
Lake 3
Lan@@ 3
Landes 3
Lecavalier 3
Lee 3
Leg@@ 3
Leimbach 3
Leit@@ 3
Leterme 3
Levy 3
Libération 3
Liebherr 3
Lienz 3
Lipsheim 3
Lit@@ 3
Littérature 3
Loi 3
Loire 3
Lon@@ 3
Longueuil 3
Loos 3
Lopez 3
Louis-@@ 3
Louxor 3
Luci@@ 3
Ludovic 3
Lut@@ 3
Ly@@ 3
Léger 3
MI@@ 3
MM@@ 3
Mach@@ 3
Madeleine 3
Mah@@ 3
Maineiacs 3
Maison-Blanche 3
Malartic 3
Mali 3
Mali@@ 3
Malraux 3
Manspach 3
Mar 3
Marais 3
Marcelline 3
Marche 3
Marcheurs 3
Marckolsheim 3
Marianne 3
Marion 3
Marlenheim 3
Martel 3
Massachusetts 3
Math@@ 3
Matt 3
Mau@@ 3
Maur@@ 3
Max 3
Maxim 3
Mbeki 3
McCain 3
Men@@ 3
Mensch@@ 3
Merci 3
Mess@@ 3
Messe 3
Meyenheim 3
Miguel 3
Mili@@ 3
Mill@@ 3
Miller 3
Millionen 3
Minnesota 3
MoDem 3
Moham@@ 3
Monaten 3
Mondial 3
Mongeau 3
Monique 3
Monswiller 3
Montagne-Verte 3
Montana 3
Monte@@ 3
Montparnasse 3
Montré@@ 3
Morin 3
Moss 3
Moul@@ 3
Mountaineers 3
Moussa 3
Munich 3
Municip@@ 3
Musau 3
Music 3
Mwai 3
Mé@@ 3
Mésanges 3
NBA 3
NI@@ 3
NIEDER@@ 3
Nairobi 3
Naples 3
Nasti 3
Nat@@ 3
Natacha 3
Nav@@ 3
Neige 3
Net@@ 3
Niv@@ 3
Nizar 3
Noces 3
Noir 3
Nom@@ 3
Nord-@@ 3
Nou@@ 3
Nouakchott 3
Nouv@@ 3
Nouveau-Brunswick 3
Nouvelles 3
Noël@@ 3
O 3
O' 3
OCDE 3
ON 3
OR@@ 3
Obama 3
Oberhausbergen 3
Obermodern 3
Obermorschwiller 3
Obersaasheim 3
Objectif 3
Off@@ 3
Officiellement 3
Ol@@ 3
Olympi@@ 3
Olympique 3
Open 3
Orchestre 3
Osisko 3
Ott 3
Outremont 3
Ouverte 3
Ouzbékistan 3
Où 3
PARIS 3
PC 3
PE 3
PME 3
PQ 3
Pacifique 3
Page 3
Paix 3
Pan 3
Pan@@ 3
Paquin 3
Pardubice 3
Pas@@ 3
Pat@@ 3
Patr@@ 3
Penguins 3
Perreau 3
Peugeot 3
Peut-être 3
Pf@@ 3
Pfaffenheim 3
Pic@@ 3
Piché 3
Pierre-@@ 3
Pietro 3
Plan 3
Plat@@ 3
Pol@@ 3
Por@@ 3
Portugais 3
Portugal 3
Premi@@ 3
Première 3
Pres@@ 3
Presque 3
Press 3
Prince 3
Prodi 3
Provence 3
Présent@@ 3
Pyongyang 3
Pé@@ 3
Q 3
QU@@ 3
RATP 3
RO@@ 3
RTT 3
Rafic 3
Rah@@ 3
Rapidement 3
Ray 3
Reiss 3
Rem@@ 3
Rep@@ 3
Ressources 3
Restos 3
Restrepo 3
Retour 3
Retraite 3
Rhénan 3
Ried 3
Riesemann 3
Ring@@ 3
River 3
Rixheim 3
Rober@@ 3
Rochefort 3
Rock 3
Roderen 3
Roeschwoog 3
Roi 3
Romney 3
Rosaire 3
Rosbank 3
Ross 3
Ross@@ 3
Rossberg 3
Rossi 3
Roth@@ 3
Rousseau 3
Rudolf 3
Ryad 3
Ryan 3
Régional 3
Réjean 3
Réouverture 3
Réseau 3
Réveillon 3
SDF 3
SEC 3
SMS 3
SO@@ 3
SRC 3
STEINSELTZ 3
SU@@ 3
Sacrement 3
Saint- 3
Saint-Antoine 3
Saint-Dié 3
Saint-Etienne 3
Saint-Germain 3
Saint-Jean-@@ 3
Saint-Maurice 3
Saint-Michel 3
Saint-Morand 3
Saint-Nicolas 3
Sainte-Marie-aux-Mines 3
Saints-@@ 3
Saku 3
Salle 3
Salut 3
Samsonite 3
Sauf 3
Saul@@ 3
Sauv@@ 3
Sauveur 3
Sav@@ 3
Savoie 3
Scheibenhard 3
Schir@@ 3
Schlosser 3
Schmidt 3
Schne@@ 3
Schoelcher 3
Schoenenbourg 3
Schroeter 3
Schultz 3
Schwartz 3
Sciences 3
Secrétariat 3
Seiler 3
Sem@@ 3
Seuls 3
Sherpao 3
Shinzo 3
Signe 3
Sigolsheim 3
Sinon 3
Ski 3
Sleimane 3
Slovaquie 3
Soixante-@@ 3
Solidarité 3
Sonia 3
Sonntag 3
Sorel 3
Soudanais 3
Souff@@ 3
Souffelweyersheim 3
Souleïmane 3
Soultz-@@ 3
Sousa 3
Spectacle 3
Spor@@ 3
St-André 3
St-Etienne 3
St-Jean 3
Stadium 3
Standard 3
Steinbach 3
Stendhal 3
Steven 3
Stingers 3
Strasbourgeois 3
Studer 3
Sugar 3
Suite 3
Sundaravej 3
Super 3
Suzanne 3
Suède 3
Sym@@ 3
Syrie 3
Séoul 3
Séverine 3
Sûreté 3
TS@@ 3
TTC 3
TZ@@ 3
Tab@@ 3
Table 3
Tableaux 3
Tagolsheim 3
Tam@@ 3
Tampa 3
Tani 3
Tant 3
Tch@@ 3
Tchadiens 3
Tedeschi 3
Tennis 3
Terre 3
Tex@@ 3
Texas 3
Thabo 3
Thal-Marmoutier 3
Thérèse 3
Tim 3
Tim@@ 3
Tom@@ 3
Tomas 3
Tor@@ 3
Toshiba 3
Toulouse 3
Trabelsi 3
Transit 3
Transports 3
Trapp 3
Triglobal 3
Tro@@ 3
Trois-@@ 3
Turckheim 3
Télé@@ 3
Têtes 3
UR@@ 3
United 3
Unter@@ 3
VM 3
Vague 3
Valentin 3
Vanessa 3
Varsovie 3
Vatican 3
Vergès 3
Verne 3
Versailles 3
Version 3
Vic@@ 3
Victime 3
Victoire 3
Vieux 3
Vieux-Thann 3
Vil@@ 3
Village 3
Viv@@ 3
Vogel 3
Vokoun 3
Volgelsheim 3
Volvo 3
Vos@@ 3
Voyage 3
WOERTH 3
Wack@@ 3
Wagner 3
Wahaha 3
Wal@@ 3
Walter 3
Wantzenau 3
Wel@@ 3
Wer@@ 3
White 3
Wi-Fi 3
Will 3
Wine 3
Winkelberg 3
Wintzenheim 3
Wisconsin 3
Wittelsheim 3
Witter@@ 3
Wittersheim 3
World 3
Wybrecht 3
XIXe 3
XVIIIe 3
Xavier 3
Yann 3
Youville 3
Yuki 3
Yvan 3
Yvonne 3
Zeit 3
Zeit@@ 3
Zin@@ 3
Zuma 3
aband@@ 3
abandonné 3
abattre 3
abattu 3
abolir 3
abolition 3
abond@@ 3
abondamment 3
aboutir 3
abri 3
absences 3
accab@@ 3
accepte 3
accidentelle 3
accompli 3
accomplir 3
accorder 3
accoutumée 3
accru 3
accueillis 3
accumulés 3
accus@@ 3
accusant 3
accusation 3
accusations 3
accéder 3
ach 3
achar@@ 3
acheminer 3
acker 3
acquise 3
acquittement 3
acquitté 3
acrob@@ 3
adap@@ 3
adaptés 3
ade@@ 3
ado@@ 3
adoptée 3
adossé 3
adversaires 3
affichent 3
afficher 3
affilée 3
affir@@ 3
affirmer 3
affrontement 3
afghan 3
ageait 3
agement 3
agences 3
ager 3
agers 3
agonie 3
agresseur 3
agresseurs 3
agressivité 3
agrément 3
agrémentée 3
agés 3
aides 3
aigu@@ 3
ailier 3
aillé 3
aines 3
aisance 3
ait-on 3
ajoutée 3
al-Qaida 3
alar@@ 3
alen 3
aler@@ 3
alimentation 3
alimenté 3
alis 3
allem 3
allocataires 3
allure 3
allures 3
allés 3
alourdir 3
alsacienne 3
alsaciennes 3
alten 3
alé@@ 3
ambitieux 3
ambulances 3
amende 3
amendes 3
amertume 3
amor@@ 3
ana 3
analyse 3
analyste 3
ands 3
animent 3
anne 3
annoncera 3
annuler 3
antenne 3
antic@@ 3
anticip@@ 3
anticipée 3
antisyrienne 3
aperçu 3
appartements 3
appartenance 3
appartient 3
appelait 3
appeler 3
appell@@ 3
appellent 3
appelés 3
applaudissements 3
appli@@ 3
appliquée 3
apprend 3
appréciation 3
apprécie 3
appréciée 3
apprête 3
appuie 3
après-@@ 3
apéritif 3
arbeit@@ 3
arché@@ 3
are 3
ares 3
argile 3
argumentaire 3
arium 3
armement 3
aro@@ 3
arrangements 3
arrestation 3
arrosage 3
arrêtent 3
artillerie 3
arômes 3
ascenseur 3
asiatique 3
asiatiques 3
asie 3
ass 3
assassiné 3
asseoir 3
asses 3
assi@@ 3
assises 3
assiste 3
associant 3
associative 3
associer 3
associées 3
assurance-@@ 3
assurent 3
ataire 3
ataires 3
ate 3
athlète 3
athlétisme 3
ation@@ 3
atrices 3
attaquer 3
atteints 3
attestations 3
attribu@@ 3
attribués 3
ature 3
auc@@ 3
audiences 3
augmentant 3
aurait-il 3
aurons 3
australienne 3
authenticité 3
auto 3
autorise 3
aventures 3
avez 3
avocate 3
avoue 3
axe 3
ay 3
aéro@@ 3
aîné 3
aï 3
aï@@ 3
ba 3
bac 3
bacs 3
bad@@ 3
bagarre 3
balay@@ 3
balayage 3
bancaires 3
bancs 3
bann@@ 3
baptisée 3
baptêmes 3
barème 3
bass@@ 3
bastion 3
basée 3
batailles 3
battant 3
battues 3
battus 3
bec 3
belges 3
benne 3
bercé 3
berg@@ 3
bil@@ 3
bizarre 3
blague 3
blement 3
bleu 3
blindé 3
bloc 3
bol 3
bombardements 3
bond 3
bords 3
bordure 3
bosse 3
bouclée 3
bougies 3
boulanger 3
boulangerie 3
boules 3
boulot 3
bouquet 3
bourse 3
boussole 3
boîtes 3
brill@@ 3
brillante 3
brisé 3
bronn 3
bru@@ 3
bulletins 3
by 3
bé@@ 3
bénéfici@@ 3
bénéficient 3
bür@@ 3
cabaret 3
cach@@ 3
cacher 3
caché 3
cachés 3
cadette 3
calcul@@ 3
calèche 3
camarades 3
candidate 3
capables 3
capacités 3
cape 3
capit@@ 3
capitalisation 3
capitalisme 3
capitaux 3
capter 3
caractéristique 3
caravane 3
carburant 3
card 3
cardi@@ 3
cardinal 3
cargaison 3
carnet 3
carré 3
caspase-1 3
casse 3
cassée 3
catalogue 3
catastrophe 3
catéch@@ 3
ceci 3
cellules 3
celui-là 3
cens@@ 3
censure 3
centrales 3
cercueil 3
cession 3
cessions 3
cessé 3
ceux-ci 3
cha 3
chagrin 3
chaise 3
chait 3
chalets 3
chaleureux 3
chameau 3
championnats 3
champs 3
chanc@@ 3
chante 3
chanteurs 3
chapeau 3
chaudière 3
chauff@@ 3
che-@@ 3
chement 3
cherchent 3
chiites 3
chim@@ 3
chinoises 3
chirurgie 3
chocolats 3
chois@@ 3
chorégraphe 3
chou 3
chrétien 3
chè@@ 3
chômeurs 3
ci-contre 3
cibl@@ 3
ciblé 3
cinquante 3
circulait 3
cirque 3
cit@@ 3
ck 3
claire 3
claires 3
classé 3
cle 3
clefs 3
clichés 3
clignotant 3
clinique 3
cliniques 3
cloche 3
coalition 3
coffre 3
cohérence 3
coiff@@ 3
coinc@@ 3
coincé 3
coli@@ 3
collaboratrice 3
collectes 3
collecteur 3
collectif 3
collectifs 3
collectivités 3
collectés 3
colline 3
collégi@@ 3
collégiale 3
colmarien 3
colombiennes 3
colon@@ 3
colonne 3
coloration 3
combinaisons 3
combinés 3
combler 3
combustible 3
commandés 3
commenc@@ 3
commerciale 3
commercialisation 3
communautaires 3
comparer 3
compassion 3
complexes 3
complémentaire 3
compositions 3
comprends 3
compteurs 3
comptoir 3
compétences 3
concentration 3
concentre 3
concept 3
concernées 3
concilier 3
concitoyens 3
conclusion 3
conclusions 3
concret 3
concurrent 3
condamnation 3
condamne 3
condi@@ 3
confectionné 3
confessions 3
confiants 3
configuration 3
confir@@ 3
confirmation 3
confirmer 3
confirmée 3
confisqué 3
confor@@ 3
conjointement 3
conjoncture 3
conju@@ 3
connaissais 3
connaissance 3
conquis 3
conquête 3
consacrée 3
conscient 3
conservatrice 3
conserver 3
considér@@ 3
considérée 3
const@@ 3
consulter 3
consécutives 3
conséqu@@ 3
contenir 3
content 3
contexte 3
continuera 3
contournement 3
contraint 3
contraintes 3
contrô@@ 3
contrôler 3
contrôlé 3
conven@@ 3
convergence 3
convives 3
convivial 3
conviviale 3
convo@@ 3
copie 3
corruption 3
cortège 3
cos@@ 3
costume 3
costumes 3
couche 3
couler 3
couper 3
couples 3
couverte 3
couvrir 3
coïncidence 3
coûter 3
craignent 3
crises 3
critiqué 3
croissante 3
cross 3
croy@@ 3
croyaient 3
crustacés 3
crâne 3
créateur 3
cter 3
cteur 3
ctu@@ 3
cynique 3
céder 3
cée 3
célèbres 3
célébrations 3
cérémonies 3
côte 3
dangerosité 3
datant 3
dedans 3
degrés 3
del@@ 3
demand@@ 3
demandait 3
demandent 3
demandeurs 3
dement 3
demeur@@ 3
demeurait 3
demeurent 3
demeuré 3
demi-heure 3
densité 3
deren 3
descendant 3
design 3
dess@@ 3
desser@@ 3
dessert 3
dessiner 3
dest@@ 3
devi@@ 3
deçà 3
dia 3
diabétique 3
diapason 3
dictature 3
difficiles 3
diffusion 3
différences 3
différenci@@ 3
dignes 3
dignité 3
diminu@@ 3
diplomate 3
diplomates 3
diplomatie 3
diplomatique 3
diplômes 3
dira 3
directe 3
dis 3
discipl@@ 3
discipline 3
discrète 3
discrétion 3
discussion 3
discuter 3
disposant 3
disques 3
distill@@ 3
dit-on 3
dité 3
diversité 3
divor@@ 3
djembé 3
doigt 3
domiciliés 3
domin@@ 3
domine 3
dopage 3
dopants 3
dorm@@ 3
dorment 3
dort 3
dose 3
doter 3
doté 3
doucement 3
douceurs 3
douche 3
douter 3
douzaine 3
dram@@ 3
dre 3
drogue 3
duels 3
dus 3
débor@@ 3
débu@@ 3
débute 3
débuter 3
débutera 3
décennies 3
déception 3
décev@@ 3
décollé 3
décour@@ 3
découvre 3
décrit 3
décède 3
déficit 3
défilé 3
défin@@ 3
définit 3
défunts 3
déguster 3
dégâts 3
déjeuner 3
déli@@ 3
délibéré 3
délicat 3
déloc@@ 3
délégué 3
démesure 3
démissionner 3
démontrer 3
démontré 3
déneig@@ 3
dénoncer 3
dép@@ 3
dépanneur 3
départemental 3
départementaux 3
dépass@@ 3
dépassement 3
dépend@@ 3
déplacé 3
déplacés 3
déploiement 3
déplore 3
déploré 3
déployées 3
déposé 3
déposée 3
dépou@@ 3
dépres@@ 3
dépréciations 3
dépê@@ 3
déroule 3
déroulement 3
déroulée 3
désignerait 3
détaillant 3
détermination 3
détruire 3
détruite 3
déçus 3
eb@@ 3
effac@@ 3
effacé 3
effectifs 3
effondrement 3
effondré 3
einmal 3
elle@@ 3
emann 3
employeurs 3
employé 3
employée 3
emprun@@ 3
en-@@ 3
enbach 3
enberg 3
enberger 3
enchaîner 3
enclins 3
enclos 3
encontre 3
encourage 3
encouragements 3
encourent 3
ende 3
endommagée 3
ener 3
enfer 3
enflammé 3
engagée 3
enjeux 3
enquêter 3
enr@@ 3
enregistré 3
enrich@@ 3
enseign@@ 3
enseignants 3
enseignes 3
entes 3
enthousiaste 3
entonner 3
entonné 3
entourant 3
entraide 3
entraîn@@ 3
entraîner 3
entraînés 3
entre-@@ 3
entremise 3
entreprend 3
entrepôt 3
entêtement 3
envergure 3
envis@@ 3
envisagent 3
envolée 3
eries 3
erklärt 3
ersten 3
erte 3
escroquerie 3
espèce 3
espèrent 3
essayer 3
essayé 3
estimait 3
estimant 3
estimée 3
estomac 3
eté 3
euil 3
eusement 3
ex-Premier 3
exceptionnel 3
exceptionnelles 3
excessif 3
excl@@ 3
exclusivement 3
exemplaires 3
exerce 3
exercé 3
exige 3
existant 3
exister 3
exon@@ 3
exonération 3
expansion 3
exploits 3
explosif 3
explosive 3
explosé 3
exportations 3
expos@@ 3
exposé 3
exposées 3
exprimer 3
expédi@@ 3
extr@@ 3
extraire 3
extrait 3
extéri@@ 3
f-@@ 3
fabri@@ 3
facilité 3
faibles 3
faiblesse 3
fais 3
fameuse 3
fan@@ 3
fanfare 3
fans 3
fantastique 3
far@@ 3
farine 3
fas@@ 3
fascin@@ 3
fau@@ 3
favoritisme 3
fax 3
faç@@ 3
façades 3
feld 3
fenêtres 3
ferm@@ 3
ferment 3
fermé@@ 3
fermées 3
ferroviaires 3
fication 3
fie 3
fig@@ 3
figurant 3
figurer 3
fili@@ 3
finales 3
financé 3
financée 3
fine 3
fiscales 3
fiscalité 3
fiscaux 3
fixe 3
fixer 3
fiées 3
flacon 3
flambée 3
fleur 3
fleur@@ 3
fleurs 3
flexibilité 3
flot 3
flott@@ 3
flu@@ 3
flèche 3
folies 3
fonctions 3
fond@@ 3
for 3
forcé 3
forfait 3
formellement 3
forment 3
formes 3
formé 3
forçant 3
fourchette 3
fournit 3
franchement 3
franchi 3
franco-@@ 3
francophone 3
frappant 3
frapper 3
frappée 3
froide 3
fru@@ 3
fruité 3
fréquemment 3
fur 3
fâ@@ 3
fédér@@ 3
fédérales 3
félicitations 3
félicité 3
fém. 3
féminine 3
fériés 3
féro@@ 3
fêtards 3
führen 3
gal@@ 3
gang 3
gardé 3
garni 3
ged@@ 3
geht 3
gel 3
gique 3
glacée 3
gle@@ 3
glisse 3
glisser 3
global 3
globale 3
globalement 3
gnes 3
golfe 3
gorge 3
gour@@ 3
gouvernementale 3
graisse 3
gran@@ 3
grandement 3
grandir 3
grav@@ 3
gravures 3
gren@@ 3
grimpé 3
grivèlerie 3
gt 3
guerres 3
gues 3
gueule 3
guide 3
guitare 3
gué 3
générales 3
générées 3
gérontologique 3
gérée 3
gê@@ 3
gêne 3
h-@@ 3
ha 3
habe 3
habile 3
habitu@@ 3
habituelles 3
haut-@@ 3
he 3
hein 3
her@@ 3
herbe 3
heur@@ 3
heute 3
hi 3
hl 3
hn 3
holding 3
hollywoodiens 3
homologues 3
hon@@ 3
horizontale 3
horri@@ 3
hospit@@ 3
hospitalisation 3
house 3
hr@@ 3
humains 3
human@@ 3
hur@@ 3
hypothèse 3
hé@@ 3
héber@@ 3
hélicoptère 3
héritage 3
hésit@@ 3
hésitent 3
hôte 3
iPhone 3
ich 3
id 3
identifié 3
identique 3
idé@@ 3
iens 3
igne 3
ignent 3
ihre 3
iles 3
ille@@ 3
illustre 3
illustrer 3
imaginaient 3
imaginé 3
immenses 3
immédiate 3
implication 3
implicitement 3
imposition 3
impér@@ 3
inacceptable 3
inage 3
ination 3
incendiées 3
incertitude 3
incom@@ 3
inconnu 3
inconnues 3
incrimin@@ 3
incroyablement 3
inculpation 3
incursion 3
indemnité 3
indexation 3
indien 3
indispensable 3
individu 3
individuellement 3
industriels 3
industries 3
indépendant 3
indépendante 3
inform@@ 3
informatique 3
informe 3
ing 3
ingen 3
initiation 3
injustice 3
innocence 3
innov@@ 3
inondations 3
inquiètent 3
inquiétudes 3
ins@@ 3
insist@@ 3
insistant 3
inspiration 3
inspirer 3
installe 3
instants 3
instauration 3
institutionnels 3
institutions 3
instrumentistes 3
insulté 3
intentions 3
intercommunale 3
internationales 3
internautes 3
interne 3
interprètes 3
intervenue 3
intervient 3
intim@@ 3
intit@@ 3
intitulé 3
intégrale 3
intéressent 3
intéressés 3
invaincue 3
inverse 3
invit@@ 3
inés 3
iques 3
irakienne 3
irs 3
isch 3
ischer 3
isent 3
islamiste 3
isol@@ 3
isolées 3
issus 3
istique 3
isée 3
itaires 3
itant 3
itent 3
ith 3
j 3
jambe 3
jet@@ 3
ji 3
joyeuses 3
jug@@ 3
juifs 3
junge 3
junte 3
juridique 3
justificatif 3
kann 3
keine 3
kel 3
kirch 3
kleinen 3
kri@@ 3
ks 3
kt 3
kun@@ 3
lac@@ 3
lagunes 3
lanc@@ 3
lance 3
lancers 3
lancés 3
langage 3
lant 3
lat@@ 3
latine 3
lauréats 3
le-Bas 3
le-Haut 3
ler-@@ 3
leçon 3
libanais 3
licence 3
licenciement 3
licenciés 3
lich 3
lichen 3
liegt 3
limit@@ 3
linger 3
liquidités 3
lisé 3
litiges 3
litres 3
littéraire 3
littéralement 3
logiciel 3
lorrain 3
lotissement 3
lumières 3
lune 3
lux@@ 3
ly 3
là-dessus 3
lâ@@ 3
lève 3
lée 3
lées 3
légal 3
législ@@ 3
légitimité 3
madame 3
magasinage 3
magasiner 3
magnifiques 3
maintenance 3
maintient 3
mait 3
majeures 3
majeurs 3
majoritaires 3
mali@@ 3
mamans 3
manager 3
manifest@@ 3
manifestants 3
manteau 3
manufactur@@ 3
maquillage 3
marchand 3
marcheurs 3
marges 3
marine 3
marins 3
marionnettes 3
marié 3
maroc@@ 3
marqu@@ 3
marquants 3
marqueur 3
marqueurs 3
marxiste 3
marée 3
mascul@@ 3
massivement 3
mauvaises 3
maîtrisé 3
mehr 3
mehrere 3
mel@@ 3
menacée 3
mennonite 3
mensuellement 3
menés 3
merveille 3
messieurs 3
mesur@@ 3
mesurer 3
meurent 3
meurt 3
mi-décembre 3
micro 3
mie 3
militants 3
mince 3
minces 3
minerai 3
mini 3
minier 3
minimale 3
minorités 3
mobiles 3
mobilisé 3
modernes 3
modeste 3
modé@@ 3
modération 3
moindres 3
moines 3
molécules 3
monarchie 3
mont@@ 3
monte 3
montrant 3
monument 3
morceaux 3
moteur 3
motifs 3
motion 3
motivations 3
motoneigistes 3
motrices 3
mouv@@ 3
mouvance 3
moy@@ 3
mulhou@@ 3
mulhousienne 3
multi@@ 3
multiplication 3
multiplient 3
musicien 3
musiques 3
mâle 3
mè@@ 3
mètre 3
médecine 3
médi@@ 3
médiatique 3
médicaments 3
médiév@@ 3
médiéval 3
mée 3
mélanger 3
mémor@@ 3
méritent 3
mérité 3
métaux 3
méth@@ 3
méthode 3
mê@@ 3
mû@@ 3
müssen 3
n'roll 3
nach@@ 3
nar@@ 3
nat@@ 3
nationaux 3
navals 3
navig@@ 3
nef 3
nel 3
neur@@ 3
neuve 3
nier 3
no 3
noble 3
noirs 3
nommée 3
non@@ 3
nord-ouest 3
notoriété 3
nou@@ 3
nourris 3
noël 3
nuage 3
nuits 3
nur 3
nécessairement 3
nécessite 3
négatives 3
oblig@@ 3
obligatoire 3
obliger 3
observe 3
observer 3
observée 3
occupée 3
och 3
octro@@ 3
octroyé 3
oder 3
offensif 3
offerte 3
offrant 3
oires 3
ologique 3
omni@@ 3
onde 3
onie 3
onnement 3
onnette 3
onnier 3
onnées 3
onnés 3
ons-@@ 3
opinion 3
opportun@@ 3
opportunité 3
opposant 3
opposée 3
optimis@@ 3
opé@@ 3
opéra 3
opérateurs 3
ora 3
ordin@@ 3
ordonnances 3
ordonné 3
ore 3
organes 3
organismes 3
orientations 3
orium 3
ors 3
orthodoxe 3
osité 3
ouragans 3
ouvertures 3
ouvriers 3
ovation 3
ovic 3
pa@@ 3
paie 3
paire 3
palpable 3
panne 3
parallèle 3
paramédicaux 3
paraphé 3
parcour@@ 3
pare-brise 3
parfait 3
parfum 3
parfums 3
parisiens 3
parl@@ 3
parlaient 3
partageant 3
partenariats 3
partent 3
parterre 3
participeront 3
particulière 3
partira 3
paru 3
passager 3
passait 3
passants 3
passiert 3
passif 3
pastorale 3
pat@@ 3
pati@@ 3
patience 3
patronales 3
pattes 3
pauvre 3
payés 3
pel@@ 3
pendu 3
perdus 3
perfectionn@@ 3
permanent 3
permettront 3
perspectives 3
perturb@@ 3
perç@@ 3
pesticides 3
photo@@ 3
phénomènes 3
pilier 3
pionnier 3
piscine 3
placés 3
plages 3
plai@@ 3
plaines 3
planche 3
planchent 3
plancher 3
planification 3
plantations 3
plastique 3
ple 3
pli@@ 3
plonge 3
poignée 3
point@@ 3
pointé 3
poitrine 3
politicien 3
politiciens 3
pom@@ 3
pontife 3
port 3
portail 3
porteront 3
portugais 3
posent 3
poser 3
post@@ 3
postale 3
postes 3
potiers 3
pouce 3
poursuites 3
poursuivie 3
poèmes 3
pratiquent 3
prendrait 3
prenne 3
prenons 3
prescrire 3
prioritaire 3
privilégiés 3
privées 3
prières 3
procurer 3
procédures 3
productions 3
professionn@@ 3
professionnel 3
profit@@ 3
profitant 3
profondeur 3
projections 3
prolongé 3
promet 3
promu 3
pronon@@ 3
propag@@ 3
propagande 3
propice 3
proportion 3
proposait 3
proposant 3
proposée 3
protest@@ 3
protestant 3
proto@@ 3
protège 3
provenaient 3
provenir 3
provinciales 3
provoquant 3
pré-@@ 3
précipitations 3
précis@@ 3
précise-t-elle 3
précédente 3
précédents 3
précédé 3
précédée 3
prédit 3
préfect@@ 3
préjudice 3
préoccupations 3
préparatifs 3
préparent 3
présentent 3
présentera 3
préside 3
présumé 3
prévenu 3
prévenus 3
prévient 3
prévision 3
prévoir 3
prêter 3
prêté 3
ps 3
psych@@ 3
pub 3
publiées 3
puis@@ 3
puissante 3
pâ@@ 3
péd@@ 3
pédalé 3
péni@@ 3
pénitentiaire 3
péri@@ 3
pés 3
pétro@@ 3
quart-arrière 3
quat@@ 3
quent 3
quittera 3
quittés 3
rabais 3
racisme 3
racon@@ 3
raconte-t-il 3
rad@@ 3
radical 3
raffinerie 3
rail 3
rain@@ 3
raisonnable 3
rallongé 3
ram@@ 3
ramassage 3
rand@@ 3
rantes 3
rapatri@@ 3
rapides 3
rappel@@ 3
rappellent 3
rapportent 3
raquettes 3
ras@@ 3
rassemblement 3
rattr@@ 3
rav@@ 3
ravir 3
ray@@ 3
rayonnante 3
rebelle 3
rebonds 3
recense 3
recev@@ 3
recherché 3
recommand@@ 3
reconn@@ 3
reconnue 3
reconstruire 3
records 3
recré@@ 3
recue@@ 3
recueillir 3
rediffusion 3
redou@@ 3
redoutable 3
redoutent 3
refus@@ 3
refusent 3
registres 3
regrets 3
regretter 3
regroupement 3
rejet@@ 3
rel 3
religieuses 3
reliés 3
relog@@ 3
remerci@@ 3
remercia 3
remercié 3
remontée 3
remplaçants 3
remplie 3
remportée 3
rencontrés 3
rendent 3
rendra 3
rendront 3
rentré 3
renversé 3
renversée 3
repli 3
repoussé 3
reproche 3
reproduire 3
respectives 3
resser@@ 3
restait 3
restant 3
restaurateur 3
restrictions 3
restés 3
retards 3
retenues 3
retrouvent 3
retrouvera 3
reur 3
reux 3
revenait 3
revendi@@ 3
revendications 3
revendique 3
revi@@ 3
reviendra 3
revirements 3
revivre 3
revoir 3
revu 3
rez-de-chaussée 3
reçoivent 3
ridicule 3
rier 3
rique 3
riverains 3
robe 3
romanesque 3
rompus 3
roul@@ 3
roule 3
roulotte 3
routier 3
routiers 3
routine 3
royaume 3
ruptures 3
rural 3
rurale 3
rythmique 3
règl@@ 3
règle 3
réag@@ 3
réalisateurs 3
réalisées 3
réaménagement 3
récent 3
réchauff@@ 3
réclament 3
récol@@ 3
récolter 3
récoltés 3
rédaction 3
rédu@@ 3
réduits 3
réfection 3
réflexions 3
réfléchir 3
réfléchit 3
réfugiés 3
réglement@@ 3
régul@@ 3
réhabilitation 3
réjoui 3
rémun@@ 3
répercussions 3
répit 3
répliqué 3
répondants 3
répondeur 3
républicain 3
république 3
répète 3
répéter 3
répété 3
réquisi@@ 3
résidant 3
résister 3
résume 3
rétention 3
réun@@ 3
réunira 3
réunit 3
réveiller 3
révision 3
révol@@ 3
révolution 3
rééducation 3
réélu 3
sac 3
sacrés 3
saga 3
saint 3
salut@@ 3
sam 3
samedis 3
sans-abri 3
sante 3
satis@@ 3
satisfaction 3
satisfaits 3
sauvetage 3
savou@@ 3
saynètes 3
sceptiques 3
schn@@ 3
science 3
scin@@ 3
scripteurs 3
scrupu@@ 3
sculp@@ 3
sculptures 3
sec 3
sechs 3
secou@@ 3
secourir 3
secrètement 3
sehr 3
seinen 3
seiner 3
semblerait 3
sensation 3
sent@@ 3
sentait 3
sentier 3
sentiments 3
serait-ce 3
serré 3
servis 3
session 3
sexuel 3
sexuels 3
shows 3
sien 3
sienne 3
sifs 3
signal 3
signale 3
signes 3
signifie 3
sillage 3
similaires 3
sinc@@ 3
sixième 3
ski@@ 3
sky 3
slogan 3
sme 3
socioculturel 3
solaire 3
solistes 3
solitude 3
soll 3
sollen 3
son@@ 3
song@@ 3
songe 3
sonores 3
sortis 3
soufflé 3
souffrances 3
souffre 3
souffrent 3
souhaitait 3
souhaitent 3
souhaiterait 3
souhaitons 3
soul@@ 3
soulager 3
soulign@@ 3
soumise 3
soupes 3
souris 3
souverainiste 3
souverains 3
spatiale 3
spectaculaire 3
spiritu@@ 3
spontan@@ 3
sportifs 3
spr@@ 3
spéciales 3
spécialisées 3
spécialités 3
spécifique 3
spéculations 3
square 3
sses 3
st 3
stabilisation 3
ster 3
stop@@ 3
struct@@ 3
structures 3
studios 3
stér@@ 3
subir 3
subprime 3
successeur 3
succession 3
succède 3
suffisait 3
suffrages 3
suggère 3
suites 3
sunnite 3
super-@@ 3
superbe 3
supermarchés 3
supervision 3
supplément 3
suppression 3
supprimer 3
supériorité 3
sur-@@ 3
surface 3
surfactur@@ 3
surg@@ 3
surprendre 3
surveiller 3
suscité 3
susp@@ 3
suspendu 3
suspendues 3
sympathiques 3
systémati@@ 3
séances 3
sécur@@ 3
séduction 3
séduire 3
séduit 3
sélec@@ 3
sélectionner 3
sén@@ 3
séquence 3
sévères 3
sûre 3
t-elle 3
tam@@ 3
tantôt 3
taper 3
tari@@ 3
tarif 3
tatif 3
taxi 3
tch@@ 3
tchadiens 3
team 3
tements 3
temple 3
tendant 3
tendre 3
tendresse 3
tendu 3
tendue 3
tenteront 3
tentes 3
terait 3
terie 3
tern@@ 3
terri@@ 3
terrible 3
territoires 3
terroir 3
terror@@ 3
terrorisme 3
testament 3
tez 3
thal 3
thaïlandaise 3
thermique 3
thorax 3
thérap@@ 3
timbres 3
tionnelle 3
tirage 3
tire 3
tive 3
tl@@ 3
tler 3
toi 3
tolérance 3
tombes 3
tons 3
touchant 3
tournage 3
tourne 3
toxiques 3
traces 3
traduire 3
trafiquants 3
trag@@ 3
traite 3
tranchées 3
transactions 3
transform@@ 3
transformés 3
transportée 3
travaill@@ 3
travaillaient 3
travaillait 3
traîner 3
tri 3
tribu 3
trim@@ 3
triste 3
trompettes 3
trompé 3
tronçon 3
trophées 3
trotz 3
troubles 3
trousses 3
trucs 3
ttes 3
tuer 3
tueurs 3
turbulences 3
turc 3
ture 3
tuées 3
ty 3
téléchargement 3
téléphoné 3
télévisée 3
témoignage 3
ultimes 3
unanime 3
ung@@ 3
ungen 3
univers@@ 3
unter@@ 3
uranium 3
urban@@ 3
ures 3
usagers 3
usages 3
uses 3
utilise 3
utilisés 3
vaill@@ 3
vain 3
valor@@ 3
vapeur 3
vel@@ 3
vendeurs 3
vendu 3
versements 3
versés 3
verte 3
vertu 3
veu@@ 3
vez 3
viabilité 3
vides 3
vieilles 3
vieillesse 3
vif 3
vil@@ 3
villa 3
villageois 3
vin@@ 3
vingt-cinq 3
virtu@@ 3
virtuose 3
virus 3
visent 3
visible 3
visit@@ 3
visité 3
vitale 3
voil@@ 3
voile 3
voler 3
volontaire 3
volontiers 3
vom 3
vor@@ 3
vou@@ 3
voyageurs 3
vulnér@@ 3
vé 3
végétaux 3
véri@@ 3
vérifications 3
véritables 3
vétéran 3
vêtus 3
war 3
week-ends 3
weil 3
whisky 3
winstub 3
wir@@ 3
yans 3
yon 3
yés 3
z-@@ 3
zenheim 3
zinger 3
zt 3
zurück@@ 3
zwe@@ 3
Écosse 3
Éducation 3
Équipe 3
Étienne 3
Évidemment 3
Über@@ 3
àls 3
èle 3
èrement 3
ète 3
ètes 3
ètre 3
é-@@ 3
ébran@@ 3
échang@@ 3
échapp@@ 3
échappé 3
échou@@ 3
échouer 3
éché@@ 3
éclater 3
écoliers 3
écoulée 3
écouter 3
écouté 3
écri@@ 3
écriv@@ 3
éd. 3
édifices 3
éducation 3
égaler 3
électriques 3
électroniques 3
élevage 3
éliminatoires 3
élég@@ 3
élégante 3
émeutes 3
émir@@ 3
émissaire 3
éner@@ 3
énig@@ 3
énormément 3
épisode 3
éprouv@@ 3
éprouve 3
équipage 3
équipements 3
équipées 3
éral 3
établi 3
établissements 3
éteint 3
étendre 3
étendue 3
étendues 3
éternelle 3
étroits 3
étudi@@ 3
étés 3
évanouir 3
éventualité 3
éventuelle 3
éventuelles 3
évidents 3
évo@@ 3
évolu@@ 3
évoluait 3
évolue 3
évêque 3
ôme 3
œuvre 3
-14 2
-1991 2
-Bains 2
-D@@ 2
-FR@@ 2
-R@@ 2
-T@@ 2
-ce 2
-de-@@ 2
-qui 2
....@@ 2
0,43 2
0,8 2
00.@@ 2
0km 2
1,2 2
1,3 2
1,4 2
1,47@@ 2
1,9 2
1-1 2
1-3 2
1.000 2
1.600 2
10-@@ 2
10.000 2
100e 2
102 2
1066@@ 2
113,@@ 2
114 2
116 2
117 2
11@@ 2
12,@@ 2
12.2007 2
120 2
121 2
122,@@ 2
13,50 2
136,@@ 2
139 2
13@@ 2
13e 2
13h 2
13h30 2
13h45 2
14,@@ 2
14-0 2
140 2
1420 2
149 2
15.@@ 2
154 2
155 2
15e 2
15h@@ 2
166 2
16h00 2
17,@@ 2
17-@@ 2
1700 2
172,@@ 2
17e 2
18,@@ 2
18-18 2
180 2
1800 2
182 2
1850 2
1862 2
1870 2
18h30 2
190 2
1930 2
1932 2
1936 2
1937 2
1938 2
1946 2
1947 2
1954 2
1961 2
1963 2
1966 2
1970-@@ 2
1973 2
1976 2
1977 2
1979 2
19e 2
1h@@ 2
2,15 2
2,25 2
2,6 2
2-2 2
20.@@ 2
2005-@@ 2
2008-09 2
200e 2
2011 2
2016 2
205 2
206 2
215 2
218 2
21h25 2
22.@@ 2
220 2
22h30 2
232 2
237 2
247 2
24h 2
260 2
26@@ 2
270 2
28,@@ 2
28-@@ 2
2h30 2
3,8 2
3-3 2
30.@@ 2
3000 2
32,@@ 2
32.@@ 2
33@@ 2
36,@@ 2
36@@ 2
39@@ 2
4,6 2
4-2 2
40e 2
463 2
473 2
48,@@ 2
49@@ 2
5,8 2
5-1 2
50.000 2
57.@@ 2
574,8 2
6,5 2
63@@ 2
65,9 2
650 2
66.@@ 2
67@@ 2
7,5 2
7,50 2
7-@@ 2
7.000 2
700.000 2
70@@ 2
715 2
740 2
76.@@ 2
760 2
770 2
7h 2
8,1 2
8,6 2
8,9 2
8.000 2
852,6 2
888 2
899 2
8h30 2
9-@@ 2
90@@ 2
AB@@ 2
ACA 2
ACS 2
AF@@ 2
AFM 2
AGÉ@@ 2
AHQG 2
ALLEN@@ 2
ALTE@@ 2
ALTWILLER 2
AME 2
AR 2
ASEPAM 2
ASS 2
ASUM 2
ATE 2
ATZHEIM 2
AUX 2
AV@@ 2
Abdallah 2
Abdellah 2
Abdessadki 2
Abe 2
Aber 2
Aberdeen 2
Abhisit 2
Actuellement 2
Administr@@ 2
Adolphe 2
Affleck 2
Affäre 2
Afin 2
Agen 2
Agro@@ 2
Ah 2
Ahmed 2
Ain 2
Airport 2
Al-@@ 2
Albert-Schweitzer 2
Alberta 2
Albertine 2
Alcan 2
Alcine 2
Allein 2
Allemand 2
Alli@@ 2
Alonso 2
Alouettes 2
Alpentrio 2
Alpes 2
Alteckendorf 2
Alvaro 2
Alzner 2
Ama@@ 2
America 2
Amis 2
Ammerschwihr 2
Amos 2
Amour 2
Ampère 2
Amts@@ 2
Amuf 2
Ancienne 2
And@@ 2
Ander@@ 2
Anderlecht 2
Andreas 2
Andrew 2
Angelicus 2
Angers 2
Angèle 2
Angéli@@ 2
Anita 2
Ann 2
Annapolis 2
Anne-Louise 2
Annick 2
Annon@@ 2
Anschlä@@ 2
Ant@@ 2
Antarctique 2
Antibes 2
Antilles 2
Antoinette 2
Anton 2
Antonia 2
Ap@@ 2
Apatow 2
Appel 2
Aqualies 2
Aquatique 2
Arabes 2
Arbeit 2
Arbeitslo@@ 2
Arbitre 2
Archives 2
Arctique 2
Arg@@ 2
Argentine 2
Argentins 2
Arizona 2
Arkansas 2
Armando 2
Armenti@@ 2
Armes 2
Armut 2
Arnold 2
Arnott 2
Aron 2
Arp 2
Arti@@ 2
Asi@@ 2
Aspach 2
Assom@@ 2
Ast@@ 2
Atlanta 2
Att@@ 2
Atten@@ 2
Auberge 2
Aubry 2
Auch 2
Audi@@ 2
Auf 2
Auftritt 2
Aug@@ 2
Augustin 2
Aulas 2
Auparavant 2
Aurelio 2
Aurélie 2
Aurélien 2
Aussi 2
Australi@@ 2
Aut 2
Auteur 2
Autodid@@ 2
Autrement 2
Auxerre 2
Außen@@ 2
Außenministeri@@ 2
Avalanche 2
Avent 2
Avery 2
BC 2
BDRVM 2
BEL 2
BEP 2
BER@@ 2
BIS@@ 2
BISCHHOLTZ 2
Ba@@ 2
Baccarat 2
Bachar 2
Bachelor 2
Bad@@ 2
Badgers 2
Baidu 2
Ball 2
Ball@@ 2
Balta 2
Bangladesh 2
BankAtlantic 2
Banques 2
Barack 2
Barbe-Bleue 2
Barberousse 2
Barbie 2
Bardo 2
Baros 2
Barry 2
Bas 2
Bas-Rabérin 2
Bashung 2
Bassin 2
Bastian 2
Bauby 2
Baumann 2
Bayern 2
Bayrou 2
Beau@@ 2
Beaulieu 2
Beauport 2
Behörden 2
Bei 2
Beinheim 2
Bellefeuille 2
Belles 2
Bellevue 2
Benf@@ 2
Bengale 2
Benn@@ 2
Benzema 2
Berg@@ 2
Bergeron 2
Bergheim 2
Bernadette 2
Bernardswiller 2
Berthe 2
Bertuzzi 2
Besucher 2
Bethlehem 2
Beuvelet 2
Bieber 2
Biecher 2
Big 2
Bilawal 2
Bin@@ 2
Binn@@ 2
Bisch@@ 2
Bischwihr 2
Bisel 2
Bit@@ 2
Bitschwiller 2
Bizar@@ 2
Blackberry 2
Blackburn 2
Blain 2
Blake 2
Blanchard 2
Blanchet 2
Ble@@ 2
Bleus 2
Blienschwiller 2
Blu@@ 2
Bluff 2
Bob@@ 2
Bobigny 2
Bockel 2
Boersch 2
Bogotá 2
Bol@@ 2
Bollinger 2
Bolloré 2
Bollwiller 2
Bond 2
Bonhomme 2
Bonjour 2
Bonne-Fontaine 2
Boofzheim 2
Bootzheim 2
Borbet 2
Borderline 2
Bouddha 2
Boulay 2
Bourses 2
Bourtzwiller 2
Bous@@ 2
Bout 2
Bow@@ 2
Bradley 2
Brand 2
Brand@@ 2
Brassard 2
Bredle 2
Breitenbach 2
Brem@@ 2
Bren@@ 2
Brent 2
Breunig 2
Brien 2
Brig@@ 2
Brit@@ 2
Brock 2
Broque 2
Brownsburg-Chatham 2
Brucker 2
Brun@@ 2
Bruni-Tedeschi 2
Brut 2
Brésilien 2
Brême 2
Buck@@ 2
Buckeyes 2
Budget 2
Buffalo 2
Bulgarie 2
Bundes@@ 2
Burg@@ 2
Burgard 2
Burger 2
Burnhaupt-le-Haut 2
Burrus 2
Business 2
Busser 2
But@@ 2
Bâle-Campagne 2
Bègue 2
Bélanger 2
Bén@@ 2
Béné@@ 2
Bér@@ 2
C.@@ 2
CA@@ 2
CAC 2
CAMARGUE 2
CB 2
CDO 2
CE1 2
CE2 2
CE@@ 2
CES 2
CEUX 2
CG@@ 2
CHAN@@ 2
CHHAUS@@ 2
CHWILLER 2
CN@@ 2
CNRS 2
CO 2
COP 2
COSEC 2
CP 2
CS 2
CSA 2
CSC 2
CTEUR 2
CV 2
Cabaret 2
Cabinet 2
Caen 2
Caf@@ 2
Caillé 2
Calli@@ 2
Cambodge 2
Camer@@ 2
Camping 2
Canadian 2
Canc@@ 2
Canton 2
Capital 2
Capitole 2
Caps 2
Carleton 2
Carnation 2
Carnets 2
Carr@@ 2
Carrière 2
Carter 2
Case-Shiller 2
Castor@@ 2
Casual 2
Catane 2
Catholique 2
Cathédrale 2
Catégorie 2
Cavaliers 2
Cec@@ 2
Ceci 2
Celles-ci 2
Cem@@ 2
Central 2
Centre-Alsace 2
Cer@@ 2
Cha@@ 2
Chabot 2
Chalk 2
Cham@@ 2
Championnats 2
Champs 2
Champs-de-Bataille 2
Chanel 2
Chanter 2
Chanteurs 2
Chargé 2
Charlesbourg 2
Charlevoix 2
Charlène 2
Charte 2
Chartered 2
Chase 2
Chau@@ 2
Chauff@@ 2
Cheema 2
Chelem 2
Chem@@ 2
Chesley 2
Cheval 2
Chevali@@ 2
Chevènement 2
Chic 2
Chicago 2
China 2
Chinois 2
Chipchura 2
Choeur 2
Chorale 2
Chou 2
Choucrouterie 2
Christoph 2
Châ@@ 2
Ci@@ 2
Cim@@ 2
Citoy@@ 2
Clash 2
Classement 2
Clau@@ 2
Claude-Bernard 2
Clauss 2
Cle@@ 2
Clearstream 2
Cli@@ 2
Clin 2
Coco@@ 2
Code 2
Cofidis 2
Cohade 2
Cohésion 2
Coiteux 2
Colas 2
Colette 2
Colisée 2
Collerette 2
Commissaire 2
Compagnie 2
Comptant 2
Comédie 2
Concernant 2
Concordia 2
Confidanse 2
Conformément 2
Conn@@ 2
Connecticut 2
Connor 2
Conrad 2
Conservateurs 2
Consignations 2
Consommation 2
Consulat 2
Contac@@ 2
Contes 2
Continent 2
Contrat 2
Contre 2
Cooper 2
Cordoba 2
Corentin 2
Cormier 2
Corn@@ 2
Corse-du-Sud 2
Cosec 2
Coton 2
Cottbus 2
Couleur 2
Coupes 2
Coutu 2
Couvent 2
Coventree 2
Craig 2
Cremaster@@ 2
Cris@@ 2
Cristal 2
Crozet 2
Cru@@ 2
Crèches 2
Créée 2
Cube 2
Culte 2
Cup 2
Cutajar 2
Cé@@ 2
D2 2
DB 2
DE@@ 2
DEL@@ 2
DEMAIN 2
DMC 2
DS@@ 2
Dah@@ 2
Dambach-la-Ville 2
Dame 2
Damien 2
Danielle 2
Danone 2
Dany 2
Darren 2
Dass 2
Daten@@ 2
Daubensand 2
Davis 2
Day 2
Dean 2
Debbie 2
Debeur 2
Dec@@ 2
Demain 2
Demok@@ 2
Den@@ 2
Deneuve 2
Denver 2
Denys 2
Denzel 2
Dernière 2
Deschamps 2
Desp@@ 2
Deutsche 2
Deux-@@ 2
Dev@@ 2
Devils 2
Dezember 2
Dhabi 2
Di 2
DiPietro 2
Diane 2
Die@@ 2
Diebold 2
Dief@@ 2
Diemeringen 2
Dienst@@ 2
Diesel 2
Dim 2
Direct@@ 2
Direction 2
Disneyland 2
Diss 2
Djidé 2
Djilali 2
Doll@@ 2
Dollar 2
Doller 2
Domaine 2
Dome 2
Dominic@@ 2
Donald 2
Donn@@ 2
Dos 2
Doss@@ 2
Dossiers 2
Doubaï 2
Doubs 2
Drachenbronn 2
Drapeau 2
Dreyfus 2
Drire 2
Dschungel 2
Dubaï 2
Dubielewicz 2
Duc@@ 2
Duceppe 2
Duke 2
Dumais 2
Dumas 2
Durham 2
Durme 2
Durren@@ 2
Dus@@ 2
Duval 2
Dwayne 2
DÉ@@ 2
Déc@@ 2
Découverte 2
Décès 2
Dép@@ 2
Dépôts 2
Dîner 2
Dôme 2
E.- 2
ENHEIM 2
ENS@@ 2
EPA 2
EPL 2
ERS@@ 2
ERSHEIM 2
ERSTEIN 2
ESG 2
EUROAIRPORT 2
Eaux 2
Ebersmunster 2
Echos 2
Eck@@ 2
Eckwer@@ 2
Ecomusée 2
Eden 2
Edgar 2
Edith 2
Eff@@ 2
Egl@@ 2
Egyp@@ 2
Ehoud 2
Ehpad 2
Ehrhardt 2
Ein@@ 2
Eine 2
Einführung 2
Einkauf@@ 2
Electric 2
Electro 2
Eli 2
Elodie 2
Els@@ 2
Elvis 2
Emmanuelle 2
Emmy 2
Emploi 2
Enfant 2
Eng@@ 2
Engel 2
Engel@@ 2
Engele 2
Entraî@@ 2
Entrepreneur 2
Entrevue 2
Entscheid@@ 2
Envol 2
Ep@@ 2
Epiphanie 2
Epis 2
Eppinger 2
Equipe 2
Equity 2
Erdinger 2
Erdöl 2
Ern@@ 2
Ernest 2
Es@@ 2
Esc@@ 2
Esch@@ 2
Esel 2
Espérons 2
Esteban 2
Esther 2
Eugène 2
Eugénie 2
Euro-@@ 2
Euro@@ 2
Euronext 2
Eux 2
Evelyne 2
Evidemment 2
Extraits 2
F-1 2
F.@@ 2
FCM 2
FCPI 2
FCPR 2
FE@@ 2
FF@@ 2
FTQ 2
Fabienne 2
Fam@@ 2
Familie 2
Fanfare 2
Fanny 2
Faron 2
Fas@@ 2
Fau@@ 2
Faut-il 2
Faut@@ 2
Faysse 2
Fecteau 2
Fed 2
Feldkirch 2
Femmes 2
Fen@@ 2
Fendeler 2
Ferland 2
Fermés 2
Ferreira 2
Ferruci 2
Fidel 2
Fiesta 2
Figaro 2
Fil@@ 2
Fili@@ 2
Film 2
Finance 2
Fink@@ 2
Fisch@@ 2
Fischbach 2
Fla@@ 2
Flammarion 2
Flo@@ 2
Flor@@ 2
Florian 2
Flughaf@@ 2
Flynn 2
Foch 2
Fol@@ 2
Fontaine 2
Fontaines 2
Force 2
Forge 2
Formhals 2
Fort@@ 2
Fortschwihr 2
Forum 2
Forums 2
Fotos 2
Fou@@ 2
Fradette 2
Francisco 2
Franco-Colombienne 2
Francs-Bourgeois 2
Franz 2
Française 2
Frau 2
Freitag 2
Freyburger 2
Fricker 2
Frida 2
Fried@@ 2
Frieda 2
Friesenheim 2
Fris@@ 2
Fritsch 2
Fritz 2
Fro@@ 2
Froeschwiller 2
Fron@@ 2
Front 2
Fréquelin 2
Fuk@@ 2
Fukuda 2
Fun@@ 2
Fureur 2
Future 2
Fuzeau 2
Fédéral 2
G.@@ 2
G7 2
GARDE 2
GE@@ 2
GERTWILLER 2
GI@@ 2
GIC 2
GO@@ 2
GRC 2
GRI@@ 2
GUMBRECHTSHOFFEN 2
Gagnon 2
Gagné 2
Gal-de-Gaulle 2
Galfingue 2
Gali@@ 2
Gall@@ 2
Galli@@ 2
Gallippi 2
Gamache 2
Games 2
Ganzau 2
Gary 2
Gas 2
Gaspé@@ 2
Gaspésie 2
Gatineau 2
Gau@@ 2
Gaulle 2
Gauthier 2
Gbagbo 2
Gebur@@ 2
Geiller 2
Geis@@ 2
Geiseln 2
Geispolsheim 2
Gekreuzigte 2
Gel@@ 2
Genève 2
Georg 2
Gerets 2
Germaine 2
Geschä@@ 2
Gesellschaft 2
Get@@ 2
Giants 2
Giguère 2
Ginette 2
Girard 2
Girardin 2
Gis@@ 2
Gissinger 2
Giuliani 2
Glacis 2
Globalement 2
Glöckchen 2
Goebbels 2
Goff 2
Gold 2
Golden 2
Gon@@ 2
Goncourt 2
Gordon 2
Gorges 2
Gott 2
Gouvernement 2
Goûter 2
Gracques 2
Graff 2
Graffenstaden 2
Graine 2
Grands 2
Grasberg 2
Gre@@ 2
Grenelle 2
Grenier 2
Grenze 2
Gresswiller 2
Gretel 2
Grillen 2
Grob 2
Gross@@ 2
Grosso 2
Groux 2
Grud@@ 2
Grève 2
Grégoire 2
Grégory 2
Guer@@ 2
Gui@@ 2
Gun@@ 2
Gundershoffen 2
Gw@@ 2
Gyanendra 2
Gég@@ 2
Génération 2
Géorgie 2
H.T 2
H5N1 2
HOUSE.- 2
HT 2
HU@@ 2
HW96 2
Hab@@ 2
Haber@@ 2
Haberey 2
Habsheim 2
Hadi@@ 2
Haeffelin 2
Haegy 2
Haguenau-@@ 2
Hahnenberg 2
Hal@@ 2
Hall 2
Haller 2
Hallet 2
Halm 2
Halter 2
Hamid 2
Hans-Jean 2
Hansel 2
Hard 2
Hardt 2
Harmonie 2
Harrison 2
Harrods 2
Harry 2
Hart 2
Hartley 2
Has@@ 2
Hatcher 2
Hatt@@ 2
Haut-Koenigsbourg 2
Haut-Rhinois 2
Hauts 2
Haydn 2
Health 2
Heathrow 2
Hec@@ 2
Heiligenstein 2
Heim@@ 2
Hein@@ 2
Heineken 2
Heiteren 2
Heitz 2
Hells 2
Hem@@ 2
Henn@@ 2
Henri@@ 2
Henrichs 2
Henry 2
Herrmann 2
Hershey 2
Hessou 2
Heure 2
Hexagone 2
Hilaire 2
Hilsenheim 2
Hilton 2
Hinter@@ 2
Hipsheim 2
Hir@@ 2
Hitler 2
Hochel@@ 2
Hockey 2
Hoer@@ 2
Hoff@@ 2
Hohengoeft 2
Holm@@ 2
Honor 2
Hop@@ 2
Horaires 2
Huckabee 2
Huerta 2
Huguette 2
Huit 2
Hum@@ 2
Humann 2
Hun@@ 2
Hunawihr 2
Huningue 2
Hur@@ 2
Hurricanes 2
Hurstel 2
Husson 2
Hyndman 2
Hyères-Toulon 2
Hégenheim 2
Hétu 2
Hôpitaux 2
IBM 2
IL@@ 2
ILLE 2
INCENDIES.- 2
INE 2
ING@@ 2
INSA 2
INSE@@ 2
ISTR@@ 2
ITA 2
IVG 2
IVe 2
Ibrahim 2
Id@@ 2
Ide@@ 2
Ik@@ 2
Il@@ 2
Illfurth-@@ 2
Illhæusern 2
Illiade 2
Illinois 2
Im 2
Imag@@ 2
Imbert 2
Imbsheim 2
Inauguration 2
Ind@@ 2
Indianapolis 2
Indianer 2
Indiens 2
Indus@@ 2
Informationen 2
Initiative 2
Inn@@ 2
Inscriptions 2
Interrogé 2
Interros 2
Intervention 2
Intitulé 2
Irène 2
Is 2
Isetan 2
Islam 2
Island 2
Iss@@ 2
Issenhuth 2
Itali@@ 2
Italiens 2
Ivoire 2
J 2
J-@@ 2
J.-L. 2
Jacquemod 2
Jacques-Cartier 2
Jadis 2
Jahren 2
Jahres@@ 2
Jamie 2
Jan 2
Janvier 2
Janyk 2
Jazz 2
Jean-Baptiste 2
Jean-Daniel 2
Jean-Michel 2
Jean-René 2
Jean-Yves 2
Jeff 2
Jehl 2
Jelic 2
Jersey 2
Jettingen 2
Jeunesse 2
Jimmy 2
Joan@@ 2
Joe 2
Joey 2
Joffre 2
Johnson 2
Johnston 2
Joseph-@@ 2
Josiane 2
Jour@@ 2
Journées 2
Joëlle 2
Judd 2
Juifs 2
Julius 2
Juniors 2
Jur@@ 2
Juste 2
Jérémie 2
KGB 2
Kadhafi 2
Kah@@ 2
Kai@@ 2
Kammer@@ 2
Kandahar 2
Karbon 2
Karim 2
Karimov 2
Kas@@ 2
Kauff@@ 2
Kaw@@ 2
Kehl 2
Kel@@ 2
Ken@@ 2
Kh@@ 2
Kibera 2
Kieffer 2
Kientzheim 2
Kikuyus 2
Kin@@ 2
Kinder 2
Kirsch 2
Kisumu 2
Klaus 2
Kléber 2
Klöppel 2
Kochersberg 2
Koenig 2
Koh@@ 2
Kohlen@@ 2
Koizumi 2
Kol@@ 2
Kong 2
Konsum 2
Kopa 2
Kosovo 2
Kostopoulos 2
Kratz 2
Krau@@ 2
Krebs 2
Kreiss 2
Kremlin 2
Kris@@ 2
Krist@@ 2
Kristen 2
Kru@@ 2
Krum@@ 2
Krutenau 2
Kubler 2
Kuntzmann 2
Kur@@ 2
Kutzenhausen 2
Kyoto 2
Kén@@ 2
L-@@ 2
LANG@@ 2
LCN 2
LCR 2
LES 2
LIB@@ 2
LS 2
LU@@ 2
Labrie 2
Lac@@ 2
Lacasse 2
Lacet 2
Lachine 2
Laetitia 2
Laeusch 2
Laffont 2
Laflaque 2
Lag@@ 2
Lagardère 2
Laits 2
Lal@@ 2
Lalaye 2
Lambert 2
Lanaudière 2
Lanc@@ 2
Lancers 2
Land 2
Landes@@ 2
Landmann 2
Lang 2
Lanno 2
Lapoutroie 2
Lari@@ 2
Larkana 2
Lat@@ 2
Latraverse 2
Latt@@ 2
Laurendeau 2
Laurentienne 2
Lavallée 2
Lay@@ 2
Leafs 2
Leb@@ 2
Lebens 2
Leblond 2
Legrand 2
Lehane 2
Leitao 2
Lemaire 2
Lembach 2
Lemire 2
Lennon 2
Let' 2
Lettonie 2
Lettres 2
Lettrines 2
Lewiston 2
Lexus 2
Lho@@ 2
Libre 2
Lichtlé 2
Lieb@@ 2
Liederkranz 2
Lig@@ 2
Lillehammer 2
Ling@@ 2
Link@@ 2
Lip@@ 2
Lipietz 2
Lire 2
Lisa 2
Lisbonne 2
Lise 2
Literatur@@ 2
Lituanie 2
Livre 2
Lièpvre 2
Location 2
Logement 2
Logis 2
Lohr 2
London 2
Lorenzon 2
Lorient 2
Lorraine 2
Lorrains 2
Louis@@ 2
Loup 2
Loué 2
Luc@@ 2
Lucas 2
Ludo@@ 2
Lumière 2
Lun 2
Luongo 2
Lupstein 2
Lustig 2
Lutz 2
Lutzel@@ 2
Lvovsky 2
Lynch 2
Lynn 2
Léonard 2
Lévis 2
Lévy 2
Lévêque 2
MA 2
MBACH 2
ME 2
ME@@ 2
MP3 2
MUL@@ 2
MUN@@ 2
Machores 2
Maci@@ 2
Mack@@ 2
Maddie 2
Magasin 2
Mages 2
Magic 2
Magnificat 2
Mai@@ 2
Main@@ 2
Maj@@ 2
Mal 2
Malika 2
Malte 2
Man 2
Manaudou 2
Manifest@@ 2
Manning 2
Mans 2
Manson' 2
Maple 2
Marc-@@ 2
Marc@@ 2
Marcel-@@ 2
March@@ 2
Marché-aux-Choux 2
Marchés 2
Marguer@@ 2
Mari@@ 2
Marie-France 2
Marie-Reine 2
Marie-Thérèse 2
Marie-Ève 2
Marjolaine 2
Marl@@ 2
Marty 2
Mary 2
Marz@@ 2
Mass@@ 2
Mathias 2
Mathis 2
Matthieu 2
Maurice 2
Maxim@@ 2
May 2
McDo 2
McFadden 2
McSorley 2
Med@@ 2
Medal 2
Media 2
Meh@@ 2
Men 2
Mena 2
Ment@@ 2
Merrill 2
Merry 2
Mes@@ 2
Mesnil-Amelot 2
Messier 2
Met@@ 2
Mettons 2
Mey@@ 2
Mi-temps 2
Mic@@ 2
Michelin 2
Michigan 2
Michèle 2
Mil@@ 2
Mille 2
Mine 2
Mines 2
Mini-@@ 2
Minis@@ 2
Ministère 2
Miss@@ 2
Mitglieder 2
Mitt 2
Mittelberger 2
Mittelwihr 2
Mittwoch 2
Mlle 2
Mohamed 2
Mohammad 2
Mol@@ 2
Molo@@ 2
Molsheim-Mutzig 2
Moment 2
Monaco 2
Monate 2
Monet 2
Monseigneur 2
Mont 2
Mont-@@ 2
Mont-Royal 2
Montcalm 2
Montée 2
Moo@@ 2
Morgan@@ 2
Moskau 2
Mot@@ 2
Moy@@ 2
Moyen 2
Mozart 2
Moïse 2
Muhlbach 2
Mulcair 2
Mulenga 2
Multiplacements 2
Muntzenheim 2
Murtaza 2
Musharaf 2
Mutschler 2
Mutuel 2
Mylène 2
Méd@@ 2
Médaille 2
Médecin 2
Médecins 2
Méli@@ 2
Mémo@@ 2
Mérieux 2
Mét@@ 2
Mün@@ 2
N2 2
NCAA 2
NDLR 2
NE@@ 2
NF 2
NFL 2
NO@@ 2
NPD 2
NYSE 2
Na@@ 2
Nach@@ 2
Nad@@ 2
Najjar 2
Nanette 2
Napoléon 2
Nasri 2
Nat 2
Naï@@ 2
Neff 2
Nest@@ 2
Nestlé 2
Nev@@ 2
Ngarhondo 2
Nguyen 2
Nicol@@ 2
Niederhaslach 2
Niederhergheim 2
Niedermodern 2
Niger 2
Nigérians 2
Niño 2
No 2
Noiret 2
Nombreux 2
Norbert 2
Not@@ 2
Note 2
Notre-Dame-@@ 2
Notre-Dame-de-@@ 2
Nouvelle-Calédonie 2
Noé 2
Noémie 2
Nu@@ 2
Numericable 2
Nun 2
Nur@@ 2
Nuremberg 2
Nus@@ 2
Ny@@ 2
Né@@ 2
Née 2
OGM 2
OM 2
OM@@ 2
OMC 2
ORL 2
Oasis 2
Oberhaslach 2
Oberhergheim 2
Oberschaeffolsheim 2
Oc@@ 2
Océanic 2
Oddo 2
Odile 2
Oeuvre 2
Offenbourg 2
Oh 2
Ohio 2
Oktober 2
Ola@@ 2
Old 2
Oli@@ 2
Oliver 2
Olivia 2
Omischl 2
One 2
Ontariens 2
Opti@@ 2
Ore@@ 2
Organ@@ 2
Orsay 2
Ortiz 2
Os@@ 2
Otages 2
Ottmann 2
Ottrott 2
Outre-Forêt 2
Oxford 2
P' 2
PA 2
PAF 2
PBD 2
PDG 2
PE@@ 2
PETITE 2
PETITE-@@ 2
PF@@ 2
PHALSBOURG.- 2
PKK 2
PL@@ 2
PLC 2
PML-Q 2
POUR 2
PR@@ 2
PSG 2
PU@@ 2
PUC 2
Padacké 2
Paddock 2
Pagliarulo 2
Pahimi 2
Paisley 2
Palace 2
Palestine 2
Panis 2
Panorama 2
Panza 2
Papineau 2
Paradis 2
Parcours 2
Parisien 2
Park@@ 2
Parlamentswahlen 2
Parlant 2
Parsa 2
Participer 2
Paru 2
Passe-Partout 2
Passé 2
Patinoire 2
Patri@@ 2
Patrice 2
Paul-@@ 2
Pays-Bas 2
Peabody 2
Pelloux 2
Pentagone 2
Permanences 2
Perrier 2
Personnalité 2
Perte 2
Peshawar 2
Pet@@ 2
Peters@@ 2
Petit-@@ 2
Petit@@ 2
Petite-France 2
Petite-Pierre 2
Petites 2
Petro@@ 2
Peu@@ 2
Pfetterhouse 2
Pfister 2
Pham 2
Phcie 2
Phil@@ 2
Philadelphie 2
Philip 2
Photos 2
Physi@@ 2
Picot 2
Pie 2
Piedad 2
Pier@@ 2
Pierr@@ 2
Pillet 2
Pitt 2
Platz 2
Plein 2
Plekanec 2
Plutôt 2
Plä@@ 2
Pointe-aux-Trembles 2
Poirier 2
Pologne 2
Polokwane 2
Pom@@ 2
Pompidou 2
Pon@@ 2
Ponce 2
Pop@@ 2
Popp 2
Port-du-Rhin 2
Porte 2
Potage 2
Poulin 2
Power 2
Prague 2
Prai@@ 2
Predators 2
Preise 2
Premierminister 2
Prenez 2
Press@@ 2
Prisa 2
Privilège 2
Pro-Doc 2
Prof@@ 2
Proje@@ 2
Promenades 2
Promo@@ 2
Proto@@ 2
Proz@@ 2
Publi@@ 2
Public 2
Pueblo-@@ 2
Pulversheim 2
Pun@@ 2
Puy@@ 2
Pâques 2
Péladeau 2
Pérou 2
Pê@@ 2
Pôle 2
Qantas 2
Quai 2
Quatrième 2
Que@@ 2
Queen 2
Quelqu' 2
Quelque 2
Question 2
Quint@@ 2
Quinze 2
Québec-Windsor 2
RC 2
RCS 2
RD419 2
RDC 2
RDS 2
RE 2
RE@@ 2
REN@@ 2
RF@@ 2
RHW 2
RMI 2
ROESCHWOOG 2
ROHRWILLER 2
RSF 2
RT@@ 2
Rachida 2
Radio 2
Rae 2
Raedersdorf 2
Rafael 2
Rafiq 2
Rai 2
Raila 2
Rak 2
Rallye 2
Ramo 2
Raoul 2
Rap@@ 2
Rapp 2
Rappel@@ 2
Rappelons 2
Rasmussen 2
Rat@@ 2
Rathsamhausen 2
Rav@@ 2
Raymonde 2
Re 2
Recchi 2
Red 2
Red@@ 2
Redskins 2
Reform 2
Refus 2
Regain 2
Regierung 2
Rehman 2
Reiningue 2
Remarquables 2
Remmy 2
Rempart 2
Reporters 2
Reprise 2
Représentation 2
Research 2
Resolution 2
Respectables 2
Restauration 2
Retrouvez 2
Revenu 2
Revue 2
Rhin-@@ 2
Rhône-@@ 2
Ribéry 2
Rich 2
Ricoh 2
Rideau 2
Rie@@ 2
Riehl 2
Ries 2
Rim@@ 2
Rimouski 2
Ringendorf 2
Rire 2
Ris@@ 2
Risch 2
Ritzenthaler 2
Riyad 2
Roch 2
Rodney 2
Rodolfo 2
Rodriguez 2
Roederer 2
Rog@@ 2
Roggy 2
Roh@@ 2
Roissy 2
Roland-Garros 2
Roman 2
Romano 2
Romanswiller 2
Roméo 2
Ron@@ 2
Ronde 2
Roos 2
Rosemont 2
Rosen@@ 2
Rosso 2
Rossy 2
Roth 2
Rott 2
Rou@@ 2
Rouen 2
Rox@@ 2
Royaume 2
Royaume-Uni 2
Royer 2
Rud@@ 2
Rudolph 2
Ruelisheim 2
Rugby 2
Ruiz 2
Russell 2
Ryo@@ 2
RÉ@@ 2
Réalisation 2
Récemment 2
Réception 2
Régent 2
Régi@@ 2
Rép. 2
Réponse 2
Résultat 2
Réunis 2
S-300 2
SAAQ 2
SALLE 2
SAMU 2
SAVERNE.- 2
SDIS 2
SEL@@ 2
SEPTEMBRE 2
SIS 2
SIV 2
SIV@@ 2
SS@@ 2
STAV 2
STE@@ 2
STM 2
Sa@@ 2
Saada 2
Sacha 2
Sacré-Coeur 2
Sacrées 2
Saddam 2
Saessolsheim 2
Saf@@ 2
Saguenay 2
Saha 2
Said 2
Saint-Augustin 2
Saint-Blaise 2
Saint-Blaise-la-Roche 2
Saint-G@@ 2
Saint-Georges 2
Saint-Hyacinthe 2
Saint-Joseph 2
Saint-Laurent 2
Saint-Martin 2
Saint-Pierre 2
Saint-Pierre-le-Vieux 2
Saint-Quentin 2
Saint-Sacrement 2
Sainte-Afre 2
Sainte-Claire 2
Sainte-Croix-aux-Mines 2
Sainte-Croix-en-Plaine 2
Sainte-Cécile 2
Sainte-Madeleine 2
Sainte-Odile 2
Sakhaline-1 2
Sakhaline-2 2
Sali@@ 2
Samsung 2
Samu 2
Sand 2
Sandler 2
Sankt 2
Sant@@ 2
Santini 2
Sanz 2
Sap@@ 2
Sapeurs-pompiers 2
Sas@@ 2
Satis@@ 2
Savard 2
Saveurs 2
Saïda 2
Sc@@ 2
Schaeffer 2
Schaeffersheim 2
Schaffner 2
Schal@@ 2
Sche@@ 2
Schell 2
Scherer 2
Schi@@ 2
Schirrhoffen 2
Schlienger 2
Schnep@@ 2
Schnoeller 2
Schoenau 2
Schroeder 2
Schtroumpfs 2
Schu@@ 2
Schubert 2
Schulung 2
Schumann 2
Schwe@@ 2
Schweitzer 2
Schwindratzheim 2
Score 2
Scott 2
Seigneur 2
Seine 2
Sekun@@ 2
Sel 2
Seppi 2
Seppois-le-Haut 2
Serbie 2
Sergei 2
Shahnawaz 2
Shan@@ 2
Sheffield 2
Sherbrooke 2
Sherry 2
Shinawatra 2
Show 2
Sibérie 2
Sid@@ 2
Sidney 2
Sie@@ 2
Sierentz 2
Sil@@ 2
Simms 2
Simon-Olivier 2
Simple 2
Sin@@ 2
Sit@@ 2
Situation 2
Sivom 2
Sk@@ 2
Ski-club 2
Smo@@ 2
Soci@@ 2
Sofia 2
Soli@@ 2
Solution 2
Som@@ 2
Son@@ 2
Soomro 2
Sorge 2
Souffel 2
Soultzeren 2
Sources 2
Sozial@@ 2
Spech@@ 2
Spl@@ 2
Sporting 2
Sprits 2
Spécial 2
St-Barth@@ 2
St-Morand 2
St-Nicolas 2
Staat@@ 2
Staatschefs 2
Stad@@ 2
Stadt 2
Stae@@ 2
Stahl 2
Star 2
Star@@ 2
State 2
Station 2
Stau@@ 2
Ste-Odile 2
Stein@@ 2
Steinbrunn-le-Bas 2
Steiner 2
Steinmetz 2
Stewart 2
Sting 2
Stockfeld 2
Stoffel 2
Stone 2
Story 2
Stosswihr 2
Str 2
Strasb 2
Stru@@ 2
Städ@@ 2
Städte 2
Sud@@ 2
Suisses 2
Summers 2
Sun 2
Surbourg 2
Sutter 2
Sw@@ 2
Sweeney 2
Syl@@ 2
Syriens 2
Syrtes 2
System 2
Sète 2
Séb 2
Séguin 2
Sénat 2
Sénégal 2
Sénégalais 2
Séri@@ 2
Séville 2
TCU 2
TE 2
TEPA 2
TER 2
TER@@ 2
TGV-@@ 2
TR@@ 2
TRE@@ 2
TS2 2
TS3 2
Taddeo 2
Tagsdorf 2
Tai@@ 2
Tar@@ 2
Tau@@ 2
Tauler 2
Tay@@ 2
Taylor 2
Team 2
Tebow 2
Tel@@ 2
Tele@@ 2
Telle 2
Temp@@ 2
Terrasses 2
Terre-Neu@@ 2
Thanh 2
Thanvillé 2
Thetford 2
Thi@@ 2
Thibault 2
Thou@@ 2
Tigres 2
Tillman 2
Tiné 2
Tirole 2
Titicaca 2
Togo 2
Toni@@ 2
Tony 2
Tortorella 2
Tottenham 2
Tourisme 2
Tourn@@ 2
Tra@@ 2
Trade 2
Trai@@ 2
Tran@@ 2
Trans@@ 2
Traubach 2
Travail 2
Tremblay 2
Trente 2
Tretz 2
Tribunal 2
Triembach-au-Val 2
Trop 2
Trou@@ 2
Tru@@ 2
Trudeau 2
Trudel 2
Trésor 2
Tun@@ 2
Tunisien 2
Turris 2
Tyrol 2
Tä@@ 2
Tél@@ 2
Télécom 2
UESL 2
UL@@ 2
UNE 2
UNI@@ 2
USEP 2
Uhr 2
Ukraine 2
Ulrich 2
Unedic 2
Ungersheim 2
Unter 2
Urbaine 2
Urmatt 2
Utrecht 2
V8 2
VALFF 2
VHS 2
VI 2
VIA 2
VIDÉO 2
VP 2
VTT 2
Vac@@ 2
Vai@@ 2
Valcartier 2
Valeurs 2
Ve 2
Veillée 2
Vejjajiva 2
Ven@@ 2
Vendenheim 2
Verbo@@ 2
Verbün@@ 2
Verhofstadt 2
Verhü@@ 2
Verlaine 2
Victor-@@ 2
Vier 2
Vier@@ 2
Vignes 2
Villa 2
Villeneuve 2
Vin 2
Vin@@ 2
Ving@@ 2
Violet 2
Virgin 2
Vis@@ 2
Vision 2
Vog@@ 2
Vogelgrun 2
Vol 2
Voleur 2
Volodine 2
Voltaire 2
Von 2
Vonn 2
Vor@@ 2
Votre 2
Vou@@ 2
Vu 2
W 2
WEIL@@ 2
WI@@ 2
WILLER.- 2
WISSEMBOURG 2
Wa@@ 2
Wachst@@ 2
Wade 2
Walchhofer 2
Walk 2
Wall@@ 2
Warner 2
Wat@@ 2
Waters 2
Weckerlin 2
Wege 2
Weihnach@@ 2
Weihnacht@@ 2
Weinbourg 2
Weis@@ 2
Wend@@ 2
Western 2
Weyersheim 2
Wickerschwihr 2
Widensolen 2
Wihr 2
Wii 2
Wiig 2
Wikipédia 2
Wilhelm 2
Will@@ 2
Willer-sur-Thur 2
Willig 2
Willm 2
Wiltord 2
Win@@ 2
Wind@@ 2
Windsor 2
Wing@@ 2
Winter 2
Winter@@ 2
Wintershouse 2
Wir 2
Wir@@ 2
Wirtschaf@@ 2
Wittner 2
Witz 2
Wo@@ 2
Woerth 2
Wohnung 2
Wolff 2
Wur@@ 2
Währung 2
X. 2
XVIIe 2
Yam@@ 2
You 2
Youn@@ 2
Yv@@ 2
Yvon 2
Z 2
ZELLWILLER 2
Za@@ 2
Zahl 2
Ze@@ 2
Zeitpunkt 2
Zel@@ 2
Zentr@@ 2
Zerr 2
Zia-@@ 2
Zix 2
Zossi 2
Zulfi@@ 2
Zum 2
Zurich 2
Zwiebel 2
Zürich 2
a-t-on 2
a.@@ 2
abaissé 2
abatt@@ 2
abattus 2
abbaye 2
abeille 2
aber 2
aboli@@ 2
abondante 2
abonde 2
abonnés 2
abordé 2
abracadabrantes 2
abritant 2
abrite 2
abs@@ 2
absten@@ 2
abstenir 2
absti@@ 2
abstr@@ 2
abstrai@@ 2
absur@@ 2
abu@@ 2
académique 2
accents 2
accentuer 2
accessibles 2
accession 2
accesso@@ 2
accidentellement 2
acclamations 2
accompagn@@ 2
accompagnaient 2
accompagnateur 2
accompagne 2
accordait 2
accordée 2
accordées 2
accoucha 2
accrochée 2
accroît 2
accrue 2
accréditations 2
accueill@@ 2
accueillons 2
accumul@@ 2
ace 2
acer@@ 2
aces 2
ach-le-Haut 2
achalandée 2
acharnement 2
achem@@ 2
acher 2
acheteur 2
acheteurs 2
achevé 2
achi 2
achè@@ 2
achètent 2
achèvement 2
acidité 2
acité 2
acol@@ 2
acou@@ 2
acquisitions 2
acquit@@ 2
acquitter 2
acquéreurs 2
acrobate 2
actionn@@ 2
activement 2
activis@@ 2
adaptée 2
addition 2
additionne 2
adhérer 2
adjudant 2
admet 2
administratifs 2
admir@@ 2
admiration 2
adolescent 2
adolescente 2
adolescentes 2
adolescents 2
adonnent 2
adonner 2
adopte 2
adoptera 2
adore 2
adres@@ 2
adul@@ 2
adulé 2
adverse 2
adé@@ 2
adéqu@@ 2
affai@@ 2
affaiblie 2
affectation 2
affecte 2
affectera 2
affinités 2
affirme-t-il 2
affirment 2
afflu@@ 2
affluence 2
affrontés 2
afgh@@ 2
afric@@ 2
agen 2
agglomérations 2
agira 2
agne 2
agogique 2
agrand@@ 2
agressions 2
agressé 2
agricul@@ 2
agriculture 2
agré@@ 2
agrément@@ 2
agée 2
agénaire 2
ah 2
aigu 2
ailles 2
aim@@ 2
aimaient 2
aimer 2
aimer@@ 2
aimée 2
airement 2
aison 2
aisément 2
ajourn@@ 2
ajoute-t-elle 2
ajust@@ 2
ajuster 2
ak 2
akers 2
ala 2
alarme 2
alcoo@@ 2
alcoolique 2
alcooliques 2
alcoolémie 2
alg@@ 2
alias 2
aligner 2
alimentaires 2
alimenter 2
alise 2
alisées 2
all 2
allemande 2
allemands 2
allerdings 2
allez 2
allocation 2
allongement 2
allou@@ 2
allum@@ 2
allumer 2
allumettes 2
allusion 2
allées 2
allég@@ 2
allégations 2
alourdi 2
alpin@@ 2
alpins 2
also 2
alt@@ 2
alter@@ 2
alto 2
alé 2
ama 2
amant 2
amb@@ 2
ambiances 2
ambigu@@ 2
ambulanciers 2
amender 2
ament 2
ami@@ 2
amnistie 2
amont 2
amorce 2
amplement 2
ampli@@ 2
ampoules 2
ampu@@ 2
amus@@ 2
amuse 2
amusent 2
amélior@@ 2
améliorations 2
améliorée 2
aménager 2
aménagé 2
analys@@ 2
analyser 2
ancienneté 2
ancêtres 2
androg@@ 2
anecdotes 2
anger 2
anglaises 2
anglic@@ 2
angoisses 2
ani 2
anic 2
anien 2
animatrices 2
animer 2
animées 2
annah 2
annoncent 2
annonces 2
annoncées 2
annoncés 2
annuels 2
annuités 2
annulation 2
annulé 2
annulée 2
année-là 2
ano 2
anonymat 2
anonyme 2
antibulle 2
anticipations 2
antiquités 2
antitabac 2
antivol 2
anxiété 2
ao 2
ape 2
aper 2
aperçoit 2
apparaître 2
apparitions 2
appartenaient 2
appartenait 2
appauv@@ 2
appel@@ 2
appelons 2
appelée 2
applau@@ 2
applaudir 2
applaudis 2
applicable 2
appliquées 2
apport 2
apportant 2
apprenait 2
approbation 2
approuvent 2
approvisionnement 2
appréh@@ 2
apprêtaient 2
appu@@ 2
appuyant 2
appuyer 2
appuyé 2
après-guerre 2
aques 2
arabes 2
arc-en-ciel 2
arch@@ 2
archevêque 2
archipel 2
architectes 2
ariat 2
arisation 2
arité 2
armé 2
arménienne 2
arn@@ 2
arraché 2
arre 2
arri@@ 2
arrivant 2
arrivants 2
arrière-grand-mère 2
arro@@ 2
arrondissements 2
articulée 2
artisanal 2
artisanale 2
artisti@@ 2
artères 2
aréna 2
arénas 2
asif 2
asile 2
aspir@@ 2
aspirateur 2
assain@@ 2
assass@@ 2
assassinés 2
assemblées 2
assign@@ 2
assimil@@ 2
assis 2
assise 2
assistances 2
assistant 2
assume 2
assumé 2
assurait 2
assure-t-il 2
assurera 2
assureur 2
assurées 2
assurés 2
astre 2
astron@@ 2
ath 2
athlètes 2
atie 2
ational 2
atis@@ 2
atisation 2
atlantique 2
atmosphériques 2
atomique 2
ator 2
atori@@ 2
atouts 2
attachants 2
attachent 2
attachée 2
attaquent 2
attaqués 2
attendaient 2
attendrait 2
attends 2
attendue 2
attent@@ 2
atter@@ 2
attirée 2
attraits 2
attribue 2
attribuée 2
atténuer 2
atures 2
atzheim 2
au-dessous 2
aub@@ 2
aud 2
audace 2
audies 2
audiovisuel 2
audit@@ 2
auditions 2
aufge@@ 2
augment@@ 2
augmentations 2
augmentent 2
augmentée 2
ault 2
aurions 2
aut 2
autel 2
auteure 2
authenti@@ 2
auto-@@ 2
autocar 2
autocaristes 2
autochtones 2
automatiquement 2
autor@@ 2
autorisation 2
autorisations 2
autorisée 2
autorisés 2
autri@@ 2
autrui 2
auxiliaire 2
aval 2
avalanche 2
avan@@ 2
avanc@@ 2
avancer 2
avancés 2
avant-@@ 2
avant-dernier 2
avant-projet 2
avant@@ 2
avantage@@ 2
ave 2
ave@@ 2
aven@@ 2
averti@@ 2
avertissements 2
aveu 2
avi@@ 2
avoc@@ 2
avoisin@@ 2
avortements 2
avouer 2
avoué 2
awa 2
ax 2
axé 2
aya 2
ayer 2
aéronautique 2
aéroportée 2
aël 2
aître 2
baguette 2
baie 2
baignoires 2
baissent 2
balnéaire 2
ban 2
bandes 2
baptême 2
barbe 2
bard 2
baro@@ 2
barr@@ 2
barreau 2
barrière 2
bas-côté 2
bas-rhinois 2
basilique 2
basket-ball 2
basse-@@ 2
basés 2
batailler 2
batt@@ 2
battent 2
bau@@ 2
baum 2
beau-père 2
beaux-arts 2
beff@@ 2
begrenzt 2
beh@@ 2
beim 2
belle-@@ 2
ben@@ 2
benjam@@ 2
benjamins 2
berceau 2
besonderen 2
biais 2
bic@@ 2
bidonville 2
bien-être 2
bien@@ 2
bifurqué 2
bijoux 2
bilingues 2
bilité 2
bin@@ 2
bio@@ 2
bis@@ 2
blason 2
bler 2
blesser 2
blieb 2
blog 2
blog@@ 2
blogs 2
bloque 2
bloquer 2
bloqué 2
bolsheim 2
bombar@@ 2
bondis@@ 2
bonhomme 2
bonnet 2
bonnets 2
boogie-woogie 2
bornes 2
bot@@ 2
botanique 2
boucl@@ 2
boucler 2
boucli@@ 2
boudés 2
bouffe 2
bouill@@ 2
boule 2
boulodrome 2
bourrasques 2
boursiers 2
boursière 2
bouscul@@ 2
bouts 2
box 2
boxe 2
boxeur 2
braconnage 2
branches 2
braqu@@ 2
bravoure 2
bredele 2
brevet 2
bridge 2
brigade 2
briguer 2
britanniques 2
bron@@ 2
bronz@@ 2
brosse 2
brouill@@ 2
brusque 2
brusquement 2
brut 2
brut@@ 2
brutale 2
brésiliens 2
brûler 2
brûlés 2
budg@@ 2
budgets 2
burlesque 2
by@@ 2
bye 2
bâti 2
bé 2
bébés 2
béné@@ 2
bénéficiant 2
bénévolat 2
bénévole 2
bét@@ 2
bê@@ 2
bêtise 2
bû@@ 2
ca 2
cabane 2
cabine 2
cac@@ 2
cachent 2
cadavre 2
cadet 2
cadets 2
cadettes 2
cag@@ 2
cages 2
caillassé 2
calculé 2
cali@@ 2
californiennes 2
calmer 2
camar@@ 2
cambriolage 2
camionnette 2
camoufl@@ 2
campement 2
caméraman 2
canal 2
canaliser 2
canard 2
cancers 2
candidates 2
cannabis 2
cannelle 2
canoë-kayak 2
cantine 2
cantonales 2
caoutchouc 2
captifs 2
captiver 2
capture 2
capturée 2
capturés 2
capu@@ 2
caractér@@ 2
caractéristiques 2
caramel 2
carap@@ 2
caravanes 2
carc@@ 2
cardio 2
caresses 2
caritative 2
carnage 2
carnaval 2
carrefour 2
carrières 2
carrément 2
casier 2
casquettes 2
cass@@ 2
cassette 2
cassées 2
casual 2
cath@@ 2
caucus 2
causés 2
caution 2
cav@@ 2
cavalier 2
cavaliers 2
cavalières 2
caveau 2
cell@@ 2
centi@@ 2
centr@@ 2
centres-villes 2
centristes 2
cercle 2
certificat 2
cerveau 2
cesser 2
cg67.fr 2
chage 2
chaises 2
chaleureuse 2
champ 2
changent 2
changera 2
chant@@ 2
chantaient 2
chantent 2
chap@@ 2
chari@@ 2
charpente 2
chasser 2
chasseurs 2
chat 2
chat@@ 2
chauds 2
chauffe 2
chauffeurs 2
chauffée 2
chauss@@ 2
chaussure 2
chel@@ 2
chemins 2
chen@@ 2
chenaux 2
chera 2
chercheuse 2
chers 2
cheur 2
cheuse 2
chevelure 2
cheville 2
chi 2
chic 2
chili@@ 2
chirurg@@ 2
chocol@@ 2
chocs 2
chois 2
choisissait 2
choisissent 2
choisit 2
chon 2
choqué 2
choral 2
chorales 2
chorégraphie 2
chorégraphies 2
christ@@ 2
chronique 2
chroniqueurs 2
chrono 2
chronométrés 2
chutes 2
chuté 2
chèques 2
chêne 2
ci 2
ci-dessus 2
cibler 2
cicatr@@ 2
cident 2
cie 2
cieux 2
cigare 2
cigognes 2
cimenterie 2
cimetières 2
cin 2
cinéaste 2
cinématographi@@ 2
cinématographique 2
circul@@ 2
circulent 2
circuler 2
cires 2
cirés 2
citons 2
citoyenne 2
civilisation 2
cla@@ 2
clair@@ 2
clairement 2
claques 2
clarté 2
classée 2
classés 2
cliente 2
clientes 2
cliquez 2
cloches 2
clope 2
clous 2
club-house 2
clôture 2
co-président 2
coaccusés 2
coff@@ 2
coffret 2
coiffure 2
coins 2
cole 2
colibri 2
colis 2
collabor@@ 2
collaborer 2
collect@@ 2
collectivité 2
collier 2
collines 2
collè@@ 2
collégiens 2
colomb@@ 2
colonies 2
color@@ 2
colorés 2
combatt@@ 2
combustibles 2
comiques 2
commencera 2
commentaire 2
commerci@@ 2
commissions 2
commod@@ 2
communications 2
communiqués 2
communiste 2
communistes 2
commémoratif 2
comparativement 2
compens@@ 2
compensatoires 2
compenser 2
complices 2
complétée 2
complétées 2
comporte 2
comporté 2
compos@@ 2
compose 2
composer 2
composez 2
compositeur 2
composition 2
composées 2
comprenant 2
comprendra 2
comprise 2
comprom@@ 2
compt@@ 2
comptabilisées 2
comptant 2
compères 2
compétence 2
compétitif 2
comédienne 2
comédiennes 2
comédiens 2
conc@@ 2
concentrée 2
concentrées 2
concepts 2
concern@@ 2
concernent 2
concerto 2
concessionnaires 2
concevoir 2
concl@@ 2
conclut-il 2
concour@@ 2
concrets 2
concrète 2
concrétis@@ 2
concrétiser 2
concurrentes 2
concède 2
condam@@ 2
condamnations 2
conduc@@ 2
conduire 2
confectionnés 2
confiante 2
confidenti@@ 2
confie-t-il 2
confiseurs 2
confitures 2
confon@@ 2
confond@@ 2
confondre 2
conformément 2
confortables 2
confron@@ 2
confrontation 2
confronté 2
confrères 2
confrérie 2
confèrent 2
conférences 2
congé@@ 2
congélation 2
coni 2
conjoints 2
conjon@@ 2
conjug@@ 2
connais 2
connaissait 2
connaisseurs 2
connaissez 2
conne@@ 2
connexions 2
conquérant 2
conquérir 2
consci@@ 2
conseill@@ 2
conseillé 2
consensu@@ 2
considérable 2
consignes 2
consistant 2
consistoire 2
consoles 2
consommer 2
consommé 2
constamment 2
constatations 2
constituante 2
constituer 2
constituerait 2
constitution 2
constitutionnelle 2
constituée 2
construite 2
construits 2
consécutifs 2
contempl@@ 2
contempler 2
contempor@@ 2
contenter 2
contenus 2
conteur 2
contient 2
continu 2
continuait 2
continuent 2
continuité 2
contourn@@ 2
contradictions 2
contraign@@ 2
contravention 2
contraventions 2
contre-la-montre 2
contre-produc@@ 2
contreb@@ 2
contrebande 2
contribuable 2
contribuent 2
contribuera 2
contributions 2
contrôlée 2
convainc@@ 2
convaincante 2
convaincu 2
conval@@ 2
conversation 2
converser 2
converti 2
converti@@ 2
convoiti@@ 2
convoqué 2
convoqués 2
cool 2
coopér@@ 2
coopérer 2
coord@@ 2
coordonnateur 2
copines 2
coprésident 2
coque 2
coquetterie 2
cordi@@ 2
correspon@@ 2
correspond 2
correspondance 2
corridor 2
corrompu 2
corso 2
coréen 2
costumés 2
cotes 2
coucher 2
couches 2
coudes 2
coul@@ 2
coulait 2
couper@@ 2
coupées 2
courante 2
coureur 2
courriel 2
courtiers 2
courtise 2
cousin 2
couvent 2
couverture 2
couvre 2
coéquipiers 2
coûte 2
coûtera 2
crainte 2
crampons 2
craquer 2
creusé 2
creux 2
cri 2
criminalité 2
cris 2
criti@@ 2
crié 2
croise 2
croisement 2
croisiéristes 2
croissant 2
croisés 2
croqu@@ 2
cru@@ 2
crus 2
créances 2
créant 2
créatures 2
créneau 2
ctent 2
cté 2
cueillir 2
cues 2
cuis@@ 2
cuisinière 2
cuisson 2
cuivres 2
culo@@ 2
cultes 2
cultive 2
cultivé 2
curseur 2
cy@@ 2
cyber-@@ 2
cyclistes 2
cynisme 2
câ@@ 2
cé 2
cé@@ 2
cées 2
célibataire 2
célèbrera 2
céléb@@ 2
célébré 2
cépage 2
cération 2
cérébrale 2
cés 2
côto@@ 2
côtoient 2
dahin 2
dalle 2
dames 2
dan 2
dangers 2
dann 2
danoise 2
dans@@ 2
darauf 2
dates 2
dau@@ 2
davon 2
demandée 2
demeurés 2
demi-douzaine 2
demi-finales 2
demi-saison 2
denheim 2
dent@@ 2
desc@@ 2
descendants 2
descendre 2
dessen 2
dessine 2
dessiné 2
dessinée 2
dessous 2
desti@@ 2
destin 2
destinées 2
destruction 2
deter 2
dettes 2
deur 2
deut@@ 2
deux-@@ 2
devants 2
devançant 2
devenant 2
deviendra 2
deviendrait 2
devin@@ 2
diab@@ 2
diacre 2
diamant 2
diap@@ 2
diaporama 2
dictateur 2
did 2
dies@@ 2
diesem 2
diesen 2
diffuser 2
différ@@ 2
différentiel 2
dig@@ 2
digestif 2
digne 2
dilemme 2
dim 2
diminution 2
din@@ 2
dine 2
diocèse 2
diplô@@ 2
dique 2
dirai 2
dirait 2
directs 2
dires 2
dirigeantes 2
dirigées 2
dirigés 2
diront 2
disais 2
discothèques 2
discriminations 2
dise 2
disons 2
disposait 2
dispositions 2
disposés 2
dissi@@ 2
dissolution 2
dissuasive 2
dissé@@ 2
distances 2
distin@@ 2
distingu@@ 2
distingue 2
distribue 2
dites 2
diversement 2
divid@@ 2
divis@@ 2
divul@@ 2
dix-huit 2
dié 2
documentaires 2
domicilié 2
dominent 2
donateurs 2
donnant 2
donnerions 2
donnés 2
dor 2
dormir 2
doré 2
dorénavant 2
dot 2
dotation 2
douceur 2
douteuse 2
doux 2
draine 2
drap@@ 2
dresse 2
dues 2
durch@@ 2
dy 2
dynamiques 2
dé 2
déambul@@ 2
déb@@ 2
déballer 2
débar@@ 2
débarqué 2
débarquée 2
débarr@@ 2
débarrasser 2
débit 2
débord@@ 2
débour@@ 2
débrouill@@ 2
débutant 2
déceler 2
décennie 2
déch@@ 2
déchirer 2
déci@@ 2
décidait 2
décident 2
décidera 2
décidément 2
décisi@@ 2
déclare-t-il 2
déclarés 2
déclench@@ 2
déclenche 2
déclenché 2
déclenchée 2
déclin@@ 2
décliné 2
décoché 2
décoller 2
décombres 2
décomptées 2
déconfiture 2
déconseill@@ 2
décoré 2
décorés 2
décou@@ 2
décrocher 2
décroché 2
décrochés 2
dédi@@ 2
dédiées 2
défavor@@ 2
défavorable 2
défavorisées 2
défavorisés 2
défend@@ 2
défendent 2
défensive 2
défil@@ 2
définir 2
définitifs 2
défis 2
défoncer 2
déforestation 2
déform@@ 2
dégage 2
dégagent 2
dégagées 2
dégrader 2
dégusté 2
délect@@ 2
délibér@@ 2
délibération 2
délibérer 2
délibérément 2
délicate 2
délit 2
délivrer 2
délégués 2
démant@@ 2
démar@@ 2
dément@@ 2
démesur@@ 2
démissions 2
démocr@@ 2
démolition 2
démonstrations 2
démontre 2
démontée 2
déménager 2
déneiger 2
déni 2
dénonce 2
dénoncent 2
dépannage 2
dépassant 2
dépend 2
dépendantes 2
dépendra 2
dépensent 2
dépenser 2
dépl@@ 2
déplace 2
déplacées 2
dépli@@ 2
déplo@@ 2
déployé 2
déportation 2
dépose 2
dépouill@@ 2
dépression 2
dépu@@ 2
députation 2
député-maire 2
dérivés 2
dérob@@ 2
dérou@@ 2
déroulait 2
déroulé 2
déroulées 2
désagré@@ 2
désavoué 2
déser@@ 2
déserte 2
désespérément 2
désh@@ 2
désign@@ 2
désignant 2
désignation 2
désigner 2
désillusion 2
désinfection 2
désinvol@@ 2
désirant 2
déstabiliser 2
déséquilibre 2
détaillants 2
détendre 2
détenteur 2
détiennent 2
détourn@@ 2
détriment 2
détruit 2
détruits 2
détéri@@ 2
développées 2
développés 2
dévoile 2
dévoilera 2
dévol@@ 2
dévouement 2
déçue 2
dür@@ 2
e-et-@@ 2
e-t-on 2
e.- 2
eb 2
eben@@ 2
ebenso 2
ec 2
edine 2
effectivement 2
effectuée 2
effectuées 2
effervescence 2
efficacement 2
effond@@ 2
effondrer 2
eg 2
ein@@ 2
einheimischen 2
el-@@ 2
ela 2
ele@@ 2
eli@@ 2
ell 2
ellen 2
elwe@@ 2
elé 2
emball@@ 2
embarr@@ 2
embau@@ 2
embl@@ 2
emblée 2
emblématique 2
emblématiques 2
embras@@ 2
embûches 2
empar@@ 2
empereur 2
emplacement 2
emplacements 2
emploie 2
employ@@ 2
empo@@ 2
empre@@ 2
empreintes 2
empris@@ 2
emprise 2
emprisonnement 2
empruntent 2
emprunter 2
encein@@ 2
enchant@@ 2
enchantement 2
encombrants 2
encombrée 2
encourageant 2
encourager 2
encre 2
encyclopé@@ 2
endent 2
ender 2
endettement 2
endommag@@ 2
endosse 2
enfermement 2
enfiler 2
enfilé 2
enfou@@ 2
engagées 2
engagés 2
engranger 2
engrangé 2
enheim-@@ 2
enjoint 2
enlevée 2
enlevées 2
enneig@@ 2
ennent 2
ennuyer 2
enquêteur 2
enregis@@ 2
enregistrée 2
enregistrés 2
ense 2
enseignante 2
ensembles 2
enspi@@ 2
entamé 2
entendait 2
entends 2
ententes 2
enter@@ 2
enth@@ 2
enthousiastes 2
entiel 2
entités 2
entorse 2
entourage 2
entourent 2
entourer 2
entrav@@ 2
entretenu 2
entretiennent 2
entretiens 2
entrevues 2
entré 2
entérinée 2
envelop@@ 2
enveloppé 2
environnemental 2
environnementale 2
environnementales 2
environnementaux 2
envisag@@ 2
envisager 2
envoie 2
envole 2
envoler 2
envoyés 2
eren 2
erg 2
erle 2
ern 2
ernes 2
ero 2
erten 2
erung 2
es-là 2
escal@@ 2
escalier 2
escaliers 2
esch 2
esclavage 2
esheim 2
espagnole 2
espi@@ 2
espérait 2
espérance 2
espérances 2
ess 2
essai@@ 2
essaie 2
essentielle 2
esses 2
ession 2
essouff@@ 2
estamp@@ 2
estine 2
eter@@ 2
eth@@ 2
etière 2
ets 2
etz 2
eucharistique 2
eurement 2
eurent 2
eures 2
eus@@ 2
ewwe 2
ex-candidate 2
exact 2
exam@@ 2
examiné 2
exceptionnellement 2
exceptionnels 2
excitant 2
excités 2
exclamée 2
exclu 2
exclu@@ 2
excluait 2
exclusives 2
excursions 2
excès 2
excédent 2
exemplaire 2
exemples 2
exer@@ 2
exerc@@ 2
exhortant 2
exigences 2
exiger 2
existants 2
existenti@@ 2
exotiques 2
explicite 2
expliquait 2
explique-t-elle 2
expliquent 2
exploitants 2
exploite 2
explorateur 2
explorateurs 2
export@@ 2
exportateurs 2
exposants 2
expression 2
exprimant 2
exprime 2
expriment 2
expul@@ 2
expulsion 2
extern@@ 2
externalisés 2
extirper 2
extraordinaires 2
extraterrestre 2
extrémistes 2
exécutif 2
exécutée 2
ey 2
fabricants 2
fabriquée 2
facettes 2
faciles 2
facteurs 2
faction 2
factions 2
faculté 2
failli 2
fais@@ 2
fal@@ 2
falaise 2
fallen 2
famili@@ 2
familiaux 2
fant@@ 2
fantastiques 2
fascination 2
fasciste 2
fat@@ 2
fati@@ 2
fatidique 2
fatigue 2
faune 2
faut-il 2
fautes 2
favor@@ 2
favorablement 2
favoris@@ 2
favoriser 2
façons 2
fe 2
fermement 2
fermer 2
fermes 2
fertig@@ 2
festgenommen 2
festivals 2
feu@@ 2
feuilles 2
ffe 2
fiancée 2
fiant 2
fibre 2
fications 2
fient 2
figurines 2
filets 2
fillette 2
finie 2
finissent 2
firent 2
first 2
fixée 2
fixés 2
fière 2
fiés 2
flag@@ 2
flambeaux 2
flamboyant 2
flat@@ 2
fleuri 2
fleuriste 2
fli@@ 2
flikte 2
flux 2
fléau 2
flûtes 2
folie 2
folle 2
fonctionn@@ 2
fonctionnaire 2
fonctionnait 2
fondeurs 2
fondé 2
fonte 2
foot@@ 2
footballeurs 2
forestière 2
forfaitaire 2
forgé 2
formateur 2
formés 2
forti@@ 2
fortun@@ 2
fouet@@ 2
fouilles 2
fouler 2
four@@ 2
fournies 2
fournis 2
fournisseur 2
fourniture 2
fracture 2
fragilité 2
framboises 2
franco-colombienne 2
franco-néerlandais 2
franquette 2
französ@@ 2
frappe 2
frappeurs 2
fratern@@ 2
fratrie 2
frau@@ 2
fraî@@ 2
fraîche 2
frein 2
freiner 2
freins 2
frites 2
froidement 2
froids 2
from@@ 2
frontaliers 2
frontalière 2
frustré 2
fréquente 2
fréquenté 2
fréquentée 2
ft 2
fte 2
fui 2
fulgurante 2
fumure 2
fun 2
funiculaire 2
funérailles 2
funéraires 2
fusils 2
fusée 2
fusées 2
futures 2
fèves 2
fédère 2
féerie 2
féerique 2
fées 2
fétiche 2
führt 2
gab 2
gabe 2
gag@@ 2
gage 2
galerie 2
galvau@@ 2
gaming 2
gamins 2
ganz 2
garant 2
gardant 2
garderie 2
gardes 2
gares 2
garnie 2
garçonnet 2
gass 2
geben 2
gegenüber 2
gelé 2
gelés 2
gem@@ 2
gemacht 2
gence 2
genres 2
gent 2
gerbes 2
gesam@@ 2
gezahlt 2
gig@@ 2
giratoire 2
givre 2
glau@@ 2
glaub@@ 2
glaçons 2
glissant 2
glo@@ 2
globe 2
glori@@ 2
glorieux 2
gly@@ 2
go 2
gomme 2
gonfl@@ 2
gonfler 2
gourman@@ 2
gourmand@@ 2
gouvernementales 2
gouverner 2
goûts 2
graines 2
gramme 2
grand-chose 2
graphe 2
grat@@ 2
gratin 2
gratuits 2
gravement 2
gravir 2
greffe 2
grim@@ 2
grimper 2
gris 2
grise 2
grogne 2
groupement 2
groß@@ 2
gru@@ 2
grun@@ 2
grâces 2
grèves 2
grégorien 2
grévistes 2
grêle 2
guerrier 2
guerriers 2
gueur 2
guichet 2
guidée 2
guirlandes 2
gut 2
guérilléros 2
gués 2
gymnastes 2
gynécol@@ 2
gâ@@ 2
gâteau 2
génère 2
généralisé 2
générer 2
génériques 2
géo@@ 2
géographie 2
géographique 2
géopolitique 2
gér@@ 2
h-19 2
h.- 2
h20 2
h30 2
ha@@ 2
habiller 2
habitent 2
habitudes 2
habituelle 2
habitué 2
habitués 2
halle 2
halles 2
halte 2
han@@ 2
handicap@@ 2
handicapées 2
hard 2
harmon@@ 2
harmonica 2
harmonieusement 2
harmonisation 2
hausses 2
haut-rhinoise 2
haut@@ 2
hect@@ 2
hectare 2
heit 2
helfen 2
heurte 2
heurtés 2
him@@ 2
hinaus 2
hindous 2
hiss@@ 2
hivern@@ 2
hiérarchie 2
hler 2
hn@@ 2
hoch@@ 2
hocke@@ 2
homicide 2
honneurs 2
honnêteté 2
honorable 2
honorés 2
honte 2
hor@@ 2
horizon 2
hormon@@ 2
hors-pair 2
hospitali@@ 2
hospitalisé 2
hospitalisées 2
hostile 2
hostiles 2
hotte 2
houlette 2
houleux 2
hr 2
huile 2
huitième 2
humain 2
humer 2
humidité 2
humili@@ 2
humiliations 2
humilité 2
humor@@ 2
humoristes 2
hung 2
hybrides 2
hym@@ 2
hyper 2
hypo@@ 2
hypothécaires 2
hâ@@ 2
hébreu 2
héritière 2
hésite 2
hö@@ 2
ial 2
icain 2
icale 2
icaux 2
ice-@@ 2
ices 2
ichen 2
ico 2
icom@@ 2
icône 2
ide 2
identifi@@ 2
identifier 2
idt 2
idéal 2
idéale 2
ie-@@ 2
ien 2
ignait 2
ignant 2
ignor@@ 2
ignorance 2
ihm 2
ihr 2
ik 2
ill 2
illeg@@ 2
illes 2
illimitée 2
illuminations 2
illusion 2
illustr@@ 2
illustration 2
illustratrice 2
illustrée 2
illustrés 2
imagination 2
imagine 2
iment 2
imitait 2
imitations 2
immatriculée 2
immigrants 2
immobili@@ 2
immobiliser 2
immobilisé 2
impacts 2
impatience 2
impayées 2
impayés 2
impeccables 2
implanté 2
implantée 2
implantées 2
impli@@ 2
impliquer 2
impliqué 2
impopularité 2
importation 2
importations 2
imposables 2
impose 2
impossibilité 2
impressi@@ 2
impressionnante 2
imprimée 2
impro 2
impro@@ 2
improvis@@ 2
improvisation 2
imprégn@@ 2
imputés 2
impéri@@ 2
inamovible 2
inaugure 2
inaugurer 2
incapable 2
incapacité 2
incarcérés 2
incarner 2
incertaine 2
incidents 2
incité 2
incliner 2
inclure 2
inclut 2
incompétent 2
incontournables 2
incorpor@@ 2
indemnités 2
indignation 2
indigné 2
indique-t-il 2
indispensables 2
indolence 2
industrielles 2
indécis 2
indéniable 2
indéterminée 2
inement 2
inent 2
ines-@@ 2
inesp@@ 2
inet 2
inets 2
inex@@ 2
infarctus 2
infections 2
infir@@ 2
info@@ 2
informer 2
informés 2
infran@@ 2
infrastructures 2
ingu@@ 2
ingénieur 2
ingénieurs 2
inhibiteurs 2
inhum@@ 2
inhér@@ 2
ini 2
inier 2
iniques 2
initiales 2
initiateur 2
initié 2
injec@@ 2
injuste 2
injustifiées 2
innocent 2
innover 2
inondable 2
inquiétant 2
inquiétants 2
inscrites 2
inscrivant 2
insignifiant 2
insol@@ 2
insolites 2
inspir@@ 2
inspire 2
inspirés 2
install@@ 2
installant 2
installées 2
instances 2
instaurée 2
instigateur 2
institutionnel 2
instru@@ 2
instrument 2
instrument@@ 2
insuffis@@ 2
insul@@ 2
insurge 2
int 2
inte 2
intelligence 2
intenses 2
intensifs 2
intercommunalité 2
interdire 2
interdisant 2
interdite 2
interdits 2
interlocuteur 2
internes 2
interpellation 2
interpellés 2
interpréta 2
interprétations 2
interprétées 2
interrogations 2
interroger 2
interrogée 2
interrompue 2
interruption 2
intervenu 2
intervenus 2
interview 2
intestins 2
inthe 2
intimistes 2
intol@@ 2
introuv@@ 2
intrépide 2
intègre 2
intégré 2
intéres@@ 2
intéresse 2
intérieure 2
inuti@@ 2
inutilement 2
invali@@ 2
inven@@ 2
inventeurs 2
invention 2
investissant 2
investissent 2
investisseur 2
invisibles 2
invita 2
involontaire 2
invoquant 2
inzwischen 2
inédits 2
inée 2
inéluctable 2
inépuis@@ 2
ion 2
ions 2
irait 2
irakiennes 2
iranien 2
irie 2
iron@@ 2
isen 2
islam@@ 2
islamique 2
isolement 2
isra@@ 2
issai@@ 2
isseur 2
isson 2
it-@@ 2
it-il 2
ita 2
itable 2
italiens 2
itatif 2
itation 2
itement 2
itinéraire 2
itou 2
itz 2
ivoirien 2
ivre 2
ix 2
jadis 2
jalousie 2
jambes 2
jaser 2
jaunes 2
jetant 2
jetés 2
jkovic 2
joind@@ 2
joindre 2
jolie 2
jong@@ 2
jouaient 2
jouant 2
jouet 2
joueuses 2
jouissif 2
jouit 2
jour-là 2
journaux 2
jovial 2
joyeuse 2
jubil@@ 2
judiciaires 2
judoka 2
jugeait 2
jugeant 2
juger 2
jumelage 2
jumelles 2
jun@@ 2
juniors 2
juris@@ 2
juriste 2
juré 2
jus 2
jusque-là 2
justes 2
kam 2
kamikaze 2
kamikazes 2
kan@@ 2
kar@@ 2
kas 2
katas 2
keit 2
kert 2
ketchup 2
ki 2
kilo 2
kilom@@ 2
kilos 2
king 2
kings 2
kirch-@@ 2
kitsch 2
ko 2
kos 2
kt@@ 2
kte 2
kämpfen 2
kén@@ 2
könn@@ 2
können 2
kündig@@ 2
kündigte 2
la-@@ 2
label 2
labels 2
labeur 2
labor@@ 2
laborieuse 2
laient 2
lais@@ 2
laissait 2
laissera 2
laissez 2
laissés 2
lam 2
lampadaire 2
lampe 2
lancent 2
land 2
landais 2
lap@@ 2
lapins 2
larmoy@@ 2
latitude 2
lauriers 2
lauréat 2
lav 2
le-bas 2
leadership 2
lec 2
leitmotiv 2
len@@ 2
lent 2
let 2
lets 2
leuses 2
liaison 2
liant 2
liber@@ 2
librairie 2
libre-@@ 2
librement 2
libres 2
libère 2
libérés 2
licencié 2
liche 2
lienne 2
lieutenant 2
limites 2
limitrophes 2
limité 2
lind@@ 2
ling@@ 2
linge 2
lingu@@ 2
liqu@@ 2
liqui@@ 2
littéraires 2
live 2
liée 2
locations 2
lock@@ 2
locomotive 2
logiquement 2
logis 2
logis@@ 2
logistique 2
logo 2
lointain 2
loisir 2
lon@@ 2
londonien 2
long-@@ 2
longueur 2
los 2
losange 2
lots 2
louer 2
lounge 2
loupe 2
lourde 2
lourds 2
lover 2
lucide 2
lumin@@ 2
lumineuse 2
lus@@ 2
lut@@ 2
lutins 2
lyonnais 2
lyonnaise 2
lâche 2
lâché 2
lä@@ 2
lè@@ 2
légion 2
légitime 2
légères 2
lésinent 2
machines 2
macroéconomique 2
magazines 2
magistralement 2
magn@@ 2
magné@@ 2
mail@@ 2
main-d' 2
maintenue 2
maintenues 2
mairesse 2
mais@@ 2
majo@@ 2
majoration 2
majoritaire 2
malarticois 2
malfaiteurs 2
malheur 2
malheureusement 2
malice 2
maman 2
manche 2
manches 2
mand@@ 2
mandar@@ 2
mandaté 2
mani@@ 2
manif@@ 2
manipul@@ 2
manières 2
manne 2
mannequin 2
manoeuvre 2
manquera 2
manuelle 2
manège 2
maquill@@ 2
marathon 2
margin@@ 2
marginal 2
mariages 2
mariée 2
marquera 2
marqués 2
martelé 2
martyrologe 2
masculines 2
masque 2
masquer 2
massacre 2
massive 2
maternelles 2
mation 2
matiques 2
maturité 2
matériaux 2
maurit@@ 2
mausolée 2
maximale 2
maximales 2
maîtr@@ 2
maîtres 2
maîtriser 2
maïs 2
med@@ 2
meeting 2
mehreren 2
meint 2
mel 2
men 2
mena@@ 2
menac@@ 2
menacées 2
menaient 2
menaçant 2
menot@@ 2
mensonges 2
mensongère 2
mensuels 2
mentale 2
mention 2
mentionne-t-il 2
mentir 2
mentor 2
menées 2
mercato 2
mess@@ 2
mets 2
mettes 2
mettons 2
meurtres 2
meurtriers 2
mezzo-soprano 2
mi 2
mi-février 2
micro-@@ 2
miert 2
milices 2
militant 2
milite 2
milliard@@ 2
millier 2
millimètres 2
millésime 2
min 2
mini-@@ 2
minim@@ 2
minière 2
minoritaire 2
mir 2
miracle 2
miracles 2
mire 2
miroirs 2
miroiter 2
misent 2
missionnaire 2
misé 2
misérable 2
mixte 2
mières 2
mobiliser 2
mobilisés 2
modernisé 2
modestes 2
modi@@ 2
modifier 2
modèles 2
modér@@ 2
modérées 2
moeurs 2
moi-même 2
moine 2
moiteur 2
moment@@ 2
mondi@@ 2
mondiaux 2
monn@@ 2
mono@@ 2
monopole 2
monstr@@ 2
montage 2
montagnard 2
monteur 2
montr@@ 2
montres 2
montréalaise 2
montées 2
moque 2
mordu 2
mosaïque 2
mosqu@@ 2
mou 2
mouches 2
moutons 2
movie 2
moyen-@@ 2
multi-@@ 2
multiplier 2
multiplié 2
mum 2
municipalités 2
music 2
musicaux 2
muss 2
musste 2
musulman 2
mutation 2
my 2
mystères 2
mystéri@@ 2
mythe 2
mythes 2
mythique 2
mènent 2
mères 2
mécaniques 2
méchant 2
mécontentement 2
méd@@ 2
médaill@@ 2
médiation 2
médiatis@@ 2
médical 2
médicaux 2
méditer 2
méfiance 2
még@@ 2
méga-@@ 2
mégawatts 2
mélancoli@@ 2
mélang@@ 2
mélange 2
mélanges 2
mélodie 2
mélodies 2
mémoires 2
ménagères 2
ménopause 2
mér@@ 2
méri@@ 2
méritants 2
més 2
mésaventure 2
mét@@ 2
métalli@@ 2
métrage 2
métrages 2
métro 2
métro@@ 2
métropole 2
météor@@ 2
météorologique 2
météorologues 2
mü@@ 2
na 2
naissances 2
naissant 2
nannte 2
nant 2
nap@@ 2
nappe 2
narco-@@ 2
narr@@ 2
narrateur 2
narration 2
nationales 2
nationalité 2
nations 2
naturels 2
naïveté 2
ne-@@ 2
nectar 2
nehmen 2
neiges 2
nement 2
nen 2
nera 2
nerait 2
nerfs 2
nettoyage 2
neue 2
neufs 2
neurs 2
neutraliser 2
neveux 2
nipp@@ 2
nitt 2
nié 2
noce 2
noeuds 2
nomin@@ 2
nomination 2
non-fumeurs 2
nord-@@ 2
nostal@@ 2
notaire 2
notent 2
nounours 2
nourri 2
nourrir 2
nourrissent 2
nourrisson 2
nourriture 2
novateur 2
nuages 2
nucléaires 2
nuira 2
nuls 2
nus 2
ny 2
nécessitera 2
néerland@@ 2
néerlandaise 2
négatif 2
négative 2
néglige 2
néo-apostolique 2
néophyte 2
nôtre 2
ob 2
oben 2
obscurantisme 2
obscure 2
obscures 2
observation 2
observent 2
observé 2
observés 2
obtenant 2
obtention 2
obus 2
occasionner 2
occidentales 2
occupaient 2
occupant 2
occupation 2
occupé 2
occurrence 2
octogénaire 2
octroi 2
océ@@ 2
odder 2
odes 2
odyssée 2
oeu@@ 2
oeuf 2
off 2
offen 2
offensifs 2
officielles 2
officier 2
officiers 2
officine 2
offrait 2
offrent 2
offri@@ 2
offriront 2
oignons 2
oise 2
oises 2
oit 2
oles 2
oli 2
olsheim 2
ombe 2
ombres 2
ome 2
omir 2
onale 2
onales 2
onat 2
ones 2
oni 2
onnage 2
onnel 2
onnements 2
onner 2
onneur 2
ontarien 2
ontarienne 2
ony 2
onzième 2
opath@@ 2
open 2
opher 2
ophobes 2
ophon@@ 2
ophone 2
opportun 2
oppose 2
opposer 2
opposera 2
opter 2
opter@@ 2
optimisme 2
opéré 2
opérée 2
orage 2
orateurs 2
ordinaire 2
ordinateurs 2
ore@@ 2
oreilles 2
organigramme 2
organisait 2
organiste 2
organisés 2
oriental 2
origin@@ 2
original 2
originale 2
originalité 2
ornent 2
oro 2
orphel@@ 2
orée 2
ose 2
oser 2
otage 2
otes 2
ots 2
oui 2
ouille 2
oun 2
ourc@@ 2
out 2
outil 2
outée 2
ouvertes 2
ouvrier 2
ouvrira 2
ow 2
oxygène 2
pacifiste 2
pai@@ 2
paiera 2
paillettes 2
pains 2
paisiblement 2
pait 2
pakistan@@ 2
palestinienne 2
pallier 2
paludisme 2
panel 2
panique 2
panneau 2
panneaux 2
pans 2
pantalon 2
parachuté 2
paradis 2
paradoxal 2
paradoxe 2
paraly@@ 2
paralysée 2
parapluie 2
paraître 2
paraîtront 2
parcelle 2
parcourir 2
pareil 2
parent@@ 2
parentaux 2
parenté 2
parer 2
paris 2
parisienne 2
parlent 2
parodie 2
parodies 2
paroissial 2
paroles 2
parrain 2
parsem@@ 2
partageait 2
partagent 2
partagée 2
participatifs 2
participations 2
participera 2
partielles 2
partitions 2
parvenue 2
passable 2
passages 2
passe-@@ 2
passerait 2
passerelle 2
passerelles 2
passible 2
passionnant 2
passés 2
patr@@ 2
patrimoni@@ 2
patronale 2
patrouille 2
patrouilles 2
patte 2
pavillon 2
pavot 2
payaient 2
payant 2
paysager 2
paysanne 2
peau@@ 2
peindre 2
peint 2
peintes 2
pelle 2
pelouse 2
pement 2
pencher 2
pens@@ 2
pensaient 2
pensait 2
pensi@@ 2
pensées 2
per 2
pera 2
percu@@ 2
percutant 2
percuté 2
perdent 2
perdr@@ 2
perdue 2
perman@@ 2
permet@@ 2
permettaient 2
permette 2
permise 2
perplexes 2
perpétr@@ 2
perquisition 2
persist@@ 2
persistante 2
persiste 2
persuadé 2
persév@@ 2
pertur@@ 2
perturbé 2
pervers 2
perçoivent 2
pest@@ 2
pesé 2
petite-fille 2
peuples 2
peut-elle 2
peut-il 2
peut-on 2
phara@@ 2
pharmaceutique 2
philos@@ 2
phine 2
photograp@@ 2
phrases 2
physiques 2
phénomén@@ 2
pic 2
pierres 2
pign@@ 2
piliers 2
pillés 2
piratage 2
pirates 2
pires 2
pist@@ 2
pistolet 2
pièges 2
piét@@ 2
pla@@ 2
placements 2
plaido@@ 2
plaies 2
plaign@@ 2
plaindre 2
plaire 2
plaisant 2
plaisant@@ 2
plant@@ 2
plantes 2
planté 2
plasma 2
pleinement 2
plongé 2
plongée 2
plongés 2
plumes 2
plus-@@ 2
plèbe 2
pléiade 2
pneus 2
pochette 2
poignardé 2
poignet 2
poings 2
pointage 2
poisson 2
pole 2
policières 2
politicienne 2
politischen 2
pollin@@ 2
pommes 2
ponctuelles 2
ponctué 2
ponts 2
pop 2
populaires 2
porcelaine 2
portable 2
portables 2
porte-couleurs 2
porte@@ 2
portent 2
portera 2
portrait 2
portées 2
portés 2
positifs 2
positionn@@ 2
postales 2
postiers 2
postulants 2
posé 2
pot 2
pot-pourri 2
pot@@ 2
poteau 2
poteaux 2
potentiels 2
potir@@ 2
poubelle 2
poulet 2
pourboire 2
pourrait-il 2
poursuit-il 2
poursuiv@@ 2
poursuivront 2
poussaient 2
pousse 2
poussera 2
pouv@@ 2
pouvais 2
pouvant 2
power 2
poème 2
poésies 2
ppen 2
pratiquant 2
pratiquants 2
pre 2
preise 2
premium 2
pren@@ 2
prendront 2
prends 2
pressions 2
pressés 2
prestigieuse 2
primes 2
priorité 2
privatisation 2
privilège 2
priés 2
problémati@@ 2
procession 2
prochainement 2
proclamer 2
procéd@@ 2
profanation 2
profanes 2
profess@@ 2
profon@@ 2
profondes 2
progest@@ 2
programmés 2
progressant 2
progresse 2
progressent 2
progresser 2
prohi@@ 2
proie 2
projecteur 2
projecteurs 2
projetée 2
prolongea 2
promenades 2
prometteur 2
promise 2
promo@@ 2
prompt 2
prononcer 2
proph@@ 2
proportions 2
proposent 2
proposés 2
propre@@ 2
proprement 2
propriétés 2
propul@@ 2
prostitu@@ 2
protestantes 2
protégeait 2
protégeant 2
protégées 2
protégés 2
prouesses 2
prouvé 2
proverbe 2
provinci@@ 2
provoque 2
près-@@ 2
pré 2
précaution 2
précieuse 2
précieuses 2
précip@@ 2
précisait 2
précise-t-il 2
précises 2
précision 2
préconise 2
précédemment 2
préfé@@ 2
préférable 2
préférence 2
prélats 2
préliminaire 2
prématur@@ 2
prénom 2
préoccuper 2
préoccupé 2
préparateur 2
préparatoires 2
préparés 2
prés 2
présager 2
présentait 2
présentement 2
préserv@@ 2
préservé 2
présidait 2
présidentiel 2
présidé 2
présumée 2
prétend 2
prétend@@ 2
prétendant 2
prétendants 2
prétention 2
prétexte 2
prév@@ 2
prévaloir 2
préventif 2
préventives 2
prévoyait 2
prévoyant 2
psaltérion 2
psychiatrique 2
psycho@@ 2
psychologue 2
ption 2
public@@ 2
publications 2
publieront 2
publiée 2
puisant 2
puiss@@ 2
puissances 2
puissent 2
puits 2
pun@@ 2
punition 2
pur@@ 2
purg@@ 2
py@@ 2
pyram@@ 2
pyrotechniques 2
pâles 2
pâte 2
pèlerinage 2
pères 2
pées 2
pén@@ 2
pénale 2
pénalité 2
pénalités 2
péniche 2
pénitencier 2
pénètre 2
péné@@ 2
pépinière 2
péri 2
périlleux 2
pétrolier 2
pétrolière 2
pêcheur 2
q 2
quad@@ 2
quadru@@ 2
qualific@@ 2
qualifications 2
qualifié 2
quantités 2
que-@@ 2
quelconque 2
quera 2
ques-@@ 2
questi@@ 2
quet 2
quettes 2
quin 2
quiproquos 2
quistes 2
quit@@ 2
quo 2
quotidiens 2
québécoises 2
rab@@ 2
rach@@ 2
racont@@ 2
racontant 2
racontent 2
radi@@ 2
radic@@ 2
raflé 2
rafraîch@@ 2
rage 2
rai 2
rais 2
rajouter 2
ralentir 2
rall@@ 2
rallier 2
ramasser 2
ramené 2
ramè@@ 2
ran 2
rand 2
randonneurs 2
randonnée 2
rangement 2
ranger 2
rangs 2
rangée 2
rançon 2
rappela 2
rappels 2
rapporter 2
rapporteur 2
rapproché 2
rapt 2
rassembl@@ 2
rassemblé 2
rassemblées 2
rassemblés 2
rassur@@ 2
rassurée 2
ratera 2
ratification 2
ravie 2
rayonnement 2
rdv 2
rebaptis@@ 2
recapitalisation 2
recensement 2
receveur 2
rech@@ 2
rechercher 2
rechignent 2
recoins 2
recommandations 2
recommande 2
recommandé 2
reconnaissants 2
reconstitutions 2
recouv@@ 2
recru@@ 2
recrudescence 2
recrues 2
recruter 2
recruté 2
recteurs 2
recti@@ 2
rectifier 2
recueillis 2
recycl@@ 2
red@@ 2
redonne 2
redonner 2
redress@@ 2
refaire 2
refl@@ 2
reflètent 2
refuges 2
refusait 2
regagner 2
regardent 2
regards 2
registre 2
regrettons 2
regrou@@ 2
regroupant 2
regrouper 2
regroupés 2
rehauss@@ 2
reich 2
rejeter 2
rejette 2
rejetée 2
rejoints 2
relancé 2
relate 2
relatif 2
relatives 2
relativiser 2
relax@@ 2
relevant 2
religi@@ 2
relâché 2
relégable 2
relégation 2
remarqu@@ 2
remarquables 2
remarqué 2
rements 2
remerciant 2
remerciements 2
remet 2
remet@@ 2
remettait 2
remettant 2
remontant 2
remontent 2
remor@@ 2
remplac@@ 2
remplace 2
remplacer 2
remplacera 2
rempli@@ 2
remplies 2
remportent 2
remu@@ 2
remédier 2
remémorant 2
renard 2
renchérit 2
rencontrent 2
rend@@ 2
rendant 2
rende 2
rendit 2
renforcement 2
renforcés 2
renne 2
renommée 2
renoncé 2
renou@@ 2
renouvelable 2
renouveler 2
renouvellement 2
renseigner 2
rentables 2
rente 2
rentrant 2
rentre 2
renversement 2
renverser 2
renvoie 2
renvoyer 2
rep@@ 2
reparti 2
repartir 2
reportages 2
reportées 2
repousse 2
reprendront 2
reprennent 2
reprochait 2
reprochent 2
reprocher 2
reproduction 2
représent@@ 2
représentait 2
représentante 2
représenté 2
représentée 2
repérer 2
repéré 2
repêchés 2
requ@@ 2
requise 2
requises 2
rera 2
reraient 2
rescap@@ 2
rescapés 2
respect@@ 2
respectable 2
respecte 2
respectent 2
respir@@ 2
ressembl@@ 2
ressembler 2
ressent 2
ressentait 2
ressentie 2
ressort 2
ressortir 2
restaur@@ 2
restaurer 2
restre@@ 2
restriction 2
restruct@@ 2
restructuration 2
restée 2
retable 2
retardé 2
retenir 2
retenti@@ 2
retentissement 2
retombées 2
retors 2
retourn@@ 2
retourna 2
retrace 2
retracer 2
retraité 2
retraités 2
retran@@ 2
retrans@@ 2
retransmis 2
retransmise 2
retraçant 2
retrouveront 2
retrouvées 2
rettes 2
reuils 2
reusement 2
revend@@ 2
revenue 2
reversés 2
revirement 2
reçues 2
riant 2
rich 2
richement 2
richesses 2
richtige 2
riens 2
ries 2
rigol@@ 2
rigole 2
rir 2
rissent 2
rituels 2
rivière 2
rivières 2
robes 2
roc@@ 2
rock' 2
rodage 2
romaine 2
romantisme 2
ron 2
rondelles 2
rondes 2
rons 2
roquettes 2
roses 2
rot 2
rot@@ 2
roue 2
roulant 2
rouler 2
rouste 2
roy 2
royal 2
rt 2
rude 2
rug@@ 2
ruiner 2
rund 2
russes 2
ryth@@ 2
rythmes 2
rè@@ 2
ré-@@ 2
réacteur 2
réagir 2
réalisable 2
réalisatrice 2
réalisera 2
réalisme 2
rébellion 2
récents 2
réchauffé 2
récipiendaires 2
réciproques 2
récital 2
récits 2
récompense 2
réconciliation 2
réconcilie 2
récu@@ 2
récupéré 2
récurr@@ 2
rédigé 2
réform@@ 2
réformer 2
réfugié 2
régal 2
régi@@ 2
régiment 2
régionaux 2
régularité 2
réguliers 2
réitéré 2
rénov@@ 2
réouverture 2
rép@@ 2
répandue 2
répar@@ 2
réparation 2
réparties 2
répon@@ 2
répondent 2
réputées 2
réputés 2
répétitions 2
réquisitions 2
réserv@@ 2
réservé 2
réservées 2
réservés 2
résid@@ 2
résidences 2
résident 2
résistances 2
résistant 2
résiste 2
résisté 2
résol@@ 2
résul@@ 2
résurg@@ 2
résurrection 2
rétablissement 2
rétro@@ 2
rétrograd@@ 2
rétrospective 2
rétroviseur 2
réuni@@ 2
réussis 2
réussissant 2
réveil 2
révélateur 2
révélée 2
rééquilibrer 2
rô@@ 2
s-V@@ 2
sable 2
sach@@ 2
sachant 2
sache 2
sacrement 2
sacri@@ 2
sacrifice 2
sacrifier 2
sacrée 2
sag@@ 2
sage 2
sages 2
sagt 2
sain 2
saine 2
sainte-@@ 2
saisies 2
salu@@ 2
saluant 2
salués 2
sanction 2
sanctions 2
sandales 2
sanglante 2
sanglier 2
sans-papiers 2
sar@@ 2
sarko@@ 2
satisfaire 2
satisfaisant 2
satz 2
sauces 2
saumon 2
saumons 2
sauna 2
sauts 2
sauv@@ 2
sauvagement 2
sauvegarde 2
sav@@ 2
saveurs 2
savez 2
sax@@ 2
saynète 2
sbourg 2
scand@@ 2
scandale 2
scep@@ 2
scheint 2
schweb@@ 2
schwer 2
schéma 2
sci@@ 2
scintillants 2
scol@@ 2
scolarisés 2
scotches 2
scénarios 2
scénaristes 2
sdor@@ 2
sdorf 2
se-@@ 2
secondé 2
secour@@ 2
sei 2
seien 2
seigneur 2
seinem 2
seize 2
semblable 2
semblé 2
sement 2
semi-@@ 2
sen 2
senheim 2
senior 2
sensibili@@ 2
sensiblement 2
sentence 2
sentimentale 2
septicémie 2
septième 2
septuagénaire 2
ser-@@ 2
sereine 2
sergent 2
serres 2
servait 2
servant 2
servent 2
servie 2
set 2
setzen 2
seuil 2
seurs 2
sexuelle 2
sez 2
sf 2
sheim-@@ 2
sideman 2
sidér@@ 2
sied 2
signal@@ 2
signalé 2
signalétique 2
signer 2
signi@@ 2
sil@@ 2
similitudes 2
simultan@@ 2
sincèrement 2
sinfon@@ 2
singe 2
singul@@ 2
sinistres 2
sinistrés 2
sinn 2
sir@@ 2
sirènes 2
situés 2
sitôt 2
skat 2
sket@@ 2
sketches 2
skieurs 2
slowak@@ 2
smän@@ 2
socialement 2
sociaux-démocrates 2
socio-culturel 2
soft 2
sogar 2
soi-même 2
soigner 2
soir-là 2
solde 2
soldes 2
solennité 2
soli 2
solidité 2
solitaire 2
sollic@@ 2
solliciter 2
sollicitera 2
sollte 2
somaliens 2
sommaire 2
sommets 2
sondés 2
songent 2
sonnette 2
sonore 2
sont-elles 2
sorci@@ 2
sorti@@ 2
soucier 2
soucieux 2
soucis 2
soudanaise 2
souffrant 2
souffri@@ 2
souhait 2
souhaitant 2
souhaité 2
souligne-t-il 2
soulignent 2
souper 2
soupers 2
souple 2
soupçons 2
sour@@ 2
souriants 2
sourit 2
sous-préfet 2
soutenus 2
souterraines 2
soutiennent 2
souveraine 2
souvient 2
spach 2
spectaculaires 2
spirale 2
spirituelle 2
splendi@@ 2
sponsors 2
spontanée 2
sporadiques 2
spot 2
spre@@ 2
spä@@ 2
spéci@@ 2
spécialisation 2
spécialisé 2
spécifiques 2
spécul@@ 2
sri-lankais 2
ss 2
ssa 2
ssante 2
ssent 2
ssi@@ 2
sson 2
ssés 2
stabili@@ 2
staff 2
stage 2
stagiaire 2
stamm@@ 2
stands 2
stations-service 2
statistique 2
statues 2
steht 2
stell@@ 2
stett 2
stigmatisation 2
stock@@ 2
stockage 2
stratégique 2
strict 2
strictement 2
strictes 2
studio 2
stupéfiants 2
styles 2
ständig 2
stéroïdes 2
suave 2
subit 2
sublime 2
subs@@ 2
substantielles 2
substitu@@ 2
substituts 2
suc@@ 2
successi@@ 2
successivement 2
succéder 2
sucreries 2
sucré@@ 2
sud-@@ 2
sugg@@ 2
suggérer 2
suisses 2
suivaient 2
suivant 2
suivantes 2
suivies 2
sujets 2
sundgauvien 2
supermarché 2
supersti@@ 2
support 2
supportent 2
supposé 2
supprim@@ 2
supprimé 2
supprimés 2
suprême 2
surex@@ 2
surfaces 2
surplus 2
surprenant 2
surprenante 2
surprend 2
surréalisme 2
surréaliste 2
sursis 2
survenus 2
survie 2
survivants 2
survol 2
susc@@ 2
susceptibles 2
suspect@@ 2
suspecte 2
suspendus 2
suédoise 2
symbo@@ 2
symboli@@ 2
symboliquement 2
sympa 2
sympas 2
sympath@@ 2
sympathisants 2
symphonique 2
symptômes 2
syn@@ 2
syndic 2
syndicale 2
syndrome 2
synthèse 2
synthétique 2
syrien 2
sécurisation 2
sédi@@ 2
sées 2
séjournent 2
séjourné 2
sélectionneur 2
séparés 2
sérieuse 2
sérieuses 2
sés 2
sûres 2
t-elles 2
t.@@ 2
tablons 2
tactique 2
taires 2
talentueuse 2
talentueux 2
tambour 2
tamouls 2
tanins 2
taqu@@ 2
tar 2
tarde 2
tardive 2
tas 2
tasses 2
tatami 2
teil 2
tek 2
tement 2
temp@@ 2
tempor@@ 2
tempér@@ 2
tenants 2
tendances 2
teneur 2
tennis 2
tens 2
tentaient 2
tentatives 2
tenus 2
ter-@@ 2
terbach 2
termina 2
terminant 2
terminés 2
tern 2
terrains 2
terrasse 2
terre-@@ 2
terrestre 2
terreur 2
territorial 2
territoriale 2
texture 2
than@@ 2
thaï@@ 2
thoffen 2
thouse 2
thèse 2
thé 2
thérapie 2
théâtrale 2
tici@@ 2
ticien 2
tiennent 2
tieux 2
tig 2
tig@@ 2
tiker 2
tille 2
tim@@ 2
timid@@ 2
tionen 2
tionne 2
tionnelles 2
tionnels 2
tionnés 2
tireurs 2
tirés 2
tisch 2
tises 2
tistes 2
tit@@ 2
titr@@ 2
titrisation 2
tits 2
titulaires 2
tivité 2
tlich 2
tliche 2
tmann 2
toiles 2
toilettes 2
toir 2
toits 2
toiture 2
tombée 2
ton@@ 2
tonitru@@ 2
tonneau 2
tons-@@ 2
top-modèle 2
tornades 2
totalisé 2
touch@@ 2
touchent 2
toupies 2
touristiques 2
tournera 2
tournois 2
toxicité 2
tra 2
trac@@ 2
traditionnellement 2
traduite 2
tragen 2
trahison 2
traient 2
train@@ 2
traitant 2
traiter 2
traités 2
trajets 2
tramway 2
trans 2
transforme 2
transformée 2
transitoire 2
transmettent 2
transportant 2
transporte 2
transporter 2
traque 2
tration 2
traumati@@ 2
travail@@ 2
travailliste 2
traînait 2
traîneaux 2
treize 2
trem@@ 2
tremblais 2
tremblements 2
tremplin 2
trent@@ 2
tresse 2
triage 2
tribune 2
trin@@ 2
triompher 2
tripes 2
triple 2
tristesse 2
tritt 2
troc 2
trompe@@ 2
tromper 2
troncs 2
tronics 2
trop@@ 2
tropicale 2
tropicales 2
trot@@ 2
trottoirs 2
trou 2
troupeau 2
trouveront 2
truc 2
trésorerie 2
trônent 2
tsunami 2
tta 2
ttiste 2
tudes 2
tun@@ 2
tuque 2
turcs 2
turer 2
tus 2
twiller 2
typique 2
tzenheim 2
tâ@@ 2
télécoms 2
téléphonez 2
téléphonique 2
téléskis 2
télévis@@ 2
télévisé 2
témoignent 2
tén@@ 2
ténors 2
ténébreux 2
uches 2
uda 2
uelle 2
uk@@ 2
ulaire 2
uleux 2
ultr@@ 2
ultéri@@ 2
ulé 2
unanimement 2
unes 2
unge@@ 2
uniques 2
unsch@@ 2
unsere 2
urgentes 2
urs 2
uré 2
urée 2
usch 2
usic 2
usines 2
utile 2
utiles 2
utili@@ 2
utilis@@ 2
utilisait 2
utilisent 2
utilisées 2
v 2
vache 2
vagues 2
vaisseau 2
valent 2
valides 2
valise 2
valises 2
van 2
vanter 2
vanté 2
variations 2
variété 2
vastes 2
veillé 2
vend 2
vendant 2
vendent 2
vendue 2
ventre 2
vents 2
verait 2
verg@@ 2
verges 2
vergla@@ 2
verglas 2
versch@@ 2
verse 2
versicher@@ 2
vertes 2
verticale 2
veto 2
vice-@@ 2
vice-présidence 2
victorieux 2
vieill@@ 2
viendra 2
viens 2
vigiles 2
vigne 2
vignerons 2
vignoble 2
vilaine 2
vinification 2
violemment 2
violé 2
vis 2
visages 2
visaient 2
visait 2
visas 2
viser 2
visi@@ 2
visionnaire 2
visionné 2
visions 2
visités 2
visé 2
vitalité 2
viticulteurs 2
vitre 2
vitrine 2
vitrines 2
viv@@ 2
vivaient 2
vivait 2
vivons 2
vocal 2
voeu 2
voici 2
vol. 2
volatiles 2
volatilité 2
voleur 2
volle@@ 2
volontarisme 2
volée 2
vom@@ 2
vosgi@@ 2
voudr@@ 2
voudrais 2
voudrait 2
voul@@ 2
voulais 2
voyager 2
voyaient 2
voyait 2
vrac 2
vraies 2
vraisemblablement 2
vres 2
vromb@@ 2
vré 2
vs 2
vulgarisateur 2
végét@@ 2
végétales 2
vénézuéli@@ 2
vérificateurs 2
vê@@ 2
w 2
wa 2
wan 2
wann 2
waren 2
warning 2
web 2
weiter@@ 2
wel@@ 2
wenn 2
wichtig 2
wieder 2
wiederholte 2
wig 2
will 2
win 2
wir 2
wollen 2
wur@@ 2
wàs 2
während 2
wür@@ 2
würde 2
xe 2
xén@@ 2
y' 2
yahoo.fr 2
yanes 2
ye 2
yen 2
yes 2
yeur 2
yeuses 2
ymes 2
yne 2
you 2
zar@@ 2
zeit 2
zel@@ 2
zendorf 2
zer 2
zer@@ 2
zet 2
zig 2
zine 2
zo@@ 2
zudem 2
zun@@ 2
zutreten 2
zwiller 2
zwischen 2
zy 2
· 2
Âge 2
ÉS 2
Écocentres 2
Écomusée 2
Économie 2
Édition 2
Également 2
Égyp@@ 2
Égypte 2
Élections 2
Émilie 2
Énergie 2
Öl@@ 2
àm 2
âges 2
âne 2
âtre 2
äch@@ 2
äu@@ 2
çait 2
çal 2
èdent 2
èmes 2
ène 2
ènes 2
èque 2
ève 2
éb@@ 2
éblou@@ 2
écar@@ 2
écartant 2
échantillon 2
échappe 2
écho 2
écl@@ 2
éclairer 2
éclat@@ 2
éclatant 2
éclatement 2
éclats 2
écologiques 2
écologistes 2
économistes 2
écor@@ 2
écossais 2
écoutant 2
écoutez 2
écran 2
écrasante 2
écrite 2
écrits 2
écroul@@ 2
écroulent 2
éditions 2
éducateur 2
éducatifs 2
éducative 2
égal 2
égide 2
égyp@@ 2
égyptien 2
égyptiennes 2
éité 2
élabor@@ 2
élargir 2
élector@@ 2
électricien 2
électrochoc 2
élever 2
élevées 2
élevés 2
élimination 2
élimine 2
éliminer 2
élu@@ 2
élucidés 2
élue 2
élè@@ 2
élé 2
éléphant 2
éman@@ 2
ément 2
émergents 2
émerger 2
émerveillé 2
émet@@ 2
émis 2
émissaires 2
énergies 2
éni@@ 2
énoncé 2
éoli@@ 2
épais 2
épanou@@ 2
épar@@ 2
épargn@@ 2
épargné 2
éphémères 2
épic@@ 2
épilogue 2
épinards 2
éping@@ 2
épingle 2
épingles 2
épousa 2
épuré 2
équ@@ 2
équation 2
équestre 2
équilibré 2
équipe-école 2
équiper 2
équival@@ 2
éra 2
érables 2
érat 2
érations 2
érer 2
érien 2
érité 2
éré@@ 2
érés 2
étang 2
éte@@ 2
éternel 2
étincelles 2
étiquet@@ 2
étiquettes 2
étonnera 2
étrange 2
étroites 2
étudie 2
étudier 2
évaluation 2
évaluer 2
évalué 2
éveill@@ 2
éventail 2
éventuel 2
éventuels 2
évit@@ 2
évite 2
évité 2
évoluer 2
évoqu@@ 2
évoquent 2
évoqué 2
évoquées 2
ête 2
ôt 2
überz@@ 2
ück@@ 2
œil 2
œuvres 2
'DJAM@@ 1
-0,1 1
-0.@@ 1
-14,@@ 1
-14@@ 1
-17 1
-1942 1
-1957 1
-1966 1
-1975 1
-1983 1
-1984 1
-1989 1
-1995 1
-19@@ 1
-2006 1
-3,@@ 1
-44 1
-7 1
-78 1
-9 1
-AM@@ 1
-Adams 1
-Air 1
-Alexandre 1
-An@@ 1
-Bronner 1
-Bru@@ 1
-Bruche 1
-CD@@ 1
-Dar@@ 1
-Die 1
-Dimanche 1
-Ferr@@ 1
-France 1
-Hit@@ 1
-Hochfelden 1
-Holm@@ 1
-I@@ 1
-Ja 1
-Jeanne 1
-Jeunes 1
-Kom@@ 1
-Le 1
-Man 1
-Mercredi 1
-N@@ 1
-O 1
-Ph@@ 1
-Québec 1
-Rue 1
-ST@@ 1
-SUR-@@ 1
-Samedi 1
-Se@@ 1
-Spe@@ 1
-Tro@@ 1
-Unedic 1
-V@@ 1
-Visite 1
-Waziristan 1
-alimentaire 1
-après 1
-au-@@ 1
-au-Val 1
-b@@ 1
-ball 1
-blog@@ 1
-brûlant 1
-c' 1
-cinq 1
-comport@@ 1
-die 1
-dro@@ 1
-elle 1
-g@@ 1
-haute 1
-ils 1
-je 1
-joie 1
-jusqu' 1
-l' 1
-lama 1
-le 1
-le-@@ 1
-les 1
-maire 1
-palestini@@ 1
-po-@@ 1
-poids 1
-pompiers 1
-premier 1
-privé 1
-rare 1
-re@@ 1
-seuls 1
-spiritual 1
-taille 1
-tam 1
-train 1
-une 1
-up 1
-y@@ 1
.-@@ 1
.-sa 1
.. 1
.... 1
.03 1
.35@@ 1
.De 1
.La 1
.Mari@@ 1
.Ou 1
.Tout 1
.Tél 1
.Un 1
.free.fr 1
.net 1
.org 1
.scho@@ 1
.sit@@ 1
.sor@@ 1
.st 1
.w 1
0,00 1
0,05 1
0,08 1
0,2 1
0,25 1
0,3 1
0,34 1
0,4 1
0,47 1
0,50 1
0,57 1
0,6 1
0,7 1
0,80 1
0,9 1
0-1 1
0-10 1
0-4 1
0.000 1
0.13 1
0.25 1
0.77 1
0.9 1
00.- 1
000e 1
0039@@ 1
0055@@ 1
01.@@ 1
014 1
04-@@ 1
05.@@ 1
05@@ 1
06.@@ 1
062 1
0e 1
0h59 1
0m 1
1,03 1
1,12@@ 1
1,18 1
1,42 1
1,45 1
1,50 1
1,54 1
1,56 1
1,57 1
1,60 1
1,65 1
1,6@@ 1
1,7 1
1,8 1
1,82 1
1,84 1
1,93 1
1-0.- 1
1-5-1 1
1.095 1
1.18 1
1.2 1
1.40 1
1.49@@ 1
1.5 1
1.50 1
1.6@@ 1
1.700 1
1.9 1
10-15 1
1000 1
100@@ 1
101 1
101,66 1
1026@@ 1
103,5 1
105 1
1065@@ 1
107@@ 1
109 1
10H00 1
10c 1
10h45 1
11.@@ 1
110,@@ 1
1100 1
111 1
113 1
114.@@ 1
115 1
116,@@ 1
117,@@ 1
118 1
118.@@ 1
12,9@@ 1
12-@@ 1
12.@@ 1
124 1
124@@ 1
125.@@ 1
126 1
128 1
129 1
13-@@ 1
13.@@ 1
134 1
138 1
14.3 1
1404 1
142,11 1
144 1
145 1
1455 1
147.000 1
1476 1
148 1
148,@@ 1
14H00 1
14h00 1
14h08 1
14h10 1
14h25 1
15-@@ 1
150.3 1
151 1
152 1
153 1
1541 1
1543 1
1557 1
156 1
1570 1
15h45 1
15h50 1
16,@@ 1
16-10 1
16. 1
1600 1
1608 1
164,78 1
165 1
165,41 1
168 1
168,@@ 1
16h30 1
16h50 1
17.000 1
1706 1
171 1
171,06 1
172 1
173 1
1732-@@ 1
17h00 1
17h15 1
17h20 1
17h50 1
18-@@ 1
18.@@ 1
1807 1
1809 1
1818 1
1821 1
1855 1
186 1
1864 1
187 1
1878 1
188 1
1880 1
1886 1
1890 1
1896 1
18e 1
18h00 1
18h35 1
18h45 1
18h50 1
19-@@ 1
19.@@ 1
1908 1
191 1
1913 1
1915 1
1916 1
1918 1
1920 1
1923 1
1925 1
1929 1
193 1
1933 1
1934 1
194 1
1941 1
1943 1
1944 1
1951 1
1956 1
1959 1
196 1
1960 1
196@@ 1
1981 1
1982 1
1986 1
199,33 1
1990-@@ 1
1998-99 1
19h05 1
19h15 1
19h30 1
19h45 1
1er@@ 1
1ers 1
1h30 1
1h40 1
1re 1
2,07 1
2,1 1
2,2 1
2,24 1
2,4 1
2,40 1
2,7 1
2,8 1
2,9 1
2-1939 1
2-1954 1
2-3 1
2-Red@@ 1
2.000 1
2.5 1
2.500 1
2.91 1
200.000 1
200000 1
2003-@@ 1
2004-@@ 1
2007-@@ 1
2009-@@ 1
200m 1
2014 1
2015 1
2019 1
202 1
2025 1
2030 1
204,@@ 1
2040 1
204kmde 1
207 1
209 1
20h35 1
20m 1
21,@@ 1
21.@@ 1
210 1
213,@@ 1
214 1
219 1
22-@@ 1
222 1
224 1
225 1
226 1
227 1
23.@@ 1
233 1
24,@@ 1
24-@@ 1
241 1
24@@ 1
25-@@ 1
25.@@ 1
251 1
259,@@ 1
26,@@ 1
26.@@ 1
262 1
263 1
265,@@ 1
268 1
269 1
27,@@ 1
28-30 1
28.@@ 1
280 1
286 1
288 1
290 1
298 1
2A 1
2T 1
2es 1
2h 1
2km2 1
2n 1
3,1 1
3,2 1
3,3 1
3,35 1
3,4 1
3,6 1
3,87 1
3-1 1
3-13 1
3-5 1
3-7 1
3-8 1
3.000 1
30,@@ 1
300@@ 1
305 1
307 1
312 1
31a 1
320 1
325 1
32@@ 1
32e 1
33,1 1
33,@@ 1
330 1
335 1
338 1
34-@@ 1
34.@@ 1
342 1
35,@@ 1
352 1
36-@@ 1
36.@@ 1
364 1
37,@@ 1
370 1
370,@@ 1
375,@@ 1
37@@ 1
383 1
387 1
38@@ 1
38e 1
390 1
3A 1
3h40 1
4,01 1
4,05 1
4,34 1
4,35 1
4,4 1
4-1 1
4-6 1
4.2 1
400@@ 1
401 1
405 1
406 1
408 1
40@@ 1
41,5 1
4105 1
411 1
412 1
42,8 1
43,1 1
43.@@ 1
433 1
434 1
439@@ 1
43@@ 1
448 1
45,5 1
45-@@ 1
456 1
457 1
45e 1
468 1
47,@@ 1
474 1
478 1
47@@ 1
480 1
484 1
487 1
48@@ 1
49.91 1
491 1
496 1
4v 1
5,1 1
5,15 1
5,50 1
5,6 1
5,63 1
501 1
505 1
509 1
50@@ 1
50m 1
5113 1
51e 1
525@@ 1
534 1
535 1
538 1
54-@@ 1
540 1
541 1
543 1
547 1
54@@ 1
55-@@ 1
556 1
560 1
57,@@ 1
570,@@ 1
57@@ 1
58e 1
59,@@ 1
59.@@ 1
5d 1
5milliards 1
5v 1
6,02 1
6,1 1
6,2 1
6,4 1
6,66 1
6,99 1
6-@@ 1
60-@@ 1
60@@ 1
61-@@ 1
612 1
617.@@ 1
628,@@ 1
63,@@ 1
63e 1
64,@@ 1
644 1
646 1
64@@ 1
650m 1
65@@ 1
66,@@ 1
669 1
679 1
68@@ 1
69e 1
6M 1
6d 1
7,4 1
7-3 1
70,@@ 1
70.000 1
7000 1
702 1
705 1
73-1 1
74,@@ 1
74.5 1
746 1
75.@@ 1
750@@ 1
76,@@ 1
76-@@ 1
77-@@ 1
775 1
77@@ 1
78.@@ 1
780 1
7e 1
7h35 1
7km 1
7xh6 1
8,4 1
8,41 1
8,8 1
8-3 1
8-5 1
8.- 1
800@@ 1
801 1
81,@@ 1
815,@@ 1
819 1
82e 1
83,3 1
830,@@ 1
838 1
840 1
842 1
856@@ 1
879 1
87@@ 1
89,@@ 1
89@@ 1
8h40 1
8h50 1
9-1 1
9.@@ 1
90,@@ 1
900.000 1
9000 1
900@@ 1
907 1
91,7 1
91,9 1
917@@ 1
92-@@ 1
920 1
930 1
93@@ 1
948 1
94@@ 1
94e 1
95.@@ 1
95@@ 1
96-@@ 1
970 1
970,@@ 1
979 1
98-@@ 1
98.000 1
985 1
98e 1
A-@@ 1
A.@@ 1
A.P. 1
A350 1
A380 1
A3@@ 1
AA 1
AAPP@@ 1
ABS 1
ACCID@@ 1
ACEA 1
ACH 1
ACP 1
AE@@ 1
AEK 1
AEM@@ 1
AEW 1
AF 1
AI@@ 1
AID 1
AIROBI 1
AJ 1
AKO 1
AKit 1
ALL 1
ALLA@@ 1
AN 1
ANA 1
ANBUL 1
ANC 1
ANCE 1
ANCO@@ 1
ANDL@@ 1
ANPE@@ 1
ANS 1
AP 1
AP@@ 1
APE@@ 1
ARC 1
ARDP 1
AREM 1
ARGENT 1
AROW 1
ARSÈ@@ 1
ASA 1
ASAME 1
ASBD 1
ASC 1
ASCAD@@ 1
ASEA 1
ASFQ 1
ASI 1
ASIM 1
ASL 1
ASPA 1
ASPT@@ 1
ASSA 1
ASSENDORF 1
ASX 1
AT 1
ATI@@ 1
ATIONS 1
AVA 1
AVI@@ 1
AZ 1
AZA 1
Abbaoui 1
Abbruch 1
Abd@@ 1
Abdel@@ 1
Abdell@@ 1
Abdi 1
Abdi@@ 1
Abdou 1
Abel 1
Abid@@ 1
Abigail 1
Abkhaz@@ 1
Abonné 1
Abou@@ 1
Abreu@@ 1
Abruzz@@ 1
Absolut 1
Abstimmun@@ 1
Abstinence 1
Abu 1
Accor@@ 1
Ack@@ 1
Acker 1
Acro@@ 1
Across 1
Actes 1
Acteur 1
Actu@@ 1
Adams 1
Adap@@ 1
Adassa 1
Adelaide 1
Adeline 1
Adem 1
Aden 1
Adidas 1
Adios 1
Adira 1
Adjoint 1
Administration 1
Admirals 1
Ado@@ 1
Adolf 1
Adoption 1
Adorno 1
Adresse 1
Adri@@ 1
Adriano 1
Adré 1
Adul@@ 1
Adulyadej 1
Adumim 1
Advis@@ 1
Aern@@ 1
Aff@@ 1
Affir@@ 1
Afghans 1
Afric@@ 1
African 1
Aftab 1
Against 1
Age 1
Agent 1
Agou@@ 1
Agriculture 1
Ah@@ 1
Ahmadinejad 1
Aig@@ 1
Ailleurs 1
Air@@ 1
Airborne 1
Aires 1
Aix 1
Ajou@@ 1
Al-Jazeera 1
Al-Qaeda 1
Alab@@ 1
Alabama 1
Alains 1
Alan 1
Alaska 1
Albi 1
Albin 1
Albou@@ 1
Albuquer@@ 1
Albé 1
Alcoa 1
Aldo 1
Ale@@ 1
Alert@@ 1
Ales 1
Aless@@ 1
Alexis 1
Alfons 1
Alfonso 1
Alfred 1
Alfredsson 1
Alg@@ 1
Algéri@@ 1
Alicia 1
Alien 1
Alison 1
Alkma@@ 1
Alla@@ 1
Allez 1
Allié 1
Alma 1
Alme 1
Alper 1
Als 1
Alt@@ 1
Altheimer 1
Alther@@ 1
Altor@@ 1
Alvar@@ 1
Amal 1
Amal@@ 1
Amann 1
Amarin 1
Amat@@ 1
Ambiance 1
Ambre 1
Ambulance 1
Ambéri@@ 1
Amelle 1
Ames 1
Ami@@ 1
Amic 1
Amigos 1
Amin 1
Amnesty 1
Amor@@ 1
Amphi@@ 1
Amqui 1
Amstutz 1
Amus@@ 1
Amy 1
Amé@@ 1
Améric@@ 1
Anabelle 1
Anacl@@ 1
Ananda 1
Ananen@@ 1
Anast@@ 1
Anaï@@ 1
Anbar 1
And 1
Andel@@ 1
Anderson 1
Andes 1
Andi@@ 1
Andl@@ 1
Andr@@ 1
Andre@@ 1
Andrea 1
Andres 1
Anfang 1
Ange-Toussaint 1
Ange@@ 1
Angel@@ 1
Angels 1
Anges 1
Anglade 1
Angly 1
Anhän@@ 1
Anigo 1
Anjou 1
Ankara 1
Anlage 1
Annie 1
Anouch@@ 1
Anschlag 1
Ansel@@ 1
Ansicht 1
Antenne 1
Anti@@ 1
Anton@@ 1
Antre@@ 1
Anwal@@ 1
Août 1
App@@ 1
Aqu@@ 1
Aquali@@ 1
Arbeit@@ 1
Arbour 1
Arbre 1
Arcade 1
Arcades 1
Arcel@@ 1
Archit@@ 1
Ardèche 1
Are@@ 1
Argen@@ 1
Arias 1
Arlé@@ 1
Arm@@ 1
Armani 1
Armstrong 1
Arou@@ 1
Arpents 1
Arrestation 1
Arrière 1
Arrog@@ 1
Arsène 1
Artist 1
Artolsheim 1
Artop@@ 1
Artzenheim 1
Ary-@@ 1
As 1
As-@@ 1
Asics 1
Asp@@ 1
Aspir@@ 1
Assholes 1
Associates 1
Associés 1
Assurer 1
Aston 1
Astre@@ 1
At 1
Ata@@ 1
Atal@@ 1
Ate@@ 1
Athem@@ 1
Atl@@ 1
Atlantic 1
Atlantis 1
Atouts 1
Atrac@@ 1
Atrou@@ 1
Aubervilliers 1
Aubin 1
Aubou@@ 1
Aubure 1
Auburn 1
Auc@@ 1
Auch@@ 1
Auchan 1
Aude 1
Audi 1
Audrey 1
Aufa@@ 1
Aufl@@ 1
Auge 1
Augen@@ 1
Auger 1
Augier 1
Augment@@ 1
Aul@@ 1
Auri@@ 1
Aus 1
Auseinander@@ 1
Aush@@ 1
Austen 1
Auster 1
Auster@@ 1
Austin 1
Austral 1
Authority 1
Auto-@@ 1
Autos 1
Autri@@ 1
Außenh@@ 1
Avan@@ 1
Avantage 1
Avantages 1
Aveline 1
Avenue 1
Aver@@ 1
Avi@@ 1
Avoc@@ 1
Avoriaz 1
Avril 1
Avtovaz 1
Awwer 1
Axelrod 1
Ay@@ 1
Aye@@ 1
Ayers 1
Azz@@ 1
Aérien 1
B.- 1
B1 1
BA 1
BADR 1
BALL 1
BAN@@ 1
BARCELON@@ 1
BASKET@@ 1
BAT 1
BB 1
BB@@ 1
BE@@ 1
BEL@@ 1
BER 1
BF 1
BJP 1
BLI@@ 1
BLO@@ 1
BM@@ 1
BON 1
BOO@@ 1
BOURG.- 1
BP 1
BPC 1
BR 1
BS 1
BU@@ 1
BUR@@ 1
BUS@@ 1
BWV 1
Babin@@ 1
Bac@@ 1
Back@@ 1
Backstrom 1
Bade 1
Bader 1
Bady 1
Bag@@ 1
Bah@@ 1
Bahn@@ 1
Bai@@ 1
Bal 1
Balco 1
Baltimore 1
Bami 1
Ban 1
Ban-@@ 1
Banda 1
Bande 1
Bandile 1
Bangkok 1
Banglad@@ 1
Banquet 1
Bant@@ 1
Banu 1
Bap@@ 1
Baptiste 1
Bar 1
Barabli 1
Barak 1
Barbara 1
Barbe 1
Barbeli@@ 1
Barber@@ 1
Barbu 1
Barclays 1
Bardufo@@ 1
Bardusch 1
Barkat 1
Barn@@ 1
Barney 1
Baron 1
Barre 1
Barril 1
Barrois 1
Barron 1
Barroso 1
Bartenheim-@@ 1
Barth@@ 1
Bartisch 1
Bartisch@@ 1
Barton 1
Basket@@ 1
Bass 1
Basse-@@ 1
Bassemb@@ 1
Batten@@ 1
Bau@@ 1
Baume 1
Bavou@@ 1
Bay@@ 1
Bayer 1
Baz@@ 1
Bd 1
Beassoum 1
Beau 1
Beaume 1
Beauv@@ 1
Beaux 1
Bec@@ 1
Becher 1
Beckett 1
Bee@@ 1
Beeth@@ 1
Beff@@ 1
Beih@@ 1
Beispi@@ 1
Bel 1
Belgi@@ 1
Belgium 1
Belgrade 1
Belichick 1
Bell@@ 1
Bemü@@ 1
Benaissa 1
Benchetrit 1
Benelux 1
Bennett 1
Bens@@ 1
Bensoussan 1
Benz 1
Bercot 1
Berden 1
Berech@@ 1
Berentzwiller 1
Bergen 1
Berho 1
Berkeley 1
Berlus@@ 1
Bern 1
Berri 1
Berrwiller 1
Berstheim 1
Bertaut 1
Berthon 1
Bertola 1
Berts 1
Bessi@@ 1
Best@@ 1
Bethle@@ 1
Betr@@ 1
Betriebs 1
Beunat 1
Beur@@ 1
Bewo@@ 1
Bewäh@@ 1
Bhar@@ 1
Bhumibol 1
Biancalani 1
Bibliothèques 1
Bid@@ 1
Bideau 1
Bie@@ 1
Biederthal 1
Bientz 1
Bienvenue 1
Bierry 1
Bietlenheim 1
Big@@ 1
Bijon 1
Bike 1
Bikini@@ 1
Bile 1
Bille 1
Bing 1
Binoche 1
Bio@@ 1
Biology 1
Bisl@@ 1
Biss@@ 1
Bitz@@ 1
Biz 1
Biélorussie 1
Bla@@ 1
Black 1
Blackhawks 1
Blacks 1
Blais 1
Blaise 1
Blanc@@ 1
Blanch@@ 1
Blanches 1
Blank@@ 1
Blattner 1
Blessi@@ 1
Bli@@ 1
Bloc@@ 1
Blondin 1
Blood 1
Blouin 1
Blues 1
Blæsheim 1
Bléger 1
Board 1
Boc@@ 1
Boca 1
Bochard 1
Bodein 1
Bodhis@@ 1
Boeckman 1
Boeg@@ 1
Boeh@@ 1
Boesch 1
Boesmans 1
Bog@@ 1
Bohn 1
Bohél@@ 1
Bojan 1
Boll 1
Boll@@ 1
Bolo@@ 1
Bolton 1
Bom@@ 1
Bomb@@ 1
Bonds 1
Booth 1
Bord@@ 1
Borel 1
Born 1
Bory 1
Bossé 1
Bott@@ 1
Bourgeois 1
Bourgo@@ 1
Bouwmeester 1
Bowls 1
Box 1
Boyer 1
Bozon 1
Bra@@ 1
Brad 1
Braga 1
Braille 1
Bras 1
Brashear 1
Brasserie 1
Brasseur 1
Braun 1
Bravant 1
Braves 1
Bre-@@ 1
Breit@@ 1
Brendan 1
Bresse 1
Bric-@@ 1
Brichwas@@ 1
Bris@@ 1
Brisach 1
Britannique 1
Britney 1
Broadcasting 1
Broadway 1
Brochures 1
Brodbeck 1
Broglie 1
Broncos 1
Bronnenkant 1
Bronner 1
Bronx 1
Bronze 1
Bruce 1
Brum@@ 1
Brunton 1
Brust 1
Brève 1
Brèves 1
Brûlures 1
Buc@@ 1
Bud@@ 1
Buenos 1
Buff@@ 1
Bul@@ 1
Bull@@ 1
Bulldogs 1
Bulle 1
Bulls 1
Bun@@ 1
Bur 1
Bureau 1
Buren 1
Burs@@ 1
Burton 1
Bush-@@ 1
Butler 1
By@@ 1
BÉ@@ 1
Béch@@ 1
Bét@@ 1
Bün@@ 1
Büro@@ 1
C-@@ 1
CA 1
CAIR@@ 1
CAN@@ 1
CAP 1
CAR@@ 1
CBI 1
CBS 1
CC 1
CCI@@ 1
CES@@ 1
CF@@ 1
CFA 1
CFL 1
CFOR@@ 1
CFT@@ 1
CIBC 1
CIN@@ 1
CJ@@ 1
CK@@ 1
CL@@ 1
CM@@ 1
CME 1
CMU 1
CMU@@ 1
CN 1
COMMENT 1
COU@@ 1
CRE@@ 1
CRO 1
CRTC 1
CSI@@ 1
CSKA 1
CT@@ 1
CTE@@ 1
CZ@@ 1
Ca 1
Cachem@@ 1
Cade@@ 1
Cado@@ 1
Café 1
Cage 1
Cah@@ 1
Cai@@ 1
Calder@@ 1
Cam@@ 1
Cambi@@ 1
Cameron 1
Campagne 1
Campbell 1
Camry 1
Canadi@@ 1
CanalSatellite 1
Canardière 1
Canatal 1
Canchy 1
Cand@@ 1
Candilis 1
Canon 1
Cantin 1
Cantuta 1
Canuel@@ 1
Cap 1
Cape 1
Capit@@ 1
Carac@@ 1
Caract@@ 1
Carbaj@@ 1
Carbiener 1
Carbo 1
Carcass@@ 1
Cardinal 1
Cardée 1
Care 1
Carebus 1
Caretta 1
Carlo 1
Carlyle 1
Carmel 1
Carmi-@@ 1
Carole 1
Carols 1
Carretera 1
Carspach 1
Carspach-@@ 1
Carte 1
Cash 1
Casino 1
Cass@@ 1
Cat@@ 1
Cau@@ 1
Cav@@ 1
Cave 1
Caw@@ 1
Caz@@ 1
Ce@@ 1
Cear@@ 1
Ced@@ 1
Cell 1
Cell@@ 1
Celles 1
Cend@@ 1
Cendr@@ 1
Cener@@ 1
Cens@@ 1
Centr@@ 1
Centre-@@ 1
Cep 1
Cesar 1
Cet@@ 1
Ceux 1
Ceux-ci 1
Cf@@ 1
Ch7 1
Chab 1
Chabbat 1
Chac@@ 1
Chai@@ 1
Chair 1
Chal@@ 1
Challenge 1
Champ@@ 1
Championship 1
Chan@@ 1
Chanc@@ 1
Chance 1
Channing 1
Chant 1
Chanti@@ 1
Chapp@@ 1
Char 1
Charbon@@ 1
Charcot 1
Chardonnay 1
Charg@@ 1
Chargers 1
Charity 1
Charité 1
Charl@@ 1
Charle@@ 1
Charles@@ 1
Charley@@ 1
Charlie 1
Charm 1
Charrue 1
Chartreux 1
Chasseurs 1
Chat 1
Chat@@ 1
Chauss@@ 1
Chavassus 1
Chaï@@ 1
Che 1
Chefs 1
Chet 1
Chev@@ 1
Chick@@ 1
Chiefs 1
Chil@@ 1
Child 1
Children 1
Childs 1
Chin@@ 1
Chlo@@ 1
Cho@@ 1
Choc@@ 1
Chong 1
Chou@@ 1
Chris@@ 1
Christ-Roi 1
Christbaum 1
Christi@@ 1
Christina 1
Christiné 1
Christk@@ 1
Christopher 1
Chrudin 1
Chryso@@ 1
Chrétien 1
Chub@@ 1
Chunchu 1
Chung 1
Chypre 1
Chéreau 1
Chêne 1
Chœur 1
Ci-@@ 1
Cigo@@ 1
Cili@@ 1
Cimes 1
Cin@@ 1
Cindy 1
Cinv@@ 1
Circulation 1
Cit@@ 1
Citi@@ 1
Cités 1
Clad 1
Clancy' 1
Clank 1
Clapton 1
Clar 1
Clar@@ 1
Class@@ 1
Classi@@ 1
Classé 1
Claude-@@ 1
Clay 1
Clemson 1
Cleveland 1
Clinique 1
Clint 1
Clis 1
Clo@@ 1
Clos 1
Clou@@ 1
Clovis 1
Clow@@ 1
Clément@@ 1
Cnes 1
CoMo 1
Cob@@ 1
Coc@@ 1
Coch@@ 1
Cochet 1
Coconut 1
Cody 1
Coen 1
Coff@@ 1
Coh@@ 1
Col 1
Cola 1
Colabella 1
Colby 1
Cole 1
Coleman 1
Collec@@ 1
Collection 1
College 1
Colmar-Houssen 1
Colmari@@ 1
Colomb 1
Colomb@@ 1
Colon 1
Color@@ 1
Colorado 1
Colosse 1
Columbia 1
Coma 1
Comb@@ 1
Combat@@ 1
Combattant 1
Comcast 1
Comics 1
Comm@@ 1
Commeyne 1
Commiss@@ 1
Commonwealth 1
Commotion 1
Comple@@ 1
Compu@@ 1
Compétition 1
Comrie 1
Comédi@@ 1
Comédien 1
Conacher 1
Conan 1
Conc 1
Conception 1
Concer@@ 1
Conclu@@ 1
Concorde 1
Concours 1
Condé 1
Confié 1
Conférences 1
Cong@@ 1
Conklin 1
Conr@@ 1
Constru@@ 1
Construc@@ 1
Cont@@ 1
Contacts 1
Contam@@ 1
Conte 1
Conti 1
Contours 1
Contr@@ 1
Controls 1
Contrô@@ 1
Convainc@@ 1
Convaincu 1
Convention 1
Coo@@ 1
Cool 1
Coprur 1
Coqueli@@ 1
Coquillages 1
Corail-Zu@@ 1
Corderoy 1
Corinne 1
Corolla 1
Corp. 1
Corral 1
Corri@@ 1
Corrè@@ 1
Corse 1
Corti 1
Cortège 1
Cosm@@ 1
Cosmin@@ 1
Cost 1
Costa 1
Cot@@ 1
Coteaux 1
Coughlin 1
Coul@@ 1
Council 1
Country 1
County 1
Cours 1
Courtney 1
Cous@@ 1
Cout@@ 1
Cove 1
Cox 1
Coût 1
Cra@@ 1
Cran@@ 1
Crawford 1
Cre@@ 1
Crochet 1
Crocker 1
Croettwiller 1
Croire 1
Croissance 1
Croisés 1
Cron@@ 1
Cross@@ 1
Croteau 1
Crowder 1
Croz@@ 1
Croze 1
Cruise 1
Cruz 1
Cuc@@ 1
Cul@@ 1
Cur@@ 1
Cure 1
Currie 1
Curve 1
Customer 1
Cy 1
Cè@@ 1
Céci@@ 1
Célest@@ 1
Céli@@ 1
Célè@@ 1
Cém@@ 1
Cô@@ 1
Cœur 1
D-@@ 1
D.- 1
DA 1
DAN@@ 1
DARD 1
DC 1
DDE 1
DEC@@ 1
DEN@@ 1
DER 1
DER@@ 1
DERT@@ 1
DES 1
DEST@@ 1
DEUR 1
DEUX 1
DGE 1
DH 1
DH@@ 1
DLR 1
DORF 1
DP 1
DRE@@ 1
DS 1
DT@@ 1
DU@@ 1
DUN@@ 1
DUR@@ 1
Da 1
Da@@ 1
Dabo 1
Dacc@@ 1
Dach 1
Dach@@ 1
Dagen@@ 1
Dagu@@ 1
Daily@@ 1
Daimler 1
Daisy 1
Dal@@ 1
Dambach-@@ 1
Damian 1
Damp@@ 1
Dan@@ 1
Dance 1
Dancing 1
Dand@@ 1
Dangel 1
Dani@@ 1
Danny 1
Dans@@ 1
Dat@@ 1
Date 1
Dau@@ 1
Dauen 1
Davantage 1
Davo@@ 1
Davy 1
Daw@@ 1
De-@@ 1
DeMarco 1
Death 1
Debat@@ 1
Debes 1
Debout 1
Debr@@ 1
Debus@@ 1
Decathlon 1
Deck 1
Deco 1
Deer 1
Def@@ 1
Dehors 1
Deiber 1
Del 1
Delfin@@ 1
Delgado 1
Delis@@ 1
Dell@@ 1
Deller 1
Demange@@ 1
Demers 1
Demir 1
Demouge 1
Den 1
Dennis 1
Depardieu 1
Departement 1
Der@@ 1
Derby 1
Derian 1
Dern@@ 1
Derni@@ 1
Design 1
Dess@@ 1
Deuscher 1
Deuts@@ 1
Devoirõ 1
Dewey 1
Dh@@ 1
Diab@@ 1
Diables 1
Diacon@@ 1
Diaporama 1
Dick 1
Dieffenbach 1
Diemer 1
Diemert 1
Dienst 1
Dierry 1
Dieux 1
Diff@@ 1
Digital 1
Dijon 1
Dill@@ 1
Dimbsthal 1
Dimitri 1
Dimnet 1
Dimofski 1
Din 1
Din@@ 1
Diocèse 1
Dionyso@@ 1
Diop 1
Dios 1
Dipl@@ 1
Diplom 1
Dire 1
Direct 1
Direkt@@ 1
Discher 1
Disciples 1
Discuter 1
Disons 1
DisplaySear@@ 1
Displays 1
Distribu@@ 1
Dit 1
Dit@@ 1
Divers 1
Diversité 1
Dix 1
Dixit 1
Dizet 1
Dié 1
Dje@@ 1
Do 1
Dob@@ 1
Dodgers 1
Dog 1
Dog@@ 1
Dolly 1
Dom@@ 1
Domen@@ 1
Donner 1
Donné 1
Dont 1
Donz@@ 1
Douglas 1
Doun@@ 1
Down 1
Dran@@ 1
Dream 1
Dro@@ 1
Drogba 1
Drou@@ 1
Drum@@ 1
Drus@@ 1
Dré@@ 1
Dubi@@ 1
Duboc 1
Dubuc 1
Duch@@ 1
Duchausso@@ 1
Ducott@@ 1
Dufort 1
Dufour 1
Dugas 1
Dugua 1
Duham@@ 1
Dujardin 1
Dumonfer@@ 1
Dun@@ 1
Dung 1
Duo 1
Duong 1
Duparcq 1
Dupont-Renaud 1
Duppigheim 1
Duque 1
Duty 1
Dw@@ 1
Dylan 1
Dà@@ 1
Dä@@ 1
Déjeuner 1
Déli@@ 1
Dén@@ 1
Dér@@ 1
Dév@@ 1
Dör@@ 1
E-@@ 1
E.@@ 1
EAL 1
EAU.- 1
ECE 1
ED 1
EDER@@ 1
EFT.- 1
EL 1
EM@@ 1
EN-D@@ 1
EN-SUR-@@ 1
ENA 1
ENAU.- 1
ENBOURG 1
ENDOR@@ 1
ENDORF 1
ENEVE 1
ENGE@@ 1
ENHEIM.- 1
ENHOUS@@ 1
ENHOUSE.- 1
ENNE 1
ENS 1
ENSAS 1
ENSCH@@ 1
ENT 1
ENT@@ 1
ENTS@@ 1
EO 1
EO@@ 1
EP 1
EP@@ 1
ER.- 1
ERCE@@ 1
ERING@@ 1
ERINGEN 1
ERNACH 1
ERRE 1
ERS 1
ERT@@ 1
EST@@ 1
ETB 1
EU@@ 1
EUS 1
EW 1
EX 1
EX@@ 1
Eag@@ 1
Earth 1
Eastwood 1
Eaux-@@ 1
Eber@@ 1
Eckert 1
Eclair@@ 1
Econom@@ 1
Ecou@@ 1
Eddy 1
Edel 1
Edi@@ 1
Edouard 1
Education 1
Edward 1
Efr@@ 1
Ego 1
Ehr@@ 1
Ehud 1
Eich@@ 1
Eig@@ 1
Ein 1
Eind@@ 1
Einstein 1
Eisenb@@ 1
Ek@@ 1
Ekou@@ 1
El-Har@@ 1
Elaborer 1
Elaine 1
Eldar@@ 1
Elf 1
Elie 1
Elinor 1
Ellington 1
Elliott 1
Ellis@@ 1
Ellyn 1
Elmeskov 1
Elsa 1
Elsau 1
Else-@@ 1
Eltern 1
Elu@@ 1
Elue 1
Elyse 1
Elzach 1
Emanuelle 1
Emap 1
Embarquement 1
Emblem 1
Emerson 1
Emeutes 1
Emil 1
Emili@@ 1
Emirates 1
Emmené 1
Emplo@@ 1
Emportés 1
Empty 1
Encad@@ 1
Enchaî@@ 1
Encour@@ 1
Ency@@ 1
Ende 1
Enderlin 1
Endes 1
Endroit 1
Energi@@ 1
Engen@@ 1
English 1
Engou@@ 1
Enig@@ 1
Enlèvement 1
Enseignement 1
Ent@@ 1
Entente 1
Ents@@ 1
Entwick@@ 1
Entz 1
Enzo 1
Epar@@ 1
Eperon 1
Epinal 1
Epo@@ 1
Equi@@ 1
Equin@@ 1
Equit@@ 1
Er 1
Erb 1
Erdogan 1
Erit@@ 1
Ernst 1
Erol 1
Esil@@ 1
Esp@@ 1
Espo@@ 1
Espé@@ 1
Est-@@ 1
Estate 1
Esti@@ 1
Etant 1
Eth@@ 1
Ethan 1
Ethiop@@ 1
Eto@@ 1
Etoil@@ 1
Etre 1
Etter 1
Europ@@ 1
Evan 1
Evan@@ 1
Eve 1
Even@@ 1
Evian 1
Ewer 1
Ex 1
Ex-@@ 1
Exacomp@@ 1
Exemple 1
Expedia 1
Expl@@ 1
Explo@@ 1
Expos 1
Exposons 1
Exposés 1
Expression 1
Extension 1
Extrait 1
Extrême 1
Ezéchi@@ 1
F.- 1
F1 1
FAI 1
FAO 1
FAS@@ 1
FAUX 1
FBI 1
FC@@ 1
FCE 1
FCN@@ 1
FCS@@ 1
FEG@@ 1
FEN@@ 1
FI@@ 1
FIL@@ 1
FIN 1
FINANCI@@ 1
FINANCIAL 1
FIS 1
FL@@ 1
FN 1
FN@@ 1
FNT@@ 1
FO@@ 1
FOR@@ 1
FORD 1
FR 1
FR@@ 1
FRIO 1
FS 1
FT 1
FT.- 1
FU 1
FU@@ 1
FUR@@ 1
Fa@@ 1
Fab@@ 1
Fac@@ 1
Fach 1
Fach@@ 1
Fades 1
Fahim 1
Fair 1
Fait 1
Faki 1
Fal@@ 1
Falcons 1
Fali@@ 1
Fall 1
Fallait 1
Fanch@@ 1
Fant@@ 1
Fargo 1
Fass 1
Fati@@ 1
Faubourg 1
Faut 1
Faux 1
Fay@@ 1
Feas@@ 1
Feder 1
Feder@@ 1
Federici 1
Feg@@ 1
Fel@@ 1
Fell@@ 1
Fellows 1
Fend@@ 1
Fener@@ 1
Fenn@@ 1
Ferguson 1
Feri@@ 1
Fernando 1
Ferr@@ 1
Ferrari 1
Ferry 1
Fess@@ 1
Fesse@@ 1
Fest 1
Feth@@ 1
Feu@@ 1
Fiat 1
Fif@@ 1
Fight 1
Figu@@ 1
Fille 1
Filles 1
Films 1
Fim@@ 1
Finaliste 1
Financier 1
Finch 1
Finckenbein 1
Find@@ 1
Finger@@ 1
Finlandais 1
Finley 1
Fir 1
Fire 1
Fis-@@ 1
Fis@@ 1
Flam@@ 1
Flames 1
Flamme 1
Flan@@ 1
Flandre 1
Flax@@ 1
Flec@@ 1
Flesselles 1
Fletcher 1
Floc@@ 1
Flori@@ 1
Flounder@@ 1
Flu@@ 1
Flàsche 1
Flüch@@ 1
Fnac 1
Focus 1
Fog@@ 1
Fonten@@ 1
Food 1
Forbes 1
Forcément 1
Forest 1
Forest@@ 1
Forg@@ 1
Formateur 1
Forme 1
Formel@@ 1
Former 1
Formu@@ 1
Forrer 1
Forster 1
Forstheim 1
Fort 1
Fortin 1
Forts 1
Forêts 1
Foster 1
Fotop@@ 1
Foul@@ 1
Foundation 1
Four 1
Fourn@@ 1
Fowler 1
Fox 1
Fra@@ 1
Frage 1
Fragile 1
Fraisse 1
Franc 1
Franc@@ 1
Franche-@@ 1
Franchement 1
Francis@@ 1
Franco-@@ 1
Francs 1
Frank@@ 1
Franken 1
Frantic 1
Frantz 1
Fratern@@ 1
Fred@@ 1
Freddy 1
Freedom 1
Freli@@ 1
Fres@@ 1
Fribourg 1
Frick 1
Friederich 1
Frieh 1
Friend 1
Friends 1
Frindel 1
Friot 1
Frit@@ 1
Frust 1
Frustr@@ 1
Frères 1
Fré@@ 1
Frédé@@ 1
Früh@@ 1
Fu@@ 1
Fuj@@ 1
Ful@@ 1
Fumer 1
Fund 1
Funs 1
Fur@@ 1
Fuss 1
Fy@@ 1
Fä@@ 1
Fé@@ 1
Fê@@ 1
Fü@@ 1
Füh@@ 1
Fün@@ 1
G-@@ 1
GA@@ 1
GAL@@ 1
GCO 1
GENHEIM 1
GER 1
GER@@ 1
GEST 1
GEU@@ 1
GLON@@ 1
GPG 1
GPS 1
GRA@@ 1
GS 1
GS@@ 1
GU@@ 1
GV 1
GYM 1
Gab@@ 1
Gabrielle 1
Gai@@ 1
Gal 1
Gallup 1
Gam@@ 1
Gamb@@ 1
Game 1
Gan@@ 1
Gander 1
Gard@@ 1
Gardner 1
Garg@@ 1
Garri@@ 1
Gas@@ 1
Gaspe@@ 1
Gasquet 1
Gass 1
Gass@@ 1
Gasse 1
Gasser 1
Gastron@@ 1
Gates 1
Gators 1
Gatt 1
Gatwick 1
Gavan@@ 1
Gaz@@ 1
Gaël 1
Gaî@@ 1
Gebel 1
Gebä@@ 1
Gefän@@ 1
Geg@@ 1
Gegen 1
Geiger 1
Geispol@@ 1
Geisser 1
Geisswasser 1
Geld 1
Gels 1
Gend@@ 1
Gene@@ 1
Gennaro 1
Gens 1
Geoff 1
Geoff@@ 1
Geoffrey 1
Geografie 1
Geor@@ 1
Georgi@@ 1
Georgia 1
Gerald 1
Gerbet 1
Gerg@@ 1
Gerha@@ 1
Gerhard 1
Gerland 1
Germanshof 1
Gerrer 1
Gerst 1
Gertheis 1
Gerthoffer 1
Gertru@@ 1
Gesch@@ 1
Gewicht 1
Geyer 1
Ghan@@ 1
Ghis@@ 1
Giambi 1
Giame@@ 1
Gianni 1
Giant 1
Gibbs 1
Gibert 1
Giebel 1
Giesi 1
Gigli@@ 1
Gign@@ 1
Gill 1
Gill@@ 1
Gim@@ 1
Ging@@ 1
Girardi 1
Girls 1
Git@@ 1
Gitu@@ 1
Gius 1
Glass 1
Glax@@ 1
Globe 1
Gloc@@ 1
Gno@@ 1
God 1
God@@ 1
Godiva 1
Goepfert 1
Goerg 1
Goethe 1
Golan 1
Goldman 1
Gomes 1
Gonna 1
Goodell 1
Goodman 1
Gor@@ 1
Gospel 1
Got 1
Goth@@ 1
Gothic 1
Gottesso@@ 1
Gout@@ 1
Goya 1
Goyaux 1
Goëtz@@ 1
Goût 1
Gra@@ 1
Grabenst@@ 1
Graci@@ 1
Graff@@ 1
Graham 1
Grall 1
Grandis 1
Grasse 1
Grassin 1
Gravel 1
Great 1
Greater 1
Gregory 1
Gren@@ 1
Grey 1
Gris@@ 1
Grondin 1
Gross 1
Grou@@ 1
Groulx 1
Gru@@ 1
Grund 1
Grunenwald 1
Grus@@ 1
Grèce 1
Grün@@ 1
Guadel@@ 1
Guardian 1
Gueber@@ 1
Guendouz 1
Gueth 1
Guetta 1
Guew@@ 1
Guild 1
Guimet 1
Guinée 1
Gul 1
Gul@@ 1
Gum@@ 1
Guy-@@ 1
Guys 1
Guéner@@ 1
Gymn@@ 1
Gä@@ 1
Gén@@ 1
Géné@@ 1
Géo 1
Gér@@ 1
H-@@ 1
H. 1
H00 1
HAG@@ 1
HAP 1
HAR@@ 1
HAW@@ 1
HBO 1
HD 1
HE@@ 1
HEIM.- 1
HEIN 1
HEN@@ 1
HER@@ 1
HHR 1
HI 1
HLE 1
HLINGEN 1
HOFF@@ 1
HOFFEN 1
HR 1
HU 1
HW 1
HW@@ 1
Ha 1
Habli@@ 1
Hachem@@ 1
Hack@@ 1
Hacker 1
Hadji 1
Haf@@ 1
Haff@@ 1
Haft 1
Haga 1
Hai@@ 1
Hair@@ 1
Halifax 1
Halle 1
Halloween 1
Hand 1
Hand@@ 1
Hang@@ 1
Hani 1
Hani@@ 1
Hann@@ 1
Hans-@@ 1
Hant@@ 1
Haq 1
Haqqani 1
Har 1
Harens 1
Haridge 1
Harinder 1
Harm@@ 1
Harmann 1
Harmonia 1
Haroldo 1
Harr@@ 1
Harrer 1
Hart@@ 1
Hartemann 1
Harvick 1
Hassan 1
Hate@@ 1
Hatt 1
Hav@@ 1
Havane 1
Havre 1
Haw@@ 1
Hawk 1
Hay 1
Haynes 1
Haï@@ 1
He' 1
Heatley 1
Hebdo 1
Hed@@ 1
Heder 1
Heeder 1
Heerlen 1
Hegbo@@ 1
Heid@@ 1
Heiden 1
Heights 1
Heili@@ 1
Heilmann 1
Heimburger 1
Heintz 1
Heisman 1
Heitz@@ 1
Hektische 1
Helen 1
Helicopter 1
Helik@@ 1
Heller 1
Hello 1
Helm@@ 1
Hen@@ 1
Henc@@ 1
Heng@@ 1
Hens@@ 1
Herald 1
Herg@@ 1
Hert@@ 1
Herzog 1
Hessler 1
Het 1
Het@@ 1
Heu@@ 1
Hewlet@@ 1
Heyberger 1
Hezbollah 1
Hicks 1
Hid@@ 1
Hiebel 1
Hige@@ 1
High-@@ 1
Hill@@ 1
Hilli@@ 1
Him@@ 1
Hin@@ 1
Hina 1
Hing@@ 1
Hipp@@ 1
Hiro@@ 1
Hirsch@@ 1
Histori@@ 1
Hixon 1
Hlin@@ 1
Hoch@@ 1
Hoeffler 1
Hoenner 1
Hoffer 1
Hoffer@@ 1
Hoffman 1
Hohat@@ 1
Hohneck 1
Holding 1
Holiday 1
Holl@@ 1
Honneur 1
Horiz@@ 1
Hors 1
Hos@@ 1
Hossa 1
Hostell@@ 1
Houston 1
Howard 1
Hua@@ 1
Hubler 1
Hubsch@@ 1
Hud@@ 1
Hue@@ 1
Hugen@@ 1
Huizenga 1
Hull 1
Hup@@ 1
Husain 1
Huées 1
Hy@@ 1
Hym@@ 1
Hyper@@ 1
HÉ@@ 1
Hän@@ 1
Hél@@ 1
Hélè@@ 1
Héric@@ 1
Hêtre 1
Hô@@ 1
Hö@@ 1
I.@@ 1
IA 1
IC 1
IE 1
IE@@ 1
IED 1
IEN@@ 1
IER 1
IES 1
IEUX 1
IFT@@ 1
IGA 1
IIe 1
IK 1
IL 1
IN 1
INAO 1
INBOURG.- 1
INCENDI@@ 1
INFO 1
INGEN 1
INHAR@@ 1
INS 1
INT 1
INT-@@ 1
INÉE 1
IQ@@ 1
IR 1
IS 1
ISI 1
ISL@@ 1
ISLAMABAD 1
IT@@ 1
ITH 1
IXO 1
Ian 1
Ianou@@ 1
Ibn 1
Ibra@@ 1
Ice 1
Ich@@ 1
Idole 1
Idr@@ 1
Idra@@ 1
Ier 1
Ihr 1
Ike@@ 1
Ilias 1
Ily@@ 1
Ilya 1
Imm@@ 1
Immigration 1
Imp@@ 1
Implic@@ 1
Imran 1
Inclass@@ 1
Incroy@@ 1
Indiana 1
Indien 1
Individu@@ 1
Industries 1
Indépendant 1
Infir@@ 1
Infl@@ 1
Info@@ 1
Infr@@ 1
Ingold 1
Iniesta 1
Inmplic@@ 1
Innov@@ 1
Ino@@ 1
Inquisition 1
Insam 1
Insep 1
Insight 1
Institutes 1
Instr@@ 1
Intelligence 1
Interfax 1
Intergénération 1
Internationale 1
Internationalen 1
Internet@@ 1
Interpell@@ 1
Interpol 1
Interreg 1
Intervenir 1
Intol@@ 1
Intoxic@@ 1
Intro@@ 1
Inté@@ 1
Inutile 1
Investi@@ 1
Investment 1
Investments 1
Investors 1
Inés 1
Iouch@@ 1
Iouri 1
Ipar@@ 1
Ipso@@ 1
Iran@@ 1
Irion 1
Iron@@ 1
Irwin 1
Isa@@ 1
Isaf 1
Isaïe 1
Isen@@ 1
Island@@ 1
Islanders 1
Isleta 1
Ismaïl 1
Isoli@@ 1
Isra@@ 1
Istanbul 1
It 1
Ivest 1
Izard 1
J.J. 1
J.P. 1
JAC 1
JATP 1
JB@@ 1
JC@@ 1
JD@@ 1
JIRS 1
JM@@ 1
JNA 1
JO 1
JO@@ 1
JOU@@ 1
JOUR@@ 1
Ja 1
Jack@@ 1
Jackson 1
Jacobs 1
Jacqu@@ 1
Jacquem@@ 1
Jacques-@@ 1
Jae@@ 1
Jaguar 1
Jais@@ 1
Jak@@ 1
Jake 1
Jan@@ 1
Jane 1
Janet 1
Jap@@ 1
Japan 1
Jar@@ 1
Jared 1
Jaros@@ 1
Jarry 1
Jaur@@ 1
Jav@@ 1
Javed 1
Jaw@@ 1
Jazz@@ 1
Jean-Christophe 1
Jean-Claude-@@ 1
Jean-David 1
Jean-Do 1
Jean-Duceppe 1
Jean-Eff@@ 1
Jean-Emmanuel 1
Jean-Fernand 1
Jean-Georges 1
Jean-Guih@@ 1
Jean-Hughes 1
Jean-March@@ 1
Jean-My@@ 1
Jean-Pascal 1
Jean-Rasser 1
Jean-Richard 1
Jean-Roland 1
Jean-sur-@@ 1
Jeanic 1
Jeantet 1
Jed 1
Jede 1
Jeder 1
Jehan 1
Jehangir 1
Jel@@ 1
Jem@@ 1
Jennifer 1
Jenny 1
Jens 1
Jeremy 1
Jerry 1
Jets 1
Jim@@ 1
Jing 1
Jingle 1
Jitten 1
Joan 1
Joanny 1
Joc@@ 1
Jodh@@ 1
Jodoin 1
Joel 1
Joghurt 1
Johan 1
Johann 1
Johannesburg 1
Johansen 1
John' 1
Johr 1
Joie 1
Jolie 1
Joliette 1
Joly 1
Jon@@ 1
Jor@@ 1
Jord@@ 1
Jorgen 1
Jos 1
Joschka 1
Josef 1
Josette 1
Josi@@ 1
Jospin 1
Jost 1
José@@ 1
Jota 1
Jour 1
Journ@@ 1
Jovan@@ 1
Joyeuse 1
Joyeux 1
Joël 1
Ju-y@@ 1
Juan 1
Jubil@@ 1
Jud@@ 1
Jude 1
Jugnot 1
Jugoslaw@@ 1
Juke 1
Juli 1
Juli@@ 1
Julia 1
Julio 1
Jun 1
Jund 1
Juno 1
Justine 1
Juteau 1
Jyoti 1
Jän@@ 1
Jég@@ 1
Jér@@ 1
Jör@@ 1
K. 1
K.-@@ 1
K1 1
KALT@@ 1
KAR@@ 1
KEM@@ 1
KIL@@ 1
KIR@@ 1
KLE@@ 1
KN@@ 1
KNO@@ 1
KO 1
KPM@@ 1
KUS@@ 1
KV 1
KWILLER 1
Ka@@ 1
Kabe@@ 1
Kae@@ 1
Kag@@ 1
Kaid 1
Kaida 1
Kaim 1
Kaka 1
Kam@@ 1
Kane 1
Kanga 1
Kanou@@ 1
Kapp@@ 1
Kari 1
Karin 1
Karz@@ 1
Kashmir 1
Kast@@ 1
Kate 1
Kater@@ 1
Kath@@ 1
Kati@@ 1
Katie 1
Katrina 1
Kauf@@ 1
Kaus 1
Kay 1
Kay@@ 1
Kazakh 1
Kazakh@@ 1
Kaï@@ 1
Ke@@ 1
Keck 1
Kell@@ 1
Kelly 1
Kemb@@ 1
Kenc@@ 1
Kent 1
Kenyans 1
Kep@@ 1
Keren 1
Kert@@ 1
Kess@@ 1
Kessel 1
Kessler 1
Ket@@ 1
Keu@@ 1
Khab@@ 1
Khai@@ 1
Khim@@ 1
Kid@@ 1
Kidman 1
Kids 1
Kikuy@@ 1
Kil@@ 1
Kim 1
Kim@@ 1
Kimmel 1
Kind 1
Kind@@ 1
King@@ 1
Kingsley 1
Kip@@ 1
Kirchner 1
Kiss 1
Kister 1
Kit@@ 1
Kla@@ 1
Klich@@ 1
Klim@@ 1
Klin@@ 1
Kline 1
Klé@@ 1
Knapp 1
Kness@@ 1
Knicks 1
Knight 1
Kno@@ 1
Kobe 1
Koc@@ 1
Kod@@ 1
Koehl 1
Koell 1
Koenig@@ 1
Koetz@@ 1
Kof@@ 1
Kooperation 1
Kors@@ 1
Koso@@ 1
Kost 1
Kosâl 1
Kovalchuk 1
Kr@@ 1
Kramer 1
Kre@@ 1
Kress 1
Kreu@@ 1
Krit@@ 1
Kriv@@ 1
Kron@@ 1
Kry@@ 1
Kul@@ 1
Kun@@ 1
Kurdistan 1
Kurs 1
Kyodo 1
Käu@@ 1
Kéchi@@ 1
Kév@@ 1
Köp@@ 1
L.@@ 1
L1 1
LAU@@ 1
LCF 1
LCP 1
LD 1
LD@@ 1
LE@@ 1
LEG@@ 1
LENHEIM 1
LEU@@ 1
LG 1
LIM@@ 1
LK 1
LLC 1
LMBO 1
LO@@ 1
LOUIS 1
LQ 1
LS@@ 1
LSU 1
LTZ@@ 1
LUN@@ 1
LY@@ 1
La-@@ 1
Labbé 1
Labor 1
Labour 1
Lach@@ 1
Lae@@ 1
Laff@@ 1
Lai@@ 1
Laine 1
Lak@@ 1
Laker 1
Lakers 1
Lali@@ 1
Lalle 1
Lama 1
Lamb 1
Lamb@@ 1
Lancé 1
Lande 1
Lang@@ 1
Lanka 1
Lansing 1
Larg@@ 1
Largo 1
Largue 1
Larry 1
Larti@@ 1
Las 1
Las@@ 1
Lasser@@ 1
Lateinameri@@ 1
Latra 1
Laurel 1
Laurence 1
Lauro 1
Lauter@@ 1
Lavrov 1
Law 1
Law@@ 1
Layne 1
Layton 1
LeClair 1
LeFev@@ 1
Leader 1
Leben 1
Leber 1
Lebert 1
Leblanc 1
Lechner 1
Leclaire 1
Lecoq 1
Led@@ 1
Leeu@@ 1
Lehmann 1
Lehn 1
Lei@@ 1
Leicht 1
Leidwesen 1
Lein@@ 1
Leipzig 1
Leises 1
Leite 1
Leiter@@ 1
Lem@@ 1
Lemb@@ 1
Leng@@ 1
Lenjoint 1
Leno 1
Lens 1
Lentz 1
Lep@@ 1
Lequel 1
Ler@@ 1
Lero@@ 1
Let 1
Let@@ 1
Letterman 1
Lev@@ 1
Lever 1
Leverkus@@ 1
Lewin@@ 1
Lhe@@ 1
Li 1
Lib@@ 1
Librairie 1
Liby@@ 1
Libé@@ 1
Licenci@@ 1
Lich@@ 1
Lick@@ 1
Lid@@ 1
Lider 1
Lieder 1
Lieu 1
Lieve 1
Lil@@ 1
Lilas 1
Lili@@ 1
Lina 1
Lincoln 1
Linden 1
Line 1
Lirette 1
Lis@@ 1
Lisi@@ 1
List 1
Liste 1
Liter@@ 1
Lithi@@ 1
Liu 1
Liv@@ 1
Livni 1
Liéb@@ 1
Lo 1
Lob@@ 1
Loc@@ 1
Loegel 1
Loehr 1
Lof@@ 1
Log 1
Log@@ 1
Loigerot 1
Loin 1
Loisirs 1
Loizeau 1
Lolita 1
Lond@@ 1
Long@@ 1
Lossel 1
Lot 1
Lot-et-@@ 1
Lot@@ 1
Loterbach 1
Lou 1
Loumachi 1
Lourdes 1
Louv@@ 1
Low@@ 1
Loyal 1
Lubeck 1
Luchini 1
Lucia 1
Luciano 1
Lud@@ 1
Lui-même 1
Lulu 1
Lum@@ 1
Lumières 1
Lun@@ 1
Lune 1
Lunes 1
Lupul 1
Lur@@ 1
Luyin@@ 1
Ly 1
Lyne 1
Lys 1
Là-@@ 1
Lâder@@ 1
Lä@@ 1
Länder 1
Lénine 1
Léo 1
Lö@@ 1
M' 1
M6 1
MAC@@ 1
MAI 1
MAM 1
MB@@ 1
MES@@ 1
MG 1
MIL@@ 1
MIN@@ 1
MINGEN 1
MIT@@ 1
MK@@ 1
MKS 1
MLC 1
MM 1
MMS 1
MNR 1
MO@@ 1
MON 1
MON@@ 1
MOND@@ 1
MOR@@ 1
MOU@@ 1
MSA 1
MSF 1
MSG 1
MU@@ 1
MVP 1
MWS 1
MY@@ 1
Maale 1
Machi 1
Macro@@ 1
Made 1
Made@@ 1
Madeline 1
Madonna 1
Maech@@ 1
Maesani 1
Maf@@ 1
Maine 1
Mais@@ 1
Maisons 1
Majolic@@ 1
Major 1
Majuscule 1
Make 1
Makh@@ 1
Mal-@@ 1
Mall 1
Mam@@ 1
Maman 1
Mammo@@ 1
Management 1
Manc@@ 1
Mandalay 1
Manel 1
Manitob@@ 1
Manny 1
Mano 1
Manoir 1
Manouane 1
Mansfield 1
Mansur 1
Manu 1
Manuel 1
Manufac@@ 1
Maquis@@ 1
Mara 1
Marcelle 1
Marché-aux-@@ 1
Marconn@@ 1
Marcot 1
Marcou@@ 1
Marek 1
Marga 1
Margalit 1
Margot 1
Marie-aux-Mines 1
Marina 1
Marine 1
Marino 1
Marja 1
Marke 1
Market 1
Markets 1
Markstein 1
Markt 1
Marly@@ 1
Marmil@@ 1
Marne 1
Marois 1
Marquez 1
Marqui@@ 1
Marr@@ 1
Marrow 1
Marse@@ 1
Marston 1
Martens 1
Martha 1
Martha' 1
Marthe 1
Martin@@ 1
Martinon 1
Martyr@@ 1
Martz 1
Marv 1
Mary@@ 1
Maryland 1
Maréch@@ 1
Mason 1
Massi@@ 1
Mat 1
Mathi@@ 1
Mati@@ 1
Mats 1
Mattel 1
Matthew 1
Matthi@@ 1
Matti 1
Maxwell 1
Maya 1
Mazda 1
Maé 1
McBride 1
McCann 1
McDon@@ 1
McGill 1
McKay 1
McKe@@ 1
McLaren 1
McMaster 1
McN@@ 1
McPherson 1
McQueen 1
Meadows 1
Mec@@ 1
Meer 1
Megast@@ 1
Mehn 1
Meilleur 1
Mein 1
Meisels 1
Meistr@@ 1
Melis@@ 1
Mem@@ 1
Mend@@ 1
Mendoza 1
Menge 1
Mens@@ 1
Mental 1
Mer 1
Merc 1
Merc. 1
Merced@@ 1
Mercedes 1
Mercier 1
Mercière 1
Mercredis 1
Meredith 1
Merian 1
Meriem 1
Merimi 1
Merina-@@ 1
Merlebach 1
Mertz 1
Merxheim 1
Messes 1
Messner 1
Meter 1
Metro 1
Mettre 1
Meunier 1
Meuniers 1
Meur@@ 1
Meuse 1
Mev@@ 1
Mex@@ 1
Mi-@@ 1
Michal 1
Michalon 1
Michaux 1
Miche@@ 1
Michel-@@ 1
Michelbach 1
Michelle 1
Michot 1
Michée 1
Micro@@ 1
Microsoft 1
Mid@@ 1
Midi 1
Mieten 1
Migr@@ 1
Mijoteuses 1
Mik@@ 1
Mika 1
Mikh@@ 1
Militaire 1
Millet 1
Milli@@ 1
Million 1
Mills 1
Milwaukee 1
Min-soon 1
Minderjährigen 1
Minet 1
Mini@@ 1
Minni 1
Minutes 1
Miquelon 1
Mir@@ 1
Mira 1
Miranda 1
Miro 1
Miroir 1
Miroslav 1
Mis 1
Mises 1
Mist@@ 1
Mitchell 1
Mittal 1
Miz@@ 1
Mk@@ 1
Mobili@@ 1
Mochel 1
Mode 1
Modem 1
Moder 1
Moder@@ 1
Modeste 1
Modri@@ 1
Modèle 1
Moegl@@ 1
Moench 1
Moilime 1
Moko@@ 1
Moll@@ 1
Molsheim-@@ 1
Monaghan 1
Moncton 1
Mond 1
Monday 1
Monhardt 1
Monica 1
Monika 1
Monopoly 1
Mons 1
Montan@@ 1
Montel 1
Morand 1
Morel 1
Morelle 1
Morelli 1
Morgan 1
Morris@@ 1
Mors@@ 1
Mort 1
Mos@@ 1
Moser 1
Mosqu@@ 1
Mostaf@@ 1
Motherwell 1
Motif 1
Motion 1
Mott 1
Moun@@ 1
Mour@@ 1
Mout@@ 1
Movie 1
Mpshe 1
Muespach 1
Muham@@ 1
Muhr 1
Mukherjee 1
Mulhou@@ 1
Mulhouse@@ 1
Mulroney 1
Multi-@@ 1
Multi@@ 1
Mundi 1
Munier 1
Muriel 1
Murphy 1
Musiques 1
Muslim@@ 1
Muss@@ 1
Mustang 1
Mustap@@ 1
Musulmane 1
Musées 1
Mut 1
Mutu@@ 1
Mw@@ 1
MySpace 1
MÉ@@ 1
Mäd@@ 1
Mär@@ 1
Mère 1
Méchant 1
Még@@ 1
Mén@@ 1
Méri@@ 1
Méti@@ 1
Métr@@ 1
Möl@@ 1
Müet 1
Müh@@ 1
N1 1
NAI 1
NAS@@ 1
NASA 1
NAT 1
NC 1
NE 1
NES 1
NH@@ 1
NIH 1
NIST 1
NMP@@ 1
NY 1
Nadal 1
Nadia 1
Nago@@ 1
Nains 1
Naissance 1
Nan@@ 1
Nanc@@ 1
Nand@@ 1
Nanny 1
Nany@@ 1
Nappe@@ 1
Nar@@ 1
Nas@@ 1
Nasdaq 1
Nash 1
Nashville 1
Nast 1
Nath@@ 1
Nati@@ 1
Nation 1
Nation@@ 1
Natu@@ 1
Nature 1
Nau@@ 1
Navig@@ 1
Ndint@@ 1
Ndlr 1
Nebah@@ 1
Nebbia 1
Neben 1
Ned@@ 1
Negro 1
Neiges 1
Neil 1
Neilsen 1
Nelson 1
Nem@@ 1
Nemb@@ 1
Nen@@ 1
Nep@@ 1
Ner@@ 1
Nessel 1
Nessler 1
Netscape 1
Network 1
Neunhoffen 1
Nevada 1
New@@ 1
Newton 1
Ngage 1
Ngar@@ 1
Ngass@@ 1
Ni 1
Nia 1
Nicaise 1
Nich@@ 1
Nick@@ 1
Nico 1
Nicot 1
Nid 1
Nielsen 1
Night 1
Nikolai 1
Nil 1
Nina 1
Ning@@ 1
Nintendo 1
Nis@@ 1
Niss@@ 1
Nitt 1
Noah 1
Nobel 1
Nobé@@ 1
Noctur@@ 1
Noeg@@ 1
Noire 1
Noires 1
Noirs 1
Noisy-@@ 1
Nokia 1
Nolan 1
Norbourg 1
Nord@@ 1
Nordic 1
Nordiques 1
Nori 1
Normal 1
Normalement 1
Norman 1
Normand 1
Norrena 1
Noruz 1
Notes 1
Noth 1
Nothalten 1
Noto-@@ 1
Notons 1
Novak 1
Nove 1
Novembre 1
Novi 1
Noë@@ 1
Nrisach 1
Nsang@@ 1
Nuggets 1
Nul 1
Nulle 1
Number 1
Nur 1
Nuss 1
NÈ@@ 1
Nés 1
O.@@ 1
OAK 1
OAT 1
OBER@@ 1
OCAM 1
ODER 1
ODR@@ 1
OE@@ 1
OEN@@ 1
OER@@ 1
OFF@@ 1
OJET 1
OK@@ 1
OL@@ 1
OMS 1
OND@@ 1
OO@@ 1
OPA 1
OPE@@ 1
OPS 1
OSF 1
OU 1
OUS@@ 1
Oats 1
Ob 1
Objec@@ 1
Observer 1
Oc 1
Och@@ 1
Oco@@ 1
Octavio 1
Octob@@ 1
Océ@@ 1
Od@@ 1
Ode 1
Odr@@ 1
Offic@@ 1
Og@@ 1
Ohlun@@ 1
Ohren 1
Ohé 1
Ois@@ 1
Oise 1
Ok 1
Oklahoma 1
Omar 1
Oper@@ 1
Opposition 1
Oppé 1
Oprah 1
Options 1
Opé@@ 1
Orang@@ 1
Orange 1
Oratorio 1
Orchard 1
Orford 1
Orgues 1
Ori@@ 1
Orient 1
Orig@@ 1
Orlando 1
Orly-@@ 1
Ormeaux 1
Orn@@ 1
Orpail@@ 1
Orphelinat 1
Orschwiller 1
Ortme@@ 1
Oru@@ 1
Oruma 1
Oser@@ 1
Osh@@ 1
Osim 1
Osk@@ 1
Oss@@ 1
Oster@@ 1
Otan 1
Otis 1
Ott@@ 1
Ous@@ 1
Outre-@@ 1
Ovali@@ 1
Ovi 1
Ox@@ 1
Ozan 1
PAB@@ 1
PAI 1
PAN@@ 1
PAU@@ 1
PCF 1
PCT 1
PF 1
PFI@@ 1
PFR@@ 1
PGM 1
PI 1
PIN 1
PIT@@ 1
PM 1
PM@@ 1
PMC 1
PML-@@ 1
PNU 1
POL 1
POR@@ 1
PP@@ 1
PS@@ 1
PSA 1
Pab@@ 1
Pac 1
Pac@@ 1
Pach@@ 1
Paci@@ 1
Pacte 1
Paddy 1
Padel@@ 1
Pado@@ 1
Pag@@ 1
Pagli@@ 1
Pagé 1
Pai@@ 1
Pajot 1
Pakist@@ 1
Palaci@@ 1
Palis@@ 1
Palma 1
Palmarès 1
Palmes 1
Palästin@@ 1
Pam@@ 1
Panasonic 1
Pant@@ 1
Paolacci 1
Pape 1
Paper 1
Papou 1
Paquet 1
Paquette 1
Parall@@ 1
Parc-@@ 1
Pareille 1
Parent 1
Parents 1
Parité 1
Parlez-@@ 1
Paro@@ 1
Parquet 1
Part@@ 1
Partei 1
Partenkir@@ 1
Partner 1
Party 1
Path@@ 1
Pau-Or@@ 1
Paul@@ 1
Pauleta 1
Paulette 1
Paulo 1
Pauzé 1
Pav@@ 1
Pavarotti 1
Pavlovic 1
Pavo@@ 1
Pax@@ 1
Pay@@ 1
Paye 1
Payer 1
Pearl 1
Pec@@ 1
Pedro 1
Peggy 1
Peking 1
Pel@@ 1
Pell@@ 1
Pellegrino 1
Pend@@ 1
Pengu@@ 1
Penn@@ 1
Pens@@ 1
Pense@@ 1
Pent@@ 1
Pep 1
Percé 1
Perdomo 1
Perego 1
Permettant 1
Permettez-@@ 1
Permettre 1
Permir@@ 1
Perner 1
Perpign@@ 1
Perron 1
Perrot 1
Perse 1
Persique 1
Person@@ 1
Perspective 1
Persépolis 1
Petite-@@ 1
Petr@@ 1
Petra 1
Petro-@@ 1
Petry 1
Peyton 1
Pfa@@ 1
Pfaff@@ 1
Pfar@@ 1
Pfau@@ 1
Pfe@@ 1
Phal@@ 1
Phar@@ 1
Phase 1
Phi@@ 1
Phil 1
Phili@@ 1
Philips 1
Phillips 1
Phoenix 1
Phonak 1
Photo@@ 1
Piaf 1
Pic 1
Picasso 1
Pictures 1
Pie@@ 1
Piemont 1
Piero 1
Pieter 1
Pietremont 1
Pige@@ 1
Pigeon 1
Pign@@ 1
Pil@@ 1
Pill@@ 1
Pilleux 1
Pins 1
Pinto 1
Pioger 1
Piotr 1
Pirlo 1
Pister 1
Pitiot 1
Pivot 1
Pixar 1
Pièce 1
Piém@@ 1
Pla@@ 1
Places 1
Placée 1
Plaines 1
Plaisir 1
Plan@@ 1
Planche 1
Planet 1
Plantée 1
Plate@@ 1
Play 1
Playboy 1
Ple@@ 1
Pleming 1
Pli@@ 1
Plo@@ 1
Pluri@@ 1
Pléiade 1
Podere 1
Poe 1
Poelvo@@ 1
Poi@@ 1
Poincar@@ 1
Pointe-@@ 1
Points 1
Poissons 1
Poiti@@ 1
Poker 1
Poland 1
Politkovsk@@ 1
Pomp@@ 1
Poor@@ 1
Porto 1
Ports 1
Portsmouth 1
Positifs 1
Post 1
Post@@ 1
Pot-au-@@ 1
Potel 1
Potes 1
Pothier 1
Pouch@@ 1
Poul@@ 1
Pour@@ 1
Pouti@@ 1
Power@@ 1
Poyet 1
Pr 1
Pragmar 1
Pratique 1
Pratiquement 1
Praud 1
Preis 1
Preisanpass@@ 1
Premier@@ 1
Pren@@ 1
Prest 1
Prevost 1
Prime@@ 1
Primeurs 1
Prince-@@ 1
Princes 1
Princip@@ 1
Printemps 1
Priorité 1
Pris 1
Prius 1
Priv@@ 1
Private 1
Prié 1
ProB 1
Prober 1
Problem@@ 1
Prochaine 1
Prodomo 1
Produ@@ 1
Productions 1
Professi@@ 1
Progressi@@ 1
Projection 1
Projet 1
Pronith 1
Propag@@ 1
Property 1
Prospal 1
Prote@@ 1
Protest 1
Proulx 1
Proven@@ 1
Providence 1
Province 1
Pru@@ 1
Prés 1
Présidence 1
Psych@@ 1
Puc@@ 1
Pue@@ 1
Pul@@ 1
Pum@@ 1
Punjab 1
Pur@@ 1
Put@@ 1
Py@@ 1
Pères 1
Pédi@@ 1
Pér@@ 1
Péri@@ 1
Pét@@ 1
Péti@@ 1
QUE 1
Qab@@ 1
Qaida 1
Qualcomm 1
Quarante 1
Quart 1
Quartal 1
Quarti@@ 1
Quartier 1
Quatuor 1
Quel@@ 1
Quelles 1
Quels 1
Quentin 1
Quimper 1
Quin@@ 1
Quoique 1
Québéco@@ 1
R.@@ 1
R2 1
R2@@ 1
R62 1
RAC@@ 1
RAM@@ 1
RAN@@ 1
RANG@@ 1
RATION 1
RBOURG 1
RCA 1
RD@@ 1
RFI@@ 1
RFO@@ 1
RHEIN 1
RIM 1
RIS@@ 1
RL@@ 1
RMI@@ 1
RN 1
RPG 1
RPI 1
RS 1
RS@@ 1
RTC 1
RU@@ 1
RV 1
RX 1
RX@@ 1
Ra@@ 1
Rach@@ 1
Rafi@@ 1
Rai@@ 1
Rajasthan 1
Ralph 1
Ramirez 1
Ran@@ 1
Rand@@ 1
Rank 1
Rann@@ 1
Rant@@ 1
Rar@@ 1
Ras@@ 1
Rass@@ 1
Rath@@ 1
Raul 1
Raut@@ 1
Raven 1
Ray@@ 1
Raz@@ 1
Reagan 1
Real 1
Rebel 1
Rec@@ 1
Recep 1
Rechnung 1
Recommand@@ 1
Reconnu 1
Recu@@ 1
Rede 1
Reebo@@ 1
Reef 1
Reeves 1
Refaire 1
Refle@@ 1
Refus@@ 1
Regar@@ 1
Regel@@ 1
Regev 1
Rehm 1
Rei@@ 1
Reillon 1
Reilly 1
Reims 1
Reims6@@ 1
Rein@@ 1
Reine 1
Reisende 1
Reitman 1
Reitzer 1
Rel@@ 1
Relief 1
Remarqu@@ 1
Renc@@ 1
Renn@@ 1
Rent@@ 1
Renter 1
Repas 1
Repos 1
Requi@@ 1
Requill@@ 1
Rescue 1
Resetka 1
Respe@@ 1
Respir@@ 1
Ress@@ 1
Restaurant 1
Resti@@ 1
Ret@@ 1
Rev@@ 1
Revoir 1
Revolution 1
Rex@@ 1
Reyn@@ 1
Rg@@ 1
Rhe@@ 1
Rhein 1
Rhode 1
Rhén@@ 1
Rhô@@ 1
Ribeiro 1
Riboule@@ 1
Rice 1
Richards 1
Richelieu 1
Rico 1
Ried@@ 1
Rieffel 1
Riemer 1
Ries@@ 1
Riess 1
Rihanna 1
Riner 1
Rios 1
Rip@@ 1
Rise 1
Risk 1
Risser 1
Rist 1
Rit@@ 1
Ritter 1
Ritu@@ 1
Rives 1
Rivi@@ 1
Rmistes 1
Road 1
Robert@@ 1
Roberts 1
Robes 1
Robien 1
Robinson 1
Robitaille 1
Roc@@ 1
Roche 1
Roches 1
Rockville 1
Rod 1
Rod@@ 1
Rodri@@ 1
Rodéo 1
Roessel 1
Rohn 1
Roissy@@ 1
Rol@@ 1
Rolin 1
Roll@@ 1
Rolling 1
Rom 1
Roman@@ 1
Romans 1
Romy 1
Ronaldinho 1
Ronaldo 1
Ronan 1
Rond@@ 1
Room 1
Roquet@@ 1
Ros 1
Ros@@ 1
Rosa 1
Rosalind 1
Rose@@ 1
Rosier 1
Rost-@@ 1
Roste@@ 1
Rostislav 1
Roten 1
Rotenberg 1
Roth-@@ 1
Rotkreu@@ 1
Roton@@ 1
Roun@@ 1
Rous@@ 1
Roux 1
Rover 1
Rovers 1
Roy@@ 1
Rozon 1
Rubin 1
Run 1
Rush 1
Ruth 1
Rwanda 1
Ry@@ 1
Réal 1
Réalistes 1
Réaumur 1
Récit 1
Récompensés 1
Récréation 1
Rédemption 1
Réfléch@@ 1
Référence 1
Rég@@ 1
Régie 1
Réguisheim 1
Réjouissant 1
Rémi 1
Rémy 1
Réparatrice 1
Républic@@ 1
Réserv@@ 1
Réserve 1
Réserves 1
Réunionnais 1
Réussir 1
Rêve 1
Rös@@ 1
Rück@@ 1
S.@@ 1
SA 1
SAL@@ 1
SAN@@ 1
SANS 1
SAR@@ 1
SBR 1
SBR@@ 1
SC@@ 1
SCEA 1
SDORF 1
SED 1
SER@@ 1
SF 1
SF@@ 1
SGE 1
SHAR@@ 1
SHEIM.- 1
SID@@ 1
SJ@@ 1
SMU@@ 1
SN 1
SN@@ 1
SO 1
SON 1
SOND@@ 1
SP@@ 1
SPORT 1
SPS 1
SQ 1
SR@@ 1
ST 1
STEIN 1
STEIN@@ 1
STI 1
SUN@@ 1
SV 1
SW@@ 1
Saad 1
Sabrina 1
Sac@@ 1
Sach@@ 1
Sad 1
Sad@@ 1
Sags 1
Saguen@@ 1
Saint-Amarin 1
Saint-Bas@@ 1
Saint-Bernard 1
Saint-Cath@@ 1
Saint-Charles 1
Saint-Denis 1
Saint-Eu@@ 1
Saint-Flor@@ 1
Saint-Gabriel 1
Saint-Grégoire 1
Saint-Henri 1
Saint-Hipp@@ 1
Saint-Jacques 1
Saint-Joachim 1
Saint-Just 1
Saint-Jérôme 1
Saint-Léger 1
Saint-Léonard 1
Saint-Marie 1
Saint-Mathi@@ 1
Saint-Oct@@ 1
Saint-Paul 1
Saint-Peters@@ 1
Saint-Romain 1
Saint-Rémi 1
Saint-Si@@ 1
Saint-Sul@@ 1
Saint-Thi@@ 1
Saint-Vin@@ 1
Saint-Wal@@ 1
Saint-Étienne 1
Saints@@ 1
Sais@@ 1
Saisons 1
Sakharov 1
Sakic 1
Saleh 1
Sally 1
Salt 1
Sand@@ 1
Sander 1
Sandy 1
Sanni@@ 1
Sans-@@ 1
Santa 1
Santi@@ 1
Santiago 1
Sao 1
Sara 1
Sarcelles 1
Sarko 1
Sarlat 1
Sarnia 1
Saroia 1
Sarre@@ 1
Sarreguem@@ 1
Sarrouyes 1
Sartre 1
Sat@@ 1
Saturnales 1
Saut 1
Saver@@ 1
Savo@@ 1
Say@@ 1
Sayed 1
Scagn@@ 1
Scal@@ 1
Scar@@ 1
Scarface 1
Schaal 1
Schabis 1
Schadenser@@ 1
Schaeff@@ 1
Schaff@@ 1
Scharren@@ 1
Schatt 1
Schauenberg 1
Schelly 1
Schencken@@ 1
Schert@@ 1
Schil@@ 1
Schillersdorf 1
Schilling 1
Schillé 1
Schlach@@ 1
Schlag@@ 1
Schleg@@ 1
Schlei@@ 1
Schli@@ 1
Schließ@@ 1
Schlo@@ 1
Schlucht 1
Schmal@@ 1
Schmid 1
Schmiederer 1
Schmit@@ 1
Schmuck 1
Schmut@@ 1
Schnab@@ 1
Schno@@ 1
Schnée 1
Schoffweg 1
Schon 1
Schongauer 1
School 1
Schopper@@ 1
Schranko 1
Schre@@ 1
Schreiber 1
Schric@@ 1
Schrif@@ 1
Schrit@@ 1
Schro@@ 1
Schrö@@ 1
Schul@@ 1
Schum@@ 1
Schuman 1
Schutz 1
Schwarzenegger 1
Sci@@ 1
Scooter 1
Scr@@ 1
Scu@@ 1
Sean 1
Seasons 1
Seattle 1
Secon@@ 1
Secov@@ 1
Section 1
Securities 1
Sed@@ 1
See 1
See@@ 1
Seef@@ 1
Segui 1
Seher 1
Seid@@ 1
Seigner 1
Seillant 1
Sein 1
Seine-@@ 1
Seinfeld 1
Seit 1
Seiten 1
Seize 1
Semin@@ 1
Send@@ 1
Seng@@ 1
Seniors 1
Senn@@ 1
Sens 1
Senti@@ 1
Seppo@@ 1
Seppois-@@ 1
Sept-Arpents 1
Septembre 1
Serbiens 1
Serge@@ 1
Series 1
Sermersheim 1
Serral@@ 1
Serred@@ 1
Servez-@@ 1
Services 1
Sessenheim 1
Sevim 1
Sex 1
Seymour 1
Shalit 1
Shalom 1
Shawn 1
Shenzhen 1
Shiller 1
Shop 1
Shutt 1
Sic@@ 1
Sicili@@ 1
Siegel 1
Sig@@ 1
Signature 1
Sik@@ 1
Silence 1
Sill@@ 1
Simon@@ 1
Simone 1
Sind 1
Sind@@ 1
Sindh 1
Singap@@ 1
Singh 1
Sion 1
Sis@@ 1
Site 1
Sitter 1
Six-@@ 1
Ska 1
Ski-@@ 1
Skins 1
Sky 1
Sky@@ 1
Skype 1
Sl@@ 1
Slo@@ 1
Slov@@ 1
Sm@@ 1
Smi@@ 1
Smythe 1
Sn@@ 1
Sne@@ 1
Snoop 1
Snow 1
Snow@@ 1
So 1
Sob@@ 1
Sobre 1
Sochaux 1
Socotris 1
Soeurs 1
Sog@@ 1
Soilers 1
Sol@@ 1
Solo 1
Sond@@ 1
Sondheim 1
Song 1
Song@@ 1
Sonn@@ 1
Sooners 1
Sop@@ 1
Sophi@@ 1
Sot@@ 1
Soubrouillard 1
Soucieux 1
Soudain 1
Souhai@@ 1
Soultz@@ 1
Soupe 1
Sour@@ 1
Souriante 1
Sous-sol 1
Soussan 1
Southampton 1
Sow@@ 1
Sox 1
Soyons 1
Span@@ 1
Spart@@ 1
Spears 1
Spec@@ 1
Spect@@ 1
Spezza 1
Spi@@ 1
Spice 1
Spider@@ 1
Spielberg 1
Spon@@ 1
Sport@@ 1
Sportes 1
Spre@@ 1
[...]
