e n</w> 27370
e r 23740
e n 21518
e r</w> 20195
c h 19654
e s</w> 18558
a n 18227
i n 16168
d e</w> 13330
u n 12191
o n 11900
i s 11121
t i 10250
e i 9672
o u 9523
a u 9251
e s 9133
a r 8915
i e</w> 8722
l e</w> 8486
o n</w> 8089
t r 7821
t e</w> 7683
q u 7651
l i 7622
o r 7432
e l 6899
e u 6740
c h</w> 6651
a l 6461
a i 6297
d er</w> 5931
e m 5653
p r 5629
e t</w> 5178
l a</w> 5071
e in 5017
s i 4956
en t</w> 4832
r e</w> 4569
d ie</w> 4520
s t 4286
a t 4278
s ch 4249
d es</w> 4233
o m 4120
l es</w> 4082
i n</w> 3929
a g 3912
e t 3903
d en</w> 3849
d i 3758
r i 3662
a s</w> 3582
l '</w> 3554
o l 3535
a m 3417
u r 3311
a s 3255
a b 3213
un d</w> 3183
i l 3177
g e 3153
t en</w> 3126
r e 3032
v er 2944
d '</w> 2935
i t 2911
a ti 2898
qu e</w> 2723
c e</w> 2708
e h 2615
a v 2570
o i 2532
s e</w> 2506
t er 2495
n i 2477
g en</w> 2453
d u</w> 2438
d e 2428
a r</w> 2409
en t 2380
d é 2373
u s 2359
u n</w> 2356
an s</w> 2300
p l 2235
n e</w> 2220
a u</w> 2214
c on 2212
m i 2164
un g</w> 2156
ou r</w> 2137
a n</w> 2108
ch t</w> 2071
b e 2050
s u 2032
d er 2013
r o 2009
a h 2004
m e</w> 1983
f f 1937
un e</w> 1922
es t</w> 1906
an t</w> 1893
c i 1886
on t</w> 1848
ai t</w> 1837
é e</w> 1807
v i 1804
ou r 1793
a c 1788
f ü 1725
ch en</w> 1725
t er</w> 1723
ch e</w> 1695
ei n</w> 1693
p ar 1671
0 0 1661
em ent</w> 1659
r é 1647
tr e</w> 1641
t é</w> 1638
p our</w> 1602
r a 1567
l e 1539
t s</w> 1535
w i 1533
e l</w> 1530
v on</w> 1526
z u</w> 1504
p o 1497
r an 1491
ati on</w> 1471
pr o 1469
c om 1448
a l</w> 1426
u m</w> 1410
qu i</w> 1401
d ans</w> 1375
on s</w> 1368
b er 1362
g e</w> 1356
u s</w> 1356
eu r</w> 1353
mi t</w> 1343
ein e</w> 1337
a t</w> 1313
d as</w> 1312
au f</w> 1294
eu r 1274
is t</w> 1267
a in 1257
i s</w> 1251
2 00 1243
as s 1243
de m</w> 1234
i m 1217
g en 1213
c k 1213
S ch 1210
S t 1202
ti on</w> 1188
é s</w> 1183
fü r</w> 1179
si ch</w> 1174
a p 1167
v o 1158
au s 1154
n o 1152
on n 1148
u l 1146
i m</w> 1118
es t 1108
D ie</w> 1103
ni cht</w> 1099
i l</w> 1075
i er 1067
A n 1066
V er 1055
p ar</w> 1043
el l 1042
a f 1039
a ch 1039
h r 1034
e m</w> 1023
ai s</w> 1019
pr é 1014
a ch</w> 1012
u t 1012
w er 1012
o p 1010
g r 1008
au x</w> 1002
eur s</w> 1001
is t 996
ei t</w> 993
p i 992
el le</w> 992
b er</w> 987
s e 985
s er 970
a d 963
u r</w> 961
li ch</w> 954
eu x</w> 949
l o 944
l an 944
u m 941
en d 941
e b 935
t ou 921
an n 921
su r</w> 920
p er 918
qu '</w> 918
e x 905
al s</w> 904
ai re</w> 903
f or 896
a m</w> 895
t sch 891
is e</w> 882
p as</w> 880
é t 877
ol l 876
al l 872
oi s</w> 866
p or 861
ag e</w> 856
ä n 854
w ei 854
g es 853
ou v 853
om m 852
è s</w> 826
is s 822
r es</w> 819
h ab 816
é r 813
I n 808
g er</w> 806
g s 801
pl us</w> 796
i r 795
o t 785
s on</w> 785
è re</w> 784
l l 782
an n</w> 778
p u 777
b i 770
g er 769
L e</w> 768
d i</w> 767
es s 763
et z 758
e c</w> 755
au ch</w> 748
au s</w> 735
A u 730
an d 724
t es</w> 723
t u 717
m o 714
g i 712
s '</w> 710
r u 708
is chen</w> 708
em b 708
as s</w> 706
ei t 700
i t</w> 698
l u 698
m in 697
s s 684
R e 683
B e 683
a le</w> 678
C h 678
av ec</w> 677
ein er</w> 673
p e 669
P ro 669
ou s</w> 668
é té</w> 667
ein en</w> 664
t en 663
i e 659
wi r 655
s i</w> 652
w e 651
a li 649
g u 639
et te</w> 639
g t</w> 637
s ie</w> 636
g an 633
U n 631
o h 630
dé c 628
i h 624
eh r</w> 624
z i 622
d ass</w> 622
D er</w> 619
m ar 614
s t</w> 614
s o 612
n ach</w> 611
ein em</w> 610
ü r 608
M ar 606
200 7</w> 606
L es</w> 605
j e 605
s in 604
E r 602
d en 599
li e 598
s ag 597
ü n 594
an d</w> 593
un gen</w> 593
g l 589
f i 589
c es</w> 588
ah r 588
L a</w> 586
i ch 583
w ie</w> 583
t e 581
a g</w> 580
un gs 579
h ei 578
h at</w> 577
en s</w> 577
z u 576
f r 576
s es</w> 575
be i</w> 572
in e</w> 566
N o 565
n '</w> 564
c t 559
a k 557
ge b 554
é es</w> 550
vo r</w> 549
au f 547
m a 544
eu tsch 541
A l 540
h i 535
E n 535
A r 531
en tr 525
o b 523
b r 522
d u 521
tr i 521
ter n 521
oi r</w> 517
é c 512
w ar</w> 512
é n 511
s ont</w> 510
il li 510
ent s</w> 508
m en</w> 507
n en</w> 504
no ch</w> 504
é ri 502
wer den</w> 502
en s 500
in s</w> 499
m an 498
si on</w> 498
ä r 494
ai ent</w> 494
qu es</w> 493
D as</w> 491
a y 490
an ts</w> 490
P ar 489
t z 488
F ran 487
t s 486
i r</w> 484
t - 481
g el 477
1 9 477
er n</w> 476
sin d</w> 476
c k</w> 474
un d 469
il l 469
er s</w> 467
h al 464
G e 464
er t</w> 464
s a</w> 463
s o</w> 461
k l 461
ati on 460
ü ber</w> 459
st en</w> 458
E ur 457
r ei 456
is che</w> 454
3 0</w> 453
es se</w> 451
d o 450
v en 447
di es 447
o ff 446
I l</w> 444
w ar 444
com m 444
wir d</w> 443
v e</w> 442
S tr 440
j our 440
ch er</w> 439
é l 438
b es 437
m on 435
p e</w> 430
b l 429
g n 428
a is 427
w en 427
o u</w> 422
f in 421
B er 421
h at 420
ge h 420
b li 417
s tr 417
Q u 417
t em 412
pr ès</w> 412
d ur 411
ö r 410
hab en</w> 409
ab er</w> 408
b ei 406
v or 405
t ei 401
en d</w> 401
m ehr</w> 400
a ce</w> 398
ai n</w> 398
E in 395
m er</w> 394
P o 392
k omm 392
s ol 391
c u 390
c or 390
D i 390
d r 390
ë l</w> 390
ö n 390
c o 389
d eux</w> 389
en f 388
or s</w> 387
em i 387
at t 386
emb re</w> 386
a ff 384
an ce</w> 384
au t 384
A us 383
c ette</w> 382
F r 377
e - 376
d ent</w> 376
af t</w> 375
it t 374
0 0</w> 372
e p 371
L '</w> 371
r en 369
é g 369
V or 367
f er 367
par ti 367
ati ons</w> 366
k t</w> 365
n ur</w> 364
in g 364
n eu 363
m ais</w> 363
No ël</w> 362
s p 360
s en 360
tou t</w> 358
P r 357
b u 356
f t</w> 354
it é</w> 354
G es 353
ge w 351
1 0</w> 350
hei m</w> 349
m an</w> 348
f ait</w> 348
c ou 347
w ur 347
ain e</w> 346
d s</w> 345
R o 342
ä h 341
z um</w> 340
d is 340
b t</w> 339
el t</w> 339
po li 339
sag te</w> 339
K on 337
st ell 335
com me</w> 335
l eur</w> 334
ü ck 334
an der 333
o r</w> 332
s ou 332
is i 332
der ni 332
l er</w> 331
h er 329
ch er 329
tr es</w> 329
un i 328
al is 327
en tre</w> 325
c ti 324
c our 324
J ah 324
m ent</w> 324
vi er</w> 324
M on 323
n er</w> 322
ê me</w> 322
ri t 322
00 0</w> 322
in g</w> 321
k t 319
g ran 318
j ou 318
ge gen</w> 318
Pro z 317
en n 316
oi t</w> 316
g ar 314
l le</w> 313
p h 312
D eutsch 312
ai res</w> 312
pr i 312
s ein</w> 311
A b 311
pu is</w> 311
eh en</w> 310
t h 308
lan d</w> 308
s ti 307
in ter 307
il le</w> 307
av ait</w> 307
li chen</w> 304
si dent</w> 304
hat te</w> 304
per s 303
r es 302
il s</w> 302
z ei 301
k ön 301
i c 300
m er 300
com p 300
e au</w> 299
c tion</w> 299
ü ber 296
an t 296
pr emi 296
se i</w> 295
r em 294
ét ait</w> 294
p s</w> 292
s el 292
aus si</w> 292
min is 292
ag en</w> 291
ges ch 290
s ei 289
on en</w> 289
etz t</w> 289
g h 288
c l 287
s c 287
e ff 286
k en</w> 286
ar d</w> 286
m ême</w> 285
Eur o</w> 285
G r 283
m en 282
b en</w> 282
T h 282
ou ver 282
h o 281
qu i 281
d ar 280
d em 280
por t 280
o der</w> 277
a di 276
fü hr 275
wi e 275
Proz ent</w> 274
u e</w> 273
s - 273
ê tre</w> 272
al le</w> 272
eh r 271
u si 270
er n 270
1 8</w> 269
us s</w> 269
n ous</w> 268
po s 268
bi en</w> 268
p ass 267
l ä 267
m al</w> 266
b is</w> 265
k o 265
at en</w> 265
ab le</w> 265
pi el 265
de v 264
S ie</w> 263
n ouv 263
po si 263
déc embre</w> 263
eb en</w> 262
ann ée</w> 262
t et</w> 261
s or 261
e z</w> 260
g ro 259
al l</w> 259
der n</w> 259
o c 258
e ch 257
B und 257
en ce</w> 257
ti g</w> 257
au r 257
pu bli 256
é v 254
o s</w> 254
f ol 254
oi re</w> 254
p our 253
m é 253
m es</w> 253
en sch 253
hab e</w> 253
or d 252
h ä 251
au t</w> 251
ri ch 251
E n</w> 250
Z u 250
p f 249
e f</w> 249
I n</w> 248
2 0</w> 248
ahr en</w> 248
r et 247
w or 247
1 5</w> 247
i ch</w> 245
d am 245
ä ch 245
k ti 244
el les</w> 244
jour s</w> 244
z ur</w> 243
M illi 243
w w 243
un ter</w> 243
c '</w> 242
h r</w> 242
. . 242
li ch 242
t t 241
m e 240
f aire</w> 240
en de</w> 240
an z 239
o k 238
i g 238
i hr 238
d a 238
li che</w> 238
N ach 237
U S 237
in d 237
ci p 237
Au f 237
c r 236
s te</w> 235
J e 234
C '</w> 234
ß en</w> 234
ah l 234
g em 233
M e 233
en ne</w> 233
E s</w> 232
f on 232
oll en</w> 232
.. .</w> 232
an s 231
wi r</w> 230
S P 229
è res</w> 229
d eutsch 229
a î 227
m ü 227
m et 227
Po li 227
0 3</w> 226
j u 226
Bund es 226
e i</w> 225
j an 225
ein es</w> 225
is ch</w> 224
o s 223
z w 223
m at 222
f ois</w> 221
w as</w> 221
1 4</w> 221
on ne</w> 221
ss en</w> 221
f ran 220
is te</w> 220
ni s</w> 220
wur de</w> 220
2 0 219
e v 218
jan vier</w> 218
tr o 216
ag es</w> 216
il l</w> 216
ti ons</w> 215
eh men</w> 215
g est 214
è me</w> 214
et en</w> 214
b ar 213
k on 213
sch aft</w> 213
wie der</w> 213
m esse</w> 212
p on 211
a i</w> 211
a près</w> 211
av oir</w> 211
pré s 211
p ay 210
é le 210
s pr 210
j us 210
ar i 210
qu el 210
b ur 209
sch on</w> 209
d re 208
f en</w> 207
ä hr 207
en den</w> 207
de puis</w> 207
ist es</w> 207
pers onn 207
é qui 206
k ann</w> 206
U n</w> 206
tr ès</w> 206
l in 204
er t 204
con tre</w> 204
tem ps</w> 204
p p 203
o ù</w> 203
c ul 203
d ann</w> 203
k e</w> 203
1 2</w> 203
er en</w> 203
su i 203
dur ch</w> 203
enf ants</w> 203
P l 202
an ci 202
p li 201
u re</w> 201
F in 201
al es</w> 201
ri e 201
eh t</w> 201
do ch</w> 201
wen n</w> 201
l s</w> 200
li g 200
for m 200
n ah 199
s ur 198
au tres</w> 198
r ou 197
o g 197
F or 197
U ne</w> 197
. 2007</w> 197
d eu 196
5 0</w> 196
al ement</w> 196
at s</w> 196
m illi 195
s y 195
l t</w> 194
an te</w> 194
tr ois</w> 194
ai ll 194
im mer</w> 194
lu i</w> 194
komm en</w> 194
p eu 193
l a 193
F ü 193
w ill</w> 193
an c 192
a b</w> 191
e u</w> 191
s am 191
H er 191
j e</w> 191
ê te</w> 191
av ant</w> 191
o ci 190
h in 190
z e</w> 190
1 7</w> 190
ier t</w> 190
é m 189
c a 189
b our 189
ti m 189
or t</w> 189
s ans</w> 188
tr av 188
et er</w> 188
gan is 188
v ol 187
s on 187
M it 187
un ter 187
di re 187
Un d</w> 187
ä f 186
am p 186
sag t</w> 186
hi er</w> 186
B o 185
ser a</w> 185
tou s</w> 185
ru e</w> 185
én é 185
i li 184
ch es</w> 184
el t 184
con c 183
h eit</w> 182
O n</w> 182
f l 182
ti que</w> 182
eu ro 182
c ol 181
con tr 181
Ar b 181
i k 180
A ut 180
M in 180
vo m</w> 180
Ges ch 180
g es</w> 179
L u 179
ä u 179
ü h 179
ei ll 179
re di</w> 179
cor e</w> 179
S p 178
L i 178
k eit</w> 178
ti v 178
Fran ce</w> 178
c ar 177
l ar 177
un den</w> 177
tr ouv 177
gl ei 177
b o 176
s eine</w> 176
in v 176
eu te</w> 176
200 8</w> 176
ih re</w> 176
b an 175
- B 175
f am 175
ri v 175
we i</w> 175
t ant</w> 174
eit s 174
Jah r</w> 174
h u 173
m itt 173
M o 173
K l 173
K in 173
. de</w> 173
W ir</w> 173
ain s</w> 173
at z</w> 172
C an 171
T r 171
K o 171
U hr</w> 171
el l</w> 171
prés ent 171
d a</w> 170
et s</w> 170
di ff 170
pl ace</w> 170
pro du 170
end re</w> 170
gi bt</w> 170
S ain 169
as se</w> 169
t o</w> 168
V i 168
M ais</w> 168
r ait</w> 167
L e 167
el s</w> 167
par t 167
wei ter 167
g ier 166
a de</w> 166
a st 166
m ö 166
b e</w> 166
d ont</w> 166
I N 166
k er</w> 166
sol l</w> 166
t ung</w> 165
f s</w> 165
pré sident</w> 165
geb en</w> 165
J ahren</w> 164
m ois</w> 164
z en</w> 164
G er 164
f in</w> 164
en core</w> 164
ag n 164
g ab 163
v ie</w> 163
M ensch 163
ar r 163
a - 162
S u 162
tu re</w> 162
t ä 161
l eurs</w> 161
E x 161
ö h 161
ar ti 161
con n 161
cour s</w> 161
t our 160
c ré 160
b il 160
ar t 160
om me</w> 160
ass en</w> 160
gen en</w> 160
pe ti 160
in t 159
un es</w> 159
por t</w> 159
o ch 158
o ch</w> 158
m ann</w> 158
d es 158
E r</w> 158
i en</w> 157
n t</w> 157
J e</w> 157
m it 157
b ou 157
O r 157
en en</w> 157
ser vi 157
o y 156
l ei 156
s k 156
z ur 156
ei l</w> 156
sch w 156
di g 156
ge f 156
derni er</w> 156
n om 155
um ent</w> 155
i cht</w> 154
e k 154
s pe 154
B es 154
is on</w> 154
ti k</w> 154
zw ischen</w> 154
pay s</w> 154
O N 153
ö l 153
an g</w> 153
un di</w> 153
di t</w> 153
pi el</w> 153
ti g 152
qu é</w> 152
ct eur</w> 152
Deutsch land</w> 152
C hr 151
ch o 151
is es</w> 151
v es</w> 150
s einer</w> 150
is se</w> 150
re ch 150
a cht</w> 149
c el 149
M er 149
1 1 149
ch an 149
or i 149
et t 149
wen i 149
premi er</w> 149
t lich</w> 148
l er 148
b re</w> 148
M itt 148
k ur 148
k eine</w> 148
es si 148
or d</w> 148
ac c 148
kl är 148
Qu é 148
ing s</w> 148
t él 147
v is 147
C on 147
z wei</w> 147
P our</w> 147
N e 147
U ni 147
or ganis 147
par t</w> 147
mo ins</w> 147
bei m</w> 147
cou p</w> 147
P er 146
I m</w> 146
I ch</w> 146
w ür 146
st ag</w> 146
ais on</w> 146
t és</w> 145
G el 145
au en</w> 145
li n</w> 145
el n</w> 145
us s 145
ain es</w> 145
19 9 145
jus qu'</w> 145
m uss</w> 144
z wei 144
en ti 144
ver s</w> 144
ap p 144
r a</w> 143
c ap 143
un s</w> 143
em ents</w> 143
pr e 143
so ci 143
Eur op 143
posi tion</w> 143
pr ä 142
at h 142
é li 141
D e 141
1 0 141
en n</w> 141
al ors</w> 141
sch ein 141
C e</w> 140
- S 140
ch é</w> 140
it és</w> 140
pro f 140
bour g</w> 140
i er</w> 139
w a</w> 139
St a 139
ser v 139
b le</w> 138
1 9</w> 138
er te</w> 138
es en</w> 138
con s 138
po in 138
oll te</w> 138
gu e</w> 138
h ar 137
n ée</w> 137
s em 137
d an 137
U R 137
1 6</w> 137
W ir 137
ain si</w> 137
Milli onen</w> 137
fran ç 137
dre i</w> 137
a te</w> 136
c é</w> 136
n e 136
b ar</w> 136
E in</w> 136
tr ans 136
le m</w> 136
In tern 136
Au ch</w> 136
t- il</w> 136
p é 135
n te</w> 135
d onn 135
N ach</w> 135
ß e</w> 135
at s 135
sch l 135
dé f 135
pe u</w> 135
hal ten</w> 135
dies e</w> 135
l au 134
s eu 134
B r 134
U m 134
2 4</w> 134
W e 134
on e</w> 134
ai r 134
gr ou 134
war en</w> 134
kön nen</w> 134
l etz 133
ä tz 133
B il 133
ti onn 133
ess en</w> 133
l än 132
k ün 132
B an 132
er r 132
en te</w> 132
ver s 132
ér ation</w> 132
tei l 132
t on</w> 131
i ci 131
c an 131
h in</w> 131
è ne</w> 131
1 2 131
. 000</w> 131
er d 131
ag ne</w> 131
Un tern 131
Mensch en</w> 131
J u 130
E t</w> 130
is ten</w> 130
mü ssen</w> 130
L IN 129
E l 129
w oh 129
ü ck</w> 129
in tern 129
is ter 129
at eurs</w> 129
mi s</w> 129
ih r</w> 129
te - 129
Qué be 129
e di</w> 128
S am 128
s eit</w> 128
se p 128
personn es</w> 128
a z 127
l on 127
l am 127
z us 127
H am 127
8 8</w> 127
er st</w> 127
ti gen</w> 127
ver si 127
200 6</w> 127
lie u</w> 127
mon de</w> 127
ON LIN 127
ONLIN E</w> 127
s en</w> 126
A ll 126
k r 126
j o 126
N eu 126
1 1</w> 126
ö ff 126
ti n</w> 126
end ant</w> 126
hal b</w> 126
Je an 126
v re</w> 125
u t</w> 125
M an 125
2 5</w> 125
as si 125
ali té</w> 125
wor den</w> 125
M it</w> 124
w al 124
st än 124
c in 123
n ach 123
J o 123
C ar 123
s ehr</w> 123
d et</w> 123
ä l 123
w ollen</w> 123
ö ß 123
Ü ber 123
en - 123
in gen</w> 123
au p 123
qu a 123
al en</w> 123
st and</w> 123
vi r 123
ouver n 123
Nach rich 123
r el 122
v ous</w> 122
l ors</w> 122
d ou 122
ch te</w> 122
au m</w> 122
äh ri 122
Québe c</w> 122
h ist 121
R i 121
W o 121
is ch 121
ber ei 121
no t 121
gr am 121
man che</w> 121
dam it</w> 121
Fü r</w> 121
o t</w> 120
v er</w> 120
b st</w> 120
B ar 120
gu t</w> 120
g ouvern 119
c lu 119
f e</w> 119
1 3</w> 119
es ti 119
pr is</w> 119
M .</w> 118
f f</w> 118
w . 118
K r 118
in f 118
sch n 118
sch ie 118
it s</w> 118
Pr ä 118
bu t</w> 118
Jah re</w> 118
ww w. 118
p er</w> 117
e le</w> 117
m us 117
d ung</w> 117
f t 117
j à</w> 117
ü tz 117
tr ä 117
pro ch 117
déc lar 117
l assen</w> 116
h eur 116
k te</w> 116
entr e 116
ihr er</w> 116
p le</w> 115
p éri 115
o i</w> 115
c ert 115
h er</w> 115
z eit</w> 115
E ine</w> 115
er e</w> 115
eu re</w> 115
vi el</w> 115
ra p 115
ier en</w> 115
ist an</w> 115
n et</w> 114
n un</w> 114
K ur 114
j our</w> 114
1 , 114
4 0</w> 114
en e</w> 114
on s 114
it z 114
ter n</w> 114
pré c 114
geh t</w> 114
é l</w> 113
v a</w> 113
S o 113
b is 113
s ous</w> 113
d om 113
ô t</w> 113
in n 113
in di 113
ei l 113
con f 113
tsch af 113
all en</w> 113
str u 113
quel ques</w> 113
erd ings</w> 113
g ri 112
i que</w> 112
n u 112
m or 112
m al 112
F u 112
K ar 112
in s 112
ann ées</w> 112
bi li 112
Fran k 112
aî n 112
o le</w> 111
g lich</w> 111
v isi 111
c ro 111
b el 111
D ans</w> 111
is ter</w> 111
is sion</w> 111
ti ge</w> 111
pr in 111
dé jà</w> 111
je unes</w> 111
En de</w> 111
hat ten</w> 111
sti tu 111
Sain t- 111
t ur 110
m m 110
s heim</w> 110
I E 110
f il 110
j et</w> 110
ch ef</w> 110
ou l 110
au tre</w> 110
pr om 110
us tr 110
wei ter</w> 110
premi ère</w> 110
gab en</w> 110
UR L</w> 110
n ung</w> 109
m ent 109
T él</w> 109
j am 109
B u 109
1 8 109
en g 109
on d 109
li t 109
st ar 109
pl ac 109
der t</w> 109
ass oci 109
ell en</w> 109
gr öß 109
p a</w> 108
C ol 108
z eh 108
y m 108
A kti 108
M a 108
M ün 108
x i 108
j etzt</w> 108
ch ar 108
ab ei</w> 108
wi ck 108
ann on 108
Un ter 108
dies em</w> 108
r ement</w> 107
a que</w> 107
s etz 107
- T 107
A m 107
A ber</w> 107
M ich 107
G E 107
or en</w> 107
ab les</w> 107
ver k 107
con t 107
tou jours</w> 107
oh ne</w> 107
Jean - 107
S el 106
s al 106
D oll 106
4 5</w> 106
di manche</w> 106
dé p 106
pl usi 106
wer de</w> 106
tsch aft</w> 106
emb le</w> 106
peu t</w> 106
Nachrich ten</w> 106
plusi eurs</w> 106
z eu 105
A u</w> 105
f er</w> 105
B en 105
an im 105
tr ai 105
ir m 105
hä t 105
équi pe</w> 105
g ar</w> 104
m ag 104
s piel 104
G u 104
ê tes</w> 104
er h 104
en k 104
au er</w> 104
st at 104
ge l</w> 104
av aient</w> 104
we gen</w> 104
ih n</w> 104
ma chen</w> 104
éri c 104
bl ei 104
US - 104
sui te</w> 104
p ouv 103
v al 103
T o 103
1 3 103
er a</w> 103
er sten</w> 103
in st 103
ag er</w> 103
ol o 103
Re gier 103
ill er</w> 103
p a 102
g é</w> 102
h ut 102
s einem</w> 102
L and 102
8 9</w> 102
W er 102
ß b 102
eu se</w> 102
st eht</w> 102
ah n</w> 102
ég alement</w> 102
neu e</w> 102
neu en</w> 102
aill eurs</w> 102
p ère</w> 101
t m 101
v ent</w> 101
S ar 101
m aire</w> 101
s ehen</w> 101
z ahl 101
d é</w> 101
d at 101
A f 101
G en 101
f a 101
ei ten</w> 101
ai l</w> 101
as t</w> 101
be au 101
ah l</w> 101
ber g</w> 101
ell ement</w> 101
bes ch 101
ihr en</w> 101
spe ct 101
S e 100
c ô 100
s einen</w> 100
R ück 100
D es</w> 100
2 2</w> 100
er klär 100
an che</w> 100
ou se</w> 100
al lem</w> 100
ver gan 100
lo c 100
ét aient</w> 100
ation en</w> 100
ander en</w> 100
deutsch en</w> 100
intern ation 100
t ag</w> 99
l t 99
ä re</w> 99
Z eit 99
ar m 99
ier s</w> 99
dies er</w> 99
gh t</w> 99
y ri 98
d av 98
w elt 98
ol le</w> 98
oi r 98
wei l</w> 98
Str as 98
mé di 98
E lle</w> 97
T ra 97
M i 97
tr é 97
at z 97
sch af 97
all er</w> 97
parti e</w> 97
sei en</w> 97
Arb eits 97
gouvern ement</w> 97
p es</w> 96
g ent 96
g ung</w> 96
u ti 96
h eute</w> 96
d or 96
E t 96
f ai 96
st a 96
et wa</w> 96
In ter 96
wur den</w> 96
sel bst</w> 96
qua tre</w> 96
h omme</w> 95
D am 95
d on 95
F l 95
F re 95
M us 95
f el 95
B hut 95
Z eit</w> 95
W ei 95
W elt</w> 95
ch i 95
on der 95
eu di</w> 95
si den 95
st ei 95
ber t</w> 95
ass ur 95
iss en</w> 95
geh en</w> 95
glei ch</w> 95
v end 94
c redi</w> 94
h än 94
h tt 94
b est 94
d pa</w> 94
f em 94
ä m 94
er rei 94
is me</w> 94
ar ds</w> 94
am ment</w> 94
ab l 94
con sei 94
op p 94
ad t</w> 94
ih m</w> 94
gl ise</w> 94
htt p</w> 94
p ul 93
a ise</w> 93
v ille</w> 93
e aux</w> 93
R en 93
D och</w> 93
V ol 93
O ber 93
f ä 93
is ti 93
ar s</w> 93
si tu 93
st er</w> 93
ag t</w> 93
am éric 93
St u 93
ad a</w> 93
Be i</w> 93
we ise</w> 93
gest ell 93
Fin anz 93
berei ts</w> 93
a iss 92
s oit</w> 92
I s 92
I ls</w> 92
f ur 92
H u 92
ç a</w> 92
N ous</w> 92
1 4 92
. 0 92
3 1</w> 92
2 1</w> 92
W ie</w> 92
W enn</w> 92
an ti 92
ar bei 92
pr ise</w> 92
si ch 92
st ehen</w> 92
ur es</w> 92
ex pli 92
Ch ar 92
do c 92
dur ch 92
Di es 92
pri v 92
minis ter</w> 92
US A</w> 92
sam edi</w> 92
p pe</w> 91
é ci 91
e d 91
m usi 91
z - 91
G ro 91
en vir 91
au se</w> 91
si cher 91
at eur</w> 91
di en</w> 91
ni ch 91
be k 91
ré gi 91
hu i</w> 91
e g 90
e gen</w> 90
h and 90
C o 90
b eh 90
R é 90
d ro 90
P a 90
k un 90
1 7 90
2 3</w> 90
es sion</w> 90
tr a 90
si tz 90
am pi 90
op h 90
all s</w> 90
jour d'</w> 90
stell t</w> 90
publi c</w> 90
Untern ehmen</w> 90
Doll ar</w> 90
vergan genen</w> 90
s ollen</w> 89
D im 89
H ei 89
k el</w> 89
N i 89
ch s</w> 89
ar b 89
ah r</w> 89
ré alis 89
gen s</w> 89
omm es</w> 89
hab it 89
lie ß 89
ander e</w> 89
cti ons</w> 89
sc ri 89
a che</w> 88
a jou 88
S piel 88
h tm 88
m ati 88
k ein</w> 88
w eit</w> 88
N or 88
. htm 88
li b 88
al les</w> 88
em pl 88
di en 88
re trouv 88
ver tr 88
ah n 88
no v 88
tou te</w> 88
komm t</w> 88
sp ä 88
gran de</w> 88
nouv elle</w> 88
SP D</w> 88
bur g</w> 88
ik an 88
Chr ist 88
Ne w</w> 88
franç ais</w> 88
.htm l</w> 88
r und</w> 87
e c 87
S ep 87
l ung</w> 87
n on</w> 87
C om 87
s se</w> 87
P u 87
T or 87
f est 87
B i 87
in a</w> 87
fü n 87
ut z 87
omm en</w> 87
gan z</w> 87
En t 87
sel on</w> 87
dev ant</w> 87
fam ille</w> 87
Stras bourg</w> 87
g in 86
l undi</w> 86
h .</w> 86
n ei 86
k tion</w> 86
an ces</w> 86
ser ont</w> 86
ru ck 86
poli t 86
minis tre</w> 86
milli ons</w> 86
Bhut to</w> 86
a si 85
s aison</w> 85
F lu 85
A v 85
I m 85
k s 85
ch ez</w> 85
il les</w> 85
der ung</w> 85
im port 85
ck en</w> 85
iss ement</w> 85
Ber lin</w> 85
euro s</w> 85
servi ce</w> 85
grou pe</w> 85
beau coup</w> 85
u ri 84
J ac 84
s atz</w> 84
D e</w> 84
d ür 84
U r 84
er i 84
an i 84
qu and</w> 84
em ber</w> 84
ein mal</w> 84
am er 84
it t</w> 84
it al</w> 84
mi r</w> 84
no tre</w> 84
Fran ç 84
Kon z 84
déclar é</w> 84
r est 83
v r 83
v in 83
c li 83
m ain 83
s alle</w> 83
è rement</w> 83
d est 83
T ou 83
j '</w> 83
1 5 83
2 8</w> 83
ß er 83
an g 83
qu es 83
ver b 83
vi ele</w> 83
lan g</w> 83
kön nte</w> 83
gh an 83
nom br 83
o b</w> 82
g éné 82
C D 82
C op 82
R ich 82
E m 82
f ahr 82
k s</w> 82
ê t</w> 82
7 0</w> 82
É t 82
ö s 82
es p 82
qu er</w> 82
dé but</w> 82
ac t 82
geh ör 82
comp agn 82
tä t</w> 82
c ation</w> 81
m uni 81
m ehr 81
D ar 81
F ahr 81
in c 81
on t 81
ac cor 81
te ch 81
br au 81
Par t 81
tei l</w> 81
Poli z 81
öff ent 81
a y</w> 80
t el</w> 80
S o</w> 80
S ol 80
- M 80
A près</w> 80
an di 80
in i 80
in er</w> 80
pr endre</w> 80
lo s</w> 80
ann t</w> 80
je doch</w> 80
Al s</w> 80
parti cip 80
gro ßen</w> 80
Milli ar 80
met tre</w> 80
son dern</w> 80
Prä sident</w> 80
é p 79
i gen</w> 79
c et</w> 79
h ol 79
b ri 79
R u 79
G eb 79
f te</w> 79
U - 79
ar t</w> 79
ar riv 79
si gn 79
at er</w> 79
om p 79
et was</w> 79
be tr 79
vi ent</w> 79
ac cu 79
ra l</w> 79
ier re</w> 79
all erdings</w> 79
ma j 79
ven ir</w> 79
nouv eau</w> 79
clu b</w> 79
r ess 78
e d</w> 78
u le</w> 78
c as</w> 78
h ô 78
h en</w> 78
J ahr 78
m om 78
P ak 78
M ul 78
f é 78
Z i 78
st o 78
ge gen 78
ver sion</w> 78
ati ve</w> 78
us t</w> 78
con om 78
ci r 78
ra pp 78
pro gram 78
Sch l 78
ie der 78
gan g</w> 78
comm er 78
IE GE 78
spect ac 78
yri ght</w> 78
Cop yright</w> 78
muni cip 78
e f 77
S i 77
c oll 77
s oir</w> 77
F am 77
L eb 77
L än 77
B l 77
B au 77
8 0</w> 77
un de</w> 77
pr ises</w> 77
sch ei 77
oi x</w> 77
pro c 77
off en 77
comm un 77
res pon 77
not amment</w> 77
Frank fur 77
Dim anche</w> 77
r is 76
é di 76
l agen</w> 76
n ehmen</w> 76
J '</w> 76
C ette</w> 76
d oll 76
L ou 76
B ay 76
2 7</w> 76
ch au 76
an ge 76
is cher</w> 76
ai r</w> 76
ri en</w> 76
ri ère</w> 76
am en</w> 76
av i 76
dé ci 76
Sch ul 76
sp éci 76
isi on</w> 76
oc ca 76
pour rait</w> 76
SP IEGE 76
sem aine</w> 76
woh l</w> 76
don c</w> 76
gestell t</w> 76
g lie 75
S ich 75
c i</w> 75
l en</w> 75
n at 75
n äch 75
m es 75
s si 75
d - 75
F C</w> 75
E L 75
T e 75
B el 75
ch ten</w> 75
is é</w> 75
is si 75
ti en</w> 75
ai lle</w> 75
our n 75
pré sen 75
entr aîn 75
tri bu 75
aut om 75
derni ère</w> 75
Can ada</w> 75
Sep tem 75
SPIEGE L</w> 75
g te</w> 74
u es</w> 74
l ég 74
z o 74
F ern 74
un ser 74
li er</w> 74
al so</w> 74
ri er</w> 74
ab ri 74
ter r 74
le gen</w> 74
for t</w> 74
Par is</w> 74
deutsch e</w> 74
Uni on</w> 74
é glise</w> 73
é conom 73
v el 73
h aus 73
b st 73
b as 73
z un 73
M ann</w> 73
f ête</w> 73
0 , 73
B ür 73
W elt 73
Y or 73
al y 73
at ten 73
gr ei 73
oh n 73
stell en</w> 73
kt o 73
pri x</w> 73
dem an 73
lich keit</w> 73
jo in 73
hist oire</w> 73
heur es</w> 73
vend redi</w> 73
nich ts</w> 73
r at 72
é ch 72
o de</w> 72
v u</w> 72
c ep 72
n ation 72
m '</w> 72
m ar</w> 72
D ok 72
M an</w> 72
O kto 72
j a</w> 72
N ic 72
U nis</w> 72
ch aque</w> 72
an ni 72
sch en</w> 72
av ons</w> 72
no s</w> 72
por te</w> 72
emb l 72
ten ant</w> 72
lie gt</w> 72
te i</w> 72
mat ch</w> 72
nah men</w> 72
tim m 72
Fu ßb 72
jam ais</w> 72
zeh n</w> 72
Septem ber</w> 72
S i</w> 71
u i</w> 71
c ad 71
b et 71
z äh 71
O p 71
f aut</w> 71
B ran 71
6 0</w> 71
om b 71
am men 71
re is 71
gen d 71
vo y 71
Ver tr 71
tou tes</w> 71
den en</w> 71
fr ei 71
Ge w 71
bei den</w> 71
aur a</w> 71
cul te</w> 71
zur ück 71
p un 70
g s</w> 70
g ement</w> 70
v oir</w> 70
s an 70
d abei</w> 70
H and 70
k en 70
w o</w> 70
j ähri 70
j eudi</w> 70
N ation 70
in scri 70
ti r 70
au jourd'</w> 70
eu er 70
at s- 70
gr ün 70
In v 70
eit ag</w> 70
Str ei 70
Di en 70
poli tique</w> 70
Mon tré 70
gran d</w> 70
posi ti 70
ähr end</w> 70
a d</w> 69
S er 69
S onn 69
m us</w> 69
s a 69
s ouv 69
P au 69
H ar 69
1 er</w> 69
an tes</w> 69
au g 69
li cher</w> 69
si x</w> 69
ag ement</w> 69
et z</w> 69
ver sch 69
ver su 69
ac tiv 69
ap par 69
Ch ef</w> 69
ven u</w> 69
gem ein 69
Kin der</w> 69
associ ation</w> 69
Regier ung</w> 69
cô té</w> 69
Nic ol 69
a zi 68
v eau</w> 68
v eill 68
h ouse</w> 68
n ie</w> 68
b on</w> 68
D en 68
D ur 68
y n 68
d oit</w> 68
k a</w> 68
w iller</w> 68
K ri 68
B ei 68
en heim</w> 68
ar e</w> 68
ber ich 68
gen ommen</w> 68
so wie</w> 68
man i 68
aut or 68
fer m 68
res te</w> 68
diff ér 68
.0 9 68
doc ument</w> 68
Okto ber</w> 68
S ie 67
c entre</w> 67
m ach 67
s ollte</w> 67
D u 67
d aten</w> 67
L eben</w> 67
A m</w> 67
f u 67
2 , 67
2 6</w> 67
ß t</w> 67
in es</w> 67
ge geben</w> 67
be wer 67
wi ch 67
um s</w> 67
ges am 67
mar ché</w> 67
gel e 67
parti r</w> 67
enn es</w> 67
führ t</w> 67
ko z 67
Gesch äf 67
zur ück</w> 67
ici le</w> 67
inf o</w> 67
xi ème</w> 67
dav on</w> 67
uri té</w> 67
ats- Unis</w> 67
Montré al</w> 67
l à</w> 66
b éné 66
s é 66
z war</w> 66
D '</w> 66
D is 66
f ils</w> 66
k auf 66
B us 66
û t</w> 66
ß en 66
er g 66
ch t 66
an e</w> 66
tr adi 66
ag s 66
di g</w> 66
ol og 66
de l</w> 66
so gar</w> 66
bl ess 66
Deutsch en</w> 66
zei ch 66
minis ter 66
sor ti 66
anci en</w> 66
wür de</w> 66
tschaf ts 66
Sar koz 66
.09 .2007</w> 66
t ent</w> 65
e g</w> 65
c eux</w> 65
b ach</w> 65
b onne</w> 65
- J 65
F T 65
L and</w> 65
ô le</w> 65
P f 65
k ten</w> 65
1 00</w> 65
er in</w> 65
un g 65
au v 65
eu ses</w> 65
ri c</w> 65
il om 65
con stru 65
po se</w> 65
onn ement</w> 65
for me</w> 65
ger n</w> 65
Pro du 65
Er schein 65
ich te</w> 65
ungs dat 65
éc urité</w> 65
off en</w> 65
pos si 65
bur ger</w> 65
arti c 65
fün f</w> 65
Milliar den</w> 65
occa sion</w> 65
Dok ument</w> 65
ungsdat um</w> 65
t o 64
t ot 64
e y</w> 64
c nt</w> 64
h um 64
m eill 64
C ou 64
D a 64
d re</w> 64
L undi</w> 64
P ierre</w> 64
f ahren</w> 64
f ast</w> 64
K omm 64
N ieder 64
W al 64
er - 64
er ten</w> 64
er war 64
er stellt</w> 64
en z</w> 64
in nen</w> 64
is ation</w> 64
au c 64
or ale</w> 64
it er</w> 64
eh m 64
su c 64
le - 64
pro jet</w> 64
com pl 64
ier te</w> 64
ex pl 64
Er fol 64
Str a 64
da für</w> 64
Mitt w 64
air ie</w> 64
cin q</w> 64
doll ars</w> 64
Nicol as</w> 64
Erschein ungsdatum</w> 64
g én 63
t ent 63
i - 63
i ge</w> 63
c elle</w> 63
l ement</w> 63
l age</w> 63
n en 63
R ei 63
è ve</w> 63
A t 63
M or 63
w äre</w> 63
j un 63
1 .</w> 63
er st 63
eu t</w> 63
al ten</w> 63
et tes</w> 63
re g 63
re m</w> 63
po pul 63
Au f</w> 63
En tsch 63
gew esen</w> 63
führ er</w> 63
publi que</w> 63
rou te</w> 63
trav ail</w> 63
mö g 63
int ér 63
péri ode</w> 63
respon s 63
o o 62
t z</w> 62
v ue</w> 62
c t</w> 62
c er</w> 62
D em 62
F il 62
L etz 62
A R 62
P un 62
G ran 62
f ass 62
w ach 62
K un 62
B ahn</w> 62
N at 62
Z us 62
er ung</w> 62
di es</w> 62
dé r 62
dé e</w> 62
mi ch</w> 62
su lt 62
im es</w> 62
ck e</w> 62
ét u 62
mo y 62
ma cht</w> 62
Gr ün 62
weni ger</w> 62
hät ten</w> 62
pouv oir</w> 62
mom ent</w> 62
Sarkoz y</w> 62
p al 61
v ement</w> 61
v ill 61
b al 61
s eh 61
s us 61
è le</w> 61
y er</w> 61
d ort</w> 61
L in 61
V on</w> 61
f ace</w> 61
H och 61
k onn 61
1 6 61
3 5</w> 61
Ä n 61
er re</w> 61
ei te</w> 61
tr u 61
si m 61
sch ließ 61
am bi 61
ter s</w> 61
ter min 61
su is</w> 61
200 5</w> 61
den n</w> 61
te te</w> 61
No v 61
ais se</w> 61
parti cu 61
Min ister 61
kun ft</w> 61
S y 60
c ri 60
c entr 60
m on</w> 60
C l 60
w är 60
en se</w> 60
ti ker</w> 60
ei gn 60
em p 60
ri r</w> 60
am m 60
re présent 60
ck t</w> 60
wer k 60
ma ison</w> 60
Fr eitag</w> 60
comp te</w> 60
ant wor 60
da zu</w> 60
Poli tik</w> 60
deu tlich</w> 60
sy st 60
Fü hr 60
inv est 60
tél .</w> 60
Gel d</w> 60
Wo che</w> 60
nu it</w> 60
Af ghan 60
Av ec</w> 60
Yor k</w> 60
p endant</w> 59
g et 59
S k 59
c am 59
s er</w> 59
R uss 59
D - 59
D a</w> 59
d essen</w> 59
L ei 59
A mer 59
P e 59
P h 59
I r 59
f ais 59
f all</w> 59
ä d 59
H aup 59
3 , 59
W i 59
en er</w> 59
ti ert</w> 59
el en</w> 59
st ein</w> 59
di gt</w> 59
ra le</w> 59
ra ison</w> 59
ten u</w> 59
mar di</w> 59
Al s 59
Fr au</w> 59
Deutsch e</w> 59
amp agne</w> 59
pre cher</w> 59
poin ts</w> 59
ustr ie</w> 59
nov embre</w> 59
Poliz ei</w> 59
Pak istan</w> 59
p u</w> 58
é b 58
a ï 58
i a</w> 58
i te</w> 58
i re</w> 58
h e 58
n ten</w> 58
m a</w> 58
m ut 58
V o 58
M al 58
x - 58
f êtes</w> 58
k n 58
k enn 58
B et 58
W EL 58
pr è 58
st and 58
ge tr 58
mi di</w> 58
mi lit 58
ac tu 58
ré du 58
An gaben</w> 58
iss ensch 58
ih rem</w> 58
hei m 58
hei ßt</w> 58
mer credi</w> 58
sc ène</w> 58
fon ds</w> 58
quel que</w> 58
trav aill 58
g ab</w> 57
c at 57
h ö 57
m ise</w> 57
b les</w> 57
s ch</w> 57
G l 57
f o 57
w ollte</w> 57
B ou 57
2 9</w> 57
W as</w> 57
is er</w> 57
tr ot 57
si eht</w> 57
ter a</w> 57
ac tion</w> 57
ré pon 57
pro bl 57
oll ten</w> 57
ger s</w> 57
ess er</w> 57
ens emble</w> 57
jour n 57
bes onder 57
enf alls</w> 57
dev rait</w> 57
ahl en</w> 57
lig ne</w> 57
form ation</w> 57
deu xième</w> 57
milli ards</w> 57
Gen er 57
spectac le</w> 57
WEL T</w> 57
p ér 56
é ph 56
g ne</w> 56
m emb 56
s oir 56
z el 56
T err 56
. -</w> 56
ti ques</w> 56
es s</w> 56
qu it 56
sch rei 56
sch lä 56
di gen</w> 56
ent es</w> 56
be w 56
par ce</w> 56
com b 56
ck er</w> 56
ut t 56
op ération</w> 56
wir k 56
oh n</w> 56
zi al 56
je u</w> 56
tri eb 56
Ge f 56
fin den</w> 56
eff et</w> 56
ouver t</w> 56
gem acht</w> 56
weni g</w> 56
Intern et</w> 56
p ou 55
t ab 55
h oh 55
m i</w> 55
m airie</w> 55
C omm 55
s écurité</w> 55
- K 55
D ruck 55
A le 55
A ss 55
P or 55
M c 55
M me</w> 55
O ff 55
H al 55
9 0</w> 55
B ör 55
an der</w> 55
tr an 55
qu oi</w> 55
li gi 55
sch e</w> 55
di re</w> 55
pl an 55
su s</w> 55
for der 55
por té</w> 55
gs t</w> 55
ll er</w> 55
ten ir</w> 55
te fois</w> 55
Ge or 55
ic i</w> 55
tro p</w> 55
kon z 55
col le 55
can adi 55
amer ikan 55
maj or 55
Entsch ei 55
memb res</w> 55
S pe 54
m el 54
m et</w> 54
C es</w> 54
b at 54
D es 54
y p 54
P ap 54
M usi 54
O l 54
G ol 54
f av 54
f ang</w> 54
j ahr</w> 54
4 , 54
. 11 54
2 00</w> 54
en der</w> 54
en ces</w> 54
ch ampi 54
ti er</w> 54
or e</w> 54
or ig 54
el e 54
pr im 54
sch wer 54
as h 54
de te</w> 54
us si 54
pro t 54
gen ann 54
ru ck</w> 54
eit et</w> 54
Be is 54
Be tr 54
ko st 54
aur ait</w> 54
Mit glie 54
cel ui</w> 54
zwei ten</w> 54
poin t</w> 54
Wir tschafts 54
prin cip 54
Frankfur t</w> 54
Än derung</w> 54
Nov ember</w> 54
Als ace</w> 54
.11 .2007</w> 54
r on 53
r aient</w> 53
o - 53
t lichen</w> 53
t ête</w> 53
u tion</w> 53
c it 53
c ité</w> 53
n isse</w> 53
C S 53
D onn 53
T ro 53
I ra 53
f re 53
H il 53
3 0 53
in gt</w> 53
or s 53
di ri 53
il ie</w> 53
par ents</w> 53
gen d</w> 53
ier ung</w> 53
ut z</w> 53
ges etzt</w> 53
Par tei</w> 53
Ber lin 53
Je an</w> 53
sur tout</w> 53
ca de 53
euro pé 53
sk i</w> 53
proch ain</w> 53
nombr eux</w> 53
souv ent</w> 53
azi r</w> 53
Mittw och</w> 53
a den</w> 52
i g</w> 52
v en</w> 52
v in</w> 52
v öl 52
u el</w> 52
c é 52
l ag 52
F all</w> 52
A d 52
G D 52
G ru 52
k aum</w> 52
k eiten</w> 52
K re 52
j ets</w> 52
an st 52
an den</w> 52
ti onen</w> 52
ar d 52
qu ant</w> 52
ag egen</w> 52
ni veau</w> 52
pré siden 52
Au g 52
mo der 52
je une</w> 52
comm une</w> 52
bes ser 52
mon di 52
gew or 52
cti onn 52
lä ss 52
éle ct 52
dire cteur</w> 52
Arb eit</w> 52
Min u 52
weiter e</w> 52
Mer kel</w> 52
cons omm 52
sep t</w> 52
Col mar</w> 52
Ben azir</w> 52
consei l</w> 52
spä ter</w> 52
CD U</w> 52
prè s- 52
é ro 51
a el</w> 51
S ti 51
c ar</w> 51
m ort</w> 51
s pi 51
R om 51
è te</w> 51
è que</w> 51
M ann 51
f ach</w> 51
H an 51
K ol 51
. 10 51
er ie</w> 51
is s</w> 51
ei cht</w> 51
tr on 51
ai l 51
em and</w> 51
re c 51
re conn 51
su p 51
ac k 51
ré s</w> 51
200 4</w> 51
Sch w 51
ier e</w> 51
ier ten</w> 51
af in</w> 51
Re ch 51
gl au 51
entr ée</w> 51
poli ce</w> 51
gran ds</w> 51
res pe 51
pass é</w> 51
Ko ali 51
a- t-il</w> 51
Bes ch 51
Sta ats 51
kün f 51
bili té</w> 51
annon cé</w> 51
Sel on</w> 51
blei ben</w> 51
Zeit ung</w> 51
fel d</w> 51
situ ation</w> 51
gehör t</w> 51
Nation al 51
Inv est 51
Dien stag</w> 51
Geschäf ts 51
Letz te</w> 51
p ap 50
o l</w> 50
g o</w> 50
a près- 50
v oul 50
l auf 50
h e</w> 50
z ul 50
T ran 50
O u 50
G ren 50
f ille</w> 50
H e 50
k am</w> 50
k einen</w> 50
ç on</w> 50
er ste</w> 50
an z</w> 50
ei lle</w> 50
el li 50
sch t</w> 50
ati que</w> 50
pré par 50
lo i</w> 50
lan ge</w> 50
ét at</w> 50
por ter</w> 50
ll en</w> 50
je cti 50
tri ce</w> 50
él é 50
él è 50
Ber n 50
Gr und 50
dar f</w> 50
ret our</w> 50
éle ctions</w> 50
hu it</w> 50
arr ê 50
nom bre</w> 50
Mün chen</w> 50
uti l 50
Lou is</w> 50
r ont</w> 49
v é 49
S pr 49
l é 49
J ourn 49
m s</w> 49
C lau 49
b ra 49
b rit 49
R es 49
V or</w> 49
T ri 49
O st 49
B as 49
W or 49
7 5</w> 49
en z 49
ch és</w> 49
is c 49
ti ers</w> 49
li en</w> 49
ein t</w> 49
si è 49
at t</w> 49
et t</w> 49
re cher 49
eh er</w> 49
con fi 49
su b 49
vi ct 49
ac k</w> 49
fü r 49
Sch i 49
por ts</w> 49
ih nen</w> 49
tri b 49
kön ne</w> 49
fol ge</w> 49
äch st</w> 49
peti t</w> 49
ler in</w> 49
cap it 49
schl ag</w> 49
letz ten</w> 49
äm pf 49
Dies e</w> 49
Ent wick 49
nei ge</w> 49
Mul house</w> 49
Leb ens 49
-J ähri 49
soir ée</w> 49
Druck version</w> 49
g il 48
t able</w> 48
S pi 48
c al 48
J an 48
m als</w> 48
C el 48
b in</w> 48
D en</w> 48
G ar 48
f ont</w> 48
f rie 48
ä ft</w> 48
5 , 48
3 2</w> 48
2 6 48
en ten</w> 48
ti k 48
ei genen</w> 48
st u 48
sch ri 48
ag u 48
di c 48
re ç 48
re cht</w> 48
it ä 48
ent wick 48
dé mo 48
der zeit</w> 48
St adt</w> 48
Ver b 48
ell schaft</w> 48
se x 48
iss ance</w> 48
mo bili 48
comm uni 48
th é 48
dar auf</w> 48
teil te</w> 48
can di 48
schaf ten</w> 48
fem mes</w> 48
z- vous</w> 48
accor d</w> 48
béné fi 48
Beis piel</w> 48
.10 .2007</w> 48
p ital</w> 47
g ent</w> 47
t un</w> 47
t embre</w> 47
S a 47
u ch</w> 47
b elle</w> 47
D enn</w> 47
d t</w> 47
T i 47
M al</w> 47
f est</w> 47
f ér 47
k ehr 47
w el 47
N ur</w> 47
ch in 47
is en</w> 47
qu el</w> 47
st är 47
st ütz 47
ol sheim</w> 47
oi ent</w> 47
oi res</w> 47
dé vel 47
con st 47
ra t</w> 47
im p 47
gen ce</w> 47
Ver ein 47
ex tr 47
Au ßen 47
Ch ina</w> 47
ür lich</w> 47
Mar kt</w> 47
Ar t</w> 47
dr oit</w> 47
att ent 47
Fr auen</w> 47
gro ß 47
Pl us</w> 47
la iss 47
amp f</w> 47
ban k</w> 47
peti ts</w> 47
servi ces</w> 47
Chr isti 47
cel a</w> 47
bek annt</w> 47
ques tion</w> 47
suc c 47
Afghan istan</w> 47
a z</w> 46
t ée</w> 46
i um</w> 46
S h 46
n ég 46
F rei 46
L it 46
T re 46
O n 46
f un 46
H a 46
K öl 46
B eh 46
N ouv 46
ü d 46
5 0 46
3 7</w> 46
W er</w> 46
W ar 46
er stag</w> 46
an geb 46
un der 46
is ches</w> 46
li gn 46
as e</w> 46
re trai 46
par ole</w> 46
St ein 46
St utt 46
vo it 46
aus ge 46
ut es</w> 46
se con 46
ser ait</w> 46
for dert</w> 46
ob jecti 46
éc ole</w> 46
ven ue</w> 46
derni ers</w> 46
derni ères</w> 46
jou eurs</w> 46
pos é</w> 46
Zu kunft</w> 46
Mit arbei 46
mö glich</w> 46
Mitt el 46
Bil d 46
sep tembre</w> 46
Ham burg</w> 46
cont in 46
erklär te</w> 46
sitz ende</w> 46
main tenant</w> 46
géné ral</w> 46
pun kt</w> 46
Pau l</w> 46
aug ment 46
Donn erstag</w> 46
Aug ust</w> 46
Stutt gar 46
g o 45
g ten</w> 45
t al 45
t ement</w> 45
v oit</w> 45
S piel</w> 45
l ungen</w> 45
h af 45
h ommes</w> 45
D .de</w> 45
P hi 45
P riv 45
T ur 45
M än 45
f es 45
H aus 45
k an 45
k ul 45
w issen</w> 45
K ir 45
Z entr 45
2 8 45
W in 45
W ett 45
un tern 45
au té</w> 45
tr itt</w> 45
li g</w> 45
al t 45
pr end</w> 45
pl u 45
con di 45
be l</w> 45
fü h 45
lo ssen</w> 45
Pro f 45
gu es</w> 45
so li 45
sag en</w> 45
fr age</w> 45
ven us</w> 45
att end 45
Fr age</w> 45
Pr emi 45
Mon ate</w> 45
jou er</w> 45
Th om 45
führ en</w> 45
oc cu 45
hä lt</w> 45
cr ise</w> 45
SP D- 45
part i</w> 45
Europ e</w> 45
donn é</w> 45
kr äf 45
cert ains</w> 45
dor f</w> 45
tech ni 45
gegen über</w> 45
deman de</w> 45
après- midi</w> 45
p at 44
p ens 44
p asse</w> 44
r ent</w> 44
g ing</w> 44
i es</w> 44
v oll 44
l iste</w> 44
h aup 44
n é</w> 44
b s</w> 44
è tres</w> 44
d el 44
d ès</w> 44
F ol 44
M ad 44
f ut</w> 44
K li 44
K ul 44
B li 44
B ri 44
N ot 44
Z wei 44
4 7</w> 44
3 6</w> 44
en b 44
ei gen 44
sch ul 44
sch aff 44
di z 44
ver l 44
eh em 44
ent schei 44
ré c 44
ré sult 44
200 2</w> 44
200 3</w> 44
onn en</w> 44
ad join 44
lan d 44
eb enfalls</w> 44
ér ie</w> 44
eit ung</w> 44
Mar c</w> 44
éc ois</w> 44
Par lam 44
jour née</w> 44
bes timm 44
fin ale</w> 44
stell er</w> 44
gar de</w> 44
Th em 44
lä u 44
ind ustrie</w> 44
spr e 44
sy m 44
envir on</w> 44
program me</w> 44
expl o 44
Berlin er</w> 44
läss t</w> 44
Phi li 44
g än 43
t es 43
e te</w> 43
S or 43
c ée</w> 43
J ul 43
C r 43
b on 43
z one</w> 43
d agegen</w> 43
L an 43
A n</w> 43
P ar</w> 43
M ut 43
M os 43
G o 43
G i 43
G em 43
H o 43
H ier</w> 43
0 1</w> 43
K op 43
B or 43
B ru 43
Z u</w> 43
er m 43
ch s 43
is tr 43
is mus</w> 43
ti on 43
ti ent</w> 43
ti gt</w> 43
es se 43
tr ei 43
qu ement</w> 43
qu elle</w> 43
em ple</w> 43
pr ession</w> 43
si d 43
st adt</w> 43
am a</w> 43
am men</w> 43
it ze</w> 43
pl an</w> 43
con dam 43
ra pi 43
200 9</w> 43
Sch n 43
An dr 43
ut ôt</w> 43
gr é</w> 43
pi è 43
tou tefois</w> 43
for m</w> 43
all - 43
gi que</w> 43
ie le</w> 43
zi ehen</w> 43
mar s</w> 43
je der</w> 43
ob il 43
dies en</w> 43
Qu ali 43
komm enden</w> 43
stell ung</w> 43
sou ff 43
enn ent</w> 43
zei gt</w> 43
pass er</w> 43
aî t</w> 43
Bundes lig 43
Ex per 43
De puis</w> 43
Wir tschaft</w> 43
ne te</w> 43
Intern et 43
seu l</w> 43
Ban k</w> 43
Wo chen</w> 43
mus ste</w> 43
entre prise</w> 43
entre prises</w> 43
Mich ael</w> 43
hät te</w> 43
fem me</w> 43
régi on</w> 43
Zus ammen 43
konn te</w> 43
Russ land</w> 43
Haup t 43
issensch af 43
gil t</w> 43
a der</w> 42
v ra 42
v eut</w> 42
u er</w> 42
m ul 42
C or 42
b ru 42
s û 42
V al 42
E N 42
P i 42
M il 42
f eu</w> 42
k o</w> 42
k ir 42
ü ss 42
3 3</w> 42
W ol 42
W ass 42
en a</w> 42
ch en 42
in é</w> 42
ai de</w> 42
ai ment</w> 42
em ent 42
ati ves</w> 42
der en</w> 42
ff en</w> 42
An n 42
An fang</w> 42
Ver l 42
ell eicht</w> 42
ex emple</w> 42
por te- 42
In nen 42
ot h 42
Re k 42
Er geb 42
lie gen</w> 42
fr ü 42
fr ag 42
br ingen</w> 42
ill et</w> 42
Ber ei 42
aut our</w> 42
aut ant</w> 42
alis te</w> 42
dem and 42
wie der 42
pos er</w> 42
mü sse</w> 42
sui v 42
nah me</w> 42
dire ction</w> 42
soci été</w> 42
prä sident</w> 42
lon g</w> 42
stat t</w> 42
mati n</w> 42
Franç ois</w> 42
Bay ern</w> 42
chau ff 42
déci dé</w> 42
zo gen</w> 42
Bus h</w> 42
erg ie</w> 42
FT D.de</w> 42
Ira k</w> 42
Tran s 42
vé hi 42
o te</w> 41
t ex 41
t liche</w> 41
c s</w> 41
c ell 41
n er 41
n or 41
m ère</w> 41
s ap 41
s ens</w> 41
s avoir</w> 41
s atz 41
s ommes</w> 41
d oi 41
L o 41
L ond 41
E I 41
E U- 41
O li 41
I h 41
G eh 41
f li 41
H el 41
w s</w> 41
w ährend</w> 41
B est 41
5 00</w> 41
en si 41
en suite</w> 41
in ger</w> 41
in ten 41
ti fi 41
es que</w> 41
si te</w> 41
at ure</w> 41
di t 41
am b 41
re ligi 41
ver tei 41
us é</w> 41
pl utôt</w> 41
con du 41
ac ci 41
le ger</w> 41
pro vin 41
pré ci 41
se cteur</w> 41
se chs</w> 41
ir me</w> 41
ot o</w> 41
Mar di</w> 41
fr üh 41
ens eign 41
aut eur</w> 41
poli tik</w> 41
Kon kur 41
tro isi 41
fam illes</w> 41
gab e</w> 41
Uni versi 41
Gel d 41
sem aines</w> 41
Mich el</w> 41
irm é</w> 41
Tra iner</w> 41
dro h 41
Sol daten</w> 41
hô pital</w> 41
cad re</w> 41
Terr or 41
major ité</w> 41
p assi 40
r ä 40
t i</w> 40
t ali 40
e der 40
S al 40
c op 40
c ause</w> 40
l ors 40
h ai 40
J us 40
C entre</w> 40
C omme</w> 40
b en 40
R eu 40
R olle</w> 40
D u</w> 40
D an 40
D or 40
D ass</w> 40
T imes</w> 40
M - 40
M ö 40
O b 40
f al 40
f eh 40
ä r</w> 40
ä ß 40
H ol 40
H öh 40
k rit 40
K om 40
K ilom 40
er gi 40
un i</w> 40
ti eren</w> 40
au - 40
al li 40
si cht</w> 40
et é</w> 40
eh e</w> 40
av en 40
mi eux</w> 40
ra cht</w> 40
le v 40
ell er</w> 40
af en</w> 40
ist an 40
per man 40
In form 40
ot ages</w> 40
min ist 40
Be ck</w> 40
éc l 40
Par tei 40
dies es</w> 40
dur ant</w> 40
pri cht</w> 40
cl ass 40
eff ec 40
ouver te</w> 40
nouv eaux</w> 40
gro ße</w> 40
équi pes</w> 40
Can adi 40
peti te</w> 40
Europ a</w> 40
franç aise</w> 40
www. welt 40
fil m</w> 40
ym pi 40
irm a</w> 40
Mus har 40
Flu g 40
compagn ie</w> 40
gele gt</w> 40
artic le 40
véhi cu 40
troisi ème</w> 40
effec tu 40
www.welt .de</w> 40
p ol 39
r é</w> 39
r y</w> 39
a c</w> 39
t ungs 39
S an 39
S ur</w> 39
S eite</w> 39
h eure</w> 39
n - 39
b lo 39
b all</w> 39
s age</w> 39
s ollten</w> 39
è mes</w> 39
D ani 39
y - 39
E R 39
M ü 39
M et 39
M ili 39
H in 39
k m</w> 39
K i 39
K ap 39
B ro 39
5 2</w> 39
3 00</w> 39
er k 39
in n</w> 39
tr ain 39
at is 39
sch le 39
as tr 39
re - 39
it es</w> 39
con stitu 39
be gin 39
ra f</w> 39
le y</w> 39
St - 39
An geb 39
An gel 39
op ér 39
gr und</w> 39
ad op 39
per met 39
ot os</w> 39
ger ade</w> 39
mo d 39
ür k 39
Mar tin</w> 39
zu folge</w> 39
ob en</w> 39
19 6 39
rei s</w> 39
off ici 39
él est 39
fin det</w> 39
dr ück 39
Mon tag</w> 39
Th e 39
me ister</w> 39
anz lerin</w> 39
ju in</w> 39
Gesch ichte</w> 39
arti er</w> 39
gef ähr 39
wür den</w> 39
schn ell</w> 39
zahl en</w> 39
musi que</w> 39
Pa tri 39
Tou t</w> 39
Ét ats-Unis</w> 39
haus se</w> 39
zun ächst</w> 39
Sonn tag</w> 39
veill ée</w> 39
gesam t</w> 39
tradi tionn 39
particu li 39
Jan u 39
ehem ali 39
r end 38
é d 38
g ra 38
v éri 38
S on</w> 38
l aut</w> 38
h ie 38
n éc 38
s eines</w> 38
R hin</w> 38
z er</w> 38
D abei</w> 38
d rit 38
F ra 38
F rie 38
L au 38
A ir 38
M ot 38
O tt 38
f le 38
f év 38
f abri 38
ü ch 38
5 5</w> 38
5 7</w> 38
3 8</w> 38
2 - 38
2 4 38
W il 38
W ahl 38
er fol 38
en qu 38
an gen</w> 38
an wal 38
in aire</w> 38
ti r</w> 38
es tre</w> 38
li r</w> 38
ur en</w> 38
ab or 38
ab ili 38
be kommen</w> 38
vi te</w> 38
le b 38
le ben</w> 38
pro chen</w> 38
pro pri 38
pu is 38
mo i</w> 38
déc ision</w> 38
ür z 38
zu g</w> 38
ct eurs</w> 38
Al t 38
éri eur</w> 38
ander em</w> 38
pers onne</w> 38
ouver ture</w> 38
Zu dem</w> 38
kti on 38
cho se</w> 38
essi onn 38
Ham burger</w> 38
setz en</w> 38
Dam it</w> 38
Vol ks 38
Hei m 38
Zi el</w> 38
näch sten</w> 38
gén ér 38
vill age</w> 38
Reu ters</w> 38
fév rier</w> 38
o ct 37
a h</w> 37
t eten</w> 37
e li 37
S élest 37
c ent 37
l é</w> 37
h y 37
n es</w> 37
m ess 37
b us</w> 37
s emble</w> 37
D é 37
d g 37
F ar 37
A F 37
A N 37
A us</w> 37
P ol 37
T ech 37
0 2</w> 37
j ün 37
B our 37
Z w 37
er sch 37
ch em 37
tr ou 37
tr eff 37
qu éb 37
li eb 37
or ie</w> 37
eu er</w> 37
al istes</w> 37
pr o</w> 37
pr ü 37
sch ütz 37
ag ent 37
et tre</w> 37
ri ch</w> 37
ab end</w> 37
ab ord</w> 37
re gier 37
it u 37
oi gn 37
vi ol 37
vi elen</w> 37
ac qu 37
pro pr 37
200 1</w> 37
ot t</w> 37
Re g 37
Mar c 37
ak t 37
En g 37
ob re</w> 37
mon tr 37
ing ton</w> 37
sou hai 37
kt or</w> 37
sti eg</w> 37
zei gen</w> 37
trav aux</w> 37
Sp itz 37
produ its</w> 37
Or ganis 37
Per son 37
seu le</w> 37
Sam stag</w> 37
zus ammen</w> 37
blei bt</w> 37
Af ri 37
Et at</w> 37
aiss ance</w> 37
arriv ée</w> 37
Fam ilie</w> 37
Te am</w> 37
olog ie</w> 37
Erfol g</w> 37
schließ lich</w> 37
Ale x 37
Entschei dung</w> 37
Wett bewer 37
Premi er</w> 37
Thom as</w> 37
minist ère</w> 37
Sélest at</w> 37
é ti 36
g keit</w> 36
c ale</w> 36
c ampagne</w> 36
h an 36
â tre</w> 36
b ois</w> 36
s etzt</w> 36
R ou 36
R au 36
D ann</w> 36
y st 36
d au 36
d at</w> 36
L ok 36
A k 36
T it 36
T our 36
T age</w> 36
T ag</w> 36
M är 36
f um 36
k om 36
K unden</w> 36
B al 36
U m</w> 36
ê ts</w> 36
W el 36
W ash 36
ch ap 36
ch ant 36
an ten</w> 36
an ges 36
ti é</w> 36
ei gent 36
tr e 36
tr a</w> 36
li ert</w> 36
al - 36
ag ue</w> 36
ver ein 36
ter e</w> 36
dé b 36
dé plac 36
mi lieu</w> 36
be g 36
par o 36
im m 36
gen den</w> 36
Sch wei 36
ap p</w> 36
An t 36
ach ten</w> 36
Mar ie</w> 36
Er mitt 36
éc ri 36
off i 36
Str eit</w> 36
uni versi 36
minis tr 36
Fin anci 36
sy n 36
peu vent</w> 36
glei ch 36
diff icile</w> 36
Mer credi</w> 36
mm t</w> 36
verk auf 36
inst all 36
Gro ß 36
Franç ais</w> 36
vr aiment</w> 36
trot z</w> 36
fav or 36
Clau de</w> 36
dével opp 36
Bli ck</w> 36
Konkur ren 36
Dani el</w> 36
Janu ar</w> 36
p ä 35
p tion</w> 35
r aten</w> 35
o ft</w> 35
a k</w> 35
t ag 35
t our</w> 35
t ari 35
S eit</w> 35
S precher</w> 35
c ra 35
l en 35
h 30</w> 35
m ou 35
C ap 35
b â 35
b as</w> 35
b au</w> 35
b ran 35
- -</w> 35
D avi 35
d ah 35
A S 35
A D 35
E is 35
P an 35
P al 35
T ari 35
f ten</w> 35
k ra 35
0 - 35
K ra 35
B is 35
B is</w> 35
N ord 35
W ach 35
in zwischen</w> 35
ei s</w> 35
au te</w> 35
au ßer 35
el te</w> 35
eu ve</w> 35
pr esse</w> 35
ein fach</w> 35
st errei 35
sch er</w> 35
di x</w> 35
ge kommen</w> 35
it z</w> 35
ati e</w> 35
de c 35
pl ais 35
pro che</w> 35
200 0</w> 35
Sch war 35
St ad 35
no m</w> 35
ach er</w> 35
gr av 35
se au</w> 35
ex per 35
wei ß</w> 35
ll t</w> 35
lu si 35
Ch ampi 35
so genann 35
Er st</w> 35
geb racht</w> 35
ma ß 35
éc o 35
kl ar</w> 35
ation s 35
comm en 35
aff aires</w> 35
Ro bert</w> 35
her r 35
Mon aten</w> 35
premi ères</w> 35
ho f</w> 35
dam als</w> 35
cr è 35
gem ents</w> 35
ju illet</w> 35
pp en</w> 35
Pl atz</w> 35
sy ch 35
fam ili 35
Le ist 35
oy er</w> 35
lei ch 35
dig te</w> 35
schein t</w> 35
donn er</w> 35
vers aire</w> 35
rap port</w> 35
bis her</w> 35
indi qué</w> 35
visi on</w> 35
expli que</w> 35
commer ci 35
Fam ili 35
Sich er 35
présen ce</w> 35
Bür ger 35
activ ités</w> 35
ambi ance</w> 35
Christi an</w> 35
condi tions</w> 35
Andr é</w> 35
porte- parole</w> 35
oct obre</w> 35
Financi al</w> 35
p ai 34
r om 34
a o 34
a x 34
t end 34
i gn 34
v ont</w> 34
S im 34
S omm 34
c le</w> 34
c al</w> 34
l ö 34
h or 34
h ein 34
J ap 34
m äß 34
b esser</w> 34
s ement</w> 34
s pricht</w> 34
z ös 34
D eb 34
d ing 34
d ats</w> 34
L a 34
P ri 34
P lä 34
f ra 34
f allen</w> 34
H y 34
k or 34
k et 34
w er</w> 34
K rie 34
N icht</w> 34
4 4</w> 34
4 8</w> 34
8 , 34
2 3 34
W es 34
ch ants</w> 34
ch ner</w> 34
is ra 34
ti f</w> 34
ti ger</w> 34
li bre</w> 34
em iers</w> 34
pr en 34
at or</w> 34
ver t</w> 34
eh mer</w> 34
de z-vous</w> 34
ent schie 34
con vi 34
su ff 34
ci en</w> 34
vi e 34
vi cti 34
ac compagn 34
pro pose</w> 34
lo b 34
um ent 34
end ra</w> 34
gu te</w> 34
gan gen</w> 34
En ergi 34
t- elle</w> 34
19 8 34
Ge gen 34
rei ch</w> 34
do ssi 34
Ber u 34
co eur</w> 34
kön nten</w> 34
hä u 34
Zu sch 34
kti ons 34
da te</w> 34
20 10</w> 34
éle c 34
conc ert</w> 34
äu ß 34
Li eb 34
des halb</w> 34
Sam edi</w> 34
hän gi 34
fä hi 34
améric aine</w> 34
Jac ques</w> 34
ris que</w> 34
présen te</w> 34
autor ités</w> 34
Sie g</w> 34
GD L</w> 34
künf tig</w> 34
vict oire</w> 34
succ ès</w> 34
Beh ör 34
retrai te</w> 34
Stuttgar t</w> 34
haup t</w> 34
Wash ington</w> 34
r am 33
t a</w> 33
S port</w> 33
u it</w> 33
c a</w> 33
l ut 33
h el 33
h il 33
h aus</w> 33
h ör 33
n i</w> 33
b lan 33
è ge</w> 33
D o 33
D eux</w> 33
D rit 33
E ric</w> 33
T ex 33
T eil</w> 33
M at 33
I de 33
I tali 33
f all 33
H au 33
H or 33
k ret 33
K u 33
K at 33
K ran 33
B ahn 33
U N 33
4 2</w> 33
4 1</w> 33
2 .</w> 33
2 9 33
7 1</w> 33
ch orale</w> 33
in ée</w> 33
ti tre</w> 33
ei lig 33
sch uss</w> 33
ag é</w> 33
ag ner</w> 33
am e</w> 33
re ise</w> 33
ver ur 33
ter me</w> 33
dé mar 33
dé part</w> 33
ck s</w> 33
Ver tei 33
ad ministr 33
lo h 33
per du</w> 33
per mis</w> 33
ét ant</w> 33
min dest 33
wir tschaf 33
zi g</w> 33
lie ßen</w> 33
zu vor</w> 33
ak tu 33
Ge werk 33
fin anci 33
enf ant</w> 33
Pr in 33
sou lign 33
rit t</w> 33
führ ung</w> 33
év én 33
Poli tiker</w> 33
mitt el 33
app el 33
län ger 33
So zial 33
cro issance</w> 33
spiel en</w> 33
Land es 33
erklär t</w> 33
internation ale</w> 33
chi ff 33
empl oi</w> 33
tech n 33
commun auté</w> 33
issi ons</w> 33
terr ain</w> 33
zäh lt</w> 33
auc un</w> 33
besonder s</w> 33
gewor den</w> 33
Entwick lung</w> 33
-Jähri ge</w> 33
nég oci 33
voit ure</w> 33
objecti f</w> 33
untern ehmen</w> 33
hie ß</w> 33
agent ur</w> 33
Davi d</w> 33
mindest ens</w> 33
r er</w> 32
r uss 32
é po 32
o eu 32
g é 32
a w 32
t ch 32
t ard</w> 32
v ain 32
S A 32
S en 32
S on 32
S ou 32
S aison</w> 32
c y 32
l y 32
h ard</w> 32
h öh 32
n é 32
â ge</w> 32
m ei 32
m ain</w> 32
C H 32
C lu 32
b y</w> 32
z ü 32
D er 32
F A 32
F ä 32
F ir 32
A dr 32
E sp 32
P P 32
P eter</w> 32
T agen</w> 32
M ag 32
x im 32
G ra 32
f our</w> 32
f ac 32
B rem 32
Z ei 32
6 , 32
er ne</w> 32
ch ac 32
on g 32
is l 32
is ons</w> 32
al t</w> 32
pr eis</w> 32
st er 32
di ge</w> 32
ge führt</w> 32
ver di 32
ver stän 32
it ali 32
su re</w> 32
ré qu 32
ré gu 32
pro b 32
pro gr 32
ass embl 32
St unden</w> 32
St euer 32
An der 32
ét abl 32
ges ehen</w> 32
Re gi 32
mar que</w> 32
mar kt</w> 32
fi g</w> 32
hei ten</w> 32
Str e 32
Ein satz</w> 32
co û 32
e- t-il</w> 32
dis tribu 32
Jah res</w> 32
gesch lossen</w> 32
ho ch 32
nouv elles</w> 32
sor mais</w> 32
hä lt 32
anc en</w> 32
hin ter</w> 32
conc ern 32
inv esti 32
présent é</w> 32
och ter</w> 32
schw er</w> 32
Sta at 32
seu lement</w> 32
ätz e</w> 32
lon g 32
trä ge</w> 32
bis lang</w> 32
inn er 32
gri ff</w> 32
star k</w> 32
pa ar</w> 32
fa çon</w> 32
Ré publique</w> 32
respons able</w> 32
Minu ten</w> 32
Koali tion</w> 32
trib un 32
reç u</w> 32
Phili ppe</w> 32
Mushar raf</w> 32
Angeb ot</w> 32
Sicher heit</w> 32
ao ût</w> 32
p en 31
r ê 31
é chan 31
a des</w> 31
t ôt</w> 31
n um 31
â g 31
J am 31
s s</w> 31
s au 31
R us 31
z en 31
z um 31
z entr 31
z ep 31
D om 31
y on</w> 31
d d 31
d ement</w> 31
d lich</w> 31
F i 31
L age</w> 31
V ill 31
V iele</w> 31
T eil 31
M ass 31
G ri 31
f e 31
k i</w> 31
K ö 31
B ur 31
Z um</w> 31
3 9</w> 31
W est 31
W och 31
er ci 31
er neu 31
in form 31
on - 31
ti ve</w> 31
ti fs</w> 31
ti ons 31
ou bli 31
es - 31
em e</w> 31
pr ouv 31
pr emiers</w> 31
si cher</w> 31
sch i 31
ab hängi 31
re pas</w> 31
ver st 31
av anc 31
ré g 31
ré v 31
ré un 31
ra di 31
po s</w> 31
op position</w> 31
ex position</w> 31
än de</w> 31
ges agt</w> 31
ér er</w> 31
ger ech 31
Pro je 31
lie ß</w> 31
ak t</w> 31
ay ant</w> 31
gel d</w> 31
ven te</w> 31
dur ée</w> 31
sol che</w> 31
cor ps</w> 31
alis ten</w> 31
alis ation</w> 31
kt ur</w> 31
mé dec 31
lich es</w> 31
fon d</w> 31
og ra 31
Sain te- 31
De z 31
ins gesamt</w> 31
Bu ch</w> 31
oph e</w> 31
import ant</w> 31
mehr ere</w> 31
omp iers</w> 31
offen bar</w> 31
Sich erh 31
entraîn eur</w> 31
jähri ge</w> 31
possi ble</w> 31
tot al</w> 31
erwar tet</w> 31
Mitarbei ter</w> 31
Priv at 31
mul ti 31
Kilom eter</w> 31
Inform ationen</w> 31
erfol grei 31
épo que</w> 31
p an 30
p ompiers</w> 30
o bi 30
t te</w> 30
t aux</w> 30
i den 30
S port 30
c e 30
c er 30
c e- 30
l ungs 30
n eben</w> 30
â ce</w> 30
J on 30
m eine</w> 30
- L 30
R ol 30
z t</w> 30
y s</w> 30
y th 30
d ent 30
d ess 30
F er 30
F eh 30
L ar 30
E R</w> 30
P reis 30
M u 30
k am 30
k amen</w> 30
w es 30
w elt</w> 30
K ün 30
B ra 30
B ret 30
Z ahlen</w> 30
5 4</w> 30
4 3</w> 30
6 5</w> 30
er ont</w> 30
en ci 30
ar ri 30
tr ag 30
tr agen</w> 30
qu ali 30
li cht</w> 30
el ten</w> 30
em ment</w> 30
si eben</w> 30
at eg 30
et ter 30
di s</w> 30
ur gence</w> 30
ge pl 30
av oc 30
ni mmt</w> 30
dé t 30
pl om 30
be we 30
ac t</w> 30
ra con 30
gen heit</w> 30
ap pli 30
An dre 30
gr u 30
lo se</w> 30
iss es</w> 30
ér é</w> 30
In d 30
In stitu 30
tu de</w> 30
Ch i 30
Pro gram 30
te au</w> 30
fr oi 30
ven tion</w> 30
bes o 30
fin anc 30
Fr üh 30
Pr esse 30
cour t</w> 30
ant age</w> 30
pour tant</w> 30
fran zös 30
la quelle</w> 30
col om 30
Arb eit 30
Aut o</w> 30
Vi de 30
part ement</w> 30
weiter en</w> 30
cho is 30
Per s 30
ne y</w> 30
All erdings</w> 30
Man ager</w> 30
dou te</w> 30
trä gt</w> 30
visi te</w> 30
Akti en</w> 30
internation al</w> 30
sta at 30
améric ain</w> 30
act eurs</w> 30
accu eil</w> 30
mes ure</w> 30
Fußb all- 30
minister ium</w> 30
Stra ße</w> 30
syst ème</w> 30
wirk lich</w> 30
Hal b 30
Mann schaft</w> 30
zul etzt</w> 30
attent at</w> 30
résult ats</w> 30
spre chen</w> 30
Exper ten</w> 30
frü her 30
doi vent</w> 30
Mö g 30
développ ement</w> 30
Dez ember</w> 30
p eine</w> 29
r i</w> 29
r è 29
r endre</w> 29
é tr 29
é vo 29
g agn 29
t ungen</w> 29
v eille</w> 29
S V</w> 29
S ach 29
c ent</w> 29
m ann 29
m ét 29
C u 29
s av 29
s ait</w> 29
s am</w> 29
D op 29
D ie 29
L ö 29
L eh 29
L eute</w> 29
P ass 29
T ag 29
T ab 29
T ie 29
M eter</w> 29
I ll 29
f ê 29
H i 29
H en 29
k u 29
0 8</w> 29
0 6</w> 29
w n</w> 29
j eux</w> 29
B lo 29
ê mes</w> 29
2 5 29
W oh 29
W ährend</w> 29
7 , 29
7 2</w> 29
ch oix</w> 29
on te</w> 29
is ée</w> 29
ti ère</w> 29
au près</w> 29
ar ch 29
ar gent</w> 29
qu artier</w> 29
ein zi 29
ein ander 29
ein ander</w> 29
sch e 29
am i</w> 29
ver n 29
ver antwor 29
ati f</w> 29
ni er</w> 29
de - 29
ent er</w> 29
dé sormais</w> 29
con serv 29
su d</w> 29
vi elleicht</w> 29
par fois</w> 29
pro jets</w> 29
gen au</w> 29
Sch mi 29
An ti 29
An aly 29
An leger</w> 29
ges tion</w> 29
pu té</w> 29
Ch ine</w> 29
gu erre</w> 29
mar chés</w> 29
fr on 29
fr agt</w> 29
No ch</w> 29
hi ver</w> 29
ob serv 29
hal t</w> 29
Qu art 29
Ein zel 29
Po si 29
co - 29
ren dez-vous</w> 29
bu ts</w> 29
bu dg 29
Ges prä 29
gew innen</w> 29
sou tien</w> 29
gran d- 29
jou é</w> 29
ic ul 29
ho ch</w> 29
éle ction</w> 29
spr ech 29
ém a</w> 29
ém ent 29
vol l</w> 29
äf tig 29
produ ction</w> 29
Su d</w> 29
tour n 29
bou t</w> 29
Europ ä 29
prof essionn 29
Intern ation 29
pé tro 29
ats äch 29
letz te</w> 29
kr ise</w> 29
mor ts</w> 29
Sel bst 29
spiel er</w> 29
Is ra 29
Char les</w> 29
lib ération</w> 29
empl oy 29
Com pu 29
dür fte</w> 29
rest aur 29
Ét at</w> 29
ini ti 29
cir cul 29
Län dern</w> 29
nat ürlich</w> 29
Fern seh 29
unser e</w> 29
terr or 29
nation ale</w> 29
san té</w> 29
Den is</w> 29
zeich net</w> 29
Pun kte</w> 29
Minister präsident</w> 29
kn app</w> 29
Gener al 29
forder te</w> 29
bénéfi ci 29
Köl n</w> 29
Män ner</w> 29
Them a</w> 29
treff en</w> 29
regier ung</w> 29
plais ir</w> 29
o m</w> 28
a chen</w> 28
a trice</w> 28
t y 28
t h</w> 28
t est 28
i dée</w> 28
l ine</w> 28
h é 28
J etzt</w> 28
J ohn</w> 28
m and 28
m én 28
m ut</w> 28
m ission</w> 28
C at 28
b or 28
b em 28
b ul 28
b elles</w> 28
s our 28
s ac 28
R ad 28
D at 28
D re 28
D ruck</w> 28
F ach 28
L ab 28
A ff 28
T ä 28
T ous</w> 28
M ain 28
f ern</w> 28
k ü 28
0 7</w> 28
w ahl</w> 28
K ab 28
N ord</w> 28
ü hr 28
4 9</w> 28
7 8</w> 28
Ä r 28
en au</w> 28
an ie</w> 28
an ge</w> 28
an aly 28
ti ce</w> 28
tr ag</w> 28
ein ige</w> 28
at te</w> 28
ri s</w> 28
ge ber</w> 28
av is</w> 28
ent our 28
dé s</w> 28
us tri 28
pl ein</w> 28
mi ère</w> 28
be au</w> 28
be deu 28
su e</w> 28
su per 28
par mi</w> 28
ré us 28
ass ass 28
St and 28
Ver brau 28
ut zen</w> 28
um en</w> 28
end r 28
ex cep 28
all ée</w> 28
Re cht</w> 28
Be ck 28
ie - 28
fi g 28
ma î 28
hi que</w> 28
ens o</w> 28
t- être</w> 28
comm unes</w> 28
Str af 28
bli oth 28
Di es</w> 28
aff irme</w> 28
Th e</w> 28
dar an</w> 28
pos te</w> 28
ret en 28
aî tre</w> 28
zw öl 28
contr ôle</w> 28
Kin d</w> 28
Kin der 28
tour isme</w> 28
lei cht</w> 28
We g</w> 28
Ju gend 28
zus ätz 28
stän dig</w> 28
esti me</w> 28
größ te</w> 28
größ ten</w> 28
annon ce</w> 28
fa ci 28
schaf ts 28
Et ats-Unis</w> 28
Inter vie 28
arbei ten</w> 28
arb eit</w> 28
habit ants</w> 28
ajou té</w> 28
polit ische</w> 28
verb and</w> 28
ös ung</w> 28
fé dér 28
Te am 28
lég isl 28
constru ction</w> 28
reg istr 28
intér ess 28
Amer ikan 28
Ir an</w> 28
orig ine</w> 28
europé enne</w> 28
Rech ts 28
Kli ma 28
vra i</w> 28
Flug zeu 28
particuli èrement</w> 28
propri ét 28
eigent lich</w> 28
Wach st 28
Stad t 28
entschie den</w> 28
Adr esse</w> 28
long temps</w> 28
Sicherh eits 28
p ak 27
é qu 27
é vi 27
g - 27
g au 27
t v 27
t u</w> 27
v il 27
v res</w> 27
S ais 27
S ache</w> 27
c te</w> 27
h ou 27
h off 27
m un 27
m ouv 27
b re 27
b ung</w> 27
b an</w> 27
b aisse</w> 27
- Ver 27
D r 27
D F 27
D ev 27
y e</w> 27
d ol 27
d onne</w> 27
d ruck 27
T er 27
M au 27
I L 27
G ast 27
f ung</w> 27
f ut 27
f lu 27
f alls</w> 27
f oyer</w> 27
k rie 27
0 5</w> 27
0 9</w> 27
w ahr 27
K oh 27
B on 27
B und</w> 27
3 - 27
3 6 27
3 4</w> 27
W M</w> 27
er zi 27
er halten</w> 27
an ischen</w> 27
in qui 27
ti v</w> 27
es ter</w> 27
tr im 27
qu ée</w> 27
li que</w> 27
li eux</w> 27
li vre</w> 27
el s 27
eu sement</w> 27
al te</w> 27
si té</w> 27
st ade</w> 27
sch ätz 27
am is</w> 27
re ag 27
ver hin 27
ter rit 27
de ck 27
pl atz</w> 27
be ein 27
ac es</w> 27
par l 27
par ler</w> 27
ré cu 27
le ader</w> 27
pro fi 27
ass ist 27
gen de</w> 27
Sch al 27
St e 27
vo is 27
Ver fü 27
gr at 27
pi ed</w> 27
all ein</w> 27
ges etz 27
ges prochen</w> 27
ouv rir</w> 27
In f 27
ot t 27
ger e 27
Pro bl 27
Un ter</w> 27
fr is 27
Al ain</w> 27
gel n</w> 27
hal te</w> 27
rei chen</w> 27
tei lt</w> 27
co le</w> 27
att a 27
aff irmé</w> 27
Ges etz 27
poli tiques</w> 27
ück e</w> 27
dar unter</w> 27
pass age</w> 27
gro ß</w> 27
aur ont</w> 27
mé d 27
pf lich 27
Bundes k 27
ähr t</w> 27
anci ens</w> 27
Mit te</w> 27
conc ur 27
Aut os</w> 27
bo t</w> 27
Mo d 27
Kl ein 27
diff icul 27
dig ung</w> 27
kur z</w> 27
acc ep 27
tél év 27
tél éph 27
organis ation</w> 27
app el</w> 27
Ban ken</w> 27
préc ise</w> 27
mal gré</w> 27
best ä 27
errei cht</w> 27
abl ement</w> 27
habit u 27
Pu bli 27
dür fen</w> 27
cli ents</w> 27
nombr euses</w> 27
mes ures</w> 27
unser er</w> 27
anni versaire</w> 27
jähri gen</w> 27
gemein sam 27
mach te</w> 27
Dis k 27
sorti e</w> 27
meill eur</w> 27
invest iss 27
Bet eilig 27
hö ch 27
cade aux</w> 27
Besch äftig 27
élè ves</w> 27
Journ al</w> 27
recher che</w> 27
Cel a</w> 27
Lit er 27
occu p 27
Gem ein 27
issenschaf t 27
sû r</w> 27
Rek ord 27
demand é</w> 27
krit is 27
abili té</w> 27
Tari f 27
pai x</w> 27
Woch en 27
r age</w> 26
o f</w> 26
i o</w> 26
S üd 26
S itu 26
c ations</w> 26
h inter 26
h aut</w> 26
h eits 26
h nach 26
m u 26
m oi 26
C ert 26
s por 26
d y</w> 26
d ungs 26
d äch 26
F err 26
A ir</w> 26
E i 26
P as 26
T el 26
T al 26
T ele 26
I hr</w> 26
G ü 26
f en 26
f au 26
H ir 26
H aus</w> 26
H off 26
0 4</w> 26
w in 26
K an 26
N acht</w> 26
N amen</w> 26
U l 26
Z er 26
Z wei</w> 26
5 6</w> 26
5 3</w> 26
4 00</w> 26
6 00</w> 26
W ohn 26
7 .</w> 26
in stitu 26
is - 26
es pr 26
li m 26
al co 26
pr ison</w> 26
ein zu 26
st ab 26
at ur</w> 26
sch ef</w> 26
om e</w> 26
ag it</w> 26
et er 26
ri l</w> 26
ab sen 26
ge ord 26
ni fi 26
ent en 26
dé rou 26
pl at 26
con stat 26
ci vi 26
ac ie</w> 26
ac ité</w> 26
ac tions</w> 26
le g 26
im ag 26
im mer 26
aus zu 26
onn é</w> 26
onn er</w> 26
An gst</w> 26
af ri 26
gr âce</w> 26
lan g 26
um mer</w> 26
ann te</w> 26
for t 26
bi et 26
ger ich 26
mo bil 26
ie b</w> 26
den ken</w> 26
kl eine</w> 26
bei de</w> 26
Aus tr 26
ren contr 26
Vor sitzende</w> 26
fer enz</w> 26
cou p 26
äh n 26
uni on</w> 26
enn t</w> 26
inter pré 26
gesch lagen</w> 26
Gr und</w> 26
dem ok 26
Bund est 26
lich keiten</w> 26
me isten</w> 26
ind est</w> 26
ind est 26
contr at</w> 26
conn u</w> 26
gef allen</w> 26
schl uss</w> 26
Untern ehm 26
zus ammen 26
proch aine</w> 26
dom icile</w> 26
indi vi 26
To d</w> 26
siden ten</w> 26
Ur teil</w> 26
esp ace</w> 26
brau cht</w> 26
Jahr es 26
autom obi 26
Kri tik</w> 26
mani fest 26
ferm é</w> 26
Kun st 26
sim ple</w> 26
fais ait</w> 26
milit aire</w> 26
schlä ge</w> 26
diri ge 26
cade au</w> 26
völ lig</w> 26
élé br 26
Bern ard</w> 26
démo cr 26
sex u 26
thé âtre</w> 26
chin es 26
fes tiv 26
Jul i</w> 26
piè ce</w> 26
lors que</w> 26
Höh e</w> 26
québ écois</w> 26
Somm er</w> 26
dossi er</w> 26
PP P</w> 26
erneu t</w> 26
Verfü gung</w> 26
p ft</w> 25
g ü 25
g no 25
g nis</w> 25
t aire</w> 25
t är 25
e gel</w> 25
S é 25
S T 25
u te</w> 25
c élébr 25
l ern</w> 25
h ü 25
n ungen</w> 25
J eudi</w> 25
m assi 25
b ro 25
b lem</w> 25
s piel</w> 25
s érie</w> 25
R isi 25
d o</w> 25
d in 25
d ischen</w> 25
F on 25
F irma</w> 25
L ehr 25
V f 25
A L 25
A si 25
E T</w> 25
T on 25
O pf 25
I I</w> 25
f rapp 25
k ilom 25
K or 25
U S</w> 25
Z o 25
Z ahl</w> 25
1 - 25
7 6</w> 25
er w 25
en ge</w> 25
ch al 25
ch am 25
an o</w> 25
an de</w> 25
an zi 25
tr it 25
tr eten</w> 25
li ber 25
li vr 25
el er</w> 25
sch ung</w> 25
sch war 25
om be</w> 25
di ger</w> 25
ur ch</w> 25
re gar 25
ver besser 25
it eurs</w> 25
av ez</w> 25
ent sprech 25
be is 25
vi v 25
par ten 25
wi esen</w> 25
po st 25
ber eit</w> 25
Sch ü 25
Sch ließ 25
Sch ule</w> 25
ap t 25
no i</w> 25
Ver sicher 25
wer k</w> 25
op er 25
ser aient</w> 25
ad ress 25
lo t</w> 25
lo in</w> 25
eb enso</w> 25
än gt</w> 25
ges ellschaft</w> 25
ot ball</w> 25
ali tés</w> 25
mar i 25
so zi 25
Mar kt 25
du re</w> 25
Par ti 25
off re</w> 25
tem ents</w> 25
aff aire</w> 25
ren contre</w> 25
neu es</w> 25
sen si 25
Kon t 25
stell te</w> 25
Mon t 25
gran des</w> 25
pers ön 25
über haupt</w> 25
gesch äft</w> 25
sei l</w> 25
ho ck 25
gro s</w> 25
Me dien</w> 25
éle v 25
spr ach</w> 25
équi p 25
sui vre</w> 25
rou ge</w> 25
peu t-être</w> 25
car rière</w> 25
trouv er</w> 25
Ko sten</w> 25
weiter hin</w> 25
öh n 25
Sta aten</w> 25
déf ense</w> 25
grou pes</w> 25
Bil d</w> 25
jo ie</w> 25
wal t</w> 25
www. n- 25
cert aines</w> 25
arm ée</w> 25
Arbeits lo 25
stei gen</w> 25
Stu die</w> 25
Konz ern</w> 25
öffent lich 25
particip ation</w> 25
commer ce</w> 25
économ ique</w> 25
positi f</w> 25
auc une</w> 25
erst mals</w> 25
Sy l 25
actu ellement</w> 25
Ass oci 25
Gru ppe</w> 25
anst al 25
mondi ale</w> 25
élect orale</w> 25
techni que</w> 25
bru ch</w> 25
Wol f 25
provin ce</w> 25
enqu ête</w> 25
puis que</w> 25
AF P</w> 25
isra éli 25
chac un</w> 25
tribun al</w> 25
beso in</w> 25
zwöl f</w> 25
tv .de</w> 25
www.n- tv.de</w> 25
r ück 24
é mo 24
g az</w> 24
a de 24
a wa</w> 24
t el 24
t eur</w> 24
t atsäch 24
i c</w> 24
v ez</w> 24
e k</w> 24
S eine</w> 24
c ie</w> 24
c ture</w> 24
l ent</w> 24
h un 24
J ur 24
m auv 24
C am 24
b s 24
b ons</w> 24
b auen</w> 24
s ent 24
s omm 24
s éri 24
s oient</w> 24
è de</w> 24
z er 24
z iert</w> 24
D ro 24
d û</w> 24
d ler</w> 24
F o 24
F un 24
V ier 24
V ater</w> 24
A c 24
P ot 24
T u 24
M r 24
M ein 24
M indest 24
x e</w> 24
G as 24
f réqu 24
H and</w> 24
H inter 24
k at 24
k ämpf 24
w ehr 24
K ampf</w> 24
j ahr 24
B ü 24
B all 24
N un</w> 24
N ah 24
ü tt 24
4 6</w> 24
Ö l 24
Ö ff 24
ö tet</w> 24
er ait</w> 24
en zen</w> 24
ch oc 24
an f 24
an er</w> 24
an ne</w> 24
in ne</w> 24
in ation</w> 24
on ie</w> 24
on al 24
is ant</w> 24
is és</w> 24
is tique</w> 24
is lam 24
ti ères</w> 24
ei m 24
ou x</w> 24
au me</w> 24
ar es</w> 24
tr em 24
qu ent</w> 24
li t</w> 24
or ts</w> 24
or ation</w> 24
or gan 24
em pf 24
em agne</w> 24
pr esque</w> 24
ein igen</w> 24
at es</w> 24
at ur 24
di te</w> 24
di um</w> 24
am t 24
ur s</w> 24
as te</w> 24
ge zogen</w> 24
re f 24
ver lassen</w> 24
ati v</w> 24
ter t</w> 24
be gr 24
su ch 24
der ungen</w> 24
vi vre</w> 24
ré es</w> 24
ré gl 24
ra k 24
le bt</w> 24
po ss 24
po th 24
im age</w> 24
Sch ritt</w> 24
St o 24
St äd 24
ap préci 24
vo ie</w> 24
vo il 24
ell en 24
ad urch</w> 24
per met</w> 24
iss ant</w> 24
In di 24
ger icht</w> 24
ess es</w> 24
emb our 24
Pro blem</w> 24
wir tschaft</w> 24
we g</w> 24
mar qué</w> 24
Mar ie- 24
je wei 24
fi k 24
ich ts</w> 24
geb e</w> 24
entr er</w> 24
kl ag 24
kl einen</w> 24
comm ission</w> 24
fin anz 24
str af 24
att eint</w> 24
Fr agen</w> 24
ing - 24
dis pon 24
Kon tr 24
th e</w> 24
rem is</w> 24
dev raient</w> 24
fol gt</w> 24
kon tr 24
nah m</w> 24
unter schri 24
euro pä 24
Aut o 24
Sp itze</w> 24
Li gue</w> 24
mitt el</w> 24
Can o 24
Tr ois</w> 24
cré é</w> 24
cho ses</w> 24
Con seil</w> 24
Ne ws</w> 24
pre ise</w> 24
déf ai 24
kün digt</w> 24
versi cher 24
préc isé</w> 24
cro y 24
Mün chner</w> 24
setz ung</w> 24
erh öh 24
Fl ori 24
sich ts 24
envir onnement</w> 24
mati ère</w> 24
géné rale</w> 24
inc en 24
andi s</w> 24
particip er</w> 24
Bür ger</w> 24
ken nen</w> 24
Dur ch 24
Da zu</w> 24
jun ge</w> 24
Kun st</w> 24
Führ ungs 24
Pe ti 24
travaill er</w> 24
canadi enne</w> 24
amerikan ischen</w> 24
Ol ympi 24
völ k 24
ail les</w> 24
sup pl 24
communi qué</w> 24
plu part</w> 24
Kul t 24
Parlam ent 24
Mos k 24
kir ch</w> 24
acci dent</w> 24
perman ence</w> 24
Patri ck</w> 24
Tech ni 24
Energi e 24
budg et</w> 24
réus si</w> 24
moi tié</w> 24
dispon i 24
p ein 23
p tions</w> 23
é gi 23
o .</w> 23
o ber 23
g an</w> 23
g sten</w> 23
a sch 23
t ine</w> 23
v ê 23
v it 23
v ing 23
S .</w> 23
S C</w> 23
S il 23
S and 23
S eit 23
S tim 23
S eiten</w> 23
S onder 23
c ot 23
h eb 23
n és</w> 23
m éri 23
s par 23
s el</w> 23
s port</w> 23
R oh 23
è rent</w> 23
z eit 23
D V 23
d ri 23
F D 23
F el 23
E le 23
P reis</w> 23
P reise</w> 23
T ürk 23
M att 23
M ême</w> 23
M ehr 23
O R 23
f ou 23
f eu 23
f ör 23
k in 23
k ehr</w> 23
w agen</w> 23
à - 23
B all</w> 23
B üh 23
8 5</w> 23
3 .</w> 23
W - 23
W ill 23
7 7</w> 23
Ç a</w> 23
en vie</w> 23
en registr 23
an i</w> 23
an a</w> 23
on a</w> 23
on str 23
au di 23
qu alité</w> 23
pr euve</w> 23
st eh 23
sch ö 23
ab sol 23
ge gangen</w> 23
re cor 23
ver sor 23
ver hand 23
av ril</w> 23
ent lich</w> 23
dé pl 23
us er</w> 23
con si 23
mi - 23
be ge 23
su it</w> 23
ff e</w> 23
ci pe</w> 23
vi c</w> 23
00 .000</w> 23
ré seau</w> 23
wi hr</w> 23
pro vo 23
ber u 23
ain te</w> 23
aus piel 23
af ghan 23
se e</w> 23
se kret 23
end et</w> 23
end lich</w> 23
ex - 23
ex ist 23
ex péri 23
for man 23
ger t</w> 23
ess enti 23
Be trieb 23
Ch am 23
mar kt 23
Er n 23
lie b</w> 23
ak zep 23
ma i</w> 23
én ergie</w> 23
off ert</w> 23
geh e</w> 23
str ei 23
tem pér 23
Di re 23
ep t</w> 23
fer me</w> 23
neu f</w> 23
Ges ellschaft</w> 23
gew al 23
rit anni 23
gar dien</w> 23
ph arm 23
sti mm 23
zei tig</w> 23
rem ar 23
rem porté</w> 23
cl am 23
cl és</w> 23
cl air</w> 23
eff ic 23
ko sten</w> 23
dev ra</w> 23
posi tions</w> 23
pour raient</w> 23
rich tig</w> 23
me ister 23
Me yer</w> 23
bar en</w> 23
prés ent</w> 23
Her r 23
Aut ob 23
Sp an 23
inv it 23
Su per 23
cré er</w> 23
bil d</w> 23
tig keit</w> 23
rech te</w> 23
klär ung</w> 23
199 9</w> 23
cons équ 23
teil ung</w> 23
All emagne</w> 23
dom in 23
prom is</w> 23
ym p 23
Ma ß 23
char ge</w> 23
verk ehr</w> 23
olo gi 23
loc al</w> 23
Wei hnach 23
tra vers</w> 23
Spiel er</w> 23
dien st 23
retrouv er</w> 23
act eur</w> 23
Dar four</w> 23
Part i</w> 23
öffent lichen</w> 23
municip al</w> 23
Län der</w> 23
proc é 23
näch ste</w> 23
berich tet</w> 23
différ ents</w> 23
wich tig</w> 23
At om 23
Dem ok 23
fass ungs 23
Geor ge</w> 23
Hil fe</w> 23
lauf en</w> 23
capit ale</w> 23
Tre ffen</w> 23
Mut ter</w> 23
aven ir</w> 23
Mili tär 23
Angel a</w> 23
néc ess 23
syn dic 23
häu fig</w> 23
Behör den</w> 23
oeu vre</w> 23
inner halb</w> 23
pak istan 23
Situ ation</w> 23
absen ce</w> 23
r us 22
r ac 22
é tran 22
t n 22
t ons</w> 22
t aine</w> 22
i et</w> 22
v ari 22
v oix</w> 22
e .de</w> 22
S ech 22
S ek 22
c és</w> 22
l ing</w> 22
n am 22
n eu</w> 22
n ehmer</w> 22
n utzen</w> 22
J os 22
m t</w> 22
m ains</w> 22
b ord</w> 22
s ée</w> 22
- Chef</w> 22
R y 22
R ob 22
z z 22
D em</w> 22
d ist 22
d ungen</w> 22
d nis</w> 22
F ans</w> 22
L eit 22
A C 22
E d 22
P as</w> 22
P lusi 22
T V 22
I S 22
G al 22
f ru 22
H essen</w> 22
H äl 22
H agu 22
k el 22
k um</w> 22
0 .000</w> 22
w olle</w> 22
K ör 22
j ur 22
B re 22
B lan 22
N utz 22
Z war</w> 22
ü st 22
1 50</w> 22
6 7</w> 22
6 8</w> 22
2 1 22
W ahr 22
W eil</w> 22
W ahl</w> 22
7 4</w> 22
er inn 22
en gl 22
in t</w> 22
in i</w> 22
un ser</w> 22
is ans</w> 22
is sue</w> 22
ti enne</w> 22
li c 22
li ge</w> 22
ai m 22
ai ls</w> 22
pr ol 22
pr ati 22
st att 22
sch ule</w> 22
sch utz</w> 22
ag ence</w> 22
ol l</w> 22
am our</w> 22
re gel 22
ver t 22
ver w 22
ver lan 22
ati ven</w> 22
de x</w> 22
dé par 22
dé fin 22
con tribu 22
der rière</w> 22
ff er</w> 22
ré serv 22
est - 22
ach t 22
wer t</w> 22
gr ève</w> 22
pi re</w> 22
ad ul 22
lan cé</w> 22
end s</w> 22
end ung</w> 22
for te</w> 22
ét és</w> 22
gs te</w> 22
ir gend 22
ot a</w> 22
ger ne</w> 22
etz en</w> 22
Au ßer 22
lu mière</w> 22
min utes</w> 22
Be am 22
Be gin 22
Ch el 22
Ch avez</w> 22
we der</w> 22
zi ger</w> 22
den ce</w> 22
ich ts 22
zu dem</w> 22
auf ge 22
entr ev 22
éc r 22
éc ou 22
éri que</w> 22
bes ten</w> 22
gn er</w> 22
fin alement</w> 22
Ber icht</w> 22
emi - 22
att ein 22
aff en</w> 22
aff ich 22
ph otos</w> 22
zei gte</w> 22
über ra 22
dar über</w> 22
nouv el</w> 22
pour quoi</w> 22
da cht</w> 22
Gesch äft</w> 22
trouv é</w> 22
ban de</w> 22
mö chte</w> 22
arr êt</w> 22
dig ungs 22
tig te</w> 22
tig ung</w> 22
acc us 22
vis iteurs</w> 22
zwei te</w> 22
prä sen 22
ath an</w> 22
air ement</w> 22
län gst</w> 22
El tern</w> 22
woh ner</w> 22
lon gue</w> 22
wal d</w> 22
not wen 22
Kr ise</w> 22
ft war 22
eil lir</w> 22
Frank reich</w> 22
Akti e</w> 22
olo gen</w> 22
cô tés</w> 22
Tra di 22
Fl ü 22
consei ller</w> 22
Dies er</w> 22
régi on 22
Pu is</w> 22
Im mobili 22
économ ie</w> 22
cep endant</w> 22
bet onte</w> 22
Gew inn 22
versu cht</w> 22
activ ité</w> 22
bless é</w> 22
Nieder lage</w> 22
Wal ter</w> 22
intér êt</w> 22
wach sen 22
étu de</w> 22
étu des</w> 22
Grün en</w> 22
get ötet</w> 22
hö her 22
schrei bt</w> 22
kost et</w> 22
Kre dit 22
présiden ti 22
consomm ation</w> 22
Invest oren</w> 22
sap in</w> 22
Oli vier</w> 22
droh t</w> 22
mess age</w> 22
chem in</w> 22
propr e</w> 22
commen cé</w> 22
Krie g</w> 22
Clu b</w> 22
gerech net</w> 22
biet et</w> 22
Opf er</w> 22
Schließ lich</w> 22
choc ol 22
Plusi eurs</w> 22
Häl fte</w> 22
Begin n</w> 22
p il 21
r au 21
g yp 21
t ul 21
t eurs</w> 21
t ém 21
t érieur</w> 21
i ques</w> 21
v ité</w> 21
v éné 21
S ur 21
S ein</w> 21
S par 21
S lo 21
S ho 21
S icht</w> 21
u sion</w> 21
c as 21
l l</w> 21
l es 21
l eh 21
h eur</w> 21
h onn 21
h am</w> 21
h offen</w> 21
m eur 21
m ali 21
m är 21
m êmes</w> 21
C i 21
C in 21
C ro 21
b onn 21
b lieb</w> 21
s ci 21
s weise</w> 21
D E 21
D aten</w> 21
y si 21
d s 21
F est 21
L aut</w> 21
L ig 21
A T 21
A .</w> 21
E hr 21
P A</w> 21
P il 21
P lan 21
T ochter</w> 21
O ri 21
f lo 21
H än 21
k al 21
9 1</w> 21
w est 21
K am 21
K ie 21
K anzlerin</w> 21
j ard 21
Z . 21
Z in 21
Z ur</w> 21
6 2</w> 21
W ert 21
7 3</w> 21
ö tz 21
en e 21
ch e 21
in o</w> 21
in k 21
un be 21
ti ens</w> 21
ar i</w> 21
tr o</w> 21
tr au 21
qu ar 21
li s</w> 21
or ama</w> 21
eu e</w> 21
eu ern</w> 21
al sa 21
em pr 21
pr u 21
ein s</w> 21
st ation</w> 21
et h</w> 21
et ern</w> 21
re ven 21
ver än 21
ver schie 21
ver mut 21
oi le</w> 21
ent u 21
dé bu 21
ci ers</w> 21
ré p 21
le ist 21
ran g</w> 21
pro fon 21
Sch utz</w> 21
St ur 21
St ep 21
ist ischen</w> 21
ist ische</w> 21
lo r</w> 21
lo ss 21
lan de</w> 21
tou ché</w> 21
per mettre</w> 21
wei t 21
Re is 21
Pro vin 21
ali for 21
zi eh 21
je un 21
den ten</w> 21
fi el</w> 21
zu éli 21
geb aut</w> 21
br ingt</w> 21
éc riv 21
gel ten</w> 21
ill on</w> 21
ill ustr 21
str it 21
tei le</w> 21
Po st</w> 21
fer n 21
fer a</w> 21
cour ant</w> 21
kt ur 21
jou eur</w> 21
comp éti 21
sel bst 21
Gr ou 21
port ée</w> 21
piel sweise</w> 21
év ol 21
ind ustri 21
Me dien 21
aî ne</w> 21
ju ge</w> 21
jus tice</w> 21
dre h 21
cul ture</w> 21
anci enne</w> 21
äu fer</w> 21
Ger icht</w> 21
bil an</w> 21
Or t</w> 21
gef unden</w> 21
Bes u 21
199 5</w> 21
199 8</w> 21
Wir k 21
Ju li 21
Ju lien</w> 21
Jo ach 21
rel ev 21
mus ée</w> 21
heur eux</w> 21
ym n 21
Unter stütz 21
sal ari 21
mag as 21
améric ains</w> 21
Is lam 21
dro its</w> 21
dien st</w> 21
polit ischen</w> 21
asi s</w> 21
Flu gh 21
hol en</w> 21
sign é</w> 21
Frankfur ter</w> 21
nation al</w> 21
Bran che</w> 21
voy age</w> 21
Strei k</w> 21
mani ère</w> 21
ferm ée</w> 21
Fil m</w> 21
Gran d</w> 21
moy ens</w> 21
particu lier</w> 21
Führ ung</w> 21
fais ant</w> 21
probl èmes</w> 21
pou ss 21
Bör sen 21
konz ern</w> 21
amerikan ische</w> 21
Des halb</w> 21
CS U</w> 21
siè cle</w> 21
On lin 21
augment ation</w> 21
schaff en</w> 21
Lond on</w> 21
Ih re</w> 21
Geh eim 21
Universi tät</w> 21
véhicu le</w> 21
ehemali gen</w> 21
drit ten</w> 21
élec tri 21
Vertei digungs 21
chiff re</w> 21
froi d</w> 21
Är z 21
excep tionn 21
blioth èque</w> 21
Intervie w</w> 21
Parti e</w> 21
suppl ément 21
Türk ei</w> 21
pharm acie</w> 21
véné zuéli 21
p eur</w> 20
p ense</w> 20
r ôle</w> 20
é die</w> 20
é ment</w> 20
o ise</w> 20
o ssen</w> 20
g al 20
g és</w> 20
a éri 20
t or 20
t aus 20
t andis</w> 20
S es</w> 20
u cht</w> 20
c elles</w> 20
c amp 20
h ors</w> 20
n aissance</w> 20
m il 20
m ein</w> 20
m ag</w> 20
C O 20
C I 20
b a</w> 20
b es</w> 20
s auv 20
s atis 20
R ein 20
è ques</w> 20
è vement</w> 20
D F</w> 20
D eu 20
d .</w> 20
d ra 20
d eten</w> 20
d ruck</w> 20
d emi- 20
L yon</w> 20
L ösung</w> 20
V I 20
V inc 20
A M 20
A gent 20
P our 20
M un 20
M ou 20
G on 20
G az 20
f ei 20
f el</w> 20
f il</w> 20
f isc 20
H ä 20
H af 20
H eute</w> 20
k ap 20
k ing</w> 20
k ampf</w> 20
k ürz 20
w en</w> 20
w illi 20
w oo 20
ç ant</w> 20
B M 20
B ag 20
B lu 20
N ummer</w> 20
Z ul 20
5 8</w> 20
8 - 20
er lau 20
ch aus 20
an gl 20
an ische</w> 20
in ge</w> 20
in at</w> 20
ti ment</w> 20
ti erte</w> 20
ei li 20
es c 20
es tim 20
qu o 20
qu és</w> 20
or ales</w> 20
em ar 20
st anden</w> 20
ag e 20
di plom 20
am t</w> 20
am én 20
am éli 20
ur é</w> 20
ab zu 20
ge bi 20
dé termin 20
us sion</w> 20
con tres</w> 20
su l 20
su m 20
su chen</w> 20
su ed 20
ro s</w> 20
ff t</w> 20
vi ennent</w> 20
le gt</w> 20
pro pos 20
pro ches</w> 20
ber ger</w> 20
ass er</w> 20
ass ez</w> 20
im ages</w> 20
gen re</w> 20
ck er 20
Sch il 20
Sch auspiel 20
St éph 20
onn at</w> 20
pré voit</w> 20
ist isch</w> 20
um ents</w> 20
end em 20
per forman 20
for mi 20
iss ait</w> 20
ér ence</w> 20
ir a</w> 20
ger ä 20
Au jourd'</w> 20
and elt</w> 20
Ch ancen</w> 20
we isen</w> 20
gu eur</w> 20
zi eht</w> 20
den e</w> 20
den k 20
fr agen</w> 20
Al ors</w> 20
Ar me 20
ob lig 20
tri fft</w> 20
är en</w> 20
tem p 20
co m</w> 20
gew äh 20
wur f</w> 20
Ro y 20
Kon jun 20
ander er</w> 20
alis mus</w> 20
Proz ess</w> 20
gar anti 20
inter ro 20
comp ter</w> 20
rem ise</w> 20
eff orts</w> 20
sor te</w> 20
kti onen</w> 20
deutsch e.de</w> 20
met er</w> 20
met ure</w> 20
ju di 20
cul tur 20
For m 20
ém issions</w> 20
unter schie 20
unter stütz 20
dire kt</w> 20
Lu x 20
car te</w> 20
trouv e</w> 20
glei chen</w> 20
produ ire</w> 20
Le ague</w> 20
Mensch en 20
art istes</w> 20
des c 20
tél é 20
prof it</w> 20
cons ac 20
We ise</w> 20
sep h</w> 20
Jo seph</w> 20
cert aine</w> 20
bel ast 20
fil ms</w> 20
Ma sch 20
setz ungen</w> 20
Am t</w> 20
val eur</w> 20
Regier ungs 20
internation alen</w> 20
Tra in 20
Mi o.</w> 20
fai ts</w> 20
assur er</w> 20
Ren é</w> 20
fä lle</w> 20
sich tlich</w> 20
retrouv é</w> 20
vertr ag</w> 20
Rich ter</w> 20
cir const 20
proc ès</w> 20
chau d</w> 20
nat ur 20
Fußb all</w> 20
Vertr ag</w> 20
inscri ptions</w> 20
Strei ks</w> 20
bless és</w> 20
possi bilité</w> 20
Cou pe</w> 20
tent é</w> 20
bal d</w> 20
Sy st 20
cri min 20
Wi der 20
probl ème</w> 20
schrei ben</w> 20
bew us 20
Gef ahr</w> 20
tab le 20
hoh e</w> 20
cit oy 20
présiden te</w> 20
pap ier</w> 20
itä t</w> 20
candi dat</w> 20
Fol gen</w> 20
adjoin ts</w> 20
Parlam ent</w> 20
Quali fik 20
Bundeslig a</w> 20
Berei ch</w> 20
enseign ements</w> 20
mod èle</w> 20
Ott awa</w> 20
anwal tschaft</w> 20
Person al 20
Ermitt lungen</w> 20
écri t</w> 20
mäß ig</w> 20
victi me</w> 20
lut te</w> 20
Kran ken 20
administr ation</w> 20
évén ement</w> 20
russ ischen</w> 20
Fir men</w> 20
régu li 20
établ issement</w> 20
Rus sie</w> 20
Kün st 20
étr ang 20
circul ation</w> 20
gau che</w> 20
territ oire</w> 20
issenschaft ler</w> 20
Cert ains</w> 20
Fon ds</w> 20
beis pielsweise</w> 20
Associ ation</w> 20
Hagu enau</w> 20
Chel se 20
Joach im</w> 20
sued deutsche.de</w> 20
p sych 19
r eine</w> 19
o d 19
o w</w> 19
g lob 19
v illes</w> 19
S '</w> 19
S oci 19
S ohn</w> 19
u i- 19
c élè 19
l et 19
l aisse</w> 19
l endem 19
h om 19
h ang</w> 19
n ern</w> 19
n eten</w> 19
C F</w> 19
b ü 19
b au 19
b all 19
s ach 19
s port 19
R ah 19
R oll 19
R adi 19
z ö 19
y eux</w> 19
d ant</w> 19
F I 19
F ri 19
L E</w> 19
L auf 19
V ille</w> 19
A in 19
E h 19
E U</w> 19
P ou 19
P ek 19
M ah 19
M iss 19
M ath 19
O r</w> 19
O b</w> 19
O N</w> 19
I T 19
G ér 19
f as 19
f and</w> 19
f äl 19
H ab 19
H it 19
H EI 19
k ri 19
9 .</w> 19
9 9</w> 19
K ev 19
j en 19
j ungen</w> 19
N '</w> 19
N etz 19
5 9</w> 19
8 4</w> 19
8 2</w> 19
8 00</w> 19
8 .2007</w> 19
W .</w> 19
W ech 19
W M- 19
W IL 19
en gen</w> 19
ch ev 19
an zu 19
in cl 19
un abhängi 19
on to</w> 19
is heim</w> 19
ou tre</w> 19
es ch 19
es te</w> 19
ar en</w> 19
tr af 19
qu et</w> 19
al o 19
pr est 19
si n</w> 19
st off 19
at er 19
at tribu 19
sch au</w> 19
ag ent</w> 19
di a</w> 19
di ction</w> 19
di vin</w> 19
ri re</w> 19
re v 19
re den</w> 19
re venu</w> 19
it al 19
eh in</w> 19
ter s 19
de venu</w> 19
dé g 19
pl eine</w> 19
su cht</w> 19
der s</w> 19
vi a</w> 19
ac tionn 19
par tei</w> 19
ré s 19
ré col 19
ré forme</w> 19
ra ch 19
le ge</w> 19
le quel</w> 19
ran ts</w> 19
pro pos</w> 19
com man 19
im mobili 19
im pression</w> 19
gen e</w> 19
Sch r 19
aus o</w> 19
An ne</w> 19
An gl 19
ach tet</w> 19
pré f 19
pré vu</w> 19
se ction</w> 19
um strit 19
ex iste</w> 19
for ce</w> 19
än en</w> 19
wei ten</w> 19
iss eur</w> 19
bi eter</w> 19
min im 19
Be völk 19
Ch ance</w> 19
Pro t 19
ten te</w> 19
we chs 19
ali ment 19
ali tät</w> 19
so l</w> 19
Mar k 19
je den</w> 19
Er d 19
Er stein</w> 19
lie fer 19
zu frie 19
ob jet</w> 19
ob wohl</w> 19
ob tenir</w> 19
tri eben</w> 19
tri ème</w> 19
én om 19
ay s</w> 19
t- on</w> 19
Ge dan 19
rei che</w> 19
off enen</w> 19
Str u 19
él us</w> 19
Qu ant</w> 19
tem por 19
ör t</w> 19
vor sitzende</w> 19
att aque</w> 19
ren ce</w> 19
ren contres</w> 19
Pr esse</w> 19
Ges amt 19
gew öhn 19
dis par 19
dis position</w> 19
uni que</w> 19
ph énom 19
sei ts</w> 19
ho sp 19
dem ment</w> 19
ern s</w> 19
lä ssi 19
sor t</w> 19
aur aient</w> 19
fol gen</w> 19
wor t</w> 19
me ist</w> 19
Auf sichts 19
Me ister 19
Bundes regierung</w> 19
mat chs</w> 19
dire ktor</w> 19
fl ü 19
fl ation</w> 19
inv ités</w> 19
Kl asse</w> 19
Vi ct 19
Ger ichts 19
tour noi</w> 19
cho c</w> 19
rech net</w> 19
Mer ce 19
kur z 19
acc ro 19
Qué b 19
soci ale</w> 19
Sta at</w> 19
dan se</w> 19
Bil der</w> 19
bis her 19
mor gen</w> 19
Kar l 19
Bu ch 19
plac es</w> 19
Akti en 19
dép end 19
pouv ait</w> 19
olo gique</w> 19
zahl t</w> 19
welt weit</w> 19
oir s</w> 19
Mus ée</w> 19
Ren nen</w> 19
.0 8.2007</w> 19
ajou te</w> 19
Christ ophe</w> 19
ques tions</w> 19
Rich tung</w> 19
Em man 19
accu eill 19
Jahr zeh 19
grei fen</w> 19
bet eili 19
Ser vi 19
berich tete</w> 19
minister in</w> 19
Da für</w> 19
emp ê 19
rédu ction</w> 19
cat ho 19
journ alistes</w> 19
Bör se</w> 19
Musi k 19
schwer en</w> 19
spi elt</w> 19
Bas - 19
fun ktion 19
Nouv el</w> 19
kräf te</w> 19
eigen e</w> 19
entschei den</w> 19
läu ft</w> 19
Lan des</w> 19
Ergeb nis</w> 19
suiv i</w> 19
früh er</w> 19
Canadi ens</w> 19
véhicu les</w> 19
Mü ller</w> 19
train er</w> 19
traditionn el</w> 19
véri table</w> 19
Alt kirch</w> 19
Pol en</w> 19
jün gsten</w> 19
Spitz en 19
Lok führer</w> 19
verein bar 19
sogenann ten</w> 19
Plä ne</w> 19
Zusch auer</w> 19
FA Z. 19
assembl ée</w> 19
hält nis</w> 19
Jam es</w> 19
zum indest</w> 19
oubli er</w> 19
Rol and</w> 19
Bret eau</w> 19
arri ve</w> 19
restaur ant</w> 19
Tä ter</w> 19
législ atives</w> 19
Amerikan er</w> 19
Inf os</w> 19
fau dr 19
espr it</w> 19
Unternehm ens 19
indivi du 19
kilom ètres</w> 19
hock ey</w> 19
Wolf gang</w> 19
hun dert</w> 19
fréqu ent 19
Öff ent 19
jewei ls</w> 19
recor d</w> 19
rus se</w> 19
présidenti elle</w> 19
Unterstütz ung</w> 19
lendem ain</w> 19
Ain si</w> 19
Pek ing</w> 19
FAZ. N 19
p les</w> 18
p ause</w> 18
o ten</w> 18
g lichen</w> 18
g agner</w> 18
a ie</w> 18
t ait</w> 18
t isch</w> 18
t omb 18
S E 18
S N 18
S ab 18
c our</w> 18
l ag</w> 18
l eute</w> 18
h - 18
h aft</w> 18
h éro 18
n s</w> 18
n on 18
n ord</w> 18
J un 18
J oh 18
J uni</w> 18
m is 18
C ô 18
C et</w> 18
C as 18
C ir 18
b it 18
b ür 18
b illi 18
s sten</w> 18
R ot 18
R ie 18
è se</w> 18
D N 18
D ort</w> 18
d ents</w> 18
F av 18
F le 18
L or 18
V ir 18
A i 18
A h 18
A pp 18
E st 18
P ré 18
P op 18
T our</w> 18
T ot 18
M eh 18
M ic 18
M äd 18
G abri 18
H on 18
k re 18
9 3</w> 18
w ehr</w> 18
w ollten</w> 18
w ahlen</w> 18
K n 18
j ähr 18
B C</w> 18
N eben</w> 18
ü b 18
1 . 18
5 - 18
. com</w> 18
6 4</w> 18
6 9</w> 18
6 3</w> 18
2 e</w> 18
2 2 18
W ert</w> 18
Ö sterrei 18
ß er</w> 18
er zählt</w> 18
en ses</w> 18
en vis 18
in ique</w> 18
un n 18
ti z 18
au d</w> 18
es e</w> 18
tr ain</w> 18
qu in 18
or ph 18
eu x- 18
em ens</w> 18
si eb 18
si ve</w> 18
st ur 18
om ie</w> 18
ag s</w> 18
ag ers</w> 18
ri d</w> 18
ab el</w> 18
ge m</w> 18
ver zi 18
it e 18
it y</w> 18
av ance</w> 18
ter en</w> 18
ni eder 18
ent fer 18
dé s 18
dé partement</w> 18
pl ä 18
ci s</w> 18
ci te</w> 18
par c</w> 18
par cours</w> 18
ré ussi 18
wi der 18
pro te 18
pro vis 18
com pris</w> 18
eur er</w> 18
eur es</w> 18
Sch u 18
St ar 18
no ver</w> 18
Ver gleich</w> 18
Ver antwor 18
op tim 18
lo gement</w> 18
lan ds</w> 18
ex cell 18
wei s</w> 18
ges ti 18
iss ent</w> 18
ér o</w> 18
ir s</w> 18
Au gen</w> 18
ru p 18
ru es</w> 18
Re ise</w> 18
Be wer 18
pe c 18
ten tion</w> 18
ali a</w> 18
ali en</w> 18
mar k 18
je de</w> 18
fi x 18
zu gleich</w> 18
ak tion</w> 18
auf zu 18
Ar bei 18
Fran k</w> 18
Fran z</w> 18
gel ö 18
rei ch 18
comm iss 18
mon tant</w> 18
Qu and</w> 18
sol le</w> 18
sol dats</w> 18
Fr au 18
Vor aus 18
Vor stand 18
cou ps</w> 18
Ro ss 18
poli ciers</w> 18
Kon fli 18
her aus</w> 18
cher ch 18
cti ve</w> 18
Ab end</w> 18
über zeu 18
rem erci 18
sc ol 18
dem ain</w> 18
port ent</w> 18
ret é</w> 18
ig ung</w> 18
da d</w> 18
mü ssten</w> 18
Poli zei 18
fran ch 18
jus te</w> 18
personn ages</w> 18
For m</w> 18
bour ge 18
vol on 18
dire ct</w> 18
mö gen</w> 18
conn aiss 18
bil dung</w> 18
acc ès</w> 18
län der</w> 18
kün digte</w> 18
nach dem</w> 18
hist or 18
hist ori 18
indi que</w> 18
ins pi 18
eng agement</w> 18
Col omb 18
mag az 18
Gu y</w> 18
inst ant</w> 18
pa tr 18
Wer k</w> 18
spect ateurs</w> 18
errei chen</w> 18
Stu denten</w> 18
expli qué</w> 18
durch schn 18
Gro ßb 18
beh aup 18
Christ ine</w> 18
Tor onto</w> 18
Ur lau 18
eri al</w> 18
gehör en</w> 18
betr ei 18
fé dé 18
Län der 18
édi tion</w> 18
autom obil 18
ohn ehin</w> 18
reis en</w> 18
tir er</w> 18
Dien st 18
kauf t</w> 18
kauf en</w> 18
i- même</w> 18
popul ation</w> 18
popul aire</w> 18
konn ten</w> 18
Amer ik 18
cat ég 18
Gl ück</w> 18
fo otball</w> 18
quit té</w> 18
Off i 18
canadi en</w> 18
fav eur</w> 18
champi on</w> 18
prot est 18
Mitglie der</w> 18
moder ne</w> 18
brit ischen</w> 18
Bild unterschri 18
Zentr al 18
del à</w> 18
adjoin t</w> 18
bon heur</w> 18
rapi dement</w> 18
Wass er</w> 18
Ergeb nisse</w> 18
tex te</w> 18
au- delà</w> 18
cent aines</w> 18
Eng land</w> 18
Afri que</w> 18
Alex and 18
han del</w> 18
chap elle</w> 18
verkauf t</w> 18
Konkurren z</w> 18
bran che</w> 18
crè che</w> 18
Leist ung</w> 18
Famili en 18
Sim on</w> 18
kor e 18
aktu ellen</w> 18
Gewerk schaft</w> 18
vain c 18
cy cl 18
ogra ph 18
quali fi 18
ateg ie</w> 18
avoc at</w> 18
gagn é</w> 18
Analy sten</w> 18
employ és</w> 18
Probl eme</w> 18
Bundesk anzlerin</w> 18
difficul tés</w> 18
Schü ler</w> 18
Arbeitslo sen 18
tatsäch lich</w> 18
Mr d.</w> 18
défai te</w> 18
Mosk au</w> 18
sekret är</w> 18
expéri ence</w> 18
Sek unden</w> 18
Außer dem</w> 18
entrev ue</w> 18
compéti tion</w> 18
Gér ard</w> 18
WIL L 18
Québ écois</w> 18
FAZ.N ET</w> 18
Bildunterschri ft</w> 18
r as 17
r um 17
é ger</w> 17
g am 17
g ée</w> 17
t au 17
t ags 17
i ger</w> 17
i ors</w> 17
i rak 17
v ins</w> 17
e gel 17
S ü 17
S an</w> 17
S ant 17
S oul 17
u g</w> 17
c o</w> 17
c ab 17
c av 17
c ant 17
h o</w> 17
n ord 17
â teau</w> 17
C A 17
C E 17
C D</w> 17
C our</w> 17
b und 17
b att 17
s én 17
R a 17
R an 17
è nes</w> 17
y a</w> 17
d on</w> 17
F êtes</w> 17
L am 17
L ie 17
L aur 17
V ous</w> 17
A G 17
A tt 17
E u 17
P - 17
P ati 17
T ru 17
M ai 17
M ehr</w> 17
M ai</w> 17
O h 17
G ott</w> 17
f our 17
f ert</w> 17
ä st 17
H ot 17
H art 17
H ause</w> 17
k - 17
k ar 17
k ran 17
9 , 17
9 2</w> 17
K al 17
K andi 17
j et 17
B A</w> 17
N ür 17
N etz</w> 17
Z um 17
ü gen</w> 17
ü bri 17
4 .</w> 17
8 5 17
8 7</w> 17
6 6</w> 17
W en 17
W ort</w> 17
ö sterrei 17
er er</w> 17
er seits</w> 17
ch or 17
ch ter</w> 17
ch aîn 17
in és</w> 17
on s- 17
on ze</w> 17
ti tres</w> 17
ti tude</w> 17
ti tul 17
ou est</w> 17
tr e- 17
li cher 17
li eren</w> 17
li mit 17
or ch 17
al p 17
ai der</w> 17
ein zel 17
si g 17
si ons</w> 17
at e 17
at ten</w> 17
ol z</w> 17
am our 17
ur ation</w> 17
as on</w> 17
ter ie</w> 17
ter re</w> 17
ni ti 17
pl ant 17
be kommt</w> 17
ci el</w> 17
ci ens</w> 17
vi dé 17
ac tifs</w> 17
par avant</w> 17
ré fér 17
ré fle 17
po ten 17
ran ce</w> 17
pro ven 17
com par 17
ber n</w> 17
im pli 17
Sch o 17
St oi 17
no te</w> 17
Ver gan 17
pré v 17
se cré 17
ad ap 17
lan cer</w> 17
for men</w> 17
for mer</w> 17
for êt</w> 17
ges ell 17
ges tern</w> 17
ouv re</w> 17
iss ante</w> 17
lu i-même</w> 17
ss es</w> 17
Ch ef 17
ten ue</w> 17
wir kt</w> 17
gu ten</w> 17
gan ze</w> 17
déc é 17
déc ès</w> 17
mar che</w> 17
Er st 17
ün sti 17
gl ück 17
fi d 17
te fer 17
Al b 17
Al le</w> 17
Par o 17
war ten</w> 17
mon ie</w> 17
ais es</w> 17
fin al</w> 17
geh end</w> 17
Qu el 17
cu it</w> 17
aff t</w> 17
Pr ü 17
Ges etz</w> 17
Ro ber 17
Ro ger</w> 17
dis cours</w> 17
Kon su 17
alis er</w> 17
Ab geord 17
zei ten</w> 17
gesch ichte</w> 17
gh tn 17
eff e 17
Th ier 17
publi k</w> 17
pour ra</w> 17
ord re</w> 17
ihr es</w> 17
Je der</w> 17
Me ister</w> 17
mat éri 17
nah me 17
milli ard</w> 17
sam m 17
hin gegen</w> 17
son d 17
Bo w 17
contr ô 17
Lu c</w> 17
mitt ag</w> 17
mitt eln</w> 17
Mo ts</w> 17
Kl aus</w> 17
présent er</w> 17
tour istes</w> 17
cré ation</w> 17
des sus</w> 17
mit glie 17
dig lich</w> 17
cho eur</w> 17
soci al</w> 17
prof ess 17
poin te</w> 17
Br un 17
air s</w> 17
cin éma</w> 17
Jo se 17
qua trième</w> 17
Nachrich ten 17
isch em</w> 17
Bar cel 17
schie d</w> 17
mus ul 17
préc é 17
eng ag 17
Mün tefer 17
zeu g</w> 17
anim aux</w> 17
sta ats 17
Inter esse</w> 17
stei ger</w> 17
fä llt</w> 17
Hu go</w> 17
réalis é</w> 17
Konz ept</w> 17
Fahr er</w> 17
accu eillir</w> 17
rapp elle</w> 17
coll abor 17
Leb ens</w> 17
nat ure</w> 17
atten d</w> 17
timm ung</w> 17
Op position</w> 17
inscri t</w> 17
tir s</w> 17
Dur ch</w> 17
yn am 17
Bei m</w> 17
Komm ent 17
moy en</w> 17
moy enne</w> 17
centr ale</w> 17
invest issement</w> 17
Sk and 17
aï da</w> 17
kenn t 17
Gef än 17
hoh en</w> 17
Mc Lar 17
Spe kul 17
kost en 17
princip aux</w> 17
Tro tz</w> 17
mondi al</w> 17
élect orales</w> 17
Kol legen</w> 17
Geschäfts führer</w> 17
bra chte</w> 17
Spi egel</w> 17
stu di 17
entwick elt</w> 17
Sa ver 17
wel che</w> 17
groß er</w> 17
go û 17
Mad rid</w> 17
Jul ie</w> 17
Kop f</w> 17
Zusammen hang</w> 17
üss el 17
üss el</w> 17
écl air 17
article 12 17
pol y 17
ehemali ge</w> 17
Alex ander</w> 17
Tit el</w> 17
offi zi 17
außer dem</w> 17
Champi ons</w> 17
commerci al</w> 17
lö sen</w> 17
hel fen</w> 17
Tex t</w> 17
Ide e</w> 17
Hau t- 17
négoci ations</w> 17
tch adi 17
mei er</w> 17
Kö ni 17
Proje kt</w> 17
médec in</w> 17
Leh mann</w> 17
Schmi dt</w> 17
Quart al</w> 17
Gesprä ch</w> 17
sour ce</w> 17
assass inat</w> 17
fig ur 17
faci le</w> 17
Sais on 17
mouv ement</w> 17
parl ement 17
grat u 17
méd aille</w> 17
Publi kum</w> 17
chocol at</w> 17
vermut lich</w> 17
quo ti 17
Arme e</w> 17
Chelse a</w> 17
Kev in</w> 17
Emman uel</w> 17
SN CF</w> 17
Gabri el</w> 17
orph el 17
Colomb ie</w> 17
Großb ritanni 17
ghtn ing</w> 17
p oi 16
r o</w> 16
r ant</w> 16
r ond 16
r yth 16
é gr 16
o ts</w> 16
g ol 16
g ér 16
t y</w> 16
t aille</w> 16
t ürk 16
i tion</w> 16
v eu 16
v ac 16
v allée</w> 16
S a</w> 16
c ussi 16
l te</w> 16
l ers</w> 16
l istes</w> 16
h andi 16
â le</w> 16
â gé</w> 16
J .</w> 16
J ung</w> 16
m iss 16
C E</w> 16
s u</w> 16
s al</w> 16
s tri 16
s ätz 16
s embl 16
R est 16
z aine</w> 16
z ene</w> 16
D R 16
D opp 16
y en</w> 16
y le</w> 16
d ul 16
d .de</w> 16
F ör 16
V os 16
A ch 16
P sych 16
P eter 16
M ex 16
M aison</w> 16
I A 16
f r</w> 16
f ts 16
f éli 16
f ourn 16
H un 16
H oll 16
w ün 16
w äl 16
w ski</w> 16
K ein</w> 16
K auf 16
K amer 16
ç ons</w> 16
B S</w> 16
B ol 16
U M 16
Z eu 16
ü t 16
4 - 16
W un 16
W it 16
W ähr 16
7 9</w> 16
É ric</w> 16
Y ves</w> 16
er ter</w> 16
en cour 16
en heit</w> 16
ch sel 16
ch tet</w> 16
ch ron 16
an gen 16
in str 16
in formi 16
ti s</w> 16
ti ges</w> 16
au x- 16
ar tet</w> 16
tr ait</w> 16
tr at</w> 16
li gen</w> 16
or er</w> 16
el a</w> 16
el le 16
al er</w> 16
ai me</w> 16
em en</w> 16
ein ge 16
st e 16
st ä 16
st on</w> 16
st ati 16
st ar</w> 16
at or 16
at isch</w> 16
sch auen</w> 16
di que</w> 16
ol ympi 16
am ateurs</w> 16
as sure</w> 16
ab eth</w> 16
ver se</w> 16
ver letz 16
ver pflich 16
ver öffentlich 16
it aire</w> 16
ati fs</w> 16
av antage</w> 16
oi te</w> 16
ent de 16
dé ch 16
dé es</w> 16
us ine</w> 16
pl ement</w> 16
con ç 16
be für 16
su péri 16
ro b 16
vi el 16
par tout</w> 16
ré si 16
ré vol 16
ré chauff 16
le gte</w> 16
pro je 16
ber üh 16
im porte</w> 16
gen i 16
gen ü 16
gen er 16
gen auso</w> 16
gen ug</w> 16
St at 16
aus tr 16
ier ungs 16
An sicht</w> 16
An bieter</w> 16
Ver hand 16
pré fér 16
ut és</w> 16
op pos 16
gr und 16
ser ve</w> 16
ad en 16
lo gements</w> 16
lo ss</w> 16
lan gs 16
um p 16
per r 16
per te</w> 16
ex térieur</w> 16
for dern</w> 16
ét ais</w> 16
all emand</w> 16
In s 16
bi eten</w> 16
ger ung</w> 16
gi en</w> 16
gi on 16
Re de</w> 16
Be cker</w> 16
wir ken</w> 16
we g 16
we gs</w> 16
we chsel 16
je dem</w> 16
te z</w> 16
zu gs 16
No tre</w> 16
ma xim 16
En tre</w> 16
En fin</w> 16
ens ei 16
ens te</w> 16
Par mi</w> 16
ts ch</w> 16
Ge is 16
mon t 16
geh ö 16
str at 16
tem ent 16
sol chen</w> 16
dr am 16
aff e 16
Aus einander 16
ren for 16
fer meture</w> 16
neu n</w> 16
Pr em 16
gew onnen</w> 16
dis ent</w> 16
ander s</w> 16
sou s- 16
her aus 16
inter essi 16
zei chen</w> 16
über nehmen</w> 16
ant aine</w> 16
rem plac 16
rem ettre</w> 16
sc én 16
führ te</w> 16
év iter</w> 16
pour ront</w> 16
ord nung</w> 16
Nach bar 16
fon ctionn 16
os s</w> 16
bar e</w> 16
kon ferenz</w> 16
personn el</w> 16
pp en 16
Fin ale</w> 16
rie b</w> 16
rou tes</w> 16
og le</w> 16
anc er</w> 16
äf te</w> 16
Aut om 16
Lu f 16
Li ghtning</w> 16
tiv es</w> 16
mitt ler 16
Kin dern</w> 16
Ko st 16
produ it</w> 16
arr y</w> 16
tour née</w> 16
spe zi 16
rech t 16
weni ge</w> 16
soci aux</w> 16
cons éc 16
trans port</w> 16
Um frage</w> 16
We gen</w> 16
clu bs</w> 16
www. ft 16
mus sten</w> 16
Kur t</w> 16
So zi 16
bis schen</w> 16
dom aine</w> 16
conf érence</w> 16
Kar ri 16
prin temps</w> 16
tur es</w> 16
fil les</w> 16
größ ere</w> 16
verk ehr 16
anim é</w> 16
trai ts</w> 16
erh eb 16
val ente</w> 16
Zeit punkt</w> 16
sta at</w> 16
Fl or 16
Fre und 16
Fre unde</w> 16
fä llen</w> 16
durch aus</w> 16
priv il 16
musi cale</w> 16
bek ann 16
polit isch</w> 16
import antes</w> 16
rest ent</w> 16
ép ouse</w> 16
Geb ur 16
Geb äu 16
fé min 16
sto ß</w> 16
spectac les</w> 16
municip alité</w> 16
bas e</w> 16
Welt meister 16
atten tion</w> 16
deman der</w> 16
join t</w> 16
Gew inn</w> 16
souv en 16
Har per</w> 16
versu chen</w> 16
kauf s 16
sorti r</w> 16
hum an 16
Komm ission</w> 16
erwar ten</w> 16
ehm end</w> 16
respons ables</w> 16
fass t</w> 16
Nat ur 16
Nat ürlich</w> 16
représent ants</w> 16
syst em</w> 16
kenn t</w> 16
répon du</w> 16
quit ter</w> 16
Pap iere</w> 16
champi onnat</w> 16
fre i</w> 16
Minu te</w> 16
consomm ateurs</w> 16
Rom an</w> 16
Koali tions 16
Gren zen</w> 16
brit ische</w> 16
isc ine</w> 16
candi dats</w> 16
stär k 16
Köl ner</w> 16
secon de</w> 16
verl oren</w> 16
Go ogle</w> 16
nor m 16
Heim at</w> 16
Far c</w> 16
Marc el</w> 16
Organis ation</w> 16
Mär z</w> 16
dah in</w> 16
Jap an</w> 16
Wes ten</w> 16
hör en</w> 16
blan c</w> 16
länger ung</w> 16
Brem en</w> 16
Regi on</w> 16
âg ées</w> 16
iden ti 16
Jon athan</w> 16
gepl ant</w> 16
gru ppe</w> 16
Program m</w> 16
Früh jahr</w> 16
colom bien</w> 16
Mög lichkeit</w> 16
Internation al</w> 16
pétro le</w> 16
Schal ke</w> 16
alco ol</w> 16
automobi le</w> 16
festiv al</w> 16
Vf B</w> 16
incen die</w> 16
Kult ur</w> 16
Maß nahmen</w> 16
Weihnach ts 16
tém oign 16
Vinc ent</w> 16
gewäh lt</w> 16
judi ci 16
Lux us 16
ui- ci</w> 16
Öffent lichkeit</w> 16
prote ction</w> 16
WILL ER</w> 16
bund es 16
österrei ch 16
Vergan genheit</w> 16
Saver ne</w> 16
www.ft d.de</w> 16
p ê 15
p ag 15
p ati 15
p end 15
p oll 15
p én 15
r atie</w> 15
é tique</w> 15
a ël</w> 15
a éro 15
t in 15
t ss 15
t ellement</w> 15
i ums</w> 15
v an</w> 15
v entes</w> 15
S um 15
S por 15
S ports</w> 15
u elle</w> 15
u ßer 15
l our 15
l ass 15
h an</w> 15
h omm 15
h ef 15
n ai</w> 15
n ommen</w> 15
n annte</w> 15
m einen</w> 15
m äch 15
C our 15
C lin 15
C lar 15
b ay 15
s ais 15
s éle 15
R T 15
R ä 15
R ö 15
R hein 15
z ieren</w> 15
z ahl</w> 15
D R</w> 15
D et 15
D ah 15
D jam 15
d ner</w> 15
d ans 15
d adurch</w> 15
F eb 15
L - 15
L av 15
L ac 15
L yn 15
V W</w> 15
V oll 15
î t</w> 15
A U 15
A C</w> 15
E S 15
P S</w> 15
T eh 15
T or</w> 15
M el 15
M om 15
M acht</w> 15
O der</w> 15
I S</w> 15
I niti 15
G re 15
f s 15
f ährt</w> 15
H O 15
k ö 15
k as</w> 15
9 6</w> 15
0 2 15
w o 15
w ann</w> 15
w ähr 15
K er 15
B and</w> 15
B rit 15
B rie 15
B ien</w> 15
N ei 15
N ad 15
Z eiten</w> 15
5 1</w> 15
4 00 15
W M 15
W ind 15
W issenschaftler</w> 15
, 5</w> 15
Q aïda</w> 15
ö der</w> 15
Ü ber</w> 15
Ä ußer 15
er ster</w> 15
ch ant</w> 15
ch ée</w> 15
ch ans 15
un des</w> 15
au er 15
au rants</w> 15
au paravant</w> 15
ar ité</w> 15
tr ad 15
li eben</w> 15
al ie</w> 15
pr êts</w> 15
ein ig 15
si l 15
st an 15
at tr 15
at elli 15
sch end</w> 15
sch ließen</w> 15
sch rieb</w> 15
ag ré 15
ag no 15
et ter</w> 15
ri eben</w> 15
as tique</w> 15
ab ge 15
ge grün 15
re gr 15
re présente</w> 15
ter ont</w> 15
de venir</w> 15
ent ure</w> 15
dé si 15
us age</w> 15
con cl 15
mi li 15
be ob 15
ro so 15
ci a</w> 15
ci de</w> 15
ré jou 15
le i</w> 15
wi es</w> 15
pro posé</w> 15
Sch on</w> 15
Sch ri 15
Sch rei 15
Sch äu 15
St adi 15
St ev 15
St ück</w> 15
St unde</w> 15
ap pu 15
vo s</w> 15
vo te</w> 15
vo tre</w> 15
An hän 15
Ver letz 15
ser t</w> 15
lan ce</w> 15
lan ger</w> 15
per dre</w> 15
ex c 15
ex er 15
ex tra 15
ex prim 15
for ces</w> 15
än k 15
wei le</w> 15
iss ons</w> 15
ger in</w> 15
tu e</w> 15
mo de</w> 15
ru ar</w> 15
min uit</w> 15
Ch in 15
ten e</w> 15
gu re</w> 15
mar ch 15
so r</w> 15
so zial 15
Mar i 15
Mar ket 15
ich ten</w> 15
fr eu 15
ak e</w> 15
auf s</w> 15
auf hin</w> 15
Al li 15
En tr 15
Ar m 15
Ar che</w> 15
br as</w> 15
man e</w> 15
man que</w> 15
tz e</w> 15
war um</w> 15
comm ent</w> 15
Str om 15
Str ategie</w> 15
él ém 15
bl ement</w> 15
fin anzi 15
str as 15
Po st 15
cu is 15
co ût</w> 15
aff ron 15
aut on 15
Aus wär 15
e- ville</w> 15
ren du</w> 15
sp ür 15
sen iors</w> 15
Pr om 15
Ges und 15
uni k 15
uni quement</w> 15
jou e</w> 15
th an 15
res ter</w> 15
mer k 15
mer ie</w> 15
comp ens 15
sc ru 15
Gr ac 15
dar ité</w> 15
port ant</w> 15
év entu 15
pour suit</w> 15
Milli on 15
Nach dem</w> 15
Me di 15
fon cti 15
deutsch er</w> 15
ju st 15
ari at</w> 15
ca p</w> 15
vol ont 15
conc lu 15
car act 15
inv ité</w> 15
ban que</w> 15
Mo der 15
Vi z 15
ast eur</w> 15
arr en</w> 15
arr ond 15
Su che</w> 15
Ex - 15
rech nen</w> 15
organis me</w> 15
cap ital</w> 15
soci étés</w> 15
dan ach</w> 15
Ban k 15
El les</w> 15
intern et</w> 15
öff net</w> 15
isch - 15
trä ger</w> 15
1, 5</w> 15
gri ffen</w> 15
star ken</w> 15
associ ations</w> 15
setz te</w> 15
cont act</w> 15
Sel bst</w> 15
mag nifi 15
val eurs</w> 15
loc ale</w> 15
fai te</w> 15
Dam als</w> 15
assur é</w> 15
Ober nai</w> 15
situ é</w> 15
Hu ber</w> 15
expli qu 15
priv é</w> 15
régi me</w> 15
Ni cole</w> 15
lib é 15
utz t</w> 15
Av ant</w> 15
CD U- 15
Rich ard</w> 15
mehr eren</w> 15
municip ales</w> 15
proc ur 15
ange kündigt</w> 15
avi ons</w> 15
zun ehmend</w> 15
gemein sam</w> 15
Produ ktion</w> 15
artic les</w> 15
meill eurs</w> 15
meill eure</w> 15
Stra ßen</w> 15
étu di 15
cam i 15
mut maß 15
Vo m</w> 15
rédu ire</w> 15
issensch aft</w> 15
besonder e</w> 15
Musi k</w> 15
Gol d 15
Gol d</w> 15
CS U- 15
cé ré 15
Han nover</w> 15
glau ben</w> 15
Staats anwaltschaft</w> 15
Gren ze</w> 15
Journ alisten</w> 15
confi ance</w> 15
Außen minister</w> 15
laiss é</w> 15
50 .000</w> 15
War um</w> 15
pat in 15
bestimm ten</w> 15
condam nés</w> 15
piè ces</w> 15
Canadi en</w> 15
néc essi 15
schütz en</w> 15
montr é</w> 15
Wettbewer b</w> 15
beg onnen</w> 15
imm eu 15
Bürger meister</w> 15
Deb atte</w> 15
pren ant</w> 15
suff is 15
Itali en</w> 15
verur teilt</w> 15
soulign é</w> 15
coû ts</w> 15
distribu tion</w> 15
concern ant</w> 15
Dom inique</w> 15
rév él 15
erfolgrei ch</w> 15
Feh ler</w> 15
mann schaft</w> 15
einzi ge</w> 15
verantwor tlich</w> 15
fron tières</w> 15
Posi tion</w> 15
bedeu tet</w> 15
Verbrau cher 15
endr oit</w> 15
hou si 15
verhin dern</w> 15
beein druck 15
Wochen ende</w> 15
Ferr ari</w> 15
Ei gen 15
Pas cal</w> 15
Hoff nung</w> 15
demok rat 15
dirige ants</w> 15
chines ische</w> 15
Zo é</w> 15
Parlament s 15
Techni k</w> 15
ving taine</w> 15
Büh ne</w> 15
versor gung</w> 15
consi dér 15
tempér ature</w> 15
prol on 15
dépar tement 15
notwen dig</w> 15
höher e</w> 15
honn eur</w> 15
Lig a</w> 15
ötz lich</w> 15
Onlin e- 15
Agent ur</w> 15
Stéph ane</w> 15
Soci été</w> 15
beteili gt</w> 15
entfer nt</w> 15
volon té</w> 15
Laur ent</w> 15
Nür n 15
Müntefer ing</w> 15
poly valente</w> 15
orphel ins</w> 15
vac ances</w> 15
cussi ons</w> 15
Djam ena</w> 15
Feb ruar</w> 15
p p</w> 14
p ont</w> 14
r al 14
é - 14
é o</w> 14
é par 14
é pi 14
o v 14
g ymn 14
t els</w> 14
t ax 14
e y 14
S ollte</w> 14
S prin 14
c - 14
c ass 14
l uss</w> 14
l enheim</w> 14
h au 14
h éli 14
h aute</w> 14
n our 14
J é 14
J a</w> 14
J ér 14
m ie</w> 14
m ein 14
m at</w> 14
m ot 14
m éc 14
C ar</w> 14
b apt 14
s h 14
s om 14
s ang</w> 14
s üd 14
s ätze</w> 14
s ainte</w> 14
R af 14
R ay 14
z in 14
D on 14
D ou 14
D el 14
D um 14
y ers</w> 14
y woo 14
d ge</w> 14
d ische</w> 14
d liche</w> 14
d opp 14
d ingt</w> 14
d ynam 14
F ün 14
F ace</w> 14
F oto</w> 14
L N 14
L ag 14
L og 14
V - 14
V end 14
A p 14
A gen 14
E st</w> 14
E M- 14
E gyp 14
P K 14
P ut 14
P ère</w> 14
T G 14
T at</w> 14
T ali 14
T emp 14
M é 14
M on</w> 14
M ol 14
M etz 14
M esse</w> 14
M ik 14
M olsheim</w> 14
O U 14
G as</w> 14
G il 14
f ar 14
f ach 14
ä den</w> 14
H itz 14
k es</w> 14
k auf</w> 14
k einer</w> 14
9 0 14
9 5</w> 14
9 8</w> 14
K au 14
K ern 14
j ene</w> 14
j emand</w> 14
B - 14
B ier 14
B ut 14
B asis</w> 14
N u 14
N e</w> 14
ü che</w> 14
1 20 14
. fr</w> 14
8 .</w> 14
8 3</w> 14
6 .</w> 14
3 e</w> 14
W iss 14
W aff 14
W inter 14
W erte</w> 14
7 00</w> 14
É glise</w> 14
ö se</w> 14
er innen</w> 14
en c 14
en berg</w> 14
en voy 14
ch i</w> 14
ch ance</w> 14
ch ard</w> 14
ch aîne</w> 14
an k</w> 14
an k 14
an gs 14
in en</w> 14
in car 14
in formation</w> 14
on de</w> 14
on ni 14
is té</w> 14
au ern</w> 14
ar g 14
ar rière</w> 14
tr aum</w> 14
qu elles</w> 14
li vres</w> 14
al ar 14
al ais</w> 14
em s</w> 14
em ann</w> 14
ein gesch 14
at oire</w> 14
sch en 14
sch ar 14
sch te</w> 14
sch wi 14
sch wei 14
ag ri 14
et erre</w> 14
di té</w> 14
di ts</w> 14
ri gen</w> 14
ol d</w> 14
am i 14
ab gesch 14
il d</w> 14
ge werk 14
re venir</w> 14
re prises</w> 14
re fu 14
re venus</w> 14
ver br 14
ati vité</w> 14
ni es</w> 14
de au</w> 14
de -B 14
de vient</w> 14
ent é</w> 14
dé non 14
pl ant</w> 14
mi que</w> 14
be aux</w> 14
be grün 14
be zeichnet</w> 14
ah nen</w> 14
vi s</w> 14
vi erten</w> 14
ré sid 14
ré clam 14
ra d</w> 14
le diglich</w> 14
po t</w> 14
ain ement</w> 14
im médi 14
Sch ei 14
Sch wi 14
Sch wer 14
Sch nei 14
St ell 14
St ür 14
St and</w> 14
St ars</w> 14
St art</w> 14
vo l</w> 14
ul aire</w> 14
est ini 14
An to 14
An walt</w> 14
Ver fahren</w> 14
Ver kehr 14
hr en</w> 14
wer te</w> 14
wer ke</w> 14
op per</w> 14
pi elt</w> 14
per fe 14
for d</w> 14
ét ap 14
ét ér 14
all ait</w> 14
än dern</w> 14
wei te</w> 14
iss on</w> 14
In de</w> 14
In dien</w> 14
ger e</w> 14
ger aten</w> 14
tu t</w> 14
tu é</w> 14
mo t</w> 14
mo sp 14
lu g</w> 14
Re chte</w> 14
Be au 14
ten us</w> 14
ie g</w> 14
ie u</w> 14
wir ft</w> 14
gu éri 14
gan zen</w> 14
mar i</w> 14
mar qu 14
Mar sei 14
je des</w> 14
Er fahr 14
den de</w> 14
fr ont 14
ct ur 14
ak tiv</w> 14
auf genommen</w> 14
Al i</w> 14
Al les</w> 14
hi elt</w> 14
Ar n 14
Par k</w> 14
Ge gen</w> 14
Ge gner</w> 14
kl agt</w> 14
ation ss 14
Str eit 14
mon d</w> 14
mon tre</w> 14
mon tée</w> 14
Ein führung</w> 14
cor respon 14
att ach 14
Ges icht</w> 14
äh e</w> 14
dis k 14
alis ée</w> 14
cour se</w> 14
ph ase</w> 14
inter médi 14
über nommen</w> 14
cl é 14
cl asse</w> 14
men é</w> 14
führ ten</w> 14
pass t</w> 14
pass ant</w> 14
dev ait</w> 14
publi cs</w> 14
év ac 14
ord inaire</w> 14
pf el</w> 14
dam ali 14
anz ler</w> 14
Nach frage</w> 14
ind re</w> 14
ind ung</w> 14
cr oit</w> 14
fon ction</w> 14
mü ss 14
mat ches</w> 14
gest artet</w> 14
kon fli 14
ari o</w> 14
nah e</w> 14
peu ple</w> 14
hin aus</w> 14
ém ission</w> 14
fl uss</w> 14
äu me</w> 14
Kl age</w> 14
Tr end</w> 14
weiter es</w> 14
Ger ade</w> 14
a- t-elle</w> 14
tä ten</w> 14
lei hen</w> 14
schw ä 14
weni gen</w> 14
Mitt el</w> 14
kur s</w> 14
organis é</w> 14
organis ée</w> 14
app els</w> 14
pre is 14
ath l 14
schein lich</w> 14
prof it 14
serv i</w> 14
har m 14
donn ées</w> 14
Um satz</w> 14
grou p 14
län ger</w> 14
vers er</w> 14
teil en</w> 14
stän de</w> 14
dou ble</w> 14
Ri es 14
Prä sidenten</w> 14
itz er</w> 14
préc is 14
So ftwar 14
conf irmé</w> 14
prin cipe</w> 14
Am ts 14
anim ation</w> 14
To m</w> 14
13 .11.2007</w> 14
loc aux</w> 14
médi as</w> 14
fai tes</w> 14
fel den</w> 14
assur ée</w> 14
assur ance</w> 14
consei ll 14
isti ques</w> 14
Stu di 14
doc ument 14
sitz t</w> 14
oph ie</w> 14
arb eit 14
arb eitet</w> 14
retrouv e</w> 14
nov ation</w> 14
Com ité</w> 14
fahr t</w> 14
esp oir</w> 14
hô tel</w> 14
sto ck</w> 14
rapp el 14
Schl uss 14
coll ège</w> 14
autom ne</w> 14
lég èrement</w> 14
Inv esti 14
Pau l 14
Bei de</w> 14
gesam te</w> 14
mög lichen</w> 14
mög liche</w> 14
Dem onstr 14
AR C</w> 14
pal ais</w> 14
seh e</w> 14
centr e-ville</w> 14
getr agen</w> 14
Gl as 14
tab ac</w> 14
colle cte</w> 14
princip al</w> 14
glau bt</w> 14
sub i</w> 14
-Jähri gen</w> 14
Spi ele</w> 14
groß es</w> 14
laiss er</w> 14
Stein meier</w> 14
secon d</w> 14
contin u 14
contin ue</w> 14
tal ent</w> 14
Prof ess 14
voll er</w> 14
Zwei fel</w> 14
diz aines</w> 14
réc emment</w> 14
résult at</w> 14
erm in</w> 14
Zusammen arbeit</w> 14
Verl ag</w> 14
passi ert</w> 14
cop t 14
lors qu'</w> 14
aven ue</w> 14
Met ern</w> 14
Bro wn</w> 14
schle cht</w> 14
astr oph 14
begin n</w> 14
begin nt</w> 14
Mot or 14
Afri ka</w> 14
kom pl 14
dah er</w> 14
éco les</w> 14
victi mes</w> 14
accompagn é</w> 14
fähi gkeit</w> 14
loh n</w> 14
wirtschaf tlichen</w> 14
financi ers</w> 14
gé ant</w> 14
Fä lle</w> 14
verstän dlich</w> 14
Institu t</w> 14
Presse agentur</w> 14
französ ischen</w> 14
früher e</w> 14
Lö w</w> 14
grand- messe</w> 14
Europä ische</w> 14
maî tr 14
zusätz liche</w> 14
Wachst um 14
fris tig</w> 14
concur rence</w> 14
télév ision</w> 14
téléph one</w> 14
Beschäftig ten</w> 14
Gü ter 14
stab il 14
gü l 14
Hinter grund</w> 14
adul tes</w> 14
Immobili en 14
Kredit krise</w> 14
alsa cien</w> 14
Provin z</w> 14
jeun esse</w> 14
supplément aires</w> 14
amén agement</w> 14
cultur el</w> 14
célè bre</w> 14
HEI M</w> 14
incl us</w> 14
rev anche</w> 14
Angl eterre</w> 14
Bevölk erung</w> 14
phénom ène</w> 14
Bas- Rhin</w> 14
DN A</w> 14
Mic roso 14
gesti egen</w> 14
gelö st</w> 14
durchschn itt 14
Jose f</w> 14
quoti dien</w> 14
Großbritanni en</w> 14
veu lent</w> 14
Dopp el 14
berüh m 14
identi té</w> 14
chans ons</w> 14
élém ents</w> 14
LN H</w> 14
p eux</w> 13
p auv 13
r in 13
r all 13
r ois</w> 13
é ni 13
é du 13
é preuve</w> 13
o k</w> 13
o st 13
o vic</w> 13
o ît</w> 13
g ünsti 13
a f</w> 13
a tri 13
t é 13
t ar 13
t ap 13
t oire</w> 13
t äu 13
t yp 13
v o</w> 13
v ou 13
v étér 13
e is 13
S I 13
S in 13
S eu 13
S tern 13
S und 13
c ement</w> 13
c aus 13
c af 13
l y</w> 13
l ou 13
h under 13
n ö 13
n ation</w> 13
n omm 13
n issen</w> 13
n ennt</w> 13
J er 13
J eux</w> 13
m as</w> 13
m eint</w> 13
C enter</w> 13
b y 13
b at</w> 13
b aiss 13
s é</w> 13
s auf</w> 13
s berg</w> 13
R el 13
R unde</w> 13
è re- 13
z on</w> 13
z ir 13
d ation</w> 13
d rei 13
d ing</w> 13
d lichen</w> 13
F isch 13
F ARC</w> 13
L M</w> 13
L at 13
L eur</w> 13
L ap 13
ô me</w> 13
V isi 13
V W- 13
A S</w> 13
A P</w> 13
E b 13
E T 13
E ri 13
P endant</w> 13
P iscine</w> 13
T ch 13
T sch 13
T ok 13
T ats 13
M y 13
M ach 13
M obil 13
O sten</w> 13
G ä 13
G ir 13
f lä 13
f tig</w> 13
H ô 13
H ö 13
H ein 13
H aut</w> 13
k er 13
w u 13
w ag 13
K eine</w> 13
K ais 13
K enn 13
K art 13
j a 13
j on 13
j ap 13
j oy 13
j eté</w> 13
ç ants</w> 13
B em 13
B at 13
B ul 13
B ett 13
B isch 13
N ein</w> 13
N ähe</w> 13
U E 13
U E</w> 13
1 03</w> 13
4 0 13
8 6</w> 13
6 1</w> 13
2 50</w> 13
W ein 13
W all 13
Y ou 13
er sheim</w> 13
er lit 13
en g</w> 13
en ver 13
en cad 13
ch e- 13
ch asse</w> 13
an moins</w> 13
in tro 13
in gue</w> 13
in gend</w> 13
in dépend 13
un t</w> 13
un den 13
on i 13
on ique</w> 13
is ol 13
ti me</w> 13
ti ef</w> 13
ti erten</w> 13
ti ennent</w> 13
ei lt</w> 13
ar a</w> 13
qu ettes</w> 13
li br 13
li tt 13
el d</w> 13
ai gn 13
pr ê 13
pr on 13
pr êt</w> 13
pr atique</w> 13
si e 13
si eg</w> 13
si tz</w> 13
st ets</w> 13
sch re 13
sch är 13
om en</w> 13
ag d</w> 13
ag ents</w> 13
as i</w> 13
il os 13
ge ant</w> 13
re pris</w> 13
ver fü 13
ver bo 13
ver bot</w> 13
it a</w> 13
it ation</w> 13
it aires</w> 13
eh l</w> 13
av ais</w> 13
ter ne</w> 13
ter mes</w> 13
ni ed 13
ent endre</w> 13
dé gu 13
dé puté</w> 13
pl ätze</w> 13
be trieb 13
be ding 13
su jet</w> 13
vi t</w> 13
our ces</w> 13
ac é</w> 13
ré ci 13
ré veill 13
ra isons</w> 13
pro z 13
com ité</w> 13
com édie</w> 13
im men 13
gen ces</w> 13
gen dar 13
Sch ie 13
St elle</w> 13
St ellen</w> 13
An ge 13
An teil</w> 13
Ver däch 13
Ver anstal 13
ach at</w> 13
ser ie</w> 13
lo s 13
lan cée</w> 13
ex éc 13
ex erci 13
for cés</w> 13
ét onn 13
all gem 13
ges pielt</w> 13
iss ements</w> 13
In dex</w> 13
ot tes</w> 13
pu issance</w> 13
bi le</w> 13
ger u 13
ger sheim</w> 13
Au tre</w> 13
mo tiv 13
ru hi 13
Re ligi 13
déc ouvert</w> 13
déc ouvrir</w> 13
ür gen</w> 13
Mar s</w> 13
Mar ché</w> 13
Er war 13
gl ace</w> 13
fi cation</w> 13
fr au</w> 13
ct ement</w> 13
ak tiv 13
auf en</w> 13
ma sch 13
ma isons</w> 13
Al g 13
Al ters 13
hi vern 13
Ar ch 13
ob jets</w> 13
Fran c 13
19 70</w> 13
hal ten 13
kl ein 13
kl ass 13
war t</w> 13
war nt</w> 13
comm and 13
bes u 13
bl er</w> 13
Ber g 13
Qu ad 13
vor aus 13
vor zu 13
vor stand</w> 13
Ein kommen</w> 13
cu ri 13
Di eter</w> 13
dr ängt</w> 13
att endre</w> 13
ep tion</w> 13
ég ie</w> 13
neu er</w> 13
gew ach 13
cou leurs</w> 13
Ro ck 13
dis pu 13
stell ungen</w> 13
ück en</w> 13
sou ver 13
sou ligne</w> 13
cher in</w> 13
Mon at</w> 13
kt uren</w> 13
Proz ent 13
gar e</w> 13
pri me</w> 13
pri ère</w> 13
Ab schluss</w> 13
th er</w> 13
sti m 13
inter ess 13
ic a</w> 13
port ait</w> 13
pos ée</w> 13
dev ons</w> 13
pour suivre</w> 13
Zu gleich</w> 13
pf en</w> 13
Auf gabe</w> 13
Poli tik 13
prés ents</w> 13
spr ä 13
spr uch</w> 13
quel s</w> 13
sur pris</w> 13
sur prise</w> 13
For scher</w> 13
Her r</w> 13
Her steller</w> 13
son st</w> 13
lar ge</w> 13
bo î 13
ban des</w> 13
ban ques</w> 13
Vi elleicht</w> 13
part isans</w> 13
weiter er</w> 13
conn aître</w> 13
int égr 13
Bes uch</w> 13
chan gements</w> 13
ori ent 13
Con c 13
Per vez</w> 13
zwei f 13
app en</w> 13
ath èque</w> 13
-S ieg</w> 13
schl ag 13
län dischen</w> 13
ici li 13
El is 13
te- t-il</w> 13
kr eu 13
stän digen</w> 13
cin qu 13
Jo b</w> 13
Kur s 13
fil et</w> 13
ustr ation</w> 13
star ke</w> 13
größ er</w> 13
char gé</w> 13
Jean- Pierre</w> 13
sal aire</w> 13
Ben oît</w> 13
loc at 13
dav antage</w> 13
priv és</w> 13
priv ate</w> 13
beh ör 13
dro hen</w> 13
Ni veau</w> 13
lib ér 13
empl ois</w> 13
vertr et 13
Christ op 13
import ante</w> 13
öffent lich</w> 13
particip ants</w> 13
Geb iet</w> 13
arriv er</w> 13
commun aut 13
déci de</w> 13
spéci aliste</w> 13
Bel gique</w> 13
Fußb all 13
Op positi 13
Vertr eter</w> 13
frei e</w> 13
Hand els 13
Ser ge</w> 13
sa chen</w> 13
différ entes</w> 13
béné vo 13
sé jour</w> 13
minister iums</w> 13
tent ative</w> 13
At lan 13
Pun kten</w> 13
sim plement</w> 13
termin é</w> 13
Lei p 13
getr eten</w> 13
répon dre</w> 13
schlä gt</w> 13
comb at</w> 13
Comm ent</w> 13
Por sche</w> 13
Pap ier</w> 13
champi ons</w> 13
orig inaire</w> 13
Mitglie d 13
fre und 13
besser e</w> 13
reconn u</w> 13
glau be</w> 13
respe cti 13
Invest ment 13
voul u</w> 13
arrê ter</w> 13
siè ge</w> 13
Schi ck 13
itä ten</w> 13
Verb and</w> 13
kehr t</w> 13
imp act</w> 13
Ha as</w> 13
pens er</w> 13
Fol ge</w> 13
schul en</w> 13
bestimm t</w> 13
Kop f 13
condam né</w> 13
Quali tät</w> 13
Mil an</w> 13
Wass er 13
Innen minister</w> 13
ensi ve</w> 13
inten si 13
fal sch</w> 13
class es</w> 13
class ement</w> 13
San té</w> 13
opér ations</w> 13
Frie d 13
Frie den 13
cent aine</w> 13
Reg isseur</w> 13
Rou ge</w> 13
paro isse</w> 13
offi ce</w> 13
universi tés</w> 13
Cap it 13
Kra ft</w> 13
Kra ft 13
exper ts</w> 13
sogenann te</w> 13
Pri x</w> 13
Hy poth 13
convi vi 13
fähi g</w> 13
aktu elle</w> 13
évén ements</w> 13
appel é</w> 13
ly cée</w> 13
höh ung</w> 13
Fä llen</w> 13
Stre et</w> 13
rê ve</w> 13
inform ations</w> 13
Bra si 13
Ind ustrie</w> 13
colom bi 13
früher en</w> 13
Mög lichkeiten</w> 13
Die u</w> 13
Pass ag 13
Woh l 13
Compu ter 13
mand at</w> 13
Cat her 13
ühr en</w> 13
reten u</w> 13
Team s</w> 13
propriét aires</w> 13
Mau rit 13
Gast geber</w> 13
trim estre</w> 13
deck ung</w> 13
récu pér 13
Disk ussion</w> 13
Liter atur 13
plat eau</w> 13
immer hin</w> 13
rencontr er</w> 13
liber té</w> 13
schwar ze</w> 13
regar d</w> 13
parten aires</w> 13
Syl v 13
somm et</w> 13
organ ise</w> 13
klag te</w> 13
Cano e</w> 13
vit esse</w> 13
Stim me</w> 13
DV D</w> 13
feu ille</w> 13
effic acité</w> 13
conséqu ences</w> 13
engl ischen</w> 13
écr ans</w> 13
präsen tiert</w> 13
Step hen</w> 13
Grou p</w> 13
Besu cher</w> 13
magas ins</w> 13
vénézuéli en</w> 13
Gon z 13
BM W</w> 13
circonst ances</w> 13
bewus st</w> 13
citoy ens</w> 13
Künst ler</w> 13
wechs el</w> 13
zufrie den</w> 13
catho lique</w> 13
Mäd chen</w> 13
jähr lich</w> 13
patr on</w> 13
catég orie</w> 13
Offi ce</w> 13
Oh ne</w> 13
licher weise</w> 13
orch estre</w> 13
Thier ry</w> 13
Bow l</w> 13
Barcel ona</w> 13
Gefän gnis</w> 13
Spekul ationen</w> 13
Haut- Rhin</w> 13
Vos ges</w> 13
conséc uti 13
Karri ere</w> 13
judici aire</w> 13
homm age</w> 13
Teh er 13
Brie f 13
Schäu ble</w> 13
stras bourge 13
Grac q</w> 13
arrond issement</w> 13
héli copt 13
schwi eri 13
Schnei der</w> 13
Verkehr s 13
Marsei lle</w> 13
exerci ce</w> 13
p au 12
p ell 12
p ann 12
p ain</w> 12
r embour 12
o x 12
o li 12
o sité</w> 12
g g 12
g as 12
g ungs 12
g ingen</w> 12
g utes</w> 12
a o</w> 12
a die</w> 12
t elle</w> 12
t ées</w> 12
t lin 12
v eux</w> 12
e e</w> 12
e en</w> 12
S l 12
S - 12
S én 12
S pre 12
S inn</w> 12
S timmung</w> 12
c en 12
l eu 12
l ettre</w> 12
l èvement</w> 12
h n 12
h on 12
h as 12
h auteur</w> 12
n is 12
n av 12
n ungs 12
n ehm 12
J ob 12
m einer</w> 12
m ents</w> 12
m embre</w> 12
m ises</w> 12
C - 12
b ach 12
b ill 12
b alle</w> 12
b anc 12
s ais</w> 12
s omme</w> 12
R em 12
R am 12
R enseignements</w> 12
è les</w> 12
z dem</w> 12
z erst 12
D E</w> 12
D ol 12
D éc 12
D rei 12
d un 12
F ot 12
F ili 12
F otos</w> 12
L af 12
L os</w> 12
V an 12
A br 12
A bl 12
A lit 12
A PA</w> 12
E schau</w> 12
P eu 12
P ra 12
T im 12
M and 12
M oh 12
M ain</w> 12
M ön 12
M iss</w> 12
M enge</w> 12
O t 12
O UR 12
I st</w> 12
G am 12
G ut 12
G ün 12
f ie</w> 12
f eux</w> 12
f tung</w> 12
ä ger</w> 12
H ü 12
H ou 12
H ist 12
H um 12
H ann 12
H ess 12
k ä 12
k eits 12
k andi 12
w e</w> 12
w an 12
w it 12
w and 12
w äh 12
K en 12
K ni 12
K omp 12
K reis 12
K lose</w> 12
K äufer</w> 12
j ol 12
B a 12
B ai 12
B it 12
B ad 12
B ir 12
B oh 12
B og 12
Z y 12
Z ü 12
5 .</w> 12
8 7 12
3 000</w> 12
W at 12
W eb 12
W ür 12
W äh 12
W issenschaft</w> 12
œ ur</w> 12
ö ße</w> 12
er s 12
er ungs 12
ch r 12
an gh 12
in en 12
in den</w> 12
in gs 12
in aug 12
on er</w> 12
on es</w> 12
on el</w> 12
is iert</w> 12
ou l</w> 12
ou ti 12
au ff 12
au ßen</w> 12
au ßer</w> 12
es sus</w> 12
ar re</w> 12
ar ische</w> 12
tr op 12
tr oph 12
qu in</w> 12
li mi 12
li ers</w> 12
li qui 12
or gue</w> 12
al ise</w> 12
pr essi 12
st es</w> 12
st amm 12
at oires</w> 12
at eli 12
sch ten</w> 12
sch ungs 12
et c</w> 12
et ten</w> 12
di ent</w> 12
di min 12
di ert</w> 12
di t-il</w> 12
ri tu 12
ab att 12
ge halten</w> 12
ge plan 12
ge fordert</w> 12
re cu 12
re port</w> 12
ver re</w> 12
ver ab 12
ver wei 12
ver schw 12
ver anstal 12
ver fassungs 12
it ed</w> 12
ati ques</w> 12
eh n 12
eh men 12
av e</w> 12
ent täu 12
con cours</w> 12
con gé</w> 12
con sid 12
con vainc 12
su d- 12
ci dent 12
par le</w> 12
par tei 12
ré alité</w> 12
ra te</w> 12
le ver</w> 12
le gung</w> 12
po le</w> 12
pro position</w> 12
pro pag 12
ber eit 12
eur s- 12
ass ister</w> 12
ck el</w> 12
Sch ne 12
St är 12
St ef 12
St amm 12
vo i</w> 12
pré vue</w> 12
gr ab 12
se qu 12
lan gen</w> 12
um t</w> 12
um es</w> 12
end rier</w> 12
eb en 12
ann es</w> 12
ann ul 12
for tement</w> 12
ouv er</w> 12
ouv rage</w> 12
In gri 12
ess é</w> 12
mo ts</w> 12
Re gen 12
Re form 12
Re form</w> 12
Be ge 12
Ch e 12
Ch ant 12
Ch ris</w> 12
pe ct</w> 12
ten heim</w> 12
we is 12
ali er</w> 12
déc or 12
so eur</w> 12
so ins</w> 12
Mar ia</w> 12
je den 12
den den</w> 12
den noch</w> 12
lie ber</w> 12
lie fert</w> 12
fi que</w> 12
geb ro 12
Al on 12
En ts 12
Ar g 12
ob s 12
ob tenu</w> 12
br û 12
du e</w> 12
du ction</w> 12
éc art</w> 12
ens eur</w> 12
Fran ce- 12
Ge füh 12
kl ar 12
rei cht</w> 12
ven ues</w> 12
comm ence</w> 12
wen den</w> 12
Ber at 12
geh ol 12
str e 12
Qu i</w> 12
vor gestellt</w> 12
Ein en</w> 12
Ein fluss</w> 12
sol ution</w> 12
dr än 12
dr hein 12
dr oite</w> 12
enf ance</w> 12
att form</w> 12
aut eurs</w> 12
Vor gän 12
Vor jahr 12
parti s</w> 12
parti es</w> 12
cou l 12
cou ple</w> 12
Ro y</w> 12
her vor</w> 12
ph ysi 12
inter ven 12
pers pe 12
mer hin</w> 12
comp li 12
sel ten</w> 12
cl assi 12
men ace</w> 12
Th ann</w> 12
dar in</w> 12
dar aufhin</w> 12
dem eur 12
dem nach</w> 12
pass es</w> 12
sor tant</w> 12
év al 12
mé m 12
rich tigen</w> 12
ret s</w> 12
ret agne</w> 12
kti ve</w> 12
Nach fol 12
Auf gaben</w> 12
ju ri 12
Bundes trainer</w> 12
mat t</w> 12
20 12</w> 12
jus tifi 12
quel qu'</w> 12
bur eau</w> 12
bur eaux</w> 12
sui cide</w> 12
milli on</w> 12
milli ers</w> 12
Her th 12
tim ents</w> 12
trav ailleurs</w> 12
vol le</w> 12
Bo ch 12
fl am 12
Aut oren</w> 12
Lu ft 12
Li ber 12
Kl ei 12
Kl ein</w> 12
Ko oper 12
présent ée</w> 12
produ cteurs</w> 12
Le verk 12
part age</w> 12
Ger ä 12
Ger hard</w> 12
Su isse</w> 12
cré ée</w> 12
art iste</w> 12
peti tes</w> 12
int érieur</w> 12
mit ten</w> 12
Or d 12
dig keit</w> 12
ek - 12
Bes onder 12
cel ui-ci</w> 12
11 .</w> 12
ler - 12
acc él 12
acc usé</w> 12
199 4</w> 12
199 0</w> 12
199 7</w> 12
199 1</w> 12
199 6</w> 12
enti èrement</w> 12
cap able</w> 12
har mon 12
schl ü 12
We ge</w> 12
län dern</w> 12
Sam m 12
Sam uel</w> 12
az z</w> 12
zus etzen</w> 12
Jean ne</w> 12
Man ch 12
rel ativ</w> 12
Ri ce</w> 12
cert ain</w> 12
rap hique</w> 12
So li 12
dom icili 12
nu l</w> 12
nu clé 12
mal adie</w> 12
Fu ß</w> 12
aîn és</w> 12
prom o 12
prom en 12
eng ager</w> 12
größ eren</w> 12
Jean- Claude</w> 12
zeu ge</w> 12
anim ations</w> 12
Gu ill 12
olo gue</w> 12
Mi ke</w> 12
stei gt</w> 12
best eht</w> 12
äm lich</w> 12
situ ée</w> 12
arbei ter</w> 12
priv ée</w> 12
ed ette</w> 12
envir ons</w> 12
sicher ung</w> 12
hand elt</w> 12
Co ach</w> 12
réalis er</w> 12
réalis ation</w> 12
retrouv és</w> 12
vertr auen</w> 12
Pu tin</w> 12
Tor e</w> 12
Im merhin</w> 12
Jac k 12
Konz ern 12
rest aurants</w> 12
vin gt</w> 12
cli mati 12
cli mat</w> 12
Tou tefois</w> 12
brau chen</w> 12
Part eit 12
Poliz isten</w> 12
öffent liche</w> 12
Sol eil</w> 12
arriv é</w> 12
ress or 12
Pak istan 12
cir cuit</w> 12
program m</w> 12
Schl uss</w> 12
Bl ack 12
proc essus</w> 12
commun ale</w> 12
ris ques</w> 12
doll ar</w> 12
spéci alistes</w> 12
entraîn ement</w> 12
Fern sehen</w> 12
bas tien</w> 12
Yor ker</w> 12
zäh len</w> 12
inscri re</w> 12
tir é</w> 12
Kri tiker</w> 12
ferm és</w> 12
2, 5</w> 12
wich tige</w> 12
tradi tion</w> 12
FT D</w> 12
Produ ktions 12
Stra ßen 12
Fil m 12
Gran de-B 12
dér ation</w> 12
centr es</w> 12
wär en</w> 12
représent ant</w> 12
get an</w> 12
he ct 12
Vo il 12
milit aires</w> 12
actu el</w> 12
actu elle</w> 12
heim ischen</w> 12
trot zdem</w> 12
Comm ission</w> 12
Off en 12
colle cti 12
Entschei dungen</w> 12
schwer e</w> 12
fre d</w> 12
gewor fen</w> 12
Kol lege</w> 12
rec ev 12
respe ct 12
National spieler</w> 12
National mannschaft</w> 12
voul oir</w> 12
util isation</w> 12
Wor l 12
Wor ten</w> 12
vict oires</w> 12
capit aine</w> 12
cal endrier</w> 12
entwick eln</w> 12
chin ois</w> 12
angeb lich</w> 12
lign es</w> 12
Bild ungs 12
contin uer</w> 12
Kir che</w> 12
soli darité</w> 12
Kul tur 12
Zwei t 12
diz in 12
verl etzt</w> 12
sym bo 12
tes te</w> 12
tes ten</w> 12
rapi de</w> 12
Haupt stadt</w> 12
Ann e- 12
frag te</w> 12
vertei diger</w> 12
Jus qu'</w> 12
Jus tiz 12
Partei chef</w> 12
article 11 12
drück lich</w> 12
Fra ktion</w> 12
Air bus</w> 12
enqu ê 12
Zw isch 12
prü fen</w> 12
Marc o</w> 12
Wettbewer bs 12
anges ichts</w> 12
beg ann</w> 12
Schwei z</w> 12
universi té</w> 12
Pan orama</w> 12
Bis her</w> 12
außer halb</w> 12
Famili en</w> 12
rom an</w> 12
Jap on</w> 12
fall ait</w> 12
vain qu 12
Sou ff 12
né anmoins</w> 12
zü ge</w> 12
Der zeit</w> 12
Esp ace</w> 12
Zei chen</w> 12
régu lier</w> 12
échan ge</w> 12
num éro</w> 12
réun is</w> 12
multi pli 12
gepl ante</w> 12
bewe gt</w> 12
racon te</w> 12
französ ische</w> 12
Dop ing- 12
Ill ustration</w> 12
sche fs</w> 12
professionn elle</w> 12
Compu ter</w> 12
test ens</w> 12
bem üh 12
Aff aires</w> 12
Beck stein</w> 12
maî tre</w> 12
propriét aire</w> 12
fut ur</w> 12
gere cht</w> 12
atta quant</w> 12
bestä tigt</w> 12
Beteilig ung</w> 12
höch sten</w> 12
Liter atur</w> 12
civi l</w> 12
Sé bastien</w> 12
cham bre</w> 12
mauv ais</w> 12
Kontr olle</w> 12
kontr ol 12
europä ischen</w> 12
Flori de</w> 12
FD P</w> 12
essenti el</w> 12
Betrieb s 12
ymp ischen</w> 12
région al</w> 12
mär kten</w> 12
Ori ent</w> 12
pru dence</w> 12
weit gehend</w> 12
salari és</w> 12
Bag dad</w> 12
angl ais</w> 12
performan ce</w> 12
Roy al</w> 12
Konjun ktur</w> 12
belast et</w> 12
Kranken haus</w> 12
étrang ères</w> 12
Rah men</w> 12
minim um</w> 12
Merce des</w> 12
bisher igen</w> 12
Servi ce</w> 12
Österrei ch</w> 12
histori que</w> 12
Amerik a</w> 12
Alexand re</w> 12
vidé o</w> 12
réfle xi 12
poten ti 12
Quel ques</w> 12
sond age</w> 12
Komment ar</w> 12
McLar en- 12
strat égie</w> 12
interessi ert</w> 12
scén ario</w> 12
Luf than 12
mittler weile</w> 12
Clin ton</w> 12
séle ctionn 12
Lyn ch</w> 12
400 e</w> 12
concl u</w> 12
extra ordinaire</w> 12
cuis ine</w> 12
méc an 12
Vend redi</w> 12
Egyp te</w> 12
Anto ine</w> 12
müss te</w> 12
litt ér 12
pron on 12
Cather ine</w> 12
Maurit anie</w> 12
Alit alia</w> 12
angh ai</w> 12
geplan ten</w> 12
Ingri d</w> 12
Leverk us 12
Grande-B retagne</w> 12
Lufthan sa</w> 12
p as 11
p eines</w> 11
p iste</w> 11
p ages</w> 11
r ag 11
r entr 11
r esse</w> 11
r ain</w> 11
r assembl 11
é mer 11
o se</w> 11
o ss 11
g ie</w> 11
g au</w> 11
a ß</w> 11
t â 11
t ten</w> 11
t onn 11
t iss 11
t elles</w> 11
i k</w> 11
v an 11
v oire</w> 11
e z 11
e vi 11
S c 11
S om 11
S ans</w> 11
S ci 11
S ak 11
S ing 11
S atz</w> 11
u l</w> 11
c ter</w> 11
c ach 11
c ain</w> 11
c ène</w> 11
c ancer</w> 11
l o</w> 11
l la</w> 11
l auf</w> 11
h am 11
h al</w> 11
h ier 11
h eit 11
h ori 11
n oir</w> 11
n äh 11
n on- 11
n ämlich</w> 11
J ürgen</w> 11
m as 11
m onn 11
m einem</w> 11
m ert</w> 11
m ètres</w> 11
m urs</w> 11
C ré 11
C le 11
C ul 11
C éci 11
C ity</w> 11
b ir 11
b ungen</w> 11
b ahn</w> 11
s ent</w> 11
s ru 11
s eit 11
s ache</w> 11
- Mar 11
R O 11
R W 11
R at 11
R as 11
R ap 11
R und 11
R enten 11
D S 11
D .</w> 11
D res 11
D inge</w> 11
y s 11
y n</w> 11
y ant</w> 11
y cl 11
d us</w> 11
d ach 11
d ine</w> 11
F é 11
F C 11
F R 11
F is 11
F ré 11
F ischer</w> 11
F euer 11
F eder 11
F illon</w> 11
L ing 11
ô m 11
V ene 11
V ON</w> 11
A - 11
A B 11
A G</w> 11
A li 11
A pr 11
A ktion</w> 11
E M 11
E mi 11
E ff 11
E ig 11
P é 11
T at 11
T onnen</w> 11
T ermin</w> 11
M üh 11
M etz</w> 11
O sc 11
G lo 11
f ri 11
f us 11
f ir 11
f ant 11
f -B 11
f esti 11
f oi</w> 11
f acteur</w> 11
H om 11
H ur 11
H us 11
H aft</w> 11
k in</w> 11
k äm 11
k omp 11
9 7</w> 11
w issenschaf 11
K a 11
K auf</w> 11
j i</w> 11
j as</w> 11
B en</w> 11
B us</w> 11
B art 11
B ye</w> 11
B âle</w> 11
N er 11
N au 11
N ik 11
U BS</w> 11
ü m 11
ê ve</w> 11
1 20</w> 11
8 . 11
8 6 11
8 1</w> 11
W ehr 11
ö st 11
er z 11
er ischen</w> 11
er enden</w> 11
er kenn 11
er kennen</w> 11
en or 11
en des</w> 11
ch ré 11
ch em</w> 11
an ges</w> 11
in ci 11
un gewöhn 11
ti c</w> 11
ei en</w> 11
au ber 11
es heim</w> 11
ar n 11
ar ab 11
ar me</w> 11
qu ées</w> 11
qu asi</w> 11
li re</w> 11
or ité</w> 11
el n 11
el f</w> 11
el le- 11
al b 11
al d</w> 11
al ez</w> 11
ai da</w> 11
pr is 11
pr ête</w> 11
ein st</w> 11
ein deu 11
ein ture</w> 11
si gne</w> 11
at oren</w> 11
ag issait</w> 11
di vers</w> 11
ab and 11
il la</w> 11
ge fragt</w> 11
ge kauft</w> 11
re qu 11
re cours</w> 11
re prendre</w> 11
re vient</w> 11
ver ti 11
ver stehen</w> 11
ver lor</w> 11
ver rin 11
it - 11
av or 11
oi les</w> 11
ter te</w> 11
ter in</w> 11
ni emand</w> 11
ent ôt</w> 11
dé sign 11
con qu 11
be an 11
be wegen</w> 11
be zeich 11
be lieb 11
der ie</w> 11
ci er</w> 11
vi ens</w> 11
vi vent</w> 11
vi endra</w> 11
vi ce- 11
vi gueur</w> 11
ac eb 11
par isi 11
par king</w> 11
ré cep 11
ré union</w> 11
ra is 11
le isten</w> 11
le cture</w> 11
po l</w> 11
pro xim 11
ber s</w> 11
ber gen</w> 11
ber icht</w> 11
im plant 11
Sch a 11
Sch ro 11
Sch um 11
St an 11
St ar</w> 11
ap pl 11
ap pris</w> 11
ap proche</w> 11
aus gesch 11
aus schuss</w> 11
An lag 11
Ver s 11
Ver su 11
Ver fassungs 11
Ver hältnis</w> 11
Ver mögen</w> 11
Ver längerung</w> 11
ach ter</w> 11
ach ev 11
pré sum 11
wer fen</w> 11
gr ü 11
gr en 11
pi t</w> 11
se ch 11
se cr 11
lo g 11
lo tte</w> 11
lan te</w> 11
end gül 11
ann en</w> 11
per toire</w> 11
ex i 11
ex clu 11
ex amen</w> 11
for êts</w> 11
por tes</w> 11
ouv ri 11
ér y</w> 11
bi entôt</w> 11
ger issen</w> 11
etz ung</w> 11
Au x</w> 11
and s</w> 11
and o</w> 11
tu és</w> 11
gi on</w> 11
ru ption</w> 11
min e</w> 11
min ute</w> 11
Re d 11
Re al</w> 11
Re gel 11
Re vol 11
Be grün 11
Be griff</w> 11
pe kt</w> 11
Pro gno 11
ten ait</w> 11
we ist</w> 11
Un gl 11
Un ited</w> 11
déc ro 11
zi ge</w> 11
Mar io</w> 11
sin n</w> 11
Er satz 11
fi ce</w> 11
te aux</w> 11
hei mer</w> 11
fr ère</w> 11
fr ères</w> 11
ma che</w> 11
hi as</w> 11
hi elten</w> 11
En f 11
En ergie</w> 11
En tre 11
Ar zt</w> 11
br on 11
éri r</w> 11
man ches</w> 11
ay er</w> 11
Par k 11
tz dem</w> 11
Fran ck</w> 11
Fran cis</w> 11
gel assen</w> 11
Ge walt</w> 11
Eur o 11
Eur o- 11
off rir</w> 11
bes te</w> 11
bl ie</w> 11
gn es</w> 11
fin de</w> 11
Qu elle</w> 11
vor erst</w> 11
Ein rich 11
Ein schätz 11
Di on</w> 11
att endant</w> 11
aff i 11
Aus land</w> 11
ren on 11
ég ard</w> 11
Vor stand</w> 11
Vor jahr</w> 11
neu tr 11
sp anischen</w> 11
bu ch</w> 11
gew ann</w> 11
Ro jas</w> 11
dis positif</w> 11
Kon sequ 11
her steller</w> 11
cher che</w> 11
cher cher</w> 11
rit ten</w> 11
Deutsch lands</w> 11
ic s</w> 11
ic ale</w> 11
über sch 11
rem pl 11
rem pli 11
ho w</w> 11
ho ff</w> 11
dem eure</w> 11
sor gen</w> 11
sor gt</w> 11
oc cident 11
publi é</w> 11
év ang 11
mé tier</w> 11
ord in 11
ord onn 11
Auf t 11
Poli t 11
os en</w> 11
mat ern 11
20 h</w> 11
20 11</w> 11
bar keit</w> 11
kon serv 11
ari f</w> 11
sui vie</w> 11
Pl an</w> 11
Pl atz 11
anci ennes</w> 11
form ule</w> 11
For d</w> 11
la v</w> 11
Her z</w> 11
Her aus 11
hin zu</w> 11
vol s</w> 11
dire c 11
euro pa</w> 11
contr aire</w> 11
Min ister</w> 11
Lu ca</w> 11
Sp ann 11
glei che</w> 11
ban ken</w> 11
Ko ch</w> 11
Sain t</w> 11
Vi el 11
agn es</w> 11
tä glich</w> 11
conn ues</w> 11
tour ner</w> 11
cré dit</w> 11
bil dungs 11
sk ep 11
schw iller</w> 11
chan té</w> 11
chan ger</w> 11
chan gé</w> 11
chan gement</w> 11
chan tiers</w> 11
tél é</w> 11
Per man 11
Gel e 11
enti n</w> 11
enti er</w> 11
cap acité</w> 11
éli que</w> 11
prof iter</w> 11
dan k</w> 11
pé ti 11
vers é</w> 11
teil ten</w> 11
versi ch 11
All ein</w> 11
Neu e</w> 11
Man i 11
Man agement</w> 11
assi n</w> 11
Car ol 11
Car los</w> 11
Über ra 11
vir tu 11
rel ati 11
Ri v 11
inf ir 11
inf lu 11
proch ains</w> 11
proch aines</w> 11
déclar e</w> 11
entre tien</w> 11
cert ainement</w> 11
Kur s</w> 11
Kur z 11
18 , 11
Unter dessen</w> 11
Am érique</w> 11
sal u 11
sal les</w> 11
dép ens 11
13 , 11
Regier ung 11
Wer be 11
Wer bung</w> 11
zahl reiche</w> 11
Rück tritt</w> 11
Rück kehr</w> 11
loc ales</w> 11
dav or</w> 11
Inter essen</w> 11
Wei ter 11
14 .</w> 11
musi cal</w> 11
Gro ßen</w> 11
sicher heit</w> 11
régi ons</w> 11
kun fts 11
17 h</w> 11
tra f</w> 11
spä testens</w> 11
fest genommen</w> 11
Bi bliothèque</w> 11
fün f 11
Flu cht</w> 11
Im mer</w> 11
eri es</w> 11
main tenir</w> 11
verb ind 11
Em pf 11
mehr fach</w> 11
Part ner</w> 11
Part ner 11
ép oux</w> 11
hol te</w> 11
Ru dol 11
Mul ti 11
municip ale</w> 11
coll è 11
Bay er</w> 11
Bay ern 11
Schul d</w> 11
zo g</w> 11
haus en</w> 11
zun ehmen</w> 11
atten te</w> 11
pun kte</w> 11
inscri ption</w> 11
appar aît</w> 11
berich ten</w> 11
berich teten</w> 11
autor ou 11
gesam ten</w> 11
Geschäf te</w> 11
sorti es</w> 11
hum our</w> 11
compl è 11
Mittw och 11
gén ération</w> 11
nen nen</w> 11
popul arité</w> 11
mög lich 11
Lin ie</w> 11
16 .</w> 11
schließ end</w> 11
Cl aire</w> 11
cam ér 11
milit är 11
heim - 11
travaill é</w> 11
schlä gen</w> 11
bew aff 11
Comm un 11
Mc C 11
Geor ges</w> 11
Ol mert</w> 11
prot éger</w> 11
Tro tzdem</w> 11
30 .</w> 11
Ou est</w> 11
Gren z 11
prépar er</w> 11
élé ment</w> 11
util is 11
brit anni 11
Wor te</w> 11
recher ches</w> 11
démo cra 11
stär ker</w> 11
objecti fs</w> 11
Zentr um</w> 11
28 .</w> 11
füh len</w> 11
Sor ge</w> 11
trei ben</w> 11
Internet - 11
frag ten</w> 11
condu cteur</w> 11
condu ite</w> 11
Dan ach</w> 11
feh l</w> 11
Kom prom 11
lev é</w> 11
écl at 11
effectu er</w> 11
Kap ital 11
astr ophe</w> 11
permet tra</w> 11
The ater</w> 11
traditionn elle</w> 11
Fra ktions 11
anwal t</w> 11
Tech n 11
québ éco 11
propr es</w> 11
Eng agement</w> 11
yst em</w> 11
Tit el 11
Mär kte</w> 11
fum eurs</w> 11
chant euse</w> 11
déplac ement</w> 11
tag abend</w> 11
bâ timent</w> 11
tend ance</w> 11
äuß ern</w> 11
Lieb e</w> 11
hil fe</w> 11
Drit tel</w> 11
Gewerk schaften</w> 11
Son y</w> 11
prob ablement</w> 11
Ander s</w> 11
dd p</w> 11
Vill é</w> 11
Mass en 11
radi k 11
médec ins</w> 11
Jon es</w> 11
etter ie</w> 11
Andre as</w> 11
Vide o</w> 11
rè g 11
Tag es 11
ty pe</w> 11
Dre i</w> 11
Verbrau cher</w> 11
Wachst um</w> 11
évi demment</w> 11
hoff t</w> 11
hoff e</w> 11
Dev ant</w> 11
wahr scheinlich</w> 11
assist ance</w> 11
gemeinsam e</w> 11
investiss ements</w> 11
kritis ierte</w> 11
afri kan 11
Bundest ags 11
manifest ation</w> 11
démocr atie</w> 11
hü ter</w> 11
verbesser n</w> 11
adress er</w> 11
persön lich</w> 11
Mindest lohn</w> 11
poss ède</w> 11
Städ ten</w> 11
voil à</w> 11
Cano ë</w> 11
disponi bles</w> 11
Ele c 11
för dern</w> 11
verhand eln</w> 11
afghan ischen</w> 11
akzep tiert</w> 11
Span ien</w> 11
Sech s</w> 11
écou te</w> 11
attein dre</w> 11
bonn es</w> 11
jard in</w> 11
débu té</w> 11
Stur m</w> 11
écriv ain</w> 11
Verteidigungs minister</w> 11
exceptionn elle</w> 11
Pour tant</w> 11
Mun ster</w> 11
Zul etzt</w> 11
erlau bt</w> 11
gebi et</w> 11
gerä t</w> 11
Form el</w> 11
table au</w> 11
Qualifik ation</w> 11
Math ieu</w> 11
stoff e</w> 11
Schr öder</w> 11
Karl sru 11
faudr a</w> 11
héro s</w> 11
Cô té</w> 11
plä ne</w> 11
automobil istes</w> 11
ograph ie</w> 11
Kandi daten</w> 11
Stoi ber</w> 11
secré taire</w> 11
Paro isse</w> 11
Abgeord nete</w> 11
Nachrichten agentur</w> 11
goû ter</w> 11
offizi ell</w> 11
parlement aire</w> 11
entde ckt</w> 11
déch ets</w> 11
Verhand lungen</w> 11
privil égi 11
Gebäu de</w> 11
österreich ischen</w> 11
Dah er</w> 11
Anhän ger</w> 11
scru tin</w> 11
magnifi que</w> 11
procur eur</w> 11
patin oire</w> 11
Nürn berg</w> 11
Ray mond</w> 11
TG V</w> 11
estini ens</w> 11
Erwar tungen</w> 11
hivern ale</w> 11
bénévo les</w> 11
Hypoth ek 11
Gonz alez</w> 11
Teher an</w> 11
hon or 11
bill ets</w> 11
Moh am 11
chr ist 11
jeden falls</w> 11
Alon so</w> 11
drhein - 11
Vorjahr es 11
Nachfol ger</w> 11
Voil à</w> 11
Apr il</w> 11
démocra te</w> 11
p t</w> 10
p el 10
p ath 10
r ar 10
r et</w> 10
r ages</w> 10
r ats 10
g r</w> 10
g a</w> 10
g ä 10
g our 10
g ut 10
a os</w> 10
t ö 10
t om 10
t ter</w> 10
t oit</w> 10
i le</w> 10
v e 10
v éc 10
v eil 10
v oient</w> 10
v edette</w> 10
e ar 10
e cht</w> 10
S em 10
S av 10
S ig 10
S har 10
S itz 10
u b</w> 10
c .</w> 10
c les</w> 10
c re 10
c an</w> 10
c lo 10
c tu 10
c einture</w> 10
l li 10
l am</w> 10
h i</w> 10
h a</w> 10
h eu 10
h éri 10
h är 10
h 45</w> 10
n ez</w> 10
n ett 10
J ason</w> 10
m än 10
m ord 10
m asse</w> 10
m ack</w> 10
m yst 10
m issions</w> 10
C a 10
C G 10
C al 10
C ern 10
b om 10
b us 10
b ad 10
b ain</w> 10
s ä 10
s oi 10
s élection</w> 10
R E 10
R ab 10
R ég 10
R ütt 10
è che</w> 10
z b 10
z yn 10
z eitung</w> 10
D r</w> 10
D j 10
D sch 10
D ès</w> 10
D ak 10
D aim 10
d ney</w> 10
F e 10
F .</w> 10
F . 10
F A</w> 10
F en 10
F al 10
F ein 10
F ur 10
F ab 10
F ür 10
F lam 10
F abri 10
L é 10
L es 10
L aden</w> 10
V anc 10
î le</w> 10
A M</w> 10
A . 10
A 3 10
A ur 10
A ma 10
A th 10
A SP 10
E mm 10
E tienne</w> 10
P M 10
P in 10
P ier 10
P ie 10
T S 10
T T 10
T V</w> 10
T ö 10
T en 10
T ei 10
T em 10
T aus 10
T ür 10
M ur 10
M af 10
M ir 10
M ess 10
M ens 10
M ill 10
O s 10
O per 10
I V</w> 10
I tal 10
I II</w> 10
x elles</w> 10
G M 10
G éné 10
G leich 10
f - 10
f ro 10
f ier 10
f liegen</w> 10
f irma</w> 10
H é 10
H S 10
H él 10
H under 10
H afen</w> 10
H arry</w> 10
k eit 10
k oh 10
k unden</w> 10
0 9 10
w an</w> 10
w and</w> 10
w ill 10
w itz 10
w itz</w> 10
K y 10
K ac 10
K lu 10
K ay 10
K anz 10
j uni 10
B O</w> 10
B ach 10
B oll 10
B ell</w> 10
B auer</w> 10
N P 10
N on</w> 10
N as 10
N av 10
Z un 10
Z äh 10
Z ahl 10
Z DF</w> 10
1 00.000</w> 10
5 e</w> 10
4 e</w> 10
4 7 10
. 00</w> 10
. 12 10
6 9 10
2 7 10
2 1.</w> 10
W all</w> 10
W ieder 10
œ u 10
ö sen</w> 10
er ts</w> 10
er geb 10
en an 10
ch ent</w> 10
ch ener</w> 10
ch ute</w> 10
an es</w> 10
in dem</w> 10
in ner</w> 10
in croy 10
in flation</w> 10
un te</w> 10
un ten</w> 10
un ité</w> 10
un klar</w> 10
on des</w> 10
on dr 10
ei ber</w> 10
ei cher 10
ou é</w> 10
au x 10
au tr 10
au lt</w> 10
au dit 10
es ten</w> 10
es père</w> 10
tr ent 10
tr ace</w> 10
tr ieb</w> 10
tr êve</w> 10
qu ette</w> 10
qu art</w> 10
qu ote</w> 10
or f</w> 10
or y</w> 10
el ou 10
el ek 10
eu ert</w> 10
al é</w> 10
al tet</w> 10
em a</w> 10
pr ess 10
ein i 10
ein halb</w> 10
ein gesetzt</w> 10
ein ig</w> 10
st elle</w> 10
st ör 10
st heim</w> 10
st unden</w> 10
st ehe</w> 10
st olz</w> 10
at ischen</w> 10
at ische</w> 10
at mosp 10
sch ä 10
sch ön 10
sch utz 10
sch lim 10
sch loss</w> 10
ag res 10
et ten 10
di o 10
di r</w> 10
di er</w> 10
di ra 10
di ens</w> 10
di vision</w> 10
ri che</w> 10
am e 10
am er</w> 10
ab elle</w> 10
ab gel 10
ab ad</w> 10
ab geschlossen</w> 10
ge fü 10
ge zi 10
ge klär 10
re du 10
re port 10
re construction</w> 10
re publik</w> 10
ver stär 10
ver däch 10
eh enden</w> 10
av ic 10
av enture</w> 10
ent - 10
ent ente</w> 10
ent èle</w> 10
ent wurf</w> 10
dé bar 10
dé tru 10
dé voil 10
us te</w> 10
us al 10
pl ai 10
pl ötzlich</w> 10
mi r 10
mi gran 10
be darf</w> 10
ro r</w> 10
ro i</w> 10
ro y 10
ci - 10
ci gar 10
vi eux</w> 10
ac te</w> 10
ac tes</w> 10
ac kt</w> 10
ac ken</w> 10
ac ker</w> 10
fü llen</w> 10
ré sou 10
ré uni 10
ré siden 10
ra y 10
po che</w> 10
pro poser</w> 10
pro gno 10
com posé</w> 10
ber ech 10
ber eitung</w> 10
ass en 10
ck te</w> 10
Sch le 10
Sch ir 10
Sch uss</w> 10
Sch lä 10
Sch ell</w> 10
Sch mit 10
Sch atten</w> 10
St ade</w> 10
ap porter</w> 10
aus ch</w> 10
aus fallen</w> 10
aus gesprochen</w> 10
aus reich 10
An schlag</w> 10
An griff</w> 10
An trag</w> 10
Ver ein</w> 10
Ver än 10
Ver br 10
Ver halten</w> 10
Ver trieb 10
Ver kauf</w> 10
ell s</w> 10
pré si 10
pré visi 10
pré occup 10
wer t 10
op f</w> 10
gr ation</w> 10
gr ès</w> 10
se cou 10
se cours</w> 10
lo gi 10
lo sen</w> 10
lo cken</w> 10
um ul 10
eb t</w> 10
ex tern 10
all em 10
ges ich 10
ges ucht</w> 10
In geni 10
ot he 10
ll er- 10
bi ens</w> 10
bi bliothèque</w> 10
ger en</w> 10
ger ungen</w> 10
ess enheim</w> 10
Au c 10
tu g 10
min eurs</w> 10
ss enk 10
Re fer 10
Be währ 10
Be zir 10
Ch ez</w> 10
Ch ev 10
wir tschafts 10
we ek- 10
ali ers</w> 10
gu er 10
gan gs 10
déc isi 10
mar ge</w> 10
mar ès</w> 10
so fort</w> 10
sin n 10
sin ken</w> 10
Er klärung</w> 10
lie f</w> 10
lie fern</w> 10
fi er</w> 10
fi gure</w> 10
fr as 10
fr ais</w> 10
No tre- 10
ak i</w> 10
geb oren</w> 10
auf grund</w> 10
Al - 10
Al ber 10
Al so</w> 10
Al bert</w> 10
Ar sen 10
Ar ena</w> 10
br ut 10
man ager</w> 10
ay lor</w> 10
Par lement</w> 10
ts - 10
gel t</w> 10
19 .</w> 10
19 80</w> 10
do r</w> 10
él u</w> 10
bli ck</w> 10
bli eben</w> 10
str a 10
str ateg 10
ör per 10
vor n</w> 10
Po int</w> 10
sol eil</w> 10
cor re 10
dr ess 10
enf in</w> 10
aff irm 10
aff ec 10
Aus gleich</w> 10
Aus sage</w> 10
ren ouv 10
ég alité</w> 10
Vor schlag</w> 10
cou leur</w> 10
dis ait</w> 10
dis puté</w> 10
poli tiker</w> 10
stell vertret 10
isi tion</w> 10
her um</w> 10
cour te</w> 10
Mon de</w> 10
gran d'</w> 10
ph e</w> 10
ph oto</w> 10
sti e 10
inter diction</w> 10
inter pell 10
comp tes</w> 10
rem on 10
minis tres</w> 10
gesch ätz 10
sc ul 10
eff ets</w> 10
men er</w> 10
men ée</w> 10
Th é 10
ho de</w> 10
adi s</w> 10
adi es</w> 10
ko m</w> 10
ko v</w> 10
gro sses</w> 10
publi ques</w> 10
hä user</w> 10
rich ter</w> 10
ret our 10
äch s 10
ig n</w> 10
ig ten</w> 10
Auf tritt</w> 10
Me d 10
ans en</w> 10
ju gement</w> 10
mat inée</w> 10
20 13</w> 10
gest o 10
pay er</w> 10
spr ung</w> 10
personn alités</w> 10
lin es</w> 10
lin gs 10
Pl as 10
For derungen</w> 10
la h</w> 10
sam e</w> 10
bour g- 10
trav aille</w> 10
unter wegs</w> 10
dire ctement</w> 10
Bo d 10
Bo b</w> 10
Bo ston</w> 10
conc erne</w> 10
contr e- 10
lar gement</w> 10
-B r 10
Tr au 10
Ko so 10
diff us 10
part ager</w> 10
öh nen</w> 10
conn ue</w> 10
tour s</w> 10
mit teilte</w> 10
bou lev 10
ek ten</w> 10
rech ts 10
Mer ri 10
chan ge</w> 10
chan ces</w> 10
chan tier</w> 10
ori enti 10
ler nen</w> 10
kur zen</w> 10
vis ant</w> 10
Con t 10
organis ateurs</w> 10
app t</w> 10
soci ales</w> 10
soci aliste</w> 10
Europ as</w> 10
prä sidenten</w> 10
10 .</w> 10
cons ci 10
trans f 10
trans par 10
schl agen</w> 10
déf endre</w> 10
Br üssel</w> 10
Um welt 10
letz tlich</w> 10
Bil der 10
Ban que</w> 10
err eur</w> 10
teil weise</w> 10
All en</w> 10
Über nahme</w> 10
rel ève</w> 10
berei ch</w> 10
berei ten</w> 10
Bar r</w> 10
Kr is 10
Kur z</w> 10
Saint- Louis</w> 10
ustr ie 10
plac é</w> 10
char ges</w> 10
Am éric 10
Jean- Marie</w> 10
dép ôt</w> 10
dép enses</w> 10
dép utés</w> 10
mag istr 10
Gu erre</w> 10
13 .</w> 10
inst ance</w> 10
Land tags 10
Sar re 10
Se cteur</w> 10
erklär en</w> 10
Fre ist 10
hän gt</w> 10
best and</w> 10
Vol ker</w> 10
Char ak 10
envir onn 10
sicher te</w> 10
Co un 10
arb res</w> 10
scri ption</w> 10
ajou te-t-il</w> 10
Nor den</w> 10
Nor bert</w> 10
asi n</w> 10
import ance</w> 10
dür fe</w> 10
dür ften</w> 10
cli entèle</w> 10
Tou te</w> 10
hol t</w> 10
maj eur</w> 10
mom ents</w> 10
Zi vil 10
gegen wär 10
commer çants</w> 10
municip aux</w> 10
Bl att</w> 10
schei den</w> 10
ris ach</w> 10
issi onen</w> 10
unser en</w> 10
économ ies</w> 10
Gew inne</w> 10
jähri ger</w> 10
Nation al</w> 10
Strei k 10
versu chte</w> 10
Kri min 10
différ ence</w> 10
Sie g 10
mach ten</w> 10
sé ance</w> 10
tradi tion 10
tot alement</w> 10
Da x</w> 10
le- Haut</w> 10
Erfol ge</w> 10
Erfol gs 10
mög licherweise</w> 10
oo k</w> 10
fass ung</w> 10
wach st 10
wach ung</w> 10
sus pen 10
Lin ks 10
Cl emens</w> 10
cam p</w> 10
Lei cht 10
Wi es 10
journ al</w> 10
journ aliste</w> 10
Gener ation</w> 10
konz entr 10
colle ction</w> 10
Ol ympischen</w> 10
ele fon 10
Mitglie d</w> 10
anst alt 10
présiden ce</w> 10
reconn aissance</w> 10
respe ct</w> 10
Ou ver 10
confi é</w> 10
Entwick lungs 10
communi cation</w> 10
attent ats</w> 10
Tre ffer</w> 10
Stein br 10
voit ures</w> 10
secon des</w> 10
augment er</w> 10
Stuttgar ter</w> 10
go w</w> 10
tal ents</w> 10
Tur nier</w> 10
Män nern</w> 10
füh lt</w> 10
soli de</w> 10
attend ent</w> 10
occu pe</w> 10
Bri ef</w> 10
diz aine</w> 10
land s 10
sym pat 10
explo itation</w> 10
Bru xelles</w> 10
trei bt</w> 10
Berei ts</w> 10
Lond res</w> 10
Ih nen</w> 10
Terror isten</w> 10
fal sche</w> 10
effectu é</w> 10
constitu e</w> 10
begin nen</w> 10
Angel es</w> 10
permet tant</w> 10
offici elle</w> 10
drück en</w> 10
drit te</w> 10
fabri que</w> 10
2- 0</w> 10
24 .</w> 10
leb ens 10
Bour se</w> 10
prü ft</w> 10
akt isch</w> 10
souhai te</w> 10
Rau m 10
paro issi 10
Schwei zer</w> 10
Ant wort</w> 10
Konkurren ten</w> 10
kra ft</w> 10
kra ft 10
Schwar z 10
herr en</w> 10
famili al</w> 10
famili ale</w> 10
leich ter</w> 10
Plä tze</w> 10
fra ktion</w> 10
suff it</w> 10
Beru fung</w> 10
Zusch auern</w> 10
blan che</w> 10
Mat erial</w> 10
Kran k 10
Sozial demok 10
aw az</w> 10
tch èque</w> 10
Brem er</w> 10
ster ben</w> 10
verdi ent</w> 10
Stre cke</w> 10
num érique</w> 10
sau ver</w> 10
zentr um</w> 10
prouv é</w> 10
kam pf 10
financ ement</w> 10
chois i</w> 10
Pers onen</w> 10
staat liche</w> 10
sav ent</w> 10
fê ter</w> 10
Hi gh 10
Hen ri</w> 10
Anti - 10
observ ateurs</w> 10
Europä ischen</w> 10
professionn els</w> 10
terror iste</w> 10
mén age</w> 10
Dat en 10
Kab in 10
Jugend lichen</w> 10
fédér ation</w> 10
Klima schutz</w> 10
profi tieren</w> 10
accep té</w> 10
gemeinsam en</w> 10
investiss eurs</w> 10
spor tif</w> 10
Wohn ungs 10
constat é</w> 10
coup able</w> 10
ähn lich</w> 10
automobi les</w> 10
Risi ko</w> 10
Kor re 10
erw äh 10
viv ant</w> 10
Syl vie</w> 10
émo tion</w> 10
Fun ktion 10
Mein ung</w> 10
kämpf en</w> 10
islam istes</w> 10
ref usé</w> 10
begr ü 10
Städ te</w> 10
appréci é</w> 10
embour g</w> 10
straf e</w> 10
versicher ung</w> 10
vê tements</w> 10
Ele k 10
Mehr heit</w> 10
fou le</w> 10
dépl oy 10
bege ister 10
Dire kt 10
remar qu 10
Demok ratie</w> 10
nécess aire</w> 10
nécess aires</w> 10
étran ger</w> 10
Jos é</w> 10
erinn ert</w> 10
regel mäßig</w> 10
verlan gt</w> 10
überra scht</w> 10
accus és</w> 10
Cin q</w> 10
Cin éma</w> 10
sci enti 10
verschie dene</w> 10
profon de</w> 10
Wirk ung</w> 10
Flugh afen</w> 10
camp agnes</w> 10
Deu tsch</w> 10
améli orer</w> 10
ball on</w> 10
Lauf e</w> 10
Pou tine</w> 10
kri min 10
Wech sel</w> 10
unabhängi g</w> 10
prest ation</w> 10
hosp it 10
Sab ine</w> 10
Rot h</w> 10
Vir gin 10
quin zaine</w> 10
verzi chten</w> 10
Verantwor tung</w> 10
rup ture</w> 10
Vorstand s 10
Urlau b</w> 10
fédé ral</w> 10
protest ante</w> 10
Arbeitslosen geld</w> 10
Soul tz 10
Erst mals</w> 10
fid èles</w> 10
profess eur</w> 10
éclair age</w> 10
rond elle</w> 10
handi cap 10
Holl ywoo 10
wün schen</w> 10
UM P</w> 10
verpflich tet</w> 10
genü gend</w> 10
langs am</w> 10
maxim um</w> 10
ensei gne</w> 10
erheb lich</w> 10
Gebur t 10
souven irs</w> 10
Clar a</w> 10
Det ails</w> 10
sil ence</w> 10
foncti onnement</w> 10
étudi ants</w> 10
Agen da</w> 10
Tali ban</w> 10
Hitz feld</w> 10
Wiss embourg</w> 10
onni ers</w> 10
perfe kt</w> 10
guéri lla</w> 10
Erfahr ung</w> 10
disk uti 10
intermédi aire</w> 10
évac u 10
Investi tionen</w> 10
Glas gow</w> 10
kompl ett</w> 10
Wachstum s 10
Microso ft</w> 10
Tats ache</w> 10
nied ri 10
immen se</w> 10
geru fen</w> 10
Quad rat 10
boî te</w> 10
Conc ert</w> 10
Elis abeth</w> 10
cinqu antaine</w> 10
behör de</w> 10
Christop h</w> 10
Oppositi ons 10
Leip zig</w> 10
Schick sal</w> 10
Capit als</w> 10
récupér er</w> 10
hélicopt ères</w> 10
ateli ers</w> 10
eurs- pompiers</w> 10
Stef an</w> 10
Chant al</w> 10
gebro chen</w> 10
nuclé aire</w> 10
Guill aume</w> 10
Worl d</w> 10
Zweit lig 10
Fré dé 10
Osc ar</w> 10
proxim ité</w> 10
Begrün dung</w> 10
affi che</w> 10
évang élique</w> 10
Carol ine</w> 10
autorou te</w> 10
veil lance</w> 10
Cern ay</w> 10
Dak ar</w> 10
Vanc ouver</w> 10
Ital ie</w> 10
fier té</w> 10
Kay ser 10
.12 .2007</w> 10
Notre- Dam 10
boulev ard</w> 10
p é</w> 9
p in 9
p oign 9
r .</w> 9
r ie</w> 9
r ée</w> 9
r ass 9
r ut 9
r end</w> 9
r aum</w> 9
r oix</w> 9
o is 9
g st 9
t ol 9
t ation</w> 9
t us</w> 9
t ise</w> 9
t age</w> 9
t ischen</w> 9
t aient</w> 9
t tem 9
t ombe</w> 9
i de 9
i ran 9
v oi 9
v ul 9
v ais</w> 9
v ise</w> 9
e di 9
e ep 9
e kt</w> 9
S A</w> 9
S ac 9
S ous</w> 9
S her 9
S onne</w> 9
S -B 9
S mit 9
S ym 9
S écurité</w> 9
S zene</w> 9
u les</w> 9
c uré</w> 9
c œur</w> 9
l un 9
l ant</w> 9
l aut 9
h a 9
â teaux</w> 9
m ans</w> 9
m ung</w> 9
m ement</w> 9
m ène</w> 9
m isch 9
C .</w> 9
C oh 9
C amp 9
C ott 9
C alifor 9
b a 9
b é</w> 9
b o</w> 9
b ie</w> 9
b et</w> 9
s emb 9
s hi 9
s ens 9
s atelli 9
- jährige</w> 9
R h 9
R ois</w> 9
R hin 9
R aum</w> 9
è tre</w> 9
è tes</w> 9
z ent</w> 9
D ach 9
D ach</w> 9
D arm 9
D agegen</w> 9
D adurch</w> 9
D üssel 9
y ne</w> 9
d eur</w> 9
d op 9
d ette</w> 9
d auer</w> 9
F in</w> 9
F as 9
F rit 9
F lä 9
F ont 9
F eli 9
F euer</w> 9
F aceb 9
L A</w> 9
L ad 9
L ors</w> 9
L iste</w> 9
L ager</w> 9
L ohn 9
L ors 9
L elou 9
ô mes</w> 9
V e 9
V I</w> 9
V an</w> 9
A l</w> 9
A I 9
A K 9
A L</w> 9
A mi 9
E - 9
E M</w> 9
E ss 9
P .</w> 9
P en 9
P at 9
P av 9
P ad 9
P ays</w> 9
P harm 9
T - 9
T y 9
T .</w> 9
T au 9
T ai 9
T est 9
T ier 9
T él 9
T isch</w> 9
T oy 9
T iere</w> 9
M en 9
M is 9
M gr</w> 9
O ding 9
I ci</w> 9
I stan 9
G R 9
G .</w> 9
G ö 9
f ter</w> 9
f aux</w> 9
f assen</w> 9
f alen</w> 9
H eu 9
H ans</w> 9
H oh 9
k i 9
k ein 9
k an</w> 9
k ts</w> 9
k tu 9
k assi 9
k ia</w> 9
k reisen</w> 9
9 4</w> 9
w un 9
w us 9
w ak 9
K as 9
K no 9
K ön 9
K ind 9
K affe 9
B .</w> 9
B au</w> 9
B illi 9
B ill 9
B ill</w> 9
B ord</w> 9
B undes</w> 9
N é</w> 9
U I</w> 9
Z ar 9
Z we 9
ü r</w> 9
ü mer</w> 9
ü ben</w> 9
ê mement</w> 9
1 000</w> 9
1 60</w> 9
5 7 9
4 5 9
. - 9
8 0 9
3 1 9
2 . 9
W y 9
W est</w> 9
W ich 9
W illi 9
W itt 9
Q aida</w> 9
Ä l 9
Ä hn 9
er y</w> 9
er ons</w> 9
er leich 9
er ober 9
en nen</w> 9
en kt</w> 9
an on 9
an court</w> 9
in - 9
in ti 9
in et</w> 9
in des</w> 9
in age</w> 9
in clu 9
in vite</w> 9
un kt</w> 9
un ken</w> 9
on g</w> 9
ti z</w> 9
ti re</w> 9
ti vi 9
ti ll 9
ti endra</w> 9
ti gste</w> 9
ou e</w> 9
ou ill 9
es ts</w> 9
ar y</w> 9
ar ran 9
ar mes</w> 9
ar bre</w> 9
tr ouver 9
qu ai</w> 9
qu illes</w> 9
li ts</w> 9
or gt</w> 9
or ben</w> 9
el - 9
el der</w> 9
eu erte</w> 9
al a</w> 9
al ter</w> 9
al tern 9
ai t-il</w> 9
pr end 9
pr ech 9
pr ennent</w> 9
si s</w> 9
si eur</w> 9
si tôt</w> 9
st ein 9
st ens</w> 9
st euer 9
st euer</w> 9
st yle</w> 9
at ures</w> 9
sch lug</w> 9
om ö 9
ag a</w> 9
ag és</w> 9
ag ress 9
et h 9
et - 9
et en 9
di e 9
di eren</w> 9
di enste</w> 9
ri ft</w> 9
am ent</w> 9
ur er</w> 9
ur spr 9
ab el 9
il ton</w> 9
il leg 9
ge wi 9
ge zahlt</w> 9
re dou 9
re prise</w> 9
re group 9
ver wal 9
ver fahren</w> 9
it te</w> 9
it el</w> 9
it zen</w> 9
eh nt</w> 9
oi x- 9
ter ait</w> 9
ter ien</w> 9
ni g</w> 9
ni en</w> 9
ni em 9
ent end 9
ent end</w> 9
ent gegen</w> 9
ent housi 9
pl o 9
pl atz 9
con sen 9
con fort</w> 9
con gés</w> 9
con tempor 9
be gl 9
be vor</w> 9
ro se</w> 9
ro ck</w> 9
ci enne</w> 9
vi er 9
vi eill 9
ac ée</w> 9
ac comp 9
fü ll 9
par i</w> 9
par aît</w> 9
par lé</w> 9
ré mun 9
le ister</w> 9
ran d</w> 9
com mo 9
ber aten</w> 9
ber lin</w> 9
ber eitet</w> 9
eur - 9
ass es</w> 9
im poser</w> 9
gen heim</w> 9
gen annt</w> 9
gen utzt</w> 9
Sch aden</w> 9
Sch engen</w> 9
St ei 9
ap pe</w> 9
ap partement</w> 9
vo ter</w> 9
vo tes</w> 9
aus gest 9
aus einander 9
An f 9
Ver s</w> 9
ach tung</w> 9
ut ation</w> 9
wer tung</w> 9
op té</w> 9
op port 9
se cteurs</w> 9
ad aire</w> 9
lo bt</w> 9
per ts 9
per tur 9
ex e</w> 9
ét ab 9
ét onne</w> 9
ét oile</w> 9
oll t</w> 9
por ters</w> 9
än der</w> 9
än den</w> 9
än ger</w> 9
ges etz</w> 9
iss er</w> 9
iss eurs</w> 9
hab er</w> 9
In zwischen</w> 9
ot te</w> 9
pu isse</w> 9
ger te</w> 9
Au ff 9
Au gen 9
tu ée</w> 9
gi g</w> 9
gi gen</w> 9
Re gel</w> 9
Be k 9
Be für 9
Be zieh 9
Be zugs 9
Ch em 9
pe au</w> 9
Un i</w> 9
déc len 9
mar ke</w> 9
so pr 9
so wohl</w> 9
Mar k</w> 9
Mar ch 9
sin g 9
Er de</w> 9
Er höhung</w> 9
lie genden</w> 9
ich t 9
hei ßen</w> 9
zu ela</w> 9
No ë 9
No witz 9
ak u 9
ak te</w> 9
ak tionen</w> 9
ak sin</w> 9
Al l</w> 9
En vir 9
ob tient</w> 9
du o</w> 9
man ag 9
är z 9
tz ei 9
tz enheim</w> 9
gel ungen</w> 9
gel eg 9
19 50</w> 9
hal ts 9
hal ben</w> 9
Ge ist</w> 9
Ge gent 9
kl ei 9
kl ingt</w> 9
do s</w> 9
ven ait</w> 9
off res</w> 9
war ds</w> 9
comm un</w> 9
bes itz 9
gn ung</w> 9
fin ances</w> 9
Qu a 9
vor bei</w> 9
vor sich 9
vor stellen</w> 9
Ein er</w> 9
Ein ige</w> 9
Ein igung</w> 9
komm unik 9
dr ingend</w> 9
att et</w> 9
Aus gabe</w> 9
Fr eit 9
Vor wür 9
Vor gehen</w> 9
Vor schläge</w> 9
sen der</w> 9
bu ch 9
cou pe</w> 9
cou vert</w> 9
Ro m</w> 9
dis heim</w> 9
poli s</w> 9
Kon gr 9
Kon ferenz</w> 9
sou rire</w> 9
her ap 9
uni vers</w> 9
alis é</w> 9
alis me</w> 9
gar çon</w> 9
Deutsch er</w> 9
Ab stand</w> 9
Ab stimm 9
inter dit</w> 9
comp ét 9
gesch i 9
gesch lag 9
eff ort</w> 9
eff ondr 9
Gr ass</w> 9
men ten</w> 9
Th aksin</w> 9
dem i</w> 9
ern st</w> 9
pass en</w> 9
piel en</w> 9
dev ront</w> 9
sor gte</w> 9
publi kan 9
fol gten</w> 9
Zu g 9
Zu g</w> 9
ret ten</w> 9
me dizin 9
anz en</w> 9
US -B 9
Auf schw 9
Auf lagen</w> 9
Me tro 9
aî ner</w> 9
20 .</w> 9
gest än 9
pay sage</w> 9
spr ingen</w> 9
personn age</w> 9
équi libre</w> 9
lin ge</w> 9
Pl at 9
sur veillance</w> 9
For tsch 9
For derung</w> 9
For schung</w> 9
la - 9
la den</w> 9
sam en</w> 9
sam keit</w> 9
Her z 9
Her kunft</w> 9
tim men</w> 9
col ore</w> 9
Gesch en 9
äu fe</w> 9
Sp ur</w> 9
Li qui 9
tiv en</w> 9
car tes</w> 9
Tr aum</w> 9
présent ation</w> 9
présent és</w> 9
Su b 9
Ex position</w> 9
öh ne</w> 9
arti ge</w> 9
arti ers</w> 9
bil d 9
des - 9
bou che</w> 9
Or ly</w> 9
lei ter</w> 9
sk i 9
sk is</w> 9
nom s</w> 9
ek te</w> 9
ON G</w> 9
tig ten</w> 9
tig sten</w> 9
tig heim</w> 9
rech ten</w> 9
rech ts</w> 9
vis age</w> 9
organis er</w> 9
organis iert</w> 9
app elle</w> 9
pre isen</w> 9
ath éd 9
har t</w> 9
har dt</w> 9
dan ger</w> 9
dan ger 9
déf enseur</w> 9
seu ls</w> 9
Br uni</w> 9
Um satz 9
We b</w> 9
kün st 9
12 .</w> 9
Ju den</w> 9
El y 9
El tern 9
lon gues</w> 9
All gem 9
Neu er</w> 9
Neu es</w> 9
Neu dorf</w> 9
Man fred</w> 9
stän den</w> 9
stän dige</w> 9
rel ais</w> 9
rel ations</w> 9
dou ze</w> 9
esti ment</w> 9
Kr eu 9
Kr äfte</w> 9
schn eller</w> 9
Prä sid 9
trä gen</w> 9
1, 2</w> 9
1, 1</w> 9
préc éd 9
eil en</w> 9
eil les</w> 9
conf lit</w> 9
gri ech 9
mor te</w> 9
ins zen 9
18 .</w> 9
plac ement</w> 9
Akti on 9
Unter such 9
Unter schied</w> 9
-T ra 9
cont ac 9
Jean- Marc</w> 9
Jean- Luc</w> 9
sal aires</w> 9
Doll ar 9
anim ée</w> 9
mag ique</w> 9
Gu i 9
val ent</w> 9
val oir</w> 9
To des 9
Wer der</w> 9
Gen evi 9
besch ul 9
besch rei 9
besch äf 9
Mi ami</w> 9
Arbeits plätze</w> 9
fai ble</w> 9
Mus eu 9
fel d 9
Wei ter</w> 9
hän dler</w> 9
Vol k</w> 9
Finanz ierung</w> 9
Is abelle</w> 9
sich t 9
musi ciens</w> 9
sicher e</w> 9
sicher lich</w> 9
beh and 9
sitz enden</w> 9
Spiel en</w> 9
lib érer</w> 9
Christ mas</w> 9
Bi esheim</w> 9
dest inée</w> 9
Tou jours</w> 9
ques - 9
Em ilie</w> 9
Ét ats</w> 9
esp è 9
sign ature</w> 9
Jahr hundert</w> 9
Jahr hunder 9
program m 9
Schl ag 9
Si gn 9
Si eben</w> 9
offen si 9
offen sichtlich</w> 9
offen sive</w> 9
commun al</w> 9
Welt meister</w> 9
Welt krie 9
atten du</w> 9
éch elle</w> 9
Bran d 9
Bran den 9
frei lich</w> 9
Hand el 9
Sonn tagabend</w> 9
sa h</w> 9
versch är 9
Den noch</w> 9
Dur ant</w> 9
Sie ger</w> 9
fu hr</w> 9
zeich nung</w> 9
Produ kte</w> 9
le- ci</w> 9
compl été</w> 9
Rei perts 9
Mor gen</w> 9
Mor gan</w> 9
respons abilité</w> 9
AR IS</w> 9
Pun kt</w> 9
Grün dung</w> 9
pal marès</w> 9
sus p 9
Hoch felden</w> 9
cri tique</w> 9
3, 3</w> 9
Mal gré</w> 9
stand s</w> 9
getr offen</w> 9
rédu it</w> 9
fo li 9
Ale x</w> 9
tran si 9
plan ète</w> 9
forder ungen</w> 9
Geor g</w> 9
Spe ars</w> 9
bat aille</w> 9
Gol f</w> 9
4, 5</w> 9
4, 2</w> 9
orig in 9
schwer er</w> 9
genann te</w> 9
Betr eu 9
cit ant</w> 9
europé en</w> 9
moder n 9
ctionn el</w> 9
spi egel 9
Han s- 9
rec ycl 9
reconn aît</w> 9
sup prim 9
voul ait</w> 9
élé gan 9
arrê tés</w> 9
util iser</w> 9
Res pekt</w> 9
Ost wald</w> 9
siè ges</w> 9
für s</w> 9
ämpf er</w> 9
cal cul 9
5, 5</w> 9
agu e- 9
itä n</w> 9
sex trem 9
dével opper</w> 9
imp ôt</w> 9
Verein s 9
Verein igten</w> 9
extr êmement</w> 9
Christi ane</w> 9
On tari 9
angeb oten</w> 9
go ût</w> 9
haf te</w> 9
kul tur 9
Win ter</w> 9
Prof i</w> 9
Prof is</w> 9
kräf ten</w> 9
techni ques</w> 9
Mad el 9
schaff t</w> 9
Them en</w> 9
explo si 9
Cr oix- 9
Ho ene 9
Bor is</w> 9
Schn itt</w> 9
vra ie</w> 9
frü h</w> 9
tex ti 9
nor mal</w> 9
inten tion</w> 9
tifi k 9
amb ul 9
religi on</w> 9
religi eux</w> 9
früh en</w> 9
Ob je 9
feh lt</w> 9
Kilom etern</w> 9
San ktionen</w> 9
St- Louis</w> 9
adop ter</w> 9
Air lines</w> 9
fabri cation</w> 9
Wil hel 9
génér alement</w> 9
Zw angs 9
trou pe</w> 9
viol ence</w> 9
montr er</w> 9
Spitz enk 9
dau erte</w> 9
Lok führ 9
fum er</w> 9
déb at</w> 9
Ant on 9
verkauf ten</w> 9
tari at</w> 9
mou tier</w> 9
Eis enb 9
Pan th 9
0- 0</w> 9
Bis cho 9
Bis lang</w> 9
Champi ons- 9
maß nahmen</w> 9
herr scht</w> 9
Leist ungen</w> 9
ign er</w> 9
häu fi 9
äuß ert</w> 9
Lieb lings 9
Hor st</w> 9
29 .</w> 9
financi er</w> 9
techn ologie</w> 9
russ ische</w> 9
Mag az 9
verdi enen</w> 9
verdi ct</w> 9
itali en 9
Ander e</w> 9
concern és</w> 9
investi r</w> 9
échan ges</w> 9
Vill avic 9
West falen</w> 9
rég imes</w> 9
radi o</w> 9
multi ples</w> 9
dess ous</w> 9
wes entlich</w> 9
enci o</w> 9
dét ail</w> 9
gru ppen</w> 9
Pers ön 9
Pers onne</w> 9
staat lichen</w> 9
Tie fen 9
Woh nung</w> 9
arch ie</w> 9
arch it 9
fron tière</w> 9
Quart al 9
Posi tionen</w> 9
Gesprä che</w> 9
Isra ël</w> 9
initi ative</w> 9
terror istes</w> 9
General sekretär</w> 9
hé ber 9
mén ages</w> 9
sour ces</w> 9
Main z</w> 9
zusätz lich</w> 9
Bon n</w> 9
reag ieren</w> 9
vois in</w> 9
concur r 9
difficul té</w> 9
habitu de</w> 9
Disk ussi 9
kritis iert</w> 9
Tarif vertrag</w> 9
Tele kom</w> 9
Ul rich</w> 9
constat er</w> 9
civi le</w> 9
gerich tet</w> 9
Austr alie</w> 9
Bundest ag</w> 9
manifest ations</w> 9
Risi ko 9
Lehr er</w> 9
frapp é</w> 9
trit ten</w> 9
entsprech end</w> 9
israéli en</w> 9
mauv aise</w> 9
Tu be</w> 9
anf angen</w> 9
begr enz 9
régl er</w> 9
poss ession</w> 9
kontr olle</w> 9
europä ische</w> 9
heb dom 9
spar en</w> 9
Matt hias</w> 9
procé dure</w> 9
syndic ats</w> 9
étran gers</w> 9
fru its</w> 9
Kör per</w> 9
Blan c</w> 9
Wahr heit</w> 9
lic enci 9
statt finden</w> 9
irgend wann</w> 9
Beam te</w> 9
überra schend</w> 9
Tradi tion</w> 9
wachsen den</w> 9
Sho w</w> 9
leh nte</w> 9
Hän dler</w> 9
Kam pf 9
che fs</w> 9
unbe dingt</w> 9
verän dert</w> 9
selbst verständlich</w> 9
Islam abad</w> 9
pouss é</w> 9
Ärz te</w> 9
Rein hard</w> 9
kürz lich</w> 9
chaus sée</w> 9
estim é</w> 9
détermin er</w> 9
cker mann</w> 9
Schauspiel er</w> 9
Schauspiel erin</w> 9
temp ête</w> 9
unterstütz t</w> 9
unterstütz en</w> 9
crimin elle</w> 9
table aux</w> 9
réguli èrement</w> 9
jen igen</w> 9
actionn aires</w> 9
rés ist 9
Gedan ken</w> 9
hosp itali 9
lässi g</w> 9
Aufsichts rat</w> 9
accueill i</w> 9
funktion iert</w> 9
vereinbar t</w> 9
fréquent ation</w> 9
App le</w> 9
Meh dor 9
pec ts</w> 9
Arbei ten</w> 9
commiss ariat</w> 9
Voraus setzungen</w> 9
magaz ine</w> 9
behaup ten</w> 9
gam me</w> 9
nord - 9
sén atrice</w> 9
Ran gers</w> 9
Pati enten</w> 9
sig nifi 9
ate lier</w> 9
Prü f 9
matéri el</w> 9
kennt nisse</w> 9
poi ds</w> 9
ryth me</w> 9
Wun der</w> 9
informi ert</w> 9
stati onnement</w> 9
olympi ques</w> 9
veröffentlich te</w> 9
viel mehr</w> 9
austr al 9
Auseinander setzungen</w> 9
Nachbar n</w> 9
Autom obil 9
Weltmeister schaft</w> 9
pê che</w> 9
Lac roix</w> 9
Mom ent</w> 9
trad u 9
Schri ft 9
Medi kam 9
libé ral</w> 9
céré monie</w> 9
nécessi té</w> 9
immeu ble</w> 9
Jé sus</w> 9
dopp elt</w> 9
Temp o</w> 9
Mik ro 9
Waff en 9
ami tié</w> 9
gewerk schaft</w> 9
Beau coup</w> 9
Güter verkehr</w> 9
pauv reté</w> 9
vétér ans</w> 9
Tsch ech 9
réveill on</w> 9
gendar merie</w> 9
Schie ds 9
Mitglied schaft</w> 9
respecti vement</w> 9
colombi enne</w> 9
Spre cherin</w> 9
Bog ota</w> 9
verab schie 9
éval u 9
Boch um</w> 9
Manch ester</w> 9
promen ade</w> 9
réflexi on</w> 9
Leverkus en</w> 9
tiss ants</w> 9
monn aie</w> 9
Vene zuela</w> 9
Eig ent 9
pris onniers</w> 9
eindeu tig</w> 9
Einschätz ung</w> 9
direc trice</w> 9
skep tisch</w> 9
Perman ence</w> 9
péti tion</w> 9
collè gues</w> 9
complè tement</w> 9
möglich st</w> 9
Commun auté</w> 9
britanni que</w> 9
québéco ise</w> 9
Karlsru he</w> 9
rar ement</w> 9
Rütt gers</w> 9
Mens ch</w> 9
Hél ène</w> 9
Kac zyn 9
Schmit t</w> 9
ausreich end</w> 9
fras tru 9
Arsen al</w> 9
stra ße</w> 9
corre ctionnel</w> 9
transpar ence</w> 9
Améric ains</w> 9
environn ement 9
wachst um</w> 9
Virgin ie</w> 9
Frédé ric</w> 9
Kayser sberg</w> 9
eep er</w> 9
laut et</w> 9
Frit z</w> 9
Feli x</w> 9
Faceb ook</w> 9
Lelou ch</w> 9
Toy ota</w> 9
urspr ün 9
Vorwür fe</w> 9
athéd rale</w> 9
Genevi ève</w> 9
Reiperts willer</w> 9
Hoene ß</w> 9
Villavic encio</w> 9
p - 8
p es 8
p ur 8
p it 8
p ist 8
p ét 8
p fer 8
p ération</w> 8
p asteur</w> 8
r ô 8
r as</w> 8
r av 8
r ein</w> 8
r entrée</w> 8
r enseignements</w> 8
é or 8
é si 8
é lu 8
é rance</w> 8
o v</w> 8
o ine</w> 8
g or 8
g ungen</w> 8
g alt</w> 8
a qu 8
a ques</w> 8
a sten</w> 8
t '</w> 8
t em</w> 8
t éri 8
t ot</w> 8
t elefon 8
i zi 8
i vre</w> 8
i vr 8
v ali 8
v aste</w> 8
e or 8
e präsident</w> 8
S ei 8
S ah 8
S ad 8
S yri 8
S endung</w> 8
S terne</w> 8
u li 8
u tions</w> 8
c at</w> 8
c aux</w> 8
c ées</w> 8
l at 8
l ab 8
l us 8
l an</w> 8
l ée</w> 8
l ad 8
l eit 8
l adi 8
l ösung</w> 8
h l</w> 8
h ung</w> 8
h ère</w> 8
n ent</w> 8
n ütz 8
n utz 8
J . 8
J an</w> 8
J ens</w> 8
m ah 8
m ad 8
C I</w> 8
C R</w> 8
C entr 8
C él 8
C ène</w> 8
b ol 8
b le 8
b res</w> 8
b aut</w> 8
b asi 8
b ack</w> 8
b all- 8
b rési 8
s év 8
s core</w> 8
s bourg</w> 8
s ports</w> 8
- jährigen</w> 8
R .</w> 8
R al 8
R ai 8
R und</w> 8
R ac 8
R ach 8
R um 8
R ess 8
R ett 8
R BO</w> 8
z a</w> 8
z we 8
z ierte</w> 8
D un 8
D au 8
D al 8
D ir 8
D enk 8
D éch 8
y ton</w> 8
d d</w> 8
d eh 8
d ar</w> 8
d wi 8
d ons</w> 8
d am</w> 8
d ois</w> 8
d s- 8
F - 8
F an 8
F ro 8
F lo 8
F alle</w> 8
F ast</w> 8
L S 8
L B</w> 8
L on 8
L im 8
L év 8
L ev 8
L ast 8
L iter</w> 8
q u</w> 8
V öl 8
V atten 8
A ri 8
E B 8
E N</w> 8
E Z 8
E S</w> 8
E li 8
E ber 8
E ck 8
E mo 8
E mer 8
E ssen</w> 8
E va</w> 8
E -M 8
E he 8
E he</w> 8
E AD 8
P S 8
P y 8
P I 8
P re 8
P ul 8
P hal 8
T in 8
T im</w> 8
T hi 8
T ren 8
T os 8
M e</w> 8
M I</w> 8
M as 8
M ac 8
M ali 8
M ay 8
M ord 8
M ast 8
O S 8
I - 8
I .</w> 8
I ss 8
G or 8
G est 8
G ang</w> 8
G ut</w> 8
G oo 8
G lob 8
f es</w> 8
f an 8
H ill 8
H ig 8
H amp 8
H ong 8
k g</w> 8
k li 8
k ol 8
k le 8
X e</w> 8
w il 8
w elle</w> 8
w under 8
w asser</w> 8
K S 8
K .</w> 8
K il 8
K ern</w> 8
K und 8
K lin 8
K üh 8
K ate</w> 8
K eller</w> 8
j ör 8
j agd</w> 8
B W</w> 8
B ab 8
B ie 8
B os 8
B BC</w> 8
B OUR 8
N a 8
N R 8
N om 8
N ahr 8
N anc 8
N awaz</w> 8
U kra 8
Z one</w> 8
ü ff 8
ü bt</w> 8
ü ste</w> 8
ü mm 8
1 00 8
5 . 8
5 000</w> 8
4 9 8
4 6 8
8 e</w> 8
6 e</w> 8
3 50</w> 8
W ur 8
W ie 8
W ales</w> 8
W issen</w> 8
W agner</w> 8
7 50</w> 8
É cou 8
Y anni 8
á vez</w> 8
er nen</w> 8
er aient</w> 8
er ai</w> 8
er öff 8
er sta 8
er zäh 8
er forder 8
er scheint</w> 8
en vel 8
en chant 8
en chaîn 8
ch st 8
ch ôm 8
in ette</w> 8
in cul 8
in ien</w> 8
in stru 8
in ho</w> 8
un anim 8
on d</w> 8
on ach</w> 8
on nier</w> 8
is a</w> 8
is eurs</w> 8
ti an</w> 8
ti onne</w> 8
ti ble</w> 8
ei ch 8
ou er</w> 8
ou ement</w> 8
au e</w> 8
au st 8
au quel</w> 8
es sure</w> 8
ar o</w> 8
ar ten</w> 8
ar ro 8
ar tig</w> 8
ar chi 8
tr ont</w> 8
tr and</w> 8
qu ill 8
li v 8
li té</w> 8
li és</w> 8
li ens</w> 8
li ques</w> 8
li ve</w> 8
li gue</w> 8
li mm 8
or b 8
or en 8
or es</w> 8
eu s</w> 8
al entour 8
em o 8
em lich</w> 8
em porter</w> 8
ein steiger</w> 8
si er</w> 8
si tes</w> 8
st ün 8
st opp 8
st äd 8
st euern</w> 8
at - 8
at ter</w> 8
at titude</w> 8
sch o 8
sch ü 8
sch er 8
sch einen</w> 8
sch mer 8
sch enk 8
ag ir</w> 8
ag abend</w> 8
ag nies</w> 8
et tet</w> 8
et c.</w> 8
di ct 8
ri - 8
ri cht</w> 8
ri ef</w> 8
ol et</w> 8
am ie</w> 8
il é</w> 8
il ement</w> 8
ge zw 8
ge wiesen</w> 8
ge dacht</w> 8
ge öffnet</w> 8
re l</w> 8
re z</w> 8
re vers</w> 8
re form</w> 8
re pos</w> 8
re gion 8
ver ges 8
ver gl 8
ver kün 8
ver länger 8
it ur</w> 8
ati k</w> 8
ati n</w> 8
eh mer 8
av an 8
av ent</w> 8
av ant 8
de x 8
de f 8
de z</w> 8
de venue</w> 8
ent am 8
ent steht</w> 8
ent stehen</w> 8
dé ment</w> 8
dé sert</w> 8
us ch</w> 8
us ern</w> 8
pl ans</w> 8
pl af 8
pl ats</w> 8
pl ainte</w> 8
con te</w> 8
con sult 8
mi ert</w> 8
be zahlen</w> 8
be trägt</w> 8
be endet</w> 8
be zahlt</w> 8
be fehl</w> 8
su isse</w> 8
der te</w> 8
der ten</w> 8
ro kr 8
ah re</w> 8
ah me</w> 8
ci o</w> 8
vi erte</w> 8
our s</w> 8
ac as</w> 8
ac ks</w> 8
ré t 8
ré el</w> 8
ré novation</w> 8
ré alise</w> 8
ra c</w> 8
le uni 8
le cteur</w> 8
wi es 8
po t 8
po sera</w> 8
po dium</w> 8
pro por 8
com prend</w> 8
ber g 8
ber ater</w> 8
ain t</w> 8
ain er</w> 8
ain tes</w> 8
ass t</w> 8
im mi 8
im pos 8
ck et</w> 8
Sch ö 8
Sch au 8
Sch re 8
Sch we 8
Sch ätz 8
Sch utz 8
Sch mu 8
St .</w> 8
St off 8
St e- 8
ap porte</w> 8
vo s 8
vo eux</w> 8
aus gesetzt</w> 8
aus geschlossen</w> 8
no tierte</w> 8
onn és</w> 8
ier ende</w> 8
An zei 8
Ver t</w> 8
Ver di</w> 8
Ver sion</w> 8
Ver pflich 8
Ver dacht</w> 8
Ver kaufs 8
ach et 8
ach ats</w> 8
ut eur</w> 8
wer ben</w> 8
op p</w> 8
op pe</w> 8
ist et</w> 8
pi e 8
se - 8
se y</w> 8
se z</w> 8
ad ol 8
ad versaire</w> 8
ad apt 8
lo is 8
lan ts</w> 8
lan gue</w> 8
um in 8
end ar 8
end um</w> 8
tou chés</w> 8
for schung</w> 8
ét end 8
ét age</w> 8
ét oiles</w> 8
all ant</w> 8
all zu</w> 8
ges p 8
ér ée</w> 8
In n 8
bi en 8
ger ettet</w> 8
ess el</w> 8
and t</w> 8
and a</w> 8
and ises</w> 8
mo bile</w> 8
gi er</w> 8
gi ge</w> 8
lu xe</w> 8
min i 8
ss er</w> 8
Re geln</w> 8
Be ob 8
Be ding 8
Be denken</w> 8
Ch aque</w> 8
Ch ávez</w> 8
Pro ven 8
ten en</w> 8
ten ues</w> 8
wir bt</w> 8
gu é</w> 8
gu er</w> 8
gu eu 8
gu ère</w> 8
Un abhängi 8
oh nt</w> 8
déc ouverte</w> 8
déc ret</w> 8
zi gen</w> 8
zi emlich</w> 8
so in</w> 8
sin gue</w> 8
Er ste</w> 8
ün d 8
gl om 8
fi z 8
fi ques</w> 8
fr eut</w> 8
No kia</w> 8
ct ures</w> 8
ak ten</w> 8
geb or 8
geb il 8
geb ung</w> 8
geb ür 8
auf gegeben</w> 8
auf bauen</w> 8
ma ß</w> 8
Al ter</w> 8
En d 8
En semble</w> 8
Ar chi 8
Ar mut</w> 8
entr ation</w> 8
entr ées</w> 8
du - 8
tri o</w> 8
tri ch</w> 8
én aire</w> 8
är m 8
Par c</w> 8
gel aufen</w> 8
19 45</w> 8
19 89</w> 8
19 57</w> 8
hal ie</w> 8
hal be</w> 8
rei ter</w> 8
ven ant</w> 8
dies mal</w> 8
off ene</w> 8
war f</w> 8
war nte</w> 8
él ève</w> 8
bes tr 8
mon at 8
bl é</w> 8
bl essure</w> 8
fin it</w> 8
fin ir</w> 8
fin ales</w> 8
Ber ech 8
Ber ater</w> 8
geh oben</w> 8
str en 8
str eng 8
Qu e</w> 8
vor aus</w> 8
vor her</w> 8
Ein es</w> 8
Ein mal</w> 8
Ein nahmen</w> 8
Ein satz 8
komm enti 8
sol ven 8
sol ange</w> 8
Di ff 8
Di plom 8
aff e</w> 8
Aus wahl</w> 8
Aus nahme 8
Fr em 8
Fr ings</w> 8
ren nen</w> 8
ég al</w> 8
Vor haben</w> 8
Vor stellung</w> 8
parti cipe</w> 8
sp ach</w> 8
sen ken</w> 8
bu l</w> 8
bu ff 8
gew ün 8
gew ähr 8
gew inn</w> 8
cou ver 8
Ro ten</w> 8
Ro ck</w> 8
Ro dri 8
Ro stock</w> 8
dis c 8
dis poser</w> 8
dis cussions</w> 8
poli ti 8
ander es</w> 8
her vor 8
gar derie</w> 8
Ab gel 8
Ab bas</w> 8
Ab wehr 8
th ème</w> 8
zei gten</w> 8
ic an</w> 8
comp agnies</w> 8
über legen</w> 8
über nimmt</w> 8
rem porter</w> 8
gesch äf 8
gesch afft</w> 8
sei te</w> 8
sc ot 8
men te</w> 8
men sch 8
qui ème</w> 8
dar i</w> 8
dar um</w> 8
dar aus</w> 8
dem onstr 8
pass ées</w> 8
pass agers</w> 8
ko t</w> 8
piel er</w> 8
sor ti</w> 8
gro sse</w> 8
oc tro 8
ech ten</w> 8
aur ais</w> 8
pour suiv 8
hä re</w> 8
rich ten</w> 8
Zu ge</w> 8
me di 8
Nach mittag</w> 8
Auf nahmen</w> 8
Auf trag</w> 8
cr u</w> 8
cr ée</w> 8
cr ois</w> 8
cr oire</w> 8
Me is 8
Me tro</w> 8
met tant</w> 8
met tent</w> 8
Bundes republik</w> 8
fran cs</w> 8
fran co- 8
kon stru 8
kon jun 8
kon kret 8
spr achen</w> 8
personn alité</w> 8
lin ken</w> 8
lin ks</w> 8
pp i</w> 8
rou tière</w> 8
og ie</w> 8
For t 8
For mel 8
la c</w> 8
Bo tschaft</w> 8
col ère</w> 8
contr ats</w> 8
contr airement</w> 8
Min es</w> 8
Min der 8
Lu ft</w> 8
Lu cie</w> 8
Sp ä 8
Sp aß</w> 8
-B es 8
mitt elt</w> 8
Kl ass 8
Kin o</w> 8
diff usé</w> 8
produ ktion</w> 8
Sain te</w> 8
Le ague- 8
part y</w> 8
part ner</w> 8
gier en</w> 8
Ger man 8
Ger main</w> 8
Ger stheim</w> 8
tä ts 8
tä glichen</w> 8
Ex trem 8
conn aît</w> 8
art isans</w> 8
mit einander</w> 8
Or te</w> 8
lei der</w> 8
lei den</w> 8
sk y</w> 8
dig it 8
ek om 8
spe kt 8
Bes te</w> 8
rech tzei 8
11 , 8
essi ons</w> 8
essi vement</w> 8
klär en</w> 8
vis ites</w> 8
Uni ons 8
organis ées</w> 8
organis ations</w> 8
wür digen</w> 8
199 3</w> 8
zwei mal</w> 8
cap tiv 8
Europ ame 8
-S precher</w> 8
prof il</w> 8
prof ession</w> 8
cons ist 8
dan ais</w> 8
franç aises</w> 8
trans form 8
trans mis</w> 8
trans ports</w> 8
donn ée</w> 8
déf i</w> 8
déf aut</w> 8
déf avor 8
Um wel 8
letz ter</w> 8
kün digung</w> 8
Untern ehmer</w> 8
woh l 8
az z 8
Ham as</w> 8
Ham ilton</w> 8
jo indre</w> 8
Neu en</w> 8
Neu f-B 8
Man gel</w> 8
cin quième</w> 8
äl ter</w> 8
äl tere</w> 8
Ri o</w> 8
schn ell 8
schn itt</w> 8
déclar ation</w> 8
rap hi 8
Kur den</w> 8
inn en 8
indi ce</w> 8
conf irm 8
conf usion</w> 8
stru cture</w> 8
gri m 8
mor c 8
mal ade</w> 8
Kar din 8
bili tés</w> 8
stitu tion</w> 8
Saint- Jean</w> 8
oul ée</w> 8
jam in</w> 8
star ten</w> 8
zeh n 8
-T e 8
zeu g 8
trai tement</w> 8
mag ie</w> 8
mag asin</w> 8
spiel te</w> 8
spiel ten</w> 8
stat ut</w> 8
US- Präsident</w> 8
olo ge</w> 8
pa trim 8
Land s 8
zahl reichen</w> 8
fa chen</w> 8
Rück en</w> 8
vergan gene</w> 8
internation aux</w> 8
médi athèque</w> 8
Inter ess 8
Fre und</w> 8
Wei ßen</w> 8
hän gen</w> 8
Ren aud</w> 8
améric aines</w> 8
gestell ten</w> 8
Finanz märkten</w> 8
Is land</w> 8
Is lam</w> 8
anti cip 8
doc uments</w> 8
Dies el</w> 8
beh alten</w> 8
Pa are</w> 8
17 , 8
sitz en</w> 8
sitz ender</w> 8
Ni emand</w> 8
réalis ateur</w> 8
habit ation</w> 8
ajou ter</w> 8
ajou tent</w> 8
Nor drhein- 8
ec te</w> 8
polit isches</w> 8
ks am</w> 8
Ur sachen</w> 8
main tien</w> 8
15 , 8
ang s</w> 8
Part eitag</w> 8
ress ources</w> 8
sto ck 8
sto ff</w> 8
rapp eler</w> 8
Schl üssel 8
Si emens</w> 8
coll égi 8
Lou ise</w> 8
déci der</w> 8
Schul en</w> 8
spéci aux</w> 8
occa sions</w> 8
Fern and</w> 8
Fern ando</w> 8
bas k 8
deman des</w> 8
éch ec</w> 8
embl ée</w> 8
Bran d</w> 8
Vertr au 8
Vertr auen</w> 8
frei willi 8
Gew inner</w> 8
zurück kehr 8
Hand y</w> 8
positi v</w> 8
positi ve</w> 8
fu sion</w> 8
wich tiger</w> 8
sé par 8
Dis co 8
bless ures</w> 8
zeich nen</w> 8
constru cteur</w> 8
constru ire</w> 8
Produ kt 8
possi bilités</w> 8
artic le</w> 8
Cou p</w> 8
Komm un 8
Nieder lagen</w> 8
Wal d 8
tent er</w> 8
Rei he</w> 8
intér êts</w> 8
AR D</w> 8
Nat halie</w> 8
Grün en- 8
vill é</w> 8
vill ages</w> 8
Lin ken</w> 8
Lin ke</w> 8
sim il 8
Minister in</w> 8
get eilt</w> 8
Russ en</w> 8
Amer ican</w> 8
Ph ysi 8
Bet ancourt</w> 8
stand s 8
fo ot</w> 8
Bou chard</w> 8
probl em 8
hoh er</w> 8
Bör sen</w> 8
konz erns</w> 8
canadi ens</w> 8
amerikan ischer</w> 8
bat eau</w> 8
Musi que</w> 8
prim aire</w> 8
genann ten</w> 8
Betr ieb</w> 8
Betr offenen</w> 8
Betr eiber</w> 8
princip ale</w> 8
30 .000</w> 8
europé ens</w> 8
europé ennes</w> 8
cé ment</w> 8
Gru ppen</w> 8
élect eurs</w> 8
Sti ftung</w> 8
Rom e</w> 8
rec ettes</w> 8
Schw einsteiger</w> 8
respe cter</w> 8
künf tige</w> 8
voul ons</w> 8
prépar é</w> 8
Bern d</w> 8
arrê té</w> 8
arrê ts</w> 8
Res te</w> 8
Tri colore</w> 8
Lebens mittel</w> 8
entwick lung</w> 8
Verb indung</w> 8
thé orie</w> 8
bénéfi ce</w> 8
wel cher</w> 8
const ate</w> 8
Frei heit</w> 8
Nouv eau</w> 8
Mitarbei tern</w> 8
Mittel feld 8
Haus es</w> 8
alt h</w> 8
plu ie</w> 8
attend ait</w> 8
SPD- Chef</w> 8
Bri g 8
enb auer</w> 8
eigen er</w> 8
schul dig</w> 8
schaff te</w> 8
land ais</w> 8
bestimm te</w> 8
explo sion</w> 8
Gi pfel</w> 8
Verl ust</w> 8
Rek ord</w> 8
chauff age</w> 8
tex tes</w> 8
sap eurs-pompiers</w> 8
Lond oner</w> 8
EI T</w> 8
EU- Kommission</w> 8
Oli ver</w> 8
Hel mut</w> 8
Best and 8
condu it</w> 8
provin ces</w> 8
Universi té</w> 8
droh ten</w> 8
rä umen</w> 8
Dor tm 8
krit isch</w> 8
Partei en</w> 8
article 13 8
Mü ller- 8
Mili tä 8
Kap itän</w> 8
adop tion</w> 8
offici el</w> 8
Lau ren 8
Mot to</w> 8
üch ern</w> 8
Wil son</w> 8
génér ations</w> 8
viol ent</w> 8
acqu is</w> 8
Rau ch 8
Bal i</w> 8
al- Qaïda</w> 8
déb ut 8
déb ats</w> 8
déplac er</w> 8
déplac ements</w> 8
imm el</w> 8
Ermitt lungs 8
gleich zeitig</w> 8
favor able</w> 8
Konkurren z 8
tari fs</w> 8
cra in 8
cra int</w> 8
bâ timents</w> 8
lusi ve</w> 8
crè ches</w> 8
ign or 8
isra el 8
198 4</w> 8
198 7</w> 8
dossi ers</w> 8
Beru fs 8
élec tron 8
äuß erte</w> 8
Itali ener</w> 8
UN - 8
démar che</w> 8
Prin zi 8
techn ologi 8
höh er</w> 8
zü glich</w> 8
Esp agne</w> 8
Gra d</w> 8
Zei tsch 8
âg ée</w> 8
Teil en</w> 8
oubli é</w> 8
prouv e</w> 8
avanc ée</w> 8
iden tifi 8
arri ère- 8
appli quer</w> 8
Ind ustrie 8
Arbeit ge 8
Arbeit geber</w> 8
chois ir</w> 8
rè gl 8
Cu p</w> 8
Dop ing 8
Die go</w> 8
Isra el</w> 8
hé si 8
Aff äre</w> 8
kü mm 8
analy stes</w> 8
intéress é</w> 8
Klima wan 8
Flugzeu ge</w> 8
bre chen</w> 8
DF B- 8
Ter ror</w> 8
Mau ri 8
Koh l</w> 8
Koh len 8
reag iert</w> 8
récu pération</w> 8
assist ante</w> 8
Mod elle</w> 8
téléph on 8
hinter her</w> 8
Tel ekom 8
Tele fon 8
Hir tz 8
Kan ada</w> 8
Zer tifik 8
interpré té</w> 8
dirige ant</w> 8
Asi en</w> 8
chal et</w> 8
livr é</w> 8
Versicher ungs 8
Kont in 8
élev é</w> 8
Dro gen 8
Vier tel 8
Ball ack</w> 8
Öl preis</w> 8
onal d</w> 8
empf eh 8
ref us 8
Peti t</w> 8
disponi bilité</w> 8
Fel d 8
Fel d</w> 8
kin der</w> 8
à- dire</w> 8
Will en</w> 8
steh ende</w> 8
steh enden</w> 8
schö nen</w> 8
absol ument</w> 8
essenti ellement</w> 8
Ern st</w> 8
invit ation</w> 8
dienst leister</w> 8
pakistan aise</w> 8
Ry der</w> 8
Rob in</w> 8
dist in 8
TV A</w> 8
Kör per 8
jur y</w> 8
Nutz er</w> 8
défin i 8
est- à-dire</w> 8
Beam ten</w> 8
ftwar e</w> 8
Flü gel</w> 8
Sur tout</w> 8
mär kte</w> 8
kal ku 8
Wert pap 8
ink lusive</w> 8
verschie denen</w> 8
Reis e 8
évol ution</w> 8
dreh te</w> 8
Juli a</w> 8
électri que</w> 8
électri cité</w> 8
Ärz ten</w> 8
aéri enne</w> 8
Pour quoi</w> 8
Gaz a</w> 8
emar k</w> 8
Schil tigheim</w> 8
temp êtes</w> 8
desc ente</w> 8
consac ré</w> 8
Train ings 8
Syst em</w> 8
Wider stand</w> 8
od eur</w> 8
let tres</w> 8
Wech sel 8
traf e</w> 8
alo gue</w> 8
prest ations</w> 8
immobili er</w> 8
Prot est</w> 8
Prot ok 8
Stru kturen</w> 8
Vict or</w> 8
Gerichts hof</w> 8
Jahrzeh nten</w> 8
faudr ait</w> 8
Cir que</w> 8
Fav re</w> 8
Tot ten 8
optim istisch</w> 8
excell ente</w> 8
commiss aire</w> 8
überzeu gen</w> 8
scol aire</w> 8
fédé rale</w> 8
cant on</w> 8
Att ent 8
Eu ph 8
Mai land</w> 8
four ni 8
chor ég 8
chaîn es</w> 8
einzel ne</w> 8
amour eux</w> 8
proven ant</w> 8
prév ues</w> 8
gesell schaften</w> 8
décé dée</w> 8
Konsu menten</w> 8
mitglie d</w> 8
Brun o</w> 8
kennt nis</w> 8
tchadi en</w> 8
gratu ite</w> 8
gér ant</w> 8
türk ischen</w> 8
Peter son</w> 8
IA A</w> 8
Kamer as</w> 8
instr uments</w> 8
verletz ung</w> 8
supéri eure</w> 8
Ins gesamt</w> 8
Prem ier 8
Prem iere</w> 8
spezi alis 8
verkehr s 8
fémin in</w> 8
Initi ative</w> 8
Brit ney</w> 8
Nei d</w> 8
WM -T 8
Äußer ungen</w> 8
gegrün det</w> 8
Stadi on</w> 8
Stev en</w> 8
Entr ée</w> 8
affron ter</w> 8
auton omie</w> 8
spür bar</w> 8
Gesund heits 8
Million en 8
caract ère</w> 8
cami ons</w> 8
mutmaß lichen</w> 8
beeindruck t</w> 8
demokrat ischen</w> 8
département ale</w> 8
épar gne</w> 8
mein te</w> 8
Ap pl 8
PK K</w> 8
Put ins</w> 8
Metz elder</w> 8
Bier hoff</w> 8
refu se</w> 8
Stür mer</w> 8
étap e</w> 8
document aire</w> 8
Profess or</w> 8
Gä ste</w> 8
Kart ell 8
ilos ophie</w> 8
beding ungen</w> 8
Veranstal ter</w> 8
Franc isc 8
besu chen</w> 8
gewach sen</w> 8
dispu ter</w> 8
sprä sident</w> 8
Brasi li 8
strasbourge ois</w> 8
cen tim 8
bach - 8
Gut achten</w> 8
Ken ya</w> 8
inaug uration</w> 8
limi te</w> 8
consid ère</w> 8
Stär ke</w> 8
Gefüh l</w> 8
gehol t</w> 8
Vorgän ger</w> 8
mém oire</w> 8
Herth a</w> 8
Kooper ation</w> 8
climati que</w> 8
ressor tissants</w> 8
hect ares</w> 8
hori z 8
Cul ture</w> 8
Fé dération</w> 8
käm pft</w> 8
bezeich nete</w> 8
rais onn 8
appl au 8
Versu ch</w> 8
gren ze</w> 8
Revol ution</w> 8
Konsequ enzen</w> 8
Rudol f</w> 8
Mittwoch abend</w> 8
Komprom iss</w> 8
règ les</w> 8
Hypothek en 8
tom ber</w> 8
véc u</w> 8
Sitz ung</w> 8
F. A. 8
Kanz ler 8
juni or</w> 8
Bach el 8
NP D</w> 8
audit oire</w> 8
trent aine</w> 8
eini gt</w> 8
verstär kt</w> 8
usal em</w> 8
migran ts</w> 8
résou dre</w> 8
stellvertret ende</w> 8
Merri ll</w> 8
transf èrement</w> 8
anstalt ungen</w> 8
paroissi ale</w> 8
Anti- Doping- 8
Hollywoo d</w> 8
rass emble</w> 8
Califor nie</w> 8
satelli te</w> 8
Oding a</w> 8
Zar dari</w> 8
omö glich</w> 8
étab lir</w> 8
Nowitz ki</w> 8
Liqui di 8
Schlag zei 8
Wilhel m</w> 8
Panth ers</w> 8
Champions- League- 8
Tiefen see</w> 8
Tschech ien</w> 8
ladi mir</w> 8
Cél ine</w> 8
Ral f</w> 8
Rac ing</w> 8
Rett ungs 8
Dir k</w> 8
Hong kon 8
Ukra ine</w> 8
Écou tez</w> 8
Yanni ck</w> 8
alentour s</w> 8
Schwe den</w> 8
Neuf-B risach</w> 8
Nordrhein- Westfalen</w> 8
Klimawan del</w> 8
p â 7
p en</w> 7
p pi 7
p ur</w> 7
p age</w> 7
p istes</w> 7
p ierre</w> 7
p ôle</w> 7
p ensi 7
r t 7
r ü 7
r in</w> 7
r ur 7
r ent 7
r än 7
r unde</w> 7
r are</w> 7
r änk 7
é sie</w> 7
o p</w> 7
o wski</w> 7
g on 7
g ei 7
g as</w> 7
g ts</w> 7
g ées</w> 7
g liche</w> 7
g agne</w> 7
g keiten</w> 7
g by</w> 7
a ver 7
a dé 7
t an 7
t is 7
t ur</w> 7
t os</w> 7
t ables</w> 7
t licher</w> 7
t émo 7
t eurer</w> 7
i d</w> 7
i dé 7
i Ph 7
i dées</w> 7
v é</w> 7
v as</w> 7
v ois</w> 7
v ég 7
v ils</w> 7
v endre</w> 7
v ague</w> 7
e x</w> 7
e der</w> 7
e wi 7
e ck 7
e aume</w> 7
S M 7
S O 7
S au 7
S tern</w> 7
S oir 7
S ender</w> 7
S CH 7
S ymp 7
c ah 7
c le 7
c ess 7
c ru 7
c athédrale</w> 7
l â 7
l ie</w> 7
l ten</w> 7
l esen</w> 7
h t</w> 7
h ér 7
n y</w> 7
n ischen</w> 7
n arr 7
n er- 7
n üch 7
n ativité</w> 7
m b 7
m y</w> 7
m au 7
m ai 7
m ont</w> 7
m ur</w> 7
m ég 7
m äh 7
m ages</w> 7
m ord</w> 7
m issi 7
m yth 7
C e 7
C er 7
C ent</w> 7
C ur 7
C onn 7
C lo 7
C aire</w> 7
C oll 7
C hab 7
C aisse</w> 7
C artier</w> 7
b - 7
b ab 7
b ör 7
b aine</w> 7
b oire</w> 7
b asse</w> 7
b aum</w> 7
b alles</w> 7
b ahn 7
b aki</w> 7
s ons</w> 7
s lo 7
s avait</w> 7
s ang 7
s unn 7
s perr 7
- I 7
- d'</w> 7
- An 7
- Re 7
- Walter</w> 7
R D 7
R in 7
R eh 7
R est</w> 7
R eb 7
R ak 7
R enn 7
R AF 7
è tent</w> 7
z et</w> 7
z heim</w> 7
D B</w> 7
D av 7
D ra 7
D ann 7
D ER 7
D DR</w> 7
D onald</w> 7
d an</w> 7
d ur</w> 7
d iss 7
d -T 7
F F 7
F ei 7
F es 7
F eu 7
F ut 7
F lan 7
L à</w> 7
L en 7
L et 7
L ach 7
L ob 7
ô ts</w> 7
V ari 7
V oy 7
A di 7
A sie</w> 7
A gence</w> 7
A ckermann</w> 7
E v 7
E l</w> 7
E P</w> 7
E ch 7
E on</w> 7
E glise</w> 7
E cke</w> 7
P E</w> 7
P C</w> 7
P ag 7
P ir 7
P anz 7
P hän 7
P asteur</w> 7
P OU 7
T T</w> 7
T om 7
T enn 7
T ages</w> 7
T sche 7
M S 7
M a</w> 7
M our 7
M eine</w> 7
M uni 7
M aur 7
M ission</w> 7
M édi 7
M acht 7
O T 7
O ran 7
O ui</w> 7
I o 7
I V 7
I B 7
x is</w> 7
G a 7
G h 7
G ei 7
G au 7
G et 7
G ab 7
G ot 7
G lau 7
G anz</w> 7
G alli 7
G ymn 7
G endar 7
f ur</w> 7
f it</w> 7
f asse</w> 7
f anden</w> 7
f irme</w> 7
f aute</w> 7
ä ß</w> 7
ä ssi 7
H är 7
H alle</w> 7
H os 7
k al</w> 7
ï ne</w> 7
9 00</w> 7
0 6 7
X VI 7
X VI</w> 7
w ass 7
w ander 7
w isse</w> 7
w esen</w> 7
w ahn 7
w ay</w> 7
w ächst</w> 7
w onach</w> 7
K ä 7
K ou 7
K rem 7
K unde</w> 7
K reis</w> 7
K LM</w> 7
j etz 7
j azz</w> 7
B D</w> 7
B ein 7
B ak 7
B enf 7
B ier</w> 7
B ay</w> 7
B omb 7
B rési 7
N .</w> 7
N et 7
N ul 7
N ations</w> 7
N ationen</w> 7
N antes</w> 7
N ame</w> 7
N ichts</w> 7
U ef 7
Z it 7
Z iele</w> 7
Z immer 7
Z EIT</w> 7
ü bli 7
ê que</w> 7
1 30</w> 7
1 ere</w> 7
. 30</w> 7
8 000</w> 7
6 6 7
3 9 7
3 4 7
3 7 7
2 2.</w> 7
W ann</w> 7
W agen</w> 7
W ien</w> 7
7 0 7
Y v 7
ë n</w> 7
Ö kon 7
ö pft</w> 7
er es</w> 7
er mann</w> 7
er hält</w> 7
er lebt</w> 7
er lei</w> 7
en i 7
en land</w> 7
en bourg</w> 7
en lèvement</w> 7
ch ement</w> 7
ch ste</w> 7
ch ancen</w> 7
ch âteau</w> 7
an ter</w> 7
an iste</w> 7
an gef 7
an lagen</w> 7
in e- 7
in dem 7
in édi 7
in ess</w> 7
un geh 7
un gew 7
on ais</w> 7
is tre</w> 7
is ations</w> 7
ti tel</w> 7
ti ef 7
ei den</w> 7
ei ls</w> 7
ou n</w> 7
es tr 7
tr in 7
tr enn 7
tr äch 7
tr ente</w> 7
tr omp 7
qu ait</w> 7
qu anti 7
qu artiers</w> 7
li é</w> 7
li gen 7
or ange</w> 7
el o</w> 7
el et</w> 7
el det</w> 7
eu char 7
al om</w> 7
ai d</w> 7
ai mer 7
em porté</w> 7
pr es</w> 7
pr eu 7
pr endra</w> 7
ein gel 7
ein satz</w> 7
ein erseits</w> 7
si ens</w> 7
st ag 7
st ad 7
st ür 7
st isch</w> 7
st ück</w> 7
st abilité</w> 7
sch m 7
sch ale</w> 7
sch ien</w> 7
om bi 7
ag o</w> 7
ag ée</w> 7
ag glom 7
et ts</w> 7
di le</w> 7
di al 7
di ap 7
di enen</w> 7
ri es 7
ri min 7
ri ers</w> 7
ol en</w> 7
am s</w> 7
am m</w> 7
am pl 7
ur a</w> 7
ur gences</w> 7
as h</w> 7
as er</w> 7
ab o 7
ab ou 7
ab geord 7
il y</w> 7
il is 7
ge wer 7
ge eign 7
ge zeigt</w> 7
ge kehrt</w> 7
re j 7
re au</w> 7
re vue</w> 7
re constitu 7
re four</w> 7
re joint</w> 7
re command 7
re dress 7
ver mi 7
ver hei 7
ver geb 7
ver ehr 7
ver dan 7
ver liert</w> 7
ver hält 7
ver folgt</w> 7
ver zö 7
ver folgen</w> 7
ver bandes</w> 7
it as</w> 7
it ure</w> 7
ter - 7
ent issement</w> 7
ent gegen 7
dé tention</w> 7
pl at</w> 7
pl ain</w> 7
pl attform</w> 7
con ver 7
con ci 7
con join 7
con tourn 7
con sul 7
be zahl 7
be finden</w> 7
be findet</w> 7
su elo</w> 7
der e</w> 7
ro t 7
ro s 7
ro vi 7
ro its</w> 7
ah m</w> 7
ci eux</w> 7
ci me 7
ci vils</w> 7
vi end 7
vi ve</w> 7
ac s</w> 7
ac tif</w> 7
ac tive</w> 7
par ts</w> 7
par lam 7
par lement</w> 7
00 .html</w> 7
ré elle</w> 7
ré ment</w> 7
ré comp 7
ré action</w> 7
ra d 7
ra ff 7
ra dic 7
le a 7
le ction</w> 7
le gend 7
wi dri 7
pro m</w> 7
com bien</w> 7
com mis</w> 7
com prom 7
com prendre</w> 7
ber at 7
eur o</w> 7
ass isté</w> 7
im ent</w> 7
gen des</w> 7
ck en 7
Sch aff 7
Sch aden 7
Sch äden</w> 7
St ahl 7
St att</w> 7
St atis 7
St euer</w> 7
St euern</w> 7
vo k 7
aus führ 7
aus gehen</w> 7
aus schließlich</w> 7
aus sitôt</w> 7
no r</w> 7
no ter</w> 7
onn ette</w> 7
ul tr 7
ul time</w> 7
est a</w> 7
An d 7
An drei</w> 7
An gele 7
An stieg</w> 7
An schläge</w> 7
An spruch</w> 7
An streng 7
Ver z 7
Ver lu 7
Ver sor 7
Ver wal 7
Ver gabe</w> 7
Ver gewal 7
Ver fassung</w> 7
ell o</w> 7
ell ung</w> 7
ach i</w> 7
pré mat 7
pré sid 7
ut eurs</w> 7
wer ten</w> 7
wer ks</w> 7
ist ans</w> 7
se el 7
ser e</w> 7
ser geb 7
ad o</w> 7
ad em 7
ad mi 7
ad oration</w> 7
ad resse</w> 7
lo ck 7
lo yer</w> 7
lan gues</w> 7
lan cement</w> 7
um m 7
um ini 7
end roits</w> 7
eb e</w> 7
eb ene</w> 7
eb ack</w> 7
ann uel</w> 7
ann uelle</w> 7
per su 7
per cussions</w> 7
ex t</w> 7
ex port 7
ex traits</w> 7
for ts</w> 7
for derung</w> 7
for cer</w> 7
for scher</w> 7
ét ats</w> 7
all et</w> 7
por te 7
än dert</w> 7
än gerin</w> 7
ges tri 7
ouv rages</w> 7
hab ill 7
hab ili 7
In si 7
In ter</w> 7
In halte</w> 7
In sel</w> 7
ir r 7
ir i</w> 7
pu re</w> 7
ger er</w> 7
ger eicht</w> 7
ger iet</w> 7
ess ais</w> 7
ess ler</w> 7
Au ß 7
tu me</w> 7
mo dern</w> 7
gi gan 7
ru ft</w> 7
min or 7
ss é</w> 7
Re al 7
Re cht 7
Re aktion</w> 7
Re publik</w> 7
Re publikan 7
Be wohner</w> 7
Ch âteau</w> 7
Ch aos</w> 7
Pro test 7
ten ance</w> 7
wir te</w> 7
gu eri 7
gan gs</w> 7
Un ser</w> 7
Un fall</w> 7
Un sicherheit</w> 7
déc oll 7
déc ors</w> 7
zi vil 7
mar quer</w> 7
mar quée</w> 7
so fern</w> 7
Mar ke</w> 7
Mar gueri 7
sin g</w> 7
Er inn 7
Er leb 7
Er mord 7
Er kenntnisse</w> 7
den d</w> 7
den ti 7
den kt</w> 7
gl er</w> 7
fi li 7
fi che</w> 7
ich ter</w> 7
zu kommen</w> 7
zu führen</w> 7
zu gän 7
fr au 7
fr ont</w> 7
No bel 7
ct és</w> 7
ak a</w> 7
ak tien</w> 7
geb rau 7
geb lieben</w> 7
auf trag 7
En tt 7
En suite</w> 7
Ar ab 7
Ar th 7
br ü 7
br in 7
br em 7
br ouill 7
tri om 7
én or 7
ens piel</w> 7
man ie</w> 7
man agement</w> 7
ay ne</w> 7
gel ern 7
19 h</w> 7
Ge gn 7
Ge dul 7
kl einer</w> 7
ation s- 7
do u</w> 7
ven aient</w> 7
war nen</w> 7
bes ie 7
mon ter</w> 7
mon tré 7
bl eue</w> 7
gn é</w> 7
gn ügen</w> 7
Ber trand</w> 7
Qu '</w> 7
Qu een</w> 7
dur es</w> 7
dur fte</w> 7
ör ung</w> 7
vor an 7
vor zei 7
vor gelegt</w> 7
vor geworfen</w> 7
vor bereitet</w> 7
Po ste</w> 7
Po dol 7
sol enn 7
cu le</w> 7
cu eil</w> 7
cor ri 7
Di kt 7
Di enste</w> 7
dr ôle</w> 7
co t</w> 7
co r</w> 7
co opération</w> 7
co ol</w> 7
co ordonn 7
aut oc 7
Aus sagen</w> 7
Aus stellung</w> 7
Aus sicht</w> 7
Aus bildung</w> 7
Fr eu 7
ep unkt</w> 7
Vor feld</w> 7
Vor bereitung</w> 7
Vor sprung</w> 7
fer ont</w> 7
fer rovi 7
sp ont 7
sen timent</w> 7
Pr ess 7
cou rir</w> 7
Ro s 7
dis pos 7
dis pose</w> 7
Kon serv 7
ück s 7
sou tenu</w> 7
sou tenir</w> 7
sou tient</w> 7
alis ées</w> 7
alis ierung</w> 7
cour age</w> 7
cour ses</w> 7
cour rier</w> 7
rit te</w> 7
gar s</w> 7
gar çons</w> 7
pri es</w> 7
Ab d 7
sti l 7
sti gen</w> 7
sti egen</w> 7
inter ne</w> 7
inter vention</w> 7
mer ci</w> 7
comp agne</w> 7
über w 7
rem porte</w> 7
sel ber</w> 7
sel ts 7
sel ben</w> 7
gesch ei 7
gesch äfte</w> 7
gesch rieben</w> 7
gh ts</w> 7
sc ou</w> 7
sc ènes</w> 7
Gr öße</w> 7
men u</w> 7
men tionn 7
Th ur</w> 7
dem ents</w> 7
dem näch 7
führ erin</w> 7
ern st 7
pass ée</w> 7
pass era</w> 7
lä ch 7
dev aient</w> 7
posi tionn 7
posi tiven</w> 7
ech te</w> 7
ech enland</w> 7
publi cité</w> 7
mé ment</w> 7
rich es</w> 7
rich tet</w> 7
Zu vor</w> 7
Zu gang</w> 7
Zu kunfts 7
pf e</w> 7
pf ei 7
wor ten</w> 7
Milli on</w> 7
me d</w> 7
ok ol 7
ig keiten</w> 7
Nach wu 7
Auf stieg</w> 7
Auf trit 7
Auf klärung</w> 7
gem äß</w> 7
gem eldet</w> 7
Me g 7
deutsch land</w> 7
met tra</w> 7
Poli ce</w> 7
ju gé</w> 7
Bundes wehr</w> 7
os se</w> 7
20 20</w> 7
20 .000</w> 7
20 h30</w> 7
gest orben</w> 7
bar es</w> 7
bar yton</w> 7
pon ctu 7
quel ine</w> 7
dre hen</w> 7
équi valent</w> 7
ert a</w> 7
Pl ace</w> 7
For êt</w> 7
deu tet</w> 7
la f</w> 7
la cht</w> 7
anc é</w> 7
Her zen</w> 7
ém ie</w> 7
vol ant</w> 7
vol ks 7
unter scheiden</w> 7
Bo den</w> 7
Bo den 7
conc ert 7
fl û 7
fl éch 7
fl ations 7
ik er</w> 7
Min us</w> 7
Lu kas</w> 7
Lu dwi 7
Li cht</w> 7
tiv al</w> 7
trouv ent</w> 7
bo issons</w> 7
inv ent 7
Mo y 7
Mo de</w> 7
Mo de 7
Mo scou</w> 7
Can al</w> 7
présent es</w> 7
part agé</w> 7
gier ten</w> 7
Ex z 7
Ex plo 7
conn us</w> 7
cré dits</w> 7
bil der</w> 7
int elli 7
bou tique</w> 7
Or ch 7
dig ten</w> 7
dig ungen</w> 7
gef ahr</w> 7
nom in 7
Bes itzer</w> 7
rech tlich</w> 7
11 h</w> 7
vis iter</w> 7
Con tr 7
Con suelo</w> 7
organis ieren</w> 7
Per son</w> 7
uss en</w> 7
199 2</w> 7
zwei t 7
zwei ter</w> 7
zwei fel 7
cap ables</w> 7
pre chen</w> 7
ath on</w> 7
éli min 7
10 .000</w> 7
schein bar</w> 7
prof ité</w> 7
dan ses</w> 7
donn ent</w> 7
seu les</w> 7
Br ut 7
Um welt</w> 7
We is 7
vers ée</w> 7
12 6 7
12 3 7
Untern ehmen 7
woh nen</w> 7
intern en</w> 7
Québe c- 7
Neu wahlen</w> 7
wal pin 7
Jo e</w> 7
Car acas</w> 7
äl lig</w> 7
öß t</w> 7
qua si 7
rel â 7
hist oires</w> 7
Ri b 7
www. spiegel 7
rap ports</w> 7
Kur se</w> 7
Kur s- 7
dom iné</w> 7
conf e 7
conf lits</w> 7
mal adies</w> 7
Kar l</w> 7
ins ist 7
ins besondere</w> 7
Frank -Walter</w> 7
visi blement</w> 7
prom in 7
prom esses</w> 7
18 h</w> 7
eng ouement</w> 7
associ é</w> 7
Ma x</w> 7
Ma x 7
char d-T 7
annon cée</w> 7
Unter hal 7
cont este</w> 7
Jean- Louis</w> 7
Jean- Paul</w> 7
sal on</w> 7
zeu gen</w> 7
Ben jamin</w> 7
trai te</w> 7
trai té</w> 7
trai tements</w> 7
stat istiques</w> 7
US- Dollar</w> 7
pouv oirs</w> 7
To de</w> 7
To ten</w> 7
inst aur 7
olo gues</w> 7
Land tag</w> 7
Wer k 7
Se cours</w> 7
Rück gang</w> 7
loc ation</w> 7
arm ées</w> 7
médi cale</w> 7
Mi gran 7
Et wa</w> 7
fai m</w> 7
sta aten</w> 7
Fl yers</w> 7
Bhut tos</w> 7
stei gerung</w> 7
errei chte</w> 7
pul sion</w> 7
Ren dite</w> 7
isti e</w> 7
Stu dien 7
gestell te</w> 7
aiss ent</w> 7
14 h</w> 7
anti - 7
sich ten</w> 7
sich ern</w> 7
expli cation</w> 7
Char est</w> 7
Char lotte</w> 7
priv aten</w> 7
bek am</w> 7
hand eln</w> 7
beh andelt</w> 7
oph one</w> 7
Hei mat 7
Hei ligen 7
Ni ce</w> 7
arb eits 7
lib éré</w> 7
vertr eten</w> 7
vertr eter</w> 7
spä t</w> 7
spä ten</w> 7
Com p 7
Com eback</w> 7
Tor hüter</w> 7
fest gestellt</w> 7
fest gelegt</w> 7
Bi o 7
polit ischer</w> 7
Im age</w> 7
import ants</w> 7
Jac queline</w> 7
Konz erne</w> 7
dest iné</w> 7
dest ination</w> 7
dest inés</w> 7
15 18, 7
Rich tlin 7
esp agno 7
Dar über</w> 7
Fahr zeug</w> 7
-M et 7
Milliar den 7
ép ou 7
bri cht</w> 7
Ru he</w> 7
sign ée</w> 7
gegen sei 7
Schl üssel</w> 7
coll ision</w> 7
Bl air</w> 7
Bau m 7
spéci ale</w> 7
spéci alisée</w> 7
issi ons 7
entraîn eurs</w> 7
économ iques</w> 7
bas es</w> 7
0, 1518, 7
Bür o</w> 7
rat é</w> 7
nation alen</w> 7
Op en</w> 7
Bran chen 7
Vertr ags 7
frei en</w> 7
inscri ts</w> 7
grün den</w> 7
Strei fen</w> 7
positi fs</w> 7
Sonn en 7
versu chten</w> 7
gemein schaft</w> 7
Den ise</w> 7
Den nis</w> 7
différ ent</w> 7
Du is 7
Du ell</w> 7
bewer tet</w> 7
wich tigsten</w> 7
Bus h 7
cht ungen</w> 7
bless ées</w> 7
Pf ei 7
ung se 7
Produ kt</w> 7
to p</w> 7
hum aine</w> 7
meill eures</w> 7
Nieder sach 7
compl ément 7
expl os 7
Fil me</w> 7
schließ t</w> 7
ambi ti 7
Cl em 7
wär ts 7
représent ent</w> 7
Führ er</w> 7
invest i</w> 7
Sk i 7
Sk i</w> 7
3, 5</w> 7
3, 1</w> 7
Vo gel 7
Bet h 7
Bou chard-T 7
répon d</w> 7
journ ées</w> 7
besonder en</w> 7
bew ahr 7
comb att 7
Ass ist 7
Bör si 7
konz erne</w> 7
mel den</w> 7
ussi a</w> 7
princip ales</w> 7
diri ger</w> 7
Ad ol 7
anst ehenden</w> 7
Sti lle</w> 7
spi ritu 7
rec ru 7
Invest or</w> 7
lauf enden</w> 7
prépar e</w> 7
prépar ation</w> 7
Spr ache</w> 7
lé gende</w> 7
Clau dine</w> 7
Tri b 7
Wor t 7
confi er</w> 7
Schi ff</w> 7
26 .</w> 7
schri ften</w> 7
candi dat 7
Verein igung</w> 7
extr em</w> 7
extr ême</w> 7
laiss ent</w> 7
Sh anghai</w> 7
Sh arif</w> 7
On line</w> 7
Beh and 7
retrai tes</w> 7
ausge gangen</w> 7
Mittel feld</w> 7
Mittel punkt</w> 7
fes ter</w> 7
Kir ch</w> 7
28 .08.2007</w> 7
Win d</w> 7
condi tion</w> 7
attend us</w> 7
attend ues</w> 7
occu per</w> 7
techni k</w> 7
entschei det</w> 7
sym path 7
Sor gen</w> 7
Mut ter 7
Gi uli 7
Bor ussia</w> 7
Bru der</w> 7
souff le</w> 7
Bundeslig a- 7
bru it</w> 7
Val érie</w> 7
Ann a</w> 7
Verl uste</w> 7
wieder um</w> 7
Trans rapi 7
sap ins</w> 7
doi gts</w> 7
acci dents</w> 7
enseign ement</w> 7
Universi täten</w> 7
Terror an 7
passi eren</w> 7
cop ains</w> 7
Jus tice</w> 7
ben ö 7
Dan k</w> 7
Ob enheim</w> 7
Höh epunkt</w> 7
Kom pon 7
alli és</w> 7
lev ée</w> 7
perman ent</w> 7
Ki baki</w> 7
permet tent</w> 7
196 6</w> 7
offici els</w> 7
drück t</w> 7
gefähr det</w> 7
particuli ers</w> 7
rend us</w> 7
rend ements</w> 7
gra d 7
véri té</w> 7
Frie den</w> 7
fabri c 7
Dé part</w> 7
Bour g 7
ersch ossen</w> 7
lieb t</w> 7
schütz er</w> 7
acqu érir</w> 7
montr ent</w> 7
souhai ter</w> 7
Person en 7
Rau b 7
dau ern</w> 7
Ak tu 7
kom pli 7
chap elet</w> 7
install é</w> 7
install ée</w> 7
install ations</w> 7
mou d</w> 7
grav e</w> 7
grav es</w> 7
Leist ungs 7
Somm er 7
mäß igen</w> 7
fra î 7
23 .</w> 7
23 .09.2007</w> 7
pren ait</w> 7
Beru f</w> 7
hil fen</w> 7
Tex te</w> 7
Hor n</w> 7
Prin z</w> 7
chiff res</w> 7
négoci ation</w> 7
né er 7
Fir men 7
fac ture</w> 7
progr ès</w> 7
Regi onen</w> 7
Regi onal 7
investi eren</w> 7
tribun aux</w> 7
zentr ale</w> 7
Teil nehmer</w> 7
Gri ff</w> 7
Gri echenland</w> 7
schi cken</w> 7
verst anden</w> 7
rév èle</w> 7
erfolgrei chen</w> 7
cer tifi 7
Feh l 7
avoc ats</w> 7
Andre w</w> 7
Ind ustri 7
Chi p 7
Chi rac</w> 7
financ er</w> 7
Arbeit nehmer</w> 7
Halb jahr</w> 7
Halb finale</w> 7
évo que</w> 7
Sach sen 7
Lö wen</w> 7
Tab ell 7
Tie f 7
Tie fe</w> 7
fê tera</w> 7
25 .</w> 7
conserv ateurs</w> 7
grand- mère</w> 7
bénéfici aires</w> 7
Dre h 7
Lab eaume</w> 7
blioth èques</w> 7
fédér ations</w> 7
Flugzeu g 7
Flugzeu g</w> 7
Dr .</w> 7
erzi elt</w> 7
inqui ète</w> 7
schätz en</w> 7
verhin dert</w> 7
profi te</w> 7
Ste ve</w> 7
vois ins</w> 7
grat uit</w> 7
fris tige</w> 7
bestä tigen</w> 7
Beteilig ten</w> 7
Gemein schaft</w> 7
Gemein schafts 7
Süd kore 7
spor tive</w> 7
Tel ef 7
Tele kommunik 7
stab il</w> 7
imag in 7
imag inaire</w> 7
rencontr é</w> 7
ähn lichen</w> 7
Jahres ende</w> 7
démocr atique</w> 7
chines ischen</w> 7
festiv ités</w> 7
célébr er</w> 7
massi f</w> 7
Asi f</w> 7
Ton i</w> 7
chal eur</w> 7
trit ts 7
regar der</w> 7
entsprech enden</w> 7
post - 7
sozi ale</w> 7
persön liche</w> 7
élev ée</w> 7
équip és</w> 7
israéli ens</w> 7
Cam sa</w> 7
séri eux</w> 7
séri eusement</w> 7
Fo otball</w> 7
empf angen</w> 7
régl ement 7
Kontr oll 7
erhöh t</w> 7
pein ture</w> 7
Sand ra</w> 7
Seit her</w> 7
Stim men</w> 7
cot isation</w> 7
Roh an</w> 7
Büh nen 7
audi ence</w> 7
Cham bre</w> 7
Cham plain</w> 7
akzep tieren</w> 7
remar que</w> 7
effic ace</w> 7
Span ier</w> 7
ologi ques</w> 7
Demok raten</w> 7
pakistan ais</w> 7
AC H</w> 7
prol ong 7
verlan gen</w> 7
attein te</w> 7
Flü cht 7
pil ote</w> 7
les quelles</w> 7
meur tre</w> 7
Ci ti 7
Ci tro 7
Ehr en 7
Pil ot</w> 7
Plan eten</w> 7
west lichen</w> 7
Zin ssenk 7
leist ungen</w> 7
loss ene</w> 7
Grou pe</w> 7
dreh t</w> 7
Flugh af 7
supplément aire</w> 7
Gaz prom</w> 7
performan ces</w> 7
Konjun ktur 7
garanti e</w> 7
garanti ert</w> 7
Masch ine</w> 7
circonst ance</w> 7
réguli ère</w> 7
glob al</w> 7
glob ale</w> 7
FI P</w> 7
Mah moud</w> 7
traf ic</w> 7
préf et</w> 7
préf ère</w> 7
umstrit tenen</w> 7
Erd be 7
dispar ition</w> 7
bisher ige</w> 7
Jahrzeh nte</w> 7
empê cher</w> 7
individu el</w> 7
héro ïne</w> 7
bür ger 7
réussi r</w> 7
Verantwor tlichen</w> 7
Arbei ter</w> 7
Frau en 7
Konfli kt</w> 7
behaup tet</w> 7
betrei ber</w> 7
automobil iste</w> 7
batt u</w> 7
Ra walpin 7
Hot el</w> 7
Zum indest</w> 7
übri gen</w> 7
référ ence</w> 7
décé dé</w> 7
fid èle</w> 7
Rober ts 7
mitglie der</w> 7
musul mane</w> 7
musul mans</w> 7
Skand al</w> 7
För der 7
För derung</w> 7
Mex ique</w> 7
stä tten</w> 7
ator in</w> 7
conç u</w> 7
gehö rigen</w> 7
Auseinander setzung</w> 7
Freund in</w> 7
human itaire</w> 7
stärk sten</w> 7
norm ale</w> 7
tss piel</w> 7
lass ung</w> 7
hef tige</w> 7
02 .10.2007</w> 7
Verletz ung</w> 7
Alli anz</w> 7
finanzi ell</w> 7
compens és</w> 7
just ement</w> 7
conclu t</w> 7
caract ér 7
CDU- Politiker</w> 7
mutmaß liche</w> 7
suffis amment</w> 7
révél é</w> 7
Jér ôme</w> 7
Gil bert</w> 7
Kau der</w> 7
But ter</w> 7
correspon dant</w> 7
attach é</w> 7
damali gen</w> 7
damali ge</w> 7
konfli kt</w> 7
Amts zeit</w> 7
conseill ers</w> 7
rappel é</w> 7
Schluss mann</w> 7
Paul i</w> 7
Demonstr anten</w> 7
berühm ten</w> 7
rall ye</w> 7
édu c 7
Lap ierre</w> 7
Visi te</w> 7
Tch ad</w> 7
flä che</w> 7
ja une</w> 7
joy eux</w> 7
UE FA 7
You Tube</w> 7
erlit ten</w> 7
intro duction</w> 7
verfü gen</w> 7
proz ess</w> 7
Verdäch tigen</w> 7
ruhi g</w> 7
Religi on</w> 7
masch ine</w> 7
Alg érie</w> 7
Arch ite 7
locat aires</w> 7
intensi v</w> 7
Frieden s 7
convivi alité</w> 7
Sylv ain</w> 7
consécuti ve</w> 7
ox y 7
zerst ört</w> 7
Gün ther</w> 7
wäh len</w> 7
Zü ge</w> 7
troph ée</w> 7
stamm t</w> 7
grab en</w> 7
Bege gnung</w> 7
France- KLM</w> 7
physi que</w> 7
classi que</w> 7
Gerä te</w> 7
Ord nung</w> 7
Soli dar 7
promo tion</w> 7
Pakistan ais</w> 7
recev oir</w> 7
symbo le</w> 7
Anne- Marie</w> 7
vainqu eur</w> 7
kontrol liert</w> 7
potenti el</w> 7
McLaren- Mercedes</w> 7
sélectionn é</w> 7
pronon cé</w> 7
Sc ott</w> 7
näh er</w> 7
Céci le</w> 7
Ling olsheim</w> 7
fir men</w> 7
chré tiens</w> 7
inci dent</w> 7
vice- président</w> 7
secr et</w> 7
Ungl ück</w> 7
Entre tiens</w> 7
bron n</w> 7
rempli r</w> 7
matern elle</w> 7
konserv ative</w> 7
afrikan ischen</w> 7
ear ch</w> 7
cre dis</w> 7
nett ement</w> 7
CG T</w> 7
soi rées</w> 7
Rég is</w> 7
Ama zon</w> 7
Tei le</w> 7
Gleich zeitig</w> 7
Hunder te</w> 7
09 .10.2007</w> 7
incroy able</w> 7
elek tron 7
atmosp hère</w> 7
dio xi 7
résiden ce</w> 7
gesich ert</w> 7
week- end</w> 7
décisi ons</w> 7
remon ter</w> 7
scul p 7
magistr at</w> 7
Links partei</w> 7
Ouver ture</w> 7
Kabin ett</w> 7
begeister t</w> 7
Geburt stag</w> 7
Smit h</w> 7
Cott bus</w> 7
Istan bul</w> 7
Gö tt 7
Kön nen</w> 7
anon y 7
die jenigen</w> 7
consen sus</w> 7
contempor ain</w> 7
sopr ano</w> 7
geleg ten</w> 7
Aufschw ung</w> 7
Ely sée</w> 7
Kreu z 7
Präsid ent 7
griech ischen</w> 7
-Tra iner</w> 7
Betreu ungs 7
Ontari o</w> 7
Madel eine</w> 7
Spitzenk andi 7
häufi ger</w> 7
héber gement</w> 7
concurr ents</w> 7
hebdom adaire</w> 7
hospitali er</w> 7
Mehdor n</w> 7
ursprün glich</w> 7
pit aux</w> 7
pét ards</w> 7
Déch etterie</w> 7
Vatten fall</w> 7
EZ B</w> 7
Ehe frau</w> 7
EAD S</w> 7
Tin to</w> 7
Hill ary</w> 7
Nanc y</w> 7
gezw ungen</w> 7
plaf ond</w> 7
Verpflich tung</w> 7
pie ds</w> 7
adapt ation</w> 7
Frem d 7
buff et</w> 7
rechtzei tig</w> 7
Totten ham</w> 7
Francisc o</w> 7
centim ètres</w> 7
Schlagzei len</w> 7
témo in</w> 7
iPh one</w> 7
vég ét 7
Soir ée</w> 7
Phän omen</w> 7
Margueri te</w> 7
Erinn erung</w> 7
zugän glich</w> 7
Entt äu 7
Arth ur</w> 7
Podol ski</w> 7
demnäch st</w> 7
www.spiegel .de</w> 7
Bouchard-T aylor</w> 7
Rawalpin di</w> 7
p y 6
p av 6
p el</w> 6
p ast 6
r ation</w> 6
r olle</w> 6
r omp 6
r hein 6
r entrer</w> 6
r ails</w> 6
é ter</w> 6
é gl 6
é ens</w> 6
é tern 6
é tions</w> 6
é ché</w> 6
o c</w> 6
o ie</w> 6
o des</w> 6
o gen</w> 6
o ter</w> 6
o eil</w> 6
o ftware</w> 6
g h</w> 6
g ê 6
g in</w> 6
g lo 6
g ins</w> 6
g ko 6
g ène</w> 6
g érer</w> 6
g raphique</w> 6
g âteaux</w> 6
a x</w> 6
a p</w> 6
a ci 6
t op 6
t oir</w> 6
t her 6
t êtes</w> 6
i qu 6
i tre</w> 6
i enne</w> 6
v t</w> 6
v ollen</w> 6
e -</w> 6
e den</w> 6
e be 6
e zu</w> 6
e ck</w> 6
e cti 6
e z-vous</w> 6
S t</w> 6
S z 6
S ap 6
S af 6
S ehr</w> 6
S mar 6
S ens 6
S hin 6
S yn 6
S auv 6
S atur 6
S atelli 6
S ophie</w> 6
u se</w> 6
u té</w> 6
u al</w> 6
u tionn 6
c ur 6
c oh 6
c able</w> 6
c ales</w> 6
c era</w> 6
l em 6
l et</w> 6
l ais 6
l ager</w> 6
l eitung</w> 6
l isheim</w> 6
l alom</w> 6
h is 6
h et 6
h ir 6
h art 6
n a</w> 6
n o</w> 6
n de</w> 6
n ac 6
n ers</w> 6
n ische</w> 6
n oire</w> 6
n erin</w> 6
J a 6
J ag 6
J ungen</w> 6
J ör 6
J ohn 6
J ung 6
m s 6
m y 6
m ol 6
m am 6
m ac 6
m aux</w> 6
m ischen</w> 6
m and</w> 6
m ak 6
m men</w> 6
m mer 6
m agn 6
C H</w> 6
C ab 6
C af 6
C elle</w> 6
C ru 6
C ant 6
C astr 6
C US</w> 6
C annes</w> 6
b i</w> 6
b û 6
b eu 6
b ag 6
b ans</w> 6
b lich</w> 6
b one</w> 6
b éb 6
b ombe</w> 6
b assin</w> 6
s un 6
s ar 6
s éc 6
s ay 6
s ors</w> 6
s auer</w> 6
s äm 6
s burg</w> 6
s élections</w> 6
s dorf</w> 6
- ce</w> 6
- là</w> 6
R S 6
R E</w> 6
R D</w> 6
R et 6
R ent 6
R ien</w> 6
R ang</w> 6
R ath 6
R ennes</w> 6
R ande</w> 6
R onal 6
R AT 6
R ainer</w> 6
è ves</w> 6
è ler 6
è lement</w> 6
z o</w> 6
z ün 6
z osen</w> 6
D I</w> 6
D T 6
D I 6
D G 6
D on</w> 6
D ist 6
D än 6
D os 6
D IE 6
D auer</w> 6
D ele 6
D ram 6
y é</w> 6
y o</w> 6
y k 6
y te</w> 6
y ens</w> 6
d ait</w> 6
d ot 6
d man</w> 6
d licher</w> 6
F 1</w> 6
F it 6
F ell 6
F ok 6
F ig 6
F eu</w> 6
F ond 6
F ahn 6
F ed</w> 6
L .</w> 6
L eu 6
L em 6
L eurs</w> 6
L ex 6
L emi 6
L ama</w> 6
V it 6
V ati 6
V oi 6
î les</w> 6
î ner</w> 6
A y 6
A x 6
A b</w> 6
A j 6
A re 6
A ni 6
A gr 6
A bi 6
A gn 6
E g 6
E P 6
E k 6
E L</w> 6
E U 6
E IN 6
E .-</w> 6
E DF</w> 6
P ai 6
P ay 6
P fer 6
P ic 6
P eu</w> 6
P ause</w> 6
P elle 6
T ak 6
T ay 6
T yp 6
M K 6
M ise</w> 6
M én 6
M ais 6
M isch 6
M auer</w> 6
M att</w> 6
O E 6
O x 6
O .</w> 6
O L</w> 6
O u</w> 6
O st</w> 6
O ER 6
O dile</w> 6
I e</w> 6
I f 6
I G</w> 6
I mm 6
I mag 6
I hren</w> 6
G M</w> 6
G all 6
G anz 6
G illes</w> 6
G ore</w> 6
G mb 6
f ein 6
f ati 6
f us</w> 6
f aus 6
f t- 6
f ou</w> 6
f unden</w> 6
f liegt</w> 6
f angen</w> 6
ä ä 6
H ag 6
H ut 6
H ör 6
H ans 6
H ed 6
H immel</w> 6
k h</w> 6
k it 6
k us</w> 6
k einem</w> 6
k üh 6
k anzler</w> 6
ï c</w> 6
0 . 6
0 3 6
w ö 6
w in</w> 6
w inter 6
w ahren</w> 6
w ett 6
w ahr</w> 6
w ater</w> 6
w affe</w> 6
K f 6
K oi 6
K le 6
K im</w> 6
K oll 6
K ahn</w> 6
K ampagne</w> 6
K ader</w> 6
K ürz 6
K alifor 6
j em 6
B A 6
B ä 6
B N 6
B on</w> 6
B eu 6
B om 6
B eine</w> 6
B ach</w> 6
B elle</w> 6
B enn 6
B ord 6
B onne</w> 6
B la 6
B aum</w> 6
B SC</w> 6
B ritanni 6
B CE</w> 6
B jör 6
N a</w> 6
N ur 6
N ap 6
N ich 6
N ett 6
N athan</w> 6
N BA</w> 6
N ativité</w> 6
U ll 6
Z or 6
Z ehn 6
ê tres</w> 6
5 5 6
5 8. 6
4 4 6
. 3 6
8 9 6
3 3 6
2 40</w> 6
2 3, 6
2 7.</w> 6
W a 6
W o</w> 6
W an 6
W ul 6
W ill</w> 6
W ihr</w> 6
W ahlen</w> 6
W affen</w> 6
W etter</w> 6
7 - 6
Y u 6
Y en</w> 6
Ä ra</w> 6
er ische</w> 6
er ende</w> 6
er hielten</w> 6
er füllen</w> 6
en é</w> 6
en du</w> 6
en ger</w> 6
en sion</w> 6
en voi</w> 6
ch - 6
ch el 6
ch et</w> 6
ch ir 6
ch ère</w> 6
ch tes</w> 6
ch ette</w> 6
ch ens</w> 6
ch ées</w> 6
ch mal</w> 6
ch anc 6
an y 6
an ou 6
an gaben</w> 6
an teil</w> 6
an genommen</w> 6
an geschlagen</w> 6
an schauen</w> 6
an schließend</w> 6
in ter</w> 6
in ens 6
in ond 6
in titul 6
un ge 6
un gn 6
un fall</w> 6
on y</w> 6
on ten</w> 6
on line</w> 6
is h</w> 6
is cht</w> 6
is col 6
is tik</w> 6
is ierung</w> 6
ti c 6
ti tr 6
ti ko 6
ti kel</w> 6
au tique</w> 6
au ßen 6
au tre 6
es pé 6
es cri 6
ar de</w> 6
ar et</w> 6
ar ts</w> 6
ar ot 6
ar gent 6
tr om 6
tr ine</w> 6
tr ep 6
tr ek 6
tr agt</w> 6
tr ags 6
tr afen</w> 6
qu e- 6
qu ête</w> 6
or in</w> 6
or ten</w> 6
el lig 6
eu en</w> 6
al our 6
al le 6
al ist</w> 6
al tung</w> 6
em m 6
em it 6
pr ak 6
pr êtes</w> 6
pr imes</w> 6
ein f 6
ein nahmen</w> 6
ein mali 6
si ed 6
si ehe</w> 6
si gkeit</w> 6
st or 6
st um 6
st wei 6
st ers</w> 6
st sein</w> 6
st ags 6
st elli 6
st ücke</w> 6
sch au 6
sch us 6
sch aut</w> 6
sch rau 6
sch limm 6
om an</w> 6
om ka</w> 6
ag gr 6
ag ements</w> 6
di ch</w> 6
di ver 6
di vi 6
di t-elle</w> 6
ri t</w> 6
ol s</w> 6
am o 6
am or 6
am end 6
ur gent 6
as en</w> 6
as ie</w> 6
ab st 6
ab ges 6
ab sur 6
ab ri</w> 6
il o</w> 6
ge p 6
ge is 6
ge ait</w> 6
ge hei 6
ge geb 6
ge kl 6
ge heim</w> 6
ge prä 6
ge kostet</w> 6
ge prüft</w> 6
ge äußert</w> 6
re prend</w> 6
re garde</w> 6
re portée</w> 6
re trait</w> 6
re joindre</w> 6
ver a</w> 6
ver y</w> 6
ver ts</w> 6
ver letzten</w> 6
ver haf 6
ver bringen</w> 6
ver mei 6
ver lieren</w> 6
eh m</w> 6
eh re</w> 6
eh me</w> 6
eh ren 6
oi vent</w> 6
oi gne</w> 6
ter er</w> 6
ter ri 6
ter ten</w> 6
ter ung</w> 6
ter res</w> 6
de le</w> 6
ent i</w> 6
ent al</w> 6
ent ale</w> 6
ent ures</w> 6
ent weder</w> 6
dé l 6
dé ç 6
dé li 6
dé fi 6
dé fer 6
dé pass 6
dé bou 6
dé lég 6
dé tenu</w> 6
dé lé 6
dé buts</w> 6
dé pit</w> 6
pl on 6
con vo 6
con tes</w> 6
con fon 6
con vient</w> 6
con version</w> 6
con serve</w> 6
con grès</w> 6
mi ques</w> 6
mi ères</w> 6
mi lieux</w> 6
be am 6
be fr 6
be ck</w> 6
su bi 6
su per</w> 6
su ites</w> 6
su gg 6
der - 6
der a</w> 6
ro t</w> 6
ro te</w> 6
ci pl 6
ci per 6
ci ble</w> 6
vi es</w> 6
vi de</w> 6
vi eil</w> 6
vi eler</w> 6
ac le</w> 6
ac cou 6
fü llt</w> 6
par k</w> 6
par f 6
par vient</w> 6
par faite</w> 6
par aissent</w> 6
ré fu 6
ré puté</w> 6
ré actions</w> 6
ré serve</w> 6
ré solution</w> 6
ré fléch 6
ra i</w> 6
ra jou 6
le y 6
le gern</w> 6
le gten</w> 6
ran che</w> 6
ran tes</w> 6
pro positions</w> 6
pro posera</w> 6
com édi 6
ber ück 6
ber gers</w> 6
eur en</w> 6
ass é</w> 6
ass ung</w> 6
ass aut</w> 6
im prim 6
gen s 6
gen omm 6
gen heiten</w> 6
Sch er 6
Sch loss 6
St ation</w> 6
St ütz 6
St unden 6
ap er 6
ap prouvé</w> 6
aus geh 6
aus län 6
aus gerechnet</w> 6
aus drücklich</w> 6
aus verkauften</w> 6
no tes</w> 6
ul en</w> 6
est ation</w> 6
est inien</w> 6
ier n</w> 6
ier ungen</w> 6
ier enden</w> 6
An th 6
An schl 6
An träge</w> 6
An wohner</w> 6
An wäl 6
An kündigung</w> 6
Ver mitt 6
Ver mö 6
Ver stän 6
Ver leger</w> 6
Ver träge</w> 6
Ver bot</w> 6
Ver öffentlich 6
Ver kehr</w> 6
ell ent</w> 6
ach a</w> 6
ach em 6
ach eté</w> 6
op tion</w> 6
op tions</w> 6
op posé</w> 6
gr enz 6
ist en 6
ist enz</w> 6
pi er</w> 6
pi ele</w> 6
pi rat 6
pi aniste</w> 6
se c</w> 6
se aux</w> 6
se cour 6
ser ves</w> 6
ad eur</w> 6
lo cu 6
lo ver</w> 6
lo ok</w> 6
lan z 6
lan des</w> 6
lan da 6
lan ges</w> 6
lan des 6
um ente</w> 6
um gekehrt</w> 6
end orf</w> 6
per ç 6
per re</w> 6
ex on 6
ex am 6
ex il</w> 6
ex pos 6
ex ig 6
ex act 6
for cément</w> 6
ét aire</w> 6
all é</w> 6
all um 6
all age</w> 6
all enfalls</w> 6
all enge</w> 6
än z 6
än ge</w> 6
wei ßen</w> 6
wei ße</w> 6
ges te</w> 6
ges eh 6
iss i</w> 6
iss ar</w> 6
hab t</w> 6
hab ite</w> 6
In str 6
In sel 6
In don 6
In formation</w> 6
In frastru 6
In solven 6
ir ont</w> 6
ir mer</w> 6
bi g</w> 6
bi z 6
bi bliothèques</w> 6
ger a</w> 6
ger in 6
ger inger</w> 6
ger ade 6
Au st 6
Au tri 6
tu gi 6
mo s</w> 6
mo des</w> 6
mo di 6
mo indre</w> 6
gi ger</w> 6
ru f</w> 6
ru hen</w> 6
emb ar 6
lu b</w> 6
ss a</w> 6
ss precher</w> 6
Re d</w> 6
Re vision</w> 6
Re formen</w> 6
Be we 6
Be kenntnis</w> 6
Ch â 6
Ch il 6
Pro che- 6
ten de</w> 6
ten sion</w> 6
wir t</w> 6
gu i 6
gu em 6
Un sere</w> 6
oh l 6
déc or</w> 6
déc oration</w> 6
ih ad</w> 6
mar ken</w> 6
so i</w> 6
so eurs</w> 6
so for 6
Mar tine</w> 6
Mar kov</w> 6
Mar moutier</w> 6
sin on</w> 6
sin nig</w> 6
Er do 6
Er öff 6
Er füll 6
gl ad 6
te am</w> 6
ungs -</w> 6
zu ver 6
zu legen</w> 6
zu stellen</w> 6
fr em 6
No s</w> 6
No ti 6
ak ul 6
geb unden</w> 6
auf geb 6
auf tau 6
Al tern 6
En gel 6
Ar m</w> 6
Ar me</w> 6
Ar gent 6
Ar tikel</w> 6
ob s</w> 6
ob us</w> 6
br us 6
br eit</w> 6
du quel</w> 6
éc rou 6
éc ologique</w> 6
ens wert</w> 6
man qué</w> 6
man quer</w> 6
man quent</w> 6
är kt</w> 6
Par ce</w> 6
tz en</w> 6
tz er</w> 6
Fran zosen</w> 6
gel der</w> 6
gel ang</w> 6
gel egen</w> 6
19 88</w> 6
19 27</w> 6
19 42</w> 6
19 72</w> 6
19 53</w> 6
19 77</w> 6
hal b 6
hal l</w> 6
hal le</w> 6
Ge fahren</w> 6
kl asse</w> 6
kl ingen</w> 6
kl are</w> 6
rei chte</w> 6
war d</w> 6
comm ent 6
comm ente</w> 6
bes etzt</w> 6
bl ä 6
gn is 6
wen de</w> 6
wen ig 6
fin g</w> 6
Ber t 6
Ber ichten</w> 6
bli othe 6
str eit</w> 6
str engen</w> 6
Qu oi</w> 6
dur er</w> 6
vor her 6
vor sor 6
Ein tr 6
Ein komm 6
Ein heit</w> 6
Ein wohner</w> 6
Ein kaufs 6
Po cher</w> 6
Po kal 6
komm ende</w> 6
sol o</w> 6
sol dat</w> 6
cu ivre</w> 6
Di eb 6
Di ck</w> 6
Di dier</w> 6
dr an</w> 6
co de</w> 6
co te</w> 6
co les</w> 6
co in</w> 6
co eurs</w> 6
aff ai 6
aut h 6
Aus nahmen</w> 6
Aus nahme</w> 6
Aus bildungs 6
Aus lands 6
Aus wertung</w> 6
Fr ont</w> 6
e- forme</w> 6
e- t-elle</w> 6
ren voy 6
ég yp 6
Vor ur 6
Vor stoß</w> 6
parti ciper 6
sp ann 6
sen tir</w> 6
Pr es 6
cou le</w> 6
Ro te</w> 6
Ro sen 6
dis que</w> 6
dis ant</w> 6
dis cipl 6
Kon to</w> 6
Kon stru 6
ück t</w> 6
sou p 6
sou viens</w> 6
derni èrement</w> 6
cher ung</w> 6
uni es</w> 6
[...]
