. 8623
, 8299
der 4613
die 4330
" 3818
und 2895
in 2575
den 1850
: 1820
von 1491
zu 1356
mit 1319
das 1285
- 1189
sich 1159
auf 1154
ist 1134
nicht 1086
für 1076
Die 1074
im 1046
dem 1015
ein 979
des 930
es 824
eine 785
als 745
an 730
auch 716
( 683
) 681
/ 654
um 628
am 626
er 619
dass 612
Der 610
nach 583
sie 574
hat 566
aus 552
bei 545
wie 497
Das 483
werden 483
einem 480
noch 478
vor 476
sind 471
einer 460
wird 430
einen 425
war 419
aber 405
haben 391
mehr 381
über 370
nur 361
so 351
sagte 335
zum 334
? 319
man 300
hatte 298
sei 293
gegen 281
Euro 279
oder 273
Prozent 269
sein 267
Sie 255
bis 255
habe 250
_ 246
In 241
2007 238
zur 237
ich 233
wir 228
Es 226
wurde 213
wieder 211
kann 203
schon 202
dann 201
durch 199
wenn 198
unter 193
will 191
Und 182
sagt 180
immer 179
seine 176
vom 175
ihre 173
Wir 171
Jahr 169
Uhr 169
soll 163
Jahren 159
Er 157
gibt 156
Deutschland 152
eines 147
seiner 147
Ich 146
zwei 146
beim 145
keine 145
Im 144
alle 143
muss 142
Ein 135
was 135
Auch 134
Millionen 134
diese 134
können 132
waren 131
Nach 130
ONLINE 127
müssen 127
Menschen 126
drei 126
ten 125
worden 125
Mit 124
uns 124
seit 123
damit 121
ihr 121
Für 120
sehr 120
wollen 120
doch 117
gut 116
ins 114
Eine 113
nun 113
© 112
Jahre 111
ihrer 111
Ende 110
URL 110
hatten 110
te 110
viel 109
ab 108
zwischen 108
jetzt 107
Nachrichten 106
diesem 106
Aber 105
ohne 105
erst 104
ihn 103
' 102
weiter 102
geht 101
neuen 101
werde 101
ihren 100
neue 100
seinem 100
anderen 99
dieser 98
machen 98
allem 97
ersten 97
seinen 97
etwa 96
Welt 95
seien 95
selbst 95
wurden 95
bereits 93
da 93
dpa 93
heute 93
Doch 92
Zeit 92
deutschen 92
ihm 92
Bei 91
Wenn 91
Wie 91
weil 91
en 90
vergangenen 90
http 89
SPD 88
s 88
steht 88
kein 87
Unternehmen 86
[ 86
sollen 86
] 85
andere 85
ganz 85
rund 85
ung 85
könnte 82
viele 82
USA 81
einmal 81
em 80
Als 79
Dollar 79
So 79
etwas 79
jedoch 79
sondern 79
wegen 79
Berlin 78
Copyright 78
vier 78
allerdings 77
alles 74
deutsche 74
großen 74
mal 74
September 72
also 72
lassen 72
nichts 72
SPIEGEL 71
1 70
Man 70
beiden 70
dabei 70
kommen 70
ter 70
zehn 70
Mann 68
a 68
sowie 68
Am 67
Kinder 67
mir 67
ob 67
zurück 67
Deutschen 66
Leben 66
Oktober 66
hier 66
zwar 66
= 65
Dokument 65
Milliarden 65
davon 65
sollte 65
stehen 65
Erscheinungsdatum 64
cnt 64
dafür 64
document 64
erstellt 64
fünf 64
info 64
kommt 64
sogar 64
Land 63
geben 63
gewesen 63
t 63
wäre 63
Bahn 62
Präsident 62
Regierung 62
ungen 62
weniger 62
2 61
Auf 61
hätten 61
ischen 61
mich 61
würde 61
Politik 60
dazu 60
denn 60
fast 60
liegt 60
+ 59
Geld 59
Von 59
Woche 59
deutlich 59
15 58
Da 58
FC 58
Freitag 58
Polizei 58
dort 58
ja 58
sehen 58
Deutsche 57
WELT 57
gehen 57
heißt 57
ihrem 57
macht 57
wollte 57
50 56
Was 56
wenig 56
wo 56
! 55
; 55
Angaben 55
Frau 55
denen 55
Frankfurt 54
November 54
ern 54
Änderung 54
zweiten 53
CDU 52
kaum 52
Fall 51
Letzte 51
Mittwoch 51
New 51
gab 51
ische 51
später 51
weit 51
weitere 51
Dienstag 50
München 50
Partei 50
e 50
erste 50
ge 50
gen 50
keinen 50
0 49
Arbeit 49
Diese 49
Druckversion 49
US-@@ 49
Vor 49
bleiben 49
dies 49
könne 49
sieht 49
20 48
ers 48
gemacht 48
halten 48
ihnen 48
nie 48
2006 47
Beispiel 47
Den 47
Denn 47
Frauen 47
Merkel 47
eigenen 47
kam 47
tun 47
Hamburg 46
Markt 46
Nur 46
Wer 46
Zukunft 46
darauf 46
erklärte 46
... 45
20@@ 45
August 45
China 45
Donnerstag 45
Mal 45
chen 45
end 45
g 45
gehört 45
wissen 45
2008 44
Berliner 44
Frage 44
Stadt 44
allen 44
bin 44
derzeit 44
Monate 43
Russland 43
Spiel 43
Wochen 43
ebenfalls 43
gegenüber 43
gilt 43
hätte 43
jeder 43
1. 42
FTD.de 42
Wirtschaft 42
Zeitung 42
Zu 42
bekannt 42
dagegen 42
de 42
ende 42
fest 42
gegeben 42
konnte 42
lange 42
lich 42
lichen 42
müsse 42
unter@@ 42
wohl 42
Anfang 41
Soldaten 41
Trainer 41
diesen 41
kommenden 41
m 41
musste 41
Bayern 40
Rolle 40
dieses 40
el 40
ging 40
große 40
k 40
www.welt.de 40
30 39
Bank 39
Europa 39
Montag 39
Seite 39
d 39
eher 39
gerade 39
möglich 39
sollten 39
stand 39
während 39
zufolge 39
Dabei 38
Damit 38
Dass 38
Ziel 38
Zudem 38
bekommen 38
i 38
nächsten 38
sagen 38
schnell 38
sechs 38
würden 38
zunächst 38
17 37
Art 37
Erfolg 37
Hamburger 37
Samstag 37
Union 37
anderem 37
bleibt 37
seines 37
tes 37
16 36
18 36
Auf@@ 36
Aus 36
Blick 36
Dann 36
Entscheidung 36
Kunden 36
Sonntag 36
Tag 36
darf 36
dessen 36
laut 36
lässt 36
vielen 36
zusammen 36
% 35
3 35
Beck 35
Bis 35
Chef 35
Erst 35
Geschichte 35
Tage 35
Um 35
al 35
aller 35
einfach 35
ger 35
ler 35
letzten 35
oft 35
zeigt 35
GDL 34
Seit 34
Sieg 34
Team 34
Times 34
besser 34
bisher 34
damals 34
deren 34
deshalb 34
en-@@ 34
ens 34
künftig 34
zeigen 34
Arbeits@@ 33
Familie 33
Internet 33
Michael 33
Nicht 33
Platz 33
Sprecher 33
Stuttgart 33
besonders 33
durch@@ 33
finden 33
geworden 33
hieß 33
inzwischen 33
könnten 33
nehmen 33
sten 33
trotz 33
weiß 33
zuvor 33
Über@@ 33
& 32
.html 32
100 32
12 32
Angebot 32
Entwicklung 32
Jahres 32
Koalition 32
Minuten 32
Monaten 32
Saison 32
Sicherheit 32
Streit 32
Stunden 32
Tagen 32
Teil 32
bislang 32
enden 32
hin@@ 32
hält 32
mindestens 32
o 32
paar 32
spielen 32
stark 32
statt 32
10 31
Financial 31
Januar 31
Lage 31
Mitarbeiter 31
Viele 31
York 31
gekommen 31
hinter 31
insgesamt 31
isch 31
on 31
per 31
sicher 31
solche 31
stellen 31
14 30
Allerdings 30
Buch 30
Einsatz 30
Kilometer 30
Mannschaft 30
Rück@@ 30
Straße 30
Zahlen 30
bringen 30
erklärt 30
erwartet 30
gar 30
gleich 30
gute 30
ke 30
liche 30
meine 30
mit@@ 30
nach@@ 30
offenbar 30
schwer 30
sieben 30
weiteren 30
wirklich 30
zuletzt 30
02 29
13 29
2005 29
4 29
40 29
Aktien 29
Anleger 29
Bau@@ 29
Bush 29
Informationen 29
Köln 29
Leute 29
Ministerpräsident 29
Mit@@ 29
Männer 29
Neu@@ 29
Noch 29
Punkte 29
Sport 29
Thema 29
Zum 29
gestellt 29
mann 29
natürlich 29
neben 29
pro 29
ts 29
vielleicht 29
200 28
2004 28
Dezember 28
Dies 28
Druck 28
Hier 28
Jetzt 28
Manager 28
Meter 28
Recht 28
Weg 28
Während 28
acht 28
alten 28
daran 28
dürfte 28
eigentlich 28
findet 28
forderte 28
genau 28
gewinnen 28
kamen 28
ken 28
knapp 28
leicht 28
licher 28
los 28
mehrere 28
recht 28
spricht 28
teilte 28
-S@@ 27
25 27
Adresse 27
Banken 27
Bar@@ 27
Bund 27
Bundes@@ 27
Experten 27
Groß@@ 27
Kind 27
Ländern 27
Sache 27
ch 27
darunter 27
dürfen 27
einige 27
erreicht 27
gebracht 27
groß 27
hin 27
kurz 27
politik 27
unsere 27
8 26
Angst 26
Auto 26
Autos 26
Höhe 26
Kritik 26
Mitte 26
Namen 26
Sommer 26
Thomas 26
Tod 26
Unter@@ 26
Urteil 26
Verfügung 26
Wirtschafts@@ 26
Zwei 26
allein 26
beide 26
erhalten 26
erneut 26
kleine 26
ste 26
unserer 26
völlig 26
z 26
000 25
19 25
22 25
An 25
Bild 25
Firma 25
Grund 25
Gruppe 25
Ihr 25
Irak 25
Juli 25
Kosten 25
Schule 25
Studie 25
Unter 25
at 25
ation 25
bereit 25
eben 25
ert 25
fahren 25
gern 25
hoch 25
ierte 25
je 25
l 25
lang 25
letzte 25
ließ 25
meisten 25
scheint 25
tigen 25
treffen 25
weiterhin 25
www.n-tv.de 25
zwölf 25
überhaupt 25
2009 24
2010 24
21 24
Bo@@ 24
Bürger 24
Dazu 24
Fernseh@@ 24
Fragen 24
Haus 24
Kampf 24
Kunst 24
Münchner 24
Nach@@ 24
News 24
Schul@@ 24
Spitze 24
Um@@ 24
a-@@ 24
alte 24
arbeiten 24
einigen 24
eln 24
enen 24
entschieden 24
erin 24
erstmals 24
gebe 24
gesehen 24
gest@@ 24
größten 24
ischer 24
klar 24
le 24
machte 24
neues 24
offen 24
y 24
2002 23
7 23
Afghanistan 23
EU-@@ 23
Hand 23
Hilfe 23
Le@@ 23
Problem 23
Schritt 23
Sonder@@ 23
Spieler 23
Treffen 23
Vater 23
Zahl 23
amerikanischen 23
as 23
berichtet 23
ebenso 23
genommen 23
gt 23
häufig 23
iert 23
ierten 23
men 23
nächste 23
politische 23
richtig 23
schen 23
schließlich 23
stellt 23
tige 23
us 23
verlassen 23
ziehen 23
zurück@@ 23
23 22
60 22
Beginn 22
Bericht 22
Dieser 22
Ex@@ 22
Fans 22
Finanz@@ 22
Grünen 22
Hessen 22
Hälfte 22
Investoren 22
Krise 22
Länder 22
Mutter 22
Nun 22
Politiker 22
Schließlich 22
Seine 22
Seiten 22
Spiel@@ 22
Steuer@@ 22
Tr@@ 22
Wahl@@ 22
Zwar 22
besten 22
betonte 22
ell 22
elt 22
endlich 22
fordert 22
gehe 22
gerne 22
getötet 22
größte 22
ing 22
innerhalb 22
liches 22
liegen 22
möchte 22
n 22
nutzen 22
os 22
ums 22
unser 22
unternehmen 22
versucht 22
wolle 22
zeigte 22
zweite 22
-K@@ 21
-T@@ 21
28 21
70 21
Ball 21
Behörden 21
Branche 21
CSU 21
Deshalb 21
Eltern 21
Frankfurter 21
Frankreich 21
Gericht 21
Gesellschaft 21
Ihre 21
Interview 21
Kanzlerin 21
Konzern 21
Kr@@ 21
Krieg 21
Laut 21
Lebens@@ 21
Medien 21
Opfer 21
Ort 21
Partie 21
Preis 21
Preise 21
Sicht 21
Situation 21
Sp@@ 21
Türkei 21
Vorsitzende 21
WM 21
Wahl 21
Weil 21
Zur 21
bar 21
bringt 21
darüber 21
ender 21
führen 21
geführt 21
isches 21
junge 21
kleinen 21
kon@@ 21
kosten 21
nahm 21
nen 21
neu 21
schreibt 21
setzt 21
sprechen 21
wer 21
wichtig 21
01 20
35 20
Aktie 20
Amt 20
Bereich 20
Chancen 20
Ermittlungen 20
Firmen 20
Folgen 20
Fußball 20
Gefahr 20
Geld@@ 20
I 20
League 20
Lösung 20
Mio. 20
Nacht 20
Niederlage 20
Nummer 20
Parlament 20
Peter 20
Post 20
Richter 20
SPD-@@ 20
Schutz 20
Sein 20
Staaten 20
Streik 20
Streiks 20
Tochter 20
Vertrag 20
Weise 20
amerikanische 20
beispielsweise 20
berg 20
ck 20
dern 20
dritten 20
ehemaligen 20
eren 20
gesagt 20
hohe 20
ie 20
internationalen 20
lichkeit 20
längst 20
mein 20
nimmt 20
or 20
russischen 20
sprach 20
sueddeutsche.de 20
zahlen 20
zeit 20
zudem 20
2000 19
24 19
45 19
6 19
Bilder 19
Bundesregierung 19
Börse 19
Dafür 19
Daten 19
Dem 19
EU 19
Ergebnis 19
Film 19
Führung 19
Geschäft 19
Heute 19
Iran 19
Lokführer 19
London 19
Müller 19
Ober@@ 19
Rennen 19
Richtung 19
Ru@@ 19
Sohn 19
Sport@@ 19
Staat 19
Universität 19
Unterstützung 19
Wolfgang 19
Zuschauer 19
ange@@ 19
berichtete 19
bietet 19
blieb 19
braucht 19
droht 19
eigene 19
entscheiden 19
früher 19
führt 19
gelten 19
ieren 19
jeden 19
jeweils 19
jungen 19
jüngsten 19
leben 19
mag 19
meist 19
obwohl 19
politischen 19
sogenannten 19
spielt 19
stellte 19
weltweit 19
zumindest 19
öffentlichen 19
2003 18
38 18
Abend 18
Analysten 18
Außerdem 18
Bildunterschrift 18
Chance 18
Dort 18
England 18
Ergebnisse 18
FAZ.NET 18
Fahr@@ 18
Form 18
Gewerkschaft 18
Glück 18
Grund@@ 18
Haus@@ 18
Juni 18
Konkurrenz 18
Leistung 18
Mrd. 18
Ob 18
Ost@@ 18
Peking 18
Pläne 18
Polen 18
Schüler 18
Studenten 18
Täter 18
Vergleich 18
Welt@@ 18
Werk 18
Wert 18
aktuellen 18
ale 18
ben 18
britischen 18
cken 18
erzählt 18
fe 18
fen 18
fiel 18
gefallen 18
geschäft 18
her 18
heraus 18
hoch@@ 18
jede 18
konnten 18
mer 18
minister 18
müssten 18
ne 18
of 18
ohnehin 18
schweren 18
solle 18
tatsächlich 18
wollten 18
-Ver@@ 17
00 17
04 17
11 17
80 17
Alle 17
Amerikaner 17
Angela 17
Armee 17
Augen 17
Beim 17
Bhutto 17
Bundeskanzlerin 17
Champions 17
De@@ 17
Durch 17
Geschäftsführer 17
Gespräch 17
Haupt@@ 17
Hause 17
Hoch@@ 17
Idee 17
Interesse 17
Kinder@@ 17
Kollegen 17
Konzept 17
Kopf 17
Ku@@ 17
Mai 17
Mehr 17
Meister 17
Musharraf 17
Neben 17
Partei@@ 17
Pl@@ 17
Probleme 17
Prozess 17
Publikum 17
Sekunden 17
Stadt@@ 17
Su@@ 17
Text 17
Titel 17
Trotz 17
Washington 17
Wasser 17
Wort 17
Zeit@@ 17
Zusammenhang 17
alen 17
all 17
außerdem 17
bekommt 17
besch@@ 17
che 17
direkt 17
ehemalige 17
elle 17
entwickelt 17
er-@@ 17
erreichen 17
eten 17
fallen 17
fest@@ 17
ganze 17
gefunden 17
ges 17
guten 17
land 17
läuft 17
nachdem 17
rechnet 17
schaffen 17
schw@@ 17
se 17
tern 17
verkauft 17
vermutlich 17
welche 17
zen 17
zer@@ 17
zugleich 17
zusammen@@ 17
13@@ 16
2001 16
300 16
36 16
48 16
All@@ 16
Br@@ 16
Bremen 16
Börsen@@ 16
Fahrer 16
Franz 16
Freunde 16
Frühjahr 16
Gewinn 16
Heimat 16
Jeder 16
Joachim 16
Kein 16
Klasse 16
Klein@@ 16
Kultur 16
Kurt 16
Kölner 16
Land@@ 16
Landes 16
Lehmann 16
Martin 16
Maßnahmen 16
Minute 16
Mitglieder 16
Moskau 16
Möglichkeit 16
Natürlich 16
Netz 16
Opposition 16
Privat@@ 16
Projekt 16
Quartal 16
Sicherheits@@ 16
Sozial@@ 16
Tor@@ 16
Umfrage 16
VfB 16
We@@ 16
Wegen 16
Westen 16
anderer 16
anders 16
aten 16
bald 16
bisschen 16
brachte 16
du 16
durchaus 16
erwarten 16
fand 16
genauso 16
genug 16
gesetzt 16
gestern 16
gewonnen 16
großer 16
größere 16
gung 16
heraus@@ 16
hingegen 16
hohen 16
ihres 16
industrie 16
internationale 16
jedem 16
kaufen 16
kostet 16
legen 16
mussten 16
ner 16
reden 16
setzen 16
sk@@ 16
solchen 16
st 16
suchen 16
tete 16
tiger 16
trägt 16
verloren 16
versch@@ 16
voll 16
weder 16
weise 16
wenige 16
www.ftd.de 16
zieht 16
Öffentlichkeit 16
übernehmen 16
-Jährige 15
12@@ 15
18@@ 15
27 15
29 15
400 15
Anbieter 15
Ansicht 15
Außenminister 15
B 15
Bundesliga 15
Bühne 15
Bürgermeister 15
Christian 15
D 15
El@@ 15
Fach@@ 15
Fehler 15
Frank 15
Ger@@ 15
Geschäfts@@ 15
Grenzen 15
Hannover 15
Her@@ 15
Italien 15
Japan 15
Journalisten 15
Kindern 15
Klaus 15
Kunst@@ 15
Lebens 15
Macht 15
Me@@ 15
Musik 15
März 15
Müntefering 15
Nachdem 15
Not@@ 15
Oder 15
Plus 15
Position 15
Produktion 15
Rede 15
Region 15
Reise 15
Schalke 15
Schw@@ 15
Se@@ 15
Selbst 15
Straßen 15
Stunde 15
Stück 15
Technik 15
The 15
Tor 15
VW 15
Vergangenheit 15
Volks@@ 15
Vom 15
Warum 15
Wei@@ 15
Wer@@ 15
Wettbewerb 15
Wissenschaftler 15
Wochenende 15
ans 15
ar 15
bedeutet 15
begonnen 15
bestimmten 15
beteiligt 15
britische 15
chinesische 15
dadurch 15
danach 15
deutscher 15
einzige 15
entfernt 15
ere 15
erfolgreich 15
erster 15
fordern 15
ft 15
gemeinsam 15
h 15
haus 15
höhere 15
kt 15
lag 15
laufen 15
me 15
meinen 15
neun 15
notwendig 15
oben 15
platz 15
schrieb 15
standen 15
ständig 15
trifft 15
tung 15
verb@@ 15
verhindern 15
verurteilt 15
weiter@@ 15
$ 14
-B@@ 14
10@@ 14
120@@ 14
13.11.2007 14
2. 14
39 14
90 14
A 14
Afrika 14
Alles 14
Bahn@@ 14
Basis 14
Beide 14
Beschäftigten 14
Chelsea 14
Damals 14
Debatte 14
Europäische 14
Februar 14
Ferrari 14
Foto 14
Fußball-@@ 14
Fälle 14
Führungs@@ 14
Gegen@@ 14
Gegner 14
George 14
Gerade 14
Gott 14
Großbritannien 14
Hintergrund 14
Hoffnung 14
Kl@@ 14
Klage 14
Kreditkrise 14
Landes@@ 14
Metern 14
Musik@@ 14
Nachfrage 14
Presseagentur 14
Programm 14
Provinz 14
Präsidenten 14
Rechte 14
Rechts@@ 14
Regierungs@@ 14
Ri@@ 14
Roman 14
Sarkozy 14
Schmidt 14
Schon 14
Selbst@@ 14
Sh@@ 14
Sollte 14
Spiele 14
Staatsanwaltschaft 14
Stand 14
Start 14
Steinmeier 14
Strategie 14
Suche 14
Super@@ 14
Trend 14
Unternehmens@@ 14
WM-@@ 14
Werte 14
Zeiten 14
Zeitpunkt 14
Zusammenarbeit 14
Zweifel 14
abzu@@ 14
angekündigt 14
aufge@@ 14
aufgenommen 14
aufs 14
aufzu@@ 14
auszu@@ 14
beginnt 14
bel@@ 14
bezeichnet 14
cker 14
daher 14
dahin 14
einzu@@ 14
ene 14
erte 14
erten 14
fragen 14
frühere 14
ganzen 14
gegangen 14
gehören 14
geplant 14
gestartet 14
gezogen 14
glauben 14
großes 14
isten 14
istische 14
jemand 14
jene 14
jährige 14
ka 14
keiner 14
lagen 14
lediglich 14
länger 14
nahe 14
p 14
politisch 14
rechte 14
schlecht 14
schreiben 14
schützen 14
starken 14
steigen 14
tragen 14
trat 14
verantwortlich 14
versuchen 14
warum 14
weg 14
weiteres 14
wenigen 14
www.@@ 14
ze 14
zunehmend 14
zusätzliche 14
Über 14
ändern 14
übernommen 14
.000 13
32 13
37 13
5 13
9 13
AFP 13
Abschluss 13
Barcelona 13
Becker 13
Best@@ 13
Besuch 13
Bi@@ 13
Bürger@@ 13
Diskussion 13
Einkommen 13
Ent@@ 13
Finale 13
Fonds 13
Forscher 13
Gas@@ 13
Gastgeber 13
Gefängnis 13
Gegen 13
Gesch@@ 13
Gesetz 13
Gesicht 13
Gold 13
Grenze 13
Hei@@ 13
Hin@@ 13
Indien 13
Ja 13
Job 13
Keine 13
Kraft 13
Künstler 13
Li@@ 13
Löw 13
Medien@@ 13
Mi@@ 13
Mittel 13
Monat 13
Möglichkeiten 13
Nein 13
Nord@@ 13
Nähe 13
Ohne 13
Osten 13
Pakistan 13
Papier 13
Personal@@ 13
Porsche 13
Preis@@ 13
Punkten 13
Qualität 13
Regisseur 13
Rekord@@ 13
Robert 13
Schäuble 13
Spekulationen 13
Spiegel 13
Staats@@ 13
Stellen 13
Stimme 13
Tat 13
Teams 13
Umsatz 13
Verfahren 13
Vertreter 13
Vielleicht 13
W. 13
Zugleich 13
aktuelle 13
au 13
bare 13
be 13
ber 13
bessere 13
best@@ 13
chen@@ 13
englischen 13
et 13
falsch 13
folgt 13
fragt 13
früheren 13
fällt 13
gesamte 13
gesprochen 13
glaube 13
größer 13
helfen 13
immerhin 13
jedes 13
kennen 13
ker 13
konzern 13
legt 13
lösen 13
manche 13
mehreren 13
nannte 13
nennt 13
neuer 13
onen 13
private 13
sehe 13
setzte 13
sitzt 13
sogenannte 13
stets 13
tritt 13
tut 13
ve 13
voller 13
warten 13
zählt 13
öffentlich 13
-M@@ 12
1,@@ 12
11. 12
14@@ 12
1999 12
500 12
Alexander 12
Amerika 12
Anwalt 12
Aufgabe 12
Auto@@ 12
Ban@@ 12
Bank@@ 12
Beckstein 12
Beteiligung 12
Bisher 12
Bundestrainer 12
Club 12
Coach 12
Computer 12
Computer@@ 12
Derzeit 12
Einen 12
Einfluss 12
Einführung 12
Ex-@@ 12
FDP 12
FTD 12
Familien 12
Fernsehen 12
Fest@@ 12
Folge 12
Fuß 12
Fällen 12
Gas 12
Gebiet 12
Gel@@ 12
Hand@@ 12
Hauptstadt 12
Heim@@ 12
Herr 12
Hersteller 12
Huber 12
Illustration 12
Immerhin 12
Immobilien@@ 12
Industrie 12
Innenminister 12
Ist 12
Josef 12
Kar@@ 12
Karriere 12
Kirche 12
Klose 12
Kollege 12
Kommentar 12
Kontrolle 12
Krankenhaus 12
Kur@@ 12
Liga 12
Lu@@ 12
Lufthansa 12
Madrid 12
Main 12
Mädchen 12
Nationalspieler 12
Niveau 12
Paris 12
Parteichef 12
Paul 12
Polizisten 12
Putin 12
SV 12
San 12
Schluss 12
Schweiz 12
Sinn 12
So@@ 12
Spitzen@@ 12
Stelle 12
Stimmung 12
Straf@@ 12
Tore 12
Verlag 12
Walter 12
West@@ 12
Wissenschaft 12
Worten 12
Yorker 12
angeblich 12
angesichts 12
ant 12
anz@@ 12
article12@@ 12
außer 12
außerhalb 12
bar@@ 12
begann 12
besteht 12
bestimmt 12
bestätigt 12
bewegt 12
bild 12
bisherigen 12
del 12
demnach 12
dennoch 12
ds 12
einge@@ 12
eins 12
ener 12
erung 12
europäischen 12
f 12
folgen 12
frei 12
führte 12
gang 12
gefordert 12
geraten 12
gespielt 12
gingen 12
größeren 12
gutes 12
halt 12
handelt 12
heit 12
hervor 12
hinaus 12
höchsten 12
ierung 12
interessiert 12
jährlich 12
kennt 12
kr@@ 12
kündigte 12
lebt 12
legte 12
lei@@ 12
len 12
lieber 12
ministerium 12
mittlerweile 12
müsste 12
prüfen 12
rechnen 12
relativ 12
schwarze 12
schwere 12
selten 12
spiel@@ 12
stadt 12
starke 12
stein 12
tet 12
tig 12
trotzdem 12
vers@@ 12
vorgestellt 12
weiterer 12
weitgehend 12
wichtige 12
wirft 12
wirtschaftlichen 12
wären 12
zeiten 12
Österreich 12
-Chef 11
-Jährigen 11
-L@@ 11
07 11
08 11
09 11
14. 11
17@@ 11
26 11
26@@ 11
28. 11
28@@ 11
3. 11
30. 11
33 11
47 11
49 11
5,@@ 11
52 11
55 11
75 11
AP 11
Abgeordnete 11
Am@@ 11
Anders 11
Anteil 11
April 11
Arzt 11
Aufgaben 11
Ausland 11
Autoren 11
Außen@@ 11
Band 11
Bes@@ 11
Besucher 11
Bevölkerung 11
Buch@@ 11
Daher 11
Danach 11
David 11
Deutschlands 11
Dieter 11
Dinge 11
Drei 11
Drei@@ 11
Drittel 11
Energie 11
Energie@@ 11
Engagement 11
Entscheidungen 11
Erwartungen 11
Flucht 11
Formel 11
Frei@@ 11
Fußball@@ 11
Gebäude 11
Gen@@ 11
Gerhard 11
Gesamt@@ 11
Geschäfte 11
Gewalt 11
Gewerkschaften 11
Großen 11
Handels@@ 11
Har@@ 11
Herz 11
Hol@@ 11
Interessen 11
Internet-@@ 11
Internet@@ 11
Jahres@@ 11
James 11
John 11
Jung 11
Jürgen 11
Kandidaten 11
Kauf 11
Kevin 11
Konjunktur 11
Kopf@@ 11
Kritiker 11
Käufer 11
Liebe 11
Linie 11
Literatur 11
Luxus@@ 11
Man@@ 11
Meister@@ 11
Menge 11
Messe 11
Mindestlohn 11
Miss@@ 11
Märkte 11
Nachfolger 11
Nachrichtenagentur 11
National@@ 11
Natur@@ 11
Neue 11
Nürnberg 11
Organisation 11
Papiere 11
Per@@ 11
Pf@@ 11
Rahmen 11
Rei@@ 11
Rice 11
Roll@@ 11
Runde 11
Rückkehr 11
Satz 11
Schuld 11
Sechs 11
Si@@ 11
Spanien 11
Stoiber 11
Teheran 11
Termin 11
Tonnen 11
Trotzdem 11
Unterdessen 11
Ur@@ 11
VON 11
Verband 11
Verhandlungen 11
Verhältnis 11
Verlängerung 11
Vermögen 11
Verteidigungsminister 11
Vi@@ 11
Vorjahr 11
Vorstand 11
Werbe@@ 11
Wert@@ 11
Worte 11
Zeichen 11
Zentrum 11
Zuletzt 11
afghanischen 11
aktiv 11
akzeptiert 11
alt 11
anten 11
ationen 11
ative 11
baren 11
bauen 11
belastet 11
berichteten 11
beste 11
betr@@ 11
burg 11
chef 11
cher 11
cht@@ 11
cke 11
dank 11
daraufhin 11
darin 11
davor 11
ddp 11
drohen 11
einst 11
ellen 11
elte 11
enk@@ 11
ent 11
entdeckt 11
erlaubt 11
ete 11
ette 11
fall 11
fl@@ 11
französische 11
freie 11
fährt 11
fühlen 11
gaben 11
gefragt 11
gel 11
gelegt 11
geplante 11
geplanten 11
gestiegen 11
getan 11
gewann 11
gewählt 11
glaubt 11
gleichen 11
hielt 11
hinzu 11
hoffe 11
hoffen 11
hofft 11
holen 11
ismus 11
jedenfalls 11
kte 11
lau@@ 11
leisten 11
lern 11
meinem 11
meiner 11
meint 11
nennen 11
niemand 11
nämlich 11
offiziell 11
ologie 11
oren 11
os@@ 11
passiert 11
punkt 11
richtigen 11
schlägt 11
selbst@@ 11
sonst 11
sorgt 11
spanischen 11
stieg 11
stärker 11
sucht 11
tiert 11
tliche 11
treten 11
täglich 11
verbessern 11
verhandeln 11
verk@@ 11
verletzt 11
verlor 11
verstehen 11
vierten 11
vorerst 11
wieder@@ 11
wirken 11
wirkt 11
wirtschaft 11
zahlreiche 11
äußern 11
öffentliche 11
österreichischen 11
10. 10
100.000 10
13. 10
16. 10
16@@ 10
19. 10
21. 10
24. 10
24@@ 10
46 10
50@@ 10
53 10
600 10
87@@ 10
AG 10
Agenda 10
Agentur 10
Aktion 10
Allen 10
Also 10
Angriff 10
Anhänger 10
Antrag 10
Arbeitslosengeld 10
Arena 10
Ausgleich 10
Aussage 10
Bayer 10
Begriff 10
Begründung 10
Bereits 10
Berufung 10
Bild@@ 10
Blatt 10
Bremer 10
Brief 10
Bro@@ 10
Brüssel 10
Details 10
Eis@@ 10
Erklärung 10
Erstmals 10
Europas 10
Europäischen 10
For@@ 10
Forderungen 10
Fraktion 10
Gabriel 10
Generation 10
Gew@@ 10
Gewinne 10
Gi@@ 10
Gu@@ 10
Hafen 10
Haft 10
Hitzfeld 10
Hu@@ 10
Ihnen 10
Immer 10
Inter@@ 10
Jugendlichen 10
Kern@@ 10
Konkurrenten 10
Kultur@@ 10
Kurs 10
Kurs@@ 10
Kurz 10
La 10
Luca 10
Lynch 10
Material 10
Mehrheit 10
Meinung 10
Min@@ 10
Minister 10
Mitglied 10
Mo@@ 10
Männern 10
Olympischen 10
Panorama 10
Partner 10
Personen 10
Plätze 10
Rad@@ 10
Real 10
Reform 10
Reform@@ 10
Risiko 10
Roland 10
Rücktritt 10
Schatten 10
Schicksal 10
Schröder 10
Schuss 10
Schweizer 10
Stamm@@ 10
Strecke 10
Stuttgarter 10
Städten 10
Taliban 10
Tatsache 10
Terroristen 10
Treffer 10
Tri@@ 10
Turnier 10
Urlaub 10
VW-@@ 10
Verantwortung 10
Verbraucher 10
Verein 10
Verhalten 10
Verkauf 10
Video 10
Volker 10
Wachstum 10
Wal@@ 10
Wasser@@ 10
Wechsel 10
Wege 10
Wein@@ 10
Werbung 10
Wirkung 10
Zuschauern 10
abge@@ 10
abgeschlossen 10
agen 10
alismus 10
anzu@@ 10
ate 10
ator 10
aufgrund 10
ausgesprochen 10
bank 10
beginnen 10
beh@@ 10
behörde 10
bel 10
bestand 10
bewegen 10
blieben 10
bo@@ 10
brauchen 10
c 10
chte 10
chten 10
daten 10
denken 10
di 10
digen 10
direktor 10
dritte 10
dürften 10
eingesetzt 10
elf 10
enb@@ 10
entwickeln 10
erheblich 10
erinnert 10
erkennen 10
erklären 10
falsche 10
fer 10
form 10
französischen 10
fälle 10
gekauft 10
gem@@ 10
gemeinsame 10
gerät 10
gesamten 10
geschlossen 10
glich 10
gs 10
halte 10
handel 10
herum 10
hof 10
indem 10
international 10
is 10
ischem 10
komplett 10
kritisierte 10
kurzen 10
la 10
langen 10
langsam 10
len@@ 10
ler@@ 10
lernen 10
letztlich 10
mache 10
markt 10
mehrfach 10
mitteilte 10
mitten 10
morgen 10
mögliche 10
möglicherweise 10
passt 10
perfekt 10
persönlich 10
plant 10
plötzlich 10
profitieren 10
programm 10
präsentiert 10
rat 10
re 10
regelmäßig 10
reich 10
reicht 10
sicherte 10
sofort 10
spätestens 10
staat 10
staatliche 10
sterben 10
stolz 10
teilweise 10
the 10
unklar 10
unseren 10
verdient 10
verpflichtet 10
verschiedene 10
vorn 10
weg@@ 10
welt 10
wert 10
wünschen 10
zig 10
zwei@@ 10
Übernahme 10
ßen 10
ähnlich 10
äu@@ 10
11@@ 9
12. 9
120 9
15@@ 9
18. 9
20. 9
2011 9
29. 9
3000 9
34 9
36@@ 9
42 9
43 9
65 9
7. 9
8. 9
9. 9
Abstand 9
Ad@@ 9
Airbus 9
Allein 9
Alonso 9
Alters@@ 9
Andere 9
Andreas 9
Anschlag 9
Antwort 9
Arbeiten 9
Arbeitsplätze 9
Auflagen 9
Aufsichtsrat 9
Bau 9
Beamte 9
Bel@@ 9
Bildungs@@ 9
Bochum 9
Bonn 9
Bord 9
Bundes 9
Car@@ 9
Co@@ 9
Dadurch 9
Dagegen 9
Demokratie 9
Deutsch 9
Deutscher 9
E 9
Einer 9
Einige 9
Einigung 9
Einschätzung 9
Einzel@@ 9
Eltern@@ 9
Erfahrung 9
Erfolge 9
Euro-@@ 9
Felix 9
Fer@@ 9
Feuer 9
Finanzierung 9
Fl@@ 9
Flughafen 9
Forderung 9
Forschung 9
Fotos 9
Gast@@ 9
Gedanken 9
Geist 9
Gespräche 9
Gold@@ 9
Golf 9
Google 9
Grass 9
Grün@@ 9
Güterverkehr 9
Haas 9
Hal@@ 9
Herkunft 9
Hoeneß 9
Horst 9
Händler 9
Hö@@ 9
Index 9
International 9
Inzwischen 9
Jahrhundert 9
Je 9
Job@@ 9
Juden 9
Kapital@@ 9
Karlsruhe 9
Ker@@ 9
Kilometern 9
Klimaschutz 9
Kn@@ 9
Ko@@ 9
Koalitions@@ 9
Konzern@@ 9
Kor@@ 9
Kre@@ 9
Kräfte 9
Körper 9
Lager 9
Laufe 9
Lehr@@ 9
Leipzig 9
Leistungen 9
Lieblings@@ 9
Literatur@@ 9
Lohn@@ 9
Mainz 9
Manfred 9
Massen@@ 9
Mensch 9
Meyer 9
Microsoft 9
Militär@@ 9
Mitgliedschaft 9
Mittel@@ 9
Morgen 9
Nachbarn 9
Nationalmannschaft 9
Neuer 9
Neues 9
Norden 9
O 9
Online-@@ 9
Or@@ 9
Patienten 9
Positionen 9
Premier 9
Presse 9
Produkte 9
Profis 9
Punkt 9
Raum 9
Regel 9
Reinhard 9
Respekt 9
Risiko@@ 9
Rüttgers 9
S 9
Sanktionen 9
Schaden 9
Schauspieler 9
Schnitt 9
Sen@@ 9
Sieger 9
Simon 9
Sonne 9
Sonntagabend 9
Sorge 9
Spar@@ 9
Spielen 9
Sprecherin 9
Spur 9
Star@@ 9
Stefan 9
Street 9
Studi@@ 9
Süd@@ 9
Tarif@@ 9
Tarifvertrag 9
Tempo 9
Terror@@ 9
Theater 9
Themen 9
Ti@@ 9
Tiere 9
Tisch 9
Tour 9
Tour@@ 9
Tradition 9
Traum 9
Tur@@ 9
Unterschied 9
Vereinigten 9
Volk 9
Voll@@ 9
Voraussetzungen 9
Vorgehen 9
Vorschlag 9
Vorschläge 9
Vorwürfe 9
Wahrheit 9
Weiter 9
Weltmeister 9
Weltmeisterschaft 9
West 9
Wunder 9
ZDF 9
Zug@@ 9
abgesch@@ 9
age 9
ah 9
ales 9
alt@@ 9
alter 9
and 9
anfangen 9
angeboten 9
ativen 9
ausfallen 9
ausreichend 9
b 9
behaupten 9
ben@@ 9
beraten 9
berlin 9
bevor 9
bewusst 9
bieten 9
del@@ 9
det 9
dete 9
drei@@ 9
dringend 9
dürfe 9
ehe 9
eindeutig 9
ente 9
entgegen 9
entsprechend 9
erk@@ 9
ernst 9
fern@@ 9
festgenommen 9
fliegen 9
fragte 9
freilich 9
früh 9
frühen 9
ft@@ 9
funktioniert 9
fürs 9
geboren 9
gef@@ 9
gehalten 9
geld 9
geln 9
gelungen 9
gemeinsamen 9
genannt 9
gesellschaft 9
gleich@@ 9
gleiche 9
heiten 9
heißen 9
herrscht 9
hundert 9
hören 9
indes 9
isch-@@ 9
isiert 9
ju@@ 9
jähriger 9
klingt 9
kn@@ 9
kritisiert 9
ku@@ 9
kürzlich 9
lautet 9
lehnte 9
leichter 9
lose 9
machten 9
maßnahmen 9
möglichst 9
nieder@@ 9
nung 9
offensichtlich 9
organisiert 9
pe 9
preise 9
reagieren 9
rechten 9
reichen 9
retten 9
russische 9
sah 9
sicherlich 9
skeptisch 9
sorgen 9
sorgte 9
sowohl 9
spr@@ 9
staatlichen 9
stehe 9
steigt 9
ster 9
strei@@ 9
süd@@ 9
th 9
tin 9
traf 9
treibt 9
tungs@@ 9
unabhängig 9
unbedingt 9
ung@@ 9
unterstützen 9
unterstützt 9
unterwegs 9
van 9
verdienen 9
vereinbart 9
verlangt 9
versuchte 9
verzichten 9
vielmehr 9
voll@@ 9
vorbei 9
vorstellen 9
warnt 9
weiten 9
werk 9
wies 9
zog 9
zufrieden 9
zusätzlich 9
Ärzte 9
är 9
äre 9
überraschend 9
überrascht 9
0,@@ 8
03 8
05 8
1000 8
1995 8
1996 8
1998 8
2,5 8
4. 8
44 8
54 8
56 8
6. 8
Alt@@ 8
Alter 8
Arbeitgeber 8
Asien 8
Atom@@ 8
Aufnahmen 8
Auftrag 8
Auseinandersetzungen 8
Ausgabe 8
Auswahl 8
Automobil@@ 8
Ballack 8
Beamten 8
Bedenken 8
Benazir 8
Berater 8
Bernd 8
Berufs@@ 8
Beste 8
Betreiber 8
Betrieb 8
Betroffenen 8
Bierhoff 8
Bislang 8
Bran@@ 8
Brand@@ 8
Brief@@ 8
Bundesrepublik 8
Bundestag 8
Bur@@ 8
Bus 8
Börsen 8
Christoph 8
DFB-@@ 8
Dach 8
Daniel 8
Dar@@ 8
Dennoch 8
Dienst@@ 8
Dirk 8
Do@@ 8
Du@@ 8
EM 8
Ehe 8
Eines 8
Einnahmen 8
Entwicklungs@@ 8
Erde 8
Erhöhung 8
Erste 8
Essen 8
Euro@@ 8
Falle 8
Familien@@ 8
Fast 8
Favre 8
Feld 8
Fin@@ 8
Finanzmärkten 8
Flug@@ 8
Flugzeuge 8
Flügel 8
Freiheit 8
Freund 8
Frings 8
G 8
Gang 8
General@@ 8
Gerichtshof 8
Gewinner 8
Gra@@ 8
Grad 8
Gruppen 8
Gut 8
Gutachten 8
Gäste 8
Halb@@ 8
Ham@@ 8
Handy 8
Harry 8
Helmut 8
Hertha 8
Hil@@ 8
IAA 8
Im@@ 8
Insgesamt 8
Investitionen 8
Israel 8
Italiener 8
Jahrzehnten 8
Jo@@ 8
Ju@@ 8
Kam@@ 8
Kameras 8
Kanada 8
Kapitän 8
Kauf@@ 8
Kino 8
Klimawandel 8
Koch 8
Kohl 8
Kommission 8
Kompromiss 8
Konsequenzen 8
Konsumenten 8
Kredit@@ 8
Kurden 8
Kurz@@ 8
Kö@@ 8
L 8
Lehrer 8
Leverkusen 8
Lin@@ 8
Linke 8
Linken 8
Liste 8
Liter 8
Lo@@ 8
Londoner 8
Luft 8
Mailand 8
Management 8
Markt@@ 8
Matthias 8
Metzelder 8
Ministerin 8
Mitarbeitern 8
Mittwochabend 8
Modelle 8
Morgan 8
Motto 8
Mu@@ 8
Nachmittag 8
Neid 8
Netz@@ 8
Neuen 8
Ni@@ 8
Nicolas 8
Niemand 8
Nor@@ 8
Norbert 8
Nordrhein-Westfalen 8
Nowitzki 8
Nutzer 8
Orte 8
Paare 8
Park 8
Parteien 8
Pi@@ 8
Plan 8
Polizei@@ 8
Professor 8
Putins 8
Qualifikation 8
Ralf 8
Regeln 8
Reihe 8
Rekord 8
Rich@@ 8
Rock@@ 8
Rom 8
Rostock 8
Roth 8
Rund 8
Rücken 8
SPD-Chef 8
Saison@@ 8
Sal@@ 8
Sar@@ 8
Schell 8
Schulen 8
Schutz@@ 8
Schweden 8
Schweinsteiger 8
Sendung 8
Sieben 8
Siemens 8
Sitzung 8
Spaß 8
Spears 8
Stand@@ 8
Star 8
Sterne 8
Stiftung 8
Straßen@@ 8
Streik@@ 8
Strukturen 8
Städte 8
Stärke 8
Stürmer 8
Szene 8
Team@@ 8
Teil@@ 8
Teilen 8
Telekom 8
Terror 8
Tiefensee 8
Trans@@ 8
Tu@@ 8
UN-@@ 8
US-Präsident 8
Umwelt@@ 8
Uni@@ 8
United 8
Unternehmer 8
Ursachen 8
V 8
V-@@ 8
Veranstalter 8
Verbindung 8
Verbraucher@@ 8
Verdacht 8
Verlust 8
Versicherungs@@ 8
Versuch 8
Vorgänger 8
Vorstellung 8
Wales 8
Wechsel@@ 8
Weiter@@ 8
Weißen 8
Wel@@ 8
Werder 8
Wettbewerbs@@ 8
Widerstand 8
Wieder@@ 8
Willen 8
Zentral@@ 8
Zug 8
Zuge 8
allzu 8
anderes 8
aufbauen 8
ausgeschlossen 8
ausgesetzt 8
bach 8
beendet 8
bek@@ 8
besondere 8
besuchen 8
beträgt 8
bezahlen 8
bezeichnete 8
branche 8
cht 8
ckt 8
da@@ 8
daraus 8
dienst 8
dient 8
diesmal 8
dung 8
echten 8
ei 8
eigener 8
eingesch@@ 8
einig 8
einzelne 8
eller 8
enten 8
entstehen 8
entsteht 8
erinnen 8
erm@@ 8
erscheint 8
esch@@ 8
ett 8
eure 8
europäische 8
falls 8
fern 8
finde 8
fördern 8
fühlt 8
führer 8
führten 8
führung 8
gefähr@@ 8
gegründet 8
geholt 8
gelassen 8
genannte 8
genden 8
genügend 8
gerettet 8
geschafft 8
getragen 8
gezahlt 8
greifen 8
grund@@ 8
gruppe 8
grün@@ 8
gten 8
halb 8
halbe 8
halben 8
hinterher 8
hoher 8
höher 8
ien 8
igen 8
informiert 8
inklusive 8
irgendwann 8
issen 8
kat@@ 8
kre@@ 8
kritisch 8
kten 8
ktion 8
ktionen 8
lage 8
leiden 8
leider 8
letzter 8
leute 8
lief 8
liefert 8
links 8
losen 8
mark@@ 8
mes 8
miteinander 8
mt 8
mutmaßlichen 8
möglichen 8
nah@@ 8
nahme 8
nord@@ 8
notierte 8
o-@@ 8
optimistisch 8
ort 8
plus 8
politisches 8
positiv 8
preis 8
rechts 8
reise 8
rück@@ 8
schafft 8
schaffte 8
schloss 8
schneller 8
schönen 8
selbstverständlich 8
senken 8
sinken 8
sitz 8
sitzen 8
solange 8
spielte 8
ssen 8
sta@@ 8
starten 8
stattfinden 8
stellvertretende 8
steuern 8
stu@@ 8
system 8
ters 8
tieren 8
tigt 8
tot 8
treiben 8
tä@@ 8
türkischen 8
u 8
verband 8
vergangene 8
verl@@ 8
vertr@@ 8
veröffentlichte 8
voraus 8
wachsenden 8
wagen 8
wahrscheinlich 8
warf 8
warnte 8
welcher 8
wesentlich 8
wirbt 8
wirtschafts@@ 8
x 8
y-@@ 8
zahlreichen 8
zentrum 8
ziemlich 8
zweimal 8
Äußerungen 8
Öl@@ 8
ße 8
ältere 8
äußerte 8
überlegen 8
übernimmt 8
überzeugen 8
-Re@@ 7
-jährige 7
02.10.2007 7
09.10.2007 7
1,5 7
123@@ 7
126@@ 7
1990 7
2,@@ 7
2013 7
22. 7
22@@ 7
23. 7
23.09.2007 7
25. 7
26. 7
28.08.2007 7
29@@ 7
40@@ 7
5000 7
62 7
7,@@ 7
8000 7
85 7
86@@ 7
93 7
ARD 7
Ackermann 7
Angeles 7
Anne 7
Anspruch 7
Anstieg 7
Anti@@ 7
Arbeiter 7
Arbeitnehmer 7
Aufklärung 7
Aufschwung 7
Aufstieg 7
Auftritt 7
Ausbildung 7
Auseinandersetzung 7
Aussagen 7
Aussicht 7
Ausstellung 7
BMW 7
Bagdad 7
Bal@@ 7
Begegnung 7
Beruf 7
Besitzer 7
Beteiligten 7
Bhuttos 7
Bier 7
Boden 7
Boden@@ 7
Borussia 7
Bri@@ 7
Britney 7
Bruder 7
Bu@@ 7
Bundesliga-@@ 7
Bundeswehr 7
Bus@@ 7
Butter 7
Bühnen@@ 7
Büro 7
CDU-Politiker 7
CSU-@@ 7
Cent 7
Center 7
Chef@@ 7
Christ@@ 7
Com@@ 7
DDR 7
Dank 7
Darüber 7
Demokraten 7
Demonstranten 7
Dienste 7
Doppel@@ 7
Dr. 7
Dreh@@ 7
Duell 7
EU-Kommission 7
EZB 7
Ecke 7
Ehefrau 7
Ei@@ 7
Einmal 7
Eon 7
Erinnerung 7
Erkenntnisse 7
Ernst 7
Etwa 7
F 7
Fahrzeug 7
Fan@@ 7
Fein@@ 7
Fernando 7
Filme 7
Flugzeug 7
Fol@@ 7
Ford 7
Frank-Walter 7
Frauen@@ 7
Fremd@@ 7
Freundin 7
Frieden 7
Fritz 7
Förderung 7
Ganz 7
Geburtstag 7
Gefühl 7
Gemeinschaft 7
Geräte 7
Gipfel 7
Gleichzeitig 7
Griechenland 7
Griff 7
Größe 7
Gründung 7
Günther 7
Halbfinale 7
Halbjahr 7
Handel@@ 7
Hauses 7
Heimat@@ 7
Hel@@ 7
Herz@@ 7
Ho@@ 7
Hotel 7
Hunderte 7
Höhepunkt 7
Hü@@ 7
Inhalte 7
Innen@@ 7
Insel 7
Institut 7
Investor 7
Jahrzehnte 7
Jens 7
Jones 7
Jugend@@ 7
Julia 7
Justiz@@ 7
K. 7
Kabinett 7
Kal@@ 7
Kampf@@ 7
Kat@@ 7
Kate 7
Kauder 7
Kern 7
Komm@@ 7
Konjunktur@@ 7
Kontroll@@ 7
Konzerne 7
Kooperation 7
Kreis 7
Kunde 7
Kurse 7
Können 7
Landtag 7
Lebensmittel 7
Licht 7
Linkspartei 7
Los 7
Lukas 7
Löwen 7
Mad@@ 7
Mai@@ 7
Mangel 7
Marco 7
Marke 7
Maschine 7
Mc@@ 7
McLaren-Mercedes 7
Mehdorn 7
Meine 7
Metro 7
Milliarden@@ 7
Minus 7
Mittelfeld 7
Mittelpunkt 7
Mode@@ 7
Mol@@ 7
Moment 7
Mor@@ 7
Mutter@@ 7
Nah@@ 7
Name 7
Nationen 7
Neuwahlen 7
Nichts 7
Niederlagen 7
Nokia 7
Oper@@ 7
Ordnung 7
Pan@@ 7
Pauli 7
Person 7
Ph@@ 7
Phänomen 7
Planeten 7
Podolski 7
Post@@ 7
Premiere 7
Prinz 7
Produkt 7
Profi 7
Protest 7
Protest@@ 7
R 7
Radi@@ 7
Reaktion 7
Regional@@ 7
Regionen 7
Religion 7
Rendite 7
Republik 7
Rest 7
Revolution 7
Roten 7
Ruhe 7
Rund@@ 7
Russen 7
Rückgang 7
San@@ 7
Schauspielerin 7
Schl@@ 7
Schlüssel 7
Schmi@@ 7
Schäden 7
Sech@@ 7
Seither 7
Sender 7
Show 7
Sil@@ 7
Skandal 7
Sonnen@@ 7
Sorgen 7
Spanier 7
Sprache 7
St. 7
Stahl@@ 7
Statt 7
Stein@@ 7
Steuern 7
Stimmen 7
Strei@@ 7
Streifen 7
Strom@@ 7
Studien@@ 7
Sturm 7
Tal@@ 7
Teile 7
Teilnehmer 7
Tiefe 7
Tier@@ 7
Tode 7
Toni 7
Torhüter 7
Toten 7
Tschechien 7
US-Dollar 7
Ulrich 7
Unfall 7
Universitäten 7
Unser 7
Unsicherheit 7
Vattenfall 7
Verb@@ 7
Verdi 7
Verdächtigen 7
Verein@@ 7
Vereinigung 7
Vereins@@ 7
Verfassung 7
Vergabe 7
Verluste 7
Verpflichtung 7
Vertrauen 7
Vol@@ 7
Vorbereitung 7
Vorfeld 7
Vorhaben 7
Vorjahres@@ 7
Vorsprung 7
Wach@@ 7
Waffen@@ 7
Wagen 7
Wann 7
Weihnachts@@ 7
Wien 7
Wind 7
Wind@@ 7
Winter 7
Wissen 7
Wohn@@ 7
Wohnung 7
World 7
Z 7
ZEIT 7
Ziele 7
Zone 7
Zugang 7
Zumindest 7
Zuvor 7
Zwangs@@ 7
Züge 7
acht@@ 7
akt 7
akzeptieren 7
al-@@ 7
amerikanischer 7
anstehenden 7
anz 7
arbeitet 7
are 7
article11@@ 7
aufgegeben 7
ausge@@ 7
ausschließlich 7
aut 7
außen 7
banken 7
barkeit 7
bau 7
befinden 7
begeistert 7
behauptet 7
bekam 7
bereich 7
bergen 7
bericht 7
berichten 7
bestimmte 7
bestätigen 7
bewertet 7
bisherige 7
bricht 7
buch@@ 7
chinesischen 7
damaligen 7
dar 7
darum 7
dauern 7
dauerte 7
des@@ 7
diejenigen 7
dienen 7
dienst@@ 7
dig 7
dige 7
dlich 7
dro@@ 7
durfte 7
ek@@ 7
els 7
entscheidet 7
entsprechenden 7
eres 7
erfolgreichen 7
erhält 7
erhöht 7
erlebt 7
erlitten 7
erreichte 7
erschossen 7
erzielt 7
essen 7
ett@@ 7
extrem 7
fach@@ 7
fehlt 7
feld 7
festgelegt 7
festgestellt 7
ff 7
finanziell 7
fort 7
frei@@ 7
fähig 7
för@@ 7
fünf@@ 7
galt 7
garantiert 7
gebiet 7
geblieben 7
gefahr 7
gefährdet 7
gegen@@ 7
gelaufen 7
genannten 7
gend 7
gerechnet 7
gerecht 7
geriet 7
geschichte 7
gestorben 7
gezeigt 7
geöffnet 7
gleichzeitig 7
griechischen 7
gruppen 7
gründen 7
gte 7
hafte 7
handeln 7
heftige 7
herr@@ 7
hinter@@ 7
hängen 7
ia 7
ingen 7
insbesondere 7
intensiv 7
interess@@ 7
investieren 7
jährigen 7
kleiner 7
ko 7
kom@@ 7
konservative 7
kontrolle 7
kosten@@ 7
kur@@ 7
kämpfen 7
kündigt 7
lerin 7
liefern 7
liert 7
ließen 7
linken 7
lobt 7
ls 7
me@@ 7
mehr@@ 7
meinte 7
mutmaßliche 7
nis@@ 7
ns 7
näher 7
offen@@ 7
organisieren 7
passieren 7
persönliche 7
pft 7
pielen 7
platz@@ 7
pläne 7
positiven 7
ppe 7
privaten 7
punkte 7
reagiert 7
rechtzeitig 7
rein 7
rief 7
ruft 7
ruhig 7
scheinbar 7
scheinen 7
schicken 7
schien 7
schlag 7
schlagen 7
schließen 7
scht 7
schte 7
schutz 7
schwerer 7
selber 7
sichere 7
sieg 7
soziale 7
sparen 7
spiel 7
spielten 7
spät 7
späten 7
spürbar 7
stabil 7
stein@@ 7
stiegen 7
stil@@ 7
straf@@ 7
straße 7
stärksten 7
teil 7
teilt 7
tert 7
teurer 7
tief 7
tigung 7
tik 7
tik@@ 7
to 7
tungen 7
umstrittenen 7
unten 7
unterscheiden 7
ursprünglich 7
ven 7
ver 7
verfolgt 7
verfügen 7
verhindert 7
verlangen 7
verliert 7
verschiedenen 7
verstärkt 7
versuchten 7
vertrag 7
vertreten 7
vorgelegt 7
vorgeworfen 7
vorher 7
vorsitzende 7
wahl 7
warnen 7
wichtiger 7
wichtigsten 7
wider@@ 7
wiederum 7
wonach 7
www.spiegel.de 7
wächst 7
wählen 7
z-@@ 7
zeichen 7
zerstört 7
zt 7
zug 7
zugänglich 7
zukommen 7
zweiter 7
zählen 7
Ärzten 7
ß 7
ären 7
übrigen 7
-Sprecher 6
-jährigen 6
.de 6
06 6
1,2 6
15. 6
150 6
1994 6
20.09.2007 6
21.11.2007 6
23.11.2007 6
23@@ 6
250 6
27. 6
27@@ 6
29.08.2007 6
3,3 6
3-@@ 6
30.000 6
30@@ 6
31 6
4,2 6
45@@ 6
50.000 6
58 6
64 6
69@@ 6
700 6
71 6
74 6
78 6
85@@ 6
9,@@ 6
A-@@ 6
Ab 6
Abitur 6
Absage 6
Abschied 6
Air 6
Ak@@ 6
Aktuell 6
Album 6
All 6
Allgemeinen 6
Allianz 6
Amerikanern 6
Amerikas 6
Amtszeit 6
Ankündigung 6
Anschläge 6
Anti-Doping-@@ 6
Anträge 6
Antworten 6
Anwohner 6
Arm 6
Arme 6
Armut 6
Artikel 6
At@@ 6
Aufmerksamkeit 6
Auslands@@ 6
Ausnahme 6
Ausnahmen 6
Australien 6
Auswertung 6
Auswärtsspiel 6
Aut@@ 6
Autobauer 6
Autoindustrie 6
BSC 6
Ba@@ 6
Ball@@ 6
Baum 6
Bayern-@@ 6
Befürchtungen 6
Bei@@ 6
Beine 6
Bekenntnis 6
Ben@@ 6
Berg@@ 6
Berichten 6
Beschäftigte 6
Besonders 6
Bet@@ 6
Bewohner 6
Bil@@ 6
Bilderserie 6
Bildmaterial 6
Bildung 6
Bob 6
Bor@@ 6
Boris 6
Botschaft 6
Brand 6
Briten 6
Buchmesse 6
Bundesländern 6
Bundesverband 6
Börsianer 6
Büros 6
CDU-@@ 6
Can@@ 6
Champions-League-@@ 6
Chaos 6
Charakter 6
Chinesen 6
Comeback 6
Cou@@ 6
DFB@@ 6
Darmstadt 6
Dauer 6
Dax 6
Dem@@ 6
Dennis 6
Diesel 6
Diplomaten 6
Dis@@ 6
Distanz 6
Doping 6
Doping@@ 6
Dram@@ 6
Dritten 6
Du 6
Durch@@ 6
Einheit 6
Einrichtungen 6
Einwohner 6
End@@ 6
Entdeckung 6
Ermittler 6
Ermittlungs@@ 6
Ess@@ 6
Euphorie 6
Europ@@ 6
FDP-@@ 6
Fahrzeuge 6
Fal@@ 6
Feld@@ 6
Fern@@ 6
Film@@ 6
Finanzbranche 6
Finger 6
Fischer 6
Fle@@ 6
Fleisch 6
Flo@@ 6
Fraktionsvorsitzende 6
Franck 6
Franzosen 6
Fre@@ 6
Freude 6
Freundschaft 6
Geb@@ 6
Gebühren 6
Gedanke 6
Geduld 6
Gefahren 6
Gegensatz 6
Gegenteil 6
Geheim@@ 6
Geheimnis 6
Gelegenheit 6
Gemein@@ 6
Georg 6
Gesamtjahr 6
Gesundheit 6
Gewinn@@ 6
Gore 6
Grenz@@ 6
Gro@@ 6
Grünen-@@ 6
Göttingen 6
Haf@@ 6
Halle 6
Handel 6
Hansa 6
He@@ 6
Heimspiel 6
Herbst 6
Herman 6
Herzen 6
Himmel 6
Hinweis 6
Hochschule 6
Hochschulen 6
Hochtief 6
Hum@@ 6
Hun@@ 6
Hän@@ 6
Härte 6
Häuser 6
Hör@@ 6
Ide@@ 6
Ihm 6
Ihren 6
Ingenieure 6
Initiative 6
Intern@@ 6
Islam 6
Islam@@ 6
Island 6
Istanbul 6
Jahresende 6
Jahrhunderts 6
Jan 6
Je@@ 6
Johannes 6
Jugendliche 6
Jung@@ 6
Jungen 6
Juristen 6
Jury 6
Kaczynski 6
Kader 6
Kaiser 6
Kampagne 6
Kapital 6
Katastrophe 6
Kenn@@ 6
Ki@@ 6
Kiel 6
Kin@@ 6
Kirch 6
Klima@@ 6
Kni@@ 6
Konflikt 6
Kontakte 6
Konto 6
Konzerns 6
Korruption 6
Kredite 6
Krisen@@ 6
König 6
Laden 6
Landesregierung 6
Landgericht 6
Lau@@ 6
Lei@@ 6
Leiche 6
Leit@@ 6
Leiter 6
Leyen 6
Lions 6
Liquidität 6
Luft@@ 6
Länderspiel 6
Ma@@ 6
Magazin 6
Mal@@ 6
Maria 6
Mario 6
Marketing@@ 6
Markus 6
Mass@@ 6
Mauer 6
Meist 6
Merrill 6
Mess@@ 6
Metro@@ 6
Mil@@ 6
Milbradt 6
Militär 6
Million 6
Mindest@@ 6
Ministerium 6
Ministerpräsidenten 6
Mitgliedern 6
Mode 6
Modell 6
Motiv 6
Mourinho 6
Mönche 6
Mühe 6
Münchener 6
NPD 6
Na 6
Nato 6
Naumann 6
Niederlande 6
Norwegen 6
Nu@@ 6
Nutzung 6
Obje@@ 6
Oliver 6
Onlin@@ 6
Ost 6
Ottmar 6
Otto 6
P 6
PKK 6
Pal@@ 6
Park@@ 6
Parlamentswahl 6
Parteitag 6
Parteitags@@ 6
Partnerschaft 6
Pause 6
Pe@@ 6
Personal 6
Personen@@ 6
Pilot 6
Plastik@@ 6
Platz@@ 6
Pocher 6
Politikern 6
Praxis 6
Problem@@ 6
Produkt@@ 6
Produktions@@ 6
Prognosen 6
Prozent@@ 6
Prüf@@ 6
Pu@@ 6
RWE 6
Rainer 6
Rande 6
Rang 6
Ras@@ 6
Rech@@ 6
Reformen 6
Regen@@ 6
Regie 6
Reihen 6
Reise@@ 6
Res@@ 6
Rettungs@@ 6
Revision 6
Rote 6
S. 6
SC 6
Sa@@ 6
Sach@@ 6
Sachen 6
Sachsen 6
Sammlung 6
Schalker 6
Schiedsrichter 6
Schiff 6
Schil@@ 6
Schlagzeilen 6
Schlussmann 6
Schn@@ 6
Schneider 6
Schwimmen 6
Sehr 6
Sel@@ 6
Senat 6
Serie 6
Shar@@ 6
Sie@@ 6
Sieg@@ 6
Ski@@ 6
Slomka 6
Software 6
Sol@@ 6
Sony 6
Sozi@@ 6
Spannung 6
Spieltag 6
Stadion 6
Stars 6
Stei@@ 6
Steinbrück 6
Stern 6
Stern@@ 6
Sti@@ 6
Stil 6
Streit@@ 6
Stu@@ 6
Sub@@ 6
Syrien 6
System 6
Sü@@ 6
Süden 6
Tabellen@@ 6
Tag@@ 6
Tages 6
Tat@@ 6
Tausende 6
Telefon@@ 6
Telekom@@ 6
Texte 6
Theater@@ 6
Titel@@ 6
Ton@@ 6
Touristen 6
Tra@@ 6
Truppen 6
Tränen 6
Tschechen 6
Ukraine 6
Umfang 6
Umwelt 6
Unglück 6
Uni 6
Unsere 6
Unternehmens 6
Verantwortlichen 6
Verbot 6
Verbrauch 6
Verfassungs@@ 6
Verkaufs@@ 6
Verkehr 6
Verlauf 6
Verletzung 6
Verletzungen 6
Versicherung 6
Verständnis 6
Veränderungen 6
VfL 6
Viel 6
Vier@@ 6
Voraussetzung 6
Vorstandschef 6
Vorstoß 6
Waffen 6
Wahlen 6
Wahlkampf@@ 6
Wald 6
Wall 6
Wall@@ 6
Weihnachten 6
Werke 6
Westeuropa 6
Wetter 6
Wies@@ 6
Win@@ 6
Winter@@ 6
Wirklichkeit 6
Wo 6
Wohl@@ 6
Wohnungs@@ 6
Wol@@ 6
Yen 6
Zehn@@ 6
Zentralbank 6
Zer@@ 6
Zi@@ 6
Zwei@@ 6
Zweiten 6
Zypries 6
abgelehnt 6
absol@@ 6
achten 6
ad 6
ade 6
afrikanischen 6
ag 6
ags 6
ahnen 6
ak 6
aktion 6
allenfalls 6
ance 6
angeb@@ 6
angebliche 6
angenommen 6
angeschlagen 6
ans@@ 6
anschauen 6
anschließend 6
ante 6
aren 6
article13@@ 6
asiatischen 6
ations@@ 6
atisch 6
atz 6
aufgefordert 6
ausdrücklich 6
ausführlich 6
ausgegangen 6
ausgerechnet 6
ausgesch@@ 6
ausgezeichnet 6
ausverkauften 6
ay 6
az@@ 6
bat 6
bau@@ 6
bedarf 6
befindet 6
befürchten 6
begleitet 6
behandelt 6
beobachtet 6
bereiten 6
bers 6
berühmten 6
beschlossen 6
beschuldigt 6
beschäftigt 6
besetzt 6
bestehe 6
bestehen 6
bestätigte 6
betont 6
betrachtet 6
betroffenen 6
billiger 6
brachten 6
brauche 6
breit 6
bundes@@ 6
bundesweit 6
ca 6
chs 6
cks 6
ckte 6
d-@@ 6
damalige 6
demnächst 6
demokratischen 6
denkt 6
der-@@ 6
deten 6
deutliche 6
dich 6
dien@@ 6
dienste 6
dig@@ 6
doppelt 6
dran 6
dre@@ 6
drehen 6
drehte 6
druck 6
dt 6
dungs@@ 6
dy 6
echte 6
ehen 6
eien 6
einzelnen 6
ek 6
empf@@ 6
empfangen 6
endes 6
endgültig 6
eng@@ 6
enter 6
entgegen@@ 6
entweder 6
entwicklung 6
enver@@ 6
erforderlich 6
erfüllen 6
erhielten 6
erhoben 6
erklärten 6
erobern 6
erst@@ 6
erzielte 6
ets 6
experten 6
fahr@@ 6
fel@@ 6
firma 6
fliegt 6
forscher 6
fortan 6
freien 6
freiheit 6
freuen 6
fähigkeit 6
ga 6
gebaut 6
gedacht 6
gegenseitig 6
geheim 6
geklärt 6
gekostet 6
gelang 6
gem 6
gemeint 6
gemeldet 6
genutzt 6
geprüft 6
geradezu 6
gere 6
geringer 6
gert 6
geschlagen 6
geschrieben 6
geschäfte 6
gesellschaften 6
gesetzlich 6
gesucht 6
getr@@ 6
getroffen 6
gezwungen 6
geäußert 6
ght 6
gkeit 6
grenze 6
größ@@ 6
günsti@@ 6
haber 6
haft 6
hand@@ 6
heimischen 6
hen 6
hersteller 6
historischen 6
hob 6
hol@@ 6
händler 6
hängt 6
häufiger 6
ide@@ 6
ig@@ 6
inger 6
innen 6
ino 6
interessant 6
irakischen 6
isch@@ 6
ise 6
jahr 6
k-@@ 6
kan@@ 6
kehrt 6
keinem 6
ki@@ 6
klagte 6
klasse 6
km 6
kommende 6
konferenz 6
kreisen 6
kriegen 6
krise 6
kritisieren 6
ks@@ 6
ktive 6
kurzem 6
kurzfristig 6
la@@ 6
langer 6
lauf@@ 6
laufende 6
laufenden 6
lers 6
live 6
locken 6
lt 6
lungen 6
län@@ 6
markt@@ 6
maschine 6
nahezu 6
nationalen 6
nde 6
nern 6
nt 6
offene 6
ologen 6
ologischen 6
online 6
ons 6
partei 6
persönlichen 6
politischer 6
produktion 6
produziert 6
prozess 6
ps 6
psych@@ 6
r 6
raten 6
raum 6
reiche 6
reine 6
reisen 6
rote 6
runde 6
sage 6
same 6
sch 6
schaf@@ 6
schaft 6
schauen 6
schef 6
schlechte 6
schlechten 6
schließt 6
schlug 6
schläge 6
schn@@ 6
schuldig 6
schule 6
schutz@@ 6
schwachen 6
schön 6
sen 6
sender 6
ses 6
sicht 6
situation 6
son 6
sozialen 6
spar@@ 6
sprachen 6
stammt 6
stand@@ 6
stehende 6
steigende 6
stücke 6
stünden 6
tausend 6
technik 6
teile 6
teren 6
teten 6
ton 6
trug 6
träger 6
träumen 6
türkische 6
umgekehrt 6
unbe@@ 6
ungewöhnlich 6
veranstaltung 6
verbot 6
verboten 6
verbringen 6
verbände 6
vereinbarten 6
verfolgen 6
verhandelt 6
verkaufen 6
verletzten 6
verlängert 6
verschafft 6
versorgung 6
verst@@ 6
verteidigen 6
vertrauen 6
vertreter 6
verw@@ 6
veröffentlichten 6
vieler 6
volle 6
vollen 6
voraus@@ 6
wahr 6
wal@@ 6
wechsel 6
weisen 6
weist 6
welt@@ 6
werfen 6
werks 6
westlichen 6
wichtigen 6
win@@ 6
wisse 6
zahl 6
zeigten 6
zeit@@ 6
zen@@ 6
zentrale 6
zige 6
zone 6
zunehmen 6
zz@@ 6
Ölpreis 6
Übernahme@@ 6
ähnlichen 6
östlichen 6
-Sieg 5
-Trainer 5
.10.2007 5
.30 5
0,7 5
0-@@ 5
00.html 5
1,1 5
1,4@@ 5
1,6 5
10.000 5
11.10.2007 5
13,@@ 5
14.10.2007 5
16.11.2007 5
17,@@ 5
17.09.2007 5
18.09.2007 5
2012 5
23,@@ 5
25@@ 5
29,@@ 5
31. 5
4,@@ 5
41 5
44@@ 5
5. 5
51 5
59 5
6,@@ 5
63 5
66 5
68 5
8,@@ 5
800 5
80@@ 5
89@@ 5
91 5
98,@@ 5
ALG 5
AS@@ 5
Aachen 5
Abteilung 5
Abwehr@@ 5
Ach@@ 5
Agrar@@ 5
Airlines 5
Akademie 5
Aktienmarkt 5
Aktionen 5
Aktionäre 5
Al 5
Allein@@ 5
Alte 5
Alten 5
Altkanzler 5
American 5
Analyse 5
Andrea 5
Andrew 5
Angelegenheit 5
Angreifer 5
Anleihen 5
Anschließend 5
Ansehen 5
Anteile 5
Anzeigen@@ 5
Ap@@ 5
Apple 5
Arbeitskampf 5
Armen 5
Asi@@ 5
Aufgrund 5
Aufsehen 5
Aufsteiger 5
Ausgaben 5
Ausmaß 5
Ausstand 5
Ausstoß 5
Autobahn 5
Autom@@ 5
Außenpolitik 5
B-@@ 5
BBC 5
Bade@@ 5
Baden-Württemberg 5
Barrel 5
Bauern 5
Baum@@ 5
Bedingungen 5
Beh@@ 5
Behörde 5
Behörden@@ 5
Beitrag 5
Belgien 5
Ben 5
Beobachter 5
Bereitschaft 5
Berlin@@ 5
Bernotat 5
Besch@@ 5
Bestand 5
Betreuungsgeld 5
Betriebs@@ 5
Betriebsrat 5
Bett 5
Bettini 5
Bewegung 5
Bewertung 5
Bewertungs@@ 5
Beziehung 5
Bezirk 5
Bezugsdauer 5
Bier@@ 5
Birma 5
Bl@@ 5
Blackwater 5
Bod@@ 5
Bol@@ 5
Bombe 5
Brasilianer 5
Brasilien 5
Bre@@ 5
British 5
Brown 5
Bundeswehr@@ 5
Bushs 5
Böh@@ 5
Börsengang 5
Büchern 5
Bütikofer 5
CD 5
CD@@ 5
Chris 5
Christiane 5
Clemens 5
Clubs 5
Co. 5
Con@@ 5
Cottbus 5
Coup 5
Cr@@ 5
DE@@ 5
DEL 5
Dalai 5
Dam@@ 5
Dan@@ 5
Darstellung 5
Daten@@ 5
Dau@@ 5
Daum 5
Demnach 5
Des@@ 5
Design 5
Det@@ 5
Dick 5
Diego 5
Dienstagabend 5
Dieses 5
Dimension 5
Dingen 5
Direkt@@ 5
Direktor 5
Diskussionen 5
Dom@@ 5
Dor@@ 5
Dr@@ 5
Dre@@ 5
Dresden 5
Dresdner 5
Dritter 5
Dro@@ 5
Drogen@@ 5
Düsseldorf 5
E-@@ 5
EM-@@ 5
EM-Qualifikationsspiel 5
EM@@ 5
Eh@@ 5
Ehemann 5
Ehre 5
Eigen@@ 5
Eigentümer 5
Eindruck 5
Eintracht 5
Eis 5
Elisabeth 5
Emissionen 5
Entschuldigung 5
Erd@@ 5
Erdogan 5
Erfüllung 5
Erlöse 5
Erreichen 5
Ersten 5
Eva 5
Exil 5
Existenz 5
Explosion 5
Extremisten 5
F.A.Z. 5
Fachleute 5
Fahrt 5
Far@@ 5
Favorit 5
Fazit 5
Fe@@ 5
Fehl@@ 5
Fi@@ 5
Fil@@ 5
Films 5
Finanzen 5
Finanzinvestoren 5
Finger@@ 5
Firmen@@ 5
Flugzeug@@ 5
Fokus 5
Forschungs@@ 5
Fortsetzung 5
Fraktions@@ 5
Francisco 5
Freiburger 5
Freistoß 5
Fu@@ 5
Fun@@ 5
Fund@@ 5
Fußball-Bundesliga 5
Fußballs 5
Förder@@ 5
Für@@ 5
Geheimdienst 5
Gelände 5
Generalsekretär 5
Gerechtigkeit 5
Gerichts@@ 5
Geschenke 5
Geschichten 5
Geschmack 5
Geschäftsjahr 5
Gesetze 5
Gesetzes 5
Gl@@ 5
Glas 5
Glasgow 5
Glos 5
GmbH 5
Gottes 5
Gri@@ 5
Group 5
Großteil 5
Grundlage 5
Grundversorgung 5
Größenordnung 5
Gründe 5
Guido 5
Gutes 5
Gül 5
Günter 5
HSV 5
Ha@@ 5
Haben 5
Han@@ 5
Handeln 5
Hans 5
Hartmut 5
Hau@@ 5
Herausforderung 5
Herren 5
Heu@@ 5
Hinweise 5
Hollywood 5
Holz@@ 5
Hongkong 5
Hor@@ 5
Hut 5
Hy@@ 5
Hände 5
Händen 5
IG 5
II 5
IT-@@ 5
Ideen 5
Identität 5
Indi@@ 5
Informations@@ 5
Instituts 5
Inszenierung 5
Interess@@ 5
Internationalen 5
Islamabad 5
J. 5
Jagd 5
Joe 5
Junge 5
Justiz 5
Jörg 5
Jün@@ 5
K 5
KSC 5
Kabul 5
Kamp@@ 5
Kan@@ 5
Kanzler@@ 5
Kap@@ 5
Kari@@ 5
Karin 5
Karte 5
Kartellamt 5
Keeper 5
Keller 5
Kießling 5
Kim 5
Klar 5
Kli@@ 5
Kohl@@ 5
Kom@@ 5
Konferenz 5
Konkurrenz@@ 5
Konservativen 5
Kontakt 5
Konzentration 5
Korrektur 5
Kreis@@ 5
Krone 5
Kul@@ 5
Künftig 5
Künst@@ 5
Lafontaine 5
Lama 5
Lastwagen 5
Lebensmittel@@ 5
Lebensmitteln 5
Leitartikel 5
Lern@@ 5
Lesen 5
Lessing 5
Liebes@@ 5
Liefer@@ 5
Lob 5
Loch 5
Lokführergewerkschaft 5
Läden 5
Länderspiel@@ 5
Lü@@ 5
Mach@@ 5
Macht@@ 5
Mag@@ 5
Mainzer 5
Manchester 5
Mannschaften 5
Market@@ 5
Marktteilnehmer 5
Mars 5
Maschinen@@ 5
Masse 5
Maße 5
McLaren-@@ 5
Meer 5
Meinungs@@ 5
Meisner 5
Meisters 5
Men@@ 5
Menschen@@ 5
Menschenrechte 5
Mexiko 5
Migranten 5
Milliarde 5
Millionen@@ 5
Minister@@ 5
Mirko 5
Mis@@ 5
Mittelfeldspieler 5
Mobil@@ 5
Modell@@ 5
Mord 5
Motor 5
Motor@@ 5
Muss 5
Märkten 5
Mü@@ 5
Nahverkehr 5
Ne@@ 5
Neben@@ 5
Nieder@@ 5
Nordirak 5
Notenbank 5
Nutz@@ 5
Obersten 5
Op@@ 5
Oper 5
Oppositionsführer 5
Organisationen 5
Organisatoren 5
Paar 5
Parlamentarische 5
Party 5
Philipp 5
Piloten 5
Piräus 5
Plattform 5
Plötzlich 5
Pol@@ 5
Polizist 5
Porträt 5
Presse@@ 5
Pressekonferenz 5
Psychologen 5
Quadratmeter 5
RTL 5
Raub@@ 5
Rechnung 5
Rechts 5
Refer@@ 5
Regelung 5
Regen 5
Regierungschefin 5
Reis@@ 5
Rekordmeister 5
Ren@@ 5
Rensing 5
Rente 5
Republikaner 5
Rest@@ 5
Rhein@@ 5
Risiken 5
Rivalen 5
Rob@@ 5
Rock 5
Rohstoffe 5
Rot@@ 5
Rudolf 5
Ruf 5
Röttgen 5
Rückstand 5
Rückzug 5
SAP 5
Sam@@ 5
Sand@@ 5
Santa 5
Schanghai 5
Schau@@ 5
Schein@@ 5
Schlüssel@@ 5
Schock 5
Schreiben 5
Schulden 5
Schumacher 5
Schwarze 5
Schwarzenegger 5
Schwer@@ 5
Schön@@ 5
Scott 5
Seit@@ 5
Seitdem 5
Ser@@ 5
Serbien 5
Service 5
Sex 5
Signal 5
Silvia 5
Sind 5
Sink@@ 5
Sk@@ 5
Slowakei 5
Sozialdemokraten 5
Sozialismus 5
Sparte 5
Spitzenreiter 5
Spr@@ 5
Sprach@@ 5
Sprin@@ 5
Staats- 5
Stab@@ 5
Stad@@ 5
Stadtwerke 5
Standard@@ 5
Start@@ 5
Stat@@ 5
Stein 5
Stellung 5
Steuer 5
Steven 5
Stevens 5
Stich@@ 5
Stoibers 5
Strafe 5
Straß@@ 5
Strom 5
Studien 5
Sturm@@ 5
Summen 5
System@@ 5
Südafrika 5
T 5
TV-@@ 5
Tabellen-@@ 5
Tages@@ 5
Tatsächlich 5
Teamchef 5
Technologie 5
Telefon 5
Terrain 5
Test@@ 5
Tests 5
Tier 5
Tim 5
Timo 5
Titelverteidiger 5
Todes@@ 5
Top@@ 5
Torsten 5
Torwart 5
Tottenham 5
Toyota 5
Trainer@@ 5
Transnet 5
Trikot 5
Tro@@ 5
Turbulenzen 5
Turm 5
Türken 5
UN@@ 5
US@@ 5
Ul@@ 5
Ullrich 5
Umgebung 5
Umsatz@@ 5
Umständen 5
Unis 5
Unternehmen@@ 5
Veranstaltung 5
Vereinbarung 5
Vereins 5
Vereinten 5
Vergewaltigung 5
Verkehrsminister 5
Verleger 5
Versicherer 5
Version 5
Vertragsverlängerung 5
Vertriebs@@ 5
Verträge 5
Vide@@ 5
Video@@ 5
Viertel 5
Vizepräsident 5
Vogt 5
Vorbild 5
Vorfall 5
Vorgaben 5
Vorlage 5
Vorschriften 5
Vorsitzender 5
Vorteil 5
Vorwurf 5
Waff@@ 5
Wagner 5
Warnungen 5
Web@@ 5
Weihnachtsgeschäft 5
Welle 5
Weltrekord 5
Wen 5
Wertpapiere 5
Wichtig 5
Wieder 5
Wiener 5
Wähler 5
Zauber@@ 5
Zeitschrift 5
Zeitungen 5
Zellen 5
Zinsen 5
Zivilisten 5
Zoo@@ 5
Zähler 5
abel 5
abend 5
abgegeben 5
abl@@ 5
ach 5
ack@@ 5
aden 5
ai 5
akten 5
aktien 5
alar@@ 5
alität 5
alleine 5
allgemein 5
ame 5
amt 5
ana 5
ang 5
anges@@ 5
anischen 5
anne 5
ap 5
arbeit 5
arbeits@@ 5
ard 5
ari@@ 5
assen 5
attackiert 5
auer 5
aufeinander 5
auff@@ 5
aufgebaut 5
aufgestellt 5
ausgaben 5
ausgebaut 5
ausgehen 5
ausgestellt 5
ausländische 5
ausländischen 5
ausschuss 5
aussieht 5
australischen 5
ba 5
bahn 5
ball 5
ban@@ 5
bedeuten 5
beenden 5
befragten 5
begrenzen 5
behandeln 5
beider 5
beides 5
bemüht 5
bereit@@ 5
berücksichtigt 5
beschreibt 5
besitzt 5
besonderen 5
besseren 5
bestens 5
besucht 5
bet@@ 5
beteiligten 5
betreiben 5
bewaffneten 5
bewerten 5
bewährt 5
bezahlt 5
big 5
bilden 5
bleibe 5
bloß 5
bra@@ 5
brach 5
bri@@ 5
brü@@ 5
bs 5
buch 5
bungen 5
ce 5
ce-@@ 5
chtung 5
ckten 5
dan@@ 5
dau@@ 5
dauerhaft 5
decken 5
demonstr@@ 5
dene 5
derung 5
desto 5
det@@ 5
deutsch@@ 5
dienstleister 5
digitalen 5
digte 5
direkte 5
diskutiert 5
dominiert 5
draußen 5
drohten 5
drängt 5
drückte 5
durchschnittlich 5
durchschnittlichen 5
durchzusetzen 5
ec@@ 5
ed 5
ed@@ 5
ef@@ 5
egal 5
ehre 5
eigenes 5
einander 5
eineinhalb 5
eingreifen 5
einiges 5
einlegen 5
einsetzen 5
eis@@ 5
eite 5
ekten 5
ence 5
endet 5
englische 5
enormen 5
entlang 5
entlassen 5
entlich 5
entsprechende 5
entspricht 5
entstanden 5
entwurf 5
enz 5
erfasst 5
erfolgreichste 5
erhöhen 5
erinnern 5
erkennbar 5
erlitt 5
ermittelt 5
ermöglichen 5
ernsthaft 5
ersch@@ 5
erwarte 5
eröffnen 5
eröffnet 5
esische 5
etlichen 5
euerte 5
ewigen 5
fachen 5
fahrt 5
famili@@ 5
feiert 5
fen@@ 5
fertig 5
fester 5
fielen 5
figur 5
finanziert 5
firmen 5
folgenden 5
frage 5
frie@@ 5
fs 5
fte 5
ften 5
fuhr 5
fun@@ 5
funktion@@ 5
funktionieren 5
fünften 5
gebunden 5
gefahren 5
gefasst 5
gefährlich 5
gegenwärtig 5
gehabt 5
gehende 5
gehörte 5
gehörten 5
gelegen 5
gelegenen 5
gelingen 5
gelöst 5
gemein@@ 5
gemeinsames 5
genauer 5
gende 5
gering 5
gerung 5
geschätzten 5
gesenkt 5
gesichert 5
gesorgt 5
gestanden 5
gestärkt 5
get@@ 5
getrennt 5
getreten 5
gewaltigen 5
gewinn 5
geworfen 5
gewünscht 5
geändert 5
gliche 5
glücklich 5
groß@@ 5
gste 5
guter 5
gäbe 5
handlung 5
hart 5
harten 5
he 5
heim 5
heim@@ 5
heimlich 5
heits@@ 5
hier@@ 5
hilft 5
hinten 5
historische 5
hohem 5
holt 5
holte 5
how 5
höheren 5
hü@@ 5
ic 5
ierungs@@ 5
ige 5
ik 5
in-@@ 5
inen 5
infrage 5
ini 5
inn@@ 5
investiert 5
israelischen 5
isti@@ 5
istischen 5
italienischen 5
jahr@@ 5
jenem 5
jener 5
jetzigen 5
jüngere 5
kalt 5
kap@@ 5
kassierte 5
kauf@@ 5
keinerlei 5
kel 5
ken@@ 5
ker@@ 5
kinder 5
klaren 5
klares 5
klassische 5
kli@@ 5
klingen 5
klären 5
komme 5
kontrolliert 5
konzerns 5
korrigieren 5
kost@@ 5
kräfte 5
kräftigen 5
ks 5
ktions@@ 5
kul@@ 5
kultur 5
kulturellen 5
kurze 5
kurzer 5
kämpfe 5
kämpft 5
kö@@ 5
kümmern 5
künftige 5
künftigen 5
künst@@ 5
laden 5
landes@@ 5
landete 5
langfristig 5
lauter 5
lebens@@ 5
lehnt 5
leistungen 5
leistungs@@ 5
leiter 5
les 5
lesen 5
liberalen 5
licht 5
lieben 5
lieren 5
ligen 5
liste 5
lle 5
lobte 5
loh@@ 5
lohnt 5
los@@ 5
lung 5
länder 5
ma 5
mag@@ 5
mahnte 5
mal@@ 5
malt 5
management 5
manchem 5
manches 5
manchmal 5
mann@@ 5
marke 5
markts 5
maß@@ 5
melden 5
met@@ 5
ministeriums 5
minus 5
miss@@ 5
missbraucht 5
mitarbeiter 5
mitglied 5
mitglieder 5
mittel 5
mittel@@ 5
moder@@ 5
moderne 5
modernen 5
mor@@ 5
mu@@ 5
mächtig 5
mäßig 5
möglicher 5
möglichkeiten 5
mü@@ 5
n-@@ 5
nachts 5
nah 5
nahmen 5
nam@@ 5
namens 5
nehme 5
ner@@ 5
nett 5
niederländischen 5
not@@ 5
nten 5
nungen 5
nötig 5
oberen 5
offenen 5
ok@@ 5
operiert 5
organisationen 5
organisierten 5
ow 5
pauschale 5
pfer@@ 5
plan 5
privater 5
problem 5
produ@@ 5
quote 5
raus 5
reagierten 5
rechnete 5
rechts@@ 5
regiert 5
reichte 5
religiöse 5
rennen 5
rie@@ 5
roten 5
rtr 5
s. 5
sal@@ 5
sam 5
samen 5
sammeln 5
san@@ 5
schaften 5
schafts@@ 5
sche 5
scher 5
schi@@ 5
schlimmer 5
schmer@@ 5
schten 5
schub 5
schwei@@ 5
schützt 5
sechziger 5
see 5
seh@@ 5
seite 5
serie 5
si 5
sicher@@ 5
sichern 5
siebten 5
siebziger 5
siehe 5
solcher 5
solches 5
somit 5
son@@ 5
sowieso 5
sozial 5
sportlichen 5
springen 5
spüren 5
sse 5
stabil@@ 5
stands 5
starb 5
starkes 5
start 5
stat@@ 5
steigenden 5
stelle 5
stellung 5
stoff 5
stoff@@ 5
städtischen 5
stände 5
stärken 5
stür@@ 5
sätze 5
t.html 5
ta 5
tau@@ 5
tausende 5
teil@@ 5
teils 5
teilten 5
tem 5
tene 5
teure 5
ti 5
tief@@ 5
tiges 5
tigte 5
tions@@ 5
to@@ 5
trafen 5
trennen 5
tt@@ 5
täglichen 5
tätig 5
tö@@ 5
unbeeindruckt 5
unbekannt 5
unde 5
under@@ 5
une 5
ungefähr 5
ungs- 5
unterschiedliche 5
unterschiedlichen 5
v 5
verbote 5
verbreitet 5
verbunden 5
verein@@ 5
vergeben 5
vergessen 5
verhalten 5
verkehr 5
verkündet 5
verlegen 5
verlieren 5
verlässt 5
vermitteln 5
verringern 5
verschaffen 5
verschärft 5
versicherung 5
verspricht 5
verstanden 5
verteidigt 5
verteidigte 5
verteilt 5
vertraut 5
vertretern 5
verursacht 5
verurteilte 5
verweigert 5
verändern 5
verändert 5
veränderten 5
via 5
viel@@ 5
vierte 5
vollständig 5
voran 5
voran@@ 5
voraussichtlich 5
vorbereitet 5
vorlegen 5
vorne 5
vorsichtig 5
vorstand 5
w 5
wachsender 5
wahnsinnig 5
wahr@@ 5
wahren 5
wald 5
wann 5
warm 5
wartet 5
wechseln 5
weiße 5
weißen 5
welchen 5
weltgrößte 5
weltweite 5
weltweiten 5
wenigstens 5
werben 5
werke 5
weshalb 5
west@@ 5
wiederholen 5
wilden 5
wirtschaftlich 5
wirtschaftliche 5
womöglich 5
wort 5
zehnte 5
zentralen 5
zentren 5
zer 5
ziert 5
zigen 5
zitiert 5
zogen 5
zuerst 5
zugenommen 5
zul@@ 5
zurückkehren 5
zuständig 5
zuständige 5
zuversichtlich 5
zuzu@@ 5
zw@@ 5
zweifel@@ 5
zweit@@ 5
zwingen 5
Äußerung 5
Öko@@ 5
Übernahmen 5
Überschuss 5
ähnliche 5
überall 5
übergeben 5
überlassen 5
übernahmen 5
übersch@@ 5
überzeugt 5
üblich 5
üblichen 5
übrig 5
übrigens 5
üche 5
üm@@ 5
,5 4
-F@@ 4
-J@@ 4
-Präsident 4
-Spiel 4
-Zeitung 4
.00 4
.09.2007 4
.11.2007 4
.com 4
02.09.2007 4
05.09.2007 4
1-@@ 4
11,@@ 4
124@@ 4
13.09.2007 4
14.09.2007 4
14.11.2007 4
15.000 4
15.11.2007 4
1966 4
1970 4
1977 4
1987 4
1991 4
1993 4
1997 4
2,3 4
3,7 4
34. 4
3500 4
4,5 4
460 4
46@@ 4
47@@ 4
53. 4
6.html 4
6000 4
7,5 4
750 4
77 4
82 4
84 4
88 4
AB@@ 4
AC 4
AKP 4
Abbau 4
Abdullah 4
Abgang 4
Abgeltungssteuer 4
Abgeordneten 4
Abl@@ 4
Ablehnung 4
Abschuss 4
Absicherung 4
Abstimmung 4
Absturz 4
Achim 4
Affäre 4
Afghanen 4
Ah@@ 4
Ahmadinedschad 4
Akten 4
Aktien@@ 4
Aktienkurs 4
Aktivisten 4
Aktivitäten 4
Al-@@ 4
Ali 4
Alpen@@ 4
Alternative 4
Amts@@ 4
Analy@@ 4
Andr@@ 4
Andrej 4
Anfrage 4
Angebote 4
Angehörigen 4
Angesichts 4
Anja 4
Anklag@@ 4
Anlagen 4
Anlass 4
Anschlags@@ 4
Anschlägen 4
Anstrengung 4
Antonio 4
Anzeichen 4
Arbeit@@ 4
Arbeitgeberverband 4
Arbeitsmarkt 4
Arbeitsminister 4
Arbeitsplatz 4
Attacke 4
Aufbau 4
Auflage 4
Auflösung 4
Aufnahme 4
Auftakt 4
Auftritte 4
Aufwand 4
Augenblick 4
Augsburg 4
Ausbildungs@@ 4
Ausdruck 4
Ausgang 4
Ausgangs@@ 4
Ausstattung 4
Aust 4
Austausch 4
Ausweis 4
Ausweitung 4
Auswärtigen 4
Autob@@ 4
Autobahn@@ 4
Autofahrer 4
Autohersteller 4
Auß@@ 4
Av@@ 4
Ay@@ 4
B. 4
BA 4
Bab@@ 4
Bag@@ 4
Bahnstreik 4
Bai@@ 4
Bali 4
Band@@ 4
Bangkok 4
Bar 4
Bas@@ 4
Bastian 4
Bauermann 4
Bauern@@ 4
Beamten@@ 4
Beck@@ 4
Bedarf 4
Befragten 4
Begeisterung 4
Behandlung 4
Beinah@@ 4
Beis@@ 4
Beitrags@@ 4
Bekann@@ 4
Bemerkung 4
Benzin@@ 4
Beratungen 4
Berei@@ 4
Berichte 4
Berlin-@@ 4
Beruf@@ 4
Beschluss 4
Beschwerde 4
Besitz 4
Besser@@ 4
Bestandteil 4
Besucher@@ 4
Beteiligungsgesellschaft 4
Betr@@ 4
Betrag 4
Beweise 4
Bezeichnung 4
Bezugs@@ 4
Bilder@@ 4
Bildern 4
Bio@@ 4
Bir@@ 4
Bit@@ 4
Blau@@ 4
Blo@@ 4
Boeing 4
Bohlen 4
Bon@@ 4
Boston 4
Branchen 4
Brandenburg 4
Brem@@ 4
Brot 4
Bru@@ 4
Bul@@ 4
Bundesagentur 4
Bundesbank 4
Bundeskanzler 4
Bundeslig@@ 4
Bundesligist 4
Bundesverfassungsgericht 4
Bürgern 4
C 4
Cam@@ 4
Cambridge 4
Cap@@ 4
Cardiff 4
Carl 4
Carlos 4
Catterfeld 4
Cel@@ 4
Charlotte 4
Che@@ 4
Chefs 4
Chin@@ 4
Chávez 4
Ci@@ 4
City 4
Cl@@ 4
Clar@@ 4
Co 4
Cu@@ 4
Cup 4
DB 4
DB@@ 4
DFL 4
DR@@ 4
Da@@ 4
Dach@@ 4
Dachverband 4
Daimler 4
Darfur 4
Darlehen 4
Darstellungen 4
Dat@@ 4
Dauer@@ 4
De 4
Dek@@ 4
Delegierten 4
Demonstration 4
Denk@@ 4
Denken 4
Depot 4
Dessen 4
Deswegen 4
Deutschland@@ 4
Dial@@ 4
Diana 4
Dida 4
Diktator 4
Doping-@@ 4
Doris 4
Dortm@@ 4
Dortmund 4
Dossier 4
Dänemark 4
Düsseldorfer 4
E-Mail 4
EU-Staaten 4
Edel@@ 4
Edmund 4
Eff@@ 4
Einkommens@@ 4
Einrichtung 4
Einsteigen 4
Einsätze 4
Einzug 4
Eisen@@ 4
Emotionen 4
EnBW 4
Englands 4
Ents@@ 4
Enttäuschung 4
Entwick@@ 4
Erb@@ 4
Erdbeben 4
Erfahrungen 4
Erfolgs@@ 4
Erfolgsgeschichte 4
Erinnerungen 4
Ermordung 4
Ernte 4
Ersatz@@ 4
Erst@@ 4
Erster 4
Erwachsen@@ 4
Eröffnung 4
Ev@@ 4
Ex-Mann 4
Facebook 4
Faden 4
Fahrern 4
Famili@@ 4
Farben 4
Fed 4
Fenster 4
Festnahme 4
Feuilleton 4
Filmen 4
Finanzierungs@@ 4
Finanzmarkt 4
Finanzministeriums 4
Fischer@@ 4
Fischers 4
Florian 4
Florida 4
Flug 4
Flughaf@@ 4
Flughäfen 4
Fläche 4
Formel-1-@@ 4
Fort@@ 4
Fortschritt 4
Fotografen 4
Foulelfmeter 4
Franken 4
Frauenfußball 4
Freiheits@@ 4
Freit@@ 4
Frieden@@ 4
Friedrich 4
Frist 4
Front 4
Frust 4
Früher 4
Funktionäre 4
Fußballer 4
Füchse 4
Führ@@ 4
Führer 4
Führungskräfte 4
Fünfte 4
GDBA 4
Gabriele 4
Gal@@ 4
Gar@@ 4
Gast 4
Gaz@@ 4
Gazprom 4
Gebot 4
Geburt 4
Gef@@ 4
Gefühle 4
Gegenzug 4
Gegenüber 4
Geht 4
Gei@@ 4
Geisel@@ 4
Gelder 4
Geldstrafe 4
Gene 4
Gener@@ 4
General 4
Geplant 4
German@@ 4
Geschlechter 4
Geschwindigkeit 4
Geschäftsführerin 4
Geschäftsführung 4
Gesetzen 4
Gesetzentwurf 4
Gest@@ 4
Gesundheits@@ 4
Get@@ 4
Gewal@@ 4
Giuliani 4
Glas@@ 4
Glauben 4
Gleich 4
Gomez 4
Gor@@ 4
Gott@@ 4
Grab@@ 4
Gramm 4
Gre@@ 4
Gren@@ 4
Grundgesetz 4
Grupp@@ 4
Gründen 4
Gute 4
Gü@@ 4
HHLA 4
HSV-@@ 4
Haar 4
Habermas 4
Hafen@@ 4
Haftbefehl 4
Hag@@ 4
Hamilton 4
Handy-@@ 4
Hart@@ 4
Haushalte 4
Haushalts@@ 4
Heck@@ 4
Heil 4
Hektar 4
Helmes 4
Henry 4
Herausforderungen 4
Herbert 4
Hermann 4
Herrschaft 4
Hi@@ 4
Hindukusch 4
Hinter@@ 4
Hir@@ 4
Hirn@@ 4
Hit@@ 4
Hitler 4
Hochschul@@ 4
Hochzeit 4
Hoffnungen 4
Hoh@@ 4
Holding 4
Hon@@ 4
Hotel@@ 4
Hubertus 4
Hund 4
Hä@@ 4
IT 4
IT@@ 4
Ihrer 4
Industrie@@ 4
Inform@@ 4
Infrastruktur 4
Inhalt 4
Innenministerium 4
Inneren 4
Institute 4
Institutionen 4
Inter 4
Internationale 4
Interviews 4
Investmentbank 4
Ir@@ 4
Irgend@@ 4
Jac@@ 4
Jagd@@ 4
Jahr@@ 4
Jahres-@@ 4
Jahrzehnts 4
Jansen 4
Jel@@ 4
Journal 4
Journalistin 4
Juan 4
Jun@@ 4
Jurist 4
KS@@ 4
Ka@@ 4
Kaffe@@ 4
Kalkül 4
Kanadier 4
Kardinal 4
Karen 4
Karten 4
Kas@@ 4
Kaum 4
Keiner 4
Kessler 4
Kiefer 4
Kiew 4
Kilogramm 4
Kinos 4
Kir@@ 4
Kirchen@@ 4
Klass@@ 4
Kleidung 4
Kleinen 4
Koalitionsausschuss 4
Komponenten 4
Konz@@ 4
Kop@@ 4
Kosovo 4
Kost@@ 4
Kosten@@ 4
Kraft@@ 4
Kraftwerk 4
Krankheiten 4
Kreise 4
Kreuz@@ 4
Krie@@ 4
Kriterien 4
Kron@@ 4
Kunden@@ 4
Kundschaft 4
Kurs-Gewinn-Verhältnis 4
Kämpfer 4
Kürz@@ 4
L-@@ 4
Lach@@ 4
Lade@@ 4
Lady 4
Lam@@ 4
Landesbank 4
Landsleute 4
Last 4
Lauf@@ 4
Lazio 4
Leb@@ 4
Leicht@@ 4
Leichtathletik 4
Leider 4
Leistungs@@ 4
Len@@ 4
Leu@@ 4
Liber@@ 4
Lie@@ 4
Lissabon 4
Lit@@ 4
Litauen 4
Log@@ 4
Logistik 4
Lucas 4
Lust 4
Lö@@ 4
MS@@ 4
MSV 4
MTV 4
Mafia 4
Main@@ 4
Mann@@ 4
Mannschafts@@ 4
Mark@@ 4
Marketing 4
Marktes 4
Maschinen 4
Max 4
Maß 4
McCann 4
Medi@@ 4
Medienberichten 4
Medikamente 4
Meer@@ 4
Mehr@@ 4
Mel@@ 4
Mer@@ 4
Mercedes 4
Merkels 4
Mertesacker 4
Messer 4
Metall 4
Metropolen 4
Mie@@ 4
Mikrofone 4
Milch 4
Milch@@ 4
Militärjunta 4
Million@@ 4
Minder@@ 4
Mindestens 4
Mir 4
Misstrauen 4
Mittag 4
Mitteilung 4
Mitteln 4
Mitternacht 4
Mord@@ 4
Mordes 4
Moschee 4
Mr. 4
Mund 4
Mus@@ 4
Musharrafs 4
Muster@@ 4
Mut 4
Mär@@ 4
Münster 4
NDR 4
Na@@ 4
Nachholbedarf 4
Nachrichten@@ 4
Nad@@ 4
Nation 4
Nationalsozialismus 4
Navig@@ 4
Nervosität 4
Neu 4
Neuseeland 4
Niedersachsen 4
Nordkorea 4
Nordpol 4
Northern 4
Norwe@@ 4
Not 4
Noti@@ 4
Notstand 4
Notwendigkeit 4
Nr. 4
Nuklear@@ 4
Nürnberger 4
Oberfläche 4
Obwohl 4
Offen 4
Offensive 4
Onkel 4
Online 4
Open 4
Optimismus 4
Ostdeutschland 4
Osteuropa 4
Owen 4
P-@@ 4
PPP 4
PS 4
Pakistans 4
Panik 4
Pap@@ 4
Pariser 4
Parks 4
Parlamentswahlen 4
Passagiere 4
Pat@@ 4
Pen@@ 4
Person@@ 4
Persön@@ 4
Pervez 4
Pfeiffer 4
Pfer@@ 4
Pflicht 4
Pfund 4
Phase 4
Philosophie 4
Physi@@ 4
Pil@@ 4
Plak@@ 4
Plattformen 4
Platzeck 4
Playstation 4
Plänen 4
Pofalla 4
Pokal 4
Pol 4
Poli@@ 4
Politische 4
Polizeisprecher 4
Pop@@ 4
Potential 4
Pra@@ 4
Premierminister 4
Prinzi@@ 4
Prinzip 4
Private 4
Pro 4
Prof@@ 4
Prognose 4
Programm@@ 4
Programms 4
Proteste 4
Protokoll 4
Provokation 4
Prozentsatz 4
Prozess@@ 4
Prüfer 4
Prüfung 4
Psych@@ 4
Puerta 4
Pun@@ 4
Py@@ 4
Quadratmetern 4
Qualitäts@@ 4
Quer@@ 4
Rad 4
Radio 4
Radsport 4
Raketen@@ 4
Ramsauer 4
Ranking 4
Rat 4
Rau@@ 4
Rauch@@ 4
Rauchverbot 4
Raum@@ 4
Rausch 4
Rechner 4
Red 4
Red@@ 4
Reg@@ 4
Regierungschefs 4
Reh@@ 4
Reich 4
Rein@@ 4
Reisen 4
Reisende 4
Rekordmarke 4
Renn@@ 4
Renten@@ 4
Repertoire 4
Research 4
Reser@@ 4
Reuters 4
Ribéry 4
Richards 4
Richtig 4
Richtlinien 4
Ries@@ 4
Roberto 4
Rolling 4
Ron 4
Rost 4
Rostocker 4
Ruanda 4
Ruhestand 4
Runden 4
Rä@@ 4
Rö@@ 4
Rückendeckung 4
S-@@ 4
S-Bahn 4
SZ 4
Sabine 4
Sachs 4
SachsenLB 4
Saf@@ 4
Sagen 4
Saisonsieg 4
Satelliten 4
Satire 4
Saturn 4
Satz@@ 4
Schaaf 4
Schal@@ 4
Schavan 4
Schi@@ 4
Schiene 4
Schirm@@ 4
Schlag 4
Schlange 4
Schloss 4
Schluss@@ 4
Schlä@@ 4
Schmerz@@ 4
Scho@@ 4
Schr@@ 4
Schreibtisch 4
Schu@@ 4
Schuster 4
Schwerpunkt 4
Schwester 4
Schwierigkeiten 4
Schwäche 4
Schätzungen 4
Schütz@@ 4
Sci@@ 4
See 4
Seele 4
Seiten@@ 4
Sekt@@ 4
Selbstmord 4
Selbstvertrauen 4
Sem@@ 4
Senator 4
Sens@@ 4
Sergio 4
Sevilla 4
Sexual@@ 4
Show@@ 4
Sicherung 4
Siege 4
Siegfried 4
Silber@@ 4
Sinne 4
Sitz 4
Skepsis 4
Ski 4
Slo@@ 4
Slowenien 4
Softwar@@ 4
Software-@@ 4
Solange 4
Solidarität 4
Soll 4
Sommer@@ 4
Sondern 4
Sonn@@ 4
Sonnabend 4
Sor@@ 4
Spann@@ 4
Spe@@ 4
Spekul@@ 4
Spenden 4
Spielzeug 4
Spitz@@ 4
Spor@@ 4
Sportdirektor 4
Spuren 4
Sta@@ 4
Staatsanwalt 4
Staatsfonds 4
Stanley 4
Station 4
Ste@@ 4
Steine 4
Stell@@ 4
Stellungnahme 4
Stephan 4
Ster@@ 4
Stimm@@ 4
Sto@@ 4
Stock 4
Strafen 4
Strecken 4
Streitkräfte 4
Studio 4
Studium 4
Stütz@@ 4
Such@@ 4
Summe 4
Sur@@ 4
Sy@@ 4
Szenen 4
Söder 4
Söhne 4
Süß@@ 4
T-@@ 4
T-Mobile 4
TV 4
Tabelle 4
Taiwan 4
Tal 4
Talent 4
Taliban@@ 4
Tanz@@ 4
Taus@@ 4
Tel@@ 4
Telekommunikations@@ 4
Ter@@ 4
Terrorismus 4
Terrorverdächtige 4
Test 4
Testament 4
Thailand 4
The@@ 4
Theorie 4
Ther@@ 4
Thierse 4
Thor@@ 4
Thüringen 4
Tickets 4
Tiger 4
Tisch@@ 4
Todesstrafe 4
Torchancen 4
Tote 4
Traditionen 4
Tragödie 4
Transaktion 4
Transrapid 4
Tre@@ 4
Trend@@ 4
Trends 4
Trennung 4
Träger@@ 4
Typ@@ 4
Tä@@ 4
Tätigkeit 4
U-@@ 4
UBS 4
US-Außenministerin 4
US-B@@ 4
US-Medien 4
US-S@@ 4
Umgang 4
Unentschieden 4
Unfall@@ 4
Universal 4
Urlaubs@@ 4
Ursache 4
Uwe 4
Variante 4
Veranstaltungen 4
Verdächtige 4
Verfahrens 4
Vergnügen 4
Verhandlungs@@ 4
Verkehrs@@ 4
Verlierer 4
Verlusten 4
Vermarktung 4
Vermutlich 4
Vermögens@@ 4
Vernehmen 4
Vers@@ 4
Versorgungs@@ 4
Versteigerung 4
Verteidigung 4
Verteidigungs@@ 4
Verwaltungs@@ 4
Veröffentlichung 4
Videos 4
Vielmehr 4
Vier 4
Vo@@ 4
Vogel@@ 4
Volkspartei 4
Volkswagen 4
Volkswirte 4
Volkswirtschaft 4
Volumen 4
Vorgän@@ 4
Vorjahreszeitraum 4
Vorsicht 4
Vorstandsvorsitzende 4
Vorstellungen 4
WM-T@@ 4
WM-Titel 4
Wachstums@@ 4
Wachstumsraten 4
Wag@@ 4
Wahlkampf 4
Wahr@@ 4
Wahrscheinlichkeit 4
Wald@@ 4
War@@ 4
Wass@@ 4
Wehr@@ 4
Wein 4
Weitere 4
Weiße 4
Welche 4
Weltraum@@ 4
Wenger 4
Weniger 4
Westerwelle 4
Wettbewer@@ 4
Wettbewerber 4
Wetter@@ 4
Wettkampf 4
Wich@@ 4
Wiesbaden 4
Will@@ 4
Williams 4
Wirbelsturm 4
Wirtschaftsforschung 4
Wirtschaftswachstum 4
Wit@@ 4
Wochen@@ 4
Wohnungen 4
Wohnungsbau 4
Wor@@ 4
Wunder@@ 4
Wunsch 4
Währungs@@ 4
Wünsche 4
X 4
Zahlung 4
Zahlungen 4
Zei@@ 4
Zeich@@ 4
Zeitraum 4
Zeitungs@@ 4
Zelt 4
Zentrale 4
Zerschlagung 4
Zeuge 4
Zeugen 4
Zielen 4
Zins@@ 4
Zinssenkungen 4
Zivil@@ 4
Zoll 4
Zonen 4
Zumal 4
Zunahme 4
Zurück@@ 4
Zus@@ 4
Zusammen@@ 4
Zustimmung 4
Zweite 4
Zweiter 4
Zwischen 4
Zwischen@@ 4
abgel@@ 4
abgerissen 4
abgesagt 4
absetzen 4
achtung 4
ader 4
afghanische 4
agentur 4
ages 4
aktionen 4
aktivitäten 4
aler 4
allgemeine 4
amm@@ 4
amtes 4
amts 4
anbieten 4
ancen 4
andererseits 4
anderthalb 4
aner 4
anfangs 4
ang@@ 4
angaben 4
angebote 4
angehoben 4
angehören 4
angekündigten 4
angel@@ 4
angelegt 4
angenehm 4
angeschlagene 4
angesprochen 4
angewandt 4
angewiesen 4
ani 4
anlagen 4
annt 4
annte 4
ano 4
ansonsten 4
anstalt 4
anteil 4
anter 4
anti@@ 4
antreten 4
ao 4
ard@@ 4
art 4
arti@@ 4
ass 4
ast 4
ater 4
ativer 4
atoren 4
ats@@ 4
atten 4
aufgeb@@ 4
aufhören 4
ausgebrochen 4
ausgeh@@ 4
ausgelöst 4
ausgeschöpft 4
ausgestattet 4
ausreichen 4
aussehen 4
australische 4
auszusetzen 4
automatisch 4
außer@@ 4
band 4
barer 4
bares 4
baus 4
baut 4
bayerischen 4
beantragen 4
beantragt 4
beck 4
beeindruck@@ 4
beeinflusst 4
beeinträchtigt 4
befragt 4
befreit 4
befürchtet 4
beg@@ 4
begehrt 4
beginn 4
begründet 4
begründete 4
begrüßen 4
behalten 4
beherr@@ 4
bekannte 4
beklagt 4
beklagte 4
belegt 4
belohnt 4
bemühen 4
benötigte 4
beratung 4
berei@@ 4
berger 4
beru@@ 4
berufen 4
beruhigt 4
berühm@@ 4
beschrieben 4
beschädigt 4
besitz@@ 4
bestritten 4
beteiligen 4
betrachten 4
betreten 4
betrifft 4
betroffen 4
bevorzu@@ 4
bevölkerung 4
bewe@@ 4
bewegung 4
bewegungen 4
beweisen 4
binnen 4
birgt 4
bit@@ 4
bitte 4
blicken 4
bo 4
bot 4
brei@@ 4
breite 4
breiten 4
bs@@ 4
bt 4
bund 4
burgs 4
by 4
bö@@ 4
ches 4
chi@@ 4
cho@@ 4
christlichen 4
chter 4
circa 4
ckel 4
cker@@ 4
dach@@ 4
dachte 4
dachten 4
demokratische 4
denke 4
dere 4
ders 4
derte 4
derzeitigen 4
deutlicher 4
dienstes 4
digung 4
ding@@ 4
diplom@@ 4
dische 4
diskussion 4
diskutieren 4
dlichen 4
dlicher 4
dominierten 4
dor@@ 4
dorthin 4
dram@@ 4
dramatisch 4
dreh@@ 4
dreht 4
drin 4
drängen 4
dul@@ 4
dun@@ 4
dunkle 4
durchgesetzt 4
durchschnitt 4
ebte 4
effizi@@ 4
ehemals 4
ehrlich 4
eil@@ 4
einerseits 4
einfacher 4
eingef@@ 4
eingeladen 4
eingereicht 4
eingeräumt 4
eingestellt 4
einheit 4
einsatz 4
einschließlich 4
einstellen 4
einzigen 4
ekt 4
el-@@ 4
eli@@ 4
elnde 4
elten 4
emen 4
emp@@ 4
en. 4
enan@@ 4
eng 4
enge 4
engen 4
engsten 4
enheim 4
entdecken 4
entes 4
entführt 4
entführten 4
enthält 4
enti@@ 4
entscheidenden 4
entschied 4
entsetzt 4
enttäuscht 4
entwickelten 4
enz@@ 4
erenden 4
erfreut 4
erfunden 4
erg@@ 4
ergibt 4
erhöhte 4
erinnerte 4
erkannt 4
erleichtern 4
erleichtert 4
ernen 4
erscheinen 4
erschienen 4
erschüt@@ 4
erstaunlich 4
erstes 4
erter 4
erwar@@ 4
erwarteten 4
erworben 4
ery 4
erzielen 4
erzählte 4
ese 4
euch 4
euer 4
fanden 4
fangen 4
fassen 4
fasziniert 4
feier 4
feierte 4
festen 4
feu@@ 4
finanzielle 4
finanziellen 4
folgte 4
ford 4
forderten 4
formulieren 4
fortgesetzt 4
frag@@ 4
frau 4
freigesprochen 4
froh 4
früh@@ 4
frühe 4
fu@@ 4
fällen 4
fügte 4
fürchten 4
fürchtet 4
gab@@ 4
gan 4
gebeten 4
gebraucht 4
gebürtige 4
gedrückt 4
geeinigt 4
gefolgt 4
gefällt 4
gefüllt 4
gehandelt 4
geholfen 4
geist@@ 4
gelangen 4
geleistet 4
gelt 4
gemeinschaft 4
genauen 4
gens 4
genügt 4
gere@@ 4
gereist 4
geren 4
gericht 4
gerichtet 4
gerin@@ 4
geringen 4
gerissen 4
gers 4
gerte 4
gerufen 4
geschaffen 4
geschehen 4
gescheitert 4
geschmack 4
gesetz 4
gesetz@@ 4
gesperrt 4
gestoßen 4
gestrichen 4
gesundheits@@ 4
gesunken 4
gewarnt 4
gewechselt 4
gewicht 4
gewähren 4
gezielt 4
ghts 4
gier 4
giert 4
gig 4
gigan@@ 4
gige 4
globale 4
gol@@ 4
großem 4
grund 4
grundsätzlich 4
gründete 4
grünen 4
gsten 4
ha@@ 4
haf@@ 4
haften 4
halb@@ 4
halter 4
hamburg 4
handels@@ 4
har@@ 4
hauptsächlich 4
heftig 4
heimer 4
heiraten 4
herum@@ 4
herunter@@ 4
hierzulande 4
hilfe 4
hinein 4
hr 4
hy@@ 4
häuser 4
höh@@ 4
hört 4
iPhone 4
ierende 4
ierenden 4
ierer 4
ig 4
iger 4
iges 4
illegal 4
imm@@ 4
ina 4
indische 4
informationen 4
informieren 4
ing-@@ 4
inge 4
ings 4
ingt 4
inne 4
institu@@ 4
inszeniert 4
int@@ 4
internationaler 4
interne 4
internen 4
investierten 4
irgend@@ 4
isier@@ 4
isierung 4
islam@@ 4
iste 4
isten@@ 4
istisch 4
itäts@@ 4
jagd 4
japanischen 4
jederzeit 4
jenen 4
jet 4
jüngste 4
kampagne 4
kampf 4
kan 4
kandidieren 4
kapital@@ 4
karten 4
keit@@ 4
keiten 4
keits@@ 4
kes 4
kette 4
klare 4
klein 4
kleinere 4
koepfe 4
kol@@ 4
kombin@@ 4
kommentierte 4
komplizierte 4
konflikt 4
konkreten 4
konserv@@ 4
konzentrieren 4
koreanischen 4
kos@@ 4
kostete 4
kow 4
kreu@@ 4
kreuz 4
kräftig 4
ktor 4
ktur@@ 4
kultur@@ 4
kunden 4
kus 4
käme 4
kämen 4
kümmerten 4
kürz@@ 4
kürzester 4
l. 4
lacht 4
land@@ 4
landschaft 4
lang@@ 4
langem 4
langsamer 4
lebenslang 4
leger 4
legten 4
leichten 4
leist@@ 4
leitung 4
ler-@@ 4
ley 4
lichste 4
liebsten 4
lieferte 4
liege 4
liegenden 4
lin@@ 4
ling 4
lis 4
litz 4
lub 4
lässig 4
läufer 4
lö@@ 4
lücke 4
mach 4
mach@@ 4
macht@@ 4
manager 4
managern 4
mar 4
massiv 4
massive 4
maßgeb@@ 4
medi@@ 4
medizinische 4
medizinischen 4
meines 4
meistens 4
mel@@ 4
meldete 4
merk@@ 4
mess@@ 4
mi 4
mieren 4
miert 4
mil@@ 4
militärischen 4
milli@@ 4
ministerin 4
mischen 4
mischt 4
mittels 4
mittlere 4
mitunter 4
mobil@@ 4
modell 4
monatlich 4
morgens 4
ms 4
mut 4
mäch@@ 4
männ@@ 4
märkten 4
mäßigen 4
mögen 4
nachdrücklich 4
ne@@ 4
ners 4
neter 4
neuerdings 4
neuesten 4
neunziger 4
neutr@@ 4
niemals 4
nis 4
nisse 4
nissen 4
niveau 4
nte 4
nötigen 4
obendrein 4
obersten 4
ochter 4
offener 4
og@@ 4
ogen 4
oll 4
ologische 4
ordnung 4
ori@@ 4
orienti@@ 4
ors 4
ost@@ 4
ote 4
pakistanischen 4
parallel 4
parlamentarische 4
partner 4
pause 4
perfekte 4
permanent 4
personen 4
pfei@@ 4
pfen 4
pfte 4
pieler 4
piels 4
plattform 4
plädiert 4
plätze 4
pol@@ 4
polizei 4
polnischen 4
popul@@ 4
port 4
positives 4
pp 4
ppen 4
ppo 4
praktisch 4
preisen 4
problemlos 4
produzieren 4
profit@@ 4
projekt 4
prompt 4
punkten 4
quasi 4
r. 4
rad 4
ranche 4
rasch 4
rat@@ 4
rate 4
ratlos 4
rau@@ 4
rech@@ 4
rechtlich 4
rechtlichen 4
redet 4
reduzieren 4
reduziert 4
regeln 4
regierung 4
regionale 4
res 4
restlichen 4
richten 4
richtige 4
richtiger 4
richtung 4
riesige 4
risk@@ 4
ruhen 4
runden 4
rückgängig 4
rückt 4
sam@@ 4
saniert 4
saßen 4
schaden 4
schaft@@ 4
scharf 4
schau 4
schaut 4
schei@@ 4
scheiterte 4
scher@@ 4
schl@@ 4
schlicht 4
schlimm 4
schm@@ 4
schnelle 4
schoss 4
schrei@@ 4
schrift 4
schwach 4
schwache 4
schwarzen 4
schweigt 4
schwer@@ 4
schwierige 4
schwächeren 4
schwärmte 4
schä@@ 4
schön@@ 4
schöner 4
schütz@@ 4
sem@@ 4
senden 4
ser 4
sexuellen 4
sh@@ 4
sibir@@ 4
sich@@ 4
sichtbar 4
sinn@@ 4
sinnvoll 4
sodass 4
sofortige 4
solch 4
sorgfältig 4
spanische 4
spezialisierte 4
spräsident 4
staats@@ 4
stab 4
stag 4
stands@@ 4
stars 4
startet 4
startete 4
steckt 4
stei@@ 4
stellten 4
ster@@ 4
stest 4
stimmten 4
stirbt 4
stisch 4
stoffe 4
stoßen 4
strategischen 4
streichen 4
streiken 4
streit 4
streng 4
stri@@ 4
strikt 4
stuhl 4
stärke 4
stätten 4
stört 4
stößt 4
stützen 4
sy@@ 4
sü@@ 4
tagesschau.de 4
te-@@ 4
technisch 4
technischen 4
teilen 4
teilung 4
tel 4
tel@@ 4
tende 4
tere 4
terin 4
terung 4
teuer 4
tierte 4
tigste 4
til 4
tion@@ 4
tionen 4
tlich 4
tlichen 4
tons 4
tour@@ 4
traditionell 4
train@@ 4
trainiert 4
tran@@ 4
trans@@ 4
tre@@ 4
trieb 4
trä@@ 4
ule 4
umgehen 4
umgerechnet 4
umstrittene 4
unabhängigen 4
unauf@@ 4
unge@@ 4
unmöglich 4
unserem 4
unseres 4
unterbrochen 4
unternehmer 4
unterschiedlich 4
unterschrieben 4
untersucht 4
unver@@ 4
unverändert 4
unzufrieden 4
ur 4
verabschiedet 4
veranstaltungen 4
verbessert 4
verbesserten 4
verbr@@ 4
verderben 4
verein 4
vereinbaren 4
verfahren 4
verfasst 4
verfassungswidrig 4
verfolgten 4
vergeblich 4
verheiratet 4
verkehrs 4
verkörpert 4
verlust 4
vermeiden 4
vermeintlich 4
vermutet 4
vernichtet 4
vernommen 4
verringerte 4
verschoben 4
verschw@@ 4
versichert 4
versprechen 4
verstorbenen 4
verständigt 4
verteidiger 4
verteilen 4
vertritt 4
verwaltet 4
verweisen 4
verwenden 4
verwendet 4
verzeichnen 4
verzichtet 4
veröffentlichen 4
veröffentlicht 4
volks@@ 4
vorbei@@ 4
vorgenommen 4
vorgeschlagen 4
vorigen 4
vorsitzenden 4
vorsorglich 4
vorzu@@ 4
wachsen 4
wachstum 4
wagt 4
wahre 4
wass@@ 4
we 4
wechsel@@ 4
weis@@ 4
weitaus 4
weite 4
welchem 4
welle 4
wen 4
wert@@ 4
wertvolle 4
wesen 4
wichtigste 4
wiegt 4
willi@@ 4
wirk@@ 4
wit@@ 4
witz 4
wohl@@ 4
wohnen 4
wohnt 4
wussten 4
wür@@ 4
ys 4
zehn@@ 4
zehnten 4
zeitung 4
zeu@@ 4
ziel 4
zieren 4
zierten 4
zivilen 4
zonen 4
zulegen 4
zumal 4
zurückhaltend 4
zurückzuführen 4
zus@@ 4
zusammens@@ 4
zustande 4
zuständigen 4
zusätzlichen 4
zö@@ 4
zü@@ 4
zün@@ 4
Ähnlich 4
Ältere 4
Älteren 4
Änderungen 4
Ära 4
Ärger 4
Ärz@@ 4
Ökonomen 4
Öl 4
Österreicher 4
Überlegungen 4
Übersetzung 4
Überstunden 4
Übertrag@@ 4
Überwachung 4
ßb@@ 4
älter 4
ände 4
ärin 4
ästhetische 4
ätz@@ 4
äußerst 4
äußerten 4
öffnete 4
öfter 4
öse 4
ösen 4
üben 4
überleben 4
überschritten 4
überstehen 4
übertragen 4
übertrieben 4
überwunden 4
ücken 4
* 3
-An@@ 3
-Aus@@ 3
-Bank 3
-Experten 3
-I@@ 3
-Meter-@@ 3
-Mission 3
-Prozess 3
-Serie 3
-Software 3
-Test 3
.3@@ 3
0,1518,5@@ 3
0,8 3
0.000 3
01.10.2007 3
06.11.2007 3
08.10.2007 3
1,3 3
1,85 3
1-Sieg 3
1.@@ 3
11.09.2007 3
1100 3
12.09.2007 3
122@@ 3
1236@@ 3
13.00 3
130 3
14,@@ 3
14.@@ 3
15.@@ 3
16.10.2007 3
17,5 3
17. 3
17.@@ 3
170 3
18,@@ 3
1899 3
1944 3
1945 3
1947 3
1963 3
1976 3
1980 3
1984 3
1988 3
2,1 3
2,2 3
20.000 3
20.@@ 3
2020 3
24.10.2007 3
24.11.2007 3
258 3
290 3
3,1 3
3,@@ 3
30.08.2007 3
31.08.2007 3
31.10.2007 3
32. 3
34@@ 3
36. 3
360 3
37@@ 3
38-@@ 3
3C 3
4,6 3
40. 3
40.000 3
4000 3
46. 3
5,5 3
50-Jährige 3
52. 3
56@@ 3
57 3
60@@ 3
66@@ 3
67. 3
70.000 3
7000 3
70@@ 3
72 3
75. 3
750.000 3
76 3
787 3
8,8 3
80.000 3
81 3
81. 3
82. 3
84@@ 3
86 3
87. 3
900.000 3
90@@ 3
90er 3
90er-Jahre 3
95 3
A380 3
A3@@ 3
ADAC 3
AG@@ 3
AP-@@ 3
Abbruch 3
Abe@@ 3
Abend@@ 3
Abent@@ 3
Abr@@ 3
Absatz 3
Abschluss@@ 3
Abschrei@@ 3
Abschreibungen 3
Abwehrspieler 3
Abzug 3
Achtel@@ 3
Achtung 3
Adolf 3
Afghanistans 3
Ahnung 3
Airbus-@@ 3
Aires 3
Akten@@ 3
Akteur 3
Akti@@ 3
Aktienkursen 3
Aktienmärkte 3
Akzeptanz 3
Alb@@ 3
Albaner 3
Alberto 3
Ale@@ 3
Alkohol 3
Aller@@ 3
Amazon 3
Anbau 3
Ander@@ 3
Andre 3
Anerkennung 3
Anfangs 3
Anfangs@@ 3
Angeklagte 3
Angeklagten 3
Angel@@ 3
Angestellte 3
Angriffe 3
Ankara 3
Anklage 3
Anlage 3
Anlegern 3
Ann@@ 3
Annette 3
Anpassungs@@ 3
Ansatz 3
Ansonsten 3
Anstrengungen 3
Ant@@ 3
Anti-Terror@@ 3
Antik@@ 3
Anwesenheit 3
Anwälte 3
Anwältin 3
Anzeigen 3
Apfel 3
Apfel@@ 3
Apple-@@ 3
Arbeitsbedingungen 3
Arbeitsgruppe 3
Arbeitslosen 3
Arbeitslosengel@@ 3
Architekten 3
Arg@@ 3
Argumentation 3
Ariane 3
Armuts@@ 3
Arthur 3
Arzneimittel@@ 3
Asche 3
Assist@@ 3
Assistenten 3
Association 3
Asy@@ 3
Atem 3
Atmosphäre 3
Att@@ 3
Aufbruch 3
Auffassung 3
Aufpreis 3
Aufsichts@@ 3
Aufstellung 3
Auftakt@@ 3
Auftrieb 3
Aufwärts@@ 3
Auktion 3
Ausbau 3
Ausblick 3
Ausfall 3
Ausfälle 3
Ausgabe@@ 3
Ausgerechnet 3
Auslaufen 3
Ausländern 3
Ausnahmefällen 3
Ausnahmezustand 3
Ausscheiden 3
Ausschluss 3
Ausschuss 3
Aussteller 3
Australier 3
Auswirkungen 3
Auswärts@@ 3
Autonomie 3
Autor 3
Außensei@@ 3
Awards 3
BASF 3
Bad 3
Bahn-@@ 3
Bahngewerkschaften 3
Bald 3
Banken@@ 3
Barbara 3
Barclays 3
Basel 3
Basis@@ 3
Basketball 3
Basra 3
Bat@@ 3
Bauer 3
Bauherren 3
Baus@@ 3
Bay@@ 3
Bayerischen 3
Bayern@@ 3
Bayerns 3
Beckham 3
Beckmann 3
Bedeutung 3
Bedürfnisse 3
Begleitung 3
Beifall 3
Beihilfe 3
Beihilfen 3
Bein 3
Beitritts@@ 3
Belastung 3
Belegschaft 3
Belohnung 3
Benutz@@ 3
Beob@@ 3
Beratung 3
Berechnung 3
Berechnungen 3
Bereiche 3
Bergen 3
Bergleute 3
Berlins 3
Bern@@ 3
Bertone 3
Besatzung 3
Beschleunigungs@@ 3
Beschäftigung 3
Besetzung 3
Best 3
Bestand@@ 3
Bestellung 3
Besten 3
Beteiligungen 3
Betrieb@@ 3
Betriebssystem 3
Bett@@ 3
Bevor 3
Bevölkerungs@@ 3
Bewer@@ 3
Bewerbern 3
Bewährung 3
Beziehungen 3
Bezirks@@ 3
Bezug 3
Bielefeld 3
Bilanz 3
Bilbao 3
Bild-Zeitung 3
Billi@@ 3
Bindung 3
Biot@@ 3
Bischof 3
Björ@@ 3
Björn 3
Blatter 3
Blicke 3
Bloomberg 3
Blu@@ 3
Blut 3
Boateng 3
Boh@@ 3
Bohr@@ 3
Boll@@ 3
Bolton 3
Bomben 3
Bonner 3
Boom 3
Bord@@ 3
Borowski 3
Bos@@ 3
Boss 3
Botschaftern 3
Box@@ 3
Bra@@ 3
Branchen@@ 3
Branden@@ 3
Bret@@ 3
Bridge 3
Briefwechsel 3
Bruch@@ 3
Brücke 3
Brüsseler 3
Buback 3
Buddh@@ 3
Buenos 3
Bundesgericht 3
Bundesk@@ 3
Bundesländer 3
Bundestag@@ 3
Busch@@ 3
Bush-Regierung 3
Business 3
But@@ 3
Bä@@ 3
Bällen 3
Bö@@ 3
Bücher 3
Bür@@ 3
Bürgerplattform 3
C. 3
CH@@ 3
CO2-@@ 3
CSU-Landesgruppe 3
Cape 3
Capital 3
Care 3
Cargo 3
Carstensen 3
Charles 3
Cheftrainer 3
Chelsea-@@ 3
Chem@@ 3
Chi@@ 3
Chile 3
Christen 3
Cirque 3
Citigroup 3
Col@@ 3
Cologne 3
Commerzbank 3
Condor 3
Conn@@ 3
Contain@@ 3
Cook 3
Coors 3
Cor@@ 3
Cordes 3
Corpor@@ 3
Couch 3
Cur@@ 3
Cécilia 3
DDR-@@ 3
DFB 3
DG@@ 3
DSV 3
DVD-@@ 3
Daimler-@@ 3
Damon 3
Darauf 3
Darm@@ 3
Darsteller 3
Darum 3
Darunter 3
Davon 3
Deal 3
Deb@@ 3
Debakel 3
Debüt 3
Deck@@ 3
Deflation 3
Dejagah 3
Demonstrationen 3
Derby 3
Design@@ 3
Designer 3
Development 3
Dialog 3
Dies@@ 3
Dikt@@ 3
Din@@ 3
Dire@@ 3
Direktorin 3
Disco@@ 3
Discovery 3
Disk@@ 3
Diskussions@@ 3
Disziplin 3
Dividenden 3
Doll@@ 3
Dollar@@ 3
Dom 3
Don@@ 3
Donald 3
Donnerst@@ 3
Doppel-@@ 3
Dorf@@ 3
Drahtzieher 3
Dritt@@ 3
Dritte 3
Drogen- 3
Drohungen 3
Druck@@ 3
Drucks 3
Dschihad 3
Duisburg 3
Duisburger 3
Dun@@ 3
Durchbruch 3
Durchgang 3
Durchschnitt 3
Dämpfer 3
Dänen 3
EADS 3
EB@@ 3
EL 3
EM-Qualifikation 3
EN@@ 3
ETA 3
Ebay 3
Ebene 3
Ebenso 3
Eberhard 3
Eck@@ 3
Effekt 3
Ehr@@ 3
Ehren@@ 3
Eier 3
Eigenheim@@ 3
Eigenschaften 3
Eigentum 3
Einbußen 3
Eineinhalb 3
Eingeständnis 3
Einkaufs@@ 3
Einladung 3
Einsatzes 3
Einspar@@ 3
Einspruch 3
Einstellung 3
Einstieg 3
Einsätzen 3
Einwander@@ 3
Einzelhandel 3
Einzelne 3
Einzelnen 3
Einzige 3
Eisbären 3
Eishockey 3
Eishockey-Liga 3
Ekelfleisch@@ 3
Elek@@ 3
Elektr@@ 3
Elektronik@@ 3
Elend 3
Elf 3
Elf@@ 3
Elfmet@@ 3
Elvis 3
Em@@ 3
Emer@@ 3
Emission 3
Emissions@@ 3
Emotion 3
Emp@@ 3
Empfang 3
Empfänger 3
Energi@@ 3
Energien 3
Energiepreise 3
Energieunternehmen 3
Engholm 3
Entführer 3
Entspannung 3
Enttäu@@ 3
Entwurf 3
Erbe 3
Ereignis 3
Ergeb@@ 3
Erhebung 3
Eri@@ 3
Ericsson-@@ 3
Erlebnis 3
Erneut 3
Ernsthaftigkeit 3
Ero@@ 3
Erweiterung 3
Etappe 3
Etik@@ 3
Etwas 3
Europameisterschaft 3
Europäer 3
Evelyn 3
Exemplare 3
Experim@@ 3
Experte 3
Extrem@@ 3
Exzellen@@ 3
FAZ 3
FC@@ 3
FSV 3
Face 3
Fach 3
Fachwelt 3
Fahn@@ 3
Fahndung 3
Fahrrad 3
Fahrzeug@@ 3
Fair 3
Farb@@ 3
Farin 3
Fas@@ 3
Favoriten 3
Federline 3
Feier 3
Fell@@ 3
Ferdinand 3
Feri@@ 3
Fern- 3
Fernverkehr 3
Fertigung 3
Festhalten 3
Feu@@ 3
Figur 3
Filialen 3
Fillon 3
Finanzdienstleister 3
Fischfang 3
Fitness@@ 3
Flammen 3
Flanke 3
Flu@@ 3
Flucht@@ 3
Fluss 3
Flächen 3
Flü@@ 3
Flüchtlinge 3
Force 3
Forschern 3
Forum 3
Foto@@ 3
Foul 3
Foyer 3
Fra@@ 3
Frag@@ 3
Fraktionschef 3
Französisch 3
Frauen-@@ 3
Freenet 3
Freezers 3
Freiburg 3
Freitagmorgen 3
Freund@@ 3
Fried@@ 3
Front@@ 3
Fronten 3
Frühstück 3
Frühstücks@@ 3
Fuchs 3
Fund 3
Funktion 3
Funktion@@ 3
Funktionär 3
Fusi@@ 3
Fusion 3
Fußball-Nationalmannschaft 3
Fünf 3
Fürsor@@ 3
Füßen 3
GDL-Chef 3
GM 3
Gag@@ 3
Galeristen 3
Gam@@ 3
Gammelfleisch 3
Gebieten 3
Gebrauch 3
Geburtstags@@ 3
Gebäuden 3
Gedenk@@ 3
Gefangen@@ 3
Gefangenen 3
Gefähr@@ 3
Gegend 3
Gegentor 3
Gegnern 3
Geh@@ 3
Gehalt 3
Gehälter 3
Gekas 3
Geld- 3
Geldgeber 3
Geldmarkt 3
Gelegenheiten 3
Gem@@ 3
Gemeinde 3
Gemeinschafts@@ 3
Gemälde 3
Genau 3
Genauso 3
Generalstaatsanwalt 3
Generäle 3
Genuss 3
Gerald 3
Gerichte 3
Germany 3
Gerolsteiner 3
Gerry 3
Gesellschaften 3
Gesetzestext 3
Gesetzgeber 3
Gesprächen 3
Gesprächs@@ 3
Getr@@ 3
Gewich@@ 3
Gewicht 3
Gewinnschätzungen 3
Gewinnwarnung 3
Gh@@ 3
Gisela 3
Gleich@@ 3
Global 3
Glosse 3
Glück@@ 3
Go@@ 3
Goethe 3
Gol@@ 3
Goldman 3
Gon@@ 3
Grafi@@ 3
Gran@@ 3
Grand 3
Großbritanniens 3
Grube 3
Grunde 3
Grundschule 3
Gruppen@@ 3
Gruppenphase 3
Gründer 3
Grüne 3
Guy 3
Gy@@ 3
Gäst@@ 3
Gästen 3
Güls 3
Güterzüge 3
H 3
H. 3
Hahn 3
Hahn@@ 3
Haltung 3
Hammer 3
Handlungs@@ 3
Handvoll 3
Handys 3
Hannah 3
Hannelore 3
Hanns-@@ 3
Hans-Wilhelm 3
Hans@@ 3
Hansen 3
Hartmann 3
Hartz 3
Hat 3
Hauptdarsteller 3
Hauptsache 3
Hausarrest 3
Haut 3
Health 3
Heb@@ 3
Hedge-Fonds 3
Hehl 3
Heilig@@ 3
Heiligendamm 3
Heim 3
Heiner 3
Heinrich 3
Helfer 3
Hen@@ 3
Henn@@ 3
Herde 3
Herr@@ 3
Herrn 3
Herthas 3
Hessischen 3
Hilbert 3
Hildebrand 3
Hilton 3
Hinter 3
Historiker 3
Hitchcock 3
Hitlers 3
Hitzlsperger 3
Hoffenheim 3
Holger 3
Hom@@ 3
Hoop 3
Horn 3
Hosen 3
Hot@@ 3
Hotspur 3
Howard 3
Hub@@ 3
Hugh 3
Hugo 3
Hurrik@@ 3
Hut@@ 3
Hypothek@@ 3
Hypotheken@@ 3
Hypothekenkrise 3
Häfen 3
Häu@@ 3
Häus@@ 3
Höhen 3
Hügel 3
I-@@ 3
IA@@ 3
IAEO 3
ICE 3
IG-Met@@ 3
II. 3
ISS 3
Ian 3
Ihrem 3
Image 3
Immobili@@ 3
Immun@@ 3
Imper@@ 3
Impul@@ 3
Indes 3
Indonesien 3
Infineon-@@ 3
Inflation 3
Inflationsrate 3
Information 3
Ingenieur@@ 3
Innenministeriums 3
Innenstaatssekretär 3
Innenverteidiger 3
Innov@@ 3
Inse@@ 3
Insofern 3
Insolvenz 3
Insolvenz@@ 3
Interessenten 3
Interpretationen 3
Investitions@@ 3
Investment@@ 3
Investments 3
Irak@@ 3
Iraker 3
Irans 3
Irland 3
Is@@ 3
Israeli 3
Israelis 3
Israels 3
Italiens 3
JP 3
Jacobs 3
Jahresumsatz 3
Jahrhunder@@ 3
Jahrtausendwende 3
Jan@@ 3
Janukowitsch 3
Jazz@@ 3
Jean-Claude 3
Jeden 3
Jedes 3
Jen@@ 3
Jena 3
Jim@@ 3
Jobs 3
Jog@@ 3
José 3
Jubel 3
Jugendlicher 3
Juncker 3
Jungs 3
Juni@@ 3
Jupiter 3
Justizminister 3
Juventus 3
Jährige 3
KP 3
KSC-@@ 3
Kabel@@ 3
Kaf@@ 3
Kaffee 3
Kaiserslautern 3
Kalifornien 3
Kamer@@ 3
Kamera@@ 3
Kanadas 3
Kandidat 3
Kann 3
Kanzleramt 3
Karamanlis 3
Kardinal@@ 3
Karl 3
Kartell@@ 3
Kasse 3
Kategorie 3
Kath@@ 3
Katja 3
Katrina 3
Kaufempfehlung 3
Kaution 3
Khmer 3
Kie@@ 3
Kim@@ 3
Kirchen 3
Kit@@ 3
Kitz@@ 3
Klar@@ 3
Klassiker 3
Klein 3
Kleine 3
Klima 3
Klin@@ 3
Klinik 3
Klub 3
Kläger 3
Klär@@ 3
Knie 3
Knieverletzung 3
Kno@@ 3
Knopfdruck 3
Knut 3
Koalitionspartner 3
Kohle@@ 3
Kohlendioxid 3
Kol@@ 3
Kollaps 3
Kolle@@ 3
Kommentare 3
Kommt 3
Kommunal@@ 3
Kommunikation@@ 3
Kommunismus 3
Komp@@ 3
Konflikt@@ 3
Konflikte 3
Konflikts 3
Konkurrent 3
Konkurrenzkampf 3
Konrad 3
Konsequenz 3
Konsolidierungskurs 3
Konsortium 3
Konsu@@ 3
Konsum 3
Konter 3
Kontingent 3
Kontr@@ 3
Konzernchef 3
Konzernen 3
Konzert@@ 3
Kra@@ 3
Kracher 3
Kraftfahr@@ 3
Kranken@@ 3
Krankenhäuser 3
Krause 3
Kraw@@ 3
Kri@@ 3
Krieges 3
Kriegs@@ 3
Krimi 3
Krimin@@ 3
Kriminalbeamten 3
Kriminalität 3
Kriterium 3
Kro@@ 3
Krümmel 3
Kubikmeter 3
Kulisse 3
Kultus@@ 3
Kun@@ 3
Kunstmarkt 3
Kunstwerk 3
Kuranyi 3
Kursgewinne 3
Kurzem 3
Kä@@ 3
Kälte 3
Köhler 3
Köni@@ 3
Königs@@ 3
Köpfe 3
Körper@@ 3
Körperverletzung 3
Körting 3
Küche 3
Kün@@ 3
Kürze 3
Küst@@ 3
LBBW 3
La@@ 3
Lab@@ 3
Labor 3
Lag@@ 3
Landschaften 3
Landtagsfraktion 3
Lang@@ 3
Lange 3
Langs@@ 3
Last@@ 3
Lat@@ 3
Latte 3
Laufen 3
Lav@@ 3
Lebenss@@ 3
Lediglich 3
Lee 3
Legende 3
Lehrern 3
Leidenschaft 3
Leipziger 3
Leitung 3
Lektüre 3
Lenz 3
Leo 3
Lettland 3
Lewis 3
Licht@@ 3
Lieber 3
Lim@@ 3
Lind@@ 3
Linden 3
Link@@ 3
Links 3
Litern 3
Live-@@ 3
Liverpool 3
Lobby 3
Lock@@ 3
Loh@@ 3
Lohn 3
Lok@@ 3
Lokal@@ 3
Lokführern 3
Ludwi@@ 3
Ludwig 3
Lum@@ 3
Lux 3
Luxembur@@ 3
Luxusmarken 3
Länder@@ 3
Länderspiele 3
Länge 3
Läufer 3
Löhne 3
Lösungen 3
M 3
MDax 3
Mafi@@ 3
Magde@@ 3
Magn@@ 3
Mahdavikia 3
Mahler 3
Malari@@ 3
Malaysia 3
Male 3
Malediven 3
Mallorca 3
Malta 3
Manag@@ 3
Manchmal 3
Mandanten 3
Mandat 3
Manipulation 3
Mannheims 3
Mantel 3
Manuel 3
Marathon 3
Marcel@@ 3
Marcus 3
Mark 3
Marken@@ 3
Marktanteile 3
Marokko 3
Mars@@ 3
Marsch 3
Martina 3
Maschin@@ 3
Mat@@ 3
Mathematik 3
Matt 3
Maz@@ 3
Maßnahme 3
McC@@ 3
McLaren 3
Medical 3
Medizin 3
Mehrzahl 3
Mein 3
Mein@@ 3
Meisterschaft 3
Meldungen 3
Mensch@@ 3
Menschenleben 3
Menschenrechts@@ 3
Menschenwürde 3
Menschheit 3
Mercedes@@ 3
Messe@@ 3
Met@@ 3
Metall@@ 3
Meteorologen 3
Methode 3
Metropole 3
Metz@@ 3
Metzger 3
Microsoft-@@ 3
Mike 3
Mikro@@ 3
Mili@@ 3
Militärs 3
Milliard@@ 3
Millimeter 3
Millionenhöhe 3
Mischung 3
Misere 3
Mission 3
Mitgliedsstaaten 3
Mitgliedstaaten 3
Mitspieler 3
Mitt@@ 3
Mittelfeld@@ 3
Mittelme@@ 3
Mittlerweile 3
Mittwoch@@ 3
Mobilität 3
Mobiltelefon@@ 3
Moden@@ 3
Modernis@@ 3
Mohammed 3
Momentan 3
Monats 3
Mond 3
Monopol 3
Mont@@ 3
Montag@@ 3
Morde 3
Morgenstunden 3
Moritz 3
Mos@@ 3
Mosai@@ 3
Moskauer 3
Moskaus 3
Motiv@@ 3
Motoren 3
Motorrad@@ 3
Mul@@ 3
Multi@@ 3
Musa 3
Museen 3
Museums 3
Museums@@ 3
Musi@@ 3
Music 3
Musikindustrie 3
Muster 3
My@@ 3
Myth@@ 3
Mädels 3
Mö@@ 3
Mön@@ 3
Mönchen 3
Müller-@@ 3
Mün@@ 3
N 3
N. 3
NBA 3
NRW-@@ 3
NRW@@ 3
NS@@ 3
Nachbar@@ 3
Nachfolge 3
Nachricht 3
Nachwuchs@@ 3
Nahost-Konferenz 3
Nahrungs@@ 3
Nam@@ 3
Nation@@ 3
National 3
Nazi-@@ 3
Neal 3
Neb@@ 3
Neokonserv@@ 3
Ner@@ 3
Nerven 3
Net@@ 3
Netzwerk@@ 3
New@@ 3
Nich@@ 3
Nicht-@@ 3
Nie 3
Niederlanden 3
Niederländer 3
Niedersachsens 3
Nietzsche 3
Niger@@ 3
Nigeria 3
Nikol@@ 3
Nissan 3
Nobelpreis 3
Nutzen 3
Näch@@ 3
OE@@ 3
Ob@@ 3
Oberbürgermeister 3
Oberhaupt 3
Obermann 3
Obst 3
Odinga 3
Off@@ 3
Offenbar 3
Offenheit 3
Offenlegung 3
Oktoberfest 3
Ol@@ 3
Olaf 3
Ole 3
Oligarchen 3
Olmert 3
Olympia 3
Olympia-@@ 3
Omar 3
On 3
Online-Durchsuchung 3
Online-Durchsuchungen 3
Opec@@ 3
Oppositions@@ 3
Option 3
Orange 3
Ordnungs@@ 3
Organisations@@ 3
Orleans 3
Orten 3
Orts@@ 3
Ortszeit 3
Oscar 3
Oskar 3
Ostsee 3
PC 3
PP@@ 3
PS@@ 3
Pa@@ 3
Paderborn 3
Pak@@ 3
Pakistanische 3
Pander 3
Pannen@@ 3
Panzer 3
Papier@@ 3
Papst 3
Paradies 3
Parkett 3
Parlamentarier 3
Part@@ 3
Partner@@ 3
Pas@@ 3
Pass 3
Pass@@ 3
Passauer 3
Patient 3
Patienten@@ 3
Patrick 3
Peer 3
Per 3
Personalie 3
Perspektive 3
Persönlichkeit 3
Petersburg 3
Petra 3
Petzschner 3
Pfiffe 3
Pflanzen 3
Pflich@@ 3
Pflicht@@ 3
Pic@@ 3
Pierre 3
Pin 3
Pippi 3
Piëch 3
Plas@@ 3
Player 3
Plätzen 3
Podium 3
Polit@@ 3
Politkowskaja 3
Polizeipräsident 3
Poly@@ 3
Popul@@ 3
Portfolio 3
Postbank 3
Potenzial 3
Pots 3
Potter 3
Potter-@@ 3
Power@@ 3
Prager 3
Pre@@ 3
Preisauf@@ 3
Preisträger 3
Pres@@ 3
Press@@ 3
Presse-Agentur 3
Prince 3
Prinzessin 3
Privatsphäre 3
Produkten 3
Professoren 3
Profi@@ 3
Profil 3
Programme 3
Projekt@@ 3
Projekte 3
Prom@@ 3
Prominenz 3
Protesten 3
Prä@@ 3
Prämie 3
Präsenz 3
Präsidentschaftskandi@@ 3
Präsidentschaftswahlen 3
Prüfstand 3
Pul@@ 3
Pum@@ 3
Pur@@ 3
Pär@@ 3
Qaida 3
Quad@@ 3
Quali@@ 3
Qualifik@@ 3
Qualitäten 3
Quandts 3
Quart@@ 3
Quartals@@ 3
Quartalszahlen 3
Queen 3
Quelle 3
Quote 3
R. 3
Rab@@ 3
Radfahren 3
Radsport-@@ 3
Raf@@ 3
Rafael 3
Rahmenbedingungen 3
Raila 3
Rak@@ 3
Ralph 3
Rampenlicht 3
Rand 3
Raphael 3
Rat@@ 3
Rauch 3
Raz@@ 3
Real@@ 3
Reb@@ 3
Rebellen 3
Rechten 3
Rechtsextremismus 3
Reduzierung 3
Referendum 3
Regel@@ 3
Regimes 3
Regisseurs 3
Register 3
Reichs@@ 3
Reiseb@@ 3
Reiz 3
Rekordhoch 3
Relegationss@@ 3
Religi@@ 3
Religions@@ 3
Rentenversicherung 3
Repräsent@@ 3
Ress@@ 3
Restaurants 3
Ret@@ 3
Rezession 3
Rhein-Main-@@ 3
Rhythmus 3
Richard 3
Riesen@@ 3
Rin@@ 3
Rio 3
Robin 3
Robo@@ 3
Roh 3
Roh@@ 3
Rohstoff@@ 3
Rolf 3
Rolfes 3
Ronaldinho 3
Rosen@@ 3
Rot 3
Route 3
Royal 3
Ruhr@@ 3
Rum@@ 3
Rummenigge 3
Rus@@ 3
Russe 3
Russlands 3
Ryanair 3
Räder 3
Räikkönen 3
Rätsel 3
Römer 3
Rü@@ 3
Rück 3
Rückkehrer 3
Rückschlag 3
SPD-Politiker 3
SPD-Vorsitzende 3
Saal 3
Saddam 3
Saisonbeginn 3
Saisontor 3
Salz 3
Salz@@ 3
Samm@@ 3
Sammler 3
Sanierungs@@ 3
Sarkozys 3
Sat 3
Saudi-Arabien 3
Schad@@ 3
Schau 3
Schauen 3
Scheffer 3
Scheidung 3
Schein 3
Schienen 3
Schiff@@ 3
Schiiten 3
Schimp@@ 3
Schlaf@@ 3
Schleyer 3
Schlu@@ 3
Schlusslicht 3
Schlüsselrolle 3
Schmid 3
Schmu@@ 3
Schmuck@@ 3
Schokolade 3
Scholz 3
Schreckensherrschaft 3
Schri@@ 3
Schrift@@ 3
Schriftstellerin 3
Schritte 3
Schritten 3
Schro@@ 3
Schuldner 3
Schwach@@ 3
Schwar@@ 3
Schwarz@@ 3
Schwarzkopf 3
Schwellenländer 3
Schwere 3
Schäfer 3
Schätzung 3
Schö@@ 3
Schöne 3
Schülern 3
Sean 3
Sehnsucht 3
Sektor 3
Selten 3
Sender@@ 3
Seoul 3
Septem@@ 3
Serbiens 3
Sergej 3
Serien@@ 3
Service@@ 3
Shanghai 3
Shi@@ 3
Sicher 3
Sicherheit@@ 3
Sidney 3
Sieb@@ 3
Sieben@@ 3
Sigmar 3
Sign@@ 3
Sin@@ 3
Singapur 3
Sinn@@ 3
Situationen 3
Sitze 3
Skandal@@ 3
Skel@@ 3
Sl@@ 3
Smart 3
Smith 3
Sockel 3
Sofort 3
Solar@@ 3
Soleil 3
Solidar@@ 3
Somit 3
Songs 3
Sonntagszeitung 3
Sorgerecht 3
Sorten 3
Sox 3
Sozialdemokrat 3
Sozialistischen 3
Soziologen 3
Spa 3
Spaniens 3
Sparten 3
Speis@@ 3
Spender 3
Sperre 3
Spezial@@ 3
Spi@@ 3
Spiegel@@ 3
Spielern 3
Spielzeit 3
Spitzenspiel 3
Sportsch@@ 3
Sprachen 3
Sprengs@@ 3
Sprint 3
Sprinter@@ 3
Spruch 3
Sprünge 3
Spä@@ 3
Später 3
Staat@@ 3
Staates 3
Staatskanzlei 3
Staatsoberhaupt 3
Staatspräsident 3
Staatssekretär 3
Stal@@ 3
Stan 3
Standard 3
Standort 3
Starke 3
Statisti@@ 3
Stattdessen 3
Stechen 3
Steffen 3
Step@@ 3
Steve 3
Stil@@ 3
Still@@ 3
Stirn 3
Stoffe 3
Stolz 3
Stones 3
Straftaten 3
Streichung 3
Strich 3
Stroh 3
Stru@@ 3
Struck 3
Student 3
Stunden@@ 3
Stur@@ 3
Stör@@ 3
Stücke 3
Stürme 3
Suckale 3
Sun@@ 3
Systems 3
Sächsische 3
Sänger 3
Sängerin 3
Söl@@ 3
Südkorea 3
Südpol 3
T. 3
TH@@ 3
TV-S@@ 3
TV@@ 3
Tagebuch 3
Tagesordnung 3
Tageszeitung 3
Taktik 3
Talfahrt 3
Tan@@ 3
Tanz 3
Tarifkonflikt 3
Tas@@ 3
Tastatur 3
Tatort 3
Tatsachen 3
Tau@@ 3
Tayyip 3
Technik@@ 3
Techniker 3
Technologi@@ 3
Teenag@@ 3
Tei@@ 3
Tel 3
Tem@@ 3
Tennis 3
Tennis-@@ 3
Terrasse 3
Terroranschlägen 3
Terry 3
Teuer@@ 3
Tex@@ 3
Thea 3
Them@@ 3
Themen@@ 3
Thi@@ 3
Thompson 3
Tibet 3
Tibeter 3
Tie@@ 3
Tief@@ 3
Tiefen 3
Tiefpunkt 3
Titeln 3
To@@ 3
Tokio 3
Tol@@ 3
Tom 3
Tom@@ 3
Tonfall 3
Tony 3
Toppmöller 3
Toronto 3
Torschütz@@ 3
Torwart@@ 3
Total 3
Tourismus 3
Tradition@@ 3
Traditionalisten 3
Train@@ 3
Training 3
Transparenz 3
Trau@@ 3
Trauer@@ 3
Treff@@ 3
Trinkwasser 3
Trondheim 3
Trost 3
Truppen@@ 3
Träger 3
Träume 3
Turin 3
Tusk 3
Tö@@ 3
Töchter 3
Tür@@ 3
U 3
UEFA 3
US 3
US-Börsen 3
Uefa-@@ 3
Ultr@@ 3
Umbau 3
Umstand 3
Umweltschutz@@ 3
Unabhängi@@ 3
Unabhängigkeit 3
Unbehagen 3
Ungarn 3
Unglück@@ 3
Unglücke 3
Unions-@@ 3
Unionsfraktion 3
University 3
Unmut 3
Unterhaltungs@@ 3
Unterhändler 3
Unterlagen 3
Unternehmensberater 3
Unterschiede 3
Untersuchung 3
Up@@ 3
Urban 3
Urlauber 3
Ute 3
V. 3
VD@@ 3
VW-Gesetz 3
Vaart 3
Valencia 3
Vater@@ 3
Veh 3
Verarbeitung 3
Verband@@ 3
Verbandes 3
Verbindungen 3
Verbleib 3
Verbots@@ 3
Verbraucherschützer 3
Verfassungsschutz 3
Verfolgung 3
Verhaf@@ 3
Verk@@ 3
Verkauf@@ 3
Verletzten 3
Versandhandel 3
Verschwörung 3
Verschärfung 3
Versicherungen 3
Versprechen 3
Verteidiger 3
Verteidigungsministerium 3
Vertr@@ 3
Vertrages 3
Vertretern 3
Vertrieb@@ 3
Verunsicherung 3
Verve 3
Verwal@@ 3
Verwandter 3
Verzehr 3
Veränderung 3
Vf@@ 3
Vielzahl 3
Viertel@@ 3
Viertelfinals 3
Vietnams 3
Visier 3
Vize-@@ 3
Vizekanzler 3
Volkswagen-@@ 3
Vollgas 3
Vollmilch 3
Voraus@@ 3
Vorbei 3
Vorbereitungs@@ 3
Vorlieben 3
Vormarsch 3
Vorreiter 3
Vorsitzenden 3
Vortag 3
Vorteile 3
Vorurteile 3
Vorzug 3
Völker@@ 3
Völler 3
W 3
WM-Dritte 3
WM@@ 3
Waage 3
Wagn@@ 3
Wahrscheinlich 3
Wanderers 3
Wansleben 3
Waren 3
Warnung 3
Warren 3
Warschau 3
Wat@@ 3
Wayne 3
Web 3
Webwelt 3
Weg@@ 3
Weiden@@ 3
Weisbrod 3
Weiterbildung 3
Welcher 3
Welt-@@ 3
Weltcup@@ 3
Weltkrieg 3
Weltkriegs 3
Weltweit 3
Wendung 3
Wenig 3
Werber 3
Werbespot 3
Werk@@ 3
Werken 3
Werner 3
Weste 3
Wett@@ 3
Wi@@ 3
Wider 3
Widerstände 3
Wil@@ 3
Wild@@ 3
Wilhelm 3
Wilke 3
Will 3
Wir@@ 3
Wird 3
Wirtschaft@@ 3
Wirtschaftsminister 3
Wirtschaftsprü@@ 3
Witz 3
Wladimir 3
Wo@@ 3
Wochenend@@ 3
Wochenenden 3
Woher 3
Wohl 3
Wohlfühl@@ 3
Wohnzimmer 3
Womöglich 3
Wort@@ 3
Wulff 3
Wunsch@@ 3
Wur@@ 3
Wyser-Pratte 3
Würde 3
Xbox 3
Yahoo 3
YouTube 3
Yvonne 3
Zabel 3
Zell@@ 3
Zentr@@ 3
Zentrums 3
Zin@@ 3
Zinssenkung 3
Zo@@ 3
Zoo 3
Zufall 3
Zugangs@@ 3
Zukunfts@@ 3
Zukäufe 3
Zumwinkel 3
Zunächst 3
Zusage 3
Zusammenbruch 3
Zusammenschluss 3
Zuschlag 3
Zustand 3
Zw@@ 3
Zwanziger 3
Zwe@@ 3
Zweck 3
Zweitligisten 3
Zy@@ 3
Zykl@@ 3
Zählern 3
Zö@@ 3
Zürich 3
aan 3
abermals 3
abgebaut 3
abgelöst 3
abger@@ 3
abgeschaltet 3
abgeschlagen 3
abgesehen 3
abgesetzt 3
abgesprungen 3
abgezogen 3
ablen 3
abschluss 3
absolut 3
ache 3
acken 3
aden@@ 3
afft 3
afrikanische 3
aggressiv 3
agierte 3
agt 3
ahl 3
ahn 3
ahn@@ 3
ahnt 3
ail@@ 3
ain 3
aktion@@ 3
ala 3
alarmiert 3
alias 3
alitäten 3
aller@@ 3
allgemeinen 3
alltäglichen 3
altete 3
ama 3
ambition@@ 3
amtlichen 3
anbietet 3
anc@@ 3
andau@@ 3
anderswo 3
angebot 3
angebracht 3
angedeutet 3
angefangen 3
angeführt 3
angegeben 3
angehört 3
angeklagt 3
angekommen 3
angekündigte 3
angerufen 3
angesehen 3
angest@@ 3
angestellt 3
angestr@@ 3
ani@@ 3
ank@@ 3
anlag@@ 3
anlage 3
anlässlich 3
ann 3
annehmen 3
anpassen 3
ansprüche 3
anstieg 3
antin 3
antwor@@ 3
anzi@@ 3
appellierte 3
appen 3
ar-@@ 3
arbeit@@ 3
arbeiter 3
ard-@@ 3
arren 3
ars 3
art@@ 3
article115@@ 3
article127@@ 3
artige 3
asen 3
ash@@ 3
asse 3
assung 3
ath@@ 3
atik 3
atiker 3
ations-@@ 3
ationss@@ 3
atischen 3
ato@@ 3
ats 3
auern 3
aufgaben 3
aufgehoben 3
aufgerufen 3
aufgetreten 3
aufgewachsen 3
aufkomm@@ 3
aufkommen 3
aufmerksam 3
auftau@@ 3
auftauchen 3
auftreten 3
auftritt 3
aufträge 3
aufzugeben 3
auseinander@@ 3
auseinandersetzen 3
ausfällt 3
ausführen 3
ausgefallen 3
ausgeht 3
ausgesucht 3
ausgew@@ 3
ausgewiesen 3
ausgewählt 3
ausschließen 3
ausstehenden 3
ausweiten 3
auswirken 3
auszudrücken 3
autor 3
back 3
bad@@ 3
baden-württembergische 3
bahn@@ 3
bal@@ 3
bank-@@ 3
bank@@ 3
bas 3
basiert 3
bauer 3
bay@@ 3
bayerische 3
beanspruchen 3
beantworten 3
beauftragten 3
bedeu@@ 3
bedeute 3
bedient 3
beding@@ 3
bedingt 3
bedrohten 3
beeindruckend 3
beeindruckt 3
befand 3
befördern 3
begannen 3
bege@@ 3
begeister@@ 3
beglei@@ 3
begleiteten 3
begrenz@@ 3
begrenzt 3
begründeten 3
begrüßte 3
behandlung 3
behielt 3
beigetragen 3
bekannt@@ 3
bekennt 3
bekräftigte 3
belastung 3
belastungen 3
belegen 3
belei@@ 3
beleu@@ 3
belieb@@ 3
beliebten 3
beln 3
belohnen 3
bem@@ 3
bemerkenswert 3
bemüh@@ 3
bens 3
benö@@ 3
beobachten 3
ber-@@ 3
berat@@ 3
berater 3
bereiche 3
bern 3
bert 3
berühmtesten 3
bescheiden 3
beschert 3
bescherte 3
beschlagnahmten 3
beschlossene 3
beschluss 3
beschreiben 3
beschränkt 3
beschäftigen 3
besetzte 3
besie@@ 3
besiegten 3
besorgt 3
besseres 3
bestellen 3
bestimm@@ 3
bestimmen 3
bestreiken 3
bestreiten 3
betonen 3
betrag 3
betreffende 3
betrieb 3
betrieb@@ 3
betriebe 3
betrieben 3
betriebenen 3
beträch@@ 3
beträge 3
bevorstehenden 3
bew@@ 3
bewaffnet 3
bewahren 3
bewerben 3
bewohner 3
bewäl@@ 3
bezahlte 3
bezahlten 3
bezw@@ 3
bieter 3
bilanz 3
bild@@ 3
bilder 3
bildet 3
bildung 3
billig 3
billigen 3
binden 3
bis@@ 3
bittere 3
bittet 3
blatt 3
blau@@ 3
blend@@ 3
blick 3
bliebe 3
blut@@ 3
boot 3
bor@@ 3
bran@@ 3
brau@@ 3
brechen 3
bremse 3
bringe 3
bro@@ 3
bruch 3
bst@@ 3
buddhist@@ 3
bungs@@ 3
bur@@ 3
bus@@ 3
by@@ 3
böse 3
bösen 3
bür@@ 3
büro 3
chefs 3
chen-@@ 3
chigen 3
chs@@ 3
ck-@@ 3
clubs 3
co 3
dahinter 3
dankbar 3
darstellen 3
dat@@ 3
dauer 3
dazu@@ 3
de- 3
decke 3
defensiv 3
deklar@@ 3
dekor@@ 3
deln 3
demonstrierten 3
dende 3
dener 3
denk@@ 3
derartige 3
derer 3
derin 3
derselben 3
designer 3
deswegen 3
deutlichen 3
deutschland 3
dicht 3
diert 3
diesbezüglich 3
diesjährigen 3
diger 3
diplomatische 3
dir 3
dire@@ 3
direkten 3
distanz@@ 3
diten 3
dner 3
do 3
dom@@ 3
dorf 3
drang 3
drastisch 3
drauf 3
dritter 3
drückt 3
ds@@ 3
dt-@@ 3
dunklen 3
durchgeführt 3
durchsetzen 3
e.@@ 3
ebt 3
echt 3
ecke 3
eden 3
effekte 3
eg 3
eg@@ 3
egier@@ 3
ego@@ 3
ehren@@ 3
ehrgeizigen 3
eigenem 3
eigenständigen 3
eigentlichen 3
eil 3
eilte 3
einfluss@@ 3
eingegangen 3
einheimischen 3
einiger 3
einmali@@ 3
einmaligen 3
einräumen 3
einsam 3
einschlä@@ 3
einsetzt 3
einspringen 3
einsteigen 3
einstigen 3
einstweilige 3
einzelner 3
einzigartig 3
einziger 3
einziges 3
einzustellen 3
eit 3
eitet 3
elektr@@ 3
elektronischen 3
ellem 3
elli@@ 3
emotionale 3
empfehlenswerte 3
enberg 3
enbo@@ 3
endete 3
endgültige 3
enfalls 3
enger 3
enken 3
enkre@@ 3
enlose 3
enor@@ 3
enorm 3
enseite 3
enswert 3
entdeckten 3
enthalten 3
entkommen 3
entlasten 3
entscheidend 3
entscheidende 3
entscheidung 3
entspannt 3
entstand 3
enttäuschend 3
enttäuschenden 3
entwickelte 3
entzogen 3
enzen 3
er-Jahren 3
erd@@ 3
erei 3
erer 3
erfahren 3
erfolg@@ 3
erfolgreiche 3
erfordert 3
ergab 3
ergeben 3
ergebnis 3
ergebnisse 3
ergi@@ 3
ergänz@@ 3
erh@@ 3
erhaf@@ 3
erheb@@ 3
erheben 3
erhebliche 3
erhielt 3
erhöhten 3
erie 3
erien 3
erkennt 3
erkun@@ 3
erlauben 3
erlaubnis 3
erleben 3
erlebte 3
erledigt 3
ermögliche 3
ernd 3
ernden 3
erneuten 3
err@@ 3
erraum 3
erreichbar 3
erscheinende 3
erschließen 3
ersetzt 3
erstmal 3
erteilt 3
erungs@@ 3
erw@@ 3
erweiter@@ 3
erwerben 3
erwiesen 3
erwischt 3
erwähnt 3
erwähnte 3
esen 3
esischen 3
eskaliert 3
esse 3
este 3
ester 3
eter 3
eter@@ 3
etten 3
etten@@ 3
etzen 3
etzt 3
euer@@ 3
euert 3
euph@@ 3
eute 3
ev@@ 3
evolution@@ 3
existi@@ 3
experte 3
explo@@ 3
extravag@@ 3
ezei@@ 3
f-@@ 3
fahn@@ 3
faktisch 3
fal@@ 3
farben 3
fasst 3
fe@@ 3
fehl@@ 3
fehler 3
fein@@ 3
fers 3
fes 3
feste 3
festgelegten 3
fight 3
fil@@ 3
film 3
films 3
finale 3
finales 3
finanz@@ 3
finanzen 3
finanzieren 3
fing 3
flog 3
flug 3
fläche 3
flü@@ 3
folgten 3
formen 3
forschungs@@ 3
fort@@ 3
freiwillig 3
freu@@ 3
freundlich 3
freundlichen 3
freut 3
frisch 3
frist 3
früherer 3
frühestens 3
fs@@ 3
funktion 3
fäl@@ 3
fügt 3
führend 3
führenden 3
füllt 3
fün@@ 3
fünfte 3
g-@@ 3
gal@@ 3
gangs 3
ganz@@ 3
garten 3
gas@@ 3
gebildet 3
gebung 3
gebühr 3
gebürtigen 3
geeignet 3
geflogen 3
gefährden 3
gefährliche 3
gefährlichen 3
gefährlicher 3
gegenwärtige 3
gegründete 3
geheim@@ 3
geheime 3
gehängt 3
gehöre 3
gekrönt 3
gele@@ 3
gelegentlich 3
gelenk@@ 3
gelernt 3
gelte 3
gend@@ 3
gender 3
genehmi@@ 3
generell 3
genie@@ 3
gep@@ 3
geprägt 3
gepumpt 3
gerech@@ 3
geredet 3
gereicht 3
gerich@@ 3
gerichtlich 3
gerin 3
gerä@@ 3
gescheiterten 3
geschi@@ 3
geschickt 3
geschieht 3
geschildert 3
geschlossenen 3
geschn@@ 3
geschockt 3
geschossen 3
geschäftsführer 3
geschätzt 3
geschützt 3
gesellschaf@@ 3
gesellschaftlichen 3
gesellschafts@@ 3
gesetzes 3
gesetzliche 3
gespannt 3
gesteigert 3
gestellte 3
gestellten 3
gestohlen 3
gestoppt 3
gestr@@ 3
gestört 3
gesunde 3
geteilt 3
gewahrt 3
gewannen 3
gewerkschaft 3
gewidmet 3
gewiss 3
gewisse 3
gewissen 3
gewährt 3
gewöhnlich 3
gewürdigt 3
gezielte 3
gin@@ 3
gischen 3
gkeiten 3
gleichnamigen 3
gler 3
glichen 3
glänzen 3
gnis 3
goldenen 3
graben 3
gram@@ 3
grau 3
greift 3
gremium 3
grenzt 3
griff 3
großzü@@ 3
größen 3
grün 3
grüne 3
gut@@ 3
gän@@ 3
gänzlich 3
gü@@ 3
gül@@ 3
günstig 3
h-@@ 3
hab 3
hafter 3
hag@@ 3
halber 3
halle 3
halts@@ 3
haltung 3
ham 3
ham@@ 3
han 3
handele 3
harsche 3
harter 3
hartnäckig 3
hast 3
haus@@ 3
he@@ 3
hel@@ 3
heran@@ 3
herausge@@ 3
herd 3
herren 3
herstellen 3
hervor@@ 3
hervorrag@@ 3
herz@@ 3
herzustellen 3
hessischen 3
heu@@ 3
heutigen 3
heutzutage 3
hielten 3
hinein@@ 3
hingelegt 3
hinnehmen 3
hinterlassen 3
hinweg 3
hinzu@@ 3
hochwertige 3
hoffnungs@@ 3
hohes 3
hop 3
hor@@ 3
hun@@ 3
härtere 3
häss@@ 3
höchst 3
höchste 3
hörte 3
hörten 3
i-@@ 3
ick@@ 3
ics 3
ideal 3
iers 3
ierungen 3
ik@@ 3
ilfe 3
ille 3
illustr@@ 3
impon@@ 3
inar@@ 3
indessen 3
indirekt 3
individuell 3
industri@@ 3
inhaltlich 3
ini@@ 3
inner@@ 3
inneren 3
ins@@ 3
institut 3
institute 3
inte@@ 3
intellektu@@ 3
intelligenten 3
intensive 3
interviewen 3
invest@@ 3
iranische 3
irgendwie 3
ischer@@ 3
ises 3
iss 3
issions@@ 3
istin 3
it 3
ital 3
italienische 3
itt 3
itzen 3
itzer 3
ität 3
ium 3
jagen 3
japanische 3
jemanden 3
jeweiligen 3
job 3
jugendlichen 3
jur@@ 3
jüdischen 3
jüngst 3
kab@@ 3
kal@@ 3
kalifornischen 3
kalkuliert 3
kalten 3
kanadische 3
kandi@@ 3
kannte 3
kapitäns 3
kar@@ 3
kasse 3
kast@@ 3
kasten 3
katzen 3
kauft 3
kehr 3
kehr@@ 3
keines 3
keit 3
kel@@ 3
ki 3
kin@@ 3
kirche 3
klagt 3
klar@@ 3
klargemacht 3
klass@@ 3
klassen 3
klassischen 3
klebt 3
klein@@ 3
kleines 3
kletterte 3
klicken 3
klinik 3
klu@@ 3
knall@@ 3
kni@@ 3
kommun@@ 3
kompet@@ 3
konjunktur@@ 3
konjunkturelle 3
konkret 3
konkrete 3
konzentrierte 3
konzerne 3
korrekt 3
kostenlos 3
kostenlose 3
kraft 3
krank 3
kredite 3
kreis 3
kri@@ 3
kräften 3
ktiven 3
kts 3
kund@@ 3
kunde 3
kunst 3
kunst@@ 3
kurdischen 3
kurs 3
kurse 3
kurz@@ 3
kämpf@@ 3
käufer 3
kü@@ 3
kümmert 3
lahm 3
langes 3
langfristige 3
langweilig 3
lass@@ 3
lauf 3
laufe 3
leb@@ 3
lebende 3
lebenden 3
leere 3
legal 3
legendären 3
legung 3
leh@@ 3
leich@@ 3
leichte 3
leidet 3
leuchten 3
liber@@ 3
lichere 3
licherweise 3
lichkeit@@ 3
lichkeiten 3
lichsten 3
lichung 3
lieb@@ 3
liebe 3
liebt 3
liefen 3
liest 3
ließe 3
lig@@ 3
liga 3
lin 3
line 3
linge 3
linie 3
linien 3
lit@@ 3
llen 3
llner 3
lo 3
loch 3
lohn 3
lte 3
lus@@ 3
luss 3
läch@@ 3
lächelt 3
längere 3
längeren 3
läu@@ 3
lös@@ 3
löst 3
lösung 3
lügen 3
m-@@ 3
machbar 3
macher 3
mai@@ 3
malige 3
managerin 3
manchen 3
mangel@@ 3
manipuliert 3
manns 3
mannschaft 3
mas 3
mat@@ 3
mehrheitlich 3
mehrmals 3
mei@@ 3
meisterin 3
meldet 3
menschlichen 3
ment@@ 3
mern 3
mes@@ 3
messe 3
messer 3
mig 3
milde 3
milit@@ 3
militärische 3
minim@@ 3
mische 3
mitgeteilt 3
mitsamt 3
mitt@@ 3
mitteln 3
mittelstän@@ 3
modells 3
moderate 3
motiviert 3
mus@@ 3
muslimische 3
märkte 3
müde 3
na 3
nachgewiesen 3
nachhaltig 3
nachträglich 3
nackten 3
naiv 3
nden 3
nder 3
neben@@ 3
negativ 3
nei@@ 3
nein 3
neten 3
nich@@ 3
nicht@@ 3
niedrigen 3
niemandem 3
nier 3
nierte 3
nochmals 3
nominiert 3
normal 3
normalen 3
not 3
notiert 3
notwendige 3
nungs@@ 3
nunmehr 3
nutz@@ 3
nutzte 3
nächtliche 3
nö@@ 3
ober@@ 3
obje@@ 3
offensi@@ 3
offensive 3
offizielle 3
offiziellen 3
old 3
ollen 3
ometer 3
one 3
ons@@ 3
onsk@@ 3
oper@@ 3
opti@@ 3
optim@@ 3
ora 3
ordentliche 3
ore 3
oren@@ 3
orenen 3
orisch 3
ose@@ 3
ot 3
oten 3
our 3
p-@@ 3
palästinensischen 3
panorama 3
partei@@ 3
parteien 3
partie 3
passend 3
passende 3
pel 3
perspe@@ 3
pert 3
pfe 3
pfer 3
plan@@ 3
planen 3
platten 3
plä@@ 3
plänen 3
plötz@@ 3
populär 3
porträtiert 3
positionieren 3
positive 3
post@@ 3
ppel 3
ppen@@ 3
prak@@ 3
praktiz@@ 3
pre@@ 3
prechen 3
precher 3
predigt 3
preis@@ 3
prick@@ 3
prima 3
prinzi@@ 3
privil@@ 3
probleme 3
profi 3
profi@@ 3
profis 3
profitiert 3
prognose 3
programme 3
programms 3
promin@@ 3
promovierte 3
propag@@ 3
propagiert 3
prot@@ 3
protestiert 3
prä@@ 3
prämie 3
präsen@@ 3
präsentieren 3
prü@@ 3
prüft 3
quer 3
ra 3
radikalen 3
rang 3
ras@@ 3
rats@@ 3
ratsam 3
reagierte 3
realen 3
rechtfertigen 3
rechtlern 3
reckt 3
red@@ 3
redete 3
reg@@ 3
regel@@ 3
regelmäßigen 3
regier@@ 3
region 3
regionalen 3
registr@@ 3
regul@@ 3
reicher 3
reichsten 3
reinen 3
reis@@ 3
reißen 3
relati@@ 3
repräsentiert 3
respe@@ 3
richter 3
riebenen 3
riefen 3
ries@@ 3
ris 3
risiken 3
robust 3
robuster 3
rolle 3
rom@@ 3
rot 3
roter 3
ruf 3
rufen 3
ruhiger 3
rutschte 3
rutschten 3
rät 3
räum@@ 3
räume 3
räumt 3
rö@@ 3
rühmt 3
sa 3
sach@@ 3
sagten 3
sahen 3
sammelte 3
sank 3
sar@@ 3
satz 3
sau@@ 3
saß 3
schafften 3
schar@@ 3
scharfen 3
schaute 3
schein@@ 3
schen@@ 3
schend 3
schenken 3
schießen 3
schiff 3
schild 3
schlachten 3
schlagartig 3
schle@@ 3
schlimmsten 3
schlossen 3
schmalen 3
schmerzen 3
schnei@@ 3
schneiden 3
schre@@ 3
schreck@@ 3
schrift@@ 3
schu@@ 3
schul@@ 3
schuld 3
schulen 3
schuss 3
schutz-@@ 3
schwanger 3
schwarz-@@ 3
schwelt 3
schweres 3
schwierig 3
schwierigen 3
schwieriger 3
schwul 3
schäbi@@ 3
schärf@@ 3
schätzt 3
schö@@ 3
schüler 3
schützer 3
sechs@@ 3
sechste 3
seinerseits 3
seitdem 3
seither 3
seltsam 3
seltsamen 3
sent@@ 3
serfolg 3
servi@@ 3
serviert 3
setzten 3
sicherstellen 3
sicherung 3
sichtlich 3
sidentin 3
sieger 3
sim@@ 3
sin 3
singt 3
sinkenden 3
sion 3
sitzung 3
ski@@ 3
sofern 3
sogenannter 3
soviel 3
sowjetischen 3
sozial@@ 3
spektakul@@ 3
spezi@@ 3
speziellen 3
spiele 3
spieler 3
sport 3
sport.ARD.de 3
sport@@ 3
sportler 3
sportlich 3
spreche 3
sprecher 3
sprung 3
spä@@ 3
späteren 3
staat@@ 3
staatlich 3
staatsanwaltschaftlichen 3
stab@@ 3
stadt@@ 3
stammen 3
star 3
star@@ 3
starker 3
station 3
stationiert 3
stattdessen 3
ste@@ 3
steam 3
steh@@ 3
steigerung 3
stes 3
steuer@@ 3
steuert 3
stieß 3
stimm@@ 3
stimmen 3
stimmt 3
stimmte 3
sto@@ 3
stol@@ 3
stoppen 3
strafrechtlich 3
strateg@@ 3
strategische 3
streitet 3
stren@@ 3
strenge 3
strengen 3
stru@@ 3
studierte 3
studios 3
stunden 3
ständigen 3
stätte 3
stöhnen 3
stör@@ 3
stürzte 3
suche 3
suchte 3
suchten 3
sum@@ 3
suspendiert 3
szene 3
sä@@ 3
sämtliche 3
sämtlichen 3
südkoreanische 3
tage 3
tags 3
tal 3
tal@@ 3
tat 3
tatsächlichen 3
technische 3
teilnehmen 3
telefon@@ 3
tempor@@ 3
tenden 3
tens 3
tent@@ 3
ter-@@ 3
terer 3
terinnen 3
terne 3
terte 3
testen 3
teuersten 3
teuren 3
thema 3
theoretisch 3
tie@@ 3
tigkeit 3
tigten 3
tiken 3
tin@@ 3
tion 3
tis 3
tische 3
titel 3
tlicher 3
tner 3
tor 3
tor@@ 3
total 3
toten 3
traditionellen 3
trag@@ 3
training 3
trau@@ 3
trenn@@ 3
trieben 3
trinken 3
tron@@ 3
tropischen 3
tschaft 3
tss@@ 3
tte 3
tue 3
tur@@ 3
typisch 3
typische 3
tät 3
täts@@ 3
tödliche 3
tümer 3
umfangrei@@ 3
umfassende 3
umgeben 3
umgehend 3
umgestellt 3
umgewandelt 3
ummen 3
umstritten 3
umzu@@ 3
unabhängige 3
unbarmher@@ 3
unbefriedigend 3
unden 3
unfall 3
ungeh@@ 3
ungewiss 3
ungewöhn@@ 3
ungseff@@ 3
ungsexper@@ 3
unliebsame 3
unnö@@ 3
unschuldige 3
unterdessen 3
unterhalb 3
unterhalten 3
unterirdischen 3
unterliegen 3
unterricht 3
unterrichtet 3
unterzogen 3
unzureichend 3
uri@@ 3
urs 3
uti@@ 3
vagen 3
venezol@@ 3
verab@@ 3
verabschieden 3
verantwortlichen 3
verbandes 3
verbands 3
verbinden 3
verbindet 3
verbindlich 3
verbl@@ 3
verbu@@ 3
verdam@@ 3
verdanken 3
verdankt 3
verdien@@ 3
verdoppelt 3
verdutzt 3
vere 3
vereins 3
verfallen 3
verfassungs@@ 3
verfügt 3
vergab 3
vergebenen 3
vergleichbar 3
vergleichen 3
verhaftet 3
verhand@@ 3
verhandlungen 3
verheerenden 3
verhinderte 3
verhältnissen 3
verhängt 3
verkauf 3
verkauf@@ 3
verkauften 3
verkehrs@@ 3
verlagert 3
verleihen 3
verletzen 3
verletzungen 3
verließ 3
verlängern 3
vermarkten 3
vermehr@@ 3
vermieden 3
vermischtes 3
vermisst 3
vermögen 3
vernehmen 3
vernünftig 3
verpasst 3
verpasste 3
vers 3
versagt 3
verschi@@ 3
verschmutz@@ 3
verschul@@ 3
verschwinden 3
verschwunden 3
versteht 3
verständigen 3
verständnis 3
versu@@ 3
versuche 3
vert@@ 3
vertei@@ 3
verteilung 3
verteuerte 3
verursachen 3
verwahr@@ 3
verweist 3
verzeichnet 3
vieren 3
viertel 3
virtuelle 3
volumen 3
vorange@@ 3
vorbereiten 3
vorgehen 3
vorgelegten 3
vorhaben 3
vorkommen 3
vorliegt 3
vorläufi@@ 3
vornherein 3
vorsieht 3
vorsitzender 3
vorwerfen 3
vorzeitig 3
vorzeitige 3
vorzeitigen 3
vorzulegen 3
vorüber 3
wachsende 3
wag@@ 3
wagens 3
wahl@@ 3
wand 3
warb 3
warmen 3
wasser 3
wasser@@ 3
webwelt 3
wechselte 3
wecken 3
weckt 3
wege 3
wehren 3
weibliche 3
weichen 3
wein 3
weit@@ 3
weitermachen 3
weites 3
werdenden 3
werk@@ 3
werken 3
werte 3
werten 3
wertung 3
wes@@ 3
wichen 3
wichtiges 3
wider 3
wiederholt 3
willigen 3
willkommen 3
winter@@ 3
winterlichen 3
wirklichen 3
wirksamen 3
wirt 3
wirtschaf@@ 3
wissenschaft 3
wissenschaftler 3
wissenschaftlicher 3
wobei 3
woh@@ 3
wort@@ 3
wuchs 3
wände 3
wünscht 3
würdige 3
würdigen 3
yp@@ 3
ys@@ 3
ystems 3
zahl@@ 3
zahlungen 3
zahlungs@@ 3
zeitgenössischen 3
zeitweise 3
zellen 3
zelt 3
zelten 3
zene 3
zerr@@ 3
zeuge 3
zeugen 3
ziehe 3
zierte 3
ziger 3
zte 3
zuführen 3
zugehöri@@ 3
zugelegt 3
zugesagt 3
zugestimmt 3
zugreifen 3
zugute 3
zukünftige 3
zulassen 3
zumeist 3
zun@@ 3
zur@@ 3
zurecht 3
zurzeit 3
zurückgegangen 3
zurückgewiesen 3
zurückhalten 3
zurückkehrte 3
zurückzahlen 3
zurückziehen 3
zusammengezogen 3
zuverlässig 3
zweier 3
zweifellos 3
zweistelli@@ 3
zy@@ 3
zählten 3
zögerlich 3
Ägypten 3
Ähn@@ 3
Är@@ 3
Öff@@ 3
Öl- 3
Überra@@ 3
Überraschung 3
Überraschungs@@ 3
Überschwemmungen 3
Übungen 3
ßer@@ 3
ßung 3
ähn@@ 3
äht 3
äl@@ 3
älteste 3
ämter 3
änen 3
änger 3
ärer 3
ärgern 3
ärzte 3
ärztliche 3
äußert 3
öff@@ 3
öffentlicher 3
öffnen 3
öhn@@ 3
ökologisch 3
öl@@ 3
öpf@@ 3
ören 3
örper 3
österreichische 3
üb@@ 3
überdies 3
überfordert 3
überführt 3
überholte 3
überrag@@ 3
übertrag@@ 3
überwiegend 3
überwäl@@ 3
übt 3
üch@@ 3
üh@@ 3
ünstigen 3
ürz@@ 3
ürzt 3
-Affäre 2
-Anteil 2
-Autor 2
-Be@@ 2
-Bel@@ 2
-Berlin 2
-Best@@ 2
-Besuch 2
-Betriebs@@ 2
-Bilanz 2
-Bilder 2
-Block 2
-Block@@ 2
-Boss 2
-Br@@ 2
-Bran@@ 2
-D@@ 2
-Daten 2
-Er@@ 2
-Fahr@@ 2
-Führer 2
-Führung 2
-Geschäft 2
-Giganten 2
-Gründer 2
-Herstellers 2
-Häftlinge 2
-Jähriger 2
-Kap@@ 2
-Ki@@ 2
-Kollektion 2
-Kunden 2
-Management 2
-Mindest@@ 2
-Programm 2
-Scre@@ 2
-See 2
-Skandal 2
-Sparte 2
-Spezial 2
-Sportdirektor 2
-Sterne-@@ 2
-Te@@ 2
-Team 2
-Titel 2
-Tochter 2
-Tri@@ 2
-Truppen 2
-Verhältnis 2
-Verlag 2
-Version 2
-WM 2
-Zitat 2
-und 2
-Ära 2
.10 2
.10.@@ 2
0,1518,50211@@ 2
0,1518,50@@ 2
0,32 2
0,5 2
0,9 2
0-Sieg 2
000-@@ 2
000-Einwohner-Stadt 2
03.09.2007 2
03.10.2007 2
06.09.2007 2
07.09.2007 2
07@@ 2
08@@ 2
1,26 2
1,35@@ 2
1,36@@ 2
1,41 2
1,8 2
1,9 2
1-S@@ 2
1.000 2
10-@@ 2
10.09.2007 2
100-@@ 2
100@@ 2
101 2
106 2
11.11.2007 2
11.@@ 2
117 2
12,@@ 2
12.10.2007 2
1210@@ 2
1211@@ 2
1215@@ 2
1224@@ 2
12255@@ 2
12265@@ 2
1230@@ 2
1246@@ 2
130.000 2
134 2
140 2
142 2
145 2
146 2
148 2
15,2 2
15,5 2
150.000 2
155 2
16,@@ 2
16.09.2007 2
166 2
17-jährigen 2
17.30 2
1700 2
177 2
18,5 2
18.11.2007 2
18.@@ 2
180 2
1830 2
1832 2
19,@@ 2
19.@@ 2
19.html 2
1910 2
1946 2
195 2
1950 2
1956 2
1957 2
1965 2
1973 2
1974 2
1980@@ 2
1985 2
1989 2
1992 2
2,6 2
2,8 2
2,9 2
2-@@ 2
2-Niederlage 2
2.0 2
2.@@ 2
20,@@ 2
20-@@ 2
2014 2
2015 2
21,@@ 2
21.09.2007 2
21@@ 2
22-@@ 2
228@@ 2
235 2
240 2
240.000 2
2400 2
25,@@ 2
25-Jährige 2
250.000 2
256 2
26,4 2
26.09.2007 2
26.12.2007 2
260 2
2686@@ 2
27.12.2007 2
2709@@ 2
271 2
275 2
28.12.2007 2
3,5 2
3,8 2
3,9 2
30.09.2007 2
30.12.2007 2
30.@@ 2
300.000 2
301 2
31.@@ 2
31@@ 2
329 2
33-Jährige 2
33. 2
33@@ 2
350.000 2
36-jährige 2
38,@@ 2
39. 2
39@@ 2
4,9 2
4.html 2
400@@ 2
41-@@ 2
42. 2
43. 2
450@@ 2
46.000 2
48-Jährige 2
486@@ 2
49,@@ 2
49. 2
49.html 2
5,00.html 2
5,07 2
5,1 2
5,4 2
5,8 2
5-@@ 2
5.html 2
52-Jährige 2
54. 2
55-Jährige 2
6,9 2
6.000 2
62-Jährigen 2
62@@ 2
63.html 2
65. 2
66. 2
67 2
67@@ 2
68@@ 2
69 2
69. 2
7,1 2
700.000 2
70er 2
720 2
73. 2
75@@ 2
76@@ 2
77@@ 2
78. 2
785 2
79. 2
8,4 2
8.html 2
801 2
80er 2
810 2
847@@ 2
855@@ 2
88@@ 2
89 2
90-@@ 2
90. 2
97 2
98 2
99 2
99@@ 2
A4 2
AA@@ 2
ABN 2
ADA 2
AKW-@@ 2
AM 2
AM@@ 2
AN@@ 2
AR@@ 2
ARD@@ 2
AS 2
AT@@ 2
ATP-@@ 2
Aach@@ 2
Abbas 2
Abdul 2
Abenteurer 2
Aber@@ 2
Abfuhr 2
Abgabe 2
Abgas@@ 2
Abgel@@ 2
Abgeltungsteuer 2
Abgeord@@ 2
Abgesehen 2
Abhol@@ 2
Abhängigkeit 2
Abhören 2
Abit@@ 2
Abkehr 2
Abkommen 2
Abläufe 2
Ablösesummen 2
Abramowitsch 2
Abrechnung 2
Abrüstung 2
Absatz@@ 2
Abschalten 2
Abschwächung 2
Absprache 2
Abstieg 2
Abstiegs@@ 2
Abstimm@@ 2
Abstimmungs@@ 2
Abstr@@ 2
Abtrennung 2
Abwägung 2
Abwärtstrend 2
Abzüge 2
Ac@@ 2
Achse 2
Acht 2
Acht@@ 2
Achtzylin@@ 2
Adi@@ 2
Adidas 2
Adop@@ 2
Adorf 2
Adressen 2
Adv@@ 2
Affe 2
Affen 2
Afghanistan-@@ 2
Afghanistan-Einsatz 2
Afrikas 2
Agen@@ 2
Agenten 2
Agentur@@ 2
Aggreg@@ 2
Agüero 2
Ahmad 2
Ai@@ 2
Aids 2
Aigner 2
Air-@@ 2
Airbags 2
Airbus-Mut@@ 2
Airport 2
Airways 2
Akademi@@ 2
Akku 2
Akquisi@@ 2
Akro@@ 2
Akt 2
Akteure 2
Aktienbörse 2
Aktienbörsen 2
Aktienfonds 2
Aktion@@ 2
Aktionär 2
Aktiv 2
Akzent 2
Alan 2
Alarm 2
Alarm@@ 2
Albert 2
Albrecht 2
Albtraum 2
Albträume 2
Alcan 2
Aldi 2
Alex 2
Alexandra 2
Alfred 2
Algen 2
Alice 2
Alkohol@@ 2
Alle@@ 2
Allgemein@@ 2
Allgemeine 2
Allgemeinverbind@@ 2
Alli@@ 2
Allofs 2
Alltag 2
Almunia 2
Alois 2
Als@@ 2
Altern@@ 2
Altersversorgung 2
Altersvorsorge 2
Altona 2
Aluminium@@ 2
Amanatidis 2
Amat@@ 2
Ambi@@ 2
Ambiente 2
Ame@@ 2
America 2
Amo@@ 2
Amro 2
Amtskollege 2
Amy 2
Analysen 2
Anbietern 2
And@@ 2
Anden 2
Andenken 2
Andererseits 2
Andernfalls 2
Anfänge 2
Anführ@@ 2
Ang 2
Ange@@ 2
Angebots 2
Angeführt 2
Angelegenheiten 2
Angerer 2
Angriffen 2
Angst@@ 2
Anhaltspunkte 2
Anhebung 2
Anhän@@ 2
Anhänger@@ 2
Anhörung 2
Anita 2
Ankläger 2
Ankunft 2
Anlag@@ 2
Anlage@@ 2
Anlagenbauer 2
Anlagestrategie 2
Anlageuniversum 2
Anlauf 2
Anlässen 2
Anmeldung 2
Anna 2
Annahme 2
Annalen 2
Anni@@ 2
Annäherung 2
Ansage 2
Anschl@@ 2
Anschuldigungen 2
Ansichten 2
Ansprüche 2
Ansprüchen 2
Anstalten 2
Ansätze 2
Antalya 2
Anteil@@ 2
Anti-@@ 2
Anti-Doping-Agentur 2
Anti-K@@ 2
Antiquit@@ 2
Antoni@@ 2
Antrieb 2
Antwerpen 2
Anwalts@@ 2
Anwendung 2
Anwesenden 2
Anzeige 2
Anziehungskraft 2
Apokalypse 2
Apothek@@ 2
App@@ 2
Appell 2
Applaus 2
Apple-Fan 2
Apples 2
Arab@@ 2
Arbei@@ 2
Arbeitge@@ 2
Arbeitgeber@@ 2
Arbeitsagent@@ 2
Arbeitskampf@@ 2
Arbeitslose 2
Arbeitslosengeldes 2
Arbeitslosigkeit 2
Arbeitsmarktpolitik 2
Arc 2
Arcand@@ 2
Archi@@ 2
Archite@@ 2
Architekt 2
Archiv 2
Archivbild 2
Archäologen 2
Arcor 2
Are@@ 2
Arezzo 2
Argent@@ 2
Argument 2
Armee-@@ 2
Armen@@ 2
Armin 2
Armstrong 2
Arnold 2
Arsenal 2
Artikels 2
Asamoah 2
Aschaffenburg 2
Ashkan 2
Asiens 2
Aspe@@ 2
Aspekte 2
Ass@@ 2
Assozi@@ 2
Astana 2
Astr@@ 2
At 2
Atelier 2
Atem@@ 2
Atemwege 2
Athle@@ 2
Athlet 2
Atlas 2
Atomb@@ 2
Atomenergie 2
Atomkraft 2
Atomkraftwerke 2
Atomprogramm 2
Atomstrom 2
Atomwaffen 2
Attentat 2
Attentäter 2
Audi 2
Audi@@ 2
Aue 2
Aufbau@@ 2
Aufbruchstimmung 2
Aufent@@ 2
Auff@@ 2
Auffälligkeiten 2
Aufführung 2
Aufhebens 2
Aufholjagd 2
Aufschwung@@ 2
Aufseher 2
Aufsichtsrats 2
Aufsichtsratschef 2
Aufsichtsräte 2
Aufstand 2
Aufstockung 2
Auftak@@ 2
Auftaktspiel 2
Auftritts 2
Aufzeichnung 2
Auge 2
Augenbraue 2
Augenzeugen 2
Auktions@@ 2
Aung 2
Aur@@ 2
Ausbildungsplatz 2
Ausdauersport@@ 2
Ausfall@@ 2
Ausflug 2
Ausflugs@@ 2
Ausgestoßenen 2
Ausgleichstor 2
Ausgrabungen 2
Auskünfte 2
Ausland@@ 2
Auslegung 2
Auslieferung 2
Auslän@@ 2
Ausländer 2
Ausnahmes@@ 2
Ausnahmezustands 2
Aussagek@@ 2
Ausschreibung 2
Ausschütt@@ 2
Aussehen 2
Ausstellungs@@ 2
Ausstrahlung 2
Aust@@ 2
Australian-Open-Halbfinalist 2
Australiens 2
Austrian 2
Auswahl@@ 2
Auswär@@ 2
Auszeichnung 2
Auszubil@@ 2
Autobahn-@@ 2
Autobahnen 2
Autoc@@ 2
Autoh@@ 2
Automatik 2
Autors 2
Autos@@ 2
Außenamtssprecher 2
Außenbord@@ 2
Außenministerium 2
Außer 2
Außer@@ 2
Außerhalb 2
Avenue 2
Avi@@ 2
Axa 2
Axel 2
Az@@ 2
BB@@ 2
BDI 2
BDR 2
BGH 2
BKA 2
BMW-Sauber 2
BMW@@ 2
BaFin 2
Bad@@ 2
Baden-Baden 2
Baer 2
Bahnchef 2
Bahnhof 2
Bahnkunden 2
Bahnvorstand 2
Baker 2
Bakterien 2
Balance 2
Ballon@@ 2
Balzac 2
Bam@@ 2
Ban 2
Banker 2
Barak 2
Barbarez 2
Bargeld 2
Barmstedt 2
Barschel 2
Barschels 2
Bart@@ 2
Bartels 2
Barth@@ 2
Baseball@@ 2
Basi@@ 2
Basket@@ 2
Bastürk 2
Batas@@ 2
Batterie@@ 2
Baubeginn 2
Bauboom 2
Bauch 2
Baugrund 2
Baukonzerns 2
Baumbach 2
Baumeister 2
Baustelle 2
Baustellen 2
Baustopp 2
Bauunternehmen 2
BayernLB 2
Bd 2
Beat@@ 2
Beate 2
Beauftragte 2
Beb@@ 2
Becken 2
Beckenbauer 2
Becks 2
Bedingung 2
Bedrängnis 2
Beete 2
Befreiungs@@ 2
Befrie@@ 2
Befu@@ 2
Befund 2
Befürwor@@ 2
Begeh@@ 2
Begrüßungs@@ 2
Behandlungs@@ 2
Beilegung 2
Beispiele 2
Beitrags 2
Beiträge 2
Beiträgen 2
Bekannt 2
Bekannten 2
Bekenner@@ 2
Bekämpf@@ 2
Belastungen 2
Beleg 2
Belei@@ 2
Beleidigung 2
Belenenses 2
Beleu@@ 2
Belgiens 2
Bembel 2
Bemühen 2
Bemühungen 2
Bench@@ 2
Benedi@@ 2
Benjamin 2
Benker 2
Bensel 2
Benzin 2
Benziner 2
Beppe 2
Beratungs@@ 2
Beratungsfirmen 2
Berbatow 2
Berg 2
Bergdorf 2
Berge 2
Berger 2
Bernanke 2
Berner 2
Berrer 2
Bert 2
Bertelsmann 2
Berufserfahrung 2
Beruhigung 2
Berühr@@ 2
Besatz@@ 2
Beschaffung 2
Bescherung 2
Beschlüsse 2
Beschreibung 2
Beschäftig@@ 2
Beschäftigungen 2
Beseitigung 2
Besitz@@ 2
Besonderes 2
Besonderheit 2
Besonderheiten 2
Besprochen 2
Bestattungen 2
Bestech@@ 2
Bestehen 2
Bestseller@@ 2
Bestätigung 2
Besuche 2
Besuchern 2
Beton 2
Betrachter 2
Betrachtung 2
Betrei@@ 2
Betreuung 2
Betreuungs@@ 2
Betriebe 2
Betrieben 2
Betriebsergebnis 2
Betroffen 2
Betroffene 2
Beträge 2
Betrüger 2
Bettina 2
Beu@@ 2
Beurteilung 2
Beust 2
Beute 2
Bevölkerungszahl 2
Beweis 2
Bewerbung 2
Bewilligungs@@ 2
Bewusstsein 2
Bewährungs@@ 2
Bewährungsstrafe 2
Bezir@@ 2
Bhut@@ 2
Bibliothek 2
Bibliotheken 2
Biedenk@@ 2
Bien@@ 2
Bieterkreis 2
Big 2
Biker 2
Bilanzen 2
Bildungssystem 2
Billig-@@ 2
Billionen 2
Billy 2
Bin 2
Binnen 2
Biodiesel 2
Biografie 2
Biograph@@ 2
Biokraft@@ 2
Biom@@ 2
Biotech 2
Birgit 2
Birnbaum 2
Bis@@ 2
Bischofs 2
Bischofskonferenz 2
Biss 2
Bistum 2
Black@@ 2
Blake 2
Blas@@ 2
Blauen 2
Blazek 2
Ble@@ 2
Blech@@ 2
Blei 2
Bleibt 2
Blessuren 2
Bli@@ 2
Blindheit 2
Block@@ 2
Blog 2
Blogger 2
Blon@@ 2
Blu-ray-@@ 2
Blue 2
Bluetec 2
Blumen 2
Blumenstrauß 2
Blument@@ 2
Blätter 2
Blödsinn 2
Blü@@ 2
Bobby 2
Bochumer 2
Bock@@ 2
Bohl@@ 2
Bohsem 2
Bolivien 2
Bolten 2
Bomb@@ 2
Bombenan@@ 2
Bombenanschlag 2
Bond 2
Boock 2
Booms 2
Boot 2
Bordell@@ 2
Bot@@ 2
Botschaf@@ 2
Boulev@@ 2
Bourne 2
Bow@@ 2
Box 2
Boxer 2
Boykott 2
Branchendienst 2
Branchenverband 2
Brandenburger 2
Brasilianers 2
Bratislava 2
Brauch 2
Brauerei 2
Braun 2
Braun@@ 2
Braunkohlekraft@@ 2
Braut 2
Brav@@ 2
Break@@ 2
Breit@@ 2
Breite 2
Brenn@@ 2
Brie@@ 2
Briefzusteller 2
Brigitte 2
Brilliance 2
Brisanz 2
Brit@@ 2
Brum@@ 2
Brunsbüttel 2
Brust 2
Brust@@ 2
Brut@@ 2
Brutalität 2
Brutto@@ 2
Brü@@ 2
Brüder 2
Buches 2
Buer@@ 2
Bum 2
Bundesamt 2
Bundesan@@ 2
Bundesanleihen 2
Bundesanwaltschaft 2
Bundesaußenminister 2
Bundesbildungsministerin 2
Bundesbürger 2
Bundesfinanz@@ 2
Bundesgerichtshof 2
Bundesinnenminister 2
Bundesjus@@ 2
Bundeskartell@@ 2
Bundesligak@@ 2
Bundesligas@@ 2
Bundesligaspiel 2
Bundesligisten 2
Bundespräsidenten 2
Bundesrat 2
Bundestages 2
Bundestagsabgeordnete 2
Bundestagsabgeordneten 2
Bundestagsfraktion 2
Bundestagsvizepräsident 2
Bundestrainerin 2
Bundesumwelt@@ 2
Bundesverbandes 2
Bundesverkehrsminister 2
Bundesverkehrsministerium 2
Bundeswirtschafts@@ 2
Bunker@@ 2
Bunte 2
Burma 2
Bussen 2
Buster 2
Butler 2
Buße 2
Bußgelder 2
Bäume 2
Böll 2
Bücher@@ 2
Bünd@@ 2
Bündnis 2
Bürgerinitiative 2
Bürgerkrieg 2
Büro@@ 2
Bürokr@@ 2
Bürokratie 2
C-Klasse 2
C.@@ 2
CBS 2
CDU-Generalsekretär 2
CEO 2
CI@@ 2
CIA 2
CO2 2
CS@@ 2
CSU-Chef 2
CSU-Vorsitz 2
Ca@@ 2
Cabri@@ 2
Cabrio 2
Caf@@ 2
Cameron 2
Campus 2
Canon 2
Carlo 2
Carpendale 2
Carsten 2
Castro 2
Cat@@ 2
Cater@@ 2
Catherine 2
Cc 2
Ce@@ 2
Cen@@ 2
Central 2
Ces@@ 2
Chab@@ 2
Chabad 2
Cham@@ 2
Champagn@@ 2
Champions-League-Spiel 2
Chancengleichheit 2
Char@@ 2
Charakter@@ 2
Charaktere 2
Charlie 2
Charlotten@@ 2
Chase 2
Chat@@ 2
Chefcoach 2
Chefsache 2
Chemikalien 2
Chemnitz 2
Chemnitzer 2
Cheney 2
Chief 2
Chili 2
Chinas 2
Chip@@ 2
Chips 2
Chizen 2
Choupo-Moting 2
Chr@@ 2
Christentum 2
Christi@@ 2
Christine 2
Christliche 2
Christopher 2
Christus 2
Chrys@@ 2
Chu@@ 2
Cir@@ 2
Cit@@ 2
Claire 2
Clans 2
Class 2
Cle@@ 2
Clem@@ 2
Cleveland 2
Clo@@ 2
Clooneys 2
CoRo@@ 2
Code 2
Colorado 2
Com 2
Comdirect 2
Comedy 2
Comm@@ 2
Commun@@ 2
Communications 2
Compli@@ 2
Compu@@ 2
Computern 2
Condition@@ 2
Condoleezza 2
Conergy 2
Conference 2
Contador 2
Contergan@@ 2
Continental 2
Cool 2
Corinna 2
Cornelia 2
Corvette 2
Cott@@ 2
Coun@@ 2
Country@@ 2
County 2
Cour@@ 2
Craig 2
Crash@@ 2
Crem@@ 2
Cri@@ 2
Cro@@ 2
Cross@@ 2
Crouch 2
Cruise 2
Crème 2
Cups 2
Curko 2
DA@@ 2
DC-@@ 2
DER 2
DF@@ 2
DGB 2
DIW 2
DJ@@ 2
DNA-Spuren 2
DNA@@ 2
DOSB 2
DS@@ 2
DSF 2
DSL-@@ 2
DTT@@ 2
DTU 2
DTU-@@ 2
DVB- 2
DVD 2
DVDs 2
DVU 2
DW@@ 2
Dahinter 2
Daily 2
Dal@@ 2
Damien 2
Danke 2
Danone 2
Daraufhin 2
Daraus 2
Darcheville 2
Darf 2
Darin 2
Datenbank 2
Datensch@@ 2
Datenschutz 2
Datenverarbeitungs@@ 2
Davi@@ 2
Daviscu@@ 2
Dawiden@@ 2
Dawn 2
Decke 2
Deckung 2
Defensive 2
Definition 2
Deiche 2
Del@@ 2
Delegier@@ 2
Delhi 2
Dell 2
Dell@@ 2
Dementi 2
Demeter 2
Demmer 2
Demokrat@@ 2
Demokrati@@ 2
Demontage 2
Den@@ 2
Denkbar 2
Denkmal 2
Deo 2
Depots 2
Depression 2
Der@@ 2
Deren 2
Deriv@@ 2
Derweil 2
Dest@@ 2
Detroit 2
Deu@@ 2
Deuse 2
Deutsch-@@ 2
Deutsches 2
Deutschlandfunk 2
Deutung 2
Devise 2
Di 2
Diabetes-@@ 2
Diagnose 2
Diam@@ 2
Diamanten 2
Dian@@ 2
Dich 2
Dich@@ 2
Dick@@ 2
Dicke 2
Dieb@@ 2
Dienstleisters 2
Dienstleistungen 2
Diesel@@ 2
Diesen 2
Dietzsch 2
Diff@@ 2
Digital@@ 2
Dignitas 2
Dilemma 2
Dino 2
Diplom@@ 2
Discounter 2
Diskrimin@@ 2
Display 2
Distri@@ 2
Disziplinen 2
Dit@@ 2
Dividende 2
Diäten 2
Dohnanyi 2
Dokumentar@@ 2
Dokumentation 2
Dokumente 2
Dol@@ 2
Dollar-Noten 2
Dominik 2
Donad@@ 2
Doo@@ 2
Dopings 2
Dopingverdacht 2
Dopp@@ 2
Doppelhaushalt 2
Doppelsieg 2
Dorf 2
Dorn 2
Dorn@@ 2
Dorothee 2
Dow 2
Down 2
Down@@ 2
Drama 2
Dress@@ 2
Drill@@ 2
Drobny 2
Drogen 2
Drohung 2
Dschihad@@ 2
Dschungel 2
Dubai 2
Duft 2
Duma 2
Dumm@@ 2
Dunkel 2
Dunkel@@ 2
Duo 2
Durban 2
Durchschnitts@@ 2
Durststrecke 2
Dusch@@ 2
Dutt 2
Dutz@@ 2
Dynamik 2
Dänemarks 2
Dön@@ 2
Dör@@ 2
Dü@@ 2
Dün@@ 2
Dünger@@ 2
Dürr 2
E-M@@ 2
E-Mail@@ 2
E.on 2
E3 2
E4@@ 2
E90 2
ES@@ 2
EU-Ländern 2
EU-Währungskommissar 2
EU@@ 2
Earn@@ 2
Eb@@ 2
Ebbel@@ 2
Eben 2
Eberl 2
Ec@@ 2
Echo 2
Econom@@ 2
Ecuador 2
Ed@@ 2
Edwards 2
Egal 2
Eggert 2
Ehem@@ 2
Eher 2
Ehrengast 2
Ehrenmord 2
Ehrhart 2
Ehrlich 2
Ehrmann 2
Eifel 2
Eigelb 2
Eigenkapital 2
Eigenregie 2
Einfach 2
Einführ@@ 2
Eingriffe 2
Einkauf 2
Einkaufszentrum 2
Einkommensteuer 2
Einlass@@ 2
Einmal@@ 2
Einnahmeausfälle 2
Einsatzkräfte 2
Einsatzkräften 2
Einschaltquote 2
Einschränkungen 2
Einschätzungen 2
Einsparungen 2
Einstiegs@@ 2
Einstiegspreis 2
Einstufung 2
Einsturz 2
Einstwei@@ 2
Eintritts@@ 2
Einvernehmen 2
Einverständnis 2
Einwanderer 2
Einweihung 2
Einzelfall 2
Einzelhand@@ 2
Einzelhandel@@ 2
Einzelhandelsindex 2
Einzelheiten 2
Eisenbahn 2
Eisenbahn@@ 2
Eisschnell@@ 2
Ekstase 2
El 2
El-Kaida-@@ 2
Elementen 2
Eli@@ 2
Elisabeth@@ 2
Ell@@ 2
Emden 2
Emil 2
Emiraten 2
Emm@@ 2
Empfehlung 2
Empfängern 2
Empörung 2
Endkunden 2
Endr@@ 2
Energier@@ 2
Energiesparen 2
Energiesparlampen 2
Energieversorger 2
Energieversorgung 2
Energiewirtschaft 2
Engel@@ 2
Engländer 2
Enri@@ 2
Ensemble 2
Ensslin 2
Entert@@ 2
Entfernung 2
Entführung 2
Enthüll@@ 2
Entlang 2
Entschei@@ 2
Entscheidend 2
Entscheidungs@@ 2
Entsprechend 2
Entsteh@@ 2
Entwicklungen 2
Entwicklungshilfe 2
Epi@@ 2
Epilepsie 2
Epoche 2
Erben 2
Erdbeben@@ 2
Erden 2
Erderwärmung 2
Erdgas 2
Erdgas@@ 2
Erdölmetropole 2
Ereignisse 2
Erfolg@@ 2
Erfolgen 2
Erfolgrei@@ 2
Erfolgsaussichten 2
Erfur@@ 2
Ergebnissen 2
Ergo 2
Erhalt 2
Erholung 2
Eric 2
Erich 2
Erkenntnissen 2
Erklärungen 2
Erkrank@@ 2
Erlan@@ 2
Erleb@@ 2
Erlebnisse 2
Erleichterung 2
Ermittlungsverfahren 2
Ermordeten 2
Ern@@ 2
Ernennung 2
Erre@@ 2
Ersatzfahrplan 2
Ersatzfahrpläne 2
Ersatzmann 2
Erstligisten 2
Ertl 2
Erwartung 2
Erwerb 2
Erwerbs@@ 2
Erwin 2
Erwärmung 2
Erz@@ 2
Erzbistum 2
Erzeu@@ 2
Erzgebirge 2
Erziehung 2
Erzählen 2
Erzählung 2
Eröff@@ 2
Eskorte 2
Est@@ 2
Estland 2
Etage 2
Etat@@ 2
Eu@@ 2
Euph@@ 2
Europameister 2
Europe 2
Europäern 2
Eurosport 2
Evakuierungen 2
Evangelischen 2
Everton 2
Ewi@@ 2
Ex-Frau 2
Exe@@ 2
Exil-@@ 2
Exo@@ 2
Experiment 2
Experten@@ 2
Expertenansicht 2
Expor@@ 2
Extreme 2
Exz@@ 2
Exzessen 2
F-@@ 2
F. 2
F.A.Z.-@@ 2
FBI 2
FBI-@@ 2
FH 2
FIA 2
FIA-@@ 2
FIFA 2
FINANZ@@ 2
FSB 2
FTD-@@ 2
FTD-Online 2
Fabian 2
Fabio 2
Fabri@@ 2
Fabrik@@ 2
Fach- 2
Fachsprache 2
Fahrens 2
Fahrer@@ 2
Fahrgäste 2
Fahrrad@@ 2
Fahrräder 2
Fahrtbericht 2
Fahrten 2
Fahrwerk 2
Fakten 2
Faktor 2
Faktoren 2
Falsch@@ 2
Familienangehörigen 2
Familienministerin 2
Familienministerium 2
Familienpolitik 2
Family 2
Fan 2
Fant@@ 2
Fasch@@ 2
Fashion 2
Fass 2
Fassade 2
Faszination 2
Faust 2
Faust@@ 2
Fav@@ 2
Fax 2
Fech@@ 2
Feder@@ 2
Feh@@ 2
Fehlen 2
Fehler@@ 2
Fehlern 2
Fehlversuchen 2
Feier@@ 2
Feinde 2
Felber 2
Felder 2
Felmy 2
Fem@@ 2
Fen@@ 2
Fernschuss 2
Fernsehmoderatorin 2
Fernsehsender 2
Fernstu@@ 2
Ferrari@@ 2
Ferrer 2
Fertighaus@@ 2
Fertigungs@@ 2
Festival 2
Festlegung 2
Feuer@@ 2
Feuerwehr 2
Feuerwehr@@ 2
Feuerwerk 2
Feuerwerksk@@ 2
Fia 2
Fiat 2
Fiel@@ 2
Fifa-Exek@@ 2
Filesharer 2
Fili@@ 2
Filial@@ 2
Filiale 2
Film- 2
Filmemacher 2
Filmfestival 2
Filter 2
Final@@ 2
Finalisten 2
Finance 2
Finanzbeziehungen 2
Finanzhilfen 2
Finanzkrise 2
Finanzmarkt@@ 2
Finanzminister 2
Finanzmittel 2
Finanzpolitik 2
Finanzsen@@ 2
Finanztitel 2
Finanzvorstand 2
Finanzwerte 2
Finden 2
Fine 2
Finesse 2
Fingern 2
Finkes 2
Fir@@ 2
Firefox 2
Firmengründer 2
First 2
Fisch 2
Fisch@@ 2
Fit@@ 2
Flandern 2
Fleischab@@ 2
Flens@@ 2
Flensburger 2
Fließband 2
Flor@@ 2
Flugblätter 2
Fluggesellschaft 2
Flughafens 2
Flugzeugen 2
Flugzeuges 2
Flugzeughersteller 2
Flugzeugs 2
Fluten 2
Flä@@ 2
Flüchtlingen 2
Flügel@@ 2
Flüssigkeiten 2
Fo@@ 2
Focus 2
Folglich 2
Fonds@@ 2
Font@@ 2
Football 2
Forbes 2
Fords 2
Foren 2
Fork 2
Form@@ 2
Format 2
Formation 2
Formel-@@ 2
Formen 2
Forscher@@ 2
Fortbildungs@@ 2
Fortschritte 2
Forza 2
Fossett 2
Foster 2
Fot@@ 2
Fotograf 2
Frach@@ 2
Fragt 2
Fraktion@@ 2
Franc@@ 2
France 2
France-KLM 2
Francks 2
Frank@@ 2
Franka 2
Frankfur@@ 2
Frankreichs 2
Fraport 2
Frattini 2
Frauenan@@ 2
Frauenk@@ 2
Freddie 2
Freder@@ 2
Freen@@ 2
Freier 2
Freiheiten 2
Freiheitsstrafe 2
Freilassung 2
Freis@@ 2
Freistaat 2
Freitagabend 2
Freizeit 2
Freizeit@@ 2
Freizügi@@ 2
Fres@@ 2
Fresenius 2
Friedens@@ 2
Friedensnobelpreis 2
Friedensnobelpreisträgerin 2
Friedenstru@@ 2
Friedman 2
Friend 2
Friends 2
Frische 2
Friseurgewerbe 2
Fromme 2
Frü@@ 2
Frühaufsteher 2
Fuentes 2
Fuj@@ 2
Fuji 2
Ful@@ 2
Funk@@ 2
Funkel 2
Furore 2
Fuss@@ 2
Fut@@ 2
Fuß@@ 2
Fußball-Bund 2
Fußball-Europameisterschaft 2
Fußball-Union 2
Fußball-Verband 2
Fußball-Zweitlig@@ 2
Fähi@@ 2
Fälscher@@ 2
Fälschungen 2
För@@ 2
Fördermittel 2
Führungen 2
Führungse@@ 2
Führungsoffiziere 2
Führungsspitze 2
Führungstreffer 2
Fülle 2
Fün@@ 2
Fünftel 2
Fünften 2
Fürther 2
Füße 2
G-8-@@ 2
G-@@ 2
GDL-Vorsitzende 2
GDL@@ 2
GEW-@@ 2
GM-@@ 2
GP2-@@ 2
GPS-@@ 2
Ga@@ 2
Gab@@ 2
Galaxy 2
Galer@@ 2
Galerie 2
Galgen 2
Galileo 2
Gambar@@ 2
Games 2
Gangart 2
Ganz@@ 2
Ganze 2
Garanti@@ 2
Garde 2
Garden 2
Garderobe 2
Garten 2
Garten@@ 2
Gas-Pipeline 2
Gase 2
Gassen 2
Gastarbeiter 2
Gates 2
Gay 2
Gaza 2
Gebet@@ 2
Gebiete 2
Gebilde 2
Gebirge 2
Gebirgs@@ 2
Gebäu@@ 2
Gedankenf@@ 2
Gedränge 2
Gefangener 2
Gefolge 2
Gefährlichkeit 2
Gefällig@@ 2
Gefängnis@@ 2
Gegenden 2
Gegenspieler 2
Gegentreffer 2
Gegenwart 2
Gegnerinnen 2
Gegners 2
Gehalts@@ 2
Gehaltserhöhung 2
Gehei@@ 2
Geheimdienst@@ 2
Geheimnisse 2
Gehen 2
Gehir@@ 2
Gehirn 2
Gehry 2
Geiselhaft 2
Geiseln 2
Geist@@ 2
Geister@@ 2
Geistliche 2
Geiz@@ 2
Geklagt 2
Gelassenheit 2
Gelbe 2
Geldmarktfonds 2
Geldpolitik 2
Geldsorgen 2
Geldstrafen 2
Gelegentlich 2
Gelsenkirchen 2
Gelsenkirchener 2
Gemeinder@@ 2
Gemeinsamkeiten 2
Gemeinschaftsunternehmen 2
Gemeinschaftswährung 2
Gemisch@@ 2
Gemäldes 2
Gemü@@ 2
Gemüse 2
Gemüseh@@ 2
Gen-@@ 2
General-Motors-@@ 2
Generalanwalts 2
Generals 2
Generalstaatsanwaltschaft 2
Generationen 2
Generationen@@ 2
Genossen 2
Genossenschaf@@ 2
Genre 2
Gens 2
Genugtuung 2
Geor@@ 2
Georg-Büchner-Gymnasium 2
Georges 2
Georgiens 2
Gepl@@ 2
Gepäck@@ 2
Gerichtsbeschluss 2
Gerichtshofs 2
Gerichtsverfahren 2
German 2
Gerrard 2
Gerät 2
Geräten 2
Gerü@@ 2
Gerüchte 2
Gerüchteküche 2
Gerüchten 2
Gesamtbetriebs@@ 2
Gesamtsch@@ 2
Gesang 2
Gescheh@@ 2
Geschehen 2
Geschenk 2
Geschmacks@@ 2
Geschwor@@ 2
Geschäf@@ 2
Geschäfts 2
Geschäftsentwicklung 2
Geschäftsfelder 2
Gesell@@ 2
Gesetzentwur@@ 2
Gesichter 2
Gespür 2
Gestalten 2
Gestaltung 2
Gesundheitsministerin 2
Gesundheitswirtschaft 2
Getrei@@ 2
Getränk@@ 2
Gewer@@ 2
Gewerk@@ 2
Gewerkschafts@@ 2
Gewinner@@ 2
Gewinnmitnahmen 2
Gewinns 2
Gewährung 2
GfK 2
Ghana 2
Ghosn 2
Gibt 2
Gie@@ 2
Giegerich 2
Gilberto 2
Gill@@ 2
Girls 2
Git@@ 2
Gitarre 2
Gla@@ 2
Glad@@ 2
Glam@@ 2
Glamour-@@ 2
Glanz@@ 2
Glaubwür@@ 2
Gle@@ 2
Gleise 2
Glietsch 2
Globalisierung 2
Globus 2
Glock 2
Gläser 2
Glücks@@ 2
Goeth@@ 2
Goldmine 2
Golf@@ 2
Gonzales 2
Good 2
Goodell 2
Gordon 2
Got@@ 2
Gottes@@ 2
Gottschalk 2
Gouverneur 2
Govern@@ 2
Graffiti@@ 2
Grafik 2
Grammati@@ 2
Grant 2
Gras 2
Greenpeace 2
Greg 2
Gregor 2
Gregory 2
Greif@@ 2
Grenzwerte 2
Griechen 2
Grimm 2
Grippe 2
Grippewellen 2
Groteske 2
Großbanken 2
Großkonzern 2
Gruben@@ 2
Grun@@ 2
Grundeinkomm@@ 2
Grundgesetzes 2
Grundlagenforschung 2
Grundsatz 2
Grundstück 2
Grundstücken 2
Grundsätzlich 2
Grz@@ 2
Grü@@ 2
Grübeln 2
Grünen-Bundestagsfraktion 2
Guer@@ 2
Guill@@ 2
Gummi@@ 2
Gun@@ 2
Gur@@ 2
Gustavo 2
Gymnasiasten 2
Gör@@ 2
Göran 2
Güter@@ 2
HD-@@ 2
HS@@ 2
Haar@@ 2
Haare 2
Haaren 2
Hack@@ 2
Hacker 2
Haft@@ 2
Haftstrafe 2
Hagen 2
Haken 2
Halbinsel 2
Halbzeit 2
Halbzeitpause 2
Hall 2
Hall@@ 2
Hallen 2
Hals 2
Hals@@ 2
Ham 2
Hamann 2
Hamburg-Mannheimer 2
Hamptons 2
Hancock 2
Handels 2
Handelsblatt 2
Handelsk@@ 2
Handewitt 2
Handlungen 2
Handwerker 2
Handy@@ 2
Haniel 2
Hann@@ 2
Hannover@@ 2
Hans-@@ 2
Harald 2
Hard@@ 2
Harmony 2
Harms 2
Hartung 2
Hartz@@ 2
Harvard 2
Hass 2
Hassprediger 2
Hau 2
Hauch 2
Hauen 2
Haufen 2
Haupt- 2
Hauptbahnhof 2
Hauptgeschäftsführer 2
Hauptquartier 2
Hauptr@@ 2
Hauptrolle 2
Haupts@@ 2
Hauptsch@@ 2
Hauptschul@@ 2
Hauptschulen 2
Hauptversammlung 2
Hausherren 2
Haushälterin 2
Haut@@ 2
Heart 2
Hebel 2
Hecke 2
Hed@@ 2
Heesen 2
Heft 2
Heidfeld 2
Heidrich 2
Heiko 2
Heil@@ 2
Heiligen@@ 2
Heimpleite 2
Heinz 2
Heitzer 2
Heizöl 2
Heißes 2
Heldent@@ 2
Heldin 2
Heldt 2
Helen 2
Helene 2
Helfern 2
Helikopter 2
Helling 2
Henke 2
Heran@@ 2
Herausforder@@ 2
Herausgeber 2
Herbstgutachten 2
Hero@@ 2
Herren@@ 2
Hersh 2
Herstellung 2
Herz-Kreislauf@@ 2
Herzmittel 2
Hess@@ 2
Hessens 2
Hessische 2
Heuchelei 2
Heulen 2
Hexen 2
Hey 2
Hier@@ 2
Hierarchie 2
High 2
High-Tech@@ 2
High@@ 2
Highlight 2
Hightech-@@ 2
Hildebran@@ 2
Hilfsorganisationen 2
Hillary 2
Himmel@@ 2
Hinder@@ 2
Hindernis 2
Hingis 2
Hinspiel 2
Hintergrund@@ 2
Hinterhalt 2
Hiobs@@ 2
Hirst 2
Hisboll@@ 2
Histor@@ 2
Hitze 2
Ho-@@ 2
Hob@@ 2
Hobby@@ 2
Hoch 2
Hochdruck@@ 2
Hochgeschwindig@@ 2
Hochhausgiganten 2
Hof@@ 2
Hoffmann 2
Hofreiter 2
Holl@@ 2
Hollywood-Schauspielerin 2
Holländer 2
Holocaust-@@ 2
Holtzbrinck 2
Homburger 2
Home 2
Homep@@ 2
Homosexu@@ 2
Hongkong-Dollar 2
Honor@@ 2
Hoo@@ 2
Hose 2
Hot 2
Hou@@ 2
Hu 2
Hubert 2
Hul@@ 2
Human 2
Hund@@ 2
Hundert 2
Hunderttausende 2
Hunger 2
Hyatt 2
Hybri@@ 2
Hybrid@@ 2
Hätte 2
Häufig 2
Häusern 2
Höchststrafe 2
Höhenflug 2
Hüften 2
Hühner@@ 2
Hür@@ 2
Hürden 2
I. 2
IE@@ 2
IEL 2
IFA 2
III 2
IK@@ 2
IKB 2
IV 2
IWF 2
IX 2
Ibiza 2
Ibrahimovic 2
Ideal 2
IfW 2
Ifa 2
Ifo 2
Il@@ 2
Illusi@@ 2
Imag@@ 2
Imageverlust 2
Immobilien 2
Immobilientochter 2
Immunabwehr 2
Ina 2
Inamoto 2
Indem 2
Inder 2
Indexfonds 2
India 2
Indikator 2
Indiz 2
Industri@@ 2
Industrie- 2
Industriegesellschaft 2
Industriel@@ 2
Infektion 2
Inferno 2
Infineon 2
Infos 2
Infrastruktur@@ 2
Infratest 2
Ingeborg 2
Ingrid 2
Inhaber 2
Inhalte@@ 2
Inhalten 2
Initiativen 2
Inlands@@ 2
Innenraum@@ 2
Innensenator 2
Innenstadt 2
Innenstäd@@ 2
Innenverteidigung 2
Innerhalb 2
Innovation 2
Insassen 2
Insel-@@ 2
Insel@@ 2
Inseln 2
Insi@@ 2
Insider 2
Insidern 2
Inspekt@@ 2
Inspektion 2
Inst@@ 2
Institu@@ 2
Instrument 2
Instrumente 2
Integration 2
Intellektu@@ 2
Intelligenz 2
Intendanten 2
Interfer@@ 2
Internation@@ 2
Internet- 2
Internetdienst 2
Internetfernsehen 2
Internetkonzern 2
Internetnutz@@ 2
Internetportal 2
Internets 2
Internetschnüffler 2
Internetseite 2
Internetseiten 2
Internetwerbung 2
Interviewer 2
Intrigen 2
Invasion 2
Investmentfonds 2
Investmentgesellschaft 2
Inz@@ 2
Ioannis 2
Ip@@ 2
Irak-@@ 2
Iraks 2
Iran@@ 2
Irene 2
Ironie 2
Irre 2
Irrt@@ 2
Isaf 2
Isaf-Mandat 2
Isch@@ 2
Islamismus 2
Islamisten 2
Islamisten@@ 2
Isolation 2
Istanbul@@ 2
It 2
Italien@@ 2
Iwanow 2
J 2
Ja@@ 2
Jack@@ 2
Jacke 2
Jackett 2
Jackson 2
Jacob 2
Jag@@ 2
Jaguar 2
Jahresbeginn 2
Jahrest@@ 2
Jahresvergleich 2
Jahrtausenden 2
Jakob 2
James-Bond@@ 2
Japaner 2
Japanische 2
Jara 2
Jaroslav 2
Jauch 2
Jazz 2
Jeanne 2
Jede 2
Jeff 2
Jeff@@ 2
Jeffs 2
Jermaine 2
Jerry 2
Jerusal@@ 2
Jerusalem 2
Jesse 2
Jesus 2
Jiabao 2
Joaquin 2
Johann@@ 2
Johansson 2
Joint 2
Jolie 2
Jon@@ 2
Jonathan 2
Joop 2
Joost 2
Jordan 2
Jose 2
Jubiläum 2
Jugend 2
Jugendstrafrecht 2
Juli@@ 2
Julius 2
Junichi 2
Juristin 2
Juschtschenko 2
Justin 2
Justizministerium 2
K.o.-Runde 2
KZ@@ 2
Kab@@ 2
Kabar@@ 2
Kabel 2
Kabinetts@@ 2
Kaczynskis 2
Kad@@ 2
Kaffeek@@ 2
Kahn 2
Kaiser@@ 2
Kak@@ 2
Kala 2
Kaliforniens 2
Kameraden 2
Kampfpreis 2
Kanal 2
Kand@@ 2
Kandidatur 2
Kanzlei 2
Kapazität 2
Kapazitäten 2
Kapit@@ 2
Kapitalmarkt 2
Kapitel 2
Karachi 2
Karl-@@ 2
Karl-Heinz 2
Karl@@ 2
Karlsruher 2
Karmann 2
Karrier@@ 2
Kartells 2
Kartoffeln 2
Kasachst@@ 2
Kasch@@ 2
Kaschmir@@ 2
Kassel 2
Kassen@@ 2
Kast@@ 2
Katalysator 2
Katastroph@@ 2
Katastrophen@@ 2
Katastrophengebiet 2
Katze 2
Kau@@ 2
Kaufmann 2
Kaufmann@@ 2
Kaviar 2
Kek@@ 2
Kelly 2
Kemp@@ 2
Kenia 2
Kenntnis 2
Kenntnisse 2
Kennzeichen 2
Kernbereich 2
Kerner 2
Kerngeschäft 2
Kero@@ 2
Kette 2
Ketten 2
Kettensäge 2
Kev@@ 2
Keyn@@ 2
KfW 2
Kfz-Steuer 2
Khedira 2
Kibaki 2
Kickers 2
Kieler 2
Kilo 2
Kind@@ 2
Kinderarmut 2
Kinderbetreuung 2
Kinderschänder 2
Kinderspielzeug 2
Kindes 2
Kindes@@ 2
Kindheit 2
Kindstötung 2
Kino@@ 2
Kirch@@ 2
Kirchner 2
Kirsch@@ 2
Kittel@@ 2
Kivu@@ 2
Klapp@@ 2
Klappt 2
Klasnic 2
Klasse-@@ 2
Klassen@@ 2
Klassenzimmern 2
Klassi@@ 2
Klaus-Dieter 2
Kle@@ 2
Klebe@@ 2
Kleider 2
Kleider@@ 2
Kleidungs@@ 2
Kleinbus 2
Kleinere 2
Kleines 2
Kleinmachnow 2
Kleinstadt 2
Kleinwagen 2
Kletter@@ 2
Klettern 2
Klick 2
Klima-@@ 2
Klimag@@ 2
Klimak@@ 2
Klimakiller 2
Klimaschutz@@ 2
Klu@@ 2
Klubs 2
Kluge 2
Knapp 2
Kneipen 2
Knochen 2
Knu@@ 2
Knü@@ 2
Koalition@@ 2
Koblenz 2
Koff@@ 2
Kohlendioxid-@@ 2
Kollabor@@ 2
Kollegin 2
Kollektion 2
Kolonialherren 2
Koloss 2
Kolum@@ 2
Kolumbien 2
Kombi@@ 2
Kombination 2
Kometen 2
Komiker 2
Komitees 2
Kommentaren 2
Kommissar 2
Kommissionen 2
Kommune 2
Kommunikation 2
Kompakt@@ 2
Kompany 2
Kompetenz 2
Kompetenz@@ 2
Kompl@@ 2
Kompli@@ 2
Kompliment 2
Komponisten 2
Kompromisse 2
Konferenzen 2
Konfrontation 2
Kongress 2
Kongress@@ 2
Kongresses 2
Konkret@@ 2
Konkur@@ 2
Konserv@@ 2
Konstabler 2
Konstante 2
Konstantin 2
Konstrukteur@@ 2
Konstrukteurspunkte 2
Konsum@@ 2
Kontak@@ 2
Kontin@@ 2
Kontinent 2
Kontinenten 2
Kontinents 2
Konto@@ 2
Kontrollen 2
Konvention@@ 2
Konversions@@ 2
Konvertiten 2
Konvoi 2
Konzepte 2
Kooperationen 2
Kooperations@@ 2
Kopenhagen 2
Kopfball@@ 2
Kopie 2
Koproduktion 2
Korrektur@@ 2
Korrekturen 2
Kos@@ 2
Kosmos 2
Kosovos 2
Kostas 2
Kostüm@@ 2
Kostüme 2
Kottbusser 2
Kouchner 2
Kraftfahrzeug@@ 2
Kragen 2
Kranke 2
Krankenhaus@@ 2
Krankenkassen 2
Krankheit 2
Krankheits@@ 2
Krasnojarsk 2
Kraus@@ 2
Kreaturen 2
Krebs 2
Kredit 2
Kreditzusagen 2
Krei@@ 2
Kreisverband 2
Kreml 2
Kreml@@ 2
Kreuz 2
Kreuzfahr@@ 2
Kringel 2
Krippen@@ 2
Kris@@ 2
Kristin 2
Kritikern 2
Kru@@ 2
Krämer 2
Kuh 2
Kuhn 2
Kulturen 2
Kultusministerin 2
Kund@@ 2
Kundin 2
Kuneva 2
Kunsthochschule 2
Kunstwerke 2
Kup@@ 2
Kuratorin 2
Kurden@@ 2
Kurdengebieten 2
Kurfürst@@ 2
Kurs-Gewinnverhältnissen 2
Kursen 2
Kuschel@@ 2
Kyi 2
Kyoto-Protokoll 2
Kyr@@ 2
Käm@@ 2
Käppi 2
Käse 2
Königin 2
Königsweg 2
Könnte 2
Köpfen 2
Kör@@ 2
Körpern 2
Küchen 2
Küchenkabinett 2
Küh@@ 2
Kühen 2
Kühl@@ 2
Kühlhaus 2
Künast 2
Künstlers 2
Kürzung 2
Küste 2
LB 2
LDP 2
LH@@ 2
LS@@ 2
Labors 2
Lad@@ 2
Lager@@ 2
Lagern 2
Laguna 2
Lahore 2
Lak@@ 2
Lake 2
Lamb@@ 2
Landebahn 2
Landesarbeitsgericht 2
Landest@@ 2
Landkreis 2
Landrätin 2
Lands@@ 2
Landschaft 2
Landsleuten 2
Landtag@@ 2
Landtags-@@ 2
Landtagsabgeordnete 2
Landtagswahl 2
Landtagswahlen 2
Landung 2
Langem 2
Langen 2
Langen@@ 2
Langzeit@@ 2
Lar@@ 2
Lars 2
Las 2
Las@@ 2
Lasten 2
Laud@@ 2
Laufzeit 2
Laune 2
Lauschangriff 2
Lautsprecher 2
Lautsprecher@@ 2
Law 2
Leasing 2
Lebensgefährten 2
Lebenslauf 2
Lebenslügen 2
Lebensversicherung 2
Leber@@ 2
Lebewesen 2
Leere 2
Legenden 2
Leh@@ 2
Lehre 2
Lehrerin 2
Lehrerz@@ 2
Leichtathletik-WM 2
Leichter 2
Leid 2
Lein@@ 2
Leistungsfähigkeit 2
Leitungs@@ 2
Leitzins 2
Leitzinssenkung 2
Lem@@ 2
Lerchen@@ 2
Lese@@ 2
Lesepublikum 2
Leser 2
Lesung 2
Letzter 2
Letztere 2
Letzterer 2
Letzteres 2
Letztlich 2
Leuchtdioden 2
Lev@@ 2
Leverkusener 2
Lexikon 2
Liberale 2
Liberalisierung 2
Lieb@@ 2
Liebling 2
Lifestyle 2
Lig@@ 2
Ligaspiel 2
Ling@@ 2
Linien 2
Linker 2
Links@@ 2
Liquidi@@ 2
Listing 2
Liter@@ 2
Literaturhaus 2
Lithium-Ionen-Bat@@ 2
Livingstone 2
Lkw 2
Lo 2
Lobeshym@@ 2
Lodge 2
Logik 2
Logistik@@ 2
Loire 2
Lokalpolitiker 2
Lond@@ 2
Loose 2
Lopez 2
Lorenz 2
Loriot 2
Lotto@@ 2
Louis 2
Loyalität 2
Lucio 2
Luftfahrt 2
Lufthansa-@@ 2
Luftwaffe 2
Luftwider@@ 2
Luis 2
Luisenstraße 2
Lunge 2
Luxusgut 2
Lämm@@ 2
Län@@ 2
Längst 2
Lärm 2
Lärm@@ 2
Löcher 2
Löhnen 2
Löscher 2
Lücke 2
M-@@ 2
MAN 2
MCV 2
MI@@ 2
MP@@ 2
Mac 2
Mac@@ 2
Macher 2
Machtvakuum 2
Machtwort 2
Made 2
Madeleine 2
Mafiosi 2
Mag 2
Magath 2
Magazins 2
Magens@@ 2
Maggie 2
Magnet@@ 2
Mahmud 2
Mais 2
Maj@@ 2
Major 2
Makler 2
Malek 2
Maler 2
Mali@@ 2
Maliki 2
Malteser 2
Managern 2
Manche 2
Mand@@ 2
Mandel@@ 2
Mangel@@ 2
Manifest 2
Manipul@@ 2
Mannheim 2
Marburger 2
Marc@@ 2
Margret 2
Mari@@ 2
Marianne 2
Marie-@@ 2
Marino 2
Marion 2
Markets 2
Marktanteil 2
Marktbeob@@ 2
Marktberichte 2
Marktpreisen 2
Marley 2
Mart@@ 2
Marty 2
Mary 2
Maschen 2
Massachusetts 2
Massen-@@ 2
Massenkarambolage 2
Massenmedien 2
Mast@@ 2
Masters 2
Masters-@@ 2
Match 2
Materialien 2
Matsch@@ 2
Matt@@ 2
Mattel 2
Matthäus 2
Matthäus@@ 2
Mau@@ 2
Maul@@ 2
Maxim 2
Maximal@@ 2
May@@ 2
Maß@@ 2
Maßen 2
Maßnahmen@@ 2
McDonald 2
McKin@@ 2
Med@@ 2
Medaille 2
Mediation 2
Medienkonzerne 2
Medienrechte 2
Medikamenten 2
Medikamenten@@ 2
Mediziner 2
Medizinische 2
Medwedew 2
Meeresspiegel 2
Megapixel 2
Megawatt 2
Meh@@ 2
Mehdor@@ 2
Mehrarbeit 2
Mehrere 2
Mehrheits@@ 2
Meier 2
Meinungen 2
Meira 2
Meisners 2
Meldung 2
Melka 2
Menschenk@@ 2
Ment@@ 2
Merk@@ 2
Merrill-Lynch-@@ 2
Mes@@ 2
Metalli@@ 2
Metallindustrie 2
Metapher 2
Mexikaner 2
Miami 2
Michel 2
Miene 2
Mietern 2
Migrationshintergrund 2
Mik@@ 2
Mikroautos 2
Milan 2
Milde 2
Milieu@@ 2
Militäran@@ 2
Militärbasis 2
Militärdikt@@ 2
Militärschlag 2
Mill@@ 2
Miller 2
Millerntor@@ 2
Millionen-@@ 2
Mills 2
Milram@@ 2
Milton 2
Min 2
Minderheit 2
Mindestlohns 2
Mineiro 2
Mineral@@ 2
Mini-@@ 2
Ministeriumssprecher 2
Minuten-Takt 2
Minutes 2
Miroslav 2
Misch@@ 2
Missionen 2
Missverstän@@ 2
Mitarbei@@ 2
Mitarbeiter@@ 2
Mitarbeiters 2
Mitbestimmung 2
Mitbewerbern 2
Mitglie@@ 2
Mitgliedsbeiträgen 2
Mitmenschen 2
Mittagessen 2
Mittagsfrau 2
Mitte-@@ 2
Mitteleuropas 2
Mittelmaß 2
Mittler 2
Mixed 2
Moabit 2
Mobilfunk@@ 2
Mobiltelef@@ 2
Mod@@ 2
Modellen 2
Models 2
Modenese 2
Moderator 2
Moderatoren 2
Moderne 2
Modernisierungs@@ 2
Modes@@ 2
Mohamed 2
Momente 2
Mon 2
Mondeo 2
Money 2
Monitor 2
Monks 2
Montagabend 2
Montagmorgen 2
Monte 2
Monte@@ 2
Monza 2
Moral 2
Morddrohungen 2
Mordfall 2
Morgens 2
Mose@@ 2
Mosel@@ 2
Mosley 2
Mot@@ 2
Motegi 2
Motive 2
Motorola 2
Motorrad 2
Motorrad-@@ 2
Moz@@ 2
Mr@@ 2
Mullah 2
Multifunktions@@ 2
Multimedi@@ 2
Mun@@ 2
Mur@@ 2
Musch@@ 2
Muscharraf 2
Muscheln 2
Museum 2
Musharra@@ 2
Musikan@@ 2
Musikfernsehen 2
Muskel@@ 2
Muslim 2
Muslime 2
Muslimen 2
Myan@@ 2
Mythos 2
Mä@@ 2
Mädchens 2
Män@@ 2
Mängel 2
Männ@@ 2
Möbel@@ 2
Möch@@ 2
Möller-Hergt 2
Mühen 2
Müll 2
Müller-Ott 2
Müller-Wohlfahrt 2
Münchens 2
Münteferings 2
Mütter 2
Müttern 2
N-@@ 2
NDR-@@ 2
NG@@ 2
NLD 2
NPD-@@ 2
NRF 2
Nachbarlandes 2
Nachkriegszeit 2
Nachrichtenagenturen 2
Nachteil 2
Nachts 2
Nachwuch@@ 2
Nachwuchs 2
Nada 2
Nadelstiche 2
Nah- 2
Nahen 2
Nahles 2
Nahost@@ 2
Nahrungsergänzungsmittel 2
Nahrungsmitteln 2
Nak@@ 2
Nancy 2
Nantes 2
Narren 2
Nasdaq 2
Nase 2
Nationalsozialisten 2
Nationalstadion 2
Nationalteam 2
Nationalteams 2
Nationaltorhüter 2
Nationaltrainer 2
Nato-@@ 2
Nato-Treffen 2
Natur 2
Naturpark 2
Naturwissenschaften 2
Nav@@ 2
Nawaz 2
Nazaire 2
Neapel 2
Neckermann 2
Neg@@ 2
Neigungen 2
Nem@@ 2
Neon@@ 2
Nett@@ 2
Nettogewinn 2
Netzbetreiber 2
Netzwelt 2
Netzwerk 2
Netzwirtschaft 2
Neubewertung 2
Neuem@@ 2
Neuerungen 2
Neun@@ 2
Neureuther 2
Neutr@@ 2
Neuzugang 2
Nicht@@ 2
Nick 2
Nicol@@ 2
Nie@@ 2
Niedriglohn@@ 2
Niem@@ 2
Nieren 2
Nik@@ 2
Nikkei-Index 2
Nikolov 2
Nils 2
Nintendos 2
Nippon 2
Nisch@@ 2
Nobelpreisträger 2
Nol@@ 2
Noordwijk 2
Nordhessen 2
Nordirland 2
Nordosten 2
Nordse@@ 2
Nordwest@@ 2
Norie@@ 2
Normal@@ 2
Normalität 2
Norman 2
North 2
Noten 2
Notfallpläne 2
Notierung 2
Notruf 2
Notunter@@ 2
Novakovic 2
Null 2
Nullnummer 2
Num@@ 2
Nuri 2
Nutzern 2
Ny@@ 2
Nä@@ 2
Nächste 2
Nür@@ 2
OM@@ 2
ORF 2
OSP 2
OSZE 2
Obama 2
Obdu@@ 2
Oberschenkel 2
Oberschicht 2
Oberstdorf 2
Oberste 2
Oberverwaltungsgericht 2
Objekten 2
Observer 2
Obst@@ 2
Ochs 2
Odyssey 2
Oett@@ 2
Of 2
Offensichtlich 2
Offensiv@@ 2
Officer 2
Offizier 2
Offiziere 2
Oh 2
Oh@@ 2
Oka 2
Ole@@ 2
Olic 2
Oliven@@ 2
Olympi@@ 2
Olympia-Teilnahme 2
Olympiahalle 2
Olympiakos 2
Olympiastadion 2
Omen 2
Opec 2
Opel 2
Opern@@ 2
Opfers 2
Opposition@@ 2
Oppositionsführerin 2
Oracle 2
Oran@@ 2
Orches@@ 2
Orchestra 2
Orchi@@ 2
Ord@@ 2
Orden 2
Ordens@@ 2
Order 2
Ordner 2
Organisationskomitees 2
Organismen 2
Ori@@ 2
Original 2
Original@@ 2
Orlando 2
Oré@@ 2
Os@@ 2
Osaka 2
Osnab@@ 2
Ostblocks 2
Osterloh 2
Ostrowski 2
Ot@@ 2
Otto-@@ 2
Out 2
Out@@ 2
Ox@@ 2
Oze@@ 2
P.@@ 2
PCs 2
PKK-@@ 2
PKK-Kämpfer 2
PR-@@ 2
PS3 2
Paar@@ 2
Paares 2
Pad@@ 2
Pagode 2
Pai@@ 2
Palette 2
Palästinenser 2
Pantelic 2
Panz@@ 2
Paolo 2
Papandreou 2
Paper 2
Para@@ 2
Parag@@ 2
Paragu@@ 2
Paris@@ 2
Parker 2
Parlamentsgebäu@@ 2
Part 2
Parteispitze 2
Parteit@@ 2
Parteitagen 2
Parteitags 2
Parti@@ 2
Partnerin 2
Partnern 2
Partnerschaften 2
Partys 2
Passagier 2
Passagier@@ 2
Passagieren 2
Passagierflugzeu@@ 2
Past@@ 2
Pate 2
Pati@@ 2
Patri@@ 2
Patrizia 2
Patrou@@ 2
Pau@@ 2
Pavarotti 2
Pavarottis 2
Pay@@ 2
Pazifik 2
Pech@@ 2
Pel@@ 2
Pend@@ 2
Pendler 2
Pepe 2
Performance 2
Periode 2
Personalberater 2
Personalvorstand 2
Persönlich 2
Pet@@ 2
Pete 2
Petraeus 2
Pfad 2
Pfeff@@ 2
Pfei@@ 2
Pferd 2
Pfle@@ 2
Pflege@@ 2
Pfosten 2
Pharm@@ 2
Pharma@@ 2
Pharmab@@ 2
Phil@@ 2
Philip 2
Philosoph 2
Phlegma 2
Physik 2
Pich@@ 2
Pilawa 2
Piltz 2
Pinback 2
Pionier@@ 2
Pist@@ 2
Pkw 2
Plan@@ 2
Planer 2
Planung 2
Planungssicherheit 2
Plast@@ 2
Platten@@ 2
Platzen 2
Plaz@@ 2
Ple@@ 2
Poes@@ 2
Pohl@@ 2
Pokal@@ 2
Pokalsieger 2
Pokalspiel 2
Polar@@ 2
Pole 2
Polens 2
Politik@@ 2
Politikerin 2
Politikerinnen 2
Polizeiangaben 2
Polizeipräsidium 2
Pop-@@ 2
Popgeschichte 2
Popkomm 2
Popsängerin 2
Por@@ 2
Porno-@@ 2
Porsche-Papiere 2
Porter 2
Portion 2
Porto 2
Portugiesisch 2
Posi@@ 2
Positives 2
Post-@@ 2
Postdienste 2
Posten 2
Potsdam 2
Power 2
Prag 2
Preisabsprachen 2
Preiserhöhungen 2
Preisgeld 2
Preiss@@ 2
Preissteigerungen 2
Premium-@@ 2
Presseerklärung 2
Presses@@ 2
Priester 2
Prime@@ 2
Primera 2
Priorität 2
Prise 2
Priv@@ 2
Privatan@@ 2
Privatdo@@ 2
Private-Equity-@@ 2
Privates 2
Privathaushalten 2
Privatkosmos 2
Privatleben 2
Problemen 2
Produ@@ 2
Produktionsausfällen 2
Produktionsfirma 2
Produktionsvolumen 2
Produktivität 2
Produktpalette 2
Produzent 2
Produzenten 2
Professorin 2
Profit 2
Profit@@ 2
Program@@ 2
Proje@@ 2
Projektleiter 2
Projekts 2
Prolog 2
Prominenten 2
Promotion 2
Propagand@@ 2
Propheten 2
Prot@@ 2
Protagonisten 2
Protot@@ 2
Provinz@@ 2
Provinzen 2
Prozentpunkt 2
Prozesse 2
Präparate 2
Präsidentenwahl 2
Präsidium 2
Präzision 2
Pröll 2
Psy@@ 2
Psychologe 2
Psychologin 2
Publi@@ 2
Publik@@ 2
Publikationen 2
Puerto 2
Pullover 2
Punk 2
Punkt@@ 2
Put@@ 2
Putin-@@ 2
Putsch 2
Päd@@ 2
Qual 2
Quartalsergebnis 2
Quarter@@ 2
Quartier 2
Quellen 2
Quot@@ 2
RAF-@@ 2
RAF-Terroristen 2
RAF@@ 2
RKI 2
RS@@ 2
RW@@ 2
Ra@@ 2
Rad-@@ 2
Radar@@ 2
Raffin@@ 2
Rai@@ 2
Rammstein 2
Ran@@ 2
Rangers 2
Rangnick 2
Rangun 2
Rapino 2
Rasenmäh@@ 2
Rass@@ 2
Rassismus 2
Ratatouille 2
Raten 2
Rath@@ 2
Rati@@ 2
Rating-Agenturen 2
Rats@@ 2
Raubüberfall 2
Rauchen 2
Raumfahrt@@ 2
Raumfähre 2
Raums 2
Raumschiffe 2
Rausch@@ 2
Reaktionen 2
Reaktors 2
Realität 2
Realschulen 2
Realwirtschaft 2
Rec@@ 2
Recep 2
Recherchen 2
Rechnungen 2
Recht@@ 2
Rechtsanwalt 2
Rechtsaus@@ 2
Rechtsausschuss 2
Rechtsextremisten 2
Rechtsmittel 2
Rechtsradikale 2
Rechtsstaat 2
Rechtsstaat@@ 2
Recklinghausen 2
Redakteur 2
Redner 2
Reederei 2
Referenzkurs 2
Reformpaket 2
Regelungen 2
Regenbogen@@ 2
Regenfällen 2
Regensburger 2
Regierungen 2
Regierungs- 2
Regierungsbildung 2
Regierungschef 2
Regierungsfähigkeit 2
Regime 2
Regisseure 2
Reguli@@ 2
Reich@@ 2
Reicht 2
Reifen 2
Reifen@@ 2
Reinhardt 2
Reinigungs@@ 2
Reiseveranstalter 2
Reit@@ 2
Reiter 2
Rek@@ 2
Rekorde 2
Rekordpreis 2
Relation 2
Relativ 2
Rembran@@ 2
Remis 2
Remus 2
Renate 2
Renault-@@ 2
Renditen 2
Renndirektor 2
Rent@@ 2
Renten 2
Rentenkassen 2
Rentenreform 2
Rentenversicherer 2
Rentner 2
Repräsentanten 2
Repubblica 2
Republikan@@ 2
Resultate 2
Rettungskräften 2
Rezepte 2
Rhein-Main@@ 2
Rhein-Neck@@ 2
Rhetorik 2
Rhiel 2
Rhythmen 2
Ribery 2
Ricarda 2
Rich 2
Riedle 2
Riege 2
Riese 2
Riesen 2
Riesenmagnetwider@@ 2
Riesens@@ 2
Riffs 2
Ring 2
Ring@@ 2
Ringstorff 2
Rit@@ 2
Rituale 2
Riv@@ 2
Road 2
Roboter 2
Rock-@@ 2
Rockies 2
Roels 2
Roger 2
Rogge 2
Rohöl@@ 2
Rol@@ 2
Rolltrep@@ 2
Rom@@ 2
Romulus 2
Rooney 2
Roos 2
Rosem@@ 2
Ross 2
Ross@@ 2
Roter 2
Rowling 2
Roy@@ 2
Ruder@@ 2
Rugby-WM 2
Ruhr 2
Ruine 2
Rumänien 2
Rundfun@@ 2
Rundfunk 2
Russ@@ 2
Russische 2
Rutsch@@ 2
Ryan 2
Rädern 2
Ränkes@@ 2
Römer@@ 2
Rückgrat 2
Rückruf 2
Rückschritt 2
Rücksetzer 2
Rücksicht 2
Rückspiel 2
Rüstungs@@ 2
S-Bahn@@ 2
S-Bahnen 2
SA@@ 2
SCH@@ 2
SI@@ 2
SPD-Bundes@@ 2
SPD-Fraktion 2
SPD-Generalsekretär 2
SPD-Parteitag 2
SPD-Parteivorstand 2
Saarbrücken 2
Sab@@ 2
Sachsen-Anhalts 2
Sachverständigenrates 2
Sad@@ 2
Sah@@ 2
Sai@@ 2
Saisonende 2
Saisons@@ 2
Saisonspielen 2
Sak@@ 2
Salas 2
Samen 2
Sami 2
Sammel@@ 2
Samstags@@ 2
Samuel 2
Sander 2
Sandra 2
Sandri 2
Santos 2
Sap@@ 2
Sarkasmus 2
Sascha 2
Sau@@ 2
Sauer@@ 2
Sauerland 2
Schach 2
Schaden@@ 2
Schadenersatzforderungen 2
Schadensersatz 2
Schaff@@ 2
Schaffung 2
Schande 2
Schar@@ 2
Scharren 2
Schatten@@ 2
Schatzmeister 2
Schaulaufen 2
Schauspiel@@ 2
Scheer 2
Scheibchen 2
Scheiben 2
Scheiterns 2
Schicksals 2
Schie@@ 2
Schiedsrichter@@ 2
Schienennah@@ 2
Schienennetz 2
Schießer@@ 2
Schiffe 2
Schifffahrtsamt 2
Schildkröten 2
Schiller 2
Schlacht 2
Schlachtfeld 2
Schlaffers 2
Schlafsack 2
Schle@@ 2
Schlechte 2
Schleicher 2
Schleu@@ 2
Schley@@ 2
Schlich@@ 2
Schließung 2
Schlit@@ 2
Schloss@@ 2
Schlussphase 2
Schläge 2
Schlägerei 2
Schmel@@ 2
Schnappschü@@ 2
Schnaps 2
Schnauze 2
Schne@@ 2
Schnee@@ 2
Schneedecke 2
Schneeketten 2
Schnell 2
Schneller 2
Schnitt@@ 2
Schnitz@@ 2
Schnusenberg 2
Schnäpp@@ 2
Schnäppchen 2
Schnüffel@@ 2
Schokol@@ 2
Schottland 2
Schre@@ 2
Schreck@@ 2
Schreib@@ 2
Schreiber 2
Schrifts@@ 2
Schriftsteller 2
Schroeder 2
Schröders 2
Schubl@@ 2
Schuh 2
Schuh@@ 2
SchulSPIEGEL 2
Schuld@@ 2
Schulden@@ 2
Schuldtitel 2
Schulgeld 2
Schulkinder 2
Schulleiter 2
Schulsystem 2
Schulter 2
Schusswaffe 2
Schwaben 2
Schwal@@ 2
Schwarz-Weiß-@@ 2
Schwarzbuch 2
Schwarzen 2
Schwarzes 2
Schwarzwald@@ 2
Schwei@@ 2
Schweigen 2
Schwelle 2
Schwellenländern 2
Schwen@@ 2
Schwerin 2
Schwimmbä@@ 2
Schwung 2
Schwurgericht 2
Schä@@ 2
Schär@@ 2
Schäubles 2
Schönen 2
Schü@@ 2
Schümann 2
Scientist 2
Scuderia 2
Seattle 2
Seb@@ 2
Sebastian 2
Sechsganggetriebe 2
Sechzigern 2
Seegebiete 2
Seeh@@ 2
Seehofer 2
Segment 2
Sei@@ 2
Seitenwechsel 2
Sekund@@ 2
Selbstbewusstsein 2
Selbstmordanschlag 2
Selbstverständlich 2
Semin@@ 2
Senats@@ 2
Seni@@ 2
Senioren 2
Senioren@@ 2
Senkung 2
Sensations-@@ 2
Sense 2
Sensi@@ 2
Sent@@ 2
Separatisten 2
Seri@@ 2
Series 2
Servern 2
Servi@@ 2
Sessel 2
Seu@@ 2
Seymour 2
Shampoo 2
Sheikh 2
Shep@@ 2
Sher@@ 2
Shiva 2
Sho@@ 2
Shops 2
Showdown 2
Shows 2
Shu@@ 2
Shuttle-@@ 2
Sich 2
Sicherheits- 2
Sicherheitsfirma 2
Sicherheitskreisen 2
Sicherheitskräfte 2
Sicherheitskräften 2
Sicherheitsvorkehrungen 2
Sicherungs@@ 2
Sicht@@ 2
Sidr 2
Siegen 2
Siehe 2
Siemens-Sprecher 2
Siemens@@ 2
Silberpfeile 2
Sili@@ 2
Silves@@ 2
Simpson 2
Simunic 2
Singapore 2
Singles 2
Sir 2
Siro 2
Sitz@@ 2
Sitzen 2
Sizi@@ 2
Skala 2
Skand@@ 2
Skandinavien 2
Skep@@ 2
Skulpturen 2
Sky@@ 2
Sle@@ 2
Slowenen 2
Slums 2
Smart-@@ 2
Sobald 2
Soci@@ 2
Socken 2
Sogar 2
Sohnes 2
Solche 2
Soldat 2
Somalia 2
Sommerpause 2
Son 2
Son@@ 2
Song 2
Sonnensystem 2
Sonst 2
Sorin 2
Sortiment 2
Sotirios 2
Sou@@ 2
Sowohl 2
Sozialarbeiter 2
Sozialdemokratie 2
Sozialisten 2
Spaltung 2
Span@@ 2
Spaniern 2
Sparbuch 2
Spark@@ 2
Speicher@@ 2
Speichermedien 2
Speicherung 2
Speisen 2
Sper@@ 2
Sperr@@ 2
Spezialisten 2
Spezialitä@@ 2
Spielaufbau 2
Spielerinnen 2
Spielplan 2
Spielraum 2
Spiels 2
Spieltagen 2
Spielweise 2
Spielzeug@@ 2
Spion@@ 2
Spionage-@@ 2
Spitzenk@@ 2
Spitzenkandidat 2
Spitzenkandidaten 2
Spitzenkandidatur 2
Spitzenpolitiker 2
Spitzentreffen 2
Spon@@ 2
Sponsor 2
Sportarten 2
Sporth@@ 2
Sportler 2
Sprechen 2
Sprengstoff 2
Springer 2
Springer-B@@ 2
Sprinter 2
Sprit 2
Sprung 2
Sprüche 2
Spuren@@ 2
Spyker 2
Spätaussiedlern 2
Staatenb@@ 2
Staatengemeinschaft 2
Staatliche 2
Staatsanwälte 2
Staatschef 2
Staatschefs 2
Staatskrise 2
Staatssekret@@ 2
Staatssekretärs 2
Stabili@@ 2
Stadien 2
Stadion@@ 2
Stadler 2
Stadtbild 2
Stadtteil@@ 2
Stagnation 2
Stamford 2
Stammwähler 2
Stan@@ 2
Standardrepertoire 2
Standards 2
Standorten 2
Stanislaw 2
Starbucks 2
Stasi 2
Stasi-@@ 2
Station@@ 2
Stationen 2
Statist 2
Statistik 2
Statue 2
Status 2
Status@@ 2
Steg 2
Stegner 2
Steiermark 2
Steinberg 2
Steinen 2
Steiner 2
Stellen@@ 2
Stellenwert 2
Stem@@ 2
Stephen 2
Sternchen 2
Sternen 2
Sterns 2
Steu@@ 2
Steueranzeige 2
Steuerdaten 2
Steuereinnahmen 2
Steuerfreibetrag 2
Steuergelder 2
Steuersatz 2
Stift 2
Stift@@ 2
Stiftungs@@ 2
Stile 2
Stille 2
Stimmen@@ 2
Stock@@ 2
Stoff@@ 2
Stol@@ 2
Stopp 2
Stoxx 2
Strafbefehl 2
Strafstoß 2
Straftäter 2
Strafverfolgung 2
Strate@@ 2
Strategen 2
Strategie@@ 2
Straßenbahn 2
Straßenrennen 2
Strecken@@ 2
Street@@ 2
Streikrecht 2
Streithähne 2
Streits 2
Stroh@@ 2
Stromkabel 2
Stromkonzerne 2
Strompreise 2
Stromzähler 2
Struktur 2
Studenten-@@ 2
Studenten@@ 2
Studentin 2
Stundenkilometer 2
Sturz 2
Stuttgarts 2
Städ@@ 2
Ständig 2
Stär@@ 2
Stärkung 2
Stücken 2
Stür@@ 2
Stütze 2
Substanzen 2
Subventionen 2
Suchmaschinenbetreiber 2
Sudan 2
Suhrkamp 2
Suizidraten 2
Sumatra 2
Sunniten 2
Supermacht 2
Superstar 2
Susanne 2
Suu 2
Sven-@@ 2
Sydney 2
Sym@@ 2
Symbol 2
Sympathie@@ 2
Sympathien 2
Symptome 2
Syn@@ 2
Sz@@ 2
Szen@@ 2
Sä@@ 2
Säbel@@ 2
Sätze 2
Säu@@ 2
Sön@@ 2
Süddeutschen 2
Südkoreaner 2
Südkoreas 2
T-Mobil@@ 2
T-Shirt 2
TER 2
TN@@ 2
TU 2
TU@@ 2
TUI 2
TUIfly 2
TV- 2
Tab@@ 2
Tabak@@ 2
Tabas@@ 2
Tabell@@ 2
Tagebücher 2
Tagessieg 2
Tagesspiegel 2
Taifun 2
Tak@@ 2
Talente 2
Talks@@ 2
Talksendung 2
Tap@@ 2
Tarcisio 2
Tarifparteien 2
Tarifstreit 2
Tarifverträge 2
Taschen@@ 2
Taschenbuch 2
Tatjana 2
Taucher 2
Te@@ 2
Teammanager 2
Techn@@ 2
Ted 2
Teher@@ 2
Teilnahme 2
Teilnehmern 2
Teilprivatisierung 2
Tele-@@ 2
Telefonat 2
Telefonnummer 2
Telekom-Chef 2
Telekommunikationsunternehmen 2
Teller 2
Tempel 2
Tempo@@ 2
Tempolimits 2
Tennis@@ 2
Tennisprofis 2
Tenor 2
Teppi@@ 2
Termin@@ 2
Termine 2
Territ@@ 2
Terror-@@ 2
Terror-L@@ 2
Terrorabwehr 2
Terroran@@ 2
Terroranschlag 2
Teufel 2
Theat@@ 2
Theater-@@ 2
Theo 2
Theofanis 2
Therap@@ 2
These 2
Thomson 2
Thriller 2
Thurk 2
Ticket 2
Ticket@@ 2
Tiflis 2
Tig@@ 2
Tim@@ 2
Timoschenko 2
Tinto 2
Tipp 2
Tobias 2
Tochter@@ 2
Tochtergesellschaft 2
Todes 2
Todesfällen 2
Todesopfer 2
Toil@@ 2
Toilette 2
Tokaj@@ 2
Tokioter 2
Toll@@ 2
Tommy 2
Tonga 2
Tonträger 2
Top 2
Topf 2
Toreschießen 2
Torjäger 2
Tornad@@ 2
Toshiba 2
Toskana 2
Tot@@ 2
Totalausfall 2
Totschlags 2
Touch@@ 2
Tourismusindustrie 2
Tracht 2
Traditions@@ 2
Tragen 2
Trainings- 2
Trainings@@ 2
Trainingsformen 2
Trainingslager 2
Tram@@ 2
Tran@@ 2
Transaktions@@ 2
Transfer@@ 2
Transnet-Chef 2
Transport 2
Transrapid-@@ 2
Trauer 2
Traum@@ 2
Traut@@ 2
Trauung 2
Treffern 2
Trei@@ 2
Treibhausgases 2
Trendwende 2
Trenn@@ 2
Tres@@ 2
Tresen 2
Triathlon 2
Trib@@ 2
Tribün@@ 2
Tribüne 2
Trin@@ 2
Trip 2
Trochowski 2
Trock@@ 2
Trojan 2
Tropen@@ 2
Tru@@ 2
Tränengas 2
Ts@@ 2
Tsch@@ 2
Tsunami-@@ 2
Tugend 2
Tukur 2
Tum@@ 2
Ty@@ 2
Typ 2
Typen 2
Tyson 2
Tän@@ 2
Tänzer 2
Tödliche 2
Tötung 2
Tüchern 2
Tür 2
Türen 2
Türk@@ 2
U-Bahn 2
UCI 2
UEFA-@@ 2
UEFA-Cup 2
UEFA-Pok@@ 2
UM@@ 2
UN 2
UN-S@@ 2
UN-Sicherheitsrat 2
US- 2
US-Amerikan@@ 2
US-Amerikaner 2
US-Bank 2
US-Botschaft 2
US-Bundesstaat 2
US-Chefvolkswirt 2
US-Hypothekenkrise 2
US-Immobilien@@ 2
US-Investmentbank 2
US-Kongress 2
US-Konzern 2
US-Küste 2
US-Regierung 2
US-Streitkräfte 2
US-Währung 2
US-Ölpreis 2
Uefa 2
Uefa-Cup-@@ 2
Ufer 2
Uhse 2
Uhus 2
Uli 2
Ulm 2
Ulti@@ 2
Ultra@@ 2
Umfragen 2
Umfragewerte 2
Umland 2
Umrüstung 2
Umsatzprognose 2
Umsatzrendite 2
Umsetzung 2
Umstellung 2
Umweltminister 2
Umweltschutz 2
Umweltzone 2
Umwälzungen 2
Unabhängigkeitserklärung 2
Undercover-@@ 2
Unfassbar 2
Ungemach 2
Unger 2
UniSPIEGEL 2
Unionsfraktionschef 2
Unionspolitiker 2
Uniteds 2
Universi@@ 2
Universum 2
Unkenntnis 2
Unmittel@@ 2
Uno 2
Uno-@@ 2
Uno@@ 2
Unru@@ 2
Uns 2
Unsicherheiten 2
Unstimmigkeiten 2
Unterbewertung 2
Unterhaltung 2
Unterlassung 2
Unterlassungs@@ 2
Unternehmensanleihen 2
Unternehmensteuerreform 2
Unterscheidungs@@ 2
Unterschenkel 2
Unterstütz@@ 2
Untersuchungs@@ 2
Untersuchungshaft 2
Unterwegs 2
Uran@@ 2
Urananreicherung 2
Utop@@ 2
V-K@@ 2
V-L@@ 2
VDMA 2
VW@@ 2
VZ 2
Val@@ 2
Van 2
Van@@ 2
Varianten 2
Vat@@ 2
Vatikan 2
Ve@@ 2
Vec@@ 2
Veltroni 2
Vene@@ 2
Venezuela 2
Venture 2
Venus 2
Ver.di 2
Verankerung 2
Verbesserung 2
Verbind@@ 2
Verbr@@ 2
Verbraucherpreise 2
Verbrauchervertrauen 2
Verbrauchs@@ 2
Verbrechen 2
Verbände 2
Verbün@@ 2
Verdienst 2
Vereine 2
Vereinsgeschichte 2
Verfassungsschutz@@ 2
Verfilmung 2
Verfolgten 2
Vergewal@@ 2
Verglichen 2
Vergütungs@@ 2
Verhaftung 2
Verhält@@ 2
Verhältnisse 2
Verhängung 2
Verkaufszahlen 2
Verkehrsministerium 2
Verkehrsunfall 2
Verlage 2
Verlagerung 2
Verlags@@ 2
Verlass 2
Verleihung 2
Verletz@@ 2
Verletzte 2
Verlustzone 2
Vermehr@@ 2
Vermeidung 2
Vermischtes 2
Vermitt@@ 2
Vermittlung 2
Vermittlungs@@ 2
Vermö@@ 2
Vernehmung 2
Vernich@@ 2
Vernunft 2
Verordnung 2
Verpackungen 2
Versamm@@ 2
Versicherern 2
Versionen 2
Versorger 2
Verspätung 2
Verspätungen 2
Verst@@ 2
Verstorb@@ 2
Verstoß 2
Versuche 2
Versuchung 2
Vertei@@ 2
Verteidigers 2
Verteidigungsministers 2
Verteilung 2
Vertrags 2
Vertrags@@ 2
Vertrauens@@ 2
Vertrauenskrise 2
Vertrauter 2
Vertreibung 2
Vertrieb 2
Vertriebenen 2
Verträgen 2
Verurteilten 2
Verw@@ 2
Verweis 2
Verwes@@ 2
Verwicklung 2
Verz@@ 2
Verzinsung 2
Verzö@@ 2
Veröffentlich@@ 2
Veteranen 2
Veto 2
Victoria 2
Videok@@ 2
Videospiele 2
Viel@@ 2
Vieles 2
Viertelfinale 2
Viertels 2
Vietnam 2
Vignette 2
Viktor 2
Vill@@ 2
Villa 2
Vincent 2
Vincenzo 2
Vinyl 2
Viren 2
Virus 2
Visa 2
Visi@@ 2
Vision 2
Visitenkarten 2
Vit@@ 2
Vitam@@ 2
Vittek 2
Vize 2
Vizek@@ 2
Vodafone 2
Voith 2
Volker@@ 2
Volkert 2
Volkes 2
Volkszählung 2
Volvo 2
Vorab@@ 2
Vorarbeit 2
Vorbereitungen 2
Vorder@@ 2
Vorentscheidung 2
Vorfälle 2
Vorgesetzten 2
Vorher 2
Vorjahres 2
Vorkaufsrecht 2
Vorlauf 2
Vormonat 2
Vornamen 2
Vorratsdatenspeicherung 2
Vorstands@@ 2
Vorstandschefs 2
Vorstandsmitglieder 2
Vorstrafenregister 2
Vorurteil 2
Vorzugsaktien 2
Votum 2
Vul@@ 2
Vulkan@@ 2
Vögel 2
Völ@@ 2
Völkermord 2
W-@@ 2
WM-Finale 2
WM-Sieg 2
Wachstum@@ 2
Wachstums 2
Wachstumserwar@@ 2
Wachstumsprognosen 2
Wad@@ 2
Waffen-S@@ 2
Wahlheimat 2
Wahljahr 2
Wahlkommission 2
Wahnsinn 2
Wahrnehmung 2
Wai@@ 2
Waldbr@@ 2
Waldschlösschenbrücke 2
Walk 2
Walken 2
Walking 2
Wallmann 2
Wallraff 2
Wam@@ 2
Wan@@ 2
Wand 2
Wand@@ 2
Wappner 2
Wardak 2
Ware 2
Waren@@ 2
Warhol@@ 2
Warner 2
Wart@@ 2
Warte 2
Was@@ 2
Wasch@@ 2
Wasser- 2
Wasserkraft@@ 2
Watch 2
Watchers 2
Wattenmeer 2
Watz 2
Watz@@ 2
Webangebote 2
Webseiten 2
Weder 2
Weges 2
Wehr 2
Wehrpflicht 2
Weibchen 2
Weich@@ 2
Weight 2
Weil@@ 2
Weimar 2
Weimarer 2
Weit@@ 2
Weiß@@ 2
Weißbarth 2
Well@@ 2
Wellen 2
Wellengang 2
Weltcu@@ 2
Weltklass@@ 2
Weltkonzern 2
Weltkriegs@@ 2
Weltmarktführer 2
Weltmeisterin 2
Weltmeisters 2
Weltmeisterschaften 2
Weltrangl@@ 2
Weltraum 2
Weltverband 2
Weltweite 2
Wen@@ 2
Wende 2
Wenige 2
Wenzel 2
Werbet@@ 2
Werden 2
Werft 2
Werks 2
Werkstatt 2
Werten 2
Wertingen 2
Wertpapieren 2
Wertschätzung 2
Wes@@ 2
Wesentlichen 2
Weshalb 2
Wessels 2
Wettbewerbs 2
Wettbewerbsfähigkeit 2
Wettbewerbsvorteil 2
Wetten 2
Wide 2
Wider@@ 2
Widersacher 2
Widerspruch 2
Widerstands@@ 2
Wiede@@ 2
Wiederaufbau 2
Wiese 2
Willi 2
William 2
Windenergie 2
Windkraftanlagen 2
Windows 2
Windräder 2
Winehouse 2
Winkel 2
Winterkorn 2
Winterreifen 2
Wirbel 2
Wirbel@@ 2
Wirk@@ 2
Wirklich 2
Wirte 2
Wirtschaftsbücher 2
Wirtschaftsmagazin 2
Wirtschaftspolitiker 2
Wirtschaftsweise 2
Wirtschaftswissenschaftler 2
Wirtschaftswunder@@ 2
Wiss@@ 2
Wissens@@ 2
Wissenschafts@@ 2
Wissenschaftsminister 2
Witze 2
Woch@@ 2
Wochenbeginn 2
Wochenzeitung 2
Wodka 2
Wohnzimmer@@ 2
Wolf 2
Wolff 2
Wolfsburg 2
Wolfsburger 2
Wolken 2
Woll@@ 2
Wolverhampton 2
Worl@@ 2
Wortlaut 2
Wortwahl 2
Wowereit 2
Wozu 2
Wracks 2
Wrzesniok-Rossbach 2
Wucht 2
Wulf 2
Wy@@ 2
Wäh@@ 2
Wählerbefragung 2
Wählerstimmen 2
Währ@@ 2
Währung 2
Währungseff@@ 2
Wälder 2
Wärme 2
Wörter@@ 2
Wür@@ 2
Würden@@ 2
Wüste 2
XX@@ 2
Xing 2
Xinhua 2
Yildiray 2
Yokoh@@ 2
Yossi 2
Youth 2
Youtube 2
Ypsilanti 2
Yuan 2
ZDF-Morgenmagazin 2
ZEW 2
ZR 2
Zahl@@ 2
Zam@@ 2
Zapatero 2
Ze@@ 2
Zehen 2
Zehn-@@ 2
Zeiss 2
Zeitarbeit 2
Zeitschri@@ 2
Zeitungsbericht 2
Zen@@ 2
Zentimeter 2
Zentralabitur 2
Zentralasien 2
Zentren 2
Zerstörung 2
Zertifikat 2
Zertifikate 2
Zertifikaten 2
Zeu@@ 2
Zeugnis 2
Zeugnisse 2
Zeugnisverweigerungsrecht 2
Zie@@ 2
Ziegen 2
Ziel@@ 2
Ziell@@ 2
Zier@@ 2
Zigar@@ 2
Zigarette 2
Zigaretten@@ 2
Zimmer 2
Zinn@@ 2
Zins 2
Zinssätzen 2
Zion 2
Zir@@ 2
Zit@@ 2
Zitate 2
Zoll@@ 2
Zor@@ 2
Zorn 2
Zucker 2
Zuckerberg 2
Zuerst 2
Zufrie@@ 2
Zugeständnis 2
Zugeständnisse 2
Zugänge 2
Zukunft@@ 2
Zukunftsaussichten 2
Zukunftskonzept 2
Zul@@ 2
Zulassungs@@ 2
Zulieferer 2
Zulässigkeit 2
Zunge 2
Zusammen 2
Zusammenhalt 2
Zusammensetzung 2
Zusatz@@ 2
Zuschau@@ 2
Zuschläge 2
Zuspitzung 2
Zustän@@ 2
Zustände 2
Zutun 2
Zuversicht 2
Zuwachs 2
Zwang 2
Zwangsversteigerungen 2
Zweckgesellschaften 2
Zweifel@@ 2
Zweit@@ 2
Zweitliga-@@ 2
Zweitliga@@ 2
Zwerg@@ 2
Zwill@@ 2
Zwisch@@ 2
Zwischenfall 2
Zwischenfälle 2
Zäh@@ 2
Zürcher 2
abbrechen 2
abe 2
abel@@ 2
abends 2
abenteuerlichen 2
abgeben 2
abgebracht 2
abgeführt 2
abgeh@@ 2
abgehen 2
abgelegt 2
abgen@@ 2
abgenommen 2
abgeschreckt 2
abgestimmt 2
abgewiesen 2
abgezweigt 2
abhängi@@ 2
abi 2
abili@@ 2
abklären 2
ableh@@ 2
ablehnt 2
ablesen 2
ablösefrei 2
abnehmen 2
abschließ@@ 2
abschlüsse 2
abschnitt 2
abschätzen 2
absehbar 2
absehbare 2
absicherung 2
absoluten 2
absoluter 2
absur@@ 2
absurde 2
abwarten 2
abwehr@@ 2
abziehen 2
abzur@@ 2
abzuschaffen 2
abzuschrecken 2
abzusehen 2
abzustimmen 2
abzuwenden 2
ace-@@ 2
aceb@@ 2
acher 2
achse 2
achte 2
achter 2
achtern 2
achteten 2
achtziger 2
aci@@ 2
acks 2
ada 2
ae 2
affäre 2
afghanischer 2
aga 2
ager 2
ager@@ 2
agern 2
aggressiven 2
agi@@ 2
agierenden 2
agmorgen 2
agnachmittag 2
ags@@ 2
agvormittag 2
ahl@@ 2
ahlen 2
ahndet 2
ahnte 2
ailliert 2
aillierte 2
aining 2
aison 2
akadem@@ 2
akis 2
aks 2
akt@@ 2
akte 2
akter 2
akteur 2
aktive 2
aktiven 2
aktivieren 2
aktuell 2
akuten 2
akzep@@ 2
al-Qaida 2
albern 2
ale@@ 2
alisch 2
alisiert 2
alisierten 2
alisierung 2
alist 2
alistischen 2
all-@@ 2
alleinerzi@@ 2
allemal 2
allend 2
alli@@ 2
allmählich 2
alog 2
alternde 2
altes 2
altet 2
amas 2
ambulanten 2
amer 2
amerikan@@ 2
ami 2
ammern 2
amü@@ 2
analysieren 2
analysiert 2
analyst 2
anbot 2
ance-@@ 2
andauernde 2
andernfalls 2
andrang 2
ands 2
aneinandergeraten 2
anerkannt 2
anf@@ 2
anfing 2
anfällig 2
anfängt 2
angeben 2
angefallen 2
angegriffen 2
angehen 2
angemess@@ 2
angemessen 2
angen 2
angeordneten 2
angep@@ 2
angesetzt 2
angesie@@ 2
angespannten 2
angesproch@@ 2
angetrieben 2
anhaltende 2
anik 2
anis 2
anische 2
ankli@@ 2
ankommt 2
ankurbeln 2
anlegen 2
anmut@@ 2
annul@@ 2
annäh@@ 2
ano@@ 2
anonymen 2
anscheinend 2
anschließen 2
anschließende 2
anschlüssen 2
ansen 2
anspruch 2
anspruchs@@ 2
anstelle 2
anstrengen 2
anstrengenden 2
ansässi@@ 2
antisemit@@ 2
antrag 2
antwortete 2
anwalt 2
anzeige 2
anzen 2
anziehen 2
anzlers 2
anzt 2
anzubringen 2
anzun@@ 2
anzus@@ 2
anzuschauen 2
app@@ 2
appar@@ 2
appe@@ 2
apul@@ 2
arabische 2
arbeite 2
arbeitete 2
arbeiteten 2
arch@@ 2
architekten 2
arg@@ 2
argentinische 2
argentinischen 2
argumentieren 2
arie 2
arien 2
arif 2
arina 2
arische 2
arme 2
armen 2
aro 2
arr@@ 2
arten 2
article1175@@ 2
article129@@ 2
article1313@@ 2
article149@@ 2
artig 2
artigen 2
artikel@@ 2
arzt 2
asch 2
asche 2
aschen@@ 2
ase 2
aspekt 2
assen@@ 2
asser 2
assoziiert 2
asst 2
ast@@ 2
asten 2
astet 2
astr@@ 2
atege 2
ateur 2
athl@@ 2
ationell 2
atische 2
atischer 2
atisches 2
atisierung 2
atismus 2
ativ 2
ativsten 2
ato 2
ator@@ 2
atorin 2
atorischen 2
atscht 2
attraktiv 2
attraktiv@@ 2
attraktiver 2
atur 2
aturg@@ 2
atz@@ 2
atzer 2
auen 2
auers 2
aufen 2
aufenen 2
aufgebot 2
aufgebracht 2
aufgefallen 2
aufgehalten 2
aufgerüstet 2
aufgestockt 2
aufgetaucht 2
aufgew@@ 2
aufkochen 2
auflösen 2
aufnehmen 2
aufopferungsvoll 2
aufr@@ 2
aufre@@ 2
aufrechterhalten 2
aufrü@@ 2
aufstellung 2
aufwendigen 2
aufzunehmen 2
aup@@ 2
ausbauen 2
ausbildung 2
ausbreitet 2
ausdrücken 2
auseinander 2
auseinandersetzung 2
auserwäh@@ 2
ausgeführt 2
ausgegeben 2
ausgeglichenen 2
ausgehandelt 2
ausgelegt 2
ausgeliehen 2
ausgemacht 2
ausgesagt 2
ausgestanden 2
ausgestorben 2
ausgestre@@ 2
ausgetragen 2
ausgewachsenen 2
ausgewechselt 2
ausgeweitet 2
ausgewirkt 2
ausgewäh@@ 2
ausgeübt 2
ausgiebig 2
auskommen 2
auskuriert 2
auslösen 2
ausmacht 2
ausrechnen 2
ausschusses 2
ausstellung 2
aust@@ 2
auswär@@ 2
auszugeben 2
auszugleichen 2
auszus@@ 2
auszuschließen 2
ausüben 2
aute 2
autob@@ 2
automaten 2
automatische 2
autor@@ 2
autos 2
außenpolitische 2
außerordentlich 2
aver 2
aver@@ 2
aw 2
ayer 2
azi@@ 2
azitäten 2
b-@@ 2
babylon@@ 2
bacher 2
bahnen 2
bahnhof 2
baldige 2
ball-@@ 2
baltischen 2
bangt 2
bankrott 2
bart 2
basi@@ 2
basis 2
basteln 2
bauern 2
bauers 2
bauf@@ 2
baum 2
baute 2
bayern 2
be- 2
beacht@@ 2
beachten 2
beachtete 2
beamten 2
beantragte 2
beantwortet 2
becher 2
bedankt 2
bedauerte 2
bedenken 2
bedeutendsten 2
bedingte 2
bedroh@@ 2
bedrohen 2
bedroht 2
bedrohung 2
bedürf@@ 2
beeinflussen 2
befassen 2
befasst 2
befeh@@ 2
befinde 2
befindlichen 2
befl@@ 2
beflügeln 2
befr@@ 2
befragte 2
befrie@@ 2
befriedigt 2
befunden 2
befür@@ 2
befürwor@@ 2
befürworteten 2
begegnen 2
begehr@@ 2
begehren 2
begibt 2
begnadete 2
begnadigte 2
begreift 2
begründen 2
begrüßt 2
begut@@ 2
beharrt 2
behaup@@ 2
beherrschten 2
behin@@ 2
behindert 2
beibehalten 2
beinahe 2
beiseite 2
beiseite@@ 2
beitragen 2
beiwohnen 2
beizulegen 2
beju@@ 2
bekann@@ 2
bekannten 2
bekannter 2
bekanntes 2
bekannteste 2
beklagen 2
bekräf@@ 2
bekämpfung 2
belang@@ 2
belast@@ 2
beleben 2
beleidigt 2
belgische 2
beliebt 2
beliebter 2
beliefert 2
belt 2
bemerkbar 2
bemängelte 2
benachbar@@ 2
benden 2
bene 2
benen 2
benutzen 2
benutzt 2
beobachte 2
berappen 2
berech@@ 2
berechtigt 2
berechtigtes 2
bereitet 2
berg@@ 2
bergs 2
beruf@@ 2
beruft 2
beruhen 2
beruht 2
berüchtigten 2
berühmt 2
besag@@ 2
bescheinigte 2
beschleunigen 2
beschleunigt 2
beschloss 2
beschränkung 2
beschuldigte 2
beschwert 2
beschwört 2
beschä@@ 2
beschäftig@@ 2
besei@@ 2
besichtigen 2
besitz 2
besitzen 2
besitzer 2
besonder@@ 2
besor@@ 2
besorgen 2
besprechen 2
besser@@ 2
bessern 2
bestanden 2
bestehende 2
bestehenden 2
bestellt 2
besteuert 2
bestimmter 2
bestraft 2
bestreikt 2
bestreitet 2
bestätigten 2
besuch 2
besuche 2
bet 2
betonten 2
betrat 2
betreiber 2
betreibern 2
betreibt 2
betreut 2
betrunken 2
bett 2
beu@@ 2
beunruhi@@ 2
beurteilen 2
bewahr@@ 2
bewahrt 2
bewahrten 2
bewegten 2
bewerteten 2
bewies 2
bewirkt 2
bewusstsein 2
bewähr@@ 2
bezeichneten 2
bezich@@ 2
beziehen 2
bezieht 2
beziehungsweise 2
bezweifeln 2
bezweifelt 2
bezüglich 2
bi 2
bie 2
biete 2
bigen 2
bik 2
bil@@ 2
bilanz@@ 2
bildete 2
bildnerin 2
bildschirm 2
billi@@ 2
billigte 2
bindung 2
bins 2
birman@@ 2
bisweilen 2
bitten 2
blase 2
blaue 2
blauen 2
ble 2
blei@@ 2
bliche 2
blockiert 2
bloße 2
blä@@ 2
bläst 2
blüht 2
bol@@ 2
bomben 2
bon@@ 2
book 2
boomenden 2
borg 2
boten 2
box@@ 2
boykot@@ 2
braunen 2
breitbeinig 2
bremsen 2
bremst 2
brenn@@ 2
brennende 2
brennt 2
brid@@ 2
brief 2
brin@@ 2
brit@@ 2
britischem 2
brot 2
bru@@ 2
brum@@ 2
brutal 2
brutalen 2
bräch@@ 2
bräuchte 2
bröck@@ 2
brüchen 2
bstoffe 2
bstoffs 2
buchen 2
buchstäblich 2
bundesdeutschen 2
bung 2
bunte 2
bunten 2
bunter 2
burg-@@ 2
burger 2
bury 2
busch@@ 2
but 2
börsennotierten 2
bü@@ 2
bücher 2
bürger 2
bürger@@ 2
bürokr@@ 2
büros 2
ca. 2
camps 2
can 2
cci 2
center 2
ch-@@ 2
chancenlos 2
char@@ 2
charmant 2
che-@@ 2
chel@@ 2
chelt 2
chem@@ 2
chenf@@ 2
chens 2
cherin 2
chern 2
chige 2
china 2
chinesisch-@@ 2
chinesischer 2
chio 2
chips 2
christ@@ 2
christliche 2
chron@@ 2
chronisation 2
chst@@ 2
chste 2
chtbar 2
chtbarkeit 2
chtdreh@@ 2
chten@@ 2
chtes 2
chtet 2
chtete 2
cis 2
cken@@ 2
cle@@ 2
clever 2
cm 2
compu@@ 2
computergest@@ 2
ct 2
ction 2
da-@@ 2
dabeizu@@ 2
dah@@ 2
dal 2
damer@@ 2
dan 2
dank@@ 2
dargestellt 2
dasselbe 2
dat 2
datin 2
dato 2
dauert 2
davon@@ 2
dazugehört 2
ddel@@ 2
debat@@ 2
debatte 2
deck@@ 2
deckten 2
deckungs@@ 2
def@@ 2
defensive 2
definiert 2
definitiv 2
defizit 2
deh@@ 2
dein 2
della 2
delt 2
dementi@@ 2
demontieren 2
denden 2
denkbar 2
denker 2
denkwürdigen 2
dens@@ 2
denstraße 2
derart 2
derartiger 2
derlich 2
dert 2
derten 2
derungen 2
dest@@ 2
deu@@ 2
deutet 2
deutsch 2
deutschem 2
deutschland@@ 2
deutschsprach@@ 2
deutschsprachigen 2
dex 2
dezent 2
diagnostiziert 2
dialogischen 2
dichte 2
dichtes 2
dicke 2
dien 2
dieren 2
dierte 2
dierten 2
dierung 2
diesjährige 2
differenz@@ 2
digerin 2
diges 2
digitale 2
digkeit 2
digkeits@@ 2
digten 2
digungen 2
dikator 2
dikt@@ 2
ding 2
dini 2
dirak@@ 2
dis 2
disch 2
discher 2
diskrimin@@ 2
dium 2
diverser 2
dividende 2
dividiert 2
dl 2
dley 2
dliche 2
dlichkeit 2
doc@@ 2
dok@@ 2
dominieren 2
doppelten 2
dosta@@ 2
drast@@ 2
drastische 2
dreimal 2
dreitaus@@ 2
dring@@ 2
dringen 2
drit@@ 2
drittgrößten 2
droh@@ 2
drohe 2
drohenden 2
drunter 2
drängten 2
drück@@ 2
drücken 2
dsch@@ 2
dts 2
duell 2
dungen 2
durchs 2
durchschnittliche 2
durchsuchten 2
durften 2
dänische 2
dör@@ 2
dü@@ 2
dün@@ 2
dünner 2
düst@@ 2
e- 2
e-Profi 2
e.de 2
e.html 2
ebe 2
ebehörde 2
echnisch 2
echtem 2
eck@@ 2
eckt 2
ede 2
edrale 2
eef 2
een 2
eeper 2
ees 2
effekt@@ 2
effektiv 2
effektiven 2
effektiver 2
ege 2
ehelichte 2
ehende 2
ehens 2
ehm@@ 2
ehn@@ 2
ehr 2
ehrenamtliches 2
ehrgei@@ 2
eigen 2
eigen@@ 2
eigenständige 2
eigentliche 2
eigentliches 2
eilen 2
einander@@ 2
einbruch 2
eindeu@@ 2
eindr@@ 2
eindringlich 2
eindrucks@@ 2
einfache 2
einfachen 2
einfließen 2
einflüssen 2
eingebaut 2
eingebaute 2
eingeführt 2
eingehalten 2
eingekauft 2
eingeleitet 2
eingemischt 2
eingeplant 2
eingerichtet 2
eingeschlagen 2
eingeschlossen 2
eingeschossen 2
eingeschrieben 2
eingestellten 2
eingestuft 2
eingetroffen 2
eingezogen 2
einhalb 2
einheimische 2
einheiten 2
einhelli@@ 2
einher 2
eini@@ 2
einigten 2
einkaufen 2
einladen 2
einlassen 2
einnahmen 2
einnehmen 2
einsatzes 2
einsatzfähig 2
einstelli@@ 2
einstellte 2
einstimmig 2
eintägigen 2
einund@@ 2
einvernehmliche 2
einverstanden 2
einziehen 2
einzudämmen 2
einzuführen 2
einzugehen 2
einzusetzen 2
einzuwenden 2
eiten 2
eitete 2
eitungen 2
ekon@@ 2
ekte 2
ektiv@@ 2
el-Baradei 2
eleg@@ 2
eleganten 2
eleganter 2
elektronische 2
elen 2
eleute 2
elis 2
elles 2
ells 2
elnd 2
elnder 2
els@@ 2
eltem 2
elung 2
emann 2
emarkt 2
emaschine 2
eme 2
emer 2
emit@@ 2
emmen 2
emmt 2
emotional 2
empfehlen 2
empfiehlt 2
empfin@@ 2
empfindet 2
empört 2
ems 2
en- 2
en-Reise 2
ena 2
enbacher 2
enbau 2
enbauer 2
ender@@ 2
endgül@@ 2
endi@@ 2
endlos 2
endorf 2
endung 2
endungs@@ 2
enfach@@ 2
enfest 2
enfeuer@@ 2
enfächern 2
engagieren 2
engagiert 2
engl@@ 2
engängen 2
enheit 2
enkammer 2
enkl@@ 2
enkopf 2
enkt 2
enkämpfe 2
enkö@@ 2
enliste 2
enne 2
ennetz 2
enschale 2
enschluss 2
ensen 2
ensive 2
enspiel 2
enspieler 2
enspli@@ 2
enstein 2
enstraße 2
ensystem 2
entakt 2
entale 2
entartet 2
entfachte 2
entfern@@ 2
entfernen 2
entfrem@@ 2
enthalten@@ 2
entladen 2
entlarvt 2
entlässt 2
entnervt 2
entpuppte 2
entschie@@ 2
entschlossen 2
entschuldigen 2
entschädigen 2
entschärfen 2
entsprech@@ 2
entsprechender 2
entstandenen 2
enttäu@@ 2
entures 2
entwickler 2
entwirft 2
entworfene 2
entziehen 2
enzahl 2
er-T@@ 2
erab@@ 2
erarbeiten 2
erb@@ 2
erdenklichen 2
erdruck 2
erecht 2
ereien 2
erend 2
erende 2
erfassten 2
erfol@@ 2
erfolge 2
erfolgs@@ 2
erforder@@ 2
erfreu@@ 2
erfrisch@@ 2
erfuhr 2
erfährt 2
erfüllt 2
ergaben 2
ergehen 2
erhoff@@ 2
erhoffen 2
erhängt 2
erhöhungen 2
eri@@ 2
erinnere 2
erisch 2
erische 2
erischen 2
erkampf 2
erkenn@@ 2
erkrankt 2
erlag 2
erlaubten 2
erleidet 2
erläuterte 2
ermin 2
ermitteln 2
ermordet 2
ermordeten 2
ermöglicht 2
ermöglichten 2
ernannt 2
ernde 2
erneu@@ 2
erns 2
ernst@@ 2
ernste 2
ernster 2
ero@@ 2
eroberte 2
errechnet 2
errichten 2
erscheinenden 2
erschi@@ 2
erschien 2
erschlug 2
erschutz@@ 2
erschwert 2
ersetzen 2
erspart 2
erspr@@ 2
erstattet 2
erstatteten 2
erstaunliche 2
erstei@@ 2
erstklassigen 2
ertag 2
erteilte 2
erungen 2
erweitern 2
erwirtschaften 2
erwirtschaftet 2
erwischen 2
erwäge 2
erwägt 2
erwäh@@ 2
erwär@@ 2
erz@@ 2
erzeit 2
erzeugen 2
erzeugt 2
erzielten 2
erzähl 2
erzählen 2
eröffnung 2
eschule 2
eskop 2
espar@@ 2
esse@@ 2
esses 2
essi@@ 2
essierte 2
esten 2
estern 2
ests 2
estür@@ 2
eswig-@@ 2
et-@@ 2
etabliert 2
etat 2
etat@@ 2
eth 2
eth@@ 2
ethnische 2
etliche 2
ett-@@ 2
ettel 2
etter 2
etto 2
etwaige 2
ety 2
etzte 2
etzten 2
etzungen 2
euen 2
euerung 2
eur 2
europaweit 2
europaweiten 2
europäischem 2
eus 2
ex 2
exakt 2
exot@@ 2
exper@@ 2
extern@@ 2
extr@@ 2
extra 2
ey 2
ez 2
ez@@ 2
fach 2
fache 2
fachlichen 2
facht 2
fachung 2
faden 2
fahrer 2
fahrern 2
fahrlässig 2
fahrten 2
fahrts@@ 2
fahrzeuge 2
fair 2
faire 2
fairer 2
faktor 2
fall-@@ 2
fall@@ 2
falschen 2
fang 2
fantastisch 2
far@@ 2
farbe 2
farbenen 2
fas@@ 2
faschistische 2
fassenden 2
favorisiert 2
feh@@ 2
fehl 2
fehlen 2
fehler@@ 2
fehlte 2
feierlich 2
feiern 2
feierten 2
feine 2
fektion 2
fel 2
felder 2
fem@@ 2
fer-@@ 2
ferin 2
fernen 2
ferner 2
fernsehen 2
fernseher 2
fertig@@ 2
festes 2
festgefahrenen 2
festgehalten 2
festgenommenen 2
feuer 2
feuern 2
ffer 2
fic 2
fien 2
figuren 2
fik@@ 2
film@@ 2
final-Teil@@ 2
finanzierung 2
finanzpolitische 2
finnische 2
fit 2
fix@@ 2
fizierung 2
flaschen 2
fle@@ 2
flexiblen 2
flich 2
fließen 2
fließt 2
flo@@ 2
flogen 2
flotte 2
flu@@ 2
flucht 2
flug@@ 2
fluten 2
flä@@ 2
flächen 2
flächendeckenden 2
flüchtete 2
flüchteten 2
fo@@ 2
fok@@ 2
folglich 2
fonds 2
for 2
forderungen 2
formal 2
formation 2
formuliert 2
forschung 2
forts@@ 2
fortsetzen 2
fra@@ 2
fragten 2
frank@@ 2
frankfur@@ 2
französ@@ 2
frauen 2
fraß 2
fre@@ 2
frech 2
freier 2
freigegeben 2
freigeschaltet 2
freil@@ 2
freiwilli@@ 2
frem@@ 2
fremde 2
freude 2
freue 2
freund 2
freund@@ 2
freunde 2
freundliche 2
fried@@ 2
friedliche 2
frische 2
frist@@ 2
fristig 2
fristige 2
fristigen 2
fro@@ 2
frostigen 2
frustr@@ 2
fränkischen 2
frühzeitig 2
ft-@@ 2
ftige 2
fts 2
fts@@ 2
fuhren 2
fung 2
fungen 2
fungs@@ 2
fur@@ 2
fädeln 2
fähige 2
fähiger 2
fällig 2
fälligen 2
fällte 2
fängt 2
föder@@ 2
fördern@@ 2
fördert 2
fühle 2
fühlte 2
führe 2
führende 2
füll@@ 2
füllen 2
fünfstelli@@ 2
fünfzig 2
fürchte 2
gabe 2
galerie 2
gam@@ 2
gangen 2
gangenen 2
ganzer 2
garanti@@ 2
garantieren 2
garten@@ 2
gas 2
gast 2
gast@@ 2
gau 2
gau@@ 2
geachtet 2
geantwortet 2
gearbeitet 2
gebern 2
geborenen 2
geborgen 2
gebot 2
geboxt 2
gebrau@@ 2
gebucht 2
gebungen 2
gebühr@@ 2
gebühren 2
gedeckt 2
gedruckte 2
gedrungen 2
gedrängt 2
geehrt 2
geeignete 2
geern@@ 2
gefalteten 2
gefangen 2
gefangen@@ 2
gefeiert 2
gefoltert 2
gefoult 2
gefr@@ 2
gefundenen 2
gefüge 2
gefühlt 2
gegangenen 2
gegebene 2
gegebenenfalls 2
gegenüber@@ 2
geglaubt 2
gegründeten 2
geheimen 2
gehetzt 2
gehörende 2
gehöri@@ 2
gehüllt 2
geis@@ 2
geist 2
geistig 2
geistigen 2
gekennzeichnet 2
geklappt 2
geklaut 2
geklei@@ 2
geklär@@ 2
gekomm@@ 2
gekommene 2
gekr@@ 2
gekämpft 2
gekündigt 2
geladen 2
gelangte 2
gelaunt 2
geld-@@ 2
gelder 2
gelegene 2
gelenk 2
gelernte 2
gelesen 2
geliefert 2
gelingt 2
gelockt 2
gelotst 2
gelände 2
gelöscht 2
geman@@ 2
gemein 2
gemeinde 2
gemeinnützige 2
gemessen 2
gemäß 2
genannter 2
gendes 2
gene 2
genen 2
gener@@ 2
generelle 2
genes 2
geni@@ 2
genießt 2
gent@@ 2
genü@@ 2
geord@@ 2
gepl@@ 2
gepriesen 2
geprä@@ 2
gerad@@ 2
gerannt 2
geraubt 2
gereien 2
gereinigt 2
gereizt 2
gerer 2
gerichte 2
gerichtlichen 2
gerichts 2
gerieten 2
geringe 2
geringeren 2
german@@ 2
geruh@@ 2
geröst@@ 2
gerüstet 2
gesammelt 2
geschenkt 2
geschoss 2
geschritten 2
geschrum@@ 2
geschweige 2
geschwindigkeiten 2
geschäf@@ 2
geschätzte 2
gesetze 2
gesp@@ 2
gespaltene 2
gespeicherten 2
gesprä@@ 2
gespräch 2
gestalten 2
gestiegene 2
gestreikt 2
gestri@@ 2
gestritten 2
gesu@@ 2
gesundes 2
getar@@ 2
getau@@ 2
getrenn@@ 2
getrieben 2
getrock@@ 2
getrunken 2
gewachsen 2
gewachsenen 2
gewal@@ 2
gewaltig 2
gewaltsam 2
gewalttä@@ 2
gewalttätigen 2
gewandelt 2
gewaschen 2
gewerbes 2
gewertet 2
gewohn@@ 2
gewordene 2
gewäh@@ 2
gewähr@@ 2
gewährleistet 2
gewöhn@@ 2
gewöhnlichen 2
gewöhnt 2
gewünschte 2
gezerrt 2
gezielten 2
ggel 2
ggel@@ 2
ght-@@ 2
ghton 2
gie@@ 2
gien 2
gieren 2
gierten 2
gift@@ 2
giftig 2
gigen 2
giger 2
gkeits@@ 2
glanz@@ 2
glasklare 2
glaub@@ 2
glaubte 2
gleicher 2
gleichwer@@ 2
glicher 2
gliedert 2
glob@@ 2
global@@ 2
glänz@@ 2
gläu@@ 2
glück@@ 2
glücklicher 2
glüh@@ 2
gnisses 2
gnungen 2
go 2
gom@@ 2
gour@@ 2
gra@@ 2
grab@@ 2
grad 2
grandios 2
gratis 2
grausam 2
gravierende 2
greichs 2
grenz@@ 2
gri@@ 2
griech@@ 2
grierten 2
griffen 2
gring 2
groben 2
großartig 2
großartige 2
grundierter 2
grundle@@ 2
gruppen@@ 2
größe 2
größerer 2
größter 2
grü@@ 2
gründet 2
gst 2
gucken 2
gungen 2
gutem 2
gängen 2
gäste 2
gön@@ 2
gönnen 2
günstiger 2
haftigkeit 2
haken 2
halbes 2
halbher@@ 2
half 2
halfen 2
halt@@ 2
haltbar 2
han@@ 2
handels 2
handelte 2
handle 2
harken 2
harmlos 2
harmon@@ 2
harte 2
has@@ 2
hasch@@ 2
hau@@ 2
hausen 2
heb@@ 2
heben 2
hebt 2
hef@@ 2
heftigen 2
hegt 2
hehren 2
heil@@ 2
heilig@@ 2
heilige 2
heiligen 2
heims 2
heitet 2
heizoel@@ 2
heiß 2
heiße 2
hekt@@ 2
helle 2
hem@@ 2
herankommen 2
herapie 2
herausgegriffen 2
herbei@@ 2
herber 2
herbst@@ 2
herkömmlicher 2
herrschaft 2
herstellers 2
hervorgeht 2
hessen 2
hessische 2
hetzen 2
hierzu 2
hieven 2
hil@@ 2
hilfe@@ 2
hilfen 2
hilflos 2
hilfrei@@ 2
hinaus@@ 2
hinausgehen 2
hingerichtet 2
hingewiesen 2
hintereinander 2
hinterhältigen 2
hinterließ 2
hinweg@@ 2
hinüber@@ 2
hit@@ 2
hl 2
hochrangige 2
hochrangiger 2
hochschulen 2
hofer 2
hoff 2
hoff@@ 2
hofs 2
hoh@@ 2
hold 2
holprig 2
holprigen 2
holten 2
homosexuelle 2
honor@@ 2
hooting 2
hormon 2
horn 2
horst 2
hou@@ 2
hu@@ 2
humor@@ 2
hunderte 2
hunderttaus@@ 2
hunger 2
hut@@ 2
hän@@ 2
händ@@ 2
här@@ 2
härter 2
häufi@@ 2
häusern 2
hö@@ 2
höch@@ 2
höchstem 2
höchstens 2
höchster 2
höflich 2
höhe 2
höherer 2
höre 2
hörer 2
hübsche 2
hüter 2
ian@@ 2
icht@@ 2
icket 2
identitätsstif@@ 2
ier 2
ierbar 2
iere 2
iern 2
iet@@ 2
igkeit 2
igkeiten 2
ignor@@ 2
ignorieren 2
igung 2
ihrerseits 2
ikanischen 2
iles 2
illa 2
illegale 2
illen 2
illes@@ 2
ilo 2
immense 2
impor@@ 2
importieren 2
inakzeptabel 2
index 2
industrie@@ 2
inf@@ 2
inflations@@ 2
inform@@ 2
informierter 2
ingen-@@ 2
ingeni@@ 2
inger@@ 2
inha 2
inhaf@@ 2
inho 2
inic 2
inien 2
inismus 2
inmitten 2
innen@@ 2
inner 2
insel 2
inspi@@ 2
inspiriert 2
installieren 2
inszenieren 2
inszenierte 2
intellektuellen 2
intelligent 2
intensi@@ 2
intensiver 2
interessi@@ 2
interessieren 2
intern 2
interpretieren 2
interpretiert 2
interstell@@ 2
inti@@ 2
investitionen 2
inwieweit 2
iranischen 2
irdischen 2
irgendeine 2
irgendeinem 2
irgendwo 2
irischen 2
irr@@ 2
irri@@ 2
irst@@ 2
ischere 2
ischste 2
ischten 2
isen 2
isieren 2
isierte 2
islav 2
isse 2
issene 2
issheit 2
istelli@@ 2
isten-@@ 2
ister 2
istik 2
istik@@ 2
istisches 2
istr@@ 2
ite@@ 2
itee 2
iter 2
ittel 2
ituation 2
ity 2
itze 2
iums 2
iz@@ 2
j 2
jahre 2
jahrelang 2
jahrelangen 2
jahren 2
jahres 2
jahrzehn@@ 2
jemals 2
jen@@ 2
jenes 2
jenseits 2
jer 2
jetz@@ 2
jeweilige 2
jewski 2
ji 2
jol 2
jugend@@ 2
jun@@ 2
justiz 2
jähes 2
jährig 2
jährliche 2
jährlichen 2
jüdische 2
jün@@ 2
jüngeren 2
jüngerer 2
kal 2
kalku@@ 2
kalte 2
kam@@ 2
kammer 2
kamp@@ 2
kampf@@ 2
kanadischen 2
kanal 2
kannst 2
kante 2
kas 2
kasach@@ 2
kassiert 2
katalanische 2
katastrophe 2
katholische 2
kaufs 2
keeper 2
kehren 2
keineswegs 2
kel-@@ 2
keln 2
kennengelernt 2
kenner 2
ketten 2
kin 2
kind 2
kindliche 2
kings 2
kirch@@ 2
kitschig 2
klack 2
klag@@ 2
klage 2
klagen 2
klappt 2
klarer 2
klassi@@ 2
kle@@ 2
klei@@ 2
kleidung 2
kleineren 2
kleinsten 2
klingelt 2
klumpen 2
klä@@ 2
klär@@ 2
knackt 2
knackte 2
knappen 2
knöpft 2
knü@@ 2
koch@@ 2
koffer 2
koh@@ 2
kollabiert 2
komisch 2
kommandos 2
kommentieren 2
kommentiert 2
kommerzi@@ 2
kommerzielle 2
kommunik@@ 2
kompakt 2
kompensieren 2
kompetenz 2
kompl@@ 2
komplette 2
komplizier@@ 2
konflikt@@ 2
konfliktreichsten 2
konjunktur 2
konkret@@ 2
konkretes 2
konkurrenzfähig 2
konkurrieren 2
konsequent 2
konsolidieren 2
konstru@@ 2
konstruktive 2
konsu@@ 2
konten 2
kontert 2
kontrollieren 2
kontrollierten 2
konz@@ 2
konzentriert 2
konzep@@ 2
konzert 2
kop@@ 2
kor 2
kostbaren 2
koste 2
kostenneutr@@ 2
kosteten 2
kra@@ 2
kraft@@ 2
kran@@ 2
krank@@ 2
kranke 2
kreises 2
krieg 2
kriegt 2
kriminalität 2
kriminelle 2
kriminellen 2
krisen 2
kritik 2
kritiker 2
kritische 2
ksand@@ 2
ktes 2
ktieren 2
ktiv 2
ktu@@ 2
ktur 2
kubanische 2
kulatur 2
kun@@ 2
kunft 2
kuppl@@ 2
kurzfristige 2
kurzzeitig 2
kämpfer 2
kämpferisch 2
kästen 2
köni@@ 2
körperlich 2
körperliche 2
küh@@ 2
kühl 2
kühlt 2
kümmerte 2
kün@@ 2
kündigen 2
kündigung 2
künstliche 2
künstlichen 2
küss@@ 2
küste 2
labor 2
laboriert 2
lag@@ 2
lagern 2
lagert 2
lan 2
langjährige 2
langjährigen 2
langs@@ 2
langwei@@ 2
lar@@ 2
lasse 2
lassung 2
lasten 2
lebe 2
lebend 2
lebte 2
leer 2
leg@@ 2
legale 2
legendär 2
legenen 2
leger@@ 2
legi@@ 2
legiti@@ 2
lehnten 2
leid 2
leistung 2
leit@@ 2
leiten 2
leiterin 2
leitet 2
leitete 2
lenken 2
lerische 2
lern@@ 2
lernte 2
lese 2
let@@ 2
letz@@ 2
letztes 2
letztmals 2
leu@@ 2
leuchtet 2
leuten 2
ley@@ 2
lhe 2
li-@@ 2
lieb 2
lied 2
lieferungen 2
lien 2
lierter 2
lig 2
lige 2
likat@@ 2
liner 2
linke 2
links-@@ 2
linksextrem@@ 2
liquide 2
litauischen 2
liter@@ 2
ll 2
ller 2
llt 2
lmann 2
lob@@ 2
lockeren 2
log@@ 2
logisch 2
lokalen 2
lon@@ 2
losesten 2
lossene 2
lossenen 2
loszuwerden 2
low 2
ls@@ 2
lt@@ 2
lten 2
lun@@ 2
lung@@ 2
lustig 2
lux@@ 2
lägen 2
ländischer 2
längerer 2
lässi@@ 2
lässigkeit 2
lästig 2
läuferin 2
läufi@@ 2
löhne 2
löste 2
maf@@ 2
magazin 2
mah@@ 2
main@@ 2
mals 2
manch 2
mandat 2
mantel 2
manu@@ 2
marken 2
marken@@ 2
markiert 2
markt-@@ 2
marschiert 2
martialische 2
mas@@ 2
mass@@ 2
masse 2
massiven 2
mate 2
materi@@ 2
materielle 2
mauert 2
maximal 2
maßgeblich 2
mechan@@ 2
medaille 2
medien@@ 2
mehreinnahmen 2
mehrerer 2
mehrheit 2
meier 2
meil@@ 2
meilenweit 2
meister@@ 2
meldeten 2
meldungen 2
mengen 2
menschlich 2
ment 2
mentalität 2
merke 2
merken 2
merklich 2
merkwürdigen 2
metallen 2
mete 2
meyer 2
mien 2
mierend 2
mierte 2
mige 2
migranten 2
milch 2
militärisch 2
mindern 2
minen@@ 2
minieren 2
miniert 2
ministerkonferenz 2
misch 2
miserabler 2
mission 2
mitarbeiter@@ 2
mitbestimmen 2
mitglie@@ 2
mitmachen 2
mitnehmen 2
mitteilen 2
mitteilt 2
mittelfristigen 2
mittelgroßen 2
mittelmäßig 2
mittleren 2
mitzu@@ 2
mitzutragen 2
mmt 2
mochte 2
moderat 2
moderaten 2
moderiert 2
modern 2
monatel@@ 2
monaten 2
monatlichen 2
mond@@ 2
montiert 2
moon 2
moral@@ 2
mot@@ 2
motiv 2
motivierten 2
mte 2
mten 2
mul@@ 2
multin@@ 2
mung 2
musik@@ 2
musiker 2
muslimischen 2
musst 2
muti@@ 2
mutter 2
myth@@ 2
mächte 2
mächtigen 2
män@@ 2
männer 2
mäß@@ 2
mäßige 2
mäßigem 2
mö@@ 2
möchten 2
mühelos 2
mühsam 2
mün@@ 2
mütig 2
mütze 2
nachbörslich 2
nachempfunden 2
nachhaltigen 2
nachkommen 2
nachlassen 2
nachlesen 2
nachträ@@ 2
nachweisen 2
nachzuholen 2
nachzuzeichnen 2
nackt 2
nackte 2
nagel 2
nahen 2
nahtlos 2
namen 2
namhafte 2
nannten 2
nationalsozialistischen 2
natur@@ 2
nd 2
neb@@ 2
nebst 2
nee 2
negativen 2
nehmer 2
nehmern 2
neiden 2
neigt 2
nen@@ 2
ner-@@ 2
nerin 2
nert 2
nervenaufreibenden 2
nervös 2
nes 2
net 2
nete 2
netz 2
netze 2
netzwerk 2
neuartigen 2
neuem 2
neugegründeten 2
neulich 2
new 2
nicht-@@ 2
nichtig 2
nieder 2
niedergeschlagen 2
niederlage 2
niedri@@ 2
niedrige 2
niedrigem 2
niedriger 2
niemanden 2
nien 2
nig 2
niges 2
nische 2
niss@@ 2
nisses 2
nit 2
nive@@ 2
nix 2
nomin@@ 2
non 2
nordrhein-westfälische 2
norm@@ 2
normale 2
normaler 2
norweg@@ 2
noten 2
notierten 2
notwen@@ 2
notwendigen 2
nov@@ 2
ns@@ 2
nu@@ 2
nuklearen 2
nutze 2
ny 2
näch@@ 2
nächster 2
näh@@ 2
näher@@ 2
nördlich 2
nüchtern 2
nüchternen 2
nüchterner 2
nütz@@ 2
nützen 2
nützlich 2
nützt 2
o- 2
oaktive 2
oberste 2
obi@@ 2
obil 2
obligatorisch 2
obschon 2
od 2
od@@ 2
offenkundig 2
offenlegen 2
ogo 2
ograf 2
ographie 2
ohlenen 2
ohn@@ 2
oldaten 2
ole 2
oli 2
oliber@@ 2
olische 2
olog@@ 2
ologisch 2
olympische 2
olympischen 2
oman 2
omb@@ 2
omit@@ 2
on-@@ 2
ona 2
ong 2
oni 2
onien 2
onin 2
onss@@ 2
ont 2
oo@@ 2
op 2
operieren 2
oph@@ 2
ophonen 2
oppositionellen 2
optik@@ 2
optimale 2
optisch 2
or-@@ 2
orch@@ 2
ord 2
orden 2
ordnen 2
oren-@@ 2
orene 2
orf 2
organis@@ 2
organisation 2
orientierte 2
orientierten 2
orischen 2
orrup@@ 2
ort@@ 2
orte 2
orten 2
ossen 2
oth@@ 2
ov 2
ova 2
pakistan@@ 2
pakt 2
papier 2
park 2
parken 2
parks 2
parlamenten 2
part@@ 2
parteiinternen 2
parteipolitisch 2
parteitag 2
party 2
passen 2
passenden 2
passi@@ 2
passte 2
path@@ 2
patriot@@ 2
patzte 2
pausieren 2
pegel 2
peilt 2
pein@@ 2
peinlichen 2
pen 2
pen@@ 2
pend@@ 2
perman@@ 2
pern 2
perre 2
personal 2
pessimistisch 2
pf 2
pfels 2
pflich@@ 2
pften 2
phase 2
picture-alliance 2
piel 2
piele 2
piell 2
pien 2
pil@@ 2
ping 2
pistolen 2
planmäßig 2
planung 2
planungen 2
platzieren 2
play@@ 2
pler 2
plung 2
polit@@ 2
politik@@ 2
politiker 2
polnische 2
pon@@ 2
ponsor@@ 2
poport 2
populären 2
porte 2
portugiesischen 2
position 2
positionen 2
potentiellen 2
potenzielle 2
potenziellen 2
pp@@ 2
ppchen 2
pps 2
prache 2
prall 2
prallte 2
prech@@ 2
prechung 2
predigen 2
preisgegeben 2
preisindex 2
press 2
presse 2
pressionismus 2
prim@@ 2
prin@@ 2
prinzip 2
privat 2
prob@@ 2
probe 2
proben 2
probieren 2
problem@@ 2
problemen 2
produkt 2
produkte 2
produkten 2
produktiver 2
produzent 2
professionell 2
professionelle 2
profil 2
profitierte 2
profitierten 2
prognosti@@ 2
program@@ 2
programmat@@ 2
projekte 2
prominent@@ 2
prominenten 2
prophezeit 2
prospekt 2
protesti@@ 2
provisorischen 2
provo@@ 2
provoziert 2
prozesse 2
prozessen 2
prung 2
prägen 2
prägt 2
präpar@@ 2
präsent 2
präsentierte 2
präsident 2
präsidenten 2
präz@@ 2
präzise 2
pse 2
psychologe 2
publikum 2
pullover 2
punkt@@ 2
pur@@ 2
päpst@@ 2
pässe 2
pöbelt 2
quali@@ 2
qualifi@@ 2
qualifizieren 2
qualitativ 2
quartal 2
quelle 2
racht 2
radi@@ 2
radikal-islamischen 2
radikal@@ 2
rag@@ 2
rahmen 2
rak@@ 2
ram@@ 2
rand 2
rank@@ 2
ras 2
rasanten 2
rascher 2
rast@@ 2
rats 2
ratsvorsitzende 2
re-@@ 2
reag@@ 2
reaktionen 2
realistisch 2
recher 2
recher@@ 2
rechnung 2
rechtfertigte 2
rechtler 2
rechtliche 2
rechtsextrem@@ 2
rechtsradikale 2
rede 2
refle@@ 2
reform 2
rege 2
regelrecht 2
regelt 2
regenerativen 2
regenerieren 2
regionaler 2
registriert 2
regt 2
reichende 2
reichste 2
reif 2
reihen 2
rein@@ 2
reis 2
reist 2
reit@@ 2
reitet 2
rekonstru@@ 2
relev@@ 2
religi@@ 2
religiösen 2
ren 2
renom@@ 2
report 2
republik 2
republikanische 2
rer 2
reser@@ 2
resigniert 2
respekt@@ 2
ressort 2
rest@@ 2
rettet 2
rettete 2
reuth 2
revol@@ 2
rheinischen 2
rheinland-pfälzische 2
ri 2
ria 2
richtet 2
richtete 2
richtungs@@ 2
rieben 2
riecht 2
riegs@@ 2
riere 2
rieren 2
rierter 2
rios 2
ris@@ 2
risiko 2
riskiert 2
ritten 2
ro 2
roll@@ 2
rollen 2
ros@@ 2
rosi@@ 2
ruhenden 2
ruht 2
rum 2
rumoren 2
rumänische 2
rungen 2
runter@@ 2
russischer 2
rä@@ 2
rän@@ 2
ränk@@ 2
rätsel@@ 2
räumen 2
räumte 2
rü@@ 2
rücken 2
rückläufig 2
rügte 2
rühr@@ 2
s- 2
sache 2
sachliche 2
sackte 2
saison 2
sal 2
samm@@ 2
sammelt 2
sang 2
sanieren 2
sanken 2
satirisch 2
satt 2
satte 2
sauber 2
sauber@@ 2
sauer 2
sauf@@ 2
schaftlich 2
schaftss@@ 2
schale 2
schalten 2
scharfe 2
schauspiel@@ 2
schefs 2
scheibe 2
scheidende 2
scheitern 2
scheiterten 2
schende 2
schenk@@ 2
schenkt 2
scherz@@ 2
schicht 2
schichten 2
schickt 2
schickte 2
schie@@ 2
schied 2
schief 2
schienen 2
schier 2
schießt 2
schim@@ 2
schlag@@ 2
schlech@@ 2
schlecht@@ 2
schlechter 2
schlechtere 2
schlechtes 2
schleifte 2
schlich@@ 2
schlimmstenfalls 2
schlit@@ 2
schlugen 2
schluss 2
schlägen 2
schlüssi@@ 2
schmei@@ 2
schmelzende 2
schmidt 2
schmu@@ 2
schmuck 2
schmun@@ 2
schnappt 2
schne@@ 2
schnellen 2
schnellste 2
schnellsten 2
schock@@ 2
schonen 2
schossen 2
schottischen 2
schrank 2
schraube 2
schrecklich 2
schreitungen 2
schri@@ 2
schriftlich 2
schrumpfen 2
schrä@@ 2
schulung 2
schuss@@ 2
schwacher 2
schwan@@ 2
schwank@@ 2
schwar@@ 2
schwarz 2
schweb@@ 2
schwebt 2
schwedische 2
schwedischen 2
schweiß 2
schwelle 2
schwerste 2
schwersten 2
schwindet 2
schwä@@ 2
schwächen 2
schwächer 2
schwächere 2
schwächt 2
schäd@@ 2
schärferen 2
schätz@@ 2
schätzen 2
schönsten 2
schöpfen 2
schöpfte 2
schüren 2
schütteln 2
schützenden 2
sechsjährigen 2
sechsten 2
seeb@@ 2
segens@@ 2
seitens 2
seitlich 2
sektor 2
selb@@ 2
selben 2
seln 2
selt 2
senat 2
sende 2
sensation@@ 2
sensi@@ 2
sensibel 2
serb@@ 2
serbische 2
sergeb@@ 2
serien@@ 2
serklärung 2
setze 2
sexuell 2
sey 2
sfeld 2
sicheren 2
sicherer 2
sichert 2
sichtbares 2
sie@@ 2
sieb@@ 2
sieben@@ 2
siebenjährigen 2
siebte 2
siedlung 2
siege 2
siegrei@@ 2
sien 2
signalisieren 2
signalisiert 2
singen 2
sinkt 2
sinnvolle 2
sinter@@ 2
sit@@ 2
sitz@@ 2
sitzenden 2
sius 2
skandal 2
skel@@ 2
skep@@ 2
ski 2
skur@@ 2
skurs 2
sky 2
sobald 2
sofor@@ 2
solidarisch 2
solide 2
solltest 2
sonde 2
sonstige 2
sorgten 2
sort 2
sozialdemokratische 2
sozialdemokratischen 2
sozialer 2
sozialistische 2
sozialistischen 2
spalten 2
spann@@ 2
spannende 2
spannenden 2
spause 2
speisen 2
speist 2
spektakulären 2
speku@@ 2
spekulativ 2
spend@@ 2
sperr@@ 2
sperren 2
sperrte 2
spezialisiert 2
spezialisierten 2
spezialist 2
speziell 2
spflege 2
spi@@ 2
spiegel@@ 2
spielend 2
spiels 2
spitz@@ 2
split@@ 2
spo@@ 2
spont@@ 2
sprach@@ 2
sprang 2
spreis 2
spreise 2
spru@@ 2
sprung-@@ 2
sprä@@ 2
spräsidenten 2
spunkt 2
spült 2
sspiel 2
sspieler 2
ssprecher 2
ssystem 2
st-@@ 2
staatssekretär 2
stadt-@@ 2
stagni@@ 2
stahl 2
stamm@@ 2
stammten 2
standards 2
standes 2
standhaft 2
standhalten 2
standort 2
stant 2
stap@@ 2
starben 2
starifvertrag 2
starts 2
stati@@ 2
statt@@ 2
stattgefunden 2
staunt 2
stecken 2
stehend 2
stehenden 2
steige 2
steigern 2
steigerungen 2
steile 2
steine 2
stellern 2
stellvertret@@ 2
stens 2
sterblichkeit 2
stern 2
steuerlich 2
sthemen 2
stiftung 2
still@@ 2
stille 2
stin 2
stitel 2
stolze 2
stoppt 2
stor 2
strafen 2
stream@@ 2
strebt 2
streit@@ 2
strenges 2
streuen 2
stritt 2
strittige 2
struktur 2
sträu@@ 2
strö@@ 2
studenten 2
studieren 2
studiert 2
stufe 2
stuften 2
stum@@ 2
stunde 2
stundenlang 2
stwagen 2
stä@@ 2
stän@@ 2
ständen 2
ständiges 2
stärk@@ 2
stärkere 2
stärkeren 2
stärkste 2
stö@@ 2
stören 2
störend 2
störungen 2
stück 2
stück@@ 2
stün@@ 2
stürmt 2
stürzt 2
stütz@@ 2
sub@@ 2
such@@ 2
sudan@@ 2
sum 2
sunnit@@ 2
super 2
super@@ 2
symbol@@ 2
symbolisieren 2
sympathische 2
synthet@@ 2
systems 2
szl@@ 2
sächsischen 2
säkul@@ 2
sätzen 2
sätzliche 2
säulen 2
sée-Palast 2
südlichen 2
t- 2
t. 2
ta@@ 2
tabu@@ 2
tad@@ 2
tag 2
tag@@ 2
tagen 2
tages 2
tags@@ 2
tagsüber 2
tagung 2
taktiert 2
tan@@ 2
tanzen 2
tarif@@ 2
tatsächliche 2
taus@@ 2
tauschen 2
taz 2
techn@@ 2
technologie 2
telefoniert 2
ten.de 2
terien 2
terkeit 2
terkonzern 2
termin 2
terror@@ 2
terroristischen 2
tes@@ 2
test 2
test-@@ 2
teste 2
teter 2
tetes 2
teuerste 2
the@@ 2
theit 2
therapeutische 2
tic 2
tich 2
tier 2
tiere 2
tierten 2
tierung 2
tifi@@ 2
tig@@ 2
tigkeiten 2
tigungen 2
tiker 2
tile 2
tim@@ 2
time 2
timm@@ 2
tionellen 2
tisch 2
tischen 2
tischer 2
tliches 2
tn@@ 2
tod 2
toler@@ 2
toll 2
toll@@ 2
tot.html 2
totalen 2
tote 2
tra@@ 2
trab@@ 2
traditionelle 2
trainer 2
trainieren 2
transportieren 2
traum 2
traum@@ 2
traums 2
traurige 2
trech@@ 2
treff@@ 2
treffer 2
tregier@@ 2
treifen 2
treit 2
treue 2
trib@@ 2
trieb@@ 2
trikot 2
trinkt 2
tritten 2
tro@@ 2
trockener 2
tru@@ 2
trugen 2
truppen 2
träge 2
trüben 2
tschaften 2
tschafts@@ 2
tsche 2
tschiff 2
tstadt 2
tt 2
tten 2
tter 2
tter@@ 2
turbul@@ 2
turm 2
ty 2
ty@@ 2
typ@@ 2
typischen 2
typisches 2
tze 2
tzen 2
tzer 2
tägigen 2
tär@@ 2
tödlich 2
tötet 2
tüft@@ 2
tür@@ 2
türk@@ 2
u-@@ 2
uch 2
ulen 2
ultur@@ 2
umen 2
ument 2
umenten 2
umentieren 2
umfassender 2
umfasst 2
umgesetzt 2
umgucken 2
umpf 2
umr@@ 2
ums@@ 2
umso 2
umsonst 2
umt 2
umweltfreund@@ 2
un 2
unab@@ 2
unabhängiges 2
unauffällig 2
unbehelligt 2
unbeirrt 2
unbekannten 2
unbeliebt 2
unbewusst 2
und-@@ 2
undes 2
uneingeschränkt 2
uneins 2
unendliche 2
unentbehrlich 2
unerfahren 2
unerwar@@ 2
ungeachtet 2
ungebrochen 2
ungefährdeten 2
ungeheure 2
ungeklär@@ 2
ungenügend 2
ungerecht 2
ungew@@ 2
ungewohnt 2
ungewöhnlichen 2
ungl@@ 2
unglaubliches 2
unglück@@ 2
ungsab@@ 2
ungsbedürftig 2
ungschaos 2
ungser@@ 2
ungslos 2
ungsorganisation 2
ungsort 2
ungsrechte 2
ungsvor@@ 2
ungsweise 2
ungsän@@ 2
union 2
unionsregier@@ 2
universität 2
unkenen 2
unkenheit 2
unkontrolliert 2
unlautere 2
unlängst 2
unmittelbar 2
unmittelbarer 2
unmoralisch 2
unproblem@@ 2
unschein@@ 2
unsterblich 2
unt 2
unte 2
unteren 2
untergraben 2
unterlegen 2
untern@@ 2
unternehmens 2
unternehmer@@ 2
unternehmerischer 2
unterschei@@ 2
unterschie@@ 2
unterschiede 2
unterschiedlicher 2
unterschriebene 2
unterschätzen 2
unterstellte 2
unterstütz@@ 2
untersuchen 2
unterzeichnet 2
unumstritten 2
unverständlich 2
unwahrscheinlich 2
unwirksam 2
unzulässig 2
unzureich@@ 2
unzählige 2
unzähligen 2
unüberwind@@ 2
uralten 2
uren 2
ursprünglichen 2
urteilen 2
urteilte 2
us-@@ 2
uskript 2
uss@@ 2
usstr@@ 2
uste 2
utscht 2
utt@@ 2
utzte 2
va 2
variabler 2
vater 2
vehement 2
verabschiedete 2
verankert 2
veranstal@@ 2
veranstalten 2
veranstalter 2
verantworten 2
verantwortliche 2
verantwortung 2
verantwortungs@@ 2
verantwortungsbewusst 2
verbesser@@ 2
verbesserte 2
verbessertes 2
verbieten 2
verbindungen 2
verbo@@ 2
verbotenen 2
verbrachte 2
verbran@@ 2
verbrauch 2
verbrauchen 2
verbraucht 2
verbrennen 2
verbuchten 2
verbänden 2
verdacht 2
verdeutlicht 2
verdi@@ 2
verdienter 2
verdoppeln 2
verdrängt 2
verdächtigen 2
verdächtigt 2
verehr@@ 2
verehrt 2
verehrten 2
vereinbar 2
vereinbarte 2
vereinigungs@@ 2
vereint 2
verfahrens 2
verfehlt 2
verfein@@ 2
verfügbar 2
vergangen 2
vergehen 2
vergleich@@ 2
vergleichsweise 2
verglichen 2
vergnügen 2
vergünsti@@ 2
verhafteten 2
verheiratete 2
verhelfen 2
verhältnisse 2
verhär@@ 2
verirr@@ 2
verkehr@@ 2
verkehrt 2
verklagt 2
verklei@@ 2
verkündete 2
verlangte 2
verlangten 2
verlauf 2
verleger 2
verletzungsbedingt 2
verliebten 2
verlobt 2
verlänger@@ 2
verläss@@ 2
verlässliche 2
verläuft 2
vermarkt@@ 2
vermei@@ 2
vermelden 2
vermi@@ 2
vermin@@ 2
vermissten 2
vermittelt 2
vermittlung 2
vermö@@ 2
vermögens 2
vern@@ 2
vernachlässi@@ 2
vernün@@ 2
verp@@ 2
verpackt 2
verpflichten 2
verpflichteten 2
verpflichtung 2
verraten 2
verrin@@ 2
versammelt 2
verschiebt 2
verschiedener 2
verschle@@ 2
verschleppt 2
verschließen 2
verschmelzen 2
verschre@@ 2
verschrecken 2
verschwand 2
verschwei@@ 2
verschär@@ 2
verschärfte 2
versehentlich 2
versendet 2
versi@@ 2
versicherers 2
versicherte 2
versicherungst@@ 2
versorgen 2
versorgt 2
versorgten 2
versprach 2
versprech@@ 2
verspreche 2
versprochen 2
verste@@ 2
verstecken 2
verstehe 2
versteuern 2
verstoße 2
verstärken 2
verstöße 2
verstößt 2
versuch 2
verteuern 2
verteuert 2
verti@@ 2
vertiert 2
vertrau@@ 2
vertrauliche 2
vertrete 2
vertretenen 2
vertrieb@@ 2
vertrieben 2
verträ@@ 2
verun@@ 2
verunsichert 2
verursachte 2
verurteilten 2
verwal@@ 2
verwandelte 2
verwandelten 2
verwandt 2
verwei@@ 2
verweigern 2
verwert@@ 2
verwies 2
verwiesen 2
verwurzelt 2
verwöhnten 2
verz@@ 2
verzeihen 2
verzichte 2
verzweifelt 2
verzögern 2
verzögerung 2
verzögerungen 2
ves@@ 2
vielerorts 2
viert 2
vierzehn 2
vierzig 2
vil 2
vin 2
virus 2
vit@@ 2
vität 2
vize 2
voir 2
vok@@ 2
vollautomatisch 2
vollem 2
volles 2
vollgest@@ 2
vollkommen 2
vollständigen 2
vollziehen 2
vollzogen 2
vollzugs@@ 2
voneinander 2
voranzu@@ 2
vorausgesetzt 2
vorbereit@@ 2
voreinander 2
vorge@@ 2
vorgegeben 2
vorgesch@@ 2
vorgesehen 2
vorgesehene 2
vorgesehenen 2
vorgezogene 2
vorher@@ 2
vorhergesagt 2
vorherr@@ 2
vorherzusagen 2
vorige 2
vorlegte 2
vorliegen 2
vorliegende 2
vorliegenden 2
vormittag 2
vorschriften 2
vorsich@@ 2
vorsichtigeren 2
vorteil 2
vorweisen 2
vorwiegend 2
vorzustellen 2
vö@@ 2
völ@@ 2
wach 2
wack@@ 2
waffe 2
wagte 2
wahn@@ 2
wahrnehm@@ 2
wahrnehmen 2
wahrschein@@ 2
wand@@ 2
wandelte 2
warme 2
warne 2
warnten 2
wart 2
warte 2
way 2
wechsels 2
weh 2
wehr 2
wehrte 2
weich 2
weicht 2
weigert 2
weiht 2
weinen 2
weisende 2
weitem 2
weiterentwickeln 2
weiterführen 2
weiterregieren 2
weiß@@ 2
weißer 2
wel@@ 2
welches 2
wenngleich 2
weren 2
werfer 2
werkstätten 2
wesentlichen 2
westdeutschen 2
westlich 2
wettbewerb 2
wettbewerbs@@ 2
wettert 2
wetterte 2
wickelt 2
wickler 2
widersetzt 2
widmet 2
widrig 2
wiederbel@@ 2
wiedererstar@@ 2
wiedergewählt 2
wiederhergestellt 2
wildes 2
will@@ 2
willen 2
willkürlich 2
wind@@ 2
winkt 2
wirbel@@ 2
wirkenden 2
wirkliche 2
wirksam 2
wirkte 2
wirkung 2
wirkungslos 2
wirr@@ 2
wirte 2
wissenschaf@@ 2
wissenschaften 2
wissenschaftlich 2
wissenschaftlichen 2
wittern 2
wochen@@ 2
wog 2
wohldurch@@ 2
wohlwoll@@ 2
womit 2
woren 2
wovon 2
wozu 2
wski 2
wu@@ 2
wun@@ 2
wunden 2
wunder@@ 2
wunderbar 2
wunderbaren 2
wundern 2
wunsch 2
wurf 2
wurst 2
wusste 2
wä@@ 2
wächter 2
wählte 2
währ@@ 2
wärme@@ 2
wö@@ 2
wöchentlich 2
wü@@ 2
wünsche 2
würdigt 2
würdigte 2
würfen 2
xon 2
ya-@@ 2
yb@@ 2
yden 2
yon 2
yp 2
ystem 2
ysteme 2
zahlreicher 2
zaubern 2
zb@@ 2
zehnminütiges 2
zeichnen 2
zeichnete 2
zeichnungen 2
zeige 2
zeitgemäß 2
zeitwei@@ 2
zelte 2
zentrales 2
zeremonie 2
zern 2
zerstör@@ 2
zerstück@@ 2
zes 2
zeug 2
zial@@ 2
zielte 2
zien 2
zier@@ 2
zimmer@@ 2
zin@@ 2
zins 2
zir@@ 2
zitierte 2
zium@@ 2
ziviler 2
zow 2
zubringen 2
zuck@@ 2
zufrieden@@ 2
zufällig 2
zugeben 2
zugedacht 2
zugefügt 2
zugegangen 2
zugegeben 2
zugelassen 2
zugs@@ 2
zugunsten 2
zuhause 2
zukunfts@@ 2
zuliefer@@ 2
zumut@@ 2
zunehmende 2
zung 2
zunutze 2
zurückgedrängt 2
zurückgegriffen 2
zurückgetreten 2
zurückliegenden 2
zurückschrecken 2
zurückzu@@ 2
zusammenf@@ 2
zusammengeschlagen 2
zusammengeschlossen 2
zusammenstellen 2
zusch@@ 2
zuschlag 2
zuschlug 2
zuverlässi@@ 2
zwang 2
zwangs@@ 2
zwe@@ 2
zweck@@ 2
zweimaligen 2
zweites 2
zweitgrößten 2
zweitägigen 2
zweiwö@@ 2
zwingend 2
zwischenzeitlich 2
zwölfjährige 2
zä@@ 2
zähl@@ 2
zählte 2
züge 2
Ähnliches 2
Ält@@ 2
Ängste 2
Ästhetik 2
Äußer@@ 2
Öffentlichkeits@@ 2
Öffnungszeiten 2
Ök@@ 2
Ökonomie 2
Ölpreise 2
Österrei@@ 2
Überarbeitung 2
Übergabe 2
Übergangs@@ 2
Überhaupt 2
Überholverbot 2
Überland@@ 2
Überleben 2
Übernach@@ 2
Übernahmes@@ 2
Überprüfung 2
Überraschungen 2
Überwachungsstaat 2
Überzeugung 2
Übrigen 2
Übung 2
ßende 2
ßig 2
ßler 2
ßt 2
ä 2
äf@@ 2
ähen 2
ährt 2
äle 2
ällig 2
älteren 2
ältesten 2
äm@@ 2
ämpfen 2
än 2
änd@@ 2
änder 2
ändert 2
ängerin 2
ängstlicher 2
ängt 2
änk@@ 2
änken 2
änner 2
ärgert 2
ärzten 2
äter 2
ätze 2
ätzt 2
äufe 2
äufen 2
äußeren 2
äß@@ 2
äßigen 2
ón 2
öchter 2
öffentlich-rechtlichen 2
öffnet 2
öhnen 2
ökonomischen 2
öl 2
öre 2
öser 2
österreichischem 2
östlich 2
ößen 2
überein 2
überführten 2
überlegt 2
überproportional 2
überraschte 2
überreicht 2
überschreitung 2
übersehen 2
übersteigen 2
überträgt 2
überwachung 2
überzeu@@ 2
überzeugend 2
übte 2
übungen 2
ück 2
ücke 2
ücken@@ 2
ückt 2
ückte 2
üff@@ 2
ühl 2
üler 2
ünst@@ 2
üppi@@ 2
üppig 2
ür 2
üren 2
üsch@@ 2
üst@@ 2
üste 2
ütze 2
ützer 2
-0,@@ 1
-03@@ 1
-19@@ 1
-3000 1
-8 1
-AS@@ 1
-Aktie 1
-Aktien 1
-Aktion 1
-Apotheken 1
-Arbeit 1
-Architektur 1
-Atmosphäre 1
-Auflistung 1
-Aufsichtsräte 1
-Aufstock@@ 1
-Auktion 1
-Aut@@ 1
-Autoren 1
-Bar 1
-Begriff 1
-Ben@@ 1
-Berechnungen 1
-Besu@@ 1
-Besucher 1
-Bil@@ 1
-Bild 1
-Boo@@ 1
-Book@@ 1
-Bor@@ 1
-CCD 1
-Ce@@ 1
-Center 1
-Club 1
-Comeback 1
-Comics 1
-Crash 1
-Daimler-@@ 1
-Dat@@ 1
-Debüt 1
-Direkt@@ 1
-Diskurs 1
-Drit@@ 1
-Effekt 1
-Ehrenerklärung 1
-Einzelhandel 1
-Engagements 1
-Entgel@@ 1
-Erfahrung 1
-Erfolge 1
-Erklärer 1
-Erst@@ 1
-Fahrer 1
-Familie 1
-Filmen 1
-Finale 1
-Friedens@@ 1
-Furcht 1
-Fällen 1
-Gedenkstätte 1
-Gefühl 1
-Gel@@ 1
-Gi@@ 1
-Gipfel 1
-Grü@@ 1
-Gründung 1
-Göt@@ 1
-H@@ 1
-Haus 1
-Helfer 1
-Her@@ 1
-Hersteller 1
-Hoh@@ 1
-Hypoth@@ 1
-IV 1
-Ideen 1
-Im@@ 1
-Index 1
-Inlands@@ 1
-Instituts 1
-Jo@@ 1
-Josef 1
-Jürgen 1
-Kampagne 1
-Karriere 1
-Kauf 1
-Kom@@ 1
-Konferenz 1
-Konflikt 1
-Konzern 1
-Lebensmittel 1
-Leistungs@@ 1
-Liveticker 1
-Lo@@ 1
-Manager 1
-Mann 1
-Mann@@ 1
-Mar@@ 1
-Marathon 1
-Medaille 1
-Met@@ 1
-Moder@@ 1
-Moderne 1
-Mon@@ 1
-Mor@@ 1
-Mot@@ 1
-Mut@@ 1
-Nomin@@ 1
-Nutzern 1
-Olympiasieger 1
-Online 1
-Or@@ 1
-Organis@@ 1
-Out 1
-Papiere 1
-Park 1
-Partei 1
-Peter 1
-Pilot 1
-Plas@@ 1
-Preisträger 1
-Problem 1
-Problemen 1
-Programms 1
-Protokolle 1
-Provinzen 1
-Radi@@ 1
-Rating 1
-Rebellen 1
-Rekruten 1
-Revolu@@ 1
-Richtlin@@ 1
-Rod 1
-Roh@@ 1
-Schläger 1
-Schn@@ 1
-Schnä@@ 1
-Shir@@ 1
-Si@@ 1
-Sk@@ 1
-Spezialisten 1
-Sport@@ 1
-Spr@@ 1
-Sprecherin 1
-Stadion 1
-Stern@@ 1
-Stol@@ 1
-Strategie 1
-Studio 1
-Sü@@ 1
-TV 1
-Tag@@ 1
-Test@@ 1
-Theater 1
-Thom@@ 1
-Tru@@ 1
-Tur@@ 1
-Ull@@ 1
-Ulm 1
-Unglück 1
-Uni 1
-Union 1
-Unsinn 1
-Unterhaltung 1
-Unternehmen 1
-Untersuchungen 1
-Verteidiger 1
-Video 1
-Vor@@ 1
-Vorstandsmitglied 1
-Wahl 1
-Wal@@ 1
-Welterbe 1
-Weltverbandes 1
-Werbung 1
-Win@@ 1
-Wissenschaftlerin 1
-Woche 1
-Z@@ 1
-Zentrums 1
-Zerschlagung 1
-Zertifikat 1
-Zertifikaten 1
-Zuschüsse 1
-al-@@ 1
-al@@ 1
-amerikanische 1
-anti@@ 1
-de-@@ 1
-de@@ 1
-dpa 1
-fort@@ 1
-gre@@ 1
-hubschrauber 1
-il 1
-jähriger 1
-mau@@ 1
-of-@@ 1
-off@@ 1
-pl@@ 1
-platten 1
-schwar@@ 1
-weißen 1
-wirtschaft 1
.0 1
.09@@ 1
.0@@ 1
.36@@ 1
.40 1
.400 1
.98@@ 1
.August 1
.Bank 1
.Es 1
.Februar 1
.Geschlossen 1
.it 1
.o. 1
.or@@ 1
.tv 1
0,08 1
0,1 1
0,2 1
0,4 1
0,50 1
0,55 1
0,57 1
0,6 1
0,69 1
0.13 1
00.0@@ 1
0000 1
000@@ 1
001-@@ 1
0039@@ 1
007 1
018@@ 1
01@@ 1
02,@@ 1
028 1
03@@ 1
04,@@ 1
044 1
04@@ 1
06,@@ 1
06@@ 1
07,@@ 1
08.@@ 1
09@@ 1
1,4 1
1,42 1
1,45 1
1,53 1
1,60 1
1,65 1
1,7 1
1.html 1
10,3 1
10,@@ 1
100-Dollar-Marke 1
102 1
1026@@ 1
103 1
106@@ 1
109 1
11,5 1
111 1
112 1
116 1
118 1
1199@@ 1
119@@ 1
12.000 1
1200@@ 1
1225@@ 1
1226@@ 1
124 1
126 1
13-@@ 1
132 1
135 1
138 1
139 1
14-@@ 1
15,6 1
15,@@ 1
15-@@ 1
152 1
153 1
156 1
160 1
1600 1
165 1
168 1
17,4 1
173@@ 1
175 1
1807 1
1821 1
1850 1
1880 1
19,5 1
19-Jährige 1
19.09.2007 1
19.11.2007 1
190 1
190.000 1
1906 1
1914 1
192 1
192,2 1
1920 1
1936 1
1939 1
1941 1
1942 1
19436 1
1949 1
1951 1
1952 1
1954 1
1955 1
1959 1
196 1
1960 1
1961 1
1962 1
1967 1
1971 1
1972 1
1975 1
1978 1
1981 1
1986 1
198@@ 1
199@@ 1
1b 1
1bundes@@ 1
1er 1
2,15 1
2,4 1
2,7 1
2-3 1
2.0@@ 1
2.html 1
200-fache 1
200.000 1
2007. 1
2007er 1
202 1
2025 1
2030 1
205 1
21,2 1
21-@@ 1
210 1
212 1
218.@@ 1
22,@@ 1
220 1
2200 1
223@@ 1
225 1
229 1
22926@@ 1
23.@@ 1
230 1
2300 1
236 1
238 1
24,3 1
24,4 1
24,@@ 1
25,1 1
2500 1
250@@ 1
255 1
262 1
263 1
269 1
27,1 1
27,@@ 1
270 1
273 1
276 1
28,@@ 1
28-@@ 1
28.000 1
2926@@ 1
2K 1
2iQ 1
2wcom 1
3,2 1
3,6 1
3-Bes@@ 1
3.html 1
30- 1
30-@@ 1
30.html 1
3100 1
315@@ 1
3192 1
320@@ 1
323,@@ 1
325 1
32@@ 1
33,5 1
330 1
330.html 1
34,4 1
340 1
343 1
35. 1
350 1
357 1
359 1
35@@ 1
36,@@ 1
361 1
365 1
37,@@ 1
37. 1
370 1
372 1
377 1
385@@ 1
388 1
38@@ 1
39,@@ 1
393 1
399 1
4,8 1
4-@@ 1
4.0@@ 1
4.@@ 1
40-@@ 1
400.000 1
405 1
41,53 1
41. 1
41.html 1
412 1
415@@ 1
416 1
42.000 1
420 1
424 1
425 1
43,1 1
43,9 1
430 1
4300 1
439 1
43@@ 1
44. 1
441 1
45,7 1
45-@@ 1
4500 1
455 1
459 1
46,1 1
4600 1
463 1
467 1
47. 1
471 1
474 1
48,@@ 1
48. 1
483 1
48@@ 1
490 1
490@@ 1
491 1
493 1
496 1
49@@ 1
4c 1
5-K@@ 1
5.000 1
5.@@ 1
500.000 1
500@@ 1
509 1
51.@@ 1
5100 1
520.000 1
525 1
5261 1
52@@ 1
53-@@ 1
532 1
539 1
53@@ 1
55. 1
55@@ 1
56. 1
57,@@ 1
57. 1
57.@@ 1
576 1
57@@ 1
58-@@ 1
585.html 1
58@@ 1
59,@@ 1
59. 1
597@@ 1
599 1
6,1 1
6,2 1
6,5 1
6,6 1
60.000 1
600.000 1
600@@ 1
604 1
606 1
61 1
61-Jährige 1
61. 1
62,5 1
62. 1
626@@ 1
63,@@ 1
63. 1
630 1
630@@ 1
63@@ 1
64-Jährige 1
64. 1
644@@ 1
65,@@ 1
650 1
659 1
65@@ 1
66,1 1
66,@@ 1
66.000 1
675 1
68. 1
680 1
680.html 1
685 1
690 1
7-@@ 1
7.html 1
70-@@ 1
700.@@ 1
702@@ 1
707 1
71-Jährige 1
71. 1
710@@ 1
712 1
715@@ 1
724 1
7275 1
729 1
729@@ 1
73 1
730.000 1
732 1
7344 1
7350 1
737 1
737@@ 1
74-Jährige 1
74. 1
745@@ 1
747 1
747@@ 1
75-@@ 1
7500 1
76,6 1
768 1
77,@@ 1
770 1
771 1
774 1
779 1
783 1
7844 1
786 1
787@@ 1
79 1
79.3@@ 1
797@@ 1
8-@@ 1
8.000 1
80.html 1
81-Jährigen 1
814 1
81932 1
8200 1
824@@ 1
82500 1
8258 1
827 1
828 1
828@@ 1
829@@ 1
83 1
83,7 1
83. 1
83@@ 1
845@@ 1
85.html 1
850 1
857 1
87 1
875 1
89. 1
9.html 1
900 1
9000 1
911 1
92,@@ 1
9261 1
927 1
93@@ 1
94@@ 1
95.html 1
950 1
95000 1
964 1
967 1
96@@ 1
971 1
974 1
97@@ 1
98-@@ 1
98. 1
990 1
@ 1
A- 1
A-T@@ 1
A-Team 1
A. 1
A0@@ 1
A11 1
A350 1
A4-@@ 1
A6 1
A8 1
A81 1
ABC 1
AD@@ 1
AE@@ 1
AEL 1
AF 1
AF@@ 1
AIG 1
AK@@ 1
AL@@ 1
ANA 1
ANT@@ 1
AOL 1
APE@@ 1
ASS 1
AWD 1
Abacha 1
Abbey 1
[...]
