, 12839
de 10878
. 8797
la 5003
à 4375
le 3864
et 3682
l' 3554
" 3479
les 3091
des 2970
d' 2824
en 2509
du 2317
a 2142
un 2066
une 1751
est 1716
pour 1601
: 1548
au 1464
qui 1399
dans 1372
que 1338
) 1210
( 1143
par 1042
h 1013
sur 919
pas 843
il 834
plus 785
ont 776
Le 767
se 733
qu' 722
son 716
s' 710
avec 677
ce 613
Les 604
ne 590
été 585
La 575
n' 564
aux 548
- 522
sont 510
ans 447
on 446
Il 444
sa 419
ses 412
y 390
deux 388
cette 378
L' 371
ou 370
; 369
Noël 362
30 347
comme 335
fait 331
mais 331
leur 314
avait 299
était 294
aussi 292
tout 278
elle 273
nous 266
10 265
année 262
décembre 260
même 258
En 250
% 248
c' 241
bien 237
C' 234
être 234
faire 228
ces 222
18 220
entre 215
janvier 213
après 210
depuis 207
ils 206
très 206
Un 205
03 204
où 203
autres 198
Une 197
enfants 197
lui 194
trois 194
? 191
! 189
messe 189
sans 188
... 187
tous 185
rue 183
14 180
On 178
contre 173
15 172
France 172
avant 172
2007 171
sera 171
avoir 170
A 168
20 167
ée 167
Mais 166
dont 166
si 166
place 165
encore 164
je 164
9 162
mois 161
/ 160
1 160
temps 157
dernier 154
pays 154
président 154
2 152
ant 152
é 149
Je 148
premier 148
12 147
Pour 147
17 144
jusqu' 144
leurs 144
alors 141
' 140
Ce 140
fin 139
és 139
ainsi 137
peu 135
an 134
2008 132
8 130
Et 130
moins 129
jours 128
personnes 128
fois 127
monde 125
€ 125
er 124
ait 123
ent 122
lors 122
Québec 121
dit 118
M. 117
hier 117
000 116
3 115
quelques 113
sous 113
88 112
années 112
Dans 111
déjà 111
jeunes 111
24 110
autre 110
première 110
der 109
me 108
19 107
toujours 107
Tél 106
dimanche 106
peut 106
plusieurs 106
vie 106
Au 105
équipe 105
avaient 104
6 101
7 101
également 101
ai 100
étaient 100
Des 99
jour 99
maire 99
eu 98
ées 98
16 97
gouvernement 97
Elle 96
die 96
quatre 96
11 95
partie 94
89 92
Ils 92
samedi 92
soit 92
5 91
Nous 91
homme 91
près 91
ça 91
hui 90
public 90
ailleurs 89
4 88
es 88
français 88
grande 88
nouvelle 88
toute 88
Strasbourg 87
devant 87
famille 87
lieu 87
selon 87
31 86
h. 86
lundi 86
millions 86
ministre 86
beaucoup 85
euros 85
non 85
cours 84
déclaré 84
notre 84
quand 84
va 84
chez 83
j' 83
salle 83
début 82
service 82
25 81
seront 81
Après 80
groupe 80
saison 80
vers 80
2006 79
De 79
cet 79
nouveau 79
13 77
notamment 77
soir 77
Cette 76
Dimanche 76
J' 76
donc 76
in 76
pourrait 76
père 76
semaine 76
dernière 75
vous 74
fête 73
heures 73
histoire 73
part 73
prix 73
vendredi 73
église 73
cas 72
chaque 72
club 72
jamais 72
m' 72
match 72
22 71
faut 71
gens 71
mis 71
nos 71
s 71
toutes 71
ville 71
Si 70
aujourd' 70
culte 70
eux 70
jeudi 70
$ 69
Bhutto 69
association 69
chef 69
née 69
six 69
1er 68
doit 68
grand 68
politique 68
23 67
Montréal 67
avons 67
côté 67
ons 67
reste 67
aient 66
ancien 66
centre 66
À 66
D' 65
ceux 65
marché 65
occasion 65
rien 65
21 64
45 64
Canada 64
dollars 64
partir 64
40 63
bonne 63
période 63
travail 63
Paris 62
aura 62
elles 62
moment 62
pouvoir 62
projet 62
route 62
Lundi 61
eur 61
fils 61
suis 61
28 60
Avec 60
bon 60
maison 60
nuit 60
pris 60
puis 60
tél. 60
voir 60
50 59
celle 59
cinq 59
compte 59
mardi 59
novembre 59
pendant 59
face 58
fêtes 58
mercredi 58
pu 58
quelque 58
scène 58
deuxième 57
devrait 57
e 57
points 57
spectacle 57
effet 56
ensemble 56
i 56
parce 56
Mme 55
ici 55
mairie 55
mal 55
membres 55
milliards 55
sécurité 55
trop 55
Ces 54
celui 54
mon 54
prendre 54
26 53
coup 53
nombreux 53
prochain 53
raison 53
souvent 53
surtout 53
27 52
Alsace 52
Colmar 52
commune 52
conseil 52
directeur 52
jeune 52
point 52
suite 52
Nicolas 51
Selon 51
annoncé 51
grands 51
jeu 51
mort 51
police 51
sept 51
tête 51
und 51
afin 50
aurait 50
car 50
loi 50
mettre 50
mise 50
nombre 50
o 50
état 50
Mulhouse 49
a-t-il 49
eau 49
el 49
eurs 49
opération 49
retour 49
soirée 49
tant 49
Sarkozy 48
femmes 48
fille 48
font 48
huit 48
neige 48
niveau 48
parents 48
petit 48
cela 47
là 47
or 47
question 47
services 47
Pakistan 46
age 46
aller 46
derniers 46
dernières 46
droit 46
général 46
joueurs 46
maintenant 46
passé 46
septembre 46
serait 46
te 46
après-midi 45
ation 45
ations 45
certains 45
crise 45
demande 45
dire 45
hommes 45
jouer 45
vu 45
Benazir 44
Pierre 44
accord 44
donné 44
dès 44
environ 44
fut 44
journée 44
ligne 44
situation 44
école 44
élections 44
Depuis 43
Europe 43
Par 43
entreprise 43
entreprises 43
femme 43
fonds 43
ouvert 43
passe 43
petits 43
région 43
seul 43
toutefois 43
autour 42
direction 42
décidé 42
exemple 42
long 42
mars 42
matin 42
parti 42
société 42
veut 42
Mardi 41
al 41
autant 41
ensuite 41
entrée 41
familles 41
hôpital 41
majorité 41
passer 41
plutôt 41
savoir 41
secteur 41
semaines 41
sommes 41
Centre 40
Comme 40
belle 40
cadre 40
cause 40
compagnie 40
durant 40
française 40
mieux 40
nouveaux 40
otages 40
petite 40
troisième 40
équipes 40
80 39
Sur 39
ante 39
juin 39
musique 39
programme 39
États-Unis 39
François 38
Jean 38
Tout 38
aide 38
décision 38
hausse 38
moi 38
personne 38
site 38
veillée 38
village 38
29 37
70 37
Sélestat 37
abord 37
arrivée 37
feu 37
film 37
fort 37
mes 37
ministère 37
sens 37
seule 37
travaux 37
vue 37
Etat 36
Français 36
New 36
Son 36
campagne 36
chose 36
difficile 36
février 36
garde 36
heure 36
liste 36
ma 36
milieu 36
peuvent 36
produits 36
vraiment 36
-- 35
Mercredi 35
activités 35
affaires 35
ambiance 35
conditions 35
dix 35
explique 35
indiqué 35
juillet 35
octobre 35
porte-parole 35
premières 35
présence 35
rapport 35
t 35
zone 35
35 34
Du 34
Marc 34
Michel 34
Reuters 34
Samedi 34
américaine 34
autorités 34
chants 34
ie 34
mère 34
propose 34
retraite 34
risque 34
sein 34
succès 34
ter 34
tes 34
tour 34
victoire 34
vient 34
vont 34
Deux 33
Jacques 33
able 33
aucun 33
bois 33
chorale 33
coeur 33
communauté 33
concert 33
croissance 33
départ 33
emploi 33
enfant 33
nom 33
objectif 33
ouverture 33
perdu 33
permis 33
presse 33
terme 33
titre 33
voiture 33
2005 32
Plus 32
République 32
août 32
as 32
donner 32
ement 32
façon 32
ine 32
m 32
marque 32
nouvelles 32
présenté 32
responsable 32
reçu 32
seulement 32
terrain 32
âge 32
100 31
75 31
90 31
André 31
Eric 31
M 31
Saint-@@ 31
air 31
durée 31
entraîneur 31
exposition 31
formation 31
important 31
km 31
opposition 31
plan 31
premiers 31
repas 31
tard 31
époque 31
étant 31
action 30
américain 30
attentat 30
ayant 30
corps 30
d 30
doivent 30
doute 30
développement 30
era 30
laquelle 30
n 30
pourtant 30
résultats 30
système 30
taux 30
tenu 30
urgence 30
visite 30
von 30
37 29
Chine 29
Denis 29
York 29
antes 29
ants 29
argent 29
auprès 29
but 29
choix 29
den 29
désormais 29
euse 29
hiver 29
morts 29
ouverte 29
parfois 29
peine 29
plaisir 29
porte 29
projets 29
rendez-vous 29
rendre 29
sait 29
santé 29
semble 29
soutien 29
té 29
venir 29
État 29
00 28
Die 28
Etats-Unis 28
Nord 28
Tous 28
Union 28
accueil 28
ajouté 28
annonce 28
communes 28
contrôle 28
date 28
estime 28
européenne 28
habitants 28
longtemps 28
nationale 28
origine 28
parmi 28
particulièrement 28
plein 28
publique 28
ques 28
total 28
tourisme 28
vente 28
vin 28
vrai 28
Cela 27
Paul 27
Philippe 27
ais 27
ale 27
anciens 27
anniversaire 27
appel 27
auront 27
auteur 27
baisse 27
beau 27
cadeaux 27
clients 27
demandé 27
fond 27
forme 27
foyer 27
gestion 27
l 27
leader 27
libération 27
livre 27
malgré 27
meilleur 27
mesure 27
mesures 27
nombreuses 27
paix 27
parler 27
politiques 27
possible 27
poste 27
production 27
précise 27
sortie 27
stade 27
sûr 27
u 27
vite 27
zu 27
élèves 27
+ 26
2003 26
33 26
Alain 26
Charles 26
Daniel 26
Sud 26
acteurs 26
affirmé 26
agit 26
amis 26
contrat 26
domicile 26
dossier 26
espace 26
faisait 26
fermé 26
finale 26
grâce 26
guerre 26
haut 26
idée 26
jeux 26
lorsque 26
marchés 26
militaire 26
pied 26
pièce 26
prison 26
prochaine 26
quartier 26
québécois 26
recherche 26
simple 26
théâtre 26
veille 26
ère 26
Jeudi 25
Premier 25
[ 25
] 25
actuellement 25
affaire 25
armée 25
aucune 25
besoin 25
bou@@ 25
bout 25
cadeau 25
carrière 25
chacun 25
défense 25
enquête 25
grandes 25
gros 25
groupes 25
joué 25
libre 25
loin 25
mondiale 25
né 25
participation 25
peut-être 25
province 25
puisque 25
quoi 25
rencontre 25
rouge 25
série 25
trouver 25
voit 25
électorale 25
200 24
32 24
47 24
Afghanistan 24
Bernard 24
Conseil 24
Ligue 24
Trois 24
accident 24
affirme 24
aire 24
atteint 24
canadienne 24
certaines 24
cher 24
choses 24
commerce 24
commission 24
communiqué 24
dem 24
devraient 24
donne 24
dû 24
environnement 24
ez 24
gaz 24
générale 24
image 24
joie 24
marqué 24
matière 24
moitié 24
participer 24
passage 24
permanence 24
permet 24
plupart 24
presque 24
précisé 24
remis 24
réussi 24
seraient 24
soient 24
sur@@ 24
technique 24
tir 24
travailler 24
tribunal 24
ts 24
2004 23
36 23
Allemagne 23
Claude 23
Darfour 23
E 23
Internet 23
Journal 23
Même 23
Parti 23
absence 23
aires 23
ales 23
avenir 23
avril 23
budget 23
buts 23
capitale 23
clés 23
créer 23
créé 23
devra 23
eaux 23
envie 23
ferme 23
gardien 23
ins 23
local 23
mai 23
main 23
mit 23
municipal 23
neuf 23
offert 23
pourraient 23
présent 23
qualité 23
remporté 23
retrouver 23
réseau 23
sud 23
tel 23
travers 23
° 23
Ça 23
économique 23
énergie 23
41 22
57 22
60 22
Bou@@ 22
Chavez 22
David 22
PPP 22
Plusieurs 22
Puis 22
Robert 22
ables 22
activité 22
agence 22
ar 22
arrêt 22
art 22
blessé 22
bord 22
cependant 22
connu 22
conseiller 22
consommation 22
côtés 22
derrière 22
différents 22
finalement 22
forte 22
grève 22
intérêt 22
issue 22
iste 22
lancé 22
longue 22
lumière 22
mains 22
message 22
minutes 22
nouvel 22
photos 22
pourquoi 22
prend 22
sapin 22
trouvé 22
tu 22
tôt 22
um 22
us 22
visiteurs 22
voix 22
économie 22
2001 21
2002 21
500 21
55 21
C 21
Julien 21
Louis 21
Martin 21
Pas 21
Patrick 21
américains 21
ancienne 21
anti@@ 21
augmentation 21
avis 21
bande 21
bilan 21
charge 21
chiffre 21
commencé 21
courant 21
droits 21
euses 21
fermée 21
froid 21
heureux 21
joueur 21
juge 21
ler 21
lieux 21
manière 21
met 21
moyens 21
musée 21
national 21
ni 21
oeuvre 21
organisation 21
particulier 21
permettre 21
pharmacie 21
prise 21
problèmes 21
proche 21
propre 21
quant 21
siècle 21
touché 21
vivre 21
voyage 21
véhicule 21
06 20
52 20
Alors 20
Aujourd' 20
Certains 20
Christian 20
Coupe 20
Haguenau 20
I 20
Olivier 20
Ottawa 20
Russie 20
S 20
Ses 20
adjoints 20
administration 20
amour 20
ard 20
artistes 20
assez 20
blessés 20
c 20
candidat 20
carte 20
chaud 20
circulation 20
cité 20
clair 20
das 20
efforts 20
eront 20
ette 20
fera 20
fil 20
gauche 20
genre 20
hors 20
international 20
isme 20
lutte 20
mer 20
naissance 20
offre 20
peur 20
problème 20
proches 20
procès 20
profit 20
présidente 20
prévoit 20
r 20
remise 20
retrouvé 20
rôle 20
sorte 20
tandis 20
tenté 20
territoire 20
trouve 20
valeur 20
ve 20
victime 20
voie 20
écrit 20
émissions 20
établissement 20
événement 20
01 19
2009 19
78 19
Ainsi 19
Air 19
Altkirch 19
Breteau 19
Canadiens 19
Christophe 19
Con@@ 19
Erstein 19
Lyon 19
Musée 19
N' 19
Or 19
Quant 19
S' 19
St-@@ 19
ajoute 19
arrive 19
attaque 19
auraient 19
bas 19
bons 19
car@@ 19
celles 19
ch 19
compter 19
culture 19
devenu 19
disposition 19
divin 19
esprit 19
existe 19
faisant 19
fer 19
force 19
für 19
images 19
impression 19
inscriptions 19
invités 19
ist 19
journalistes 19
kilomètres 19
laisse 19
lendemain 19
lequel 19
lot 19
législatives 19
matchs 19
ner 19
objet 19
obtenir 19
oublier 19
outre 19
pense 19
places 19
pleine 19
pompiers 19
pouvait 19
propos 19
présente 19
présidentielle 19
prévu 19
questions 19
record 19
rencontres 19
revenu 19
réduction 19
réforme 19
sociale 19
tournoi 19
traditionnel 19
version 19
véhicules 19
véritable 19
élus 19
études 19
300 18
54 18
65 18
67 18
71 18
72 18
An 18
Car@@ 18
Cet 18
Du@@ 18
Grand 18
Gérard 18
Jean-@@ 18
Marie 18
Nouvel 18
Québécois 18
accès 18
adjoint 18
assemblée 18
au-delà 18
avance 18
avocat 18
belles 18
bonheur 18
canadien 18
cent 18
centaines 18
certaine 18
champion 18
chapelle 18
compétition 18
construction 18
coups 18
cour 18
crèche 18
demain 18
difficultés 18
défaite 18
département 18
employés 18
engagement 18
enne 18
entrevue 18
expliqué 18
faveur 18
football 18
gagner 18
gagné 18
ge 18
im 18
indique 18
instant 18
justice 18
logement 18
modèle 18
montant 18
nord 18
parc 18
personnages 18
policiers 18
population 18
possibilité 18
promis 18
rapidement 18
re 18
restaurant 18
russe 18
section 18
sol 18
soldats 18
ton 18
unique 18
vert 18
yeux 18
ères 18
édition 18
* 17
44 17
92 17
Afrique 17
Association 17
Colombie 17
Cour 17
D 17
Emmanuel 17
F 17
Fêtes 17
Infos 17
Irak 17
John 17
Joseph 17
Mots 17
Quand 17
René 17
S. 17
SNCF 17
Ville 17
Vous 17
Washington 17
accueillir 17
actifs 17
animaux 17
assassinat 17
attend 17
centrale 17
chemin 17
choc 17
chocolat 17
choeur 17
cinéma 17
commercial 17
compris 17
court 17
création 17
danse 17
discours 17
décès 17
ers 17
ex-@@ 17
expérience 17
facile 17
films 17
final 17
forêt 17
inscrit 17
internationale 17
investissement 17
ise 17
iser 17
lui-même 17
mal@@ 17
mann 17
marche 17
milliard 17
mondial 17
mouvement 17
moyen 17
moyenne 17
médaille 17
médecin 17
nature 17
négociations 17
parcours 17
populaire 17
pourra 17
principaux 17
produire 17
présenter 17
quatrième 17
rappelle 17
réalisé 17
signé 17
sort 17
source 17
tient 17
tirs 17
titres 17
touristes 17
train 17
venus 17
villes 17
vins 17
élection 17
électorales 17
& 16
0 16
150 16
18@@ 16
2000 16
2e 16
43 16
A. 16
B 16
Christine 16
Co@@ 16
Enfin 16
Entre 16
FC 16
Farc 16
Harper 16
Julie 16
Lightning 16
Maison 16
Notre 16
Parmi 16
Sa 16
Saverne 16
actions 16
ade 16
aider 16
aime 16
aine 16
alcool 16
allemand 16
amateurs 16
ance 16
animé 16
assure 16
attention 16
auf 16
automobile 16
base 16
blanc 16
candidats 16
championnat 16
char@@ 16
colombien 16
conférence 16
consommateurs 16
demander 16
direct 16
disent 16
domaine 16
ements 16
ens 16
ets 16
extérieur 16
f 16
fermeture 16
filles 16
hockey 16
importantes 16
importe 16
incendie 16
juste 16
lancer 16
listes 16
logements 16
mission 16
municipalité 16
musicale 16
ordre 16
papier 16
personnel 16
position 16
pourront 16
printemps 16
produit 16
protection 16
pétrole 16
rait 16
remettre 16
représentants 16
responsables 16
restent 16
routes 16
répondu 16
seconde 16
sie 16
sociaux 16
sortir 16
spectacles 16
sport 16
table 16
texte 16
tournée 16
transport 16
usine 16
vallée 16
ves 16
viennent 16
Éric 16
âgé 16
âgées 16
épouse 16
étais 16
éviter 16
34 15
68 15
76 15
82 15
Bel@@ 15
Bien 15
Canadien 15
Djamena 15
Dominique 15
Elles 15
Gu@@ 15
Guy 15
Hier 15
L 15
Marcel 15
Musharraf 15
Obernai 15
Roger 15
Sports 15
Stéphane 15
Toronto 15
Zoé 15
airs 15
als 15
articles 15
associations 15
assurer 15
assuré 15
auparavant 15
avantage 15
banque 15
bras 15
capital 15
che 15
comment 15
concernant 15
condamnés 15
confiance 15
contact 15
coût 15
coûts 15
devenir 15
dirigeants 15
distribution 15
dou@@ 15
endroit 15
faits 15
forces 15
frontières 15
g 15
honneur 15
industrie 15
internet 15
invité 15
joue 15
k 15
locale 15
manque 15
meilleure 15
meilleurs 15
minuit 15
mode 15
municipales 15
mêmes 15
note 15
organisme 15
orphelins 15
ot 15
partout 15
perdre 15
pièces 15
polyvalente 15
poursuit 15
privé 15
proposé 15
prêts 15
quitté 15
rendu 15
représente 15
rues 15
réduire 15
régime 15
rés 15
seniors 15
sich 15
situé 15
sociétés 15
souligné 15
taille 15
tellement 15
température 15
uniquement 15
usage 15
vacances 15
valeurs 15
vent 15
ventes 15
vingtaine 15
volonté 15
vote 15
votre 15
werden 15
wie 15
étude 15
.- 14
09 14
38 14
800 14
84 14
Angleterre 14
Arche 14
Avant 14
Bar@@ 14
Bas-Rhin 14
Car 14
Comité 14
Est 14
Hugo 14
Inde 14
Jonathan 14
LNH 14
Meyer 14
Molsheim 14
Ne 14
Nicole 14
P 14
Pascal 14
Per@@ 14
Père 14
Ré@@ 14
Société 14
Su@@ 14
Tr@@ 14
Vi@@ 14
Vincent 14
Yves 14
a-t-elle 14
accompagné 14
adultes 14
alisation 14
am 14
animation 14
appels 14
assurance 14
ateur 14
aus 14
automne 14
avenue 14
avions 14
bel 14
centre-ville 14
chansons 14
classe 14
collecte 14
collège 14
concurrence 14
confirmé 14
continue 14
course 14
croit 14
célèbre 14
devait 14
dizaines 14
dés 14
entrer 14
espoir 14
ettes 14
faites 14
financiers 14
fonction 14
grand-messe 14
géant 14
heim 14
hôtel 14
identité 14
inclus 14
jeunesse 14
laissé 14
livres 14
locaux 14
lorsqu' 14
légèrement 14
mari 14
mot 14
médias 14
organisée 14
palais 14
perte 14
peuple 14
phénomène 14
positif 14
principal 14
principe 14
publics 14
quel 14
quitter 14
quotidien 14
reprises 14
rester 14
retrouve 14
revanche 14
revenir 14
revenus 14
récemment 14
résultat 14
sainte 14
second 14
servi 14
ski 14
sous-@@ 14
su 14
subi 14
suivi 14
supplémentaires 14
tenir 14
terre 14
téléphone 14
télévision 14
venue 14
veulent 14
victimes 14
www.@@ 14
Église 14
écoles 14
éléments 14
émission 14
08 13
1,@@ 13
1998 13
3e 13
42 13
48 13
49 13
600 13
69 13
73 13
91 13
Autre 13
Belgique 13
Benoît 13
Bi@@ 13
Bowl 13
Br@@ 13
Bush 13
Canoe 13
Comment 13
DNA 13
Dieu 13
EN@@ 13
FARC 13
For@@ 13
Gar@@ 13
Gracq 13
Haut-Rhin 13
Her@@ 13
Jean-Pierre 13
Jeux 13
Jo@@ 13
Leur 13
Marché 13
Marseille 13
Pi@@ 13
Piscine 13
R 13
Santé 13
Serge 13
The 13
US 13
Vosges 13
achat 13
agents 13
alement 13
allait 13
alsacien 13
ami 13
appelé 13
arriver 13
arrondissement 13
arrêter 13
attendre 13
avais 13
bach 13
banques 13
be 13
bo@@ 13
bourg 13
catholique 13
catégorie 13
centaine 13
champions 13
chance 13
changements 13
chargé 13
chasse 13
chaîne 13
circonstances 13
citoyens 13
classement 13
clubs 13
col@@ 13
combat 13
comité 13
condamné 13
connaître 13
conséquences 13
davantage 13
devient 13
devons 13
différentes 13
données 13
double 13
décide 13
découvert 13
député 13
efficacité 13
emplois 13
ennes 13
exercice 13
experts 13
filet 13
forcés 13
ger 13
glace 13
haute 13
hommage 13
impact 13
importante 13
information 13
informations 13
ir 13
ju@@ 13
judiciaire 13
laisser 13
lancée 13
large 13
liberté 13
lin 13
lycée 13
magasins 13
maisons 13
matches 13
midi 13
moderne 13
nicht 13
objets 13
onne 13
opérations 13
orchestre 13
organise 13
organisé 13
originaire 13
os 13
paroisse 13
partenaires 13
participants 13
partisans 13
peux 13
plateau 13
poursuivre 13
pratique 13
pression 13
privés 13
prière 13
propriétaires 13
présents 13
prêt 13
puissance 13
qué 13
raisons 13
reconnu 13
regard 13
reine 13
rencontrer 13
repris 13
retenu 13
rois 13
répondre 13
rêve 13
salaire 13
sauf 13
simplement 13
siège 13
sommet 13
souligne 13
spectateurs 13
spécialiste 13
sujet 13
surpris 13
surprise 13
séjour 13
talent 13
tentative 13
tenue 13
termes 13
terminé 13
tiers 13
trimestre 13
universités 13
uns 13
venu 13
vit 13
vitesse 13
vos 13
voulu 13
vénézuélien 13
wird 13
z 13
écrans 13
épreuve 13
événements 13
05 12
103 12
11@@ 12
14@@ 12
17@@ 12
1995 12
400e 12
56 12
61 12
66 12
AFP 12
APA 12
AS@@ 12
Affaires 12
Alexandre 12
Alitalia 12
Anne 12
Col@@ 12
Commission 12
Dé@@ 12
Egypte 12
Eschau 12
Espace 12
Floride 12
Grande-Bretagne 12
Japon 12
Jusqu' 12
Le@@ 12
Mal@@ 12
Mauritanie 12
Mon 12
Ni@@ 12
Office 12
Or@@ 12
Pendant 12
Prix 12
Quelques 12
Qui 12
Renseignements 12
Richard 12
Sal@@ 12
Suisse 12
T 12
Thierry 12
Toutefois 12
Vendredi 12
accusé 12
actuel 12
actuelle 12
agent 12
ane 12
anglais 12
animations 12
arrivé 12
artiste 12
assister 12
assurée 12
attaquant 12
aînés 12
beaux 12
bureau 12
bureaux 12
bus 12
calendrier 12
capitaine 12
celui-ci 12
certain 12
chambre 12
chinois 12
civil 12
classes 12
climat 12
commence 12
comédie 12
conclu 12
concours 12
congé 12
continuer 12
couple 12
cr@@ 12
cro@@ 12
ction 12
cuisine 12
cul@@ 12
des@@ 12
dit-il 12
dollar 12
droite 12
découvrir 12
ein 12
eine 12
enfance 12
engager 12
entendre 12
entièrement 12
entraînement 12
ents 12
environs 12
erait 12
essentiel 12
etc 12
extraordinaire 12
fallait 12
fermés 12
feux 12
fortement 12
futur 12
hauteur 12
inscrire 12
intérieur 12
is 12
isation 12
istes 12
lettre 12
lignes 12
lé 12
maladie 12
mauvais 12
maître 12
membre 12
menace 12
militaires 12
milliers 12
million 12
minimum 12
montré 12
montée 12
mots 12
net 12
nul 12
numéro 12
néanmoins 12
obtenu 12
office 12
orgue 12
ouvrage 12
parle 12
partage 12
partis 12
patron 12
pay@@ 12
performance 12
petites 12
porter 12
pose 12
privée 12
processus 12
producteurs 12
professionnelle 12
proposition 12
présentée 12
prévue 12
quelqu' 12
quer 12
quée 12
raconte 12
rang 12
rapide 12
représentant 12
restaurants 12
retrouvés 12
risques 12
roman 12
réalisation 12
réaliser 12
réalité 12
régulier 12
réunis 12
sais 12
salariés 12
sang 12
scénario 12
située 12
soeur 12
soins 12
solidarité 12
somme 12
sondage 12
sortant 12
spécialistes 12
stratégie 12
suivre 12
tabac 12
telle 12
tente 12
tradition 12
travailleurs 12
tué 12
tée 12
université 12
utilisation 12
verre 12
veux 12
victoires 12
vidéo 12
vingt 12
vol@@ 12
vouloir 12
x 12
écart 12
échange 12
ém@@ 12
étrangères 12
07 11
17h 11
1999 11
20h 11
58 11
64 11
77 11
87 11
95 11
96 11
Amérique 11
Aux 11
Bal@@ 11
Bibliothèque 11
Bur@@ 11
Bye 11
Bâle 11
CH@@ 11
Canoë 11
Clinton 11
Cor@@ 11
Côté 11
D. 11
DVD 11
Devant 11
Dion 11
Face 11
Francis 11
Im@@ 11
J. 11
Li@@ 11
Lo@@ 11
Man@@ 11
Mathieu 11
Mer@@ 11
Milan 11
Miss 11
Munster 11
Ouest 11
Paroisse 11
Peter 11
Pourtant 11
Roy 11
Saint 11
Sans 11
Stephen 11
Sébastien 11
TGV 11
Thomas 11
Tom 11
USA 11
Villé 11
Voilà 11
adresser 11
agissait 11
alité 11
aménagement 11
anciennes 11
apparaît 11
appris 11
approche 11
arrière 11
assistance 11
at 11
ateurs 11
atif 11
atteindre 11
attendant 11
attente 11
auteurs 11
automobilistes 11
bal@@ 11
balle 11
bei 11
bientôt 11
billets 11
bonnes 11
bâtiment 11
bénévoles 11
can@@ 11
cancer 11
certainement 11
changement 11
changer 11
changé 11
chanteuse 11
chantiers 11
chanté 11
chercher 11
ches 11
ciel 11
circuit 11
conducteur 11
contraire 11
couleurs 11
crédit 11
créée 11
culturel 11
demeure 11
disponibles 11
dispositif 11
divers 11
don 11
dure 11
débuté 11
déchets 11
déclare 11
démocrate 11
démocratie 11
déplacement 11
e-t-il 11
effectuer 11
entretien 11
exceptionnelle 11
facteur 11
faudra 11
foi 11
fon@@ 11
formule 11
forêts 11
frère 11
ges 11
goûter 11
gé 11
génération 11
historique 11
hivernale 11
humour 11
héros 11
inf@@ 11
ing 11
inscription 11
investissements 11
ira 11
isant 11
ité 11
jardin 11
lecture 11
lien 11
lire 11
lit 11
locales 11
magnifique 11
maintenir 11
man 11
mandat 11
manifestation 11
mises 11
municipale 11
murs 11
musical 11
médecins 11
métier 11
noir 11
objectifs 11
offrir 11
ois 11
onze 11
ouvrir 11
pages 11
pain 11
parking 11
parlementaire 11
parole 11
passant 11
passes 11
patinoire 11
peines 11
penser 11
permettra 11
piste 11
pointe 11
portait 11
portes 11
possède 11
probablement 11
prochaines 11
prochains 11
procureur 11
profiter 11
propriétaire 11
protéger 11
prudence 11
préparer 11
publié 11
qués 11
recherches 11
recours 11
reprendre 11
revient 11
rou@@ 11
régional 11
régions 11
réunion 11
sal@@ 11
salles 11
scrutin 11
secrétaire 11
signe 11
social 11
sorties 11
ta 11
tableau 11
telles 11
tendance 11
tera 11
traditionnelle 11
travaillé 11
tués 11
type 11
télé 11
ue 11
vigueur 11
vivent 11
voilà 11
vols 11
willer 11
éch@@ 11
écoute 11
écrivain 11
édi@@ 11
égard 11
élément 11
époux 11
évidemment 11
2-0 10
2010 10
39 10
62 10
63 10
74 10
83 10
98 10
99 10
Ac@@ 10
Ali 10
Art 10
Banque 10
Barr 10
Bo@@ 10
Bourse 10
Bruxelles 10
Bu@@ 10
Capitals 10
Caroline 10
Cernay 10
Chantal 10
Char@@ 10
Chez 10
Cinq 10
Cinéma 10
Clara 10
Com@@ 10
Concert 10
Cou@@ 10
Del@@ 10
Dr 10
Dès 10
El@@ 10
Ex@@ 10
G 10
Gonzalez 10
Guerre 10
Guillaume 10
Henri 10
Hu@@ 10
II 10
Ingrid 10
Italie 10
Jason 10
Jean-Marie 10
Jeanne 10
LE 10
Lam@@ 10
Laurent 10
Londres 10
Ma@@ 10
Marie-@@ 10
Metz 10
Michael 10
Non 10
Parlement 10
Point 10
Poutine 10
Presse 10
Raymond 10
Ren@@ 10
Rojas 10
Ru@@ 10
Saint-Louis 10
Samuel 10
Secteur 10
Sylvie 10
Toute 10
UMP 10
Vancouver 10
Wissembourg 10
accepté 10
acteur 10
affiche 10
ain 10
ajoute-t-il 10
améliorer 10
apporter 10
apprécié 10
arbres 10
ateliers 10
ates 10
attendent 10
attentats 10
augmenter 10
automobiles 10
autoroute 10
aventure 10
ballon 10
bar@@ 10
bibliothèque 10
bis 10
blanche 10
ble 10
bon@@ 10
boulevard 10
boîte 10
campagnes 10
capable 10
ceinture 10
centres 10
chances 10
chant 10
chantier 10
charges 10
cherche 10
choisi 10
chute 10
cinquantaine 10
clientèle 10
collection 10
commerçants 10
communication 10
composé 10
comptes 10
concerne 10
conduite 10
confié 10
constaté 10
constitue 10
couleur 10
coupable 10
courte 10
cré@@ 10
da 10
disputé 10
division 10
dizaine 10
déf@@ 10
défendre 10
dépenses 10
députés 10
dépôt 10
dés@@ 10
effectué 10
effets 10
els 10
enfin 10
enseigne 10
entente 10
erreur 10
espère 10
examen 10
exploitation 10
fabrique 10
familiale 10
festival 10
fidèles 10
fierté 10
figure 10
fl@@ 10
fonctionnement 10
foule 10
frais 10
fs 10
fédéral 10
fédération 10
fêter 10
gare 10
grand' 10
grosses 10
guérilla 10
hélicoptères 10
importance 10
inger 10
instance 10
interdiction 10
intermédiaire 10
investisseurs 10
islamistes 10
issement 10
journal 10
journaliste 10
jugement 10
largement 10
majeur 10
marge 10
matinée 10
maximum 10
mené 10
ministres 10
minute 10
moments 10
montre 10
municipaux 10
nach 10
nucléaire 10
numérique 10
nécessaire 10
nécessaires 10
observateurs 10
officielle 10
organisateurs 10
ouest 10
p 10
parties 10
payer 10
pe 10
permettant 10
personnalités 10
photo 10
pire 10
placé 10
pont 10
pou@@ 10
prestation 10
preuve 10
prises 10
professeur 10
profonde 10
proposer 10
propres 10
protestante 10
proximité 10
publiques 10
quart 10
quelle 10
quinzaine 10
reconnaissance 10
reconstruction 10
refusé 10
relève 10
report 10
respect 10
riche 10
rondelle 10
rupture 10
récupérer 10
sauver 10
savent 10
secondes 10
secours 10
silence 10
sociales 10
socialiste 10
soleil 10
souhaite 10
souvenirs 10
sportif 10
station 10
suffit 10
séance 10
sélection 10
talents 10
tchèque 10
terroriste 10
tique 10
tiques 10
tiré 10
toit 10
totalement 10
tourner 10
tours 10
trans@@ 10
travaille 10
trêve 10
vedette 10
vieux 10
visant 10
vivant 10
voitures 10
vêtements 10
éclairage 10
économies 10
émotion 10
éré 10
étranger 10
étudiants 10
évangélique 10
île 10
-S@@ 9
.com 9
1.@@ 9
12@@ 9
1970 9
400 9
4e 9
79 9
85 9
86 9
93 9
94 9
97 9
AD@@ 9
AS 9
Américains 9
Australie 9
Beaucoup 9
Bell 9
Biesheim 9
Bill 9
Bogota 9
Bor@@ 9
Brown 9
Bruni 9
Catherine 9
Club 9
Communauté 9
Cro@@ 9
Dakar 9
Der 9
Durant 9
Emilie 9
Exposition 9
Frédéric 9
GE@@ 9
Geneviève 9
George 9
Gi@@ 9
H 9
He@@ 9
Hi@@ 9
Hélène 9
IN@@ 9
Ici 9
Iran 9
Isabelle 9
Israël 9
Jean-Claude 9
Jean-Luc 9
Jésus 9
Kaysersberg 9
Klein 9
Lacroix 9
Lar@@ 9
Lelouch 9
Lors 9
Lu@@ 9
Malgré 9
Mgr 9
Mike 9
Mo@@ 9
Monde 9
Mor@@ 9
N 9
Neudorf 9
Nor@@ 9
Né 9
ONG 9
Orly 9
Ostwald 9
P. 9
Pa@@ 9
Pays 9
Permanence 9
Personne 9
Pervez 9
Pl@@ 9
Pré@@ 9
Reipertswiller 9
Rhin 9
Rois 9
Roland 9
Sainte-@@ 9
Si@@ 9
Simon 9
Sou@@ 9
Sous 9
St-Louis 9
Stade 9
Sécurité 9
Thaksin 9
Toujours 9
Tour 9
U 9
US@@ 9
Vers 9
Villavicencio 9
Virginie 9
accueilli 9
actes 9
actionnaires 9
adopter 9
ages 9
aliser 9
amitié 9
anges 9
animée 9
appelle 9
arbre 9
ards 9
arrêtés 9
atelier 9
ative 9
attendu 9
ban@@ 9
bataille 9
ber 9
blo@@ 9
britannique 9
camp 9
cap 9
capacité 9
cer@@ 9
civile 9
collègues 9
commissariat 9
commun 9
communale 9
complètement 9
complété 9
concernés 9
conf@@ 9
conflit 9
congés 9
consac@@ 9
constater 9
contr@@ 9
correctionnel 9
coupe 9
criminelle 9
critique 9
curé 9
cérémonie 9
cœur 9
danger 9
de-@@ 9
demi 9
destinée 9
devront 9
di 9
difficulté 9
différence 9
directement 9
directrice 9
disait 9
dor@@ 9
douze 9
ds 9
duo 9
débat 9
défenseur 9
détail 9
déterminer 9
développer 9
effort 9
eines 9
ellement 9
entend 9
es-@@ 9
estiment 9
estimé 9
européen 9
eusement 9
extrêmement 9
fabrication 9
faible 9
faite 9
familial 9
faux 9
financement 9
finances 9
financier 9
fou@@ 9
frappé 9
frontière 9
fruits 9
frères 9
fréquentation 9
fumer 9
fumeurs 9
gamme 9
garçon 9
gel 9
gendarmerie 9
gue 9
génér@@ 9
généralement 9
habitude 9
hat 9
ies 9
immeuble 9
imposer 9
impôt 9
ines 9
inflation 9
int@@ 9
intention 9
investir 9
invite 9
iné 9
israélien 9
issant 9
isse 9
isé 9
it 9
libéral 9
longues 9
magazine 9
magique 9
manifestations 9
matériel 9
mauvaise 9
menée 9
met@@ 9
mineurs 9
monnaie 9
morte 9
mou@@ 9
multiples 9
musiciens 9
mène 9
mètres 9
ménages 9
méri@@ 9
nez 9
nécessité 9
obtient 9
occupe 9
offres 9
oir 9
olympiques 9
opté 9
ouvre 9
palmarès 9
pari 9
partager 9
pauvreté 9
paysage 9
personnage 9
planète 9
popularité 9
portant 9
possession 9
prisonniers 9
procédure 9
professionnels 9
promenade 9
présentés 9
puisse 9
pêche 9
quai 9
quement 9
québécoise 9
radio 9
rarement 9
reconnaît 9
relais 9
relations 9
reprise 9
respectivement 9
rose 9
rythme 9
réduit 9
réflexion 9
régimes 9
régler 9
régulièrement 9
réveillon 9
salaires 9
secteurs 9
sent 9
signature 9
sièges 9
sources 9
sourire 9
star 9
stationnement 9
style 9
surveillance 9
syndicats 9
sé@@ 9
sénatrice 9
tableaux 9
tait 9
tempête 9
tent 9
terroristes 9
tion 9
tombe 9
transparence 9
troupe 9
tuée 9
ues 9
union 9
univers 9
ure 9
utiliser 9
vais 9
verdict 9
violence 9
visage 9
voient 9
voisin 9
vor 9
voter 9
votes 9
voulait 9
vraie 9
vétérans 9
États 9
échanges 9
échelle 9
égalité 9
ép@@ 9
étoile 9
étrangers 9
-B@@ 8
04 8
15@@ 8
160 8
1997 8
20@@ 8
46 8
51 8
5e 8
6e 8
700 8
AC@@ 8
Albert 8
All@@ 8
Antoine 8
Betancourt 8
Blanc 8
Bouchard 8
Bour@@ 8
Californie 8
Cas@@ 8
Chaque 8
Christmas 8
Culture 8
Céline 8
De@@ 8
Entrée 8
Espagne 8
F. 8
Fernand 8
Fillon 8
Fédération 8
G. 8
Ger@@ 8
Gerstheim 8
Group 8
Hamas 8
Hochfelden 8
III 8
James 8
Jean-Marc 8
Kenya 8
Kr@@ 8
Lau@@ 8
Lucie 8
Mars 8
Mc@@ 8
Me 8
Mont@@ 8
Musique 8
Nathalie 8
Neu@@ 8
Neuf-Brisach 8
Nouveau 8
Olmert 8
Parc 8
Peterson 8
Petit 8
Pourquoi 8
Que 8
Quelle 8
RBO 8
Racing 8
Reste 8
Ri@@ 8
Rome 8
Rouge 8
Ryder 8
Saint-Jean 8
Sainte 8
Schengen 8
Schiltigheim 8
Schmitt 8
Se@@ 8
Sie 8
Soleil 8
Stars 8
Surtout 8
TVA 8
Thann 8
Ti@@ 8
Tricolore 8
UE 8
Université 8
V 8
VI@@ 8
Val@@ 8
Vert 8
Victor 8
Yannick 8
absolument 8
accusés 8
achats 8
acquis 8
adoption 8
adversaire 8
affronter 8
ains 8
aise 8
ajoutent 8
ajouter 8
al-@@ 8
al-Qaïda 8
alentours 8
allant 8
amie 8
amoureux 8
américaines 8
analystes 8
and 8
appartement 8
appliquer 8
apporte 8
arme 8
armes 8
arrêts 8
arrêté 8
article 8
artisans 8
assi@@ 8
assistante 8
ate 8
attendait 8
attitude 8
attr@@ 8
auditoire 8
auquel 8
aurais 8
avancée 8
avent 8
aérienne 8
bateau 8
blessure 8
blessures 8
bouche 8
bri@@ 8
bâtiments 8
bénéfice 8
ca@@ 8
camions 8
canadiens 8
canton 8
caractère 8
cartes 8
chalet 8
chauffage 8
chaînes 8
choisir 8
cinquième 8
climatique 8
colère 8
commissaire 8
communal 8
compagnies 8
compar@@ 8
comprend 8
conduit 8
confusion 8
connaît 8
consacré 8
considère 8
constate 8
constructeur 8
conte 8
contrairement 8
contrats 8
couvert 8
craint 8
croire 8
crois 8
crèches 8
crée 8
cs 8
ctions 8
cée 8
demandes 8
descente 8
devenue 8
diffusé 8
dirigeant 8
discussions 8
disponibilité 8
disposer 8
disputer 8
dité 8
documentaire 8
documents 8
donn@@ 8
dossiers 8
débats 8
décider 8
déclaration 8
décret 8
décédée 8
défaut 8
défi 8
démarche 8
départementale 8
déplacements 8
déplacer 8
désert 8
dét@@ 8
einem 8
einen 8
emporter 8
ences 8
ente 8
essentiellement 8
est-à-dire 8
européennes 8
européens 8
eut 8
excellente 8
explosion 8
faudrait 8
favorable 8
finir 8
finit 8
foot 8
francs 8
françaises 8
fédérale 8
féminin 8
gegen 8
gent 8
goût 8
gratuite 8
grosse 8
gérant 8
har@@ 8
hectares 8
hy@@ 8
immense 8
immobilier 8
inauguration 8
indi@@ 8
indice 8
instruments 8
interdit 8
internationaux 8
interprété 8
intéressé 8
intérêts 8
invitation 8
ises 8
issante 8
issent 8
isés 8
ites 8
junior 8
jury 8
kg 8
lac 8
langue 8
lecteur 8
lettres 8
levé 8
ligue 8
limite 8
livré 8
lou@@ 8
luxe 8
magasin 8
magie 8
maintien 8
malade 8
mettant 8
missions 8
mobile 8
mor@@ 8
médiathèque 8
mémoire 8
ménage 8
noms 8
non-@@ 8
nés 8
occasions 8
odeur 8
officiel 8
ondes 8
one 8
organisations 8
organiser 8
organisées 8
oublié 8
pakistanaise 8
pal@@ 8
paraît 8
particip@@ 8
participe 8
passagers 8
pasteur 8
personnalité 8
phase 8
plainte 8
plan@@ 8
plats 8
poche 8
poids 8
porté 8
positions 8
possibilités 8
prestations 8
primaire 8
prime 8
principale 8
profession 8
provenant 8
provinces 8
préparé 8
présidence 8
prévues 8
prête 8
qu 8
quilles 8
rappeler 8
rassemble 8
recettes 8
refuse 8
religieux 8
religion 8
remporter 8
rend 8
renseignements 8
rentrée 8
repos 8
res 8
respecter 8
responsabilité 8
ressortissants 8
revers 8
rock 8
roi 8
routière 8
règles 8
ré 8
réalisateur 8
réalise 8
récupération 8
réel 8
régl@@ 8
rénovation 8
résoudre 8
sapeurs-pompiers 8
satellite 8
scolaire 8
score 8
seuls 8
so 8
soin 8
solide 8
sorti 8
sports 8
spéciaux 8
statut 8
strasbourgeois 8
structure 8
suisse 8
suit 8
suivie 8
supérieure 8
sé 8
t' 8
tarifs 8
tchadien 8
tels 8
tempêtes 8
tenter 8
textes 8
the 8
thème 8
théorie 8
tirer 8
tomber 8
touchés 8
tour@@ 8
trace 8
traitement 8
transfèrement 8
transports 8
trentaine 8
tres 8
trio 8
tue 8
tés 8
vaste 8
venait 8
villages 8
violent 8
vis@@ 8
vise 8
visites 8
voeux 8
voire 8
vol 8
voulons 8
vécu 8
Écoutez 8
âgée 8
échec 8
électeurs 8
électricité 8
électrique 8
élevé 8
élève 8
épargne 8
établir 8
étage 8
étape 8
évolution 8
0-0 7
02 7
1,5 7
10@@ 7
11h 7
14h 7
16@@ 7
18h 7
1950 7
1980 7
19h 7
1ere 7
2012 7
20h30 7
250 7
5,@@ 7
53 7
59 7
8-@@ 7
81 7
@ 7
AR@@ 7
AT@@ 7
Ad@@ 7
Agence 7
Alex 7
Algérie 7
Am@@ 7
Andrei 7
Anne-Marie 7
Arsenal 7
Asie 7
Bauer 7
Bouchard-Taylor 7
Bruno 7
CGT 7
Caire 7
Caisse 7
Camsa 7
Canal 7
Caracas 7
Carlos 7
Chambre 7
Champlain 7
Charest 7
Chris 7
Château 7
City 7
Cl@@ 7
Claire 7
Claudine 7
Consuelo 7
Cour@@ 7
DE 7
Das 7
Denise 7
Do@@ 7
Déchetterie 7
Départ 7
Eglise 7
Elysée 7
Ensuite 7
Entretiens 7
FIP 7
Fin 7
Flyers 7
Gabriel 7
Georges 7
Gilbert 7
Google 7
Gran@@ 7
Gro@@ 7
Groupe 7
Har@@ 7
Ho@@ 7
In 7
Institut 7
International 7
Jacqueline 7
Jean-Louis 7
Jean-Paul 7
José 7
Jérôme 7
Labeaume 7
Lapierre 7
Lingolsheim 7
Luc 7
Là 7
Me@@ 7
Mexique 7
Miami 7
Mich@@ 7
Moscou 7
National 7
Nice 7
ON@@ 7
Obenheim 7
Ober@@ 7
Ontario 7
Oscar 7
Oui 7
Ouverture 7
PS 7
Pakistanais 7
Panthers 7
Pasteur 7
Poste 7
Pou@@ 7
Pu@@ 7
Qu' 7
Rangers 7
Renaud 7
Rohan 7
Royal 7
Régis 7
ST@@ 7
Sar@@ 7
Schneider 7
Secours 7
Service 7
Soirée 7
Spe@@ 7
Sur@@ 7
Sylvain 7
Tchad 7
To@@ 7
UBS 7
Valérie 7
Van 7
Venezuela 7
Vol@@ 7
Wilson 7
XVI 7
Zardari 7
accidents 7
acquérir 7
acte 7
active 7
ad 7
adaptation 7
administr@@ 7
adoration 7
adresse 7
aille 7
aliste 7
alisée 7
alliés 7
ang@@ 7
annoncée 7
annuel 7
annuelle 7
appar@@ 7
armées 7
arr@@ 7
assisté 7
associé 7
atives 7
atmosphère 7
atoire 7
atrice 7
atteinte 7
attendues 7
audience 7
aussitôt 7
automobiliste 7
autonomie 7
avocats 7
b 7
balles 7
baryton 7
bases 7
basse 7
battu 7
berg 7
blessées 7
bleue 7
boissons 7
boutique 7
bran@@ 7
bruit 7
bénéficiaires 7
cal@@ 7
cas@@ 7
cass@@ 7
cathédrale 7
cation 7
centimètres 7
chaleur 7
chapelet 7
chiffres 7
chrétiens 7
château 7
ché 7
chée 7
circonstance 7
citant 7
civils 7
ck 7
classique 7
collision 7
colombienne 7
combien 7
commis 7
compagne 7
comprendre 7
conc@@ 7
conclut 7
concurrents 7
condition 7
condu@@ 7
confier 7
conflits 7
connues 7
conseillers 7
consensus 7
conservateurs 7
consécutive 7
cont@@ 7
contemporain 7
conteste 7
convivialité 7
conçu 7
coopération 7
copains 7
correspondant 7
cotisation 7
courage 7
courrier 7
courses 7
crédits 7
cène 7
célébrer 7
danses 7
dent 7
destination 7
destiné 7
destinés 7
dette 7
devaient 7
disparition 7
dispose 7
doigts 7
dois 7
dominé 7
donnent 7
dons 7
dos 7
drôle 7
due 7
dur 7
dé 7
décisions 7
décors 7
découverte 7
décédé 7
dée 7
dées 7
démocratique 7
détention 7
ed 7
efficace 7
emporté 7
empêcher 7
endroits 7
engouement 7
enlèvement 7
entraîneurs 7
esp@@ 7
essais 7
esse 7
etc. 7
euro 7
explication 7
extraits 7
extrême 7
faim 7
faute 7
feront 7
festivités 7
fiche 7
fidèle 7
financer 7
firme 7
forcer 7
forts 7
fu@@ 7
fédérations 7
fêtera 7
gagne 7
gars 7
garçons 7
gne 7
gratuit 7
grave 7
graves 7
générations 7
habitation 7
hebdomadaire 7
histoires 7
hospitalier 7
humaine 7
humanitaire 7
hébergement 7
héroïne 7
ier 7
ille 7
imaginaire 7
importants 7
incident 7
incroyable 7
individuel 7
inquiète 7
inscrits 7
installations 7
installé 7
installée 7
intervention 7
investi 7
israéliens 7
jaune 7
jazz 7
journées 7
joyeux 7
jugé 7
justement 7
laissent 7
lancement 7
langues 7
le-@@ 7
lesquelles 7
libérer 7
livr@@ 7
lié 7
loyer 7
légende 7
mages 7
magistrat 7
maladies 7
mari@@ 7
marquer 7
marquée 7
masse 7
massif 7
mat@@ 7
maternelle 7
meilleures 7
menu 7
merci 7
mettra 7
meurtre 7
mi-@@ 7
musulmane 7
musulmans 7
médicale 7
nativité 7
nettement 7
noter 7
négociation 7
officiels 7
oires 7
orange 7
organis@@ 7
ori@@ 7
ouvrages 7
page 7
pakistanais 7
parlement 7
parlé 7
paroissiale 7
particuliers 7
passera 7
passée 7
passées 7
pause 7
peinture 7
performances 7
permettent 7
physique 7
pieds 7
pilote 7
pistes 7
placement 7
plafond 7
plans 7
plat 7
podium 7
potentiel 7
pouvoirs 7
principales 7
profite 7
profité 7
progrès 7
prom@@ 7
promesses 7
promotion 7
prononcé 7
préfère 7
préfér@@ 7
préparation 7
prépare 7
présentation 7
présentes 7
publicité 7
pétards 7
pôle 7
quartiers 7
quasi 7
quelles 7
rallye 7
rappelé 7
rapports 7
raté 7
recevoir 7
regarder 7
rejoint 7
remarque 7
remonter 7
remplir 7
remporte 7
rencontré 7
rendements 7
rendus 7
représentent 7
rer 7
ressources 7
rest@@ 7
retraites 7
revue 7
riches 7
rire 7
ris@@ 7
réaction 7
réelle 7
rées 7
référence 7
répond 7
résidence 7
réussir 7
révèle 7
révélé 7
salon 7
sapins 7
savait 7
scènes 7
secret 7
sentiment 7
ser 7
seules 7
sheim 7
siens 7
sites 7
soirées 7
souffle 7
souhaiter 7
soutenir 7
soutenu 7
soutient 7
sportive 7
spéciale 7
spécialisée 7
st 7
stabilité 7
statistiques 7
sub@@ 7
suffisamment 7
suicide 7
supplémentaire 7
sélectionné 7
sérieusement 7
sérieux 7
t-il 7
tar@@ 7
techniques 7
technologie 7
teront 7
thé@@ 7
tiendra 7
tin 7
tions 7
tor@@ 7
trafic 7
traitements 7
traité 7
tre 7
trente 7
tribunaux 7
tro@@ 7
trophée 7
trouvent 7
témoin 7
ultime 7
unité 7
urgences 7
vague 7
vainqueur 7
valoir 7
vendre 7
via 7
vice-président 7
viol@@ 7
visiblement 7
visiter 7
voisins 7
volant 7
vérité 7
week-end 7
wo 7
wurde 7
yer 7
ès 7
économiques 7
élevée 7
élu 7
équilibre 7
équipés 7
équivalent 7
états 7
étoiles 7
évoque 7
0-2 6
10e 6
14h30 6
1927 6
1953 6
1991 6
1994 6
2-1 6
25@@ 6
3-2 6
350 6
4,@@ 6
58.@@ 6
900 6
AC 6
ADQ 6
ARIS 6
Abbas 6
Adam 6
Agnès 6
Angela 6
Anthony 6
Arnaud 6
Asif 6
Ass@@ 6
Assemblée 6
Autriche 6
Av@@ 6
BCE 6
BMW 6
Belle 6
Ben 6
Benfeld 6
Bertrand 6
Bl@@ 6
Blair 6
Bloc 6
Bon@@ 6
Bonne 6
Boston 6
Brady 6
Bref 6
Bruins 6
C. 6
CI@@ 6
CUS 6
Can@@ 6
Cannes 6
Carla 6
Celle 6
Celui 6
Chirac 6
Citroën 6
Croix 6
DE@@ 6
Damas 6
Des@@ 6
Didier 6
Dis@@ 6
Don@@ 6
Dor@@ 6
Déjà 6
Enfance 6
Ensemble 6
Environnement 6
Euro 6
Feu 6
Florence 6
GES 6
GR@@ 6
Gaza 6
Gendarmerie 6
Gilles 6
Go@@ 6
Guay 6
Général 6
Ha@@ 6
Hampshire 6
Higgins 6
Histoire 6
Huet 6
Hôpital 6
IS@@ 6
J.@@ 6
Jac@@ 6
Justice 6
Jérusalem 6
Kevin 6
Ki@@ 6
Kogenheim 6
La@@ 6
Latendresse 6
Leh@@ 6
Leurs 6
Louise 6
Loïc 6
Ma 6
Mac@@ 6
Mahmoud 6
Marguerite 6
Maria 6
Mark 6
Markov 6
Marmoutier 6
Martine 6
May@@ 6
Mi@@ 6
Mise 6
Moi 6
Mou@@ 6
Moubarak 6
My@@ 6
Nacht 6
Nations 6
Nativité 6
Nawaz 6
Neuf 6
Nos 6
Not@@ 6
Notre-Dame 6
O 6
O. 6
Op@@ 6
Opération 6
Ouvert 6
Palestiniens 6
Parce 6
Pascale 6
Peu 6
Pfastatt 6
Phalsbourg 6
Photo 6
Pin@@ 6
Place 6
Police 6
Price 6
Proche-Orient 6
Président 6
Quatre 6
Quoi 6
Rawalpindi 6
Rennes 6
Ribeauvillé 6
Riedisheim 6
Rien 6
Robertsau 6
Romain 6
Roumanie 6
SAQ 6
Sabine 6
Sarre-Union 6
Sharif 6
Sim@@ 6
So@@ 6
Somalie 6
Sophie 6
Sor@@ 6
Soultz 6
St 6
Ste-@@ 6
Sto@@ 6
T. 6
Théâtre 6
Times 6
Tou@@ 6
Tournoi 6
Très 6
Tur@@ 6
Van@@ 6
W. 6
Web 6
X 6
a-@@ 6
ab 6
abilité 6
ablement 6
abor@@ 6
accepter 6
accords 6
acheté 6
achevée 6
acquisition 6
actif 6
adjointe 6
adopté 6
adressé 6
affich@@ 6
affiches 6
africain 6
agir 6
agé 6
ajoutant 6
alimentaire 6
allé 6
altern@@ 6
amendement 6
amoureuse 6
ampleur 6
animateurs 6
annoncer 6
anti-@@ 6
appareil 6
appartenant 6
application 6
approuvé 6
armés 6
arrivés 6
artistique 6
assaut 6
assur@@ 6
assurant 6
atifs 6
atiques 6
attendus 6
ature 6
augmente 6
autrefois 6
auxquels 6
avancement 6
aérien 6
aéroport 6
baleines 6
baril 6
barrage 6
barre 6
bas@@ 6
basket 6
bassin 6
batterie 6
bergers 6
bert 6
bibliothèques 6
biens 6
bienvenue 6
bilingue 6
bor@@ 6
bouger 6
brû@@ 6
buffet 6
bâ@@ 6
bâton 6
cahier 6
cellulaire 6
chacune 6
chanter 6
chapitre 6
charbon 6
chauffeur 6
chaussée 6
chefs 6
chercheur 6
chercheurs 6
chiens 6
choristes 6
chère 6
cible 6
cien 6
cigarette 6
class@@ 6
client 6
co 6
code 6
coin 6
coll@@ 6
collaboration 6
colonel 6
commente 6
commerces 6
commerciales 6
communautés 6
compagnon 6
complète 6
compléter 6
concerts 6
confirme 6
congrès 6
connaissent 6
connus 6
conserv@@ 6
conservateur 6
conserve 6
consiste 6
consommateur 6
constructeurs 6
conséquence 6
contes 6
contre-@@ 6
contre@@ 6
contribué 6
contrôles 6
convaincre 6
conversion 6
convient 6
cote 6
coule 6
coupables 6
coûté 6
craintes 6
critiques 6
croy@@ 6
cuivre 6
curieux 6
cyclisme 6
cédé 6
célébration 6
célébrée 6
dame 6
danseurs 6
dant 6
dass 6
dehors 6
demi-finale 6
dents 6
dernièrement 6
dessus 6
diff@@ 6
différ@@ 6
différent 6
diminuer 6
diriger 6
dispar@@ 6
disparu 6
disque 6
dit-elle 6
domaines 6
domiciliée 6
donnée 6
dre 6
duquel 6
durer 6
dynamique 6
déb@@ 6
débou@@ 6
débuts 6
déclarations 6
décor 6
décoration 6
défaites 6
délégation 6
démarches 6
démarrage 6
dénoncé 6
départs 6
dépit 6
dérou@@ 6
détenu 6
effectue 6
einer 6
emprunt 6
enc@@ 6
eng@@ 6
engagé 6
enquêteurs 6
enregistr@@ 6
enseignement 6
entendu 6
entier 6
entière 6
entre@@ 6
entrées 6
envoi 6
envoyer 6
er-@@ 6
erie 6
erreurs 6
ert 6
espaces 6
espèces 6
eux-mêmes 6
exactement 6
exception 6
exil 6
existence 6
explique-t-il 6
expliquer 6
fabriquer 6
facilement 6
facture 6
fameux 6
fasse 6
festif 6
ff 6
fil@@ 6
fiscale 6
fontaine 6
forcément 6
formations 6
fourni 6
franc 6
front 6
fréquent@@ 6
fusion 6
futurs 6
félicite 6
gagnant 6
garantie 6
garder 6
geste 6
go 6
gouvernance 6
gradins 6
gratuites 6
gues 6
guère 6
gymnase 6
gymnastique 6
gâteaux 6
gérer 6
h-18 6
haben 6
habite 6
hall 6
handicap 6
hatte 6
homologue 6
horaires 6
hu@@ 6
humaines 6
idées 6
immer 6
immeubles 6
immobiliers 6
imp@@ 6
implantation 6
indices 6
indépendance 6
iner 6
influence 6
initialement 6
initiative 6
initiatives 6
inquiétude 6
installer 6
instruction 6
interventions 6
introduction 6
inviter 6
invitées 6
inée 6
isée 6
ivresse 6
jo@@ 6
joli 6
jon@@ 6
lam@@ 6
lever 6
libéraux 6
liens 6
lier 6
limiter 6
ling 6
livraison 6
loc@@ 6
locataire 6
lutter 6
législation 6
légumes 6
légère 6
machine 6
malades 6
mani@@ 6
manquent 6
manquer 6
manqué 6
mariage 6
matières 6
maux 6
maîtrise 6
menaces 6
mener 6
ment 6
ment@@ 6
mercredis 6
mettent 6
metteur 6
milieux 6
mobilisation 6
modes 6
moindre 6
mondiales 6
monter 6
montrent 6
montrer 6
moral 6
multi@@ 6
mur 6
mécanique 6
médailles 6
médi@@ 6
mérite 6
métiers 6
nation 6
ne@@ 6
nes 6
noire 6
normal 6
notes 6
né@@ 6
obligé 6
obsèques 6
oeil 6
of 6
oire 6
oiseaux 6
onné 6
opposé 6
option 6
options 6
opér@@ 6
ors 6
os@@ 6
our 6
outils 6
ov@@ 6
palestinien 6
paraissent 6
parfaite 6
parisien 6
parlementaires 6
paroisses 6
partagé 6
participé 6
parts 6
parvient 6
perspective 6
pes@@ 6
pianiste 6
plate-forme 6
pluie 6
pluies 6
plume 6
pol@@ 6
pon@@ 6
portefeuille 6
possibles 6
post-@@ 6
poubelles 6
poursuivra 6
poussé 6
prati@@ 6
prenant 6
primaires 6
pro 6
producteur 6
prolongation 6
prolonger 6
proposera 6
propositions 6
proposées 6
provo@@ 6
précédent 6
présentant 6
prêtes 6
publier 6
puisqu' 6
pétroliers 6
qualifi@@ 6
quasiment 6
quinze 6
quête 6
ra 6
racheté 6
racines 6
radi@@ 6
rails 6
rap@@ 6
rare 6
recyclables 6
redressement 6
regarde 6
rejoindre 6
rel@@ 6
relation 6
relativement 6
relever 6
remarquable 6
remercier 6
remises 6
rendement 6
rendue 6
rentr@@ 6
rentrer 6
reportage 6
reportée 6
reprend 6
respectée 6
restera 6
retard 6
retrait 6
retrouvée 6
reçus 6
rouges 6
réactions 6
réception 6
récession 6
réchauffer 6
réclamé 6
régulière 6
rémunération 6
réponses 6
réputation 6
réputé 6
réserve 6
résolution 6
réunir 6
rê@@ 6
rôles 6
sacré 6
sacs 6
satisfait 6
sauvages 6
sciences 6
scolaires 6
secrétariat 6
sem@@ 6
semblait 6
semblent 6
sensibles 6
sentir 6
servir 6
sign@@ 6
signifi@@ 6
signée 6
sinon 6
sion 6
situ@@ 6
situations 6
siècles 6
soeurs 6
soi 6
solo 6
solution 6
sons 6
souffert 6
souligner 6
souviens 6
stocks 6
subvention 6
suc@@ 6
sud-est 6
suff@@ 6
super@@ 6
surprises 6
survenu 6
survenue 6
suscite 6
suspect 6
suspendre 6
symbole 6
sympathique 6
sélections 6
sépar@@ 6
séries 6
sûreté 6
tab@@ 6
tapis 6
technologies 6
tenait 6
tenant 6
tent@@ 6
termine 6
terminer 6
terminée 6
tienne 6
tif 6
tis 6
titulaire 6
to 6
to@@ 6
top 6
touristique 6
tourné 6
tra@@ 6
traditionnels 6
traduit 6
trai@@ 6
tranches 6
transaction 6
transformer 6
transmis 6
traversé 6
troupes 6
trouvait 6
tru@@ 6
trésor 6
tur@@ 6
ture 6
types 6
tz 6
téléviseurs 6
têtes 6
unanimité 6
uni 6
unies 6
universitaire 6
unter 6
usé 6
vari@@ 6
vas 6
venaient 6
vendus 6
venues 6
vera 6
vide 6
vieil 6
vieill@@ 6
visibilité 6
vive 6
vois 6
volontaires 6
vosgien 6
voy@@ 6
voyages 6
vénézuéliens 6
vêpres 6
zum 6
âgés 6
èrent 6
écologique 6
écriture 6
éditeur 6
ément 6
émotions 6
éro@@ 6
érée 6
étapes 6
étions 6
étonn@@ 6
évacuation 6
évident 6
êtes 6
îles 6
0,@@ 5
1-0 5
104 5
110 5
11e 5
15h 5
16e 5
1945 5
1957 5
1962 5
1972 5
1989 5
1990 5
1992 5
21h 5
22@@ 5
23@@ 5
26@@ 5
3-@@ 5
36@@ 5
4-@@ 5
5,5 5
6,@@ 5
8e 5
9,@@ 5
AG@@ 5
AGF 5
AM@@ 5
AMF 5
AN@@ 5
ASPTT 5
AUT 5
Abéché 5
Adèle 5
Ajaccio 5
Aleg 5
Alexander 5
Anna 5
Armée 5
Aucun 5
Avenir 5
Aï@@ 5
B. 5
BD 5
Bach 5
Bachelot 5
Bagdad 5
Ban@@ 5
Bat@@ 5
Bay 5
Beck 5
Benjamin 5
Berlin 5
Bernier 5
Bischheim 5
Bischwiller 5
Bon 5
Bossue 5
Bre@@ 5
Bretagne 5
Brière 5
Brésil 5
CICR 5
CO@@ 5
Camille 5
Canucks 5
Carbonneau 5
Carrefour 5
Cartier 5
Casey 5
Center 5
Certaines 5
Certes 5
Chap@@ 5
Chev@@ 5
Christ 5
Christ@@ 5
Christkindel 5
Cirque 5
Cité 5
Clemens 5
Croix-Rouge 5
Crosby 5
Cré@@ 5
Cu@@ 5
Cuba 5
Cécile 5
Dannemarie 5
Deb@@ 5
Devoir 5
Difficile 5
Dolphins 5
Dou@@ 5
Dr@@ 5
Dumont 5
Déry 5
EDF 5
ER@@ 5
ET 5
El 5
Elena 5
Elisabeth 5
Elizabeth 5
Em@@ 5
Emma 5
Encore 5
Ensisheim 5
Es 5
Européens 5
FMI 5
FRA 5
Fabrice 5
Facebook 5
Fe@@ 5
Fessenheim 5
Fin@@ 5
Finalement 5
Finances 5
Fischer 5
Fl@@ 5
Fo@@ 5
Football 5
Forêt 5
France-KLM 5
Franck 5
Fre@@ 5
Frey 5
GMF 5
Ga@@ 5
Garage 5
Garcia 5
Gir@@ 5
Glasgow 5
Gou@@ 5
Grande 5
HLM 5
Halte-garderie 5
Hariri 5
Hillary 5
Hirtzbach 5
Hopper 5
Hosni 5
IV 5
Inter@@ 5
Intérieur 5
Ir@@ 5
Jahr 5
Januar 5
Jean-Philippe 5
Jeunes 5
Jou@@ 5
Ju@@ 5
Juliette 5
Jung 5
K 5
Karine 5
Kibaki 5
Ko@@ 5
Kostitsyn 5
Kovalev 5
L. 5
LA 5
LCD 5
Lab@@ 5
Laf@@ 5
Lapointe 5
Lav@@ 5
Laval 5
Leclerc 5
Limersheim 5
Lionel 5
Lor@@ 5
Lorsqu' 5
Los 5
Léon 5
MAR@@ 5
MJC 5
Madame 5
Madrid 5
Maintenant 5
Mairie 5
Mann 5
Marco 5
Mario 5
Maroc 5
Maurer 5
Maxime 5
Menschen 5
Merkel 5
Mes 5
Michaël 5
Mickaël 5
Monsieur 5
Moyen-Orient 5
Muller 5
Mun@@ 5
Médiathèque 5
Ménard 5
Nach 5
Nadine 5
Nancy 5
Nantes 5
Nathan 5
Neuhof 5
Nez 5
Noëls 5
ONU 5
OT 5
OU@@ 5
Odinga 5
Organisation 5
Ou 5
Ouellet 5
Outre 5
PIB 5
POULE 5
Paris-@@ 5
Park 5
Pelletier 5
Petite 5
Pharmacie 5
Pier@@ 5
Prozent 5
Präsident 5
Près 5
Quel 5
Québec-Canada 5
R. 5
RD 5
Rachid 5
Radio-Canada 5
Rendez-vous 5
Res@@ 5
Rhinau 5
Rick 5
Rio 5
Robin 5
Rose 5
Rosheim 5
Région 5
SCH@@ 5
Sabres 5
Saint-Sylvestre 5
Sainte-Cène 5
Sam@@ 5
San 5
San@@ 5
Sandra 5
Sarreguemines 5
Se 5
Six 5
Sony 5
Statistique 5
Steinbourg 5
Stille 5
Strasbourg-@@ 5
Sundgau 5
Sénateurs 5
TF1 5
TQS 5
Thur 5
Tinto 5
Todd 5
Tokyo 5
Toutes 5
Und 5
Ur@@ 5
Valeria 5
Vallée 5
Vauban 5
Vie 5
Visite 5
Vladimir 5
Voici 5
Véronique 5
WEI@@ 5
WILLER 5
Wasselonne 5
Weber 5
Wehr@@ 5
Weiss 5
Wil@@ 5
Win@@ 5
Wisches 5
_ 5
abattement 5
abords 5
accompagnée 5
accompagnés 5
accorde 5
accordé 5
accroître 5
accueille 5
accueillera 5
accuse 5
aces 5
actionn@@ 5
actionnaire 5
activ@@ 5
activistes 5
adapté 5
ades 5
adhésion 5
adressant 5
affecté 5
affirmant 5
affron@@ 5
agglomération 5
agression 5
agréable 5
ail 5
aile 5
aiment 5
aimerais 5
aimé 5
album 5
albums 5
alerte 5
alisme 5
alistes 5
allons 5
allée 5
alpin 5
ambassadeur 5
amment 5
anc@@ 5
ances 5
ang 5
anglaise 5
animal 5
animateur 5
ano 5
apparemment 5
appli@@ 5
apporté 5
apprendre 5
aque 5
arabe 5
armoire 5
arran@@ 5
arrivent 5
arrière-@@ 5
arrêtées 5
aspect 5
assassins 5
asse 5
atoires 5
ats 5
attaché 5
attentat-suicide 5
attirer 5
attribution 5
au-dessus 5
auch 5
augmenté 5
aut 5
autonome 5
autrement 5
avancé 5
avancées 5
aviaire 5
avion 5
aériennes 5
bail 5
bain 5
baissé 5
basé 5
bat 5
battre 5
bav@@ 5
beauté 5
berger 5
besoins 5
bler 5
blessée 5
boire 5
bombe 5
bonbons 5
bottes 5
boule@@ 5
bouteille 5
bouteilles 5
bre 5
bref 5
brésilien 5
bénédiction 5
bénéfices 5
bénéficiaire 5
bénéficier 5
cabinet 5
cache 5
café 5
caisse 5
calme 5
camion 5
caméra 5
canadiennes 5
candidature 5
carbone 5
carrés 5
carton 5
caserne 5
catholiques 5
celle-ci 5
central 5
cents 5
certes 5
certifi@@ 5
cesse 5
cessez-le-feu 5
champagne 5
change 5
chanson 5
chargée 5
charme 5
chaude 5
chaussures 5
che@@ 5
chent 5
chev@@ 5
chi@@ 5
chiff@@ 5
cho@@ 5
chés 5
ci-dessous 5
cia 5
cimetière 5
circonscription 5
cker 5
classiques 5
clo@@ 5
clé 5
co-@@ 5
coeurs 5
combats 5
combattants 5
combiné 5
command@@ 5
commen@@ 5
commencer 5
commenté 5
commettre 5
compl@@ 5
complet 5
complexe 5
compli@@ 5
complicité 5
compromis 5
comptent 5
concertation 5
condamnée 5
confie 5
confort 5
connue 5
conscience 5
conseils 5
constat 5
constat@@ 5
constituent 5
construire 5
construit 5
contest@@ 5
continu@@ 5
contribution 5
convention 5
conviction 5
conç@@ 5
corri@@ 5
cot@@ 5
coulisses 5
couronne 5
coéquipier 5
cra@@ 5
croisé 5
croisée 5
cru 5
cteur 5
curiosité 5
cé 5
cées 5
dangereux 5
del 5
demandant 5
dement 5
demeurer 5
demi-@@ 5
demie 5
des-@@ 5
deuil 5
devenues 5
devenus 5
devise 5
devoir 5
dialogue 5
diffus@@ 5
dirige 5
dispositifs 5
distinction 5
district 5
diverses 5
divertissement 5
dominicale 5
donnait 5
doublé 5
doutes 5
drame 5
dynam@@ 5
décrets 5
décro@@ 5
défend 5
défendu 5
défini 5
définitivement 5
dég@@ 5
délai 5
démarrer 5
démo@@ 5
dép@@ 5
dépasse 5
dépense 5
dépensé 5
déployés 5
déposer 5
déroulera 5
désir 5
détermin@@ 5
effectu@@ 5
elle-même 5
em 5
embar@@ 5
encadrement 5
enchaîné 5
engins 5
enjeu 5
enregistrement 5
entouré 5
entraîne 5
entraînements 5
entraîneur-chef 5
entraîné 5
envers 5
envoyé 5
eraient 5
erons 5
esprits 5
essai 5
est-il 5
et-@@ 5
eté 5
eucharistie 5
ex 5
excellence 5
exercer 5
exigé 5
existent 5
expert 5
explications 5
expliqu@@ 5
explosifs 5
extrêmes 5
exécution 5
eût 5
fabricant 5
faisaient 5
fallu 5
familiales 5
fausse 5
favorables 5
fenêtre 5
fi 5
fication 5
fiction 5
fiers 5
figur@@ 5
file 5
financements 5
financière 5
fini 5
fit 5
fix@@ 5
fleuve 5
fonctionnaires 5
fonctionne 5
fonctionner 5
fondateur 5
fortes 5
fossé 5
fou 5
foulée 5
fournir 5
fournisseurs 5
foyers 5
frapp@@ 5
fraude 5
fruit 5
fumeur 5
fumée 5
féminines 5
fêté 5
g' 5
gagn@@ 5
galette 5
gardiens 5
gement 5
gence 5
genoux 5
gestionnaire 5
gibt 5
glaces 5
gouvernements 5
grade 5
grand-père 5
grands-parents 5
gras 5
grippe 5
grièvement 5
gué 5
gé@@ 5
géants 5
gées 5
généreux 5
générosité 5
géré 5
habitait 5
habitant 5
habitat 5
han@@ 5
handicapés 5
harmonie 5
hasard 5
hauts 5
heureuse 5
historiques 5
honor@@ 5
hou@@ 5
house 5
http 5
humanitaires 5
hôpitaux 5
ien 5
ignore 5
ihrer 5
illustré 5
immigration 5
immobilière 5
immédiat 5
immédiatement 5
impos@@ 5
impulsion 5
ina 5
incul@@ 5
industrielle 5
infirmiers 5
influ@@ 5
informé 5
insiste 5
instar 5
institution 5
intense 5
interpellé 5
interprétation 5
interprétés 5
interroge 5
introdu@@ 5
intégration 5
intéress@@ 5
intéressant 5
inés 5
ique 5
iques 5
irakien 5
iront 5
isch 5
isons 5
italien 5
italienne 5
its 5
j 5
japonais 5
jard@@ 5
jets 5
jouait 5
jouent 5
joueuse 5
judo 5
jusque 5
justifier 5
ke 5
la@@ 5
laine 5
laissant 5
lance 5
lar@@ 5
lesquels 5
lev@@ 5
levée 5
ley 5
libér@@ 5
limit@@ 5
liés 5
location 5
loisirs 5
look 5
loto 5
lourd 5
lourdes 5
loyers 5
ludique 5
lundis 5
légale 5
légendes 5
léger 5
maires 5
majeure 5
manger 5
march@@ 5
marcher 5
marketing 5
matt 5
matten 5
mentionne 5
merveilleux 5
messages 5
messes 5
mi-chemin 5
mi-janvier 5
migrants 5
mines 5
mineures 5
mini@@ 5
modernité 5
mont 5
montréalais 5
morceau 5
motiv@@ 5
motivation 5
mut@@ 5
mystère 5
mécanisme 5
média 5
médico-social 5
mét@@ 5
métal 5
météo 5
nation@@ 5
naturel 5
naturelles 5
niveaux 5
noch 5
nommé 5
normale 5
normes 5
négocier 5
o-@@ 5
oblige 5
observ@@ 5
obst@@ 5
occidentaux 5
occuper 5
oeuvres 5
officiellement 5
ologie 5
olsheim 5
olympique 5
onie 5
onner 5
oppos@@ 5
opposante 5
orbite 5
oublie 5
ours 5
ouverts 5
pa@@ 5
palestiniens 5
paniers 5
papa 5
pape 5
paquet 5
parcomètres 5
parfaitement 5
part@@ 5
partagés 5
party 5
passent 5
passeport 5
pat@@ 5
patient 5
patients 5
patrimoine 5
payé 5
peau 5
peintre 5
pen@@ 5
pens@@ 5
perd 5
permanente 5
personnelle 5
personnelles 5
persu@@ 5
pertes 5
petit-fils 5
petits-enfants 5
phare 5
phot@@ 5
piétonne 5
placée 5
plaintes 5
plaît 5
poin@@ 5
poissons 5
pollution 5
ponctu@@ 5
porte-@@ 5
portée 5
positive 5
posée 5
poule 5
poursuivi 5
pouss@@ 5
pouvons 5
poète 5
pp@@ 5
pratiques 5
prennent 5
preuves 5
prit 5
probable 5
procédé 5
professeurs 5
programmes 5
progressivement 5
progressé 5
projeté 5
promesse 5
propriété 5
prouve 5
provenance 5
provisoire 5
préc@@ 5
précieux 5
précis 5
préciser 5
précisément 5
précédentes 5
prédilection 5
préfet 5
préféré 5
prépar@@ 5
présentées 5
présumés 5
prévention 5
prévisions 5
prévoient 5
prê@@ 5
pur 5
pur@@ 5
pure 5
périodes 5
périscolaire 5
pétition 5
quait 5
quarantaine 5
quarts 5
quitte 5
racheter 5
raconter 5
raconté 5
ralentissement 5
ram@@ 5
ramener 5
rant 5
rappel 5
rapporte 5
rapporté 5
ras 5
rassurer 5
rayon 5
re-@@ 5
reconnaître 5
reconnus 5
regroupe 5
relev@@ 5
religieuse 5
relâ@@ 5
relè@@ 5
remplacement 5
remplacé 5
renoncer 5
rent 5
représentation 5
requis 5
responsabilités 5
resté 5
retire 5
retirer 5
retourner 5
reçoit 5
rier 5
rigueur 5
rivaux 5
romans 5
rond 5
routières 5
royale 5
rumeurs 5
règlement 5
règne 5
réalisée 5
récente 5
réchauffement 5
récit 5
récolte 5
récolté 5
récompenses 5
récompensés 5
récupère 5
réduite 5
réellement 5
référ@@ 5
référendum 5
régionale 5
réjou@@ 5
réjouit 5
répertoire 5
réponse 5
réserves 5
réservée 5
résidents 5
réuni 5
révolutionnaires 5
rêver 5
saisons 5
salut 5
salué 5
sau@@ 5
savons 5
schon 5
scientifique 5
scientifiques 5
scotch 5
seit 5
sensible 5
sentiers 5
serre 5
sex@@ 5
sexualité 5
similaire 5
simples 5
sind 5
slalom 5
soirs 5
soldat 5
somm@@ 5
son@@ 5
sondages 5
soprano 5
soudanais 5
souff@@ 5
souffrance 5
soulignant 5
souvenir 5
soviétique 5
spécial 5
stable 5
stand 5
stat@@ 5
stock 5
succombé 5
suiv@@ 5
sunnites 5
sus@@ 5
suspects 5
syndicales 5
syndicat 5
systèmes 5
sénateur 5
talibans 5
taxe 5
tchadienne 5
températures 5
tenues 5
terait 5
terres 5
textile 5
th 5
thèmes 5
ti 5
tier 5
tigre 5
tionn@@ 5
tombé 5
tonnes 5
totale 5
touche 5
toucher 5
tournant 5
trains 5
tran@@ 5
transition 5
travaill@@ 5
travaillant 5
travaillent 5
trice 5
trouv@@ 5
tures 5
tâches 5
téléspectateurs 5
témoignages 5
témoigne 5
témoins 5
ténor 5
ulaire 5
ultra-@@ 5
unités 5
ures 5
utilisé 5
utilisée 5
vaincu 5
vainqueurs 5
vali@@ 5
variés 5
vaut 5
venant 5
vend@@ 5
verra 5
verts 5
vieille 5
violences 5
vivement 5
voisine 5
voisines 5
voulaient 5
vr@@ 5
w 5
y-@@ 5
yens 5
zur 5
zéro 5
² 5
École 5
âme 5
èmes 5
éclair@@ 5
éclaté 5
économiste 5
écriv@@ 5
écrivains 5
églises 5
électronique 5
émer@@ 5
émouvant 5
épicerie 5
épices 5
épou@@ 5
établie 5
étiquette 5
étonnant 5
étrangère 5
évoquant 5
évoquer 5
über 5
-M@@ 4
-et 4
0,5 4
0-@@ 4
1,1 4
10h 4
10h30 4
11,@@ 4
112 4
12h 4
130 4
132 4
135 4
14e 4
1939 4
1942 4
1967 4
1969 4
1984 4
1985 4
1987 4
1993 4
1996 4
1e 4
2,@@ 4
2020 4
21@@ 4
22h 4
230 4
240 4
3,5 4
3,@@ 4
30@@ 4
34@@ 4
4,3 4
4,5 4
49@@ 4
5-5 4
5-@@ 4
5.@@ 4
50@@ 4
7-@@ 4
750 4
9e 4
AL 4
AU 4
Abitibi 4
Action 4
Ag@@ 4
Agé 4
Airlines 4
Al 4
Alger 4
Algériens 4
Ali@@ 4
Alt@@ 4
Amazon 4
Apple 4
Arthur 4
Assad 4
At@@ 4
Atlantique 4
Attentat 4
Aucune 4
Auto 4
Autour 4
BA@@ 4
BNP 4
Bali 4
Balle 4
Ballon 4
Band 4
Bartenheim 4
Bear 4
Belfort 4
Bellaïd 4
Ben@@ 4
Bercy 4
Bes@@ 4
Bethléem 4
Bir@@ 4
Bitche 4
Blan@@ 4
Blanche 4
Blo@@ 4
Bob 4
Bourg@@ 4
Boutin 4
Brian 4
Bru@@ 4
Brunstatt 4
Bédard 4
CA@@ 4
CAF 4
CCI 4
CD 4
CH 4
CM@@ 4
CO2 4
CSN 4
Canard 4
Cant@@ 4
Cast@@ 4
Celle-ci 4
Celui-ci 4
Champ 4
Chi@@ 4
Christelle 4
Christiane 4
Chávez 4
Châtenois 4
Cir@@ 4
Circuit 4
Cisjordanie 4
Clemessy 4
Coeur 4
Coll@@ 4
Colombie-Britannique 4
Comm@@ 4
Congrès 4
Cora 4
Coulibaly 4
Couronne 4
Crédit 4
Cy@@ 4
Cédric 4
DJ 4
DR@@ 4
Dallas 4
Dam@@ 4
Dan 4
Danemark 4
Dati 4
Dem@@ 4
Derrière 4
Desjardins 4
Dessenheim 4
Dettwiller 4
Don 4
Dow 4
Dur@@ 4
Début 4
Déc@@ 4
Décembre 4
EADS 4
EN 4
ER 4
Eguisheim 4
Emery 4
Emile 4
Emmaüs 4
Espérance 4
Est-ce 4
Est@@ 4
Et@@ 4
Etats 4
Ett@@ 4
Fabien 4
Far@@ 4
Fer@@ 4
Fermeture 4
Festival 4
Financial 4
Fisher 4
Fiévet 4
Fondation 4
Forces 4
Ford 4
France-@@ 4
Françoise 4
Fred 4
Free 4
Fri@@ 4
Fête 4
GDF 4
GEN@@ 4
GMT 4
GO 4
Gal@@ 4
Galles 4
Gare 4
Gaz 4
Germain 4
Gh@@ 4
Gil@@ 4
Gl@@ 4
Gol@@ 4
Golfe 4
Gone 4
Grallet 4
Grand' 4
Gri@@ 4
Grâce 4
Haas 4
Hab@@ 4
Hamel 4
Hamilton 4
Han@@ 4
Hans 4
Hardy 4
Hel@@ 4
Hervé 4
Hirsingue 4
Ho 4
Hoenheim 4
Honoré-Mercier 4
Hor@@ 4
Horbourg-Wihr 4
Horn 4
Hou@@ 4
Hubert 4
Hudec 4
Hus@@ 4
Hé@@ 4
Hésingue 4
Hôtel 4
IE@@ 4
ISF 4
Ill 4
Ill@@ 4
Image 4
Ingersheim 4
Initi@@ 4
Iowa 4
Irlande 4
Islamabad 4
Jacky 4
Jacob 4
Jean-Loup 4
Joachim 4
Joh@@ 4
Jones 4
Josh 4
Jules 4
Kab@@ 4
Kahn 4
Kan@@ 4
Kar@@ 4
Karachi 4
Karl 4
Kat@@ 4
Khan 4
King 4
Kingersheim 4
Koivu 4
Kouchner 4
LS600hL 4
Lac 4
Laden 4
Lan@@ 4
Lat@@ 4
Laura 4
Laurentides 4
Lauterbourg 4
Lei@@ 4
Lemieux 4
Lepage 4
Liban 4
Liberté 4
Lille 4
Loeb 4
Lorrain 4
Lorsque 4
Loto 4
Lucien 4
Lucky 4
Luemschwiller 4
Luis 4
Luke 4
Léger 4
M.@@ 4
MKX 4
MM@@ 4
Mach@@ 4
Manchester 4
Manon 4
Masevaux 4
Match 4
Medef 4
Mehsud 4
Meinau 4
Mel@@ 4
Mess@@ 4
Mieux 4
Min@@ 4
Minuit 4
Mission 4
Mittel@@ 4
Mitterrand 4
Mogadiscio 4
Moins 4
Moselle 4
Mot@@ 4
Moulin 4
Mouvement 4
Mu@@ 4
Mundolsheim 4
Mur@@ 4
Mut@@ 4
Mutzig 4
Myriam 4
Mélanie 4
N. 4
Nationale 4
Naudero 4
Net 4
Nieder@@ 4
Nordhouse 4
Norfolk 4
Norvège 4
Notre-Dame-@@ 4
Nouvelle 4
Nouvelle-@@ 4
Nov@@ 4
Nu@@ 4
Nuit 4
OL 4
On@@ 4
Orbey 4
Orléans 4
Ostheim 4
Oussama 4
Ovechkin 4
PCAA 4
Palais 4
Pap@@ 4
Parallèlement 4
Parfois 4
Paribas 4
Paroisses 4
Pass@@ 4
Patricia 4
Patriots 4
Pauline 4
Pe@@ 4
Perrin 4
Peter@@ 4
Peuple 4
Pf@@ 4
Ph@@ 4
Plateau 4
Pol@@ 4
Por@@ 4
Port 4
Pot@@ 4
Pri@@ 4
Principale 4
Provencher 4
Pékin 4
Péligat 4
Qaïda 4
Quebecor 4
Quichotte 4
RO@@ 4
Rad@@ 4
Regardez 4
Relais 4
Reno 4
Rhodia 4
Rich@@ 4
Rie@@ 4
Riquewihr 4
Rita 4
Riv@@ 4
Rivière-@@ 4
Rodrigo 4
Roselyne 4
Ross@@ 4
Roth@@ 4
Rou@@ 4
Rouffach 4
Rue 4
Réservations 4
Résultats 4
Réunion 4
SA@@ 4
SC 4
SIG 4
SOS 4
SPA 4
SUI 4
Sahara 4
Samak 4
Sandrine 4
Santos 4
Sav@@ 4
Scherwiller 4
Schirmeck 4
Schweighouse 4
Seconde 4
Sept 4
Seu@@ 4
Seule 4
Shanghai 4
Sharp 4
Smith 4
Soit 4
Son@@ 4
Soufflenheim 4
Soultzmatt 4
Sp@@ 4
Spiegel 4
Spor@@ 4
Sport 4
Star@@ 4
Stearns 4
Steve 4
Street 4
Streit 4
Sturm 4
Stéphanie 4
Syndicat 4
Tandis 4
Tarifs 4
Thai 4
Thaïlande 4
Thrashers 4
Thé@@ 4
Théo 4
Tit@@ 4
Tours 4
Toyota 4
Tre@@ 4
Tri@@ 4
Tu 4
Téhéran 4
Téléthon 4
Urgences 4
Uribe 4
Val-d' 4
Var 4
Verdun 4
Verts 4
Vig@@ 4
Vive 4
Voy@@ 4
Wal@@ 4
Wall 4
Wattwiller 4
We@@ 4
West@@ 4
Wi@@ 4
Wild 4
Witt@@ 4
Wittenheim 4
Wo@@ 4
Wonder 4
XXe 4
Y 4
YouTube 4
Zimmermann 4
aband@@ 4
abandonner 4
abeilles 4
abou@@ 4
absorber 4
acc@@ 4
accent 4
accep@@ 4
accommodements 4
accompagnement 4
accompagner 4
accordéon 4
accro@@ 4
accrocher 4
accél@@ 4
accélérer 4
accéléré 4
achet@@ 4
acheter 4
acquéreur 4
act@@ 4
actrice 4
actualité 4
adapter 4
adieu 4
administrative 4
admirer 4
adop@@ 4
adoptés 4
adulte 4
adéqu@@ 4
affai@@ 4
affectés 4
affiché 4
afghane 4
aga 4
agement 4
aggrav@@ 4
agi 4
agri@@ 4
agricole 4
agricoles 4
agés 4
aidé 4
ailles 4
aisance 4
ajou@@ 4
aliments 4
alisés 4
allaient 4
allemandes 4
alli@@ 4
alliance 4
allié 4
allocution 4
altitude 4
aluminium 4
ambitieuse 4
ambition 4
ambitions 4
amené 4
ami@@ 4
amicale 4
amp@@ 4
amusé 4
amélioration 4
andere 4
ands 4
ange 4
ani@@ 4
anim@@ 4
anne 4
annonçant 4
antan 4
appareils 4
apparence 4
apparente 4
apparition 4
applique 4
apportent 4
apprenant 4
appropri@@ 4
appréci@@ 4
appréciés 4
appui 4
arbi@@ 4
architecte 4
archives 4
arguments 4
ari 4
arro@@ 4
arrête 4
arrêtée 4
art@@ 4
artifice 4
arts 4
aspects 4
ass 4
assist@@ 4
associatif 4
ataire 4
ath@@ 4
ator 4
atrices 4
atta@@ 4
attaques 4
atten@@ 4
attend@@ 4
attribuer 4
au-@@ 4
ault 4
australien 4
autobus 4
autom@@ 4
autorisé 4
autorité 4
avantages 4
averti 4
avi@@ 4
ay 4
aéroports 4
aï@@ 4
baisser 4
balade 4
banc 4
bancaire 4
banlieue 4
barils 4
bars 4
baseball 4
battant 4
battue 4
belge 4
belote 4
ben 4
billet 4
bière 4
ble@@ 4
bles 4
blonde 4
boisson 4
bombes 4
boules 4
boutiques 4
branche 4
bre@@ 4
bron@@ 4
bronze 4
bulletin 4
bur@@ 4
buteur 4
bé 4
bébé 4
bénéficie 4
bénéficié 4
bûche 4
cab@@ 4
cad@@ 4
caf@@ 4
cafés 4
caisses 4
calculer 4
camp@@ 4
camping 4
camps 4
caméras 4
cant@@ 4
cap@@ 4
captivité 4
cartons 4
catastrophes 4
catégories 4
causes 4
causé 4
cave 4
cellule 4
cessent 4
challenge 4
chambres 4
championne 4
chan@@ 4
chanteur 4
chantée 4
chard 4
chargés 4
chau@@ 4
chaus@@ 4
che-@@ 4
chement 4
cheminots 4
cheminée 4
cherché 4
chet 4
cheurs 4
chevaux 4
cheveux 4
chien 4
chimiques 4
chinoise 4
choisis 4
cht 4
chèque 4
chômage 4
ciens 4
cigarettes 4
cir@@ 4
cit@@ 4
citoyen 4
cités 4
civiles 4
claire 4
cle 4
cli@@ 4
climatiques 4
col 4
collaborateurs 4
collation 4
colle@@ 4
collective 4
collé 4
colonnes 4
comb@@ 4
commande 4
commandes 4
commentaires 4
commenter 4
commerciaux 4
commo@@ 4
commun@@ 4
communautaire 4
communiquer 4
comparaison 4
complémentaires 4
comportement 4
composée 4
comprises 4
compromettre 4
comptait 4
concentrer 4
conception 4
conclure 4
concrètes 4
confiait 4
confon@@ 4
conforme 4
conjoint 4
conjointe 4
conn@@ 4
connaissances 4
conservation 4
considèrent 4
considér@@ 4
considéré 4
considérés 4
consist@@ 4
consomm@@ 4
const@@ 4
constant 4
constante 4
constitué 4
consult@@ 4
consultation 4
consécutif 4
conséqu@@ 4
contacter 4
contacts 4
contenant 4
contenu 4
contraception 4
contraste 4
contreb@@ 4
contrer 4
converti@@ 4
convictions 4
convié 4
convoi 4
conçus 4
coordonnées 4
cop@@ 4
copain 4
cotisations 4
cou 4
coude 4
couloir 4
coup@@ 4
courir 4
courts 4
couteau 4
coutume 4
coû@@ 4
cri@@ 4
crime 4
criminels 4
critères 4
croient 4
crois@@ 4
croix 4
croyait 4
créations 4
crédibilité 4
créneaux 4
ctif 4
cté 4
culturelle 4
cy@@ 4
cycle 4
cycliste 4
cé@@ 4
dans@@ 4
danser 4
dation 4
debout 4
degré 4
dent@@ 4
dessin 4
dessins 4
dialecte 4
différente 4
dimanches 4
dimension 4
dirigé 4
dirigée 4
dis 4
disant 4
disponible 4
dispute 4
distance 4
distribu@@ 4
distribuer 4
distribué 4
dite 4
dits 4
divor@@ 4
dixième 4
do 4
doch 4
docteur 4
document 4
document@@ 4
dom@@ 4
donnera 4
douce 4
douleur 4
doyen 4
dra@@ 4
dram@@ 4
dramatique 4
drei 4
dresser 4
du-@@ 4
duel 4
durable 4
durch 4
duré 4
dus 4
dy 4
débutants 4
déclar@@ 4
décor@@ 4
décorations 4
défait 4
défensi@@ 4
déferlante 4
défunte 4
dégagé 4
dégu@@ 4
dégustation 4
déjoué 4
délinquance 4
démarré 4
démission 4
démocrates 4
démographique 4
démunis 4
dépassé 4
dépens 4
dépl@@ 4
désaccord 4
désigné 4
désire 4
détails 4
déte@@ 4
détente 4
détenus 4
détient 4
déviation 4
dévoil@@ 4
dévoilé 4
dîner 4
ec@@ 4
ecti@@ 4
ed@@ 4
ee 4
effectués 4
effraction 4
eg@@ 4
ehr 4
einte 4
el-@@ 4
ell 4
elle@@ 4
emballage 4
embl@@ 4
ement@@ 4
emmener 4
emment 4
emmené 4
empire 4
emportent 4
empê@@ 4
empêche 4
empêché 4
enberg 4
encad@@ 4
encadrer 4
ence 4
enchantée 4
end 4
enden 4
engagements 4
enlever 4
enregistrer 4
entamée 4
entendent 4
enthousiasme 4
enti@@ 4
entourée 4
entraînant 4
entrepris 4
enté 4
enveloppe 4
envisage 4
envisagé 4
erai 4
espagnol 4
espérer 4
essence 4
est-ce 4
est-elle 4
esté 4
ett 4
exam@@ 4
excellent 4
exer@@ 4
exigeant 4
existait 4
expertise 4
exploit 4
exploser 4
expositions 4
exprim@@ 4
exprimé 4
extension 4
externes 4
exéc@@ 4
ez-vous 4
fac@@ 4
faciliter 4
faille 4
faillite 4
faisons 4
fast 4
favor@@ 4
favori 4
favoris 4
fax 4
ferm@@ 4
ferroviaire 4
festive 4
feuille 4
fie 4
fier 4
figurent 4
filiale 4
finance 4
financières 4
finden 4
fins 4
fiscal 4
fixé 4
fiée 4
flam@@ 4
flamand 4
flor@@ 4
flûte 4
fo@@ 4
foie 4
fondam@@ 4
fondation 4
former 4
fortune 4
forum 4
fragile 4
fraises 4
franchir 4
franchise 4
französischen 4
fresque 4
fri@@ 4
friandises 4
frontale 4
fuir 4
fuite 4
future 4
fédér@@ 4
fédéraux 4
fê@@ 4
gain 4
gains 4
gangs 4
gants 4
garage 4
gastronomie 4
gendarmes 4
genou 4
gestes 4
get 4
ght 4
gouverneur 4
goû@@ 4
grains 4
grand-mère 4
grandi 4
gravité 4
gri@@ 4
grossesse 4
gée 4
génie 4
gés 4
h45 4
h50 4
ha 4
habillé 4
habitations 4
habituellement 4
ham@@ 4
hand@@ 4
hein 4
heureusement 4
heurté 4
historien 4
hoffen 4
hom@@ 4
horizons 4
humeur 4
hàn 4
hési@@ 4
hô@@ 4
hôtellerie 4
hôtels 4
i-@@ 4
illon 4
illum@@ 4
illégal 4
imagin@@ 4
imaginer 4
implique 4
impossible 4
imposé 4
imprim@@ 4
impôts 4
inaire 4
ination 4
inc@@ 4
incapables 4
incarne 4
incendies 4
incluant 4
inconnue 4
individus 4
industriel 4
indépend@@ 4
infirmière 4
inférieur 4
ini@@ 4
innovation 4
inqui@@ 4
insist@@ 4
insisté 4
inspiré 4
inst@@ 4
installation 4
installés 4
intensité 4
intermédiaires 4
interrogé 4
intervenants 4
intervenir 4
intégrer 4
intéressante 4
intéri@@ 4
inv@@ 4
invent@@ 4
investiture 4
invitent 4
inédite 4
ironie 4
isent 4
isolation 4
israélienne 4
israélite 4
issues 4
isti@@ 4
itant 4
ités 4
jeter 4
jeté 4
ji 4
jouets 4
jouée 4
juges 4
jur@@ 4
juridiction 4
juridiques 4
justesse 4
ken@@ 4
landais 4
larmes 4
lat@@ 4
leaders 4
lecteurs 4
leront 4
les@@ 4
letzten 4
libéré 4
limitées 4
lin@@ 4
liquidation 4
lisant 4
litre 4
littérature 4
livrer 4
livrée 4
liées 4
locataires 4
loge 4
logiciels 4
lois 4
longs 4
lu 4
lut@@ 4
lycéens 4
lég@@ 4
magn@@ 4
mai@@ 4
majoritairement 4
malaise 4
mandats 4
manifesté 4
marchandises 4
marches 4
marquant 4
marques 4
masters 4
matériels 4
me@@ 4
menacé 4
mentation 4
mentionné 4
menés 4
meu@@ 4
meurtrier 4
mille 4
mine 4
mir 4
mobil@@ 4
mobilières 4
modalités 4
mois-ci 4
mondes 4
monsieur 4
mont@@ 4
montagne 4
monté 4
monétaire 4
morale 4
mortalité 4
mourir 4
mouvements 4
multitude 4
munir 4
mus@@ 4
méd@@ 4
médicales 4
mélomanes 4
mén@@ 4
naturelle 4
nautique 4
naître 4
ndlr 4
neutre 4
noces 4
nocturne 4
nord-est 4
normalement 4
notion 4
nu@@ 4
numéros 4
nég@@ 4
négocié 4
oblig@@ 4
obligations 4
obtenus 4
occidentale 4
occupent 4
océan 4
oder 4
offensive 4
offerts 4
offices 4
ographie 4
oit 4
ok@@ 4
ol 4
ologique 4
ologiques 4
ombre 4
on-@@ 4
onde 4
opérateur 4
ordures 4
ore 4
orientation 4
origines 4
oubli@@ 4
ouvrant 4
oy@@ 4
paiement 4
pan@@ 4
panier 4
pap@@ 4
pareille 4
parité 4
parquet 4
partenaire 4
partenariat 4
parvenir 4
parvenu 4
passi@@ 4
passion 4
passionné 4
patin@@ 4
patins 4
patrons 4
pauvres 4
payées 4
pensent 4
pensionnaires 4
pensé 4
pensée 4
percussions 4
permettrait 4
personn@@ 4
personnels 4
pes 4
philosophie 4
piano 4
pierre 4
pil@@ 4
pilule 4
placer 4
plai@@ 4
plaidé 4
plaine 4
plaques 4
ple 4
pleurer 4
pli@@ 4
poi@@ 4
poing 4
polluer 4
polémique 4
populations 4
portaient 4
porteront 4
porteurs 4
portion 4
portés 4
poser 4
positionnement 4
poss@@ 4
post@@ 4
potable 4
poursuite 4
pousser 4
pouvez 4
poésie 4
pratiquer 4
prenait 4
prendra 4
press@@ 4
principalement 4
principes 4
privilégié 4
privilégiées 4
proc@@ 4
procéder 4
produ@@ 4
produite 4
prof@@ 4
profil 4
profitent 4
profits 4
profond 4
profondément 4
programmation 4
progression 4
prolon@@ 4
prostitution 4
prouver 4
provisoirement 4
provoquer 4
provoqué 4
préalable 4
précisant 4
préfèrent 4
prématuré 4
préoccupation 4
présentaient 4
présidents 4
présidée 4
prév@@ 4
prévenir 4
prévisible 4
psychologique 4
publication 4
publie 4
puissant 4
pul@@ 4
pun@@ 4
pé@@ 4
péri@@ 4
qualification 4
qualités 4
quantité 4
quarante 4
quelques-uns 4
quées 4
rac@@ 4
rachat 4
radic@@ 4
raff@@ 4
raient 4
raisonnables 4
rajou@@ 4
rale 4
rantes 4
rappelant 4
rapprochement 4
rares 4
rat 4
ravis 4
ray@@ 4
rebelles 4
rec@@ 4
recette 4
recher@@ 4
reconstituer 4
recrutement 4
recul 4
refuge 4
refus 4
reg@@ 4
regrette 4
rejet 4
rejeté 4
relancer 4
relevé 4
religions 4
relog@@ 4
remarquer 4
rembour@@ 4
remboursement 4
rembourser 4
remonte 4
rempli 4
renfor@@ 4
renforcer 4
renforcé 4
renonce 4
renouvel@@ 4
rent@@ 4
renvoyé 4
reporter 4
repose 4
représentaient 4
représentations 4
représenter 4
ressemble 4
restauration 4
retenue 4
retenus 4
retiennent 4
retourne 4
retrouvailles 4
retrouvait 4
rev@@ 4
revenant 4
revendi@@ 4
richesse 4
rideau 4
risquent 4
rite 4
riv@@ 4
rival 4
robots 4
rom@@ 4
ron@@ 4
ronde 4
rugby 4
ry 4
réaffirme 4
réalisant 4
réalisations 4
réalisés 4
récentes 4
réceptions 4
réclamer 4
réconfort 4
récur@@ 4
réductions 4
réels 4
réflexe 4
réglementation 4
répétition 4
réseaux 4
réservation 4
réserver 4
résidants 4
résistance 4
réunies 4
réunions 4
réunissait 4
réussie 4
réussit 4
réussite 4
révolte 4
révèlent 4
révél@@ 4
rêves 4
sac 4
sagte 4
sais@@ 4
saisir 4
salariale 4
salarié 4
salons 4
saluer 4
sanitaires 4
sap@@ 4
satis@@ 4
saura 4
saurait 4
sauvage 4
savoir-faire 4
savour@@ 4
scru@@ 4
sculp@@ 4
seau 4
sec 4
secon@@ 4
secouristes 4
secoué 4
secrets 4
secrète 4
semble-t-il 4
semestre 4
sensibilité 4
sent@@ 4
senti 4
serai 4
serais 4
serbe 4
sert 4
servi@@ 4
servira 4
sexuelles 4
show 4
single 4
sinistre 4
ski@@ 4
skis 4
sobre 4
soci@@ 4
solennelle 4
solutions 4
sombre 4
sont-ils 4
souci 4
souffrir 4
souhai@@ 4
soulèvement 4
soumis 4
souplesse 4
soupç@@ 4
souscription 4
souverain 4
spectateur 4
spécialement 4
sse 4
standard 4
stati@@ 4
stations 4
ste-cène 4
stein 4
strasbourgeoise 4
stress 4
subprimes 4
subventions 4
sucre 4
sud-ouest 4
suivants 4
sup@@ 4
super 4
superficie 4
supporters 4
supérieur 4
susceptible 4
suspension 4
sécheresse 4
sée 4
sévère 4
sûrement 4
t-on 4
tabagisme 4
taient 4
tap@@ 4
taxes 4
te-@@ 4
tel@@ 4
temporaires 4
tend@@ 4
tensions 4
tentent 4
tentera 4
tests 4
teur 4
textiles 4
tez 4
tiens 4
tifs 4
tim@@ 4
tionnée 4
tis@@ 4
titr@@ 4
tive 4
tlj 4
tomb@@ 4
tombés 4
tort 4
tot@@ 4
totalité 4
touchée 4
tourn@@ 4
tournent 4
tout-petits 4
tracé 4
traditions 4
tradu@@ 4
tragédie 4
traits 4
trajet 4
tram 4
transfert 4
transformation 4
transféré 4
transmettre 4
transmission 4
transporté 4
traverse 4
traverser 4
trib@@ 4
trim@@ 4
triomphe 4
trésors 4
turque 4
tâche 4
tél 4
télé@@ 4
télécommunications 4
témoigner 4
ule 4
ung 4
uniforme 4
urbain 4
urbaine 4
urgentistes 4
uré 4
use 4
utilisateurs 4
v 4
valable 4
valait 4
valu 4
variétés 4
vers@@ 4
verser 4
vidéos 4
vies 4
vigilance 4
vin@@ 4
violents 4
vir@@ 4
virtu@@ 4
vis 4
vis-à-vis 4
visibles 4
vision 4
visée 4
vivante 4
vives 4
vocation 4
voies 4
voirie 4
voler 4
voleurs 4
volume 4
voté 4
vou@@ 4
vé@@ 4
vélo 4
vœux 4
was 4
weiter 4
yans 4
z-vous 4
ze 4
zer 4
zones 4
zoo 4
Étienne 4
Étoile 4
çant 4
èle 4
ème 4
échan@@ 4
échanger 4
échoué 4
éclat 4
écrire 4
écrou@@ 4
édifice 4
élire 4
élite 4
élégance 4
émettre 4
éner@@ 4
énergétique 4
énorme 4
épar@@ 4
épaule 4
épi@@ 4
équi@@ 4
équipement 4
équitable 4
érer 4
éthique 4
étonne 4
étonnement 4
étr@@ 4
évacu@@ 4
évacuer 4
évalu@@ 4
éventuellement 4
évidence 4
évit@@ 4
évo@@ 4
-18@@ 3
-19@@ 3
-L@@ 3
-Lundi 3
-de-@@ 3
.fr 3
0,1 3
0,6 3
0.@@ 3
02.@@ 3
10,@@ 3
10-@@ 3
12,@@ 3
125 3
12e 3
13,@@ 3
16h 3
170 3
174 3
175 3
17h30 3
1905 3
1910 3
1917 3
1922 3
1940 3
1948 3
1949 3
1952 3
1954 3
1958 3
1964 3
1965 3
1971 3
1983 3
1988 3
199@@ 3
2,5 3
2-2 3
2.@@ 3
20.000 3
2013 3
20e 3
20h15 3
20h45 3
24@@ 3
28-@@ 3
3,9 3
3-0 3
30-@@ 3
37@@ 3
4,2 3
4,25 3
4-3 3
5-1 3
500@@ 3
57@@ 3
6.@@ 3
65@@ 3
68,@@ 3
7.000 3
8,@@ 3
85e 3
AB@@ 3
AE@@ 3
AL@@ 3
AM 3
AME 3
ANPE 3
ASPTTS 3
AU@@ 3
Abou 3
Abraham 3
Abrapa 3
Académie 3
Accueil 3
Accès 3
Aceh 3
Administr@@ 3
Adrien 3
Aide 3
Aiguillon 3
Aile 3
Airbus 3
Al-@@ 3
Al-Qaïda 3
Alcool 3
Alexandra 3
Alice 3
Aline 3
All 3
Allaire 3
Alliance 3
Alphonse 3
Alsace-@@ 3
Alvin 3
Alzheimer 3
Amar 3
Ambulances 3
American 3
Ami@@ 3
Amicale 3
Amiens 3
Amsterdam 3
Andrade 3
Andrée 3
Andy 3
Angaben 3
Angeles 3
Anglais 3
Ani@@ 3
Ann@@ 3
Anne-@@ 3
Annette 3
Arc 3
Arcand 3
Argol 3
Armand 3
Arn@@ 3
Arriv@@ 3
Arrê@@ 3
Art@@ 3
Artisan 3
Arts 3
Asi@@ 3
Associated 3
Attention 3
Augustine 3
Aut@@ 3
Autant 3
Autorité 3
Außen@@ 3
Ave 3
Ayant 3
BACH 3
BARR 3
BBC 3
BC 3
BTS 3
Baby 3
Bad@@ 3
Baggersee 3
Baitullah 3
Bak@@ 3
Balgau 3
Ballersdorf 3
Bank 3
Barcelone 3
Bart@@ 3
Barth 3
Barzic 3
Bas-Saint-Laurent 3
Bas@@ 3
Basi@@ 3
Batt@@ 3
Beblenheim 3
Becker 3
Bee 3
Benn@@ 3
Bennwihr 3
Benoit 3
Bet@@ 3
Betty 3
Bevölkerung 3
Bil@@ 3
Bills 3
Bin@@ 3
Bloch 3
Blotzheim 3
Blue 3
Bodin 3
Boecklin 3
Boisclair 3
Bolivie 3
Bolufer 3
Boogie 3
Boris 3
Bormio 3
Boulet 3
Bourdais 3
Bourgois 3
Bouxwiller 3
Bran@@ 3
Breton 3
Brigitte 3
Bro@@ 3
Brun@@ 3
Bryant 3
Brydon 3
Budapest 3
Bul@@ 3
Bus 3
Bé@@ 3
C4 3
CDC 3
CE 3
CE@@ 3
CF@@ 3
CFDT 3
CIA 3
Cad@@ 3
Caennais 3
Cah@@ 3
Cal@@ 3
Calais 3
Camp@@ 3
Canadienne 3
Cap@@ 3
Capgemini 3
Caraïbes 3
Carey 3
Caritas 3
Carnaval 3
Carpentier 3
Cassard 3
Castro 3
Cathy 3
Celtic 3
Cependant 3
Chacun 3
Champagne 3
Championnat 3
Charlotte 3
Charsadda 3
Chasse 3
Cheikh 3
Chelsea 3
Chil@@ 3
Chipmunks 3
Châteaux 3
Ci@@ 3
Cie 3
Cit@@ 3
Citigroup 3
Clausewitz 3
Cler@@ 3
Clim@@ 3
Clo@@ 3
Clément 3
Coco 3
Cohen 3
Collecte 3
Communes 3
Conférence 3
Constitution 3
Consultations 3
Cont@@ 3
Contr@@ 3
Contrairement 3
Cop@@ 3
Corée 3
Coup 3
Cr@@ 3
Crnjanski 3
Cronenbourg 3
Cru@@ 3
Cyril 3
Cène 3
Côte 3
Côte-@@ 3
D.@@ 3
DEN@@ 3
Dames 3
Danse 3
Dernières 3
Deuxième 3
Dev@@ 3
Dey@@ 3
Diego 3
Diet@@ 3
Dietrich 3
Dim@@ 3
Dimas 3
Dinsheim-sur-Bruche 3
Dire@@ 3
Disney 3
Division 3
Dj@@ 3
Djihad 3
Donc 3
Donn@@ 3
Dorion-Coupal 3
Dorlisheim 3
Douce 3
Dre@@ 3
Drury 3
Dubois 3
Duceppe 3
Dupont 3
Durée 3
Duttlenheim 3
Défense 3
Désormais 3
E. 3
EC@@ 3
ES 3
ES@@ 3
Eau 3
Eck@@ 3
Edge 3
Edwards 3
Eff@@ 3
Eh 3
Electricité 3
Elise 3
Ell@@ 3
Els@@ 3
Emily 3
Empire 3
Energy 3
Enfants 3
Engel 3
Engel@@ 3
Environ 3
Erik 3
Ern@@ 3
Ernest 3
Eschbach 3
Esp@@ 3
Espagnols 3
Esprit 3
Ess@@ 3
Etienne 3
Etoile 3
Eva 3
Everton 3
Excellence 3
Exchange 3
FA@@ 3
FE 3
FI@@ 3
Faire 3
Farandole 3
Federer 3
Ferr@@ 3
Ferrette 3
Fi@@ 3
Fichter 3
Fils 3
Finlande 3
Fle@@ 3
Fleurs 3
Florent 3
Florimont 3
Fonds 3
Fontenay 3
Football-club 3
Fou@@ 3
Frank 3
Froehly 3
Furlan 3
Futsal 3
Félix 3
GEN 3
Gainey 3
Gall@@ 3
Gallery 3
Gallimard 3
Gas@@ 3
Gaston 3
Gazprom 3
Geis@@ 3
Gen@@ 3
Geor@@ 3
Gerber 3
Geschichte 3
Grand@@ 3
Grandadam 3
Gre@@ 3
Grendelbruch 3
Grosh@@ 3
Gru@@ 3
Grégoire 3
Guebwiller 3
Guerin 3
Guide 3
Guil@@ 3
Gustave 3
Gutenberg 3
Gwénaelle 3
Générale 3
H00 3
HAR@@ 3
HEIM 3
HEIM.- 3
HO@@ 3
HOUSE.- 3
HSBC 3
Ham@@ 3
Hamrlik 3
Hartsburg 3
Hass@@ 3
Hautepierre 3
Hav@@ 3
Hawks 3
Haïti 3
Hei@@ 3
Helmand 3
Henri-@@ 3
Herrlisheim 3
Hert@@ 3
Heureusement 3
Hindisheim 3
Hirtzfelden 3
Hit@@ 3
Hoerdt 3
Hoff@@ 3
Hollande 3
Hollywood 3
Home 3
Hong 3
Hongrie 3
Houssen 3
Huber 3
Hussein 3
Huttenheim 3
Hyundai 3
Hér@@ 3
I. 3
IL@@ 3
ING 3
IR@@ 3
IS 3
Ile-@@ 3
Illfurth 3
Indonésie 3
Infoman 3
Information 3
Ingwiller 3
Insee 3
Inter 3
Interac 3
Inv@@ 3
Is@@ 3
Issenheim 3
JOURNAL 3
Jack 3
Jahre 3
Jam@@ 3
Jamais 3
Jardin 3
Jay 3
Je@@ 3
Jean-Baptiste 3
Jean-François 3
Jean@@ 3
Jenna 3
Jer@@ 3
Jeu 3
Jeune 3
Jo 3
Joséphine 3
Jour@@ 3
Juppé 3
Jura 3
Jérémy 3
Kansas 3
Karcher 3
Keller 3
Kempf 3
Kin@@ 3
Kinder@@ 3
Kings 3
Kir@@ 3
Kling 3
Koch 3
Koeberlé 3
Komisarek 3
Kretz 3
Krist@@ 3
Kyle 3
Lad@@ 3
Lak@@ 3
Lake 3
Land@@ 3
Landes 3
Lap@@ 3
Lay@@ 3
Lecavalier 3
Lee 3
Leimbach 3
Len@@ 3
Leterme 3
Levy 3
Libération 3
Liebherr 3
Lienz 3
Lipsheim 3
Littérature 3
Loi 3
Longueuil 3
Loos 3
Lopez 3
Lou@@ 3
Louis@@ 3
Louxor 3
Luci@@ 3
Ludovic 3
Lut@@ 3
Ly@@ 3
Léonard 3
Lévesque 3
Madeleine 3
Mag@@ 3
Mah@@ 3
Maineiacs 3
Maison-Blanche 3
Malartic 3
Mali 3
Malraux 3
Mam@@ 3
Manspach 3
Mar 3
Marais 3
Marcelline 3
March@@ 3
Marche 3
Marcheurs 3
Marckolsheim 3
Marianne 3
Marie-Jos@@ 3
Marion 3
Marlenheim 3
Mas@@ 3
Massachusetts 3
Mat@@ 3
Math@@ 3
Matt 3
Mauri@@ 3
Max 3
Maxim 3
Mbeki 3
McCain 3
Merci 3
Messe 3
Met@@ 3
Meyenheim 3
Miguel 3
Mik@@ 3
Mil@@ 3
Mili@@ 3
Mill@@ 3
Miller 3
Millionen 3
Minnesota 3
MoDem 3
Mol@@ 3
Monaten 3
Mondial 3
Mongeau 3
Monique 3
Monswiller 3
Montagne-Verte 3
Montana 3
Montparnasse 3
Montré@@ 3
Morin 3
Mos@@ 3
Moss 3
Mountaineers 3
Moussa 3
Munich 3
Municip@@ 3
Musau 3
Music 3
Mwai 3
Mésanges 3
N.@@ 3
NBA 3
NIEDER@@ 3
Nairobi 3
Naples 3
Nasti 3
Natacha 3
Neige 3
Nizar 3
Noces 3
Noir 3
Nom@@ 3
Nouakchott 3
Nouv@@ 3
Nouveau-Brunswick 3
Nouvelles 3
O' 3
OCDE 3
ON 3
OT@@ 3
Obama 3
Oberhausbergen 3
Obermodern 3
Obermorschwiller 3
Obersaasheim 3
Objectif 3
Oct@@ 3
Off@@ 3
Officiellement 3
Olympique 3
Open 3
Orchestre 3
Osisko 3
Ott 3
Ou@@ 3
Outremont 3
Ouverte 3
Ouzbékistan 3
Où 3
PARIS 3
PE 3
PI@@ 3
PME 3
PQ 3
Pacifique 3
Pad@@ 3
Page 3
Paix 3
Pal@@ 3
Pan 3
Pan@@ 3
Paquin 3
Pardubice 3
Pat@@ 3
Pau@@ 3
Pav@@ 3
Penguins 3
Perreau 3
Peugeot 3
Peut-être 3
Pfaffenheim 3
Pic@@ 3
Piché 3
Pierre-@@ 3
Pietro 3
Plan 3
Plan@@ 3
Portugais 3
Portugal 3
Première 3
Presque 3
Press 3
Prince 3
Prodi 3
Provence 3
Présent@@ 3
Pun@@ 3
Pyongyang 3
Quint@@ 3
RATP 3
RE@@ 3
RF@@ 3
RTT 3
Rab@@ 3
Rafic 3
Ram@@ 3
Rapidement 3
Rav@@ 3
Ray 3
Rei@@ 3
Reiss 3
Ressources 3
Restos 3
Restrepo 3
Retour 3
Retraite 3
Rhénan 3
Ried 3
Riesemann 3
River 3
Rixheim 3
Rochefort 3
Rock 3
Roderen 3
Roeschwoog 3
Roi 3
Romney 3
Ron@@ 3
Rosaire 3
Rosbank 3
Ross 3
Rossberg 3
Rossi 3
Rot@@ 3
Rousseau 3
Rudolf 3
Ryad 3
Ryan 3
Régional 3
Réjean 3
Réouverture 3
Réseau 3
Réveillon 3
SA 3
SDF 3
SE@@ 3
SEC 3
SG 3
SI@@ 3
SMS 3
SO@@ 3
SR 3
SRC 3
STEINSELTZ 3
Sa@@ 3
Saint- 3
Saint-Antoine 3
Saint-Dié 3
Saint-Etienne 3
Saint-Germain 3
Saint-Maurice 3
Saint-Michel 3
Saint-Morand 3
Saint-Nicolas 3
Sainte-Marie-aux-Mines 3
Saku 3
Salle 3
Salut 3
Salv@@ 3
Samsonite 3
Sarrebourg 3
Sauf 3
Saul@@ 3
Sauv@@ 3
Sauveur 3
Sc@@ 3
Scheibenhard 3
Schlosser 3
Schmidt 3
Schoenenbourg 3
Schroeter 3
Schultz 3
Schwartz 3
Sciences 3
Secrétariat 3
Seiler 3
Sem@@ 3
Ser@@ 3
Seuls 3
Sh@@ 3
Sherpao 3
Shinzo 3
Signe 3
Sigolsheim 3
Sil@@ 3
Sinon 3
Ski 3
Sleimane 3
Slovaquie 3
Soixante-@@ 3
Solidarité 3
Sonia 3
Sonntag 3
Sorel 3
Soudanais 3
Souff@@ 3
Souffelweyersheim 3
Souleïmane 3
Sousa 3
Spectacle 3
Spi@@ 3
Spring@@ 3
St-André 3
St-Etienne 3
St-Jean 3
Stadium 3
Standard 3
Steinbach 3
Stendhal 3
Steven 3
Stingers 3
Strasbourgeois 3
Stru@@ 3
Studer 3
Sugar 3
Suite 3
Sundaravej 3
Super 3
Super@@ 3
Suzanne 3
Suède 3
Syrie 3
Sé@@ 3
Séoul 3
Séverine 3
Sûreté 3
TER@@ 3
TS@@ 3
TTC 3
Tab@@ 3
Table 3
Tableaux 3
Tal@@ 3
Tampa 3
Tani 3
Tant 3
Tch@@ 3
Tchadiens 3
Tedeschi 3
Tel@@ 3
Tennis 3
Terre 3
Texas 3
Thabo 3
Thal-Marmoutier 3
Thi@@ 3
Thom@@ 3
Thérèse 3
Tim 3
Tim@@ 3
Tir@@ 3
Tomas 3
Toshiba 3
Toulouse 3
Trabelsi 3
Tran@@ 3
Transit 3
Transports 3
Trapp 3
Triglobal 3
Trois-@@ 3
Tu@@ 3
Turckheim 3
Tél@@ 3
Têtes 3
UN@@ 3
UR@@ 3
UX 3
Unedic 3
Uni@@ 3
United 3
VR@@ 3
Vague 3
Valentin 3
Vanessa 3
Varsovie 3
Vatican 3
Vergès 3
Verne 3
Versailles 3
Version 3
Victime 3
Victoire 3
Victor@@ 3
Vieux 3
Vieux-@@ 3
Vieux-Thann 3
Vill@@ 3
Village 3
Vo@@ 3
Vogel 3
Vokoun 3
Volgelsheim 3
Volvo 3
Vos@@ 3
Voyage 3
W 3
WOERTH 3
Wagner 3
Wahaha 3
Walter 3
Wantzenau 3
Weis@@ 3
White 3
Wi-Fi 3
Will 3
Will@@ 3
Wine 3
Winkelberg 3
Wintzenheim 3
Wisconsin 3
Wittelsheim 3
Witters@@ 3
Wittersheim 3
World 3
Wri@@ 3
Wybrecht 3
XIXe 3
XVIIIe 3
Xavier 3
Yann 3
Youville 3
Yuki 3
Yvan 3
Yvonne 3
Zeit 3
Zer@@ 3
Zuma 3
abandonné 3
abattre 3
abattu 3
aber 3
abolir 3
abolition 3
abondamment 3
abondante 3
aboutir 3
abri 3
absences 3
ac 3
accabl@@ 3
accepte 3
accidentelle 3
accompli 3
accomplir 3
accorder 3
accoutumée 3
accru 3
accueill@@ 3
accueillis 3
accumulés 3
accus@@ 3
accusant 3
accusation 3
accusations 3
accéder 3
ace 3
ach 3
achar@@ 3
acheminer 3
acher 3
achev@@ 3
acker 3
acol@@ 3
acquise 3
acquittement 3
acquitté 3
adaptés 3
ade@@ 3
ader 3
admi@@ 3
adoptée 3
adossé 3
adress@@ 3
adversaires 3
affichent 3
afficher 3
affilée 3
affirm@@ 3
affirmer 3
affrontement 3
afghan 3
ageait 3
agences 3
ager 3
agers 3
agonie 3
agresseur 3
agresseurs 3
agressivité 3
agrément 3
agrémentée 3
ah 3
aides 3
aigu@@ 3
ail@@ 3
ailier 3
aillé 3
aines 3
aisse 3
ait-il 3
ait-on 3
ajoutée 3
ak 3
al-Qaida 3
ala 3
alar@@ 3
alcooliques 3
aliment@@ 3
alimentation 3
alimenté 3
alis 3
alise 3
alisent 3
alités 3
allem 3
allocataires 3
allure 3
allures 3
allés 3
alourdir 3
alsacienne 3
alsaciennes 3
alt@@ 3
alten 3
alé@@ 3
amb@@ 3
ambitieux 3
ambulances 3
ame 3
amende 3
amendes 3
amer 3
amertume 3
amor@@ 3
amour@@ 3
ampli@@ 3
amus@@ 3
analy@@ 3
analyse 3
analyste 3
animent 3
annoncera 3
annuler 3
antenne 3
anticip@@ 3
anticipée 3
antisyrienne 3
aperçu 3
app@@ 3
appartements 3
appartenance 3
appartient 3
appelait 3
appeler 3
appell@@ 3
appellent 3
appelés 3
applau@@ 3
applaudissements 3
appliquée 3
apprend 3
appréciation 3
apprécie 3
appréciée 3
apprête 3
appuie 3
après-@@ 3
apéritif 3
arché@@ 3
ard@@ 3
are 3
ares 3
argile 3
argumentaire 3
ari@@ 3
arisation 3
armement 3
arn@@ 3
arrangements 3
arrestation 3
arrière-grand-mère 3
arrosage 3
arrêtent 3
artillerie 3
arômes 3
ascenseur 3
asiatique 3
asiatiques 3
aspi@@ 3
assassiné 3
asseoir 3
assimil@@ 3
assises 3
assiste 3
associant 3
associative 3
associer 3
associées 3
assurance-@@ 3
assurent 3
assés 3
ataires 3
athlète 3
athlétisme 3
atique 3
attaquer 3
attei@@ 3
atteints 3
attestations 3
attribu@@ 3
attribués 3
atzheim 3
auberge 3
audiences 3
augmentant 3
aurait-il 3
aurons 3
australienne 3
authenticité 3
auto 3
autoc@@ 3
autorise 3
avanc@@ 3
avantag@@ 3
aventures 3
avez 3
avocate 3
avoue 3
axe 3
axé 3
az@@ 3
aéro@@ 3
aîné 3
aîtra 3
ba 3
bab@@ 3
bac 3
bach-@@ 3
bacs 3
bad@@ 3
bagarre 3
balay@@ 3
balayage 3
ball 3
bancaires 3
bancs 3
baptisée 3
baptêmes 3
bar 3
barème 3
bastion 3
basée 3
bat@@ 3
batailles 3
battues 3
battus 3
bec 3
bel@@ 3
belges 3
benne 3
bercé 3
bizarre 3
blague 3
blan@@ 3
blanch@@ 3
blement 3
bleu 3
blindé 3
bloc 3
blogs 3
bombardements 3
bond 3
bords 3
bordure 3
boss@@ 3
bosse 3
bouclée 3
bougies 3
boulanger 3
boulangerie 3
boulot 3
bouquet 3
bour@@ 3
bourse 3
bouscul@@ 3
boussole 3
boîtes 3
bra@@ 3
brillante 3
brisé 3
bro@@ 3
bronn 3
brouill@@ 3
bru@@ 3
bulletins 3
by 3
bénéfici@@ 3
bénéficient 3
cabaret 3
cach@@ 3
cacher 3
caché 3
cachés 3
cadette 3
calcul@@ 3
calèche 3
cam@@ 3
camarades 3
candidate 3
capables 3
capacités 3
cape 3
capit@@ 3
capitalisation 3
capitalisme 3
capitaux 3
capter 3
capu@@ 3
caractéristique 3
caravane 3
carburant 3
cardi@@ 3
cardinal 3
cargaison 3
carnet 3
carré 3
caspase-1 3
casse 3
cassée 3
cat@@ 3
catalogue 3
catastrophe 3
cations 3
cative 3
catéch@@ 3
caus@@ 3
ceci 3
cell@@ 3
cellules 3
celui-là 3
cens@@ 3
centr@@ 3
centrales 3
cercueil 3
cess@@ 3
cessions 3
cessé 3
ceux-ci 3
chagrin 3
chaise 3
chait 3
chalets 3
chaleureux 3
chameau 3
champ 3
championnats 3
champs 3
chanc@@ 3
chante 3
chanteurs 3
chapeau 3
chaudière 3
chauff@@ 3
chauffée 3
chen@@ 3
cherchent 3
cheur 3
chiites 3
chinoises 3
chirurgie 3
chocolats 3
chorégraphe 3
chou 3
chrétien 3
chè@@ 3
chômeurs 3
ci-contre 3
cibl@@ 3
ciblé 3
cie 3
cieux 3
cin 3
cinquante 3
circulait 3
cirque 3
cite 3
citer 3
cière 3
ckel 3
cks 3
claires 3
clandest@@ 3
classé 3
clefs 3
cles 3
clichés 3
clignotant 3
clinique 3
cliniques 3
cloche 3
coalition 3
coffre 3
coh@@ 3
cohérence 3
coiff@@ 3
coinc@@ 3
coincé 3
colis 3
collaboratrice 3
collectes 3
collecteur 3
collectif 3
collectifs 3
collectivités 3
collectés 3
colline 3
collégi@@ 3
collégiale 3
colmarien 3
colombiennes 3
colon@@ 3
colonne 3
coloration 3
combinaisons 3
combinés 3
combler 3
combustible 3
comman@@ 3
commandés 3
commerciale 3
commercialisation 3
communautaires 3
comparer 3
compassion 3
compens@@ 3
complexes 3
complémentaire 3
compositeur 3
compositions 3
comprends 3
comprom@@ 3
compteurs 3
comptoir 3
compétences 3
concentration 3
concentre 3
concept 3
concern@@ 3
concernées 3
concilier 3
concitoyens 3
conclusion 3
conclusions 3
concret 3
concurrent 3
condamnation 3
condamne 3
condi@@ 3
confectionné 3
confessions 3
confi@@ 3
confiants 3
configuration 3
confirmation 3
confirmer 3
confirmée 3
confisqué 3
conjointement 3
conjoncture 3
conju@@ 3
connaissais 3
connaissance 3
conquis 3
conquête 3
cons 3
cons@@ 3
consacrée 3
conscient 3
conseill@@ 3
conservatrice 3
conserver 3
considérée 3
constru@@ 3
consul@@ 3
consulter 3
consécutives 3
contem@@ 3
contenir 3
content 3
contexte 3
contin@@ 3
continuera 3
contournement 3
contraint 3
contraintes 3
contribu@@ 3
contrô@@ 3
contrôler 3
contrôlé 3
conven@@ 3
convergence 3
convi@@ 3
convives 3
convivial 3
conviviale 3
convoit@@ 3
copie 3
correspon@@ 3
corruption 3
cortège 3
cos@@ 3
costume 3
costumes 3
cot 3
couche 3
couler 3
couper 3
couples 3
coupées 3
couver@@ 3
couverte 3
couvrir 3
coïncidence 3
coûter 3
craignent 3
creu@@ 3
criminalité 3
crises 3
critiqué 3
croissante 3
cross 3
croyaient 3
crustacés 3
crâne 3
créateur 3
cte 3
cter 3
cteurs 3
ctive 3
cule 3
cynique 3
céder 3
célèbres 3
célébrations 3
cérémonies 3
côte 3
d-@@ 3
da@@ 3
dangerosité 3
dante 3
datant 3
day 3
degrés 3
demandait 3
demandent 3
demandeurs 3
demeur@@ 3
demeurait 3
demeurent 3
demeuré 3
demi-heure 3
densité 3
dera 3
deren 3
ders 3
desc@@ 3
descendant 3
design 3
dessert 3
dessiner 3
devin@@ 3
deçà 3
dia 3
diabétique 3
diapason 3
dic@@ 3
dictature 3
difficiles 3
diffusion 3
diffusée 3
différences 3
dignes 3
dignité 3
diminu@@ 3
din@@ 3
diplomate 3
diplomates 3
diplomatie 3
diplomatique 3
diplômes 3
dira 3
directe 3
disc@@ 3
discipl@@ 3
discipline 3
discrète 3
discrétion 3
discussion 3
discuter 3
disposant 3
disput@@ 3
disques 3
distill@@ 3
distin@@ 3
distributeurs 3
dit-on 3
diversité 3
djembé 3
dler 3
doigt 3
domiciliés 3
domin@@ 3
domine 3
don@@ 3
dopage 3
dopants 3
dorment 3
dort 3
dose 3
doter 3
doté 3
doucement 3
douceurs 3
douche 3
douter 3
douzaine 3
dress@@ 3
dri@@ 3
drogue 3
ds@@ 3
dt 3
duels 3
débar@@ 3
débor@@ 3
débute 3
débuter 3
débutera 3
décennies 3
déception 3
décev@@ 3
déch@@ 3
déci@@ 3
décisi@@ 3
déclen@@ 3
décollé 3
décour@@ 3
découvre 3
décrit 3
décède 3
défi@@ 3
déficit 3
défilé 3
définit 3
défunts 3
déguster 3
dégâts 3
déjeuner 3
déli@@ 3
délibéré 3
délicat 3
déloc@@ 3
délégué 3
démar@@ 3
démesure 3
démissionner 3
démontrer 3
démontré 3
dénei@@ 3
dénoncer 3
dépanneur 3
départemental 3
départementaux 3
dépass@@ 3
dépassement 3
dépend@@ 3
déplacé 3
déplacés 3
déploiement 3
déplore 3
déploré 3
déployées 3
déposé 3
déposée 3
dépressi@@ 3
dépréciations 3
dépê@@ 3
dér@@ 3
déroule 3
déroulement 3
déroulée 3
désagré@@ 3
désignerait 3
détaillant 3
détermination 3
détruire 3
détruite 3
déçus 3
e-t-on 3
ec 3
ef@@ 3
effacé 3
effectifs 3
effondrement 3
effondré 3
eil 3
eille 3
einmal 3
eli@@ 3
els@@ 3
emann 3
employeurs 3
employé 3
employée 3
emprun@@ 3
enb@@ 3
enchaîn@@ 3
enchaîner 3
enclins 3
enclos 3
encontre 3
encour@@ 3
encourage 3
encouragements 3
encourent 3
endommagée 3
ener 3
enfer 3
enflammé 3
engagée 3
enheim 3
enjeux 3
enquêter 3
enregistré 3
enrich@@ 3
enseign@@ 3
enseignants 3
enseignes 3
ensi@@ 3
ent-@@ 3
enthousiaste 3
enti 3
entonner 3
entonné 3
entourant 3
entraide 3
entraîn@@ 3
entraîner 3
entraînés 3
entre-@@ 3
entremise 3
entreprend 3
entrepôt 3
entré 3
entêtement 3
envah@@ 3
envergure 3
envis@@ 3
envisagent 3
envolée 3
enz@@ 3
eries 3
erklärt 3
ernes 3
ersten 3
escroquerie 3
espèce 3
espèrent 3
ess 3
essayer 3
essayé 3
esser 3
ession 3
estimait 3
estimant 3
estimée 3
estomac 3
eter 3
ett@@ 3
eurement 3
ev@@ 3
ex-Premier 3
exc@@ 3
exceptionnel 3
exceptionnelles 3
excessif 3
excités 3
exclu@@ 3
exclusivement 3
exemplaires 3
exerce 3
exercé 3
exi@@ 3
exige 3
exist@@ 3
existant 3
exister 3
exon@@ 3
exonération 3
expansion 3
explo@@ 3
exploits 3
explosif 3
explosive 3
explosé 3
exportations 3
exposé 3
exposées 3
exprimer 3
expédi@@ 3
expériment@@ 3
extr@@ 3
extraire 3
extrait 3
extéri@@ 3
ey 3
f-@@ 3
fabri@@ 3
facilité 3
factions 3
fai@@ 3
faibles 3
faiblesse 3
fais 3
fais@@ 3
fal@@ 3
fameuse 3
fanfare 3
fans 3
fantastique 3
far@@ 3
farine 3
fascin@@ 3
fasciste 3
favoritisme 3
faç@@ 3
façades 3
fe@@ 3
fenêtres 3
ferment 3
fermé@@ 3
fermées 3
ferroviaires 3
figurant 3
figurer 3
fili@@ 3
finales 3
financé 3
financée 3
fiscales 3
fiscalité 3
fiscaux 3
fixe 3
fixer 3
fié 3
flacon 3
flag@@ 3
flambée 3
fleur 3
fleurs 3
flexibilité 3
flo@@ 3
flot 3
flott@@ 3
flotte 3
flu@@ 3
flèche 3
folies 3
fonctions 3
for 3
forcé 3
forfait 3
form@@ 3
formellement 3
forment 3
formes 3
formé 3
forçant 3
fourchette 3
fournit 3
fra@@ 3
frac@@ 3
fran@@ 3
franch@@ 3
franchement 3
franchi 3
franco-@@ 3
francophone 3
frappant 3
frapper 3
frappée 3
froide 3
frontaliers 3
fruité 3
fréquemment 3
fum@@ 3
fur 3
fâ@@ 3
fé@@ 3
fédérales 3
félicitations 3
félicité 3
fém. 3
féminine 3
fériés 3
féro@@ 3
fêtards 3
gang 3
gardé 3
garni 3
gaz@@ 3
geht 3
gelé 3
gera 3
gers 3
gersheim 3
gique 3
glacée 3
gler 3
glisse 3
glisser 3
global 3
globale 3
globalement 3
gny 3
go@@ 3
golfe 3
gorge 3
gourmand@@ 3
gouvernementale 3
gra@@ 3
graisse 3
grandement 3
grandir 3
grav@@ 3
gravures 3
gren@@ 3
grim@@ 3
grimpé 3
grivèlerie 3
guerres 3
gueule 3
gui 3
gui@@ 3
guide 3
guitare 3
gén@@ 3
générales 3
générées 3
gérontologique 3
gérée 3
gê@@ 3
gêne 3
h-@@ 3
h00 3
h20 3
h30 3
habe 3
habile 3
habill@@ 3
habituelles 3
halle 3
handicap@@ 3
harmonica 3
haus@@ 3
haut-@@ 3
heim-@@ 3
her 3
herbe 3
heur@@ 3
heute 3
hi 3
holding 3
hollywoodiens 3
homologues 3
honnêteté 3
horizontale 3
hormon@@ 3
horri@@ 3
hospit@@ 3
hospitalisation 3
humains 3
human@@ 3
hur@@ 3
hypo@@ 3
hypothèse 3
hélicoptère 3
héritage 3
hésitent 3
hôte 3
iPhone 3
ia 3
ic 3
identifi@@ 3
identifié 3
identique 3
idé@@ 3
iens 3
iers 3
ihre 3
illustre 3
illustrer 3
imaginaient 3
imaginé 3
immenses 3
immédiate 3
impli@@ 3
implication 3
implicitement 3
import@@ 3
imposition 3
impér@@ 3
inacceptable 3
inage 3
incendiées 3
incertitude 3
incit@@ 3
incl@@ 3
incon@@ 3
inconnu 3
inconnues 3
incrimin@@ 3
incroyablement 3
inculpation 3
incursion 3
indemnité 3
indexation 3
indien 3
indispensable 3
individu 3
individu@@ 3
individuellement 3
industriels 3
industries 3
indépendant 3
indépendante 3
inement 3
inent 3
informatique 3
informe 3
initiation 3
inje@@ 3
injustice 3
innocence 3
innov@@ 3
inondations 3
inquiètent 3
inquiétudes 3
ins@@ 3
insistant 3
inspiration 3
inspirer 3
installe 3
instants 3
instauration 3
institutionnels 3
institutions 3
instrumentistes 3
insulté 3
intentions 3
intercommunale 3
internationales 3
internautes 3
interne 3
interprètes 3
interro@@ 3
intervenue 3
intervient 3
intim@@ 3
intitul@@ 3
intitulé 3
intégr@@ 3
intégrale 3
intér@@ 3
intéressent 3
intéressés 3
invaincue 3
inverse 3
invit@@ 3
irait 3
irakienne 3
isait 3
isl@@ 3
islamiste 3
isol@@ 3
isolées 3
isseur 3
issi 3
isson 3
issus 3
istique 3
ite 3
itée 3
jam@@ 3
jambe 3
join@@ 3
joint 3
joyeuses 3
jui@@ 3
juifs 3
junge 3
junte 3
juridique 3
jus@@ 3
justificatif 3
ka 3
kann 3
keine 3
kleinen 3
ko 3
ks 3
lagunes 3
lancers 3
lancés 3
langage 3
lant 3
lantes 3
latine 3
lauréats 3
le-Bas 3
lement 3
lent 3
ler-@@ 3
let 3
leçon 3
libanais 3
licence 3
licenciement 3
licenciés 3
liegt 3
lique 3
liques 3
liquidités 3
litiges 3
litres 3
littéraire 3
littéralement 3
lité 3
lle 3
ller 3
llé 3
logiciel 3
lon@@ 3
lorrain 3
lotissement 3
lots 3
lourds 3
ls 3
lt 3
lumières 3
lune 3
lux@@ 3
là-dessus 3
lâ@@ 3
lève 3
lée 3
légal 3
législ@@ 3
légitimité 3
mach@@ 3
madame 3
magasinage 3
magasiner 3
magnifiques 3
main@@ 3
maintenance 3
maintient 3
maj@@ 3
majeures 3
majeurs 3
major@@ 3
majoritaires 3
mali@@ 3
mamans 3
manager 3
manifest@@ 3
manifestants 3
manipul@@ 3
manteau 3
maquillage 3
marcheurs 3
marges 3
marine 3
marins 3
marionnettes 3
marié 3
maroc@@ 3
marqu@@ 3
marquants 3
marqueur 3
marqueurs 3
marxiste 3
marée 3
mascul@@ 3
massivement 3
mauvaises 3
maîtr@@ 3
maîtrisé 3
mehr 3
mehrere 3
mel@@ 3
menacée 3
mennonite 3
mensuellement 3
menées 3
merveille 3
mes@@ 3
messieurs 3
mesur@@ 3
mesurer 3
meurent 3
meurt 3
mi-décembre 3
micro 3
milit@@ 3
militants 3
mince 3
minces 3
minerai 3
mini 3
minier 3
minimale 3
minorités 3
mit@@ 3
mobiles 3
mobilier 3
mobilisé 3
modernes 3
modeste 3
modération 3
moindres 3
moines 3
molécules 3
mom@@ 3
monarchie 3
mond@@ 3
monte 3
montrant 3
monument 3
morceaux 3
moteur 3
motifs 3
motivations 3
motoneigistes 3
motrices 3
mouv@@ 3
mouvance 3
moy@@ 3
mu@@ 3
mulhousi@@ 3
mulhousienne 3
multiplication 3
multiplient 3
music 3
musicien 3
musiques 3
my@@ 3
mâle 3
mè@@ 3
médecine 3
médiatique 3
médicaments 3
médiév@@ 3
médiéval 3
még@@ 3
mélanger 3
méritent 3
mérité 3
métaux 3
méthode 3
mê@@ 3
mû@@ 3
müssen 3
n'roll 3
narr@@ 3
nat@@ 3
nationaux 3
navals 3
navi@@ 3
navig@@ 3
nef 3
ner@@ 3
neur@@ 3
neuve 3
ney 3
niques 3
nière 3
noble 3
noirs 3
nomm@@ 3
nommée 3
non@@ 3
nord-ouest 3
notoriété 3
nourris 3
noël 3
nuage 3
nuits 3
nur 3
nécessairement 3
nécessite 3
négatives 3
obligatoire 3
obliger 3
observe 3
observer 3
observée 3
occupée 3
och 3
octro@@ 3
octroyé 3
offensif 3
offerte 3
offici@@ 3
offrant 3
oir@@ 3
oirs 3
old 3
ole 3
oli@@ 3
ome 3
omni@@ 3
ond@@ 3
onnette 3
onnier 3
onnée 3
onnés 3
oph@@ 3
ophone 3
opinion 3
opportunité 3
opposant 3
opposée 3
optim@@ 3
opéra 3
opérateurs 3
oral 3
oration 3
ordonnances 3
ordonné 3
orer 3
organes 3
organismes 3
orge 3
orial 3
orientations 3
orium 3
orthodoxe 3
ose 3
osité 3
ost@@ 3
oue 3
oui 3
ouille 3
ouragans 3
ouvertures 3
ouvriers 3
ovation 3
ovic 3
oyer 3
paie 3
paire 3
palpable 3
panne 3
papiers 3
parallèle 3
paraly@@ 3
paramédicaux 3
paraphé 3
parcour@@ 3
pare-brise 3
parfait 3
parfum 3
parfums 3
parisiens 3
parlaient 3
partageant 3
partenariats 3
partent 3
parterre 3
participeront 3
particulière 3
partira 3
paru 3
passager 3
passait 3
passants 3
passiert 3
passif 3
pastorale 3
patience 3
patronales 3
pattes 3
pauvre 3
payés 3
pein@@ 3
pel@@ 3
pendu 3
perdus 3
permanent 3
permettront 3
perspectives 3
perturb@@ 3
perç@@ 3
pesticides 3
peu@@ 3
pharma@@ 3
phénomènes 3
pign@@ 3
pilier 3
pionnier 3
piscine 3
pist@@ 3
placés 3
plages 3
plaines 3
planche 3
planchent 3
plancher 3
planification 3
plantations 3
plastique 3
plonge 3
poignée 3
pointé 3
poitrine 3
polis 3
politicien 3
politiciens 3
poll@@ 3
pollu@@ 3
pom@@ 3
pontife 3
port 3
portail 3
portugais 3
portées 3
posent 3
postale 3
postes 3
posés 3
pot@@ 3
potiers 3
pouce 3
poursuites 3
poursuivie 3
poèmes 3
pratiquent 3
prendrait 3
prenne 3
prenons 3
prescrire 3
prim@@ 3
prin@@ 3
prioritaire 3
privilégiés 3
privées 3
prières 3
procurer 3
procédures 3
productions 3
professionn@@ 3
professionnel 3
profit@@ 3
profitant 3
profondeur 3
projections 3
prolongé 3
promet 3
promu 3
pronon@@ 3
propag@@ 3
propagande 3
propice 3
proportion 3
proposait 3
proposant 3
proposée 3
prot@@ 3
protest@@ 3
protestant 3
protège 3
provenaient 3
provenir 3
provinciales 3
provoquant 3
pru@@ 3
pré-@@ 3
précipitations 3
précise-t-elle 3
précédente 3
précédents 3
précédé 3
précédée 3
prédit 3
préjudice 3
préoccupations 3
préparatifs 3
préparent 3
prés@@ 3
présent@@ 3
présentent 3
présentera 3
préserv@@ 3
préside 3
présumé 3
prétend@@ 3
prévenu 3
prévenus 3
prévient 3
prévision 3
prévoir 3
prêter 3
prêté 3
ps 3
psych@@ 3
pub 3
publiées 3
puissante 3
pâ@@ 3
pédalé 3
pée 3
péni@@ 3
pénitentiaire 3
pétro@@ 3
quart-arrière 3
que-@@ 3
quent 3
quet 3
quin 3
quittera 3
quittés 3
rabais 3
racisme 3
racon@@ 3
raconte-t-il 3
radical 3
raffinerie 3
rail 3
rais@@ 3
raisonnable 3
ral 3
ralenti@@ 3
rall@@ 3
rallongé 3
ramassage 3
ran 3
rand 3
rante 3
rapatri@@ 3
rapi@@ 3
rapides 3
rappel@@ 3
rappellent 3
rapportent 3
raquettes 3
rassemblement 3
ratie 3
rattr@@ 3
rav@@ 3
ravir 3
rayonnante 3
rebelle 3
rebonds 3
recense 3
recev@@ 3
recherché 3
recommand@@ 3
reconn@@ 3
reconnue 3
reconstruire 3
records 3
recueillir 3
recul@@ 3
recycl@@ 3
rediffusion 3
redou@@ 3
redoutable 3
redoutent 3
refl@@ 3
refus@@ 3
refusent 3
registres 3
regr@@ 3
regrets 3
regretter 3
regroupement 3
rej@@ 3
religieuses 3
reliés 3
remercia 3
remercié 3
remontée 3
remplaçants 3
remplie 3
remportée 3
rence 3
rencontrés 3
rend@@ 3
rendent 3
rendra 3
rendront 3
rentré 3
renversé 3
renversée 3
repli 3
repoussé 3
reproche 3
reproduire 3
respectives 3
ress@@ 3
restait 3
restant 3
restaurateur 3
restrictions 3
restés 3
retar@@ 3
retards 3
retenues 3
retrouvent 3
retrouvera 3
reven@@ 3
revenait 3
revendications 3
revendique 3
reviendra 3
revirements 3
revivre 3
revoir 3
revu 3
rey 3
rez 3
rez-de-chaussée 3
reçoivent 3
ridicule 3
ries 3
riverains 3
ro 3
robe 3
romanesque 3
rompus 3
ron 3
rond@@ 3
ront 3
rot 3
rot@@ 3
roulotte 3
routier 3
routiers 3
routine 3
royaume 3
ruptures 3
rural 3
rurale 3
rythmique 3
rè@@ 3
règl@@ 3
règle 3
réag@@ 3
réalis@@ 3
réalisateurs 3
réalisées 3
réaménagement 3
récent 3
réchauff@@ 3
réclament 3
récol@@ 3
récolter 3
récoltés 3
rédaction 3
rédu@@ 3
réduits 3
réfection 3
réflexions 3
réfléchir 3
réfléchit 3
réfugiés 3
rég@@ 3
réglement@@ 3
régul@@ 3
réhabilitation 3
réjoui 3
rémun@@ 3
rép@@ 3
répercussions 3
répit 3
répliqué 3
répondants 3
répondeur 3
républicain 3
république 3
répète 3
répéter 3
répété 3
réquisi@@ 3
rés@@ 3
réserv@@ 3
résidant 3
résister 3
résol@@ 3
résume 3
rétention 3
réun@@ 3
réunira 3
réunit 3
réveiller 3
révision 3
révol@@ 3
révolution 3
rééducation 3
réélu 3
sab@@ 3
sache 3
sacrés 3
saga 3
sages 3
saine 3
saint 3
sam@@ 3
samedis 3
san@@ 3
sans-abri 3
sant 3
satisfaction 3
satisfaits 3
sauvetage 3
saynètes 3
sceptiques 3
science 3
scripteurs 3
sculptures 3
se-@@ 3
sechs 3
secou@@ 3
secourir 3
secrètement 3
sehr 3
seinen 3
seiner 3
sel 3
semblerait 3
sensation 3
sentait 3
sentier 3
sentiments 3
serait-ce 3
serré 3
servis 3
session 3
sexuels 3
shows 3
sienne 3
signal 3
signale 3
signes 3
signifie 3
sil@@ 3
sillage 3
similaires 3
sinc@@ 3
sinn 3
sis 3
sixième 3
sk@@ 3
slogan 3
socioculturel 3
solaire 3
solistes 3
solitude 3
soll 3
sollen 3
som@@ 3
songe 3
sonores 3
sortis 3
soufflé 3
souffrances 3
souffre 3
souffrent 3
souhaitait 3
souhaitent 3
souhaiterait 3
souhaitons 3
soulager 3
soulign@@ 3
soumise 3
soupes 3
souris 3
souverainiste 3
souverains 3
soy@@ 3
spach 3
spatiale 3
spectaculaire 3
spiritu@@ 3
spontan@@ 3
sportifs 3
spr@@ 3
spéciales 3
spécialisées 3
spécialités 3
spécifique 3
spéculations 3
square 3
sser 3
sses 3
ssi@@ 3
stabil@@ 3
stabilisation 3
stopp@@ 3
stor@@ 3
structures 3
studios 3
subir 3
subprime 3
substitu@@ 3
successeur 3
succession 3
succède 3
suffis@@ 3
suffisait 3
suffrages 3
suggère 3
sui@@ 3
suites 3
sul@@ 3
sunnite 3
super-@@ 3
superbe 3
supermarchés 3
supervision 3
supplément 3
suppression 3
supprimer 3
supériorité 3
sur-@@ 3
sure 3
surface 3
surfactur@@ 3
surprendre 3
surveiller 3
sus 3
suscité 3
susp@@ 3
suspendu 3
suspendues 3
symbo@@ 3
sympathiques 3
séances 3
séch@@ 3
séduction 3
séduire 3
séduit 3
séle@@ 3
sélectionner 3
sén@@ 3
séquence 3
sévères 3
sûre 3
tables 3
taire 3
tam@@ 3
tantôt 3
taper 3
tarde 3
tarif 3
taxi 3
tchadiens 3
team 3
techni@@ 3
tements 3
temp@@ 3
temple 3
tempér@@ 3
tendant 3
tendre 3
tendresse 3
tendu 3
tenteront 3
tentes 3
terbach 3
terie 3
termin@@ 3
terri@@ 3
terrible 3
territoires 3
terroir 3
terrorisme 3
testament 3
teurs 3
thaïlandaise 3
thermique 3
thorax 3
tige 3
timbres 3
tionner 3
tirage 3
tire 3
tives 3
toi 3
toir 3
tolérance 3
tombes 3
tonn@@ 3
tons 3
touchant 3
tournage 3
tourne 3
toxiques 3
traces 3
traduire 3
trafiquants 3
trag@@ 3
trah@@ 3
traient 3
trait 3
traite 3
tranchées 3
transactions 3
transform@@ 3
transformés 3
transportée 3
tration 3
travaillaient 3
travaillait 3
traîner 3
tri 3
tribu 3
triste 3
trom@@ 3
tromb@@ 3
trompettes 3
trompé 3
tronics 3
trons 3
tronçon 3
trophées 3
trotz 3
troubles 3
trousses 3
trucs 3
tude 3
tuer 3
tueurs 3
turbulences 3
turc 3
tuées 3
ty@@ 3
tées 3
téléchargement 3
téléph@@ 3
téléphon@@ 3
téléphoné 3
télévisée 3
témoignage 3
ules 3
ultimes 3
ums 3
unanime 3
unes 3
ungen 3
univers@@ 3
uranium 3
urban@@ 3
urer 3
urée 3
usagers 3
usages 3
usion 3
usions 3
utilise 3
utilisés 3
utions 3
utée 3
vain 3
val@@ 3
valor@@ 3
vapeur 3
veill@@ 3
vel@@ 3
vendeurs 3
vendu 3
verse 3
versements 3
versée 3
versés 3
verte 3
vertu 3
viabilité 3
vibr@@ 3
vides 3
vieilles 3
vieillesse 3
viens 3
vif 3
vil@@ 3
villa 3
villageois 3
vingt-cinq 3
virtuose 3
virus 3
visent 3
visible 3
visité 3
vitale 3
voil@@ 3
voile 3
volontaire 3
volontiers 3
volée 3
vom 3
voyageurs 3
vres 3
vulnér@@ 3
vé 3
végétaux 3
véri@@ 3
vérifications 3
véritables 3
vétéran 3
vêtus 3
wald 3
war 3
week-ends 3
weg 3
weil 3
whisky 3
wieder@@ 3
winstub 3
wn 3
x-@@ 3
xi@@ 3
yes 3
yon 3
ys 3
z-@@ 3
zet 3
Écosse 3
Éducation 3
Équipe 3
Éri@@ 3
Évidemment 3
à-@@ 3
àls 3
çait 3
ène 3
ènes 3
èrement 3
ète 3
ètes 3
ètre 3
ève 3
é-@@ 3
éb@@ 3
ébran@@ 3
échapp@@ 3
échappé 3
échouer 3
écl@@ 3
éclater 3
éco@@ 3
écoliers 3
écologiques 3
écoulée 3
écouter 3
écouté 3
éd. 3
éd@@ 3
édifices 3
éducation 3
égaler 3
élabor@@ 3
électriques 3
électroniques 3
élev@@ 3
élevage 3
éli@@ 3
éliminatoires 3
éloign@@ 3
élégante 3
émeutes 3
émissaire 3
énig@@ 3
énormément 3
épin@@ 3
épisode 3
éprouv@@ 3
éprouve 3
équipage 3
équipements 3
équipées 3
ération 3
ési@@ 3
établi 3
établissements 3
éteint 3
étendre 3
étendue 3
étendues 3
éternelle 3
éti@@ 3
étrang@@ 3
étroits 3
étudi@@ 3
étés 3
évanouir 3
éventualité 3
éventuelle 3
éventuelles 3
évidents 3
évité 3
évoluait 3
évolue 3
évêque 3
ôme 3
œuvre 3
-0-0 2
-10 2
-14 2
-1991 2
-Br@@ 2
-Bruche 2
-D@@ 2
-SUR@@ 2
-Sarrebourg 2
-T@@ 2
-accueil 2
-au-@@ 2
-ce 2
-qui 2
....@@ 2
.00 2
.000 2
.12.2007 2
.net 2
0,00 2
0,43 2
0,8 2
00.@@ 2
1,2 2
1,3 2
1,4 2
1,47@@ 2
1,9 2
1-1 2
1-3 2
1-@@ 2
1.000 2
1.600 2
10.000 2
100e 2
102 2
10669@@ 2
114 2
116 2
117 2
120 2
121 2
122,@@ 2
13,50 2
136,@@ 2
139 2
13@@ 2
13e 2
13h 2
13h30 2
13h45 2
14,@@ 2
14-0 2
140 2
1420 2
149 2
15,@@ 2
154 2
155 2
15e 2
15h@@ 2
166 2
16h00 2
1700 2
172,@@ 2
17e 2
18-18 2
180 2
1800 2
182 2
1850 2
1862 2
1870 2
18h30 2
190 2
1930 2
1932 2
1936 2
1938 2
1946 2
1947 2
1961 2
1963 2
1966 2
1970-@@ 2
1973 2
1976 2
1977 2
1979 2
19e 2
1h@@ 2
2,15 2
2,25 2
2,6 2
2-@@ 2
20.@@ 2
2005-@@ 2
2008-09 2
200e 2
2011 2
2016 2
205 2
206 2
215 2
218 2
21h25 2
220 2
22h30 2
232 2
237 2
247 2
24h 2
250@@ 2
252 2
260 2
270 2
28,@@ 2
2h30 2
3,3 2
3,8 2
3000 2
32,@@ 2
32.@@ 2
33@@ 2
36,@@ 2
39@@ 2
4,6 2
4-2 2
4.@@ 2
40e 2
43@@ 2
463 2
473 2
48,@@ 2
5,8 2
50.000 2
55@@ 2
57.@@ 2
574,8 2
6,5 2
65,9 2
650 2
69@@ 2
7,5 2
7,50 2
7,@@ 2
700.000 2
70@@ 2
715 2
740 2
760 2
770 2
7h 2
8,1 2
8,6 2
8,9 2
8.000 2
852,6 2
888 2
899 2
8h30 2
9-@@ 2
A.@@ 2
ACA 2
ACS 2
ADU@@ 2
AFM 2
AGÉ@@ 2
AHQG 2
AI@@ 2
AK@@ 2
ALLEN@@ 2
ALTWILLER 2
ANT@@ 2
ASEPAM 2
ASS 2
ASUM 2
ATE 2
AUX 2
Abdallah 2
Abdellah 2
Abdessadki 2
Abe 2
Aber 2
Aberdeen 2
Abhisit 2
Abi@@ 2
Accor@@ 2
Actuellement 2
Adams 2
Adel@@ 2
Adi@@ 2
Adolphe 2
Adri@@ 2
Adul@@ 2
Aff@@ 2
Affleck 2
Affäre 2
Afin 2
Afri@@ 2
Agen 2
Agro@@ 2
Ah 2
Ahmed 2
Ain 2
Airport 2
Ak@@ 2
Alab@@ 2
Alb@@ 2
Albert-Schweitzer 2
Alberta 2
Albertine 2
Alcan 2
Alcine 2
Allein 2
Allemand 2
Alli@@ 2
Alonso 2
Alouettes 2
Alpentrio 2
Alpes 2
Alteckendorf 2
Alvaro 2
Alzner 2
Ama@@ 2
Amarin 2
America 2
Amis 2
Ammerschwihr 2
Amos 2
Amour 2
Ampère 2
Amuf 2
Ancienne 2
Ander@@ 2
Anderlecht 2
Andreas 2
Andrew 2
André@@ 2
Ang@@ 2
Angelicus 2
Angers 2
Angl@@ 2
Angèle 2
Anim@@ 2
Anita 2
Ann 2
Annapolis 2
Anne-Louise 2
Annick 2
Annon@@ 2
Antarctique 2
Antibes 2
Antilles 2
Antoinette 2
Anton 2
Anton@@ 2
Antonia 2
Apatow 2
Appel 2
Aqualies 2
Aquatique 2
Arabes 2
Arb@@ 2
Arbeit 2
Arbitre 2
Archives 2
Arctique 2
Argentine 2
Argentins 2
Arizona 2
Arkansas 2
Armando 2
Armen@@ 2
Armes 2
Armut 2
Arnold 2
Arnott 2
Aron 2
Arp 2
Aspach 2
Associ@@ 2
Ast@@ 2
Ath@@ 2
Athl@@ 2
Atlan@@ 2
Atlanta 2
Att@@ 2
Atten@@ 2
Auberge 2
Aubry 2
Auch 2
Auch@@ 2
Auf 2
Auf@@ 2
Auftritt 2
Aug@@ 2
Augustin 2
Aulas 2
Auparavant 2
Aur@@ 2
Aurelio 2
Aurélie 2
Aurélien 2
Aussi 2
Aut 2
Auteur 2
Autodid@@ 2
Autrement 2
Auxerre 2
Avalanche 2
Avent 2
Avery 2
Ay@@ 2
Az@@ 2
BDRVM 2
BEL 2
BEP 2
BISCH@@ 2
BISCHHOLTZ 2
BL@@ 2
BOURG 2
BOURG.- 2
BR@@ 2
BU@@ 2
Ba@@ 2
Baccarat 2
Bachar 2
Bachelor 2
Back@@ 2
Badgers 2
Baidu 2
Ball 2
Balta 2
Bangladesh 2
BankAtlantic 2
Banques 2
Barack 2
Barbe-Bleue 2
Barberousse 2
Barbie 2
Bardo 2
Baros 2
Barr@@ 2
Barry 2
Bas 2
Bas-Rabérin 2
Bashung 2
Bassin 2
Bastian 2
Bau@@ 2
Bauby 2
Baumann 2
Bayern 2
Bayrou 2
Beaulieu 2
Beauport 2
Beck@@ 2
Behörden 2
Bei 2
Beinheim 2
Bellefeuille 2
Belles 2
Bellevue 2
Bengale 2
Bens@@ 2
Benzema 2
Berg@@ 2
Bergeron 2
Bergheim 2
Bern@@ 2
Bernadette 2
Bernardswiller 2
Berthe 2
Bertuzzi 2
Besucher 2
Bethlehem 2
Beuvelet 2
Bieber 2
Biecher 2
Big 2
Bilawal 2
Binn@@ 2
Bischwihr 2
Bisel 2
Biss@@ 2
Bit@@ 2
Bitschwiller 2
Biz@@ 2
Blackberry 2
Blackburn 2
Blain 2
Blake 2
Blanchard 2
Blanchet 2
Bleus 2
Blienschwiller 2
Blu@@ 2
Bluff 2
Bob@@ 2
Bobigny 2
Boc@@ 2
Bockel 2
Bod@@ 2
Boersch 2
Bogotá 2
Bol@@ 2
Bollinger 2
Bolloré 2
Bollwiller 2
Bond 2
Bonhomme 2
Bonjour 2
Bonne-Fontaine 2
Boofzheim 2
Bootzheim 2
Borbet 2
Borderline 2
Bouddha 2
Boulay 2
Bourses 2
Bourtzwiller 2
Bout 2
Bow@@ 2
Bradley 2
Brand 2
Branle-@@ 2
Brass@@ 2
Brassard 2
Bredle 2
Breitenbach 2
Brem@@ 2
Bren@@ 2
Brent 2
Breunig 2
Brien 2
Brig@@ 2
Broad@@ 2
Brock 2
Bron@@ 2
Broque 2
Brownsburg-Chatham 2
Bruche 2
Brucker 2
Bruni-Tedeschi 2
Brut 2
Brésilien 2
Brême 2
Buck@@ 2
Buckeyes 2
Budget 2
Buffalo 2
Bulgarie 2
Bull@@ 2
Burgard 2
Burger 2
Burnhaupt-le-Haut 2
Burrus 2
Business 2
Busser 2
Bâle-Campagne 2
Bègue 2
Bélanger 2
Bén@@ 2
Béné@@ 2
Bér@@ 2
CAC 2
CAMARGUE 2
CB 2
CC@@ 2
CDO 2
CE1 2
CE2 2
CES 2
CEUX 2
CG@@ 2
CHHAUS@@ 2
CIN@@ 2
CN@@ 2
CNRS 2
CO 2
COP 2
COSEC 2
CP 2
CS 2
CSA 2
CSC 2
CT@@ 2
CTEUR 2
CV 2
Cabaret 2
Cabinet 2
Caen 2
Caf@@ 2
Caillé 2
Calli@@ 2
Cam@@ 2
Cambodge 2
Camer@@ 2
Camping 2
Canadian 2
Canc@@ 2
Canton 2
Capital 2
Capitole 2
Caps 2
Carleton 2
Carnation 2
Carnets 2
Carr@@ 2
Carrière 2
Carter 2
Case-Shiller 2
Cass@@ 2
Casual 2
Catane 2
Catholique 2
Cathédrale 2
Catégorie 2
Cavaliers 2
Ce@@ 2
Cec@@ 2
Ceci 2
Celles-ci 2
Cem@@ 2
Cend@@ 2
Centr@@ 2
Central 2
Centre-Alsace 2
Chabot 2
Chalk 2
Championnats 2
Champs 2
Champs-de-Bataille 2
Chanel 2
Chanter 2
Chanteurs 2
Chargé 2
Charl@@ 2
Charlesbourg 2
Charlevoix 2
Charlène 2
Charte 2
Chartered 2
Chase 2
Chauff@@ 2
Chaus@@ 2
Cheema 2
Chelem 2
Chem@@ 2
Chesley 2
Cheval 2
Chevènement 2
Chic 2
Chicago 2
China 2
Chinois 2
Chipchura 2
Choeur 2
Chorale 2
Chou 2
Choucrouterie 2
Chr@@ 2
Christoph 2
Châ@@ 2
Cim@@ 2
Clan@@ 2
Clash 2
Classement 2
Clau@@ 2
Claude-@@ 2
Claude-Bernard 2
Clauss 2
Cle@@ 2
Clearstream 2
Clin 2
Clin@@ 2
Clu@@ 2
Coch@@ 2
Code 2
Cofidis 2
Cohade 2
Cohésion 2
Coiteux 2
Colas 2
Colette 2
Colisée 2
Collerette 2
Commissaire 2
Comp@@ 2
Compagnie 2
Comptant 2
Comédie 2
Concernant 2
Concordia 2
Confidanse 2
Conformément 2
Conn@@ 2
Connecticut 2
Connor 2
Conrad 2
Conservateurs 2
Consignations 2
Consommation 2
Constru@@ 2
Consulat 2
Contac@@ 2
Contes 2
Continent 2
Contrat 2
Contre 2
Cooper 2
Cordoba 2
Corentin 2
Cormier 2
Corn@@ 2
Corse-du-Sud 2
Cos@@ 2
Cosec 2
Cot@@ 2
Coton 2
Cottbus 2
Couleur 2
Coupes 2
Court@@ 2
Coutu 2
Couvent 2
Coventree 2
Cra@@ 2
Craig 2
Cremaster@@ 2
Cristal 2
Crozet 2
Crèches 2
Créée 2
Cube 2
Culte 2
Cup 2
Cur@@ 2
Cutajar 2
Cé@@ 2
D2 2
DB 2
DEL@@ 2
DEMAIN 2
DER@@ 2
DES 2
DI 2
DIE@@ 2
DMC 2
DORF 2
DP 2
DS@@ 2
Da@@ 2
Dah@@ 2
Dambach-la-Ville 2
Dame 2
Damien 2
Dan@@ 2
Danielle 2
Danone 2
Dany 2
Darren 2
Dass 2
Daubensand 2
Dav@@ 2
Davis 2
Day 2
Dean 2
Debbie 2
Debeur 2
Demain 2
Deneuve 2
Denver 2
Denys 2
Denzel 2
Der@@ 2
Dernière 2
Deschamps 2
Desp@@ 2
Deutsche 2
Deux-@@ 2
Devils 2
Dezember 2
Dhabi 2
Di 2
DiPietro 2
Diane 2
Dieb@@ 2
Diebold 2
Dief@@ 2
Diemeringen 2
Diesel 2
Diesel@@ 2
Dim 2
Dipl@@ 2
Direction 2
Disneyland 2
Diss 2
Djidé 2
Djilali 2
Do 2
Dol@@ 2
Doll@@ 2
Dollar 2
Doller 2
Dom@@ 2
Domaine 2
Dome 2
Dominic@@ 2
Donald 2
Dos 2
Doss@@ 2
Dossiers 2
Doubaï 2
Doubs 2
Drachenbronn 2
Drapeau 2
Dreyfus 2
Drire 2
Dro@@ 2
Dschungel 2
Dubaï 2
Dubielewicz 2
Duke 2
Dumais 2
Dumas 2
Durham 2
Durme 2
Durren@@ 2
Dus@@ 2
Duval 2
Dwayne 2
DÉ@@ 2
Découverte 2
Décès 2
Dép@@ 2
Dépôts 2
Dîner 2
Dôme 2
EA 2
ECK@@ 2
EN.- 2
ENHEIM 2
ENT 2
EPA 2
EPL 2
ERSTEIN 2
ESG 2
ET@@ 2
EU-@@ 2
EUROAIRPORT 2
Eaux 2
Ebersmunster 2
Echos 2
Eckwer@@ 2
Eco@@ 2
Ecomusée 2
Eden 2
Edgar 2
Edith 2
Eg@@ 2
Egl@@ 2
Egyp@@ 2
Ehoud 2
Ehpad 2
Ehrhardt 2
Eine 2
Einführung 2
Eisenbahn@@ 2
Elec@@ 2
Electric 2
Electro 2
Eli 2
Elodie 2
Elu@@ 2
Elvis 2
Emi@@ 2
Emmanuelle 2
Emmy 2
Emploi 2
Enfant 2
Engele 2
Engl@@ 2
Entr@@ 2
Entraîn@@ 2
Entre@@ 2
Entrepreneur 2
Entrevue 2
Envol 2
Ep@@ 2
Epiphanie 2
Epis 2
Eppinger 2
Equipe 2
Equity 2
Erdinger 2
Erdöl 2
Eri@@ 2
Es@@ 2
Esc@@ 2
Esel 2
Espérons 2
Esteban 2
Esther 2
Eth@@ 2
Eto@@ 2
Eugène 2
Eugénie 2
Euro-@@ 2
Euro@@ 2
Euronext 2
Eux 2
Evelyne 2
Evidemment 2
Extraits 2
F-1 2
F-@@ 2
F.@@ 2
FC@@ 2
FCM 2
FCPI 2
FCPR 2
FE@@ 2
FF@@ 2
FINAN@@ 2
FN@@ 2
FOR@@ 2
FRAN@@ 2
FTQ 2
Fabienne 2
Fal@@ 2
Fam@@ 2
Familie 2
Familien@@ 2
Fanfare 2
Fanny 2
Faron 2
Fas@@ 2
Fau@@ 2
Faut-il 2
Faysse 2
Fecteau 2
Fed 2
Feldkirch 2
Femmes 2
Fendeler 2
Ferland 2
Fermés 2
Ferreira 2
Ferruci 2
Fidel 2
Fiesta 2
Figaro 2
Fil@@ 2
Film 2
Finance 2
Fink@@ 2
Fisch@@ 2
Fischbach 2
Fla@@ 2
Flam@@ 2
Flammarion 2
Flan@@ 2
Flo@@ 2
Flor@@ 2
Flori@@ 2
Florian 2
Flynn 2
Fol@@ 2
Fonder@@ 2
Fontaine 2
Fontaines 2
Force 2
Forge 2
Formhals 2
Fort@@ 2
Fortschwihr 2
Forum 2
Forums 2
Fotos 2
Four@@ 2
Fourn@@ 2
Fradette 2
Francisco 2
Franco-Colombienne 2
Francs-Bourgeois 2
Franz 2
Française 2
Frau 2
Freitag 2
Freyburger 2
Fricker 2
Frida 2
Frieda 2
Friesenheim 2
Fritsch 2
Fritz 2
Fro@@ 2
Froeschwiller 2
Front 2
Fréquelin 2
Fukuda 2
Fun@@ 2
Fureur 2
Future 2
Fuzeau 2
Fédéral 2
G.@@ 2
G7 2
GARDE 2
GERTWILLER 2
GIC 2
GOEFT.- 2
GRC 2
GUE 2
GUMBRECHTSHOFFEN 2
Gagnon 2
Gagné 2
Gal-de-Gaulle 2
Galfingue 2
Galli@@ 2
Gallippi 2
Gamache 2
Games 2
Ganzau 2
Gary 2
Gas 2
Gaspé@@ 2
Gaspésie 2
Gat@@ 2
Gatineau 2
Gau@@ 2
Gauthier 2
Gbagbo 2
Geiller 2
Geiseln 2
Geispolsheim 2
Gekreuzigte 2
Genève 2
Geoff@@ 2
Georgi@@ 2
Gerets 2
Germaine 2
Gesellschaft 2
Giants 2
Giguère 2
Gill 2
Ginette 2
Girard 2
Girardin 2
Gissinger 2
Giuliani 2
Glacis 2
Globalement 2
Glöckchen 2
Goebbels 2
Goff 2
Gold 2
Golden 2
Gon@@ 2
Goncourt 2
Gordon 2
Gorges 2
Gott 2
Gouvernement 2
Goy@@ 2
Goûter 2
Gra@@ 2
Gracques 2
Graff 2
Graffenstaden 2
Graine 2
Grand-@@ 2
Grands 2
Grasberg 2
Grenelle 2
Grenier 2
Grenz@@ 2
Grenze 2
Gresswiller 2
Gretel 2
Grillen 2
Grob 2
Gross@@ 2
Grosso 2
Groux 2
Grève 2
Grégory 2
Guer@@ 2
Gun@@ 2
Gundershoffen 2
Gyanendra 2
Gé@@ 2
Gég@@ 2
Génér@@ 2
Génération 2
Géorgie 2
H.T 2
H5N1 2
HT 2
HW96 2
Haberey 2
Habsheim 2
Hadi@@ 2
Haeffelin 2
Haegy 2
Hag@@ 2
Hagu@@ 2
Hahnenberg 2
Hal@@ 2
Hall 2
Haller 2
Hallet 2
Halm 2
Halter 2
Hamid 2
Hans-Jean 2
Hansel 2
Hard 2
Hardt 2
Harmonie 2
Harrison 2
Harrods 2
Harry 2
Hart 2
Hartley 2
Has@@ 2
Hatcher 2
Hatt@@ 2
Haus@@ 2
Haut-Koenigsbourg 2
Haut-Rhinois 2
Haute-@@ 2
Haute@@ 2
Hauts 2
Haw@@ 2
Haydn 2
Health 2
Heathrow 2
Heiligenstein 2
Heim@@ 2
Hein@@ 2
Heineken 2
Heiteren 2
Heitz 2
Hells 2
Hem@@ 2
Henn@@ 2
Henri@@ 2
Henrichs 2
Henry 2
Hens@@ 2
Herr@@ 2
Herrmann 2
Hershey 2
Hessou 2
Heure 2
Hexagone 2
Hilaire 2
Hilsenheim 2
Hilton 2
Hinter@@ 2
Hipsheim 2
Hir@@ 2
Hitler 2
Hochel@@ 2
Hockey 2
Hoh@@ 2
Hohengoeft 2
Hol@@ 2
Holl@@ 2
Holm@@ 2
Holtz@@ 2
Hom@@ 2
Honor 2
Horaires 2
Horne@@ 2
Huckabee 2
Huerta 2
Huguette 2
Huit 2
Hum@@ 2
Humann 2
Hunawihr 2
Huningue 2
Hur@@ 2
Hurricanes 2
Hurstel 2
Husson 2
Hy@@ 2
Hyndman 2
Hyères-Toulon 2
Hégenheim 2
Hétu 2
Hôpitaux 2
IBM 2
IEN@@ 2
IER 2
IES 2
IG@@ 2
INCENDIES.- 2
INSA 2
INSE@@ 2
ITA 2
IVG 2
IVe 2
Ibrahim 2
Ide@@ 2
Idr@@ 2
Illfurth@@ 2
Illhæusern 2
Illiade 2
Illinois 2
Ily@@ 2
Im 2
Imag@@ 2
Imbsheim 2
Inauguration 2
Indianapolis 2
Indianer 2
Indiens 2
Inf@@ 2
Informationen 2
Initiative 2
Inscriptions 2
Interrogé 2
Interros 2
Intervention 2
Intitulé 2
Irène 2
Is 2
Isetan 2
Islam 2
Islan@@ 2
Island 2
Iss@@ 2
Issenhuth 2
Itali@@ 2
Italiens 2
Ivoire 2
J-@@ 2
J.-L. 2
Ja@@ 2
Jacquemod 2
Jacques-Cartier 2
Jadis 2
Jaeg@@ 2
Jahren 2
Jamie 2
Jan 2
Jan@@ 2
Janvier 2
Janyk 2
Jazz 2
Jean-Daniel 2
Jean-Michel 2
Jean-René 2
Jean-Yves 2
Jeff 2
Jeh@@ 2
Jehl 2
Jelic 2
Jersey 2
Jettingen 2
Jeunesse 2
Jimmy 2
Joe 2
Joey 2
Joffre 2
Johnson 2
Johnston 2
Joseph-@@ 2
Josiane 2
Josée 2
Journées 2
Joy@@ 2
Joëlle 2
Judd 2
Juifs 2
Juli@@ 2
Julius 2
Juniors 2
Jur@@ 2
Juste 2
Jérémie 2
KGB 2
KN@@ 2
Ka@@ 2
Kadhafi 2
Kahl@@ 2
Kai@@ 2
Kal@@ 2
Kammer@@ 2
Kandahar 2
Karbon 2
Karim 2
Karimov 2
Kas@@ 2
Kauff@@ 2
Kaw@@ 2
Kay 2
Kazak@@ 2
Kehl 2
Kel@@ 2
Ken@@ 2
Ker@@ 2
Kh@@ 2
Kibera 2
Kie@@ 2
Kieffer 2
Kientzheim 2
Kikuyus 2
Kinder 2
Kirsch 2
Kisumu 2
Kl@@ 2
Klaus 2
Klin@@ 2
Kléber 2
Klöppel 2
Kochersberg 2
Koenig 2
Koh@@ 2
Koizumi 2
Kol@@ 2
Kong 2
Konsum 2
Kopa 2
Kosovo 2
Kostopoulos 2
Kratz 2
Krebs 2
Kreiss 2
Kremlin 2
Kri@@ 2
Krie@@ 2
Kristen 2
Krutenau 2
Ku@@ 2
Kubler 2
Kuntzmann 2
Kutzenhausen 2
Kyoto 2
Kén@@ 2
L-@@ 2
LAN@@ 2
LCN 2
LCR 2
LES 2
LIB@@ 2
LS 2
LT@@ 2
Labrie 2
Lac@@ 2
Lacasse 2
Lacet 2
Lachine 2
Laetitia 2
Laeusch 2
Laffont 2
Laflaque 2
Lag@@ 2
Lagardère 2
Laits 2
Lalaye 2
Lambert 2
Lanaudière 2
Lanc@@ 2
Lancers 2
Land 2
Landes@@ 2
Landmann 2
Lang 2
Lanno 2
Lapoutroie 2
Lari@@ 2
Larkana 2
Lass@@ 2
Latraverse 2
Laur@@ 2
Laurendeau 2
Laurentienne 2
Lavallée 2
Leafs 2
Leb@@ 2
Lebens 2
Leblond 2
Leg@@ 2
Legrand 2
Lehane 2
Leit@@ 2
Leitao 2
Lem@@ 2
Lemaire 2
Lembach 2
Lemire 2
Lennon 2
Les@@ 2
Let' 2
Lettonie 2
Lettres 2
Lettrines 2
Lev@@ 2
Lewiston 2
Lexus 2
Lib@@ 2
Libre 2
Lichtlé 2
Lieb@@ 2
Liederkranz 2
Lillehammer 2
Ling@@ 2
Lip@@ 2
Lipietz 2
Lire 2
Lisa 2
Lisbonne 2
Lise 2
Literatur@@ 2
Lituanie 2
Livre 2
Lièpvre 2
Location 2
Logement 2
Logis 2
Loi@@ 2
Loire 2
Lon@@ 2
London 2
Lorenzon 2
Lorient 2
Lorraine 2
Lorrains 2
Lot@@ 2
Loup 2
Loué 2
Lucas 2
Ludo@@ 2
Lumière 2
Lun 2
Luongo 2
Lupstein 2
Lustig 2
Lutz 2
Lutzel@@ 2
Lvovsky 2
Lynch 2
Lynn 2
Lé@@ 2
Lévis 2
Lévêque 2
MIN@@ 2
MK@@ 2
MON@@ 2
MP3 2
MS@@ 2
MUL@@ 2
MUN@@ 2
Machores 2
Maddie 2
Magasin 2
Mages 2
Magic 2
Magnificat 2
Mai@@ 2
Main@@ 2
Mais@@ 2
Mal 2
Mali@@ 2
Malika 2
Malte 2
Man 2
Manaudou 2
Manning 2
Mans 2
Manson' 2
Maple 2
Marc-@@ 2
Marc@@ 2
Marcel-@@ 2
Marché-aux-Choux 2
Marchés 2
Marg@@ 2
Marguer@@ 2
Mari@@ 2
Marie-France 2
Marie-Reine 2
Marie-Thérèse 2
Marie-Ève 2
Marjolaine 2
Mark@@ 2
Martel 2
Marth@@ 2
Marty 2
Mary 2
Marzol@@ 2
Mass@@ 2
Mast@@ 2
Mathi@@ 2
Mathias 2
Mathis 2
Matthieu 2
Mau@@ 2
Maurice 2
Maxim@@ 2
May 2
McDo 2
McFadden 2
McSorley 2
Medal 2
Media 2
Meh@@ 2
Men 2
Men@@ 2
Mena 2
Mend@@ 2
Mensch@@ 2
Ment@@ 2
Merrill 2
Merry 2
Mesnil-Amelot 2
Messier 2
Mettons 2
Mey@@ 2
Mi-temps 2
Michelin 2
Michigan 2
Michèle 2
Mille 2
Mine 2
Mines 2
Mini-@@ 2
Ministère 2
Mir@@ 2
Miss@@ 2
Mitglieder 2
Mitt 2
Mittelberger 2
Mittelwihr 2
Mittwoch 2
Mlle 2
Mod@@ 2
Moham@@ 2
Mohamed 2
Mohammad 2
Molo@@ 2
Molsheim-Mutzig 2
Moment 2
Monaco 2
Monate 2
Monet 2
Monseigneur 2
Mont 2
Mont-@@ 2
Mont-Royal 2
Montcalm 2
Monte@@ 2
Monts-@@ 2
Montée 2
Morr@@ 2
Moskau 2
Moun@@ 2
Moy@@ 2
Moyen 2
Mozart 2
Moïse 2
Muhlbach 2
Mulcair 2
Mulenga 2
Mulhou@@ 2
Multi@@ 2
Multiplacements 2
Muntzenheim 2
Murtaza 2
Mus@@ 2
Musharaf 2
Mutschler 2
Mutuel 2
Mylène 2
Mé@@ 2
Médaille 2
Médecin 2
Médecins 2
Médi@@ 2
Mém@@ 2
Mérieux 2
Mét@@ 2
Mün@@ 2
N2 2
NCAA 2
NDLR 2
NE 2
NF 2
NFL 2
NOT@@ 2
NPD 2
NYSE 2
Na@@ 2
Nad@@ 2
Najjar 2
Nan@@ 2
Nanette 2
Napoléon 2
Nasri 2
Nat 2
Nat@@ 2
Nav@@ 2
Naï@@ 2
Nd@@ 2
Neb@@ 2
Neff 2
Nest@@ 2
Nestlé 2
Nett@@ 2
Nev@@ 2
New@@ 2
Ngarhondo 2
Nguyen 2
Niederhaslach 2
Niederhergheim 2
Niedermodern 2
Niger 2
Nigérians 2
Niño 2
No 2
Noiret 2
Nombreux 2
Norbert 2
Nord-@@ 2
Note 2
Nou@@ 2
Nouvelle-Calédonie 2
Noé 2
Noémie 2
Noë@@ 2
Noël@@ 2
Numericable 2
Nun 2
Nur@@ 2
Nuremberg 2
Nus@@ 2
Né@@ 2
Née 2
ODER 2
OER@@ 2
OGM 2
OM 2
OMC 2
OR@@ 2
ORL 2
ORT 2
OTZHEIM 2
Oasis 2
Ob@@ 2
Oberhaslach 2
Oberhergheim 2
Oberschaeffolsheim 2
Oc@@ 2
Océanic 2
Oddo 2
Odile 2
Oeuvre 2
Offenbourg 2
Oh 2
Oh@@ 2
Ohio 2
Oktober 2
Ol@@ 2
Old 2
Oli@@ 2
Oliver 2
Olivia 2
Omischl 2
One 2
Ontariens 2
Organis@@ 2
Orsay 2
Ortiz 2
Ost@@ 2
Otages 2
Ottmann 2
Ottrott 2
Outre-Forêt 2
Oxford 2
P' 2
PA 2
PAF 2
PBD 2
PC 2
PDG 2
PETITE 2
PETITE-@@ 2
PHALSBOURG.- 2
PIE@@ 2
PKK 2
PLC 2
PM@@ 2
PML-Q 2
POUR 2
PP@@ 2
PSG 2
PU@@ 2
PUC 2
Padacké 2
Paddock 2
Pagliarulo 2
Pahimi 2
Paisley 2
Palace 2
Palestine 2
Panis 2
Panorama 2
Panza 2
Papineau 2
Paradis 2
Parcours 2
Parisien 2
Park@@ 2
Parlamentswahlen 2
Parlant 2
Parsa 2
Participer 2
Paru 2
Pas@@ 2
Passe-Partout 2
Passé 2
Patinoire 2
Patri@@ 2
Patrice 2
Paul-@@ 2
Pay@@ 2
Pays-Bas 2
Peabody 2
Pelloux 2
Pentagone 2
Permanences 2
Perrier 2
Personnalité 2
Perte 2
Peshawar 2
Petit-@@ 2
Petit@@ 2
Petite-France 2
Petite-Pierre 2
Petites 2
Petro@@ 2
Pfetterhouse 2
Pfister 2
Pham 2
Phcie 2
Philadelphie 2
Philip 2
Photos 2
Physi@@ 2
Picot 2
Pie 2
Pie@@ 2
Piedad 2
Pill@@ 2
Pillet 2
Pitt 2
Plat@@ 2
Platz 2
Plein 2
Plekanec 2
Plutôt 2
Poi@@ 2
Poin@@ 2
Pointe-aux-Trembles 2
Poirier 2
Pologne 2
Polokwane 2
Pomp@@ 2
Pompidou 2
Ponce 2
Popp 2
Port-du-Rhin 2
Porte 2
Potage 2
Poulin 2
Power 2
Prague 2
Prai@@ 2
Predators 2
Preise 2
Premi@@ 2
Premierminister 2
Prenez 2
Press@@ 2
Prim@@ 2
Prin@@ 2
Prisa 2
Privilège 2
Pro-Doc 2
Produ@@ 2
Prof@@ 2
Promenades 2
Proto@@ 2
Providence 2
Publi@@ 2
Public 2
Pueblo-@@ 2
Pulversheim 2
Puy@@ 2
Pâques 2
Pé@@ 2
Péladeau 2
Pérou 2
Pê@@ 2
Pôle 2
Q 2
QU@@ 2
Qantas 2
Quai 2
Quatrième 2
Queen 2
Quelqu' 2
Quelque 2
Question 2
Quinze 2
Québec-Windsor 2
RA@@ 2
RAC@@ 2
RAN@@ 2
RATI@@ 2
RC 2
RCS 2
RD419 2
RDC 2
RDS 2
RE 2
REN@@ 2
RHEIN 2
RHW 2
RI@@ 2
RMI 2
ROESCHWOOG 2
ROHRWILLER 2
RP@@ 2
RS@@ 2
RSF 2
RT@@ 2
Ra@@ 2
Rachida 2
Radio 2
Rae 2
Raedersdorf 2
Rafael 2
Rafiq 2
Rah@@ 2
Rai 2
Raila 2
Rak 2
Rallye 2
Ramo 2
Ran@@ 2
Raoul 2
Rapp 2
Rappel@@ 2
Rappelons 2
Rasmussen 2
Rat@@ 2
Rathsamhausen 2
Raymonde 2
Re 2
Recchi 2
Red 2
Redskins 2
Reform 2
Refus 2
Regain 2
Rehman 2
Reill@@ 2
Reiningue 2
Reit@@ 2
Rem@@ 2
Remarquables 2
Remmy 2
Rempart 2
Rep@@ 2
Reporters 2
Reprise 2
Représentation 2
Research 2
Resolution 2
Respectables 2
Restauration 2
Retrouvez 2
Revenu 2
Revue 2
Rhin@@ 2
Rhône-@@ 2
Ribéry 2
Rich 2
Ricoh 2
Rideau 2
Riehl 2
Ries 2
Rim@@ 2
Rimouski 2
Rin@@ 2
Ringendorf 2
Rire 2
Ris@@ 2
Risch 2
Rit@@ 2
Ritzenthaler 2
Riyad 2
Rob@@ 2
Rober@@ 2
Roch 2
Rodney 2
Rodolfo 2
Rodriguez 2
Roederer 2
Roggy 2
Roissy 2
Roland-Garros 2
Roman 2
Romano 2
Romanswiller 2
Roméo 2
Ronde 2
Roos 2
Rosemont 2
Rosso 2
Rossy 2
Rost@@ 2
Roth 2
Rott 2
Rouen 2
Rox@@ 2
Royaume 2
Royaume-Uni 2
Royer 2
Rudolph 2
Ruelisheim 2
Rugby 2
Ruiz 2
Rus@@ 2
Russell 2
Ry@@ 2
RÉ@@ 2
Réalisation 2
Récemment 2
Réception 2
Régent 2
Région@@ 2
Rémi 2
Rép. 2
Réponse 2
Résultat 2
Réunis 2
S-300 2
SAAQ 2
SALLE 2
SAMU 2
SAVERNE.- 2
SDIS 2
SDORF 2
SEL@@ 2
SEPTEMBRE 2
SHEIM 2
SIV 2
SIV@@ 2
SP@@ 2
SPS 2
STAV 2
STM 2
STMic@@ 2
Saada 2
Sacha 2
Sacrement 2
Sacré-Coeur 2
Sacrées 2
Saddam 2
Saessolsheim 2
Saf@@ 2
Saguenay 2
Saha 2
Said 2
Sain@@ 2
Saint-Augustin 2
Saint-Blaise 2
Saint-Blaise-la-Roche 2
Saint-G@@ 2
Saint-Georges 2
Saint-Hyacinthe 2
Saint-Jean-@@ 2
Saint-Joseph 2
Saint-Laurent 2
Saint-Martin 2
Saint-Pierre 2
Saint-Pierre-le-Vieux 2
Saint-Quentin 2
Saint-Sacrement 2
Sainte-Afre 2
Sainte-Claire 2
Sainte-Croix-aux-Mines 2
Sainte-Croix-en-Plaine 2
Sainte-Cécile 2
Sainte-Madeleine 2
Sainte-Odile 2
Saints-@@ 2
Sais@@ 2
Sak@@ 2
Sakhaline-1 2
Sakhaline-2 2
Sali@@ 2
Samsung 2
Samu 2
Sand 2
Sandler 2
Sankt 2
Sant@@ 2
Santini 2
Sanz 2
Sap@@ 2
Sapeurs-pompiers 2
Satis@@ 2
Sau@@ 2
Savard 2
Saveurs 2
Savoie 2
Say@@ 2
Saïda 2
Scar@@ 2
Schaeffer 2
Schaeffersheim 2
Schaffner 2
Schell 2
Scherer 2
Schi@@ 2
Schir@@ 2
Schirrhoffen 2
Schlienger 2
Schnep@@ 2
Schnoeller 2
Schoelcher 2
Schoenau 2
Schroeder 2
Schtroumpfs 2
Schubert 2
Schulung 2
Schuman 2
Schumann 2
Schw@@ 2
Schweitzer 2
Schwindratzheim 2
Score 2
Scott 2
Sei@@ 2
Seigneur 2
Seine 2
Sel 2
Sel@@ 2
Sen@@ 2
Sep@@ 2
Seppi 2
Seppois-le-Haut 2
Serbie 2
Sergei 2
Shahnawaz 2
Shan@@ 2
Sheffield 2
Sherbrooke 2
Sherry 2
Shinawatra 2
Show 2
Sibérie 2
Sidney 2
Sie@@ 2
Sierentz 2
Simms 2
Simon-Olivier 2
Simple 2
Sit@@ 2
Situation 2
Sivom 2
Sk@@ 2
Ski-club 2
Sky@@ 2
Slov@@ 2
Smo@@ 2
Sno@@ 2
Soci@@ 2
Sofia 2
Soli@@ 2
Solution 2
Soomro 2
Sop@@ 2
Sorge 2
Souffel 2
Soultz-@@ 2
Soultz@@ 2
Soultzeren 2
Sources 2
Sozial@@ 2
Sporting 2
Sprits 2
Spécial 2
St-Barth@@ 2
St-Morand 2
St-Nicolas 2
Sta@@ 2
Staatschefs 2
Stadt 2
Stadt@@ 2
Stahl 2
Star 2
State 2
Station 2
Stau@@ 2
Ste-Odile 2
Ste@@ 2
Stein@@ 2
Steinbrunn-le-Bas 2
Steiner 2
Steinmetz 2
Stewart 2
Sti@@ 2
Sting 2
Stockfeld 2
Stoffel 2
Stone 2
Story 2
Stosswihr 2
Str 2
Strasb 2
Städte 2
Suisses 2
Summers 2
Sun 2
Sund@@ 2
Surbourg 2
Sus@@ 2
Sutter 2
Sweeney 2
Sy@@ 2
Syl@@ 2
Sym@@ 2
Syriens 2
Syrtes 2
System 2
Sète 2
Séb 2
Séguin 2
Sénat 2
Sénégal 2
Sénégalais 2
Séri@@ 2
Séville 2
TCU 2
TEL@@ 2
TEPA 2
TER 2
TGV-@@ 2
TH@@ 2
TRE@@ 2
TS2 2
TS3 2
TZ@@ 2
Taddeo 2
Tagolsheim 2
Tagsdorf 2
Tai@@ 2
Tam@@ 2
Tann@@ 2
Tap@@ 2
Tau@@ 2
Tauler 2
Tay@@ 2
Taylor 2
Te@@ 2
Team 2
Tebow 2
Techni@@ 2
Teh@@ 2
Telle 2
Tem@@ 2
Temp@@ 2
Ter@@ 2
Termin@@ 2
Terrasses 2
Terre-Neu@@ 2
Tex@@ 2
Thanh 2
Thanvillé 2
Thetford 2
Thibault 2
Thou@@ 2
Tier@@ 2
Tigres 2
Tillman 2
Tiné 2
Tirole 2
Titicaca 2
Togo 2
Toni@@ 2
Tony 2
Tor@@ 2
Tortorella 2
Tottenham 2
Tour@@ 2
Tourisme 2
Tra@@ 2
Trade 2
Trai@@ 2
Trans@@ 2
Traubach 2
Trav@@ 2
Travail 2
Tremblay 2
Trente 2
Tretz 2
Tribunal 2
Triembach-au-Val 2
Tro@@ 2
Trop 2
Tru@@ 2
Trudeau 2
Trudel 2
Trésor 2
Tun@@ 2
Tunisien 2
Turris 2
Tyrol 2
TÉ 2
Télé@@ 2
Télécom 2
UESL 2
UM@@ 2
UNE 2
UP@@ 2
UR 2
USEP 2
Uhr 2
Ukraine 2
Ulrich 2
Ungersheim 2
Unter 2
Unter@@ 2
Urbaine 2
Urmatt 2
Utrecht 2
V8 2
VALFF 2
VHS 2
VI 2
VIA 2
VIDÉO 2
VM 2
VTT 2
Vac@@ 2
Vai@@ 2
Val 2
Valcartier 2
Valeurs 2
Ve 2
Ve@@ 2
Veillée 2
Vejjajiva 2
Ven@@ 2
Vendenheim 2
Verhofstadt 2
Verhü@@ 2
Verlaine 2
Vier 2
Vieux@@ 2
Vign@@ 2
Vignes 2
Vil@@ 2
Villa 2
Villeneuve 2
Vin 2
Vinc@@ 2
Viol@@ 2
Violet 2
Virgin 2
Vision 2
Viv@@ 2
Vogelgrun 2
Vol 2
Voleur 2
Volodine 2
Voltaire 2
Von 2
Vonn 2
Votre 2
Vou@@ 2
Vu 2
WI@@ 2
WISSEMBOURG 2
Wa@@ 2
Wade 2
Walchhofer 2
Walk 2
Wall@@ 2
Warner 2
Waters 2
Waziristan 2
Weckerlin 2
Wege 2
Weihnachts@@ 2
Weinbourg 2
Wend@@ 2
Western 2
Weyersheim 2
Whit@@ 2
Wickerschwihr 2
Widensolen 2
Wihr 2
Wii 2
Wiig 2
Wikipédia 2
Wilhelm 2
Willer-sur-Thur 2
Willig 2
Willm 2
Wiltord 2
Wim@@ 2
Windsor 2
Winter 2
Winter@@ 2
Wintershouse 2
Wir 2
Wittner 2
Witz 2
Woerth 2
Wohnung 2
Wolff 2
X. 2
XVIIe 2
Yes@@ 2
Yo@@ 2
You 2
Yvel@@ 2
Yvon 2
Z 2
ZELLWILLER 2
ZHEIM 2
Za@@ 2
Zahl 2
Zamb@@ 2
Zeitpunkt 2
Zel@@ 2
Zerr 2
Zi@@ 2
Zia-@@ 2
Zix 2
Zossi 2
Zulfi@@ 2
Zum 2
Zurich 2
Zwiebel 2
Zürich 2
a-t-on 2
a.@@ 2
abaissé 2
abattus 2
abbaye 2
abeille 2
abel 2
abon@@ 2
abonde 2
abonnés 2
abordé 2
abouti@@ 2
abracadabrantes 2
abritant 2
abrite 2
absten@@ 2
abstenir 2
absti@@ 2
abstr@@ 2
abstrai@@ 2
académique 2
accents 2
accentuer 2
access@@ 2
accessibles 2
accession 2
accidentellement 2
acclamations 2
accol@@ 2
accompagn@@ 2
accompagnaient 2
accompagnateur 2
accompagne 2
accor@@ 2
accordait 2
accordée 2
accordées 2
accoucha 2
accrochée 2
accroît 2
accrue 2
accréditations 2
accueillons 2
accumul@@ 2
acer@@ 2
achalandée 2
acharnement 2
achem@@ 2
acheteur 2
acheteurs 2
achevé 2
achè@@ 2
achètent 2
achèvement 2
aci@@ 2
acidité 2
acité 2
acks 2
acomp@@ 2
acquisitions 2
acquitter 2
acquéreurs 2
acrob@@ 2
acrobate 2
activement 2
acts 2
actu@@ 2
acée 2
adap@@ 2
adaptée 2
addition 2
additionne 2
adhérer 2
adi 2
adju@@ 2
adjudant 2
admet 2
administratifs 2
admiration 2
adolescent 2
adolescente 2
adolescentes 2
adolescents 2
adonnent 2
adonner 2
adopte 2
adoptera 2
adore 2
adoss@@ 2
adul@@ 2
adulé 2
adverse 2
affaiblie 2
affectation 2
affecte 2
affectera 2
affinités 2
affirme-t-il 2
affirment 2
afflu@@ 2
affluence 2
affrontés 2
afri@@ 2
agen@@ 2
agglomérations 2
agira 2
agn@@ 2
agne 2
agogique 2
agran@@ 2
agressions 2
agressé 2
agriculture 2
agré@@ 2
agrément@@ 2
agée 2
agénaire 2
aie 2
aigu 2
aill@@ 2
ailler 2
aillée 2
aim@@ 2
aimaient 2
aimer 2
aimer@@ 2
aimée 2
aire@@ 2
airement 2
aison 2
aiss@@ 2
aisément 2
ait-elle 2
ajourn@@ 2
ajoute-t-elle 2
ajust@@ 2
ajuster 2
al.- 2
alais 2
alarme 2
alcool@@ 2
alcoolique 2
alcoolémie 2
aler 2
algéri@@ 2
alias 2
alier 2
aligner 2
alimentaires 2
alimenter 2
alisées 2
alit 2
alité- 2
alle 2
allemande 2
allemands 2
allerdings 2
allez 2
allocation 2
allongement 2
allum@@ 2
allumer 2
allumettes 2
allusion 2
allées 2
allégations 2
alourdi 2
alpin@@ 2
alpins 2
also 2
alto 2
alé 2
ama 2
amant 2
ambiances 2
ambigu@@ 2
ambulanciers 2
amender 2
amination 2
amm@@ 2
amnistie 2
amont 2
amorce 2
amplement 2
ampoules 2
amuse 2
amusent 2
amélior@@ 2
améliorations 2
améliorée 2
aménager 2
aménagé 2
analyser 2
ancienneté 2
ancr@@ 2
ancé 2
ancés 2
ancêtres 2
andi@@ 2
andre 2
anecdotes 2
anglaises 2
angoisses 2
ani 2
anien 2
animatrices 2
animer 2
animées 2
anischen 2
annah 2
annoncent 2
annonces 2
annoncées 2
annoncés 2
annuels 2
annuités 2
annulation 2
annulé 2
annulée 2
année-là 2
anonymat 2
anonyme 2
antibulle 2
anticipations 2
antipo@@ 2
antiquités 2
antitabac 2
antivol 2
anxiété 2
ape 2
aper 2
aperçoit 2
apparaiss@@ 2
apparaître 2
apparitions 2
appartenaient 2
appartenait 2
appauvr@@ 2
appel@@ 2
appelons 2
appelée 2
applaudir 2
applaudis 2
applicable 2
appliquées 2
apport 2
apportant 2
apprenait 2
approbation 2
approuvent 2
approvisionnement 2
appréh@@ 2
apprêtaient 2
appu@@ 2
appuyant 2
appuyer 2
appuyé 2
après-guerre 2
apé 2
aqu@@ 2
aques 2
arabes 2
arb@@ 2
arc-en-ciel 2
archevêque 2
archi@@ 2
archipel 2
architectes 2
arde 2
ardes 2
arez 2
argent@@ 2
arie 2
arisé 2
arité 2
arm@@ 2
armé 2
arménienne 2
arraché 2
arre 2
arri@@ 2
arriv@@ 2
arrivant 2
arrivants 2
arrondissements 2
articulée 2
artifi@@ 2
artifici@@ 2
artisanal 2
artisanale 2
artères 2
aréna 2
arénas 2
ase 2
asi@@ 2
asie 2
asile 2
aspirateur 2
assa 2
assain@@ 2
assassinés 2
assemblées 2
assis 2
assise 2
assistances 2
assistant 2
asso 2
associ@@ 2
assume 2
assumé 2
assurait 2
assure-t-il 2
assurera 2
assureur 2
assurées 2
assurés 2
assé 2
ast@@ 2
aster 2
astre 2
astron@@ 2
ata 2
ateli@@ 2
athlètes 2
ational 2
ationn@@ 2
ationnelle 2
atiquement 2
atis@@ 2
atisme 2
atisé 2
atlantique 2
atmosphériques 2
atomique 2
atori@@ 2
atouts 2
attachants 2
attachent 2
attachée 2
attaquent 2
attaqués 2
attendaient 2
attendrait 2
attends 2
attendue 2
attent@@ 2
atterr@@ 2
atti 2
attirée 2
attraits 2
attribue 2
attribuée 2
atténuer 2
atures 2
até@@ 2
au-dessous 2
auc@@ 2
audace 2
audi@@ 2
audiovisuel 2
audit@@ 2
auditions 2
augmentations 2
augmentent 2
augmentée 2
auri@@ 2
aurions 2
autel 2
auteure 2
auto-@@ 2
autocar 2
autocaristes 2
autochtones 2
automatiquement 2
autor@@ 2
autorisation 2
autorisations 2
autorisée 2
autorisés 2
autrich@@ 2
autrui 2
auxiliaire 2
aval 2
avalanche 2
avancer 2
avancés 2
avant-@@ 2
avant-dernier 2
avant-projet 2
ave 2
aven@@ 2
avertissements 2
aves 2
aveu 2
avoc@@ 2
avoisin@@ 2
avortements 2
avouer 2
avoué 2
aya 2
aéronautique 2
aéroportée 2
aël 2
aître 2
aï 2
aïe 2
ba@@ 2
bach-le-Haut 2
baguette 2
baie 2
baignoires 2
baiss@@ 2
baissent 2
balnéaire 2
ban 2
bandes 2
baptis@@ 2
baptême 2
barbe 2
baro@@ 2
barreau 2
barrière 2
bas-côté 2
bas-rhinois 2
basilique 2
bask@@ 2
basket-ball 2
bass@@ 2
basse-@@ 2
basés 2
batailler 2
battent 2
bau@@ 2
baum 2
beau-père 2
beaux-arts 2
beff@@ 2
begrenzt 2
beim 2
belle-@@ 2
benjam@@ 2
benjamins 2
berceau 2
berg@@ 2
besonderen 2
best@@ 2
bet 2
biais 2
bidonville 2
bien-être 2
bien@@ 2
bifurqué 2
bijoux 2
bil@@ 2
bilingues 2
bin 2
bis@@ 2
blason 2
bless@@ 2
blesser 2
bleu@@ 2
blieb 2
bloc@@ 2
blog 2
bloque 2
bloquer 2
bloqué 2
bo 2
bol 2
bombar@@ 2
bond@@ 2
bonhomme 2
bonnet 2
bonnets 2
boogie-woogie 2
boom 2
borne 2
bornes 2
botanique 2
boucler 2
boucli@@ 2
boudés 2
bouffe 2
boule 2
boulodrome 2
bourg@@ 2
bourrasques 2
boursiers 2
boursière 2
bouts 2
box 2
box@@ 2
boxe 2
boxeur 2
boyc@@ 2
braconnage 2
branches 2
braqu@@ 2
bravoure 2
bredele 2
bret@@ 2
brev@@ 2
brevet 2
bridge 2
brigade 2
briguer 2
bril@@ 2
britanniques 2
brosse 2
brouillard 2
brus@@ 2
brusque 2
brusquement 2
brut 2
brut@@ 2
brutale 2
brésiliens 2
brûler 2
brûlés 2
bs 2
bu 2
budg@@ 2
budgets 2
burlesque 2
by@@ 2
bye 2
bât@@ 2
bâti 2
bé@@ 2
bébés 2
bénéfi@@ 2
bénéficiant 2
bénévolat 2
bénévole 2
bét@@ 2
bê@@ 2
bêtise 2
bû@@ 2
ca 2
cabane 2
cabine 2
cable 2
cac@@ 2
cachent 2
cadavre 2
cades 2
cadet 2
cadets 2
cadettes 2
cag@@ 2
cages 2
caillassé 2
cains 2
calcaire 2
calculé 2
cali@@ 2
californiennes 2
calmer 2
camar@@ 2
cambriolage 2
camionnette 2
camou@@ 2
campement 2
caméraman 2
canal 2
canaliser 2
canard 2
cancers 2
candidates 2
cannabis 2
cannelle 2
canoë-kayak 2
cantes 2
cantine 2
cantonales 2
caoutchouc 2
captifs 2
captiv@@ 2
captiver 2
capture 2
capturée 2
capturés 2
caractér@@ 2
caractéristiques 2
caramel 2
carap@@ 2
caravanes 2
card 2
cardio 2
caresses 2
caritative 2
carnage 2
carnaval 2
carrefour 2
carrières 2
carrément 2
casier 2
casquettes 2
cassette 2
cassées 2
cast 2
casting 2
casual 2
cat 2
cateurs 2
catif 2
cau@@ 2
caucus 2
causés 2
caution 2
cav@@ 2
cavalier 2
cavaliers 2
cavalières 2
caveau 2
celant 2
cend@@ 2
censure 2
centres-villes 2
centristes 2
cep@@ 2
cercle 2
cert@@ 2
certificat 2
cerveau 2
cesser 2
cession 2
cg67.fr 2
cha 2
chage 2
chaises 2
chaleureuse 2
cham@@ 2
changent 2
changera 2
chant@@ 2
chantaient 2
chantent 2
chap@@ 2
chari@@ 2
charpente 2
chass@@ 2
chasser 2
chasseurs 2
chat 2
chauds 2
chauffe 2
chauffeurs 2
chaussure 2
chem@@ 2
chemins 2
chenaux 2
chera 2
chercheuse 2
chers 2
cheuse 2
chevelure 2
cheville 2
chic 2
chili@@ 2
chirurgi@@ 2
chocol@@ 2
chocs 2
chois@@ 2
choisissait 2
choisissent 2
choisit 2
chol@@ 2
chon 2
choqué 2
choral 2
chorales 2
chorégraphie 2
chorégraphies 2
choy@@ 2
chronique 2
chroniqueurs 2
chrono 2
chronométrés 2
chs 2
chutes 2
chuté 2
chèques 2
chêne 2
ci-dessus 2
cias 2
cibler 2
cicatr@@ 2
cident 2
cienne 2
cier 2
cigare 2
cigognes 2
cimenterie 2
cimetières 2
cin@@ 2
cinéaste 2
cinémat@@ 2
cinématographique 2
circul@@ 2
circulent 2
circuler 2
cires 2
cirés 2
citations 2
citons 2
citoyenne 2
citées 2
civilisation 2
cken@@ 2
clair@@ 2
clairement 2
clam@@ 2
claques 2
clarté 2
classée 2
classés 2
cliente 2
clientes 2
cliquez 2
cloches 2
clope 2
clous 2
club-house 2
clé@@ 2
clôture 2
co-président 2
coaccusés 2
coff@@ 2
coffret 2
coiffure 2
coins 2
cole 2
colibri 2
colisti@@ 2
collabor@@ 2
collaborer 2
collectionn@@ 2
collectivité 2
collier 2
collines 2
collè@@ 2
collégiens 2
colomb@@ 2
colonies 2
colorés 2
combatt@@ 2
combin@@ 2
comble 2
combustibles 2
comiques 2
commandit@@ 2
commencera 2
commentaire 2
commer@@ 2
commerci@@ 2
commissions 2
communi@@ 2
communications 2
communiqués 2
communiste 2
communistes 2
commémoratif 2
compagn@@ 2
comparativement 2
compensatoires 2
compenser 2
compensés 2
complices 2
complétée 2
complétées 2
comporte 2
comporté 2
compos@@ 2
compose 2
composer 2
composez 2
composition 2
composées 2
comprenant 2
comprendra 2
comprise 2
comptabilisées 2
comptant 2
compères 2
compétence 2
compétitif 2
comédienne 2
comédiennes 2
comédiens 2
con 2
concentrée 2
concentrées 2
concepts 2
concernent 2
concerto 2
concessionnaires 2
concevoir 2
conclut-il 2
concour@@ 2
concrets 2
concrète 2
concrét@@ 2
concrétiser 2
concurrentes 2
concède 2
condam@@ 2
condamnations 2
conduire 2
confectionnés 2
confiante 2
confidenti@@ 2
confie-t-il 2
confirm@@ 2
confiseurs 2
confitures 2
confondre 2
confor@@ 2
conformément 2
confortables 2
confron@@ 2
confrontation 2
confronté 2
confrères 2
confrérie 2
confèrent 2
conférences 2
congélation 2
coni 2
conjoints 2
conjon@@ 2
conjug@@ 2
connais 2
connaissait 2
connaisseurs 2
connaissez 2
connexions 2
conquérant 2
conquérir 2
consci@@ 2
conseillé 2
consensu@@ 2
considérable 2
consignes 2
consistant 2
consistoire 2
consoles 2
consoli@@ 2
consommer 2
consommé 2
constamment 2
constatations 2
constituante 2
constituer 2
constituerait 2
constitution 2
constitutionnelle 2
constituée 2
construite 2
construits 2
consécutifs 2
contempler 2
contempor@@ 2
contenter 2
contenus 2
conteur 2
contient 2
continu 2
continuait 2
continuent 2
continuité 2
contradictions 2
contraign@@ 2
contravention 2
contraventions 2
contre-la-montre 2
contre-produ@@ 2
contrebande 2
contribuable 2
contribuent 2
contribuera 2
contributions 2
contrôlée 2
convainc@@ 2
convaincante 2
convaincu 2
conval@@ 2
conver@@ 2
conversation 2
converser 2
converti 2
conviend@@ 2
convo@@ 2
convoqué 2
convoqués 2
cool 2
coopér@@ 2
coopérer 2
coord@@ 2
coordonnateur 2
copi@@ 2
copines 2
coprésident 2
coque 2
coquetterie 2
corde 2
cordi@@ 2
corpor@@ 2
correspond 2
correspondance 2
corridor 2
corrompu 2
corso 2
coréen 2
costumés 2
cotes 2
coucher 2
couches 2
coudes 2
coulait 2
couper@@ 2
courante 2
coureur 2
courriel 2
courtiers 2
courtise 2
cousin 2
couvent 2
couverture 2
couvre 2
cov@@ 2
coéquipiers 2
coûte 2
coûtera 2
crainte 2
crampons 2
craquer 2
creusé 2
creux 2
cri 2
cris 2
crist@@ 2
cristall@@ 2
criti@@ 2
crié 2
croise 2
croisement 2
croisiéristes 2
croissant 2
croisés 2
croqu@@ 2
cru@@ 2
cruci@@ 2
crus 2
créances 2
créant 2
créatures 2
crédi@@ 2
créneau 2
csc-@@ 2
ct 2
ctent 2
ctifs 2
ctionnés 2
ctives 2
ctoire 2
ctu@@ 2
ctur@@ 2
cture 2
ctures 2
cueillir 2
cuisinière 2
cuisson 2
cuivres 2
culation 2
cultes 2
cultive 2
cultivé 2
cultur@@ 2
cur@@ 2
curseur 2
cyber-@@ 2
cyclistes 2
cynisme 2
câblo@@ 2
célibataire 2
célèbrera 2
céléb@@ 2
célébré 2
cément 2
cépage 2
cérébrale 2
cés 2
cô@@ 2
côt@@ 2
côtoient 2
dahin 2
dain 2
dal@@ 2
dalle 2
dames 2
dan 2
dan@@ 2
dangers 2
dann 2
danoise 2
dantes 2
darauf 2
dat@@ 2
dates 2
dau@@ 2
davon 2
deau 2
dedans 2
del@@ 2
demander@@ 2
demandée 2
demeurés 2
demi-douzaine 2
demi-finales 2
demi-saison 2
denheim 2
derie 2
descendants 2
descendre 2
design@@ 2
dess@@ 2
dessen 2
dessine 2
dessiné 2
dessinée 2
dessous 2
dest@@ 2
desti@@ 2
destin 2
destin@@ 2
destinées 2
destruction 2
deux-@@ 2
devants 2
devançant 2
devenant 2
deviendra 2
deviendrait 2
diab@@ 2
diacre 2
dialo@@ 2
diamant 2
diaporama 2
dict@@ 2
dictateur 2
did 2
dier 2
diesem 2
diesen 2
diffuser 2
différentiel 2
dig@@ 2
digestif 2
digne 2
dilemme 2
dim 2
diminution 2
dine 2
diocèse 2
diplôm@@ 2
dique 2
dirai 2
dirait 2
directs 2
dires 2
dirigeantes 2
dirigées 2
dirigés 2
diront 2
disais 2
discothèques 2
discrimin@@ 2
discriminations 2
disons 2
disposait 2
dispositions 2
disposés 2
diss@@ 2
dissement 2
dissi@@ 2
dissolution 2
dissuasive 2
dissémin@@ 2
distances 2
distinc@@ 2
distingue 2
distribue 2
dites 2
diversement 2
divul@@ 2
dix-huit 2
dman 2
documentaires 2
doir 2
dom 2
domicilié 2
dominent 2
domm@@ 2
donateurs 2
donnant 2
donnerions 2
donnés 2
dop@@ 2
dor 2
dorf 2
dormir 2
dors 2
doré 2
dorénavant 2
dot 2
dot@@ 2
dotation 2
douceur 2
douteuse 2
doux 2
dra 2
draine 2
dre@@ 2
dresse 2
dro@@ 2
dues 2
dynamiques 2
déambul@@ 2
déballer 2
débarqué 2
débarquée 2
débarrasser 2
débit 2
débour@@ 2
débrouill@@ 2
début@@ 2
débutant 2
déceler 2
décennie 2
déchirer 2
décidait 2
décident 2
décidera 2
décidément 2
déclare-t-il 2
déclarés 2
déclenche 2
déclenché 2
déclenchée 2
déclin@@ 2
décliné 2
décoché 2
décoll@@ 2
décoller 2
décombres 2
décomptées 2
déconfiture 2
déconseill@@ 2
décoré 2
décorés 2
décou@@ 2
décrocher 2
décroché 2
décrochés 2
décé@@ 2
dédi@@ 2
dédiées 2
défavor@@ 2
défavorable 2
défavorisées 2
défavorisés 2
défend@@ 2
défendent 2
défensive 2
défer@@ 2
défin@@ 2
définir 2
définitifs 2
défis 2
défoncer 2
déforestation 2
déform@@ 2
dégage 2
dégagent 2
dégagées 2
dégrader 2
dégusté 2
délect@@ 2
délibér@@ 2
délibération 2
délibérer 2
délibérément 2
délicate 2
délit 2
délivrer 2
délégués 2
démant@@ 2
dément 2
dément@@ 2
démesur@@ 2
démi@@ 2
démissions 2
démocr@@ 2
démolition 2
démonstrations 2
démontre 2
démontée 2
déménager 2
déneiger 2
déni 2
dénonce 2
dénoncent 2
déo 2
dépannage 2
dépassant 2
dépend 2
dépendantes 2
dépendra 2
dépens@@ 2
dépensent 2
dépenser 2
dépist@@ 2
déplace 2
déplacées 2
dépli@@ 2
déployé 2
déportation 2
dépose 2
dépou@@ 2
dépouill@@ 2
dépression 2
députation 2
député-maire 2
dérivés 2
dérob@@ 2
déroulait 2
déroulé 2
déroulées 2
désav@@ 2
désavoué 2
déseng@@ 2
déser@@ 2
déserte 2
désespérément 2
désign@@ 2
désignant 2
désignation 2
désigner 2
désillusion 2
désinfection 2
désinvol@@ 2
désirant 2
déstabiliser 2
déséquilibre 2
détaillants 2
détendre 2
détenteur 2
détiennent 2
détourn@@ 2
détriment 2
détruit 2
détruits 2
détéri@@ 2
dével@@ 2
développ@@ 2
développées 2
développés 2
dévoile 2
dévoilera 2
dévol@@ 2
dévouement 2
déçue 2
dûment 2
e.- 2
eau@@ 2
ebenso 2
ebourg 2
ede@@ 2
effectivement 2
effectuée 2
effectuées 2
effervescence 2
efficacement 2
effl@@ 2
effond@@ 2
effondrer 2
eg 2
ehl 2
einheimischen 2
eint 2
ek 2
ellen 2
elli 2
eman 2
embarr@@ 2
embau@@ 2
emblée 2
emblématique 2
emblématiques 2
embour@@ 2
embras@@ 2
embûches 2
emit@@ 2
empar@@ 2
empereur 2
empl@@ 2
emplacement 2
emplacements 2
emploie 2
employ@@ 2
empo@@ 2
empr@@ 2
empreintes 2
empris@@ 2
emprise 2
emprisonnement 2
empruntent 2
emprunter 2
en-@@ 2
enau@@ 2
ench@@ 2
enchant@@ 2
enchantement 2
enci@@ 2
encombrants 2
encombrée 2
encourageant 2
encourager 2
encre 2
encyclop@@ 2
endent 2
ender 2
endettement 2
endomm@@ 2
endorf 2
endosse 2
endra 2
enferm@@ 2
enfermement 2
enfiler 2
enfilé 2
enfou@@ 2
engagées 2
engagés 2
engranger 2
engrangé 2
enheim-@@ 2
enjoint 2
enlevée 2
enlevées 2
ennei@@ 2
ennuyer 2
enquêteur 2
enregistrée 2
enregistrés 2
enrhum@@ 2
enseignante 2
ensembles 2
entable 2
ental 2
entale 2
entam@@ 2
entamé 2
entaux 2
entendait 2
entends 2
entendus 2
ententes 2
enter@@ 2
enthousiastes 2
entiel 2
entielle 2
entités 2
entorse 2
entourage 2
entourent 2
entourer 2
entretenu 2
entretiennent 2
entretiens 2
entrev@@ 2
entrevues 2
entz 2
entérinée 2
entés 2
enveloppé 2
environnemental 2
environnementale 2
environnementales 2
environnementaux 2
envisag@@ 2
envisager 2
envoie 2
envole 2
envoler 2
envoyés 2
erer 2
erle 2
ernel 2
ero 2
erre 2
ersto@@ 2
erten 2
erung 2
ery 2
es-là 2
escal@@ 2
escalier 2
escaliers 2
esch 2
esclavage 2
esheim 2
espagnole 2
espi@@ 2
espérait 2
espérance 2
espérances 2
essaie 2
essay@@ 2
essen 2
essentielle 2
esses 2
essionn@@ 2
essions 2
essler 2
essouff@@ 2
estamp@@ 2
ester 2
esti 2
estim@@ 2
estri@@ 2
eth@@ 2
etière 2
etta 2
etter 2
etterie 2
ettiste 2
etté 2
eucharistique 2
euf 2
eur-@@ 2
eure 2
eurent 2
eures 2
euro@@ 2
ewwe 2
ex-candidate 2
exact 2
examiné 2
exceptionnellement 2
exceptionnels 2
excessi@@ 2
excitant 2
exclamée 2
exclu 2
excluait 2
exclusives 2
excursions 2
excès 2
excédent 2
exemplaire 2
exemples 2
exhortant 2
exigences 2
exiger 2
existants 2
exotiques 2
expl@@ 2
explicite 2
expliquait 2
explique-t-elle 2
expliquent 2
exploitants 2
exploite 2
exploités 2
explorateur 2
explorateurs 2
export@@ 2
exportateurs 2
exposants 2
expressi@@ 2
expression 2
exprimant 2
exprime 2
expriment 2
expul@@ 2
expulsion 2
expéri@@ 2
extern@@ 2
externalisés 2
extirper 2
extraordinaires 2
extraterrestre 2
extrémistes 2
exécutif 2
exécutée 2
ez-@@ 2
ez@@ 2
f-B@@ 2
fabricants 2
fabriquée 2
facettes 2
faciles 2
facteurs 2
faction 2
facturés 2
faculté 2
failli 2
falaise 2
famili@@ 2
familiaux 2
fan 2
fan@@ 2
fant@@ 2
fantastiques 2
fas@@ 2
fascination 2
fast@@ 2
faste 2
fat@@ 2
fati@@ 2
fatidique 2
fatigue 2
fau@@ 2
faune 2
faut-il 2
fautes 2
favorablement 2
favoriser 2
façons 2
feld 2
felden 2
fermement 2
fermer 2
fermes 2
ferr@@ 2
fester 2
festgenommen 2
festivals 2
feu@@ 2
feuilles 2
fiancée 2
fibre 2
field 2
fig@@ 2
figurines 2
filets 2
fillette 2
fine 2
finie 2
finissent 2
firent 2
first 2
fiss@@ 2
fixée 2
fixés 2
fière 2
flambeaux 2
flamboyant 2
flan@@ 2
flatt@@ 2
fler 2
fleuri 2
fleuriste 2
flux 2
fléau 2
flûtes 2
folie 2
folle 2
fonctionn@@ 2
fonctionnaire 2
fonctionnait 2
fondeurs 2
fondé 2
fonte 2
footballeurs 2
ford 2
forestière 2
forfaitaire 2
forgé 2
format@@ 2
formateur 2
formul@@ 2
formés 2
fort@@ 2
fortun@@ 2
fouilles 2
fouler 2
four 2
four@@ 2
fournies 2
fournis 2
fournisseur 2
fourniture 2
fracture 2
frag@@ 2
fragilité 2
framboises 2
franco-colombienne 2
franco-néerlandais 2
franquette 2
frappe 2
frappeurs 2
frat@@ 2
fratrie 2
frau@@ 2
fraî@@ 2
fraîche 2
frein 2
freiner 2
freins 2
fris@@ 2
frites 2
fro@@ 2
froidement 2
froids 2
from@@ 2
frontalière 2
fru@@ 2
frustré 2
fréquente 2
fréquenté 2
fréquentée 2
ft 2
fui 2
fulgurante 2
fumure 2
fun 2
funiculaire 2
funérailles 2
funéraires 2
fur@@ 2
fus@@ 2
fusill@@ 2
fusils 2
fustig@@ 2
fusée 2
fusées 2
fut@@ 2
futures 2
fuy@@ 2
fèves 2
fédère 2
féerie 2
féerique 2
fées 2
féli@@ 2
félicit@@ 2
fétiche 2
führt 2
gab 2
gage 2
gal@@ 2
galerie 2
galvau@@ 2
gam@@ 2
gaming 2
gamins 2
ganz 2
gar 2
garant 2
gardant 2
garder@@ 2
garderie 2
gardes 2
gares 2
garnie 2
garçonnet 2
gass 2
gau@@ 2
geait 2
geant 2
geants 2
ged@@ 2
gegenüber 2
gelés 2
gemacht 2
gements 2
gen 2
genres 2
gentes 2
gerbes 2
geur 2
gie 2
gienne 2
gier 2
giratoire 2
givre 2
glaçons 2
glissant 2
globe 2
glori@@ 2
glorieux 2
glé 2
gner 2
gnes 2
gno@@ 2
gnées 2
gomme 2
gon@@ 2
gonfl@@ 2
gonfler 2
gor@@ 2
gothique 2
gour@@ 2
gourman@@ 2
gouvern@@ 2
gouvernementales 2
gouverner 2
goûts 2
graines 2
gramme 2
grand-chose 2
graph@@ 2
graphi@@ 2
graphie 2
graphique 2
grat@@ 2
grati@@ 2
gratin 2
gratuits 2
gravement 2
gravir 2
greffe 2
grimper 2
gris 2
grise 2
grist 2
grogne 2
group@@ 2
groupement 2
grâces 2
grèves 2
grégorien 2
grés 2
grévistes 2
grêle 2
gs 2
guent 2
guer 2
guerrier 2
guerriers 2
guet 2
gueur 2
guichet 2
guidée 2
guirlandes 2
gut 2
gut@@ 2
guérilléros 2
gués 2
gy 2
gymnastes 2
gyn@@ 2
gâ@@ 2
gâteau 2
génère 2
géné@@ 2
généralisé 2
générer 2
génériques 2
généti@@ 2
géographie 2
géographique 2
géopolitique 2
gér@@ 2
h-19 2
h.- 2
h10 2
h35 2
ha@@ 2
habili@@ 2
habiller 2
habitent 2
habitu@@ 2
habitudes 2
habituelle 2
habitué 2
habitués 2
hai@@ 2
hal 2
halles 2
halte 2
halten 2
han 2
handicapées 2
happ@@ 2
harmon@@ 2
harmonieusement 2
harmonisation 2
harte 2
hau@@ 2
hausses 2
haut-rhinoise 2
haut@@ 2
he@@ 2
hect@@ 2
hectare 2
helfen 2
hen@@ 2
herr 2
heurte 2
heurtés 2
hic 2
hinaus 2
hindous 2
hip 2
hique 2
hiss@@ 2
hivern@@ 2
hiérarchie 2
hoch@@ 2
hockey@@ 2
hof 2
homicide 2
homm@@ 2
honneurs 2
honorable 2
honorés 2
honte 2
hor@@ 2
horizon 2
hors-pair 2
hospitali@@ 2
hospitalisé 2
hospitalisées 2
hostile 2
hostiles 2
hotte 2
houlette 2
houleux 2
huile 2
huitième 2
hum@@ 2
humain 2
humi@@ 2
humidité 2
humiliations 2
humilité 2
humor@@ 2
humoristes 2
hybrides 2
hydr@@ 2
hym@@ 2
hyper 2
hypothé@@ 2
hypothécaires 2
hâ@@ 2
hé@@ 2
héber@@ 2
hébreu 2
héritière 2
hérité 2
hésite 2
ian 2
icain 2
icône 2
identifier 2
idéal 2
idéale 2
iez 2
ignor@@ 2
ignorance 2
ihm 2
ihr 2
iller 2
illimitée 2
illonné 2
illuminations 2
illusion 2
illustr@@ 2
illustration 2
illustratrice 2
illustrée 2
illustrés 2
imagination 2
imagine 2
iment 2
imitait 2
imitations 2
imm@@ 2
immatriculée 2
immi@@ 2
immigrants 2
immobiliser 2
immobilisé 2
impacts 2
impatience 2
impayées 2
impayés 2
impeccables 2
implanté 2
implantée 2
implantées 2
impliquer 2
impliqué 2
impopularité 2
importation 2
importations 2
imposables 2
impose 2
impossibilité 2
impressionn@@ 2
impressionnante 2
imprimée 2
impro 2
improvis@@ 2
improvisation 2
imprégn@@ 2
imputés 2
impéri@@ 2
inamovible 2
inaug@@ 2
inaugure 2
inaugurer 2
incapable 2
incapacité 2
incar@@ 2
incarc@@ 2
incarcérés 2
incarner 2
incertaine 2
incidents 2
incité 2
incliner 2
inclure 2
inclut 2
incoh@@ 2
incom@@ 2
incompétent 2
incontournables 2
incorpor@@ 2
indemnités 2
indiens 2
indignation 2
indigné 2
indique-t-il 2
indispensables 2
indolence 2
industrielles 2
indécis 2
indéniable 2
indéterminée 2
ine-@@ 2
inerie 2
inesp@@ 2
inet 2
inets 2
inette 2
infarctus 2
infections 2
infir@@ 2
inform@@ 2
informer 2
informés 2
infrastructures 2
ingen 2
ings 2
ingu@@ 2
ingénieur 2
ingénieurs 2
inhibiteurs 2
inhum@@ 2
inhér@@ 2
ini 2
inier 2
initiales 2
initiateur 2
initié 2
injuste 2
injustifiées 2
innocent 2
innover 2
ino 2
inondable 2
inos 2
inquiétant 2
inquiétants 2
inscrites 2
inscrivant 2
insignifiant 2
insolites 2
inspi@@ 2
inspire 2
inspirés 2
install@@ 2
installant 2
installées 2
instances 2
instaur@@ 2
instaurée 2
instigateur 2
instit@@ 2
institutionnel 2
instru@@ 2
instrument 2
instrument@@ 2
insu@@ 2
insuffis@@ 2
insurge 2
intelligence 2
intenses 2
intensifs 2
intercommunalité 2
interdire 2
interdisant 2
interdite 2
interdits 2
interlocuteur 2
internes 2
interpellation 2
interpellés 2
interpré@@ 2
interpréta 2
interprétations 2
interprétées 2
interrog@@ 2
interrogations 2
interroger 2
interrogée 2
interrompue 2
interruption 2
interven@@ 2
intervenu 2
intervenus 2
interview 2
intestins 2
intimi@@ 2
intimistes 2
introuv@@ 2
intrépide 2
intègre 2
intég@@ 2
intégré 2
intéresse 2
intérieure 2
inuti@@ 2
inutilement 2
invali@@ 2
inven@@ 2
inventeurs 2
invention 2
investissant 2
investissent 2
investisseur 2
invisibles 2
invita 2
involontaire 2
invoquant 2
inzwischen 2
inédits 2
inéluctable 2
inépuis@@ 2
inévit@@ 2
io 2
ions 2
irakiennes 2
iranien 2
ire 2
is-@@ 2
isch@@ 2
ischer 2
isie 2
ision 2
islam@@ 2
islamique 2
isolement 2
issage 2
issait 2
issance 2
issements 2
isser 2
isst 2
istiques 2
isées 2
it-@@ 2
it-il 2
itable 2
itaille 2
italiens 2
itation 2
iter 2
ithéâtre 2
itinéraire 2
itou 2
ivoirien 2
ivre 2
ja 2
jab 2
jadis 2
jalousie 2
jambes 2
jan@@ 2
jaser 2
jaunes 2
jean 2
jet@@ 2
jetant 2
jetés 2
jkovic 2
joi@@ 2
joindre 2
jol@@ 2
jolie 2
jouaient 2
jouant 2
jouet 2
joueuses 2
jouissif 2
jouit 2
jour-là 2
journaux 2
jovial 2
joyeuse 2
jubil@@ 2
judiciaires 2
judoka 2
jugeait 2
jugeant 2
juger 2
jumelage 2
jumelles 2
jun@@ 2
juniors 2
juriste 2
juré 2
jus 2
jusque-là 2
justes 2
justifi@@ 2
kam 2
kamikaze 2
kamikazes 2
kar@@ 2
katas 2
kel 2
ken 2
kenheim 2
ketchup 2
ki 2
ki@@ 2
kilo 2
kilom@@ 2
kilos 2
kings 2
kirch@@ 2
kitsch 2
km2 2
kos 2
kov 2
kämpfen 2
kén@@ 2
können 2
kündigte 2
la-@@ 2
label 2
labels 2
labeur 2
labor@@ 2
laborieuse 2
lac@@ 2
lais@@ 2
laissait 2
laissera 2
laissez 2
laissés 2
lam 2
lampadaire 2
lampe 2
lanc@@ 2
lancent 2
land 2
lange 2
lants 2
lapins 2
lards 2
larmoy@@ 2
latitude 2
lau@@ 2
lauriers 2
lauréat 2
le-Haut 2
leadership 2
leitmotiv 2
len 2
len@@ 2
ler@@ 2
leta 2
liaison 2
libell@@ 2
liber@@ 2
librairie 2
libre-@@ 2
librement 2
libres 2
libère 2
libé@@ 2
libérés 2
lic@@ 2
licencié 2
lichen 2
lie 2
lienne 2
lies 2
lieutenant 2
lig@@ 2
limites 2
limitrophes 2
limité 2
line 2
ling@@ 2
linge 2
lingu@@ 2
liqu@@ 2
liqui@@ 2
lir 2
lis 2
littéraires 2
litz 2
liv@@ 2
live 2
liée 2
ll 2
llage 2
lles 2
lo 2
locations 2
lock@@ 2
locomotive 2
logiquement 2
logis 2
logisti@@ 2
logistique 2
logo 2
lointain 2
loisir 2
londonien 2
long-@@ 2
long@@ 2
longueur 2
los 2
losange 2
louer 2
lounge 2
loupe 2
lourde 2
lover 2
luci@@ 2
lucide 2
lumin@@ 2
lumineuse 2
lun@@ 2
lutins 2
ly@@ 2
lyonnais 2
lyonnaise 2
lâche 2
lâché 2
lè@@ 2
lé@@ 2
lées 2
légend@@ 2
légion 2
légitime 2
légères 2
lésinent 2
lézar@@ 2
machines 2
macroéconomique 2
mag@@ 2
magazines 2
magistralement 2
mail@@ 2
main-d' 2
maintenue 2
maintenues 2
mairesse 2
mais@@ 2
majoration 2
majoritaire 2
malarticois 2
malfaiteurs 2
malheur 2
malheureusement 2
malice 2
maltrai@@ 2
maman 2
manag@@ 2
manche 2
manches 2
mand 2
mand@@ 2
mandar@@ 2
mandaté 2
manières 2
manne 2
mannequin 2
manoeuvre 2
manquera 2
mant 2
manuelle 2
manufactu@@ 2
manuscri@@ 2
manège 2
maquill@@ 2
marathon 2
marchand 2
margin@@ 2
marginal 2
mariages 2
mariée 2
marquera 2
marqués 2
martelé 2
martyrologe 2
masculines 2
masque 2
masquer 2
massacre 2
massi@@ 2
massive 2
matern@@ 2
maternelles 2
maturité 2
matériaux 2
maurit@@ 2
mausolée 2
maximale 2
maximales 2
maîtres 2
maîtriser 2
maïs 2
meaux 2
meeting 2
mehreren 2
meint 2
mel 2
menacées 2
menaient 2
menaçant 2
mensonges 2
mensongère 2
mensuels 2
mention 2
mentionne-t-il 2
mentir 2
mentor 2
ments 2
mercato 2
mets 2
mettons 2
meur 2
meurtres 2
meurtriers 2
meyer 2
mezzo-soprano 2
mi 2
mi-février 2
micro-@@ 2
mie 2
migration 2
milices 2
militant 2
milite 2
milliard@@ 2
millier 2
millimètres 2
millésime 2
min 2
mini-@@ 2
minière 2
minoritaire 2
mique 2
miques 2
mir@@ 2
miracle 2
miracles 2
mire 2
miroirs 2
miroiter 2
mis@@ 2
misent 2
missionnaire 2
misé 2
misérable 2
mixte 2
mières 2
mobiliser 2
mobilisés 2
mod@@ 2
modernisé 2
modestes 2
modifi@@ 2
modifier 2
modèles 2
modé@@ 2
modér@@ 2
modérées 2
moeurs 2
moi-même 2
moine 2
moiteur 2
mondi@@ 2
mondiaux 2
moni@@ 2
monn@@ 2
mono@@ 2
monopole 2
monstr@@ 2
montage 2
montagnard 2
monteur 2
montr@@ 2
montres 2
montréalaise 2
montées 2
moque 2
mordu 2
mos@@ 2
mosaïque 2
mot@@ 2
motion 2
motonei@@ 2
mou 2
mouches 2
moul@@ 2
moutons 2
movie 2
moyen-@@ 2
multiplier 2
multiplié 2
municipalités 2
musicaux 2
muss 2
musste 2
musulman 2
mutation 2
mystères 2
mystéri@@ 2
mythe 2
mythes 2
mythique 2
mènent 2
mères 2
mètre 2
mécaniques 2
méchant 2
mécontentement 2
médiation 2
médical 2
médicaux 2
méditer 2
méfiance 2
méga-@@ 2
mégawatts 2
mélanco@@ 2
mélang@@ 2
mélange 2
mélanges 2
mélodie 2
mélodies 2
mém@@ 2
mémoires 2
mémor@@ 2
ménagères 2
ménopause 2
méritants 2
mésaventure 2
métalli@@ 2
métrage 2
métrages 2
métri@@ 2
métro 2
métro@@ 2
métropole 2
météor@@ 2
météorologique 2
météorologues 2
nach@@ 2
naissances 2
naissant 2
nales 2
nannte 2
nant 2
nap@@ 2
nappe 2
nar@@ 2
narco-@@ 2
narrateur 2
narration 2
nationales 2
nationalité 2
nations 2
natur@@ 2
naturels 2
naï@@ 2
naïveté 2
nectar 2
neiges 2
nent 2
nera 2
nerait 2
nerfs 2
neront 2
nettoyage 2
neue 2
neufs 2
neutraliser 2
neveux 2
nie 2
nier 2
nitt 2
nié 2
no 2
noce 2
noeuds 2
nom@@ 2
nomin@@ 2
nomination 2
non-fumeurs 2
nor@@ 2
nord-@@ 2
nostal@@ 2
not@@ 2
notaire 2
notent 2
nounours 2
nourri 2
nourrir 2
nourrissent 2
nourrisson 2
nourriture 2
novateur 2
nuages 2
nucléaires 2
nuira 2
nuls 2
num@@ 2
nus 2
nutris 2
ny 2
nécessitera 2
néer@@ 2
néerlandaise 2
négatif 2
négative 2
néglige 2
néo-apostolique 2
néophyte 2
nôtre 2
oa 2
oben 2
obes 2
objecti@@ 2
obscurantisme 2
obscure 2
obscures 2
observation 2
observent 2
observé 2
observés 2
obtenant 2
obtention 2
obus 2
occasionner 2
occidentales 2
occupaient 2
occupant 2
occupation 2
occupé 2
occurrence 2
och@@ 2
oche 2
oci@@ 2
octogénaire 2
octroi 2
océ@@ 2
od@@ 2
odder 2
odyssée 2
oeu@@ 2
oeuf 2
offensifs 2
officielles 2
officier 2
officiers 2
officine 2
offrait 2
offrent 2
offri@@ 2
offriront 2
ogie 2
ogne 2
ographe 2
ographi@@ 2
oient 2
oignons 2
oine 2
oises 2
oisi@@ 2
olages 2
oles 2
oli 2
ologue 2
ologues 2
ols 2
olt 2
olé@@ 2
olées 2
om 2
ombe 2
ombres 2
omption 2
omètres 2
onais 2
onation 2
oner 2
ones 2
onique 2
onnage 2
onnement 2
onnements 2
onnées 2
ons-@@ 2
ont@@ 2
ontarien 2
ontarienne 2
onzième 2
open 2
ophonie 2
oppes 2
opportun 2
opportun@@ 2
oppose 2
opposer 2
opposera 2
opter@@ 2
optimisme 2
opéré 2
opérée 2
orage 2
orant 2
orde 2
ordinaire 2
ordinateurs 2
oreilles 2
ores 2
orf 2
organ@@ 2
organigramme 2
organisait 2
organiste 2
organisés 2
oriale 2
orient@@ 2
oriental 2
origin@@ 2
original 2
originale 2
originalité 2
oriquement 2
ornent 2
oro 2
orphel@@ 2
osc@@ 2
oser 2
osse 2
ot-@@ 2
otage 2
otes 2
ots 2
oul@@ 2
oule 2
oun 2
ous 2
ouss@@ 2
out 2
outi@@ 2
outil 2
outé 2
outée 2
ouvertes 2
ouvr@@ 2
ouvrait 2
ouvrier 2
ouvrira 2
oux 2
ov 2
ovski 2
ow 2
oxygène 2
pacifiste 2
paiera 2
paill@@ 2
paillettes 2
pains 2
paisi@@ 2
paisiblement 2
pakistan@@ 2
palestinienne 2
pallier 2
paludisme 2
panel 2
panique 2
panneau 2
panneaux 2
pans 2
pantalon 2
parachuté 2
paradis 2
paradoxal 2
paradoxe 2
paralysée 2
parapluie 2
paraître 2
paraîtront 2
parcelle 2
parcourir 2
pareil 2
parent@@ 2
parentaux 2
parenté 2
parer 2
paris 2
parisienne 2
parl@@ 2
parlent 2
parodie 2
parodies 2
paroissial 2
paroles 2
parrain 2
parsem@@ 2
partageait 2
partagent 2
partagée 2
partement 2
participatifs 2
participations 2
participera 2
partielles 2
partitions 2
parvenue 2
passable 2
passages 2
passerait 2
passerelle 2
passerelles 2
passible 2
passionnant 2
passés 2
past@@ 2
pati@@ 2
patrimoni@@ 2
patronale 2
patrouille 2
patrouilles 2
patte 2
pavillon 2
pavot 2
payaient 2
payant 2
paysager 2
paysanne 2
peauf@@ 2
peaux 2
peindre 2
peint 2
peintes 2
pell@@ 2
pelle 2
pelouse 2
pement 2
pencher 2
pensaient 2
pensait 2
pensi@@ 2
pensées 2
pentes 2
per 2
pera 2
perc@@ 2
percutant 2
percuté 2
perdent 2
perdr@@ 2
perdue 2
perfe@@ 2
perfectionn@@ 2
perman@@ 2
permet@@ 2
permettaient 2
permette 2
permise 2
perplexes 2
perpétr@@ 2
perquisition 2
persist@@ 2
persistante 2
persiste 2
persuadé 2
persév@@ 2
pertur@@ 2
perturbé 2
pervers 2
perçoivent 2
pest@@ 2
pesé 2
petite-fille 2
peuples 2
peut-elle 2
peut-il 2
peut-on 2
phara@@ 2
pharmaceutique 2
philosop@@ 2
phine 2
phrases 2
physi@@ 2
physiques 2
phénomén@@ 2
pi 2
pic 2
pied@@ 2
pierres 2
piliers 2
pillés 2
piratage 2
pirates 2
pires 2
pistolet 2
pièges 2
piét@@ 2
placements 2
plaies 2
plaign@@ 2
plaindre 2
plaire 2
plais@@ 2
plaisant 2
plaisant@@ 2
plant@@ 2
plantes 2
planté 2
plasma 2
plat@@ 2
platz 2
play@@ 2
pleinement 2
plexe 2
plongé 2
plongée 2
plongés 2
plumes 2
plus-@@ 2
plèbe 2
plé 2
plée 2
pléiade 2
pneus 2
pochette 2
poignardé 2
poignet 2
pointage 2
poisson 2
pole 2
policières 2
polit@@ 2
politicienne 2
politischen 2
poly@@ 2
pommes 2
ponctuelles 2
ponctué 2
ponts 2
pop 2
populaires 2
porcelaine 2
portable 2
portables 2
porte-couleurs 2
portent 2
portera 2
portrait 2
ports 2
positifs 2
positionn@@ 2
postales 2
postiers 2
postulants 2
posé 2
pot 2
pot-pourri 2
pote 2
poteau 2
poteaux 2
potentiels 2
potir@@ 2
poubelle 2
poul@@ 2
poulet 2
pourboire 2
pourrait-il 2
poursuit-il 2
poursuiv@@ 2
poursuivront 2
poussaient 2
pousse 2
poussera 2
poussière 2
pouv@@ 2
pouvais 2
pouvant 2
power 2
poème 2
poésies 2
ppé 2
pratiquant 2
pratiquants 2
preise 2
premium 2
pren@@ 2
prendront 2
prends 2
pressions 2
pressés 2
prestigieuse 2
price 2
primes 2
priorité 2
privatisation 2
privilège 2
priés 2
probl@@ 2
procession 2
prochainement 2
proclamer 2
procé@@ 2
profanation 2
profanes 2
profondes 2
progest@@ 2
programm@@ 2
programmés 2
progressant 2
progresse 2
progressent 2
progresser 2
progressi@@ 2
prohi@@ 2
proie 2
projecteur 2
projecteurs 2
projetée 2
prolongea 2
promenades 2
prometteur 2
promise 2
promo@@ 2
prompt 2
prononcer 2
proph@@ 2
proportions 2
proposent 2
proposés 2
propr@@ 2
proprement 2
propriétés 2
propul@@ 2
prostitu@@ 2
protestantes 2
proto@@ 2
protégeait 2
protégeant 2
protégées 2
protégés 2
prouesses 2
prouv@@ 2
prouvé 2
proverbe 2
provinci@@ 2
provoque 2
près-@@ 2
pré 2
précaution 2
précieuse 2
précieuses 2
précip@@ 2
précis@@ 2
précisait 2
précise-t-il 2
précises 2
précision 2
préconise 2
précédemment 2
préfe@@ 2
préfé@@ 2
préférable 2
préférence 2
prélats 2
préliminaire 2
prématur@@ 2
prénom 2
préoccuper 2
préoccupé 2
préparateur 2
préparatoires 2
préparés 2
prés 2
présager 2
présentait 2
présentement 2
préservé 2
présidait 2
présidentiel 2
présidé 2
présumée 2
prétend 2
prétendant 2
prétendants 2
prétention 2
prétexte 2
prévaloir 2
préventif 2
préventives 2
prévoyait 2
prévoyant 2
psaltérion 2
psychiatrique 2
psychologue 2
psychothé@@ 2
publications 2
publieront 2
publiée 2
puisant 2
puiss@@ 2
puissances 2
puissent 2
puits 2
punition 2
py@@ 2
pyrami@@ 2
pyrotechniques 2
pâles 2
pâte 2
pèlerinage 2
pères 2
pé 2
péd@@ 2
pées 2
pén@@ 2
pénale 2
pénalité 2
pénalités 2
péniche 2
pénitencier 2
pénètre 2
péné@@ 2
pépinière 2
pér@@ 2
péri 2
périlleux 2
péru@@ 2
pétrolier 2
pétrolière 2
pêcheur 2
qua@@ 2
quad@@ 2
quadru@@ 2
quaient 2
qualifications 2
qualifié 2
quantités 2
quar@@ 2
quat@@ 2
quelconque 2
quels 2
quer@@ 2
quera 2
querait 2
ques-@@ 2
ques@@ 2
questionn@@ 2
quette 2
quettes 2
quiproquos 2
quistes 2
quo 2
quo@@ 2
quoi@@ 2
quotidiens 2
québécoises 2
rab@@ 2
rach@@ 2
racont@@ 2
racontant 2
racontent 2
raflé 2
rafraîch@@ 2
rag@@ 2
rage 2
rai 2
raid 2
rais 2
rajouter 2
ral@@ 2
ralentir 2
rallier 2
ramasser 2
ramené 2
ramè@@ 2
randonneurs 2
randonnée 2
rangement 2
ranger 2
rangs 2
rangée 2
rançon 2
rapie 2
rapp@@ 2
rappela 2
rappels 2
rapporter 2
rapporteur 2
rapproché 2
rapt 2
ras@@ 2
rassembl@@ 2
rassemblé 2
rassemblées 2
rassemblés 2
rassur@@ 2
rassurée 2
rat@@ 2
ratera 2
ratification 2
ravie 2
rayonnement 2
rdv 2
recapitalisation 2
recensement 2
recentr@@ 2
receveur 2
rech@@ 2
rechercher 2
rechignent 2
recoins 2
recommandations 2
recommande 2
recommandé 2
reconnaissants 2
reconstitutions 2
recrudescence 2
recrues 2
recruter 2
recruté 2
recteurs 2
recti@@ 2
rectifier 2
recueill@@ 2
recueillis 2
redonne 2
redonner 2
ref@@ 2
refaire 2
reflètent 2
refuges 2
refusait 2
regagner 2
regardent 2
regards 2
registre 2
regrettons 2
regroup@@ 2
regroupant 2
regrouper 2
regroupés 2
rehaus@@ 2
rejet@@ 2
rejeter 2
rejette 2
rejetée 2
rejoints 2
rel 2
relancé 2
relate 2
relatif 2
relatives 2
relativiser 2
relax@@ 2
relay@@ 2
relevant 2
relâché 2
relégable 2
relégation 2
remarqu@@ 2
remarquables 2
remarqué 2
rement 2
remerci@@ 2
remerciant 2
remerciements 2
remet 2
remet@@ 2
remettait 2
remettant 2
remontant 2
remontent 2
remor@@ 2
remplac@@ 2
remplace 2
remplacer 2
remplacera 2
rempli@@ 2
remplies 2
remportent 2
remu@@ 2
remédier 2
remémorant 2
renard 2
renchérit 2
rencontrent 2
rendant 2
rende 2
rendit 2
renforcement 2
renforcés 2
renne 2
renommée 2
renoncé 2
renou@@ 2
renouvelable 2
renouveler 2
renouvellement 2
renseigner 2
rentables 2
rente 2
rentrant 2
rentre 2
renversement 2
renverser 2
renvoie 2
renvoyer 2
reparti 2
repartir 2
reportages 2
reportées 2
repousse 2
reprendront 2
reprennent 2
reprochait 2
reprochent 2
reprocher 2
reproduction 2
représentait 2
représentante 2
représenté 2
représentée 2
repérer 2
repéré 2
repêchés 2
requ@@ 2
requise 2
requises 2
reraient 2
rescap@@ 2
rescapés 2
respect@@ 2
respectable 2
respecte 2
respectent 2
ressembler 2
ressent 2
ressentait 2
ressentie 2
resser@@ 2
ressor@@ 2
ressort 2
ressortir 2
restaurer 2
restr@@ 2
restriction 2
restructur@@ 2
restructuration 2
restée 2
retable 2
retardé 2
reten@@ 2
retenir 2
retentissement 2
retir@@ 2
retombées 2
retors 2
retourn@@ 2
retourna 2
retrace 2
retracer 2
retraité 2
retraités 2
retran@@ 2
retrans@@ 2
retransmis 2
retransmise 2
retraçant 2
retrouveront 2
retrouvées 2
revenue 2
reversés 2
revirement 2
revoy@@ 2
revê@@ 2
reçues 2
riant 2
riante 2
ric 2
rich 2
richement 2
richesses 2
richtige 2
rie 2
rie@@ 2
riens 2
rigol@@ 2
rigole 2
ril 2
rill@@ 2
rique 2
rituels 2
rivière 2
rivières 2
rières 2
robes 2
rock' 2
rodage 2
romaine 2
romantisme 2
rondelles 2
rondes 2
roquettes 2
roses 2
roue 2
roulant 2
roule 2
rouler 2
rouste 2
rov 2
roy 2
royal 2
rude 2
ruiner 2
rund 2
russes 2
ryth@@ 2
rythmes 2
réacteur 2
réagir 2
réalisable 2
réalisatrice 2
réalisera 2
réalisme 2
rébellion 2
récents 2
réchauffé 2
réci@@ 2
récidi@@ 2
récipiendaires 2
réciproques 2
récital 2
récits 2
récompense 2
réconciliation 2
réconcilie 2
récupéré 2
rédigé 2
réform@@ 2
réformer 2
réfugié 2
régal 2
régiment 2
région@@ 2
régionaux 2
régularité 2
réguliers 2
réitéré 2
réjouiss@@ 2
rénov@@ 2
réouverture 2
répandue 2
répar@@ 2
réparation 2
réparti@@ 2
réparties 2
répon@@ 2
répondent 2
réputées 2
réputés 2
répétitions 2
réquisitions 2
réservé 2
réservées 2
réservés 2
résid@@ 2
résidences 2
résident 2
résistances 2
résistant 2
résiste 2
résisté 2
résou@@ 2
résul@@ 2
résur@@ 2
résurrection 2
rétablissement 2
rétrogra@@ 2
rétrospective 2
rétroviseur 2
réuni@@ 2
réussis 2
réussissant 2
réveil 2
révélateur 2
révélée 2
rééquilibrer 2
rô@@ 2
sa@@ 2
sable 2
sach@@ 2
sachant 2
sacrement 2
sacri@@ 2
sacrifice 2
sacrifier 2
sacrée 2
sage 2
sagt 2
sain 2
sain@@ 2
sainte-@@ 2
saisies 2
salu@@ 2
saluant 2
salués 2
sam 2
sanction 2
sanctions 2
sandales 2
sang@@ 2
sanglante 2
sanglier 2
sans-papiers 2
sarko@@ 2
satisfaire 2
satisfaisant 2
sauces 2
saumon 2
saumons 2
sauna 2
sauts 2
sauv@@ 2
sauvagement 2
sauvegarde 2
saveurs 2
savez 2
sax@@ 2
saynète 2
sbach 2
sbourg 2
scand@@ 2
scandale 2
scep@@ 2
sch 2
scheint 2
scher 2
schlag 2
schwer 2
schwiller 2
schéma 2
sci@@ 2
scintillants 2
scol@@ 2
scolarisés 2
scotches 2
scénarios 2
scénaristes 2
sdorf 2
secondé 2
secour@@ 2
sehen 2
sei 2
seien 2
seigneur 2
seinem 2
seize 2
semb@@ 2
semblable 2
semblé 2
sement 2
semi-@@ 2
sen 2
senior 2
sensibil@@ 2
sensiblement 2
sentence 2
sentimentale 2
sep@@ 2
septicémie 2
septième 2
septuagénaire 2
sereine 2
sergent 2
serrer 2
serres 2
servait 2
servant 2
servent 2
servie 2
setzen 2
seuil 2
sexuel 2
sexuelle 2
sez 2
sez-vous 2
sf 2
sideman 2
sidér@@ 2
sied 2
sien 2
signal@@ 2
signalé 2
signalétique 2
signer 2
sill@@ 2
similitudes 2
simultan@@ 2
sincèrement 2
sinfon@@ 2
sing 2
sing@@ 2
singe 2
singul@@ 2
sinistres 2
sinistrés 2
sirènes 2
situés 2
sitôt 2
skat 2
sket@@ 2
sketches 2
skieurs 2
sky 2
slowak@@ 2
socialement 2
sociaux-démocrates 2
socio-culturel 2
soft 2
sogar 2
soi-même 2
soign@@ 2
soigner 2
soir-là 2
solde 2
soldes 2
solennité 2
soli 2
soli@@ 2
solidité 2
solitaire 2
solli@@ 2
solliciter 2
sollicitera 2
sollte 2
somaliens 2
sommaire 2
sommets 2
sondés 2
songent 2
sonn@@ 2
sonnette 2
sonore 2
sont-elles 2
sopr@@ 2
sorti@@ 2
soucier 2
soucieux 2
soucis 2
soud@@ 2
soudanaise 2
souffrant 2
souffri@@ 2
souhait 2
souhaitant 2
souhaité 2
souligne-t-il 2
soulignent 2
souper 2
soupers 2
souple 2
soupçons 2
sour@@ 2
souriants 2
sourit 2
sous-préfet 2
soutenus 2
souterraines 2
soutiennent 2
souveraine 2
souvient 2
spectaculaires 2
spel 2
spirale 2
spirituelle 2
splendi@@ 2
sponsors 2
spontanée 2
sporadiques 2
spot 2
spéci@@ 2
spécialisation 2
spécialisé 2
spécifiques 2
spécul@@ 2
sri-lankais 2
ss 2
ssa 2
ssel 2
ssé 2
ssés 2
staff 2
stagiaire 2
stands 2
stap@@ 2
stations-service 2
statistique 2
statues 2
ste 2
ste@@ 2
steht 2
ster 2
stigmatisation 2
stock@@ 2
stockage 2
strasbourg@@ 2
stratégique 2
stri@@ 2
strict 2
strictement 2
strictes 2
structur@@ 2
stu@@ 2
studio 2
stupéfiants 2
styles 2
ständig 2
stéri@@ 2
stéroïdes 2
suave 2
subit 2
sublime 2
substantielles 2
substituts 2
successi@@ 2
successivement 2
succéder 2
sucreries 2
sucré@@ 2
sud-@@ 2
suggérer 2
suisses 2
suivaient 2
suivant 2
suivantes 2
suivies 2
sujets 2
sundgauvien 2
supermarché 2
supersti@@ 2
support 2
supportent 2
supposé 2
supprim@@ 2
supprimé 2
supprimés 2
suprême 2
surfaces 2
surg@@ 2
surplus 2
surprenant 2
surprenante 2
surprend 2
surréalisme 2
surréaliste 2
sursis 2
survenus 2
survie 2
survivants 2
survol 2
susceptibles 2
suspec@@ 2
suspecte 2
suspendus 2
suédoise 2
sy@@ 2
symboliquement 2
sympa 2
sympas 2
sympathisants 2
symphonique 2
symptômes 2
syndic 2
syndicale 2
syndrome 2
synthèse 2
synthétique 2
syrien 2
syst@@ 2
systé@@ 2
séc@@ 2
sécur@@ 2
sécurisation 2
sédi@@ 2
sées 2
séjournent 2
séjourné 2
sélectionneur 2
séparés 2
sérieuse 2
sérieuses 2
sés 2
sûres 2
t-elles 2
t.@@ 2
tabl@@ 2
tablons 2
taches 2
tactique 2
taires 2
tal@@ 2
talentueuse 2
talentueux 2
tali@@ 2
tambour 2
tamouls 2
tanins 2
taqu@@ 2
tar 2
tardive 2
tari@@ 2
tas 2
tasses 2
tatami 2
tau@@ 2
tax@@ 2
taï@@ 2
tch@@ 2
techn@@ 2
technologi@@ 2
teil 2
tek 2
tement 2
tempor@@ 2
tenants 2
tendances 2
tendue 2
teneur 2
tennis 2
tension 2
tentaient 2
tentatives 2
tenus 2
termina 2
terminant 2
terminés 2
tern 2
terrains 2
terran@@ 2
terrasse 2
terre-@@ 2
terrestre 2
terreur 2
territorial 2
territoriale 2
terror@@ 2
ters 2
ters@@ 2
tet 2
texture 2
thaï@@ 2
ther@@ 2
thèse 2
thé 2
théâtrale 2
tiche 2
tiend@@ 2
tiennent 2
tieux 2
timi@@ 2
tionnel 2
tionnelle 2
tionnels 2
tir@@ 2
tireurs 2
tirés 2
tises 2
tiss@@ 2
titrisation 2
tits 2
titulaires 2
tiv@@ 2
tière 2
toiles 2
toilettes 2
toits 2
toiture 2
tol@@ 2
tombée 2
tonitru@@ 2
tonneau 2
tons-@@ 2
top-modèle 2
tornades 2
totalisé 2
touar@@ 2
touchent 2
touches 2
toupies 2
touristiques 2
tournera 2
tournois 2
toxicité 2
tra 2
traditionnellement 2
traduite 2
tragen 2
trahison 2
train@@ 2
traitant 2
traiter 2
traités 2
trajets 2
tramway 2
trans 2
transf@@ 2
transforme 2
transformée 2
transfér@@ 2
transi@@ 2
transitoire 2
transmettent 2
transportant 2
transporte 2
transporter 2
traque 2
traumat@@ 2
travailliste 2
traînait 2
traîneaux 2
tre-@@ 2
treize 2
tremblais 2
tremblements 2
tremplin 2
trente-@@ 2
triage 2
tribune 2
trices 2
trin@@ 2
triompher 2
tripes 2
triple 2
tristesse 2
troc 2
tromper 2
troncs 2
tropicale 2
tropicales 2
trot@@ 2
trottoirs 2
trou 2
trou@@ 2
troupeau 2
trouver@@ 2
trouveront 2
truc 2
trus 2
try 2
tré@@ 2
trésorerie 2
trônent 2
tsunami 2
ttes 2
tuque 2
turcs 2
turer 2
typique 2
tzenheim 2
tzinger 2
tâ@@ 2
tél@@ 2
télécoms 2
téléphonez 2
téléphonique 2
téléskis 2
télév@@ 2
télévisé 2
témoign@@ 2
témoignent 2
tén@@ 2
ténors 2
ténébreux 2
uches 2
uelle 2
uer 2
ueux 2
ultr@@ 2
ultéri@@ 2
ulé 2
umbi@@ 2
ument 2
unanimement 2
ung-@@ 2
uniques 2
unsere 2
up 2
ur 2
ura 2
uration 2
urgentes 2
usic 2
usines 2
utables 2
utaire 2
utations 2
uteur 2
uteurs 2
util@@ 2
utile 2
utiles 2
utilisait 2
utilisent 2
utilisées 2
utés 2
vache 2
vagues 2
vaisseau 2
val 2
valant 2
valent 2
valides 2
valise 2
valises 2
van 2
van@@ 2
vant 2
vanter 2
vanté 2
variations 2
variété 2
vasculaire 2
vastes 2
ve-@@ 2
vement 2
vend 2
vendant 2
vendent 2
vendue 2
ventre 2
vents 2
verait 2
verges 2
vergl@@ 2
verglas 2
verglaç@@ 2
verm@@ 2
versch@@ 2
verseront 2
versi@@ 2
vertes 2
verticale 2
veto 2
veu@@ 2
vez 2
vice-@@ 2
vice-présidence 2
victorieux 2
viendra 2
vienne 2
viennes 2
vigiles 2
vignerons 2
vignoble 2
vilaine 2
vill@@ 2
vingts 2
vinification 2
violemment 2
violé 2
visages 2
visaient 2
visait 2
visas 2
viser 2
visi@@ 2
visionnaire 2
visionné 2
visions 2
visités 2
visé 2
vitalité 2
viticulteurs 2
vitre 2
vitrine 2
vitrines 2
vités 2
viv@@ 2
vivaient 2
vivait 2
vivons 2
vocal 2
voeu 2
voici 2
vol. 2
volatiles 2
volatilité 2
voleur 2
volley@@ 2
volontarisme 2
vom@@ 2
vos@@ 2
vost 2
voudr@@ 2
voudrais 2
voudrait 2
voulais 2
voyager 2
voyaient 2
voyait 2
vrac 2
vraies 2
vraisemblablement 2
vre 2
vs 2
vulgarisateur 2
véc@@ 2
végét@@ 2
végétales 2
véhi@@ 2
véni@@ 2
vénézuéli@@ 2
vér@@ 2
vérificateurs 2
vê@@ 2
wa 2
waren 2
warning 2
web 2
well 2
wenn 2
wes@@ 2
wey 2
wichtig 2
wick 2
wieder 2
wiederholte 2
will 2
win@@ 2
wir 2
wollen 2
wwe 2
wàs 2
während 2
würde 2
xénoph@@ 2
ya 2
yahoo.fr 2
yanes 2
ye 2
yen 2
ym@@ 2
yme 2
you 2
yés 2
zel@@ 2
zig@@ 2
zinger 2
zième 2
zon 2
zon@@ 2
zudem 2
zugehen 2
zurück@@ 2
zwischen 2
zé 2
· 2
Âge 2
ÉS 2
Écocentres 2
Écomusée 2
Économie 2
Édition 2
Également 2
Égyp@@ 2
Égypte 2
Élections 2
Émilie 2
Énergie 2
àm 2
âges 2
âne 2
âtre 2
äu@@ 2
çal 2
çons 2
èbres 2
èdent 2
èque 2
èques 2
èves 2
éance 2
éblou@@ 2
écartant 2
échantillon 2
échappe 2
écho 2
échou@@ 2
éclairer 2
éclat@@ 2
éclatant 2
éclatement 2
éclats 2
écologistes 2
économ@@ 2
économistes 2
écor@@ 2
écossais 2
écosyst@@ 2
écoutant 2
écoutez 2
écr@@ 2
écran 2
écrasante 2
écri@@ 2
écrite 2
écrits 2
écroulent 2
édit@@ 2
éditions 2
éducateur 2
éducatifs 2
éducative 2
ée@@ 2
égal 2
égide 2
égr@@ 2
égyp@@ 2
égyptien 2
égyptiennes 2
élargir 2
éle@@ 2
élec@@ 2
élect@@ 2
électricien 2
électrochoc 2
élever 2
élevées 2
élevés 2
élie 2
éliens 2
élimination 2
élimine 2
éliminer 2
élucidés 2
élue 2
élè@@ 2
élégan@@ 2
éléphant 2
éman@@ 2
ématique 2
émergents 2
émerger 2
émerveillé 2
émet@@ 2
émi@@ 2
émis 2
émissaires 2
énaire 2
énergies 2
éni@@ 2
énoncé 2
épais 2
épanou@@ 2
épargné 2
éphémères 2
épilogue 2
épinards 2
épingle 2
épingles 2
épiscop@@ 2
épousa 2
épu@@ 2
épuis@@ 2
épuré 2
équ@@ 2
équation 2
équestre 2
équilibré 2
équip@@ 2
équipe-école 2
équiper 2
éra 2
érables 2
éral 2
érant 2
érations 2
érés 2
étaire 2
étang 2
étend@@ 2
éternel 2
éthy@@ 2
étie 2
étincelles 2
étiquet@@ 2
étiquettes 2
étisme 2
étonnera 2
étrange 2
étroites 2
étudie 2
étudier 2
évaluation 2
évaluer 2
évalué 2
éveill@@ 2
éventail 2
éventuel 2
éventuels 2
évite 2
évolu@@ 2
évoluer 2
évoqu@@ 2
évoquent 2
évoqué 2
évoquées 2
ête 2
êts 2
ïdes 2
ût 2
üs@@ 2
œil 2
œuvres 2
'DJ@@ 1
,33 1
-0,1 1
-0.@@ 1
-14,@@ 1
-14@@ 1
-17 1
-1942 1
-1957 1
-1966 1
-1983 1
-1984 1
-1989 1
-1995 1
-2-@@ 1
-2006 1
-21 1
-3,7 1
-3-3 1
-44 1
-55 1
-7 1
-78 1
-9 1
-A@@ 1
-Afrique 1
-Air 1
-Architekt 1
-Bor@@ 1
-Bru@@ 1
-Canada 1
-Dar@@ 1
-Die 1
-Dimanche 1
-F@@ 1
-FR@@ 1
-Fer@@ 1
-GDF 1
-H@@ 1
-Har@@ 1
-Hochfelden 1
-Holm@@ 1
-I@@ 1
-J@@ 1
-Jos@@ 1
-Kom@@ 1
-Lév@@ 1
-Mar@@ 1
-Meer 1
-Mercredi 1
-N@@ 1
-No@@ 1
-O 1
-Or@@ 1
-Ph@@ 1
-Q@@ 1
-Québec 1
-Roi 1
-Rue 1
-Schoelcher 1
-Si@@ 1
-Spe@@ 1
-Spezialisten 1
-Tur@@ 1
-Vig@@ 1
-Visite 1
-Wal@@ 1
-après 1
-attaché 1
-au-Val 1
-ball 1
-brûlant 1
-c' 1
-cadeau 1
-cadre 1
-casino 1
-chef 1
-cinq 1
-culturel 1
-die 1
-distributeurs 1
-dogs 1
-dr@@ 1
-effondrement 1
-elle 1
-et-@@ 1
-gar@@ 1
-haute 1
-il 1
-ils 1
-in 1
-instrument@@ 1
-je 1
-joie 1
-jusqu' 1
-lama 1
-le 1
-le-@@ 1
-les 1
-là 1
-media-@@ 1
-off 1
-on 1
-opérateur 1
-pass 1
-po-@@ 1
-podium 1
-poids 1
-point 1
-pompiers 1
-premier 1
-rare 1
-re@@ 1
-sell@@ 1
-service 1
-set 1
-seuls 1
-so@@ 1
-taille 1
-tam 1
-te@@ 1
-technique 1
-train 1
-une 1
-y@@ 1
-à-@@ 1
-être 1
.-@@ 1
.-sa 1
.. 1
.... 1
.03 1
.0@@ 1
.12 1
.3@@ 1
.491 1
.56 1
.66@@ 1
.76.@@ 1
.77 1
.91 1
.98 1
.A 1
.D' 1
.De 1
.La 1
.Mari@@ 1
.New 1
.Ou 1
.Tout 1
.Tél 1
.Un 1
.free.fr 1
.org 1
.si@@ 1
.sor@@ 1
.st 1
0,08 1
0,2 1
0,3 1
0,4 1
0,50 1
0,55 1
0,57 1
0,7 1
0,9 1
0.- 1
0.000 1
0.13 1
00.- 1
000@@ 1
0039@@ 1
0055@@ 1
01.@@ 1
014 1
04-@@ 1
05.@@ 1
05@@ 1
062 1
06@@ 1
0h59 1
0km 1
0m 1
1,42 1
1,45 1
1,60 1
1,65 1
1,7 1
1,8 1
1.09@@ 1
10,3 1
100-Dollar-Marke 1
1000 1
101 1
1026@@ 1
105 1
109 1
11,5 1
11.@@ 1
1100 1
111 1
113 1
115 1
118 1
12.000 1
124 1
124@@ 1
126 1
13-@@ 1
13.00 1
134 1
138 1
14.@@ 1
145 1
148 1
15,6 1
15-@@ 1
15.000 1
15.@@ 1
152 1
153 1
156 1
16,@@ 1
16. 1
1600 1
165 1
168 1
17,4 1
17,@@ 1
173@@ 1
18,5 1
18,@@ 1
18-@@ 1
1807 1
1821 1
188 1
1880 1
19-17 1
19.@@ 1
1908 1
191 1
1913 1
1915 1
1916 1
1918 1
1920 1
1923 1
1925 1
1929 1
193 1
1933 1
1934 1
1937 1
194 1
1941 1
1943 1
1944 1
1951 1
1956 1
1959 1
196 1
1960 1
196@@ 1
1981 1
1986 1
198@@ 1
19h05 1
19h15 1
19h30 1
19h45 1
1er@@ 1
1ers 1
1h30 1
1h40 1
1re 1
2,1 1
2,2 1
2,4 1
2,7 1
2,8 1
2,9 1
2-3 1
2.000 1
200.000 1
200000 1
2003-@@ 1
2004-@@ 1
2007-@@ 1
2008.@@ 1
2009-@@ 1
200m 1
2014 1
2015 1
202 1
2025 1
2030 1
21,@@ 1
210 1
213,@@ 1
214 1
219 1
22-@@ 1
222 1
224 1
225 1
226 1
227 1
23.@@ 1
233 1
24,5 1
26,@@ 1
262 1
263 1
269 1
27,@@ 1
28.000 1
280 1
288 1
28@@ 1
290 1
29@@ 1
2A 1
2T 1
2es 1
2h 1
2n 1
3,1 1
3,2 1
3,6 1
3-3 1
3.000 1
30,3 1
30- 1
30.000 1
30.@@ 1
300@@ 1
312 1
31@@ 1
320 1
325 1
329@@ 1
32e 1
33,1 1
33,@@ 1
330 1
335 1
338 1
34-@@ 1
342 1
349@@ 1
35,7 1
352 1
37,@@ 1
370 1
383 1
387 1
38@@ 1
38e 1
390 1
3A 1
3h40 1
4,4 1
400@@ 1
401 1
405 1
406 1
408 1
40@@ 1
41,5 1
4105 1
411 1
412 1
42,8 1
4252 1
43,1 1
433 1
434 1
439@@ 1
448 1
45,5 1
45-@@ 1
453 1
456 1
457 1
45@@ 1
45e 1
468 1
47,1 1
474 1
478 1
47@@ 1
480 1
484 1
487 1
48@@ 1
496 1
4kmde 1
4v 1
5,1 1
5.000 1
509 1
50m 1
5113 1
51e 1
52@@ 1
533 1
534 1
535 1
538 1
54-@@ 1
540 1
541 1
543 1
547 1
556 1
55e 1
57,@@ 1
58e 1
59,@@ 1
59.@@ 1
5d 1
5milliards 1
5v 1
6,1 1
6,2 1
6-@@ 1
6.000 1
60-@@ 1
60@@ 1
61-@@ 1
612 1
617.@@ 1
628,@@ 1
62@@ 1
63,2 1
630@@ 1
6361 1
63e 1
64,@@ 1
644 1
646 1
6498 1
650m 1
66,6 1
66.000 1
669 1
67. 1
672 1
679 1
67@@ 1
68.@@ 1
68@@ 1
6M 1
6d 1
70,3 1
70.000 1
7000 1
702 1
705 1
73-@@ 1
74,@@ 1
74.@@ 1
746 1
75.@@ 1
750@@ 1
75@@ 1
76,@@ 1
76-@@ 1
76.@@ 1
775 1
77@@ 1
78.@@ 1
780 1
7e 1
7h35 1
7km 1
7xh6 1
8,4 1
8,8 1
8.- 1
8.@@ 1
80000 1
801 1
81,@@ 1
815,@@ 1
819 1
82e 1
83,3 1
838 1
83@@ 1
840 1
842 1
85@@ 1
879 1
87@@ 1
89,@@ 1
89@@ 1
8h40 1
8h50 1
90,69 1
90. 1
900.000 1
9000 1
900@@ 1
907 1
90@@ 1
91,7 1
91,9 1
917@@ 1
92-@@ 1
920 1
930 1
93@@ 1
948 1
94e 1
95.@@ 1
970 1
979 1
97@@ 1
98-@@ 1
98.000 1
985 1
98e 1
9milliards 1
A-@@ 1
A350 1
A380 1
A3@@ 1
AA 1
AA@@ 1
ABA 1
ABS 1
ACH 1
AD 1
AEM@@ 1
AF@@ 1
AH 1
AIG 1
AINE 1
AJ 1
ALL 1
ALL@@ 1
ALT@@ 1
AM-@@ 1
AN 1
ANA 1
ANS 1
AO 1
AP 1
AP@@ 1
APE@@ 1
AR 1
ARC 1
ASA 1
ASP@@ 1
ASPTT@@ 1
AT 1
AU.- 1
AVA 1
AVOR@@ 1
AVRI@@ 1
AZ 1
AZA 1
Abba@@ 1
Abbruch 1
Abdall@@ 1
Abdel@@ 1
Abdell@@ 1
Abdi 1
Abdikan@@ 1
Abdou 1
Abel 1
Abkhazie 1
Abonné 1
Abouhamm@@ 1
Abr@@ 1
Abruzzo 1
Absolut 1
Abstimmungs@@ 1
Abstinence 1
Abu 1
Aca@@ 1
Acc@@ 1
Acin@@ 1
Ack@@ 1
Acker 1
Acro@@ 1
Across 1
Acteur 1
Acti@@ 1
Actionn@@ 1
Actu@@ 1
Adem 1
Aden 1
Adidas 1
Ado@@ 1
Adolf 1
Adorno 1
Adr@@ 1
Adresse 1
Adu@@ 1
Aern@@ 1
Af@@ 1
Aft@@ 1
Age 1
Agent 1
Agor@@ 1
Agri@@ 1
Ah@@ 1
Ahmadin@@ 1
Ai@@ 1
Aig@@ 1
Aill@@ 1
Air-@@ 1
Air@@ 1
Aires 1
Ajou@@ 1
Aktionsplan 1
Al-J@@ 1
Alains 1
Alan 1
Alaska 1
Albin 1
Albou@@ 1
Albu@@ 1
Alcoa 1
Aldo 1
Ale@@ 1
Alert@@ 1
Ales 1
Alessandro 1
Alexis 1
Alfon@@ 1
Alfons 1
Alfre@@ 1
Alfred 1
Alg@@ 1
Algéri@@ 1
Alien 1
Alison 1
Alkma@@ 1
Allanic 1
Allez 1
Allianz 1
Alma 1
Alme 1
Alper 1
Als 1
Alv@@ 1
Amal 1
Amal@@ 1
Amann 1
Amat@@ 1
Ambi@@ 1
Ambul@@ 1
Ames 1
Amor@@ 1
Amph@@ 1
Amst@@ 1
Amts@@ 1
Amtszeit 1
Amus@@ 1
Amy 1
Améric@@ 1
Anabelle 1
Anacler@@ 1
Ananda 1
Ananen@@ 1
Anast@@ 1
Anaï@@ 1
Anbar 1
And 1
And@@ 1
Andel@@ 1
Andererseits 1
Andes 1
Andiap@@ 1
Andijan 1
Andr@@ 1
Andre@@ 1
Andrea 1
Andres 1
Anfang 1
Ange@@ 1
Angel@@ 1
Angeli@@ 1
Angelina 1
Anges 1
Anhänger 1
Anjou 1
Ankara 1
Anlage 1
Anna-@@ 1
Annie 1
Anouchka 1
Anschlag 1
Anschläge 1
Anschlägen 1
Ansel@@ 1
Ansicht 1
Antenne 1
Anti@@ 1
Antre-@@ 1
Antwort 1
Anwalt 1
Août 1
Ap@@ 1
Apax 1
App@@ 1
Aqu@@ 1
Aquali@@ 1
Arbeit@@ 1
Arbeitslosenquote 1
Arbeitslosigkeit 1
Arcade 1
Arcades 1
Arcel@@ 1
Ardèche 1
Areva 1
Arg@@ 1
Argenson 1
Argent 1
Arias 1
Arlé@@ 1
Arm@@ 1
Armani 1
Armstrong 1
Aroud 1
Arpents 1
Arrest@@ 1
Arrière 1
Arrogants 1
Arsène 1
Artill@@ 1
Artop@@ 1
Artzenheim 1
Ary-@@ 1
As 1
As-@@ 1
As@@ 1
Asp@@ 1
Aspir@@ 1
Asset 1
Assi@@ 1
Assist@@ 1
Aston 1
Astr@@ 1
At 1
Atelier 1
Atlantic 1
Atlas 1
Atomkraft 1
Atou@@ 1
Atr@@ 1
Atrou@@ 1
Aubervilliers 1
Aubin 1
Aubou@@ 1
Aubu@@ 1
Auburn 1
Auc@@ 1
Aude 1
Audet 1
Audi 1
Audi@@ 1
Audin@@ 1
Audio@@ 1
Audre@@ 1
Audy-@@ 1
Aufgabe 1
Aufgaben 1
Auflage 1
Aufsehen 1
Auge 1
Augen 1
Augen@@ 1
Auger 1
Augier 1
Aul@@ 1
Auriane 1
Auris 1
Aus 1
Auseinandersetzungen 1
Ausgabe 1
Ausgegangen 1
Aushän@@ 1
Auskunft 1
Austen 1
Auster 1
Auster@@ 1
Austin 1
Austr@@ 1
Australi@@ 1
Australiens 1
Authority 1
Auto-@@ 1
Automobil@@ 1
Auton@@ 1
Autos 1
Autr@@ 1
Außenministerium 1
Außenpolitik 1
Avenue 1
Avert@@ 1
Avi@@ 1
Avo@@ 1
Avor@@ 1
Awwer 1
Ax@@ 1
Ayers 1
Azet 1
Azur 1
Azz@@ 1
Aéri@@ 1
B.- 1
B1 1
BA 1
BAD@@ 1
BALL 1
BAN@@ 1
BAR@@ 1
BAS@@ 1
BB 1
BB@@ 1
BEL@@ 1
BER@@ 1
BET@@ 1
BF 1
BI 1
BJP 1
BM@@ 1
BO 1
BON 1
BOO@@ 1
BP 1
BPC 1
BR 1
BS 1
BUR@@ 1
BUS@@ 1
BW@@ 1
Bab@@ 1
Bac@@ 1
Bade 1
Bader 1
Bag@@ 1
Bah@@ 1
Bahn@@ 1
Bai@@ 1
Bal 1
Ball@@ 1
Bami 1
Ban 1
Banda 1
Bande 1
Bangkok 1
Bangladesch 1
Bap@@ 1
Bar 1
Barak 1
Barbara 1
Barclays 1
Barroso 1
Barth@@ 1
Basket@@ 1
Bass 1
Bass@@ 1
Batten@@ 1
Batz@@ 1
Bavou@@ 1
Bay@@ 1
Bayer 1
Baz@@ 1
Bd 1
Beassoum 1
Beau 1
Beau@@ 1
Beauf@@ 1
Beaume 1
Beauv@@ 1
Beaux 1
Becher 1
Beeharag 1
Beethoven 1
Beffa 1
Beihilfe 1
Beispiel 1
Bel 1
Belgien 1
Belich@@ 1
Bello 1
Bemühungen 1
Benf@@ 1
Bercot 1
Berden 1
Berechnungen 1
Berentzw@@ 1
Bergen 1
Berho 1
Berkeley 1
Berlus@@ 1
Bern 1
Bernhard 1
Bernhardt 1
Berri 1
Berrwiller 1
Berstheim 1
Bert@@ 1
Berth@@ 1
Berto@@ 1
Berts 1
Bestandteil 1
Beth@@ 1
Betrieb@@ 1
Betroffen 1
Beunat 1
Beur@@ 1
Bewohner 1
Bewährungsprobe 1
Bhar@@ 1
Bhumi@@ 1
Bie@@ 1
Bieder@@ 1
Bien@@ 1
Bier@@ 1
Biet@@ 1
Big@@ 1
Bik@@ 1
Bike 1
Bildungs@@ 1
Bill@@ 1
Bille 1
Billy 1
Bing 1
Bio@@ 1
Bis@@ 1
Bisch 1
Bisch@@ 1
Bischo@@ 1
Bislang 1
Bitz@@ 1
Bla@@ 1
Black 1
Black@@ 1
Blaise 1
Ble@@ 1
Blei@@ 1
Bli@@ 1
Bloc@@ 1
Blon@@ 1
Bluttat 1
Board 1
Boeck@@ 1
Bog@@ 1
Boh@@ 1
Bohn 1
Boll 1
Boll@@ 1
Bolo@@ 1
Bolton 1
Bomb@@ 1
Bombar@@ 1
Boot@@ 1
Bord@@ 1
Bordeaux 1
Bott@@ 1
Bourgeois 1
Bouteflika 1
Bouygues 1
Box 1
Brad 1
Brand@@ 1
Braun 1
Bre-@@ 1
Breit@@ 1
Breu@@ 1
Bri@@ 1
Bric-@@ 1
Brich@@ 1
Bris@@ 1
Britanni@@ 1
Britannique 1
Britney 1
Britt 1
Bronze 1
Bruch@@ 1
Bruck@@ 1
Brum@@ 1
Brust 1
Brut@@ 1
Buch 1
Buch-@@ 1
Buenos 1
Buff@@ 1
Bug@@ 1
Bundeskanzlerin 1
Bundesrat 1
Bundestag 1
Bur 1
Buren 1
Burton 1
Bus@@ 1
Bush-Regierung 1
Bush@@ 1
Buss@@ 1
But@@ 1
Butler 1
Butz 1
Byron 1
BÉ@@ 1
Béch@@ 1
Béle@@ 1
Bét@@ 1
Bün@@ 1
Büro@@ 1
C-S@@ 1
C.3@@ 1
C.@@ 1
CA 1
CAD@@ 1
CAN@@ 1
CAR@@ 1
CBI 1
CBS 1
CC 1
CCI@@ 1
CCS@@ 1
CD@@ 1
CEL@@ 1
CFA 1
CFT@@ 1
CIEN@@ 1
CIER 1
CJMI@@ 1
CL 1
CLD 1
CN 1
CO2-@@ 1
CR@@ 1
CRE@@ 1
CRTC 1
CS@@ 1
CSIO 1
CZE 1
Ca 1
Cach@@ 1
Café 1
Cage 1
Cai@@ 1
Calder 1
Calgary 1
Calo@@ 1
Caly@@ 1
Cambi@@ 1
Cameron 1
Campagne 1
Campus 1
Canadi@@ 1
Cand@@ 1
Canon 1
Canu@@ 1
Cap 1
Cape 1
Capit@@ 1
Care 1
Carlo 1
Carol@@ 1
Casi@@ 1
Casillas 1
Cat@@ 1
Cather@@ 1
Cau@@ 1
Cave 1
Cavic@@ 1
Caw@@ 1
Cazier 1
Cear@@ 1
Ceaucescu 1
Cell 1
Cell@@ 1
Celles 1
Cen@@ 1
Cens@@ 1
Cer@@ 1
Cerr@@ 1
Cesar 1
Cet@@ 1
Ceux 1
Ceux-ci 1
Cf@@ 1
Chaab 1
Chab 1
Chab@@ 1
Chac@@ 1
Chair 1
Chaix 1
Chalamp@@ 1
Challenge 1
Chamb@@ 1
Chambres 1
Champi@@ 1
Champions@@ 1
Chan@@ 1
Chanc@@ 1
Chance 1
Chann@@ 1
Chant 1
Chanti@@ 1
Chaos 1
Chapp@@ 1
Char 1
Charity 1
Charité 1
Charlie 1
Chasseurs 1
Chat 1
Chat@@ 1
Chaumar@@ 1
Chavassus 1
Chaï@@ 1
Che 1
Che@@ 1
Chef 1
Chefs 1
Chet 1
Cheyne 1
Chiefs 1
Child 1
Chin@@ 1
Chloé 1
Choc@@ 1
Choix 1
Chong 1
Chou@@ 1
Christi@@ 1
Christina 1
Christopher 1
Chrétien 1
Chu@@ 1
Chunchu 1
Chung 1
Chypre 1
Chéreau 1
Chêne 1
Chœur 1
Ci-@@ 1
Cig@@ 1
Cili@@ 1
Cimes 1
Cin@@ 1
Cind@@ 1
Cinv@@ 1
Cités 1
Cla@@ 1
Clapton 1
Clar@@ 1
Classi@@ 1
Clay 1
Clem@@ 1
Cleveland 1
Cliche 1
Clichés 1
Clis 1
Clos 1
Cluster 1
Cnes 1
Cob@@ 1
Coc@@ 1
Coff@@ 1
Coh@@ 1
Cole 1
Colle@@ 1
Colomb@@ 1
Color@@ 1
Colorado 1
Comics 1
Commonwealth 1
Compagn@@ 1
Compli@@ 1
Computer@@ 1
Conti 1
Cool 1
Costa 1
Cough@@ 1
Coun@@ 1
Council 1
County 1
Coup@@ 1
Cranach 1
Cris 1
Cris@@ 1
Crist@@ 1
Cron@@ 1
Cross@@ 1
Cruise 1
Crème 1
Créc@@ 1
Cul@@ 1
Cure 1
Curi@@ 1
Cy 1
Cycl@@ 1
Cè@@ 1
Céci@@ 1
Célest@@ 1
Céli@@ 1
Célè@@ 1
Cémi@@ 1
Cô@@ 1
Cœur 1
D-@@ 1
D.- 1
DA 1
DAL@@ 1
DAN@@ 1
DARD 1
DC 1
DDE 1
DET 1
DG@@ 1
DH 1
DH@@ 1
DI@@ 1
DIE 1
DL@@ 1
DLR 1
DOR@@ 1
DS 1
DT@@ 1
DU@@ 1
DUN@@ 1
DUR@@ 1
Da 1
Dabo 1
Dacc@@ 1
Dach 1
Dach@@ 1
Dagen@@ 1
Dagu@@ 1
Dail@@ 1
Daimler 1
Dais@@ 1
Dal@@ 1
Damals 1
Damaskus 1
Dambach-@@ 1
Dance 1
Dancing 1
Dand@@ 1
Dani@@ 1
Danny 1
Dans@@ 1
Dar@@ 1
Darin 1
Darl@@ 1
Date 1
Datenbank 1
Datenbanken 1
Datum 1
Dau@@ 1
Dauen 1
Davantage 1
De-@@ 1
Death 1
Deck@@ 1
Decke 1
Def@@ 1
Deh@@ 1
Deiber 1
Del 1
Dell@@ 1
Deller 1
Demokratie 1
Demokratisierung 1
Den 1
Den@@ 1
Dennis 1
Dennoch 1
Derby 1
Deri@@ 1
Derni@@ 1
Design 1
Dess@@ 1
Dest@@ 1
Deu@@ 1
Deutsch 1
Dhenn@@ 1
Diables 1
Diablo 1
Diacon@@ 1
Diaporama 1
Dick 1
Die@@ 1
Diem@@ 1
Diemer 1
Dien@@ 1
Dienst@@ 1
Dienstag 1
Dier@@ 1
Dies@@ 1
Dieux 1
Diff@@ 1
Digital 1
Dijon 1
Dill@@ 1
Dimitri 1
Din 1
Dins@@ 1
Diocèse 1
Dion@@ 1
Diop 1
Dios 1
Dire 1
Direkt@@ 1
Discher 1
Dit 1
Dit@@ 1
Divers 1
Diversité 1
Dix 1
Dix@@ 1
Dizet 1
Dié 1
Dje@@ 1
Dob@@ 1
Doch 1
Dog@@ 1
Dolce 1
Dollar@@ 1
Donnerstag 1
Dont 1
Dorfkirche 1
Dorn@@ 1
Douglas 1
Down 1
Dra@@ 1
Drak@@ 1
Dran@@ 1
Drei@@ 1
Drou@@ 1
Drum@@ 1
Dré@@ 1
Dubi@@ 1
Dum@@ 1
Dun@@ 1
Dung 1
Durchschnitts@@ 1
Duri@@ 1
Dut@@ 1
Dw@@ 1
Dylan 1
Dà@@ 1
Dächer 1
Déby 1
Déch@@ 1
Déci@@ 1
Déjeuner 1
Déli@@ 1
Dén@@ 1
Dér@@ 1
Dév@@ 1
Dör@@ 1
E-@@ 1
E-T@@ 1
E.@@ 1
EAU.- 1
ECE 1
EDER@@ 1
EDF@@ 1
EDI 1
EDS@@ 1
EG@@ 1
ELS@@ 1
EM 1
EO 1
EOS@@ 1
EP@@ 1
EST@@ 1
EU-Kommission 1
EUS 1
EVE 1
EW 1
EX@@ 1
Eag@@ 1
Eart@@ 1
Eastwood 1
Eaux-@@ 1
Eber@@ 1
Eclair@@ 1
Ecoles 1
Econom@@ 1
Ecou@@ 1
Ed@@ 1
Eddy 1
Edel 1
Edel@@ 1
Edi@@ 1
Edmond 1
Edouard 1
Education 1
Edward 1
Efr@@ 1
Egal@@ 1
Egard 1
Ego 1
Ehrmann 1
Ehud 1
Eich@@ 1
Eigentlich 1
Ein 1
Eindhoven 1
Einkauf@@ 1
Einkaufs@@ 1
Einmal 1
Einstein 1
Einwanderer 1
Eisenb@@ 1
Eisenbahn 1
Ek@@ 1
Ekberg 1
Ele@@ 1
Electri@@ 1
Elf 1
Eli@@ 1
Elin@@ 1
Elis@@ 1
Elitehochschule 1
Eltern 1
Ely@@ 1
Ema@@ 1
Emanuelle 1
Emer@@ 1
Emil 1
Emp@@ 1
Employ@@ 1
Encad@@ 1
Enchaîn@@ 1
Encour@@ 1
Encyclop@@ 1
Ende 1
Enderlin 1
Endes 1
Endroit 1
Energie@@ 1
Eng@@ 1
Engent@@ 1
Eni@@ 1
Enlèvement 1
Enseign@@ 1
Ent@@ 1
Entente 1
Entgegen 1
Entscheidung 1
Entscheidungen 1
Entsprechend 1
Entwicklung 1
Enzo 1
Epar@@ 1
Eperon 1
Epinal 1
Epo@@ 1
Equi@@ 1
Equin@@ 1
Equit@@ 1
Er 1
Erb 1
Erbs 1
Erde 1
Erden@@ 1
Erdogan 1
Erhard 1
Erhöhung 1
Ermitt@@ 1
Ermordung 1
Ernst 1
Erol 1
Erreur 1
Erschallet 1
Ertz 1
Ertz@@ 1
Erwan 1
Erwin 1
Erziehung 1
Esch@@ 1
Escher 1
Esil@@ 1
Estate 1
Estim@@ 1
Estr@@ 1
Etant 1
Etre 1
Eu@@ 1
Europa 1
Evan 1
Evan@@ 1
Eve 1
Even@@ 1
Evi@@ 1
Ewer 1
Ex 1
Ex-@@ 1
Explosion 1
Extr@@ 1
Ezéchi@@ 1
F.- 1
F1 1
FAS@@ 1
FBI 1
FCE 1
FCS@@ 1
FEM@@ 1
FEN@@ 1
FIL@@ 1
FL@@ 1
FN 1
FO 1
FO@@ 1
FQ 1
FR 1
FR@@ 1
FS 1
FT 1
FU 1
FU@@ 1
FUR@@ 1
Fa@@ 1
Fabri@@ 1
Fac@@ 1
Fach 1
Fachleute 1
Fades 1
Fahim 1
Fair 1
Fait 1
Faki 1
Fali@@ 1
Fall 1
Fallait 1
Famili@@ 1
Fan@@ 1
Fantasie 1
Fass 1
Fatima 1
Faut 1
Faute 1
Fauteuil 1
Fautr@@ 1
Faux 1
Fay@@ 1
Feder@@ 1
Federico 1
Fei@@ 1
Feignes 1
Fein@@ 1
Fell@@ 1
Fellinis 1
Feltz 1
Fen@@ 1
Fend@@ 1
Fenerbah@@ 1
Fenn@@ 1
Fenster 1
Ferg@@ 1
Fergie 1
Ferh@@ 1
Ferien@@ 1
Ferm@@ 1
Fern@@ 1
Fernando 1
Ferrari 1
Fess@@ 1
Fesse@@ 1
Fest 1
Fet@@ 1
Feuerwehr 1
Fev@@ 1
Fiat 1
Fif@@ 1
Figuren 1
Fili@@ 1
Filiale 1
Fille 1
Filles 1
Films 1
Fim@@ 1
Financi@@ 1
Find@@ 1
Finger@@ 1
Fir 1
Fir@@ 1
Fire 1
Fis-@@ 1
Fischer@@ 1
Flamme 1
Fletcher 1
Flocken 1
Floh@@ 1
Flucht@@ 1
Flughaf@@ 1
Flughafen 1
Flücht@@ 1
Fnac 1
Foch 1
Focus 1
Font@@ 1
Fonten@@ 1
Foo@@ 1
Forbes 1
Form@@ 1
Formelkomprom@@ 1
Fort 1
Foster 1
Fot@@ 1
Four 1
Foyer 1
Fra@@ 1
Frag@@ 1
Frage 1
Frahm 1
Franc 1
Franc@@ 1
Franche-@@ 1
Franchement 1
Francisc@@ 1
Franco-@@ 1
Francs 1
Franken 1
Frankreich 1
Frantic 1
Frantz 1
Fraternité 1
Fred@@ 1
Freenet 1
Freist@@ 1
Fresque 1
Frie@@ 1
Fried@@ 1
Friederich 1
Friedrich 1
Friend 1
Friends 1
Frindel 1
Fris@@ 1
Frisch@@ 1
Fronten 1
Frontières 1
Frust 1
Frustr@@ 1
Frères 1
Fré@@ 1
Frédé@@ 1
Früh@@ 1
Fu@@ 1
Fuchs 1
Fuj@@ 1
Fuku@@ 1
Fulham 1
Fumer 1
Fund 1
Funs 1
Fur@@ 1
Fuss 1
Fyf@@ 1
Fäden 1
Fé@@ 1
Fê@@ 1
Führer 1
Fünf 1
Für 1
G-@@ 1
GAL@@ 1
GAU@@ 1
GCO 1
GHOUSE.- 1
GIEN@@ 1
GIM@@ 1
GLON@@ 1
GOER@@ 1
GP@@ 1
GPS 1
GS 1
GSP@@ 1
GUE@@ 1
GV 1
GWILLER 1
GY@@ 1
Gab@@ 1
Gabri@@ 1
Gai@@ 1
Gal 1
Gali@@ 1
Galileo 1
Gam@@ 1
Gamb@@ 1
Game 1
Gander 1
Ganter 1
Garanti@@ 1
Gard@@ 1
Garde 1
Gardin 1
Garmisch-Partenkirchen 1
Garten 1
Garzia 1
Gasquet 1
Gass 1
Gass@@ 1
Gasse 1
Gasser 1
Gates 1
Gatt 1
Gaulle 1
Gavan@@ 1
Gaz@@ 1
Gaël 1
Gaî@@ 1
Gebel 1
Gebur@@ 1
Geburt 1
Gebäck 1
Gefän@@ 1
Gegen 1
Gegolsheim 1
Gei@@ 1
Geisser 1
Geisswasser 1
Gel@@ 1
Geld 1
Gels 1
Gelände@@ 1
Gendar@@ 1
Genehmigung 1
General@@ 1
Generali 1
Generals 1
Gennaro 1
Gens 1
Geoff 1
Geografie 1
Georg 1
Georg@@ 1
Gerald 1
Gerhard 1
German@@ 1
Gert@@ 1
Geschenken 1
Geschäft 1
Geschäftsmann 1
Gesetz 1
Gesicht 1
Gesims 1
Gestion 1
Gesù 1
Getafe 1
Getz@@ 1
Gewicht 1
Geyer 1
Ghan@@ 1
Ghana 1
Gie@@ 1
Gig@@ 1
Gill@@ 1
Gim@@ 1
Gingl@@ 1
Girls 1
Gis@@ 1
Gisela 1
Git@@ 1
Gitu@@ 1
Gla@@ 1
Glad@@ 1
Glo@@ 1
Glocke 1
Glücks@@ 1
Gnol@@ 1
God 1
Goer@@ 1
Goethe 1
Goldman 1
Gom@@ 1
Gonna 1
Goo@@ 1
Goodell 1
Gorbat@@ 1
Got 1
Got@@ 1
Goth@@ 1
Gott@@ 1
Goul@@ 1
Grab@@ 1
Graff@@ 1
Graham 1
Grall 1
Grasse 1
Grassin 1
Gravel 1
Great 1
Gregory 1
Grenzen 1
Grenzwerte 1
Gres@@ 1
Gris@@ 1
Grond@@ 1
Gros@@ 1
Grou@@ 1
Groulx 1
Grund 1
Grunenwald 1
Grussenheim 1
Grèce 1
Gründung 1
Guardian 1
Gui@@ 1
Gul@@ 1
Gum@@ 1
Gwen 1
Gwen@@ 1
Gymn@@ 1
Gä@@ 1
Gén@@ 1
Géo 1
Gér@@ 1
H-60 1
H. 1
HA@@ 1
HAG@@ 1
HALT@@ 1
HAP 1
HBO 1
HD 1
HEB@@ 1
HEN@@ 1
HER@@ 1
HH@@ 1
HI 1
HLE 1
HLINGEN 1
HOFF@@ 1
HOFFEN 1
HOUS@@ 1
HR 1
HU@@ 1
HUI 1
HW 1
HW@@ 1
Ha 1
Haber@@ 1
Hac@@ 1
Hachem@@ 1
Had@@ 1
Hafen@@ 1
Haffen 1
Haft 1
Haga 1
Hagent@@ 1
Hai-@@ 1
Hair@@ 1
Hali@@ 1
Halle 1
Halles 1
Hamburger 1
Hand 1
Hand@@ 1
Hangzhou 1
Hani@@ 1
Hann@@ 1
Hans-Georg 1
Hant@@ 1
Haq 1
Har 1
Hari@@ 1
Harm@@ 1
Harmon@@ 1
Harr@@ 1
Harts@@ 1
Hat@@ 1
Hatt 1
Hau@@ 1
Haus 1
Hausarrest 1
Hauses 1
Haushalte 1
Hay 1
Hay@@ 1
Haï@@ 1
Heb@@ 1
Hed@@ 1
Heer@@ 1
Heg@@ 1
Heid@@ 1
Heights 1
Heil@@ 1
Heinrich 1
Heit@@ 1
Hekt@@ 1
Helen 1
Helicopter 1
Helikopter 1
Heller 1
Hello 1
Hen@@ 1
Heng@@ 1
Herald 1
Herbert 1
Herr 1
Herzen 1
Hess@@ 1
Het 1
Hetten@@ 1
Heute 1
Hey@@ 1
Hie@@ 1
High-Tech@@ 1
Hill@@ 1
Hillier 1
Him@@ 1
Hina 1
Hinder@@ 1
Hing@@ 1
Hip@@ 1
Hirsch@@ 1
His@@ 1
Hist@@ 1
Hitt@@ 1
Hlin@@ 1
Hoch@@ 1
Hoffmann 1
Hoffnung 1
Holding 1
Hommes 1
Honn@@ 1
Hop@@ 1
Hoppe 1
Horiz@@ 1
Hors 1
Hos@@ 1
Houston 1
Howard 1
Hua@@ 1
Hub@@ 1
Hughes 1
Hull 1
Hund@@ 1
Hunger@@ 1
Huss@@ 1
Hymne 1
HÉ@@ 1
Händen 1
Hél@@ 1
Héli@@ 1
Hélè@@ 1
Héri@@ 1
Hêtre 1
Hô@@ 1
Höchstgeschwindigkeit 1
I-@@ 1
I.@@ 1
IA 1
IDAL 1
IDE 1
IDE@@ 1
IE 1
IFT@@ 1
IGD@@ 1
IH 1
IIe 1
IK 1
IL 1
IM 1
INCENDIE@@ 1
INE 1
IO 1
ION@@ 1
IQ@@ 1
IR 1
IRE 1
IST@@ 1
IT@@ 1
IX@@ 1
Ian 1
Ianou@@ 1
Ibn 1
Ibrahim@@ 1
Ice 1
Ichtr@@ 1
Idole 1
Idra@@ 1
Idriss 1
Ier 1
Ihr 1
Ike@@ 1
Ikone 1
Ikra@@ 1
Il@@ 1
Ilan 1
Ilias 1
Immen@@ 1
Immer 1
Immobili@@ 1
Impression 1
Inclass@@ 1
Incroy@@ 1
Ind@@ 1
Indi@@ 1
Indiana 1
Indien 1
Individu@@ 1
Industri@@ 1
Industrie 1
Industries 1
Indépendant 1
Inflationsrate 1
Infr@@ 1
Ingold 1
Ini@@ 1
Inmpli@@ 1
Inn@@ 1
Innenminister 1
Innov@@ 1
Ino@@ 1
Inquisition 1
Insa@@ 1
Insam 1
Inse@@ 1
Insi@@ 1
Insti@@ 1
Instrumenten 1
Int@@ 1
Intelli@@ 1
Interfax 1
Internationale 1
Internationalen 1
Internet@@ 1
Intoler@@ 1
Intoxic@@ 1
Introvi@@ 1
Inutile 1
Investitionen 1
Investment 1
Investments 1
Investors 1
Inés 1
Iou@@ 1
Iouri 1
Ip@@ 1
Ipar@@ 1
Ira@@ 1
Iran@@ 1
Irion 1
Isaf 1
Isen@@ 1
Isma@@ 1
Isoli@@ 1
Isra@@ 1
Istanbul 1
It 1
Ivest 1
Izard 1
J 1
JAC 1
JAT@@ 1
JB@@ 1
JC@@ 1
JD@@ 1
JET 1
JIR@@ 1
JMB 1
JNA 1
JO 1
JO@@ 1
JOU@@ 1
JOUR@@ 1
Ja 1
Jack@@ 1
Jackson 1
Jacobs 1
Jacques-@@ 1
Jaguar 1
Jahresbeginn 1
Jahresende 1
Jais@@ 1
Jake 1
Jakob 1
Jane 1
Jap@@ 1
Japan 1
Jar@@ 1
Jarn@@ 1
Jaroslav 1
Jarry 1
Jaur@@ 1
Jav@@ 1
Javal@@ 1
Jaw@@ 1
Jazzfestival 1
Jede 1
Jeder 1
Jel@@ 1
Jem@@ 1
Jennifer 1
Jenny 1
Jens 1
Jeremy 1
Jerry 1
Jets 1
Jim@@ 1
Jing 1
Jingle 1
Jitten 1
Joc@@ 1
Joghurt 1
Johann 1
Johannes@@ 1
Jol@@ 1
Jolie 1
Jon@@ 1
Jor@@ 1
Jord@@ 1
Jorgen 1
Jos 1
Jos@@ 1
Joschka 1
Josef 1
Josi@@ 1
Jota 1
Joue 1
Jouer 1
Jour 1
Juan 1
Jubiläum 1
Jude 1
Jugosla@@ 1
Juli 1
Julia 1
Jun 1
Jun@@ 1
Jund 1
Just 1
Jut@@ 1
Jy@@ 1
Jänner 1
Jég@@ 1
Jér@@ 1
Jör@@ 1
K. 1
K.-@@ 1
K1 1
KA 1
KALT@@ 1
KEM@@ 1
KET@@ 1
KIL@@ 1
KIR@@ 1
KLEIN@@ 1
KO 1
KPMG 1
KUS@@ 1
KV 1
KWILLER 1
Kag@@ 1
Kaid 1
Kaida 1
Kais@@ 1
Kaka 1
Kalten@@ 1
Kamel 1
Kane 1
Kanga 1
Kapp@@ 1
Karin 1
Karl@@ 1
Kash@@ 1
Kast@@ 1
Kate 1
Kati@@ 1
Katie 1
Katrina 1
Katz 1
Katz@@ 1
Kauf@@ 1
Kaus 1
Kayser@@ 1
Kaï@@ 1
Keck 1
Kee 1
Kellen@@ 1
Kelly 1
Kemb@@ 1
Kenn@@ 1
Kent 1
Kenz@@ 1
Kep@@ 1
Keren 1
Keri@@ 1
Kern 1
Kess@@ 1
Kessel 1
Kessler 1
Kett@@ 1
Keu@@ 1
Keusch 1
Khab@@ 1
Khai@@ 1
Khu@@ 1
Kidman 1
Kieb 1
Kiehl 1
Kiew 1
Kikuyu 1
Kilometer 1
Kim 1
Kim@@ 1
Kimmel 1
Kind 1
Kind@@ 1
Kindern 1
Kindes 1
Kirch 1
Kirch@@ 1
Kirchberg 1
Kirchner 1
Kiss 1
Kister 1
Kit@@ 1
Kla@@ 1
Klasse 1
Kleb@@ 1
Kleber 1
Klei@@ 1
Klein@@ 1
Klich@@ 1
Klimaschutz 1
Klu@@ 1
Klöster 1
Kn@@ 1
Knapp 1
Kni@@ 1
Knight 1
Kno@@ 1
Kob@@ 1
Koc@@ 1
Koenigs@@ 1
Kohlen@@ 1
Kohlendioxid 1
Komm@@ 1
Kommun@@ 1
Komp@@ 1
Konflikte 1
Koninck 1
Konjunktur 1
Kooperation 1
Kors@@ 1
Kos@@ 1
Kosovo@@ 1
Kost 1
Koval@@ 1
Krause 1
Kress 1
Kreuz@@ 1
Krieg 1
Krit@@ 1
Kritiker 1
Kriv@@ 1
Kron@@ 1
Kru@@ 1
Krut@@ 1
Kuhn 1
Kultstatus 1
Kun@@ 1
Kur@@ 1
Kurdistan 1
Kurs 1
Kurze 1
Ky@@ 1
Käufer 1
Kéchi@@ 1
Kév@@ 1
Kö@@ 1
L.@@ 1
L1 1
LAM@@ 1
LAU@@ 1
LCF 1
LCP 1
LD 1
LDC 1
LEG@@ 1
LEM@@ 1
LENHEIM 1
LER 1
LEU@@ 1
LG 1
LGR@@ 1
LIM@@ 1
LK 1
LLC 1
LLE 1
LM@@ 1
LOE@@ 1
LQ 1
LS@@ 1
LU@@ 1
LUI 1
LUN@@ 1
LY@@ 1
La-@@ 1
Labar@@ 1
Labor 1
Labour 1
Lach@@ 1
Laden@@ 1
Laeti@@ 1
Laff@@ 1
Lai@@ 1
Laine 1
Lal@@ 1
Lalay@@ 1
Lali@@ 1
Lalle 1
Lama 1
Lamb@@ 1
Lancé 1
Lande 1
Lander@@ 1
Langs@@ 1
Lanz 1
Lapp 1
Larry 1
Larti@@ 1
Las 1
Latt@@ 1
Laufe 1
Lausanne 1
Lauten@@ 1
Lauter@@ 1
Law 1
Layne 1
Leben 1
Lebens@@ 1
Lebert 1
Lech@@ 1
Lehmann 1
Lehrer 1
Lein@@ 1
Leipzig 1
Leite 1
Leitungs@@ 1
Lens 1
Lentz 1
Lep@@ 1
Lero@@ 1
Lerz@@ 1
Lesc@@ 1
Let 1
Let@@ 1
Letterman 1
Leverkusen 1
Lhev@@ 1
Lho@@ 1
Lhot@@ 1
Li 1
Lic@@ 1
Lichts 1
Lie@@ 1
Lieder 1
Lieve 1
Ligety 1
Lil@@ 1
Lili 1
Lili@@ 1
Lin@@ 1
Lina 1
Linden 1
Line 1
Link@@ 1
Links@@ 1
Lir@@ 1
Lis@@ 1
Lisi@@ 1
List 1
Liste 1
Lit@@ 1
Literatur 1
Lithium 1
Litt 1
Lo 1
Lob@@ 1
Loc@@ 1
Loh@@ 1
Londr@@ 1
Lonely 1
Long@@ 1
Lot 1
Lou 1
Lour@@ 1
Louv@@ 1
Loy@@ 1
Luca 1
Ludwig 1
Lulu 1
Lum@@ 1
Lun@@ 1
Lune 1
Lunes 1
Lur@@ 1
Ly 1
Lyne 1
Lys 1
Là-@@ 1
Lâder@@ 1
Lä@@ 1
Länder 1
Légi@@ 1
Lénine 1
Léo 1
Lév@@ 1
Lévy 1
Löw 1
M' 1
M.-@@ 1
M6 1
MA 1
MAC@@ 1
MAI 1
MAM 1
MB@@ 1
MBACH 1
MECE 1
MEI@@ 1
MER@@ 1
MES 1
MES@@ 1
MG 1
MI-@@ 1
MIE@@ 1
MIL@@ 1
MIT@@ 1
MLC 1
MM 1
MN@@ 1
MON 1
MOR@@ 1
MOU@@ 1
MSA 1
MU@@ 1
MVP 1
MW@@ 1
MY@@ 1
Mack@@ 1
Mad@@ 1
Made 1
Madel@@ 1
Madonna 1
Maf@@ 1
Magen 1
Maine 1
Maj@@ 1
Major 1
Mak@@ 1
Make 1
Malien 1
Mall 1
Mall@@ 1
Management 1
Manc@@ 1
Mandalay 1
Mangel 1
Manifest@@ 1
Manifestation 1
Mann@@ 1
Mans@@ 1
Manuel 1
Mara 1
Marcelle 1
Marchi 1
Marché-aux-@@ 1
Marconn@@ 1
Marcot 1
Marcou@@ 1
Marek 1
Marga 1
Marie-aux-Mines 1
Marie@@ 1
Marina 1
Marine 1
Marino 1
Marja 1
Markt 1
Marlas 1
Marlen@@ 1
Marly@@ 1
Marmil@@ 1
Marne 1
Marois 1
Marquez 1
Marquilie 1
Marrak@@ 1
Marrow 1
Marsei@@ 1
Marston 1
Martens 1
Marthe 1
Martin@@ 1
Martinon 1
Martyr@@ 1
Martz 1
Marv 1
Mary@@ 1
Maryland 1
Maréch@@ 1
Masch@@ 1
Mason 1
Massi@@ 1
Massoud 1
Mat 1
Mati@@ 1
Mats 1
Matt@@ 1
Matte@@ 1
Mattel 1
Matthew 1
Matthias 1
Matzenheim 1
Maur@@ 1
Max@@ 1
Maz@@ 1
McCann 1
McLaren 1
McQueen 1
Meadows 1
Med@@ 1
Meg@@ 1
Mehm@@ 1
Meill@@ 1
Mein 1
Meis@@ 1
Melt@@ 1
Mem@@ 1
Mendes 1
Menge 1
Menschen@@ 1
Menschheit 1
Mental 1
Mer 1
Mercedes 1
Mercedes-Benz 1
Mercier 1
Mert@@ 1
Messes 1
Messieurs 1
Mest@@ 1
Meter 1
Metro 1
Meur@@ 1
Mex@@ 1
Mi-@@ 1
Mic@@ 1
Michal@@ 1
Michel@@ 1
Microsoft 1
Mieten 1
Migran@@ 1
Militär@@ 1
Millet 1
Millimeter 1
Million 1
Mills 1
Minderjährigen 1
Minister@@ 1
Ministerrat 1
Minutes 1
Mira 1
Miro 1
Miroslav 1
Mis 1
Mis@@ 1
Misant 1
Misc@@ 1
Misch@@ 1
Mises 1
Mist@@ 1
Mit@@ 1
Mitarbeiters 1
Mitch@@ 1
Mittal 1
Mitte 1
Mittel 1
Mk@@ 1
Mo 1
Mobil@@ 1
Mode 1
Moder@@ 1
Moh@@ 1
Moi@@ 1
Mok@@ 1
Moll@@ 1
Monaghan 1
Moncton 1
Mond 1
Monday 1
Monhardt 1
Monica 1
Monika 1
Monopol@@ 1
Mons 1
Montage 1
Montagn@@ 1
Montel 1
Morand 1
Morgan 1
Moritz 1
Mort 1
Morzine 1
Mostafa 1
Motion 1
Moul@@ 1
Mour@@ 1
Mps@@ 1
Muh@@ 1
Mulroney 1
Mundi 1
Muni 1
Muni@@ 1
Murat 1
Muriel 1
Musi@@ 1
Muslim@@ 1
Muss@@ 1
Must@@ 1
Mut 1
Mutter 1
Mw@@ 1
Myst@@ 1
MÉ@@ 1
Mädchen 1
März 1
Mère 1
Méchant 1
Méd@@ 1
Mégr@@ 1
Mél@@ 1
Méli@@ 1
Mén@@ 1
Méri@@ 1
Métr@@ 1
Mö@@ 1
Mü@@ 1
Müh@@ 1
N.10@@ 1
N1 1
NA 1
NACH 1
NAI 1
NASA 1
NASS 1
NAT 1
NC 1
NES 1
NEUN@@ 1
NEUR@@ 1
NH@@ 1
NIC 1
NIE 1
NIE@@ 1
NIH 1
NIS@@ 1
NMP@@ 1
NS 1
NS@@ 1
NY 1
Nach@@ 1
Nachbarländer 1
Nadia 1
Nafs 1
Nag@@ 1
Nah@@ 1
Nains 1
Naissance 1
Nam@@ 1
Nanc@@ 1
Nand@@ 1
Nanny 1
Nap@@ 1
Nar@@ 1
Nasa 1
Nasdaq 1
Nash 1
Nash@@ 1
Nast 1
Natasha 1
Nath@@ 1
Nati@@ 1
Nation 1
Nationalen 1
Natur@@ 1
Nature 1
Nau@@ 1
Navi@@ 1
Navig@@ 1
Ne@@ 1
Neben 1
Ned@@ 1
Nei@@ 1
Neil 1
Neil@@ 1
Nel@@ 1
Nem@@ 1
Nemb@@ 1
Nen@@ 1
Nep@@ 1
Ner@@ 1
Nessel 1
Netscape 1
Network 1
Netz 1
Neun@@ 1
Nevada 1
Ngage 1
Ngar@@ 1
Ngass@@ 1
Ni 1
Nic@@ 1
Nicht 1
Nico 1
Nicol@@ 1
Nicolae 1
Nielsen 1
Nikolai 1
Nil 1
Nina 1
Ning@@ 1
Nintend@@ 1
Nis@@ 1
Niss@@ 1
Nitt 1
Niveau 1
Noah 1
Nobel 1
Nobécour@@ 1
Noctur@@ 1
Noegel@@ 1
Noire 1
Noirs 1
Noisy-@@ 1
Nokia 1
Nol@@ 1
Nord@@ 1
Norden 1
Norman 1
Notstand 1
Noue 1
Nove 1
Nrisach 1
Nsang@@ 1
Nul@@ 1
Num@@ 1
Nur 1
Nuss 1
Ny@@ 1
Nyk@@ 1
NÈ@@ 1
Nés 1
O-T@@ 1
O.@@ 1
OAK 1
OAT 1
OBER@@ 1
OCA@@ 1
ODR@@ 1
OEN@@ 1
OFF@@ 1
OK@@ 1
OLS@@ 1
OM-@@ 1
OM@@ 1
OMS@@ 1
OO@@ 1
OPA 1
OPEP 1
OPS 1
OS@@ 1
OTV@@ 1
OU 1
OW 1
Oats 1
Ob 1
Oberbürgermeister 1
Obergrenze 1
Obermann 1
Obis@@ 1
Obje@@ 1
Observ@@ 1
Observer 1
Oc 1
Och@@ 1
Oco@@ 1
Océ@@ 1
Od@@ 1
Ode 1
Odr@@ 1
Offenbach 1
Ogawa 1
Ohren 1
Ois@@ 1
Oise 1
Ok 1
Okl@@ 1
Olaf 1
Olaï@@ 1
Olden@@ 1
Olympi@@ 1
Olympia 1
Olympiakos 1
Omar 1
Oper@@ 1
Opfer 1
Opposition 1
Oppé 1
Opr@@ 1
Optim@@ 1
Optionen 1
Oran@@ 1
Orange 1
Orei@@ 1
Orek@@ 1
Ori@@ 1
Orient 1
Origin@@ 1
Orlando 1
Oru@@ 1
Osaka 1
Oser@@ 1
Osh@@ 1
Osim 1
Osk@@ 1
Oss@@ 1
Ot@@ 1
Otis 1
Ott@@ 1
Ouell@@ 1
Ous@@ 1
Outre-@@ 1
Ov@@ 1
Ovali@@ 1
Ox@@ 1
Ozan 1
PAI 1
PAN@@ 1
PAU@@ 1
PC@@ 1
PCF 1
PE-@@ 1
PEEP 1
PEP 1
PF 1
PFAF@@ 1
PFI@@ 1
PFR@@ 1
PFU@@ 1
PGM 1
PI 1
PIA@@ 1
PIT@@ 1
PLQ 1
PLU 1
PM 1
PML-@@ 1
PN@@ 1
POL 1
POR@@ 1
PRO 1
PRO@@ 1
PS@@ 1
PSA 1
Pablo 1
Pac@@ 1
Pach@@ 1
Paci@@ 1
Pacte 1
Pag@@ 1
Pagli@@ 1
Pagé 1
Pai@@ 1
Pakistan@@ 1
Palis@@ 1
Palma 1
Palästinenser@@ 1
Pampl@@ 1
Pantal@@ 1
Panth@@ 1
Papa 1
Pape 1
Paper 1
Parall@@ 1
Parc-@@ 1
Pareille 1
Parent 1
Parents 1
Paris@@ 1
Parité 1
Parlez-@@ 1
Paro@@ 1
Parquet 1
Part@@ 1
Partei 1
Partner 1
Party 1
Passage 1
Path@@ 1
Patron@@ 1
Paul@@ 1
Paulo 1
Paulus 1
Pavarotti 1
Payer 1
Pearl 1
Pedro 1
Peggy 1
Peking 1
Pel@@ 1
Pelle@@ 1
Pellens 1
Pen@@ 1
Pend@@ 1
Pengu@@ 1
Penny 1
Pens@@ 1
Pent@@ 1
Persi@@ 1
Personen@@ 1
Perspe@@ 1
Petite-@@ 1
Petra 1
Petrochina 1
Petry 1
Petti@@ 1
Peuge@@ 1
Peut 1
Pfa@@ 1
Pfaff@@ 1
Pfarrer 1
Pfeiffer 1
Phal@@ 1
Phar@@ 1
Phase 1
Pher@@ 1
Phi@@ 1
Phil@@ 1
Phili@@ 1
Philips 1
Phillips 1
Pho@@ 1
Piaf 1
Pil@@ 1
Pinc@@ 1
Pins 1
Pinto 1
Piotr 1
Pirlo 1
Pister 1
Pixar 1
Planet 1
Platz@@ 1
Play 1
Play@@ 1
Plaz@@ 1
Plos@@ 1
Plu@@ 1
Plä@@ 1
Pläne 1
Podere 1
Poe 1
Poelvo@@ 1
Poincar@@ 1
Poissons 1
Poker 1
Polen 1
Politiker 1
Politikerin 1
Politko@@ 1
Polizei@@ 1
Pompiers 1
Ponder@@ 1
Pont-@@ 1
Poor' 1
Pop@@ 1
Popp@@ 1
Porto 1
Porzellan 1
Posi@@ 1
Post 1
Post@@ 1
Poul@@ 1
Pour@@ 1
Power@@ 1
Poyet 1
Pr 1
Pragmar 1
Pratique 1
Pratiquement 1
Praud 1
Pre@@ 1
Preis 1
Preis@@ 1
Premier@@ 1
Premiers 1
Pren@@ 1
Pres@@ 1
Presley 1
Pressé 1
Prest 1
Princ@@ 1
Princip@@ 1
Priv@@ 1
Private 1
ProB 1
Prober 1
Probleme 1
Prochaine 1
Prodomo 1
Profess@@ 1
Progressivement 1
Proje@@ 1
Projekt 1
Projekt@@ 1
Projet 1
Prom@@ 1
Promotion 1
Pronith 1
Propag@@ 1
Property 1
Prosp@@ 1
Prot@@ 1
Protest 1
Proulx 1
Proven@@ 1
Provin@@ 1
Prozent@@ 1
Prozession 1
Pru@@ 1
Prés 1
Psychological 1
Puccini 1
Pueb@@ 1
Pul@@ 1
Pum@@ 1
Pur@@ 1
Putz@@ 1
Py@@ 1
Pères 1
Pécr@@ 1
Pédi@@ 1
Pél@@ 1
Péri@@ 1
Pét@@ 1
Péti@@ 1
QUE 1
QUI 1
Qabo@@ 1
Qae@@ 1
Qaida 1
Qualcom@@ 1
Quar@@ 1
Quart 1
Quartal 1
Quartier 1
Quartiers 1
Quatuor 1
Queen' 1
Quel@@ 1
Quelles 1
Quels 1
Quentin 1
Quey@@ 1
Quimper 1
Quin@@ 1
Quoique 1
Québ@@ 1
R.- 1
R.@@ 1
R2 1
R2@@ 1
R62 1
RAIN 1
RAM@@ 1
RAT@@ 1
RB@@ 1
RCA 1
RD@@ 1
RFID 1
RIA@@ 1
RIEGE@@ 1
RIS@@ 1
RIV@@ 1
RL@@ 1
RM@@ 1
RMA 1
RN 1
RON 1
RRE 1
RTC 1
RU@@ 1
RV 1
RX 1
RX@@ 1
Rabbin@@ 1
Rach@@ 1
Raf@@ 1
Rahmen 1
Rai@@ 1
Ralph 1
Rami@@ 1
Ramstein 1
Rand@@ 1
Rannen@@ 1
Rant@@ 1
Raph@@ 1
Rapi@@ 1
Rar@@ 1
Rasch@@ 1
Rass@@ 1
Rasser 1
Rathaus@@ 1
Rau@@ 1
Raut@@ 1
Ray@@ 1
Raz@@ 1
Reagan 1
Real 1
Rebel 1
Rec@@ 1
Recep 1
Rechnung 1
Recommand@@ 1
Reconnu 1
Recueil 1
Red@@ 1
Redakt@@ 1
Rede 1
Reduktionsziele 1
Reebok 1
Reef 1
Reev@@ 1
Refaire 1
Refl@@ 1
Refus@@ 1
Regar@@ 1
Regelung 1
Regev 1
Regierung 1
Reh@@ 1
Reich@@ 1
Reichs@@ 1
Reichst@@ 1
Reichweite 1
Rein@@ 1
Reine 1
Reisende 1
Relev@@ 1
Relief 1
Remarqu@@ 1
Remis 1
Renaissance 1
Renn@@ 1
Renter 1
Repas 1
Repenser 1
Repos 1
Requi@@ 1
Requill@@ 1
Ressourcen 1
Restaur@@ 1
Retz@@ 1
Revill@@ 1
Revoir 1
Revolution 1
Rex@@ 1
Reyn@@ 1
Rg8-@@ 1
Rhein 1
Rhein@@ 1
Rhode 1
Rhén@@ 1
Rhô@@ 1
Rice 1
Richards 1
Richtlinien 1
Rico 1
Rih@@ 1
Riner 1
Ring@@ 1
Risch@@ 1
Rise 1
Risser 1
Rist 1
Ritu@@ 1
Rivi@@ 1
Rmistes 1
Road 1
Robert-@@ 1
Roberts 1
Roberts@@ 1
Robien 1
Robinson 1
Rocard 1
Roche 1
Roches 1
Rock@@ 1
Rod 1
Rodol@@ 1
Rodri@@ 1
Roessel 1
Roger-H@@ 1
Rogge 1
Roh@@ 1
Rohn 1
Rohstoffe 1
Roiss@@ 1
Rolf 1
Rolin 1
Roll@@ 1
Rolling 1
Rom 1
Rom@@ 1
Roman@@ 1
Romy 1
Ronaldinho 1
Ronaldo 1
Rond@@ 1
Room 1
Roquet@@ 1
Ros 1
Rosa 1
Rosalind 1
Roselière 1
Rosen@@ 1
Rosenborg 1
Rosier 1
Rostei@@ 1
Roten 1
Rountzenheim 1
Rover 1
Rovers 1
Roy@@ 1
Rozon 1
Run 1
Russ@@ 1
Russe 1
Russen 1
Rut@@ 1
Rwand@@ 1
Ryth@@ 1
Réc@@ 1
Réci@@ 1
Rég@@ 1
Régie 1
Rém@@ 1
Réserv@@ 1
Réussir 1
Rêve 1
Rös@@ 1
Rücktritt 1
S.A 1
SAIC 1
SAL@@ 1
SAN@@ 1
SANS 1
SAS 1
SBR 1
SBR@@ 1
SCE@@ 1
SCH 1
SED 1
SEI@@ 1
SEN@@ 1
SER@@ 1
SF@@ 1
SGE 1
SIE@@ 1
SIEGE@@ 1
SIS 1
SJ@@ 1
SLINGEN 1
SM@@ 1
SN 1
SN@@ 1
SO 1
SON 1
SON@@ 1
SQ 1
SR@@ 1
SS@@ 1
SSM@@ 1
ST 1
STEIN 1
STEIN@@ 1
SU@@ 1
SUN@@ 1
SUR 1
SUR@@ 1
SV 1
SW@@ 1
SWILLER.- 1
Sab@@ 1
Sac@@ 1
Sach@@ 1
Sad 1
Sad@@ 1
Sags 1
Saguen@@ 1
Salas 1
Sall@@ 1
Salt 1
Salt@@ 1
Salvatore 1
Salz@@ 1
Samir 1
Sand@@ 1
Sander 1
Sandy 1
Sania 1
Sanni@@ 1
Santa 1
Santi@@ 1
Santiago 1
Sao 1
Sarre@@ 1
Sarreguem@@ 1
Sartre 1
Sas@@ 1
Sascha 1
Sat@@ 1
Satur@@ 1
Sauer 1
Saus@@ 1
Saut 1
Saver@@ 1
Scal@@ 1
Scha@@ 1
Schabis 1
Schadensersatz 1
Schaeff@@ 1
Schaff@@ 1
Schal@@ 1
Schalke 1
Schar@@ 1
Schatt 1
Schau@@ 1
Schei@@ 1
Schell@@ 1
Schen@@ 1
Scher@@ 1
Schey@@ 1
Schiff 1
Schil@@ 1
Schill@@ 1
Schilling 1
Schillé 1
Schirr@@ 1
Schl@@ 1
Schlachter 1
Schlagzeilen 1
Schle@@ 1
Schlier@@ 1
Schließung 1
Schloss@@ 1
Schlu@@ 1
Schmal@@ 1
Schmi@@ 1
Schmid 1
Schmit@@ 1
Schmuck 1
Schmut@@ 1
Schn@@ 1
Schne@@ 1
Schnee 1
Schnei@@ 1
Schno@@ 1
Schnée 1
Schoff@@ 1
Schon 1
Schong@@ 1
School 1
Schop@@ 1
Schran@@ 1
Schreiber 1
Schreiner 1
Schri@@ 1
Schriftsteller 1
Schritt 1
Schro@@ 1
Schröder 1
Schuh 1
Schul@@ 1
Schumacher 1
Schuster 1
Schutz 1
Schwan@@ 1
Schwarzenegger 1
Schweiger 1
Schweis@@ 1
Schwen@@ 1
Schwäche 1
Sci@@ 1
Scooter 1
Scr@@ 1
Scuderia 1
Sean 1
Seattle 1
Secon@@ 1
Securities 1
See 1
Seeb@@ 1
Seher 1
Seign@@ 1
Seill@@ 1
Sein 1
Sein@@ 1
Seinfeld 1
Seit 1
Seiten 1
Sekunde 1
Sekunden 1
Selbstmordanschlag 1
Seltz 1
Semin@@ 1
Senn@@ 1
Sens 1
Senti@@ 1
Seppois-@@ 1
Serbiens 1
Serge@@ 1
Series 1
Serr@@ 1
Services 1
Sessenheim 1
Sex 1
Seymour 1
Shal@@ 1
Shiller 1
Shop 1
Shut@@ 1
Sic@@ 1
Sicili@@ 1
Sidr 1
Sign@@ 1
Sik@@ 1
Sill@@ 1
Sin@@ 1
Sind 1
Sind@@ 1
Sindh 1
Sing@@ 1
Singh 1
Sinne 1
Sitzen 1
Ska 1
Skandalen 1
Ski-@@ 1
Ski@@ 1
Sl@@ 1
Smi@@ 1
Smit@@ 1
Smur@@ 1
Smythe 1
Sn@@ 1
Sneakers 1
Snow 1
So 1
Sob@@ 1
Sobre 1
Soch@@ 1
Solar 1
Solo 1
Somme 1
Sommer@@ 1
Sondheim 1
Song 1
Sonn@@ 1
Sotchi 1
Sour@@ 1
Sox 1
Soy@@ 1
Span@@ 1
Spann@@ 1
Spart@@ 1
Spears 1
Spect@@ 1
Spice 1
Spiegelbild 1
Spielberg 1
Spl@@ 1
Splendi@@ 1
Spon@@ 1
Sports@@ 1
Sprecher 1
Springins@@ 1
Squa@@ 1
Square 1
Sragen 1
Sri 1
St-S@@ 1
St. 1
Staaten 1
Staats@@ 1
Staatsanwaltschaft 1
Staffel@@ 1
Stam@@ 1
Stan@@ 1
Stanley 1
Stanst@@ 1
Stasi@@ 1
Stast@@ 1
Statt@@ 1
Staub 1
Stavros 1
Ste 1
Stef@@ 1
Stefan 1
Stehlin 1
Stei@@ 1
Steinbrunn-@@ 1
Stelle 1
Stellungn@@ 1
Stelvio 1
Stend@@ 1
Step@@ 1
Stern 1
Stern@@ 1
Stev@@ 1
Stevens 1
Stewar@@ 1
Stich@@ 1
Stieg 1
Stirn 1
Stob@@ 1
Stoc@@ 1
Stock 1
Stock@@ 1
Stoff@@ 1
Stones 1
Storck@@ 1
Stot@@ 1
Stra@@ 1
Strack@@ 1
Stradale 1
Straka 1
Stras@@ 1
Strateg@@ 1
Stratégique 1
Straumann 1
Strauss-@@ 1
Streik 1
Stri@@ 1
Stroh@@ 1
Stràhle 1
Strél@@ 1
Sts-@@ 1
Stu@@ 1
Stul@@ 1
Stunden@@ 1
Stuttgart 1
Styx 1
Städ@@ 1
Städten 1
Stève 1
Stéph@@ 1
Sub@@ 1
Suche 1
Sue 1
Suez 1
Sul@@ 1
Sum@@ 1
Sunday 1
Supermärkte 1
Suzuki 1
Svat@@ 1
Swan 1
Swe@@ 1
Swell 1
Swiss 1
Swiss@@ 1
Sydney 1
Sylv@@ 1
Symbol 1
Sympath@@ 1
Syr@@ 1
Systems 1
SÈ@@ 1
Sâ@@ 1
Séc@@ 1
Ségolène 1
Sélection 1
Sén@@ 1
Sö@@ 1
Sü@@ 1
T-@@ 1
T-L@@ 1
TA 1
TAG@@ 1
TAM 1
TD 1
TENHEIM 1
TG@@ 1
THEIM 1
TIE@@ 1
TIST@@ 1
TL 1
TN@@ 1
TO 1
TOH@@ 1
TPG 1
TR 1
TR@@ 1
TRI@@ 1
TRO@@ 1
TSAL@@ 1
TT@@ 1
TV 1
TWILLER 1
Taaffe 1
Tadi@@ 1
Taffe 1
Tage 1
Tages 1
Tah@@ 1
Taillant 1
Taille 1
Tailles 1
Tak@@ 1
Talent 1
Tall@@ 1
Tamm@@ 1
Tana 1
Tando 1
Tania 1
Tantôt 1
Tanz@@ 1
Tar@@ 1
Tari@@ 1
Tarif 1
Tart 1
Tart@@ 1
Tas 1
Taser 1
Tasse 1
Tasset 1
Tat 1
Tav@@ 1
Tax@@ 1
Taxi 1
Tayyip 1
Tbil@@ 1
Tcher@@ 1
Tech@@ 1
Technologi@@ 1
Teil 1
Tein@@ 1
Teinture 1
Tel 1
Tele 1
Tele@@ 1
Telekom 1
Television 1
Tell@@ 1
Ten 1
Ten@@ 1
Tend@@ 1
Tent@@ 1
Teresa 1
Terr@@ 1
Territ@@ 1
Terry 1
Tes 1
Tessier 1
Texte 1
Textr@@ 1
Th1xCh@@ 1
ThaJ@@ 1
Thal@@ 1
Thank 1
Tharaud 1
Thaï@@ 1
Theater 1
Theodor 1
Thill 1
Thin@@ 1
Thompson 1
Thomson 1
Thuet 1
Thép@@ 1
Tief@@ 1
Tiers 1
Tiger 1
Til@@ 1
Till@@ 1
Tin@@ 1
Tino 1
Tirs 1
Titt@@ 1
Tle 1
Tob@@ 1
Tochter 1
Tog@@ 1
Toh@@ 1
Toll@@ 1
Tom@@ 1
Tomb@@ 1
Tome 1
Tomm@@ 1
Tommy 1
Ton 1
Toro 1
Tot@@ 1
Total 1
Tote 1
Totten@@ 1
Toul@@ 1
Touré 1
Tower 1
Tradi@@ 1
Traff@@ 1
Trag@@ 1
Training 1
Transport 1
Trau@@ 1
Trauer 1
Tres@@ 1
Trib@@ 1
Trich@@ 1
Trie@@ 1
Trin@@ 1
Tripp 1
Troph@@ 1
Trou@@ 1
Trän@@ 1
Tschad 1
Tschechien 1
Tube 1
Turck@@ 1
Turi@@ 1
Twir@@ 1
Two 1
Ty@@ 1
Tzi@@ 1
Tä@@ 1
Täter 1
Tôles 1
UBER@@ 1
UC 1
UDER@@ 1
UDR 1
UE@@ 1
UELS@@ 1
UEN@@ 1
UF 1
UFA 1
UHA 1
UM 1
UNES@@ 1
UNI@@ 1
UNICEF 1
UPS 1
UQ@@ 1
US-Währung 1
UV 1
Uc 1
Udai@@ 1
Ude@@ 1
Ueb@@ 1
Uff@@ 1
Uhr@@ 1
Uly@@ 1
Um 1
Umsatz 1
Umstände 1
Umwelt 1
Umwälzung 1
Umzug 1
Unafam 1
Unal 1
Undergro@@ 1
Unesco 1
Ungerechtigkeit 1
Ungerer 1
Unglück@@ 1
Unisfera 1
Univers@@ 1
Universal 1
Unsa 1
Unternehmen 1
Untz 1
Unwesen 1
Urban 1
Uros 1
Us 1
Usine 1
Usé 1
Ut@@ 1
Utard 1
Uti@@ 1
V. 1
VA 1
VAM 1
VEN@@ 1
VF 1
VLM 1
VP 1
Vah@@ 1
Vais@@ 1
Valenci@@ 1
Valent@@ 1
Valin 1
Valley 1
Vallois 1
Vallées 1
Vand@@ 1
Var@@ 1
Vas@@ 1
Vass@@ 1
Vaste 1
Vater 1
Vats 1
Vedette 1
Veg@@ 1
Veh@@ 1
[...]
